{"<s>":0,"<pad>":1,"</s>":2,"<unk>":3,"<mask>":4,"!":5,"\"":6,"#":7,"$":8,"%":9,"'":10,"(":11,")":12,"*":13,",":14,"-":15,".":16,"/":17,"0":18,"1":19,"2":20,"3":21,"4":22,"5":23,"6":24,"7":25,"8":26,"9":27,":":28,";":29,"<":30,"?":31,"@":32,"A":33,"B":34,"C":35,"D":36,"E":37,"F":38,"G":39,"H":40,"I":41,"J":42,"K":43,"L":44,"M":45,"N":46,"O":47,"P":48,"Q":49,"R":50,"S":51,"T":52,"U":53,"V":54,"W":55,"Y":56,"[":57,"\\":58,"]":59,"_":60,"a":61,"b":62,"c":63,"d":64,"e":65,"f":66,"g":67,"h":68,"i":69,"k":70,"l":71,"m":72,"n":73,"o":74,"p":75,"r":76,"s":77,"t":78,"u":79,"v":80,"w":81,"x":82,"y":83,"z":84,"{":85,"|":86,"~":87,"¡":88,"¢":89,"£":90,"¤":91,"¥":92,"¦":93,"§":94,"¨":95,"©":96,"ª":97,"«":98,"¬":99,"®":100,"¯":101,"°":102,"±":103,"²":104,"µ":105,"¶":106,"·":107,"¸":108,"¹":109,"º":110,"¼":111,"¾":112,"¿":113,"Â":114,"Ã":115,"Å":116,"Ì":117,"à":118,"â":119,"ï":120,"Ċ":121,"č":122,"Ġ":123,"Ģ":124,"ģ":125,"Ĥ":126,"ĥ":127,"ħ":128,"Ĩ":129,"ĩ":130,"Ī":131,"ī":132,"Ĭ":133,"ĭ":134,"Į":135,"į":136,"ı":137,"Ĳ":138,"Ĵ":139,"ĵ":140,"Ķ":141,"ķ":142,"ĸ":143,"Ĺ":144,"ĺ":145,"Ļ":146,"ļ":147,"Ľ":148,"ľ":149,"Ŀ":150,"ŀ":151,"Ł":152,"ł":153,"Ń":154,"à¤":155,"à¥":156,"Ġà¤":157,"à¤¾":158,"à¥į":159,"à¤°":160,"à¤¨":161,"à¤¿":162,"à¤ķ":163,"à¥ĩ":164,"à¥ĭ":165,"à¤²":166,"à¤®":167,"à¤¤":168,"à¤¯":169,"à¥ģ":170,"à¥Ģ":171,"à¤¸":172,"Ġà¤¸":173,"Ġà¤ª":174,"à¤ª":175,"à¤¦":176,"à¤¹":177,"à¤µ":178,"à¥¤":179,"Ġà¤ķ":180,"Ġà¤Ĺ":181,"à¤Ĺ":182,"à¥Ī":183,"Ġà¤°":184,"Ġà¤¨":185,"à¤Ł":186,"à¤ı":187,"Ġà¤Ń":188,"Ġà¤ħ":189,"Ġà¤¬":190,"Ġà¤¹":191,"Ġà¤®":192,"Ġà¤Ĺà¤°":193,"à¤ľ":194,"Ġà¤µ":195,"à¤¬":196,"à¤·":197,"à¤§":198,"Ġà¤Ľ":199,"Ġà¤¤":200,"à¤ģ":201,"Ġà¤¦":202,"à¤ıà¤ķ":203,"à¤¥":204,"Ġà¥¤":205,"à¤¶":206,"à¤Ĥ":207,"Ġà¤Ĩ":208,"Ġà¤ľ":209,"à¤Ľ":210,"à¤£":211,"Ġà¤²":212,"à¤ļ":213,"à¤Ī":214,"à¥Ĥ":215,"Ġà¤ī":216,"à¤¡":217,"à¤Ń":218,"à¤ī":219,"à¤ĸ":220,"Ġà¤¯":221,"âĢ":222,"Ġà¥":223,"Ġà¤¸à¤®":224,"à¤ĩ":225,"à¤°à¤ķ":226,"Ġà¤Ńà¤¨":227,"à¤¹à¤°":228,"à¤°à¤®":229,"Ġà¤ļ":230,"à¤«":231,"Ġà¤¥":232,"Ġà¤ªà¤¨":233,"à¤īà¤¨":234,"à¥Į":235,"Ġà¤ı":236,"à¤¯à¤ķ":237,"à¤°à¤¤":238,"Ġà¤ĸ":239,"à¤¨à¤ķ":240,"Ġà¤¶":241,"à¤¾à¤ģ":242,"Ġà¤Ńà¤ıà¤ķ":243,"Ġà¤ħà¤¨":244,"Ġà¤ªà¤°":245,"à¤ł":246,"à¥ĥ":247,"à¤¸à¤ķ":248,"Ġà¤«":249,"à¤°à¤£":250,"à¤ªà¤°":251,"ĠâĢ":252,"à¤ľà¤¨":253,"à¤¸à¤®":254,"Ġà¤Ľà¤¨":255,"à¤¨à¤²":256,"à¥įà¥¤":257,"à¤¨à¤®":258,"âĢĻ":259,"à¤µà¤¸":260,"à¥¦":261,"ĠâĢĺ":262,"à¤ĺ":263,"Ġà¤¬à¤¨":264,"à¤¢":265,"Ġà¤¸à¤ķ":266,"à¥ĭà¥¤":267,"Ġà¤ľà¤¨":268,"à¤¯à¤®":269,"Ġà¤°à¤¹":270,"Ġà¤¯à¤¸":271,"à¤°à¤¹":272,"Ġà¤®à¤¹":273,"Ġà¥¨":274,"à¤²à¤ķ":275,"Ġà¤ıà¤ķ":276,"Ġà¤Ł":277,"ĠĊ":278,"à¤¯à¤¸":279,"Ġà¤§":280,"Ġà¥§":281,"à¤Ļ":282,"Ġà¤ĺ":283,"à¤°à¤²":284,"à¤ŀ":285,"à¤ªà¤¨":286,"à¤¯à¤¤":287,"Ġà¤¸à¤°à¤ķ":288,"Ġà¤ħà¤§":289,"Ġà¤Ĩà¤«":290,"à¤²à¤®":291,"à¤Ĺà¤°":292,"à¤ªà¤Ľ":293,"Ġà¤¸à¤¹":294,"à¤¤à¤°":295,"Ġà¤¤à¤°":296,"Ġà¤µà¤°":297,"Ġà¤¬à¤¢":298,"Ġà¤¡":299,"âĢĵ":300,"Ġà¤¬à¤¤":301,"Ġà¤¤à¤¥":302,"à¤Ŀ":303,"Ġà¤īà¤ª":304,"Ġà¤ħà¤°":305,"à¤°à¤¸":306,"à¤°à¤¦":307,"à¤ĩà¤¨":308,"à¤Ľà¤¨":309,"à¥Įà¤Ĥ":310,"à¤ıà¤°":311,"à¥ģà¤ģ":312,"Ġà¤ķà¤®":313,"à¤ħ":314,"Ġà¤īà¤¨à¤²":315,"à¤ªà¤¤":316,"à¤ªà¤®":317,"à¤ķà¤²":318,"Ġà¤®à¤¨":319,"à¤ķà¤®":320,"Ġà¥§à¥":321,"Ġà¤ł":322,"Ġà¤ķà¤°":323,"Ġà¤²à¤Ĺ":324,"Ġà¤ĩ":325,"à¤¾,":326,"à¤¯à¤¨":327,"à¤¾à¤Ĥ":328,"à¤¬à¤¨":329,"à¤®à¤ķ":330,"à¥ĩ,":331,"Ġà¤Ńà¤ı":332,"Ġà¤īà¤¤":333,"Ġà¤īà¤¨":334,"čĊ":335,"Ġà¤ªà¤¹":336,"Ġà¤¸à¤¬":337,"à¤°à¤µ":338,"à¤¯à¤µà¤¸":339,"Ġà¤Ĩà¤¯":340,"à¤¤à¤ķ":341,"à¤Łà¤ķ":342,"à¤¯à¤²":343,"Ġà¤ħà¤µà¤¸":344,"Ġà¤ħà¤¸":345,"à¤¶à¤ķ":346,"Ġà¥¨à¥¦":347,"à¤¸à¤²":348,"à¤²à¤²":349,"Ġà¤ħà¤¹":350,"à¤µà¤°":351,"à¤Ĺà¤¤":352,"à¤µà¤¨":353,"à¤·à¤£":354,"à¤²à¤¬":355,"Ġà¤ħà¤Ń":356,"à¤¸à¤¨":357,"à¤Ńà¤¨":358,"à¤¤à¤¨":359,"à¥§":360,"à¤Ĩ":361,"Ġà¤Ĩà¤ıà¤ķ":362,"Ġà¤Ĩà¤°":363,"à¤°à¤¬":364,"Ġà¤¬à¤¸":365,"à¤ļà¤¨":366,"à¤µà¤ķ":367,"à¤°à¤§":368,"à¤Łà¤¨":369,"à¤²à¤¨":370,"à¥«":371,"à¤¨à¤¨":372,"Ġ(":373,"à¤°à¤¹à¤°":374,"à¤°à¤¯":375,"à¤ķà¤ķ":376,"Ġà¥©":377,"à¤®à¤¤":378,"à¥Ģ,":379,"à¥ĭ,":380,"Ġà¤īà¤¦":381,"à¤ķà¤°":382,"à¤ĩà¤°à¤¹":383,"Ġà¤¸à¤ŀ":384,"Ġà¤¸à¤¨":385,"à¤Łà¤°":386,"Ġ?":387,"Ġà¤¸à¤°":388,"Ġà¤Ĺà¤¤":389,"à¤łà¤®":390,"à¤¿à¤ģ":391,"à¤¸à¤°":392,"à¤ªà¤ķ":393,"Ġà¤Ĩà¤µ":394,"à¥Įà¤ģ":395,"à¤¤à¤®":396,"à¥Ń":397,"à¥ĩà¥¤":398,"Ġà¥«":399,"à¤®à¤¨":400,"Ġà¤ĵ":401,"Ġà¤¹à¤ľ":402,"Ġà¤¬à¤ľ":403,"à¥¨":404,"Ġà¤ħà¤®":405,"Ġà¤Ŀ":406,"à¤ĥ":407,"Ġà¤Ĩà¤§":408,"à¤«à¤²":409,"à¤¨à¤®à¤¨":410,"Ġà¤¸à¤®à¤¸":411,"à¥Īà¤Ĥ":412,"à¤¦à¤¨":413,"Ġà¤¨à¤¯":414,"à¤·à¤ķ":415,"Ġà¤¨à¤Ĺà¤°":416,"à¤ĩà¤ıà¤ķ":417,"Ġà¤ªà¤ķ":418,"Ġà¤īà¤¨à¤ķ":419,"à¤¨à¤¸":420,"à¤īà¤Ł":421,"à¤°à¤®à¤£":422,"à¥į,":423,"à¤°à¤¶":424,"Ġà¤¸à¤¯":425,"à¤°à¤Ń":426,"à¥¬":427,"à¤Ĺà¤ķ":428,"à¤®à¤®":429,"à¤¡à¤ķ":430,"à¤¤à¤²":431,"à¥ª":432,"Ġà¤ľà¤¨à¤¤":433,"à¤ıà¤¨":434,"à¤¸à¤¦":435,"Ġà¤ĸà¤°":436,"Ġà¤¢":437,"à¤ķà¤°à¤£":438,"Ġà¤¸à¤¦":439,"Ġà¤¸à¤®à¤¯":440,"à¤²à¤¯":441,"à¤ľà¤ķ":442,"Ġà¤ļà¤²":443,"Ġà¥¬":444,"à¤§à¤¨":445,"Ġà¥ª":446,"à¤°à¤®à¤®":447,"Ġà¤ıà¤īà¤Ł":448,"Ġà¤ľà¤¸":449,"Ġà¤¤à¤¯":450,"Ġà¤ªà¤Ľ":451,"à¥©":452,"à¤Ĺà¤²":453,"à¤ľà¤¸":454,"Ġà¤ªà¤¦":455,"à¤¯à¤¹":456,"Ġà¤¨à¤Ń":457,"Ġà¤¯à¤¹":458,"à¤ħà¤¨":459,"à¤ķà¤¤":460,"à¤®à¤²":461,"à¤µà¤²":462,"Ġà¤Ńà¤¯":463,"Ġà¤ħà¤¬":464,"à¤·à¤®":465,"Ġà¤Ĩà¤µà¤¶":466,"à¤Łà¤®":467,"Ġà¤ªà¤¤":468,"à¤µà¤®":469,"Ġà¤ķà¤²":470,"Ġà¤¸à¤¹à¤¯":471,"à¤¶à¤¨":472,"Ġà¤Ĩà¤ĩ":473,"Ġà¤¦à¤°":474,"à¤¯à¤°":475,"Ġà¤ķà¤¤":476,"Ġà¤ħà¤µ":477,"Ġà¤ħà¤ĺ":478,"Ġà¤Ĩà¤īà¤¨":479,"Ġà¤¤à¤¹":480,"Ġà¤ĩà¤¨":481,"Ġà¤īà¤ķ":482,"à¤ĵ":483,"à¤¶à¤®":484,"Ġà¤¹à¤°":485,"à¤¿à¤Ĥ":486,"Ġà¤Ķ":487,"à¤¬à¤°":488,"Ġà¤ħà¤Ĺ":489,"ĠâĢĵ":490,"Ġà¥Ń":491,"Ġà¤īà¤²":492,"à¤¶à¤¤":493,"Ġà¤ıà¤®":494,"à¤Ĺà¤®":495,"Ġà¤¦à¤²":496,"Ġà¤ķà¤¸":497,"Ġà¤Ńà¤ĩà¤°à¤¹":498,"Ġà¤®à¤§":499,"à¤¹à¤¨":500,",âĢĻ":501,"Ġà¤¯à¤¸à¤ķ":502,"Ġà¤ĺà¤°":503,"Ġà¤¸à¤¦à¤¸":504,"Ġà¤¨à¤¸à¤ķ":505,"à¤µà¤ľà¤¨":506,"à¥®":507,"à¤²à¤Ĺ":508,"à¤·à¤¯à¤®":509,"Ġà¤¯à¤¸à¤²":510,"Ġà¤ħà¤ª":511,"à¤Ńà¤°":512,"à¤ħà¤ĺ":513,"Ġà¤¬à¤°":514,"Ġà¤¤à¤ª":515,"Ġà¤¬à¤¹":516,"à¤¯à¤µ":517,"à¤·à¤¯":518,"Ġà¤¬à¤²":519,"Ġà¤ĵà¤²":520,"à¤¯à¤¸à¤ķ":521,"à¤¦à¤°":522,"Ġà¤Ĩà¤¨":523,"à¥¯":524,"ĠĠ":525,"à¤ĩà¤¸à¤ķ":526,"Ġà¤īà¤ļ":527,"Ġà¤Ĩà¤Ĺ":528,"à¤Łà¤²":529,"Ġà¤¥à¤ª":530,"Ġà¤ħà¤¤":531,"à¤ıà¤ªà¤Ľ":532,"Ġà¤īà¤ł":533,"à¤ķà¤¨":534,"Ġà¤ħà¤¦":535,"Ġà¥§à¥¦":536,"Ġà¤¨à¤¹":537,"Ġà¤«à¤°":538,"Ġà¤Ĺà¤ıà¤ķ":539,"Ġà¤®à¤²":540,"à¤°à¤ªà¤¤":541,"à¥¤âĢĻ":542,"Ġà¤¸à¤¹à¤Ń":543,"à¤°à¤¨":544,"Ġà¤¸à¤¤":545,"Ġà¥®":546,"Ġà¤ıà¤¨":547,"Ġà¤ļà¤°":548,"à¤²à¤¤":549,"à¤£à¤¯":550,"à¤®à¤ļ":551,"à¤ļà¤ķ":552,"Ġà¤¸à¤Ń":553,"à¤¥à¤®":554,"Ġà¤¨à¤¦":555,"à¤¨à¤°":556,"à¤ĸà¤°":557,"Ġà¤¸à¤®à¤¯à¤®":558,"Ġà¤ķà¤¸à¤°":559,"Ġà¤¶à¤°":560,"à¤ªà¤²":561,"Ġà¤ªà¤Łà¤ķ":562,"à¤Ńà¤µ":563,"Ġà¤¤à¤¤":564,"Ġà¤īà¤®":565,"Ġà¤®à¤¹à¤¤":566,"à¤¬à¤²":567,"Ġà¤¨à¤®":568,"ĠčĊ":569,"à¤£à¤ķ":570,"à¤µà¤¯":571,"Ġà¤²à¤ķ":572,"à¤¯à¤¸à¤²":573,"à¤¨à¤µ":574,"à¤¿,":575,"Ġà¤Ĳ":576,"à¥Īà¤ģ":577,"Ġà¤Ĺà¤ł":578,"à¤¹à¤ķ":579,"à¤·à¤¦":580,"Ġà¤Ńà¤°":581,"Ġà¤ħà¤Ŀ":582,"Ġà¤¸à¤«à¤²":583,"à¤µà¤ª":584,"Ġà¤¯à¤¤":585,"Ġà¥¯":586,"Ġà¤ķà¤¹":587,"Ġà¤Ĩà¤ķ":588,"à¤µà¤°à¤£":589,"à¤¯à¤¤à¤ķ":590,"Ġà¤Ľà¤²":591,"à¤²à¤¯à¤ķ":592,"Ġà¥¨à¥¦à¥§":593,"à¤ľà¤®":594,"à¤¾.":595,"à¤ĵà¤µ":596,"Ġà¤ħà¤²":597,"Ġà¤°à¤ķà¤®":598,"Ġà¤īà¤ªà¤ļ":599,"à¤¡à¤®":600,"à¤¯à¤¸à¤®":601,"à¤·à¤¤":602,"Ġà¤īà¤ªà¤²à¤¬":603,"à¤¨à¤¬":604,"à¤¸à¤¹":605,"Ġà¤ħà¤«":606,"Ġà¤°à¤¹à¤¨":607,"Ġà¤Ńà¤ıà¤°":608,"Ġà¤¨à¤Ńà¤ıà¤ķ":609,"à¤ĩà¤²":610,"à¥įâĢ":611,"à¤¤à¤µ":612,"Ġà¤¦à¤ķ":613,"Ġà¤ĺà¤Łà¤¨":614,"à¤«à¤¤":615,"à¤¦à¤ķ":616,"à¤ľà¤Ĺ":617,"Ġ'":618,"à¤¤à¤°à¤£":619,"Ġà¤ıà¤¸":620,"à¤Ĩà¤°":621,"à¤²à¤¯à¤²":622,"à¤°à¤¦à¤°":623,"à¤¨à¤¤":624,"Ġà¤Ĩà¤ī":625,"à¤¯à¤ª":626,"Ġà¤¸à¤ļ":627,"Ġà¤®à¤¤":628,"Ġà¤¶à¤ķ":629,"Ġà¤¸à¤¡à¤ķ":630,"Ġà¤Ĩà¤®":631,"Ġà¤µà¤Ł":632,"Ġà¤ªà¤ł":633,"à¤ĺà¤ķ":634,"à¤ľà¤²":635,"Ġà¤Ĩà¤¦":636,"à¤§à¤ķ":637,"Ġà¤ľà¤°":638,"Ġà¤Ńà¤ıà¤ªà¤Ľ":639,"à¥įâĢį":640,"à¤¦à¤²":641,"Ġà¤Ĩà¤¶":642,"Ġà¤īà¤¹":643,"à¤ıà¤¸":644,"Ġà¤¨à¤Ĺà¤°à¤ª":645,"à¤²à¤¸":646,"à¤®à¤¬":647,"Ġà¤ľà¤Ĺ":648,"Ġà¤Ńà¤ĩà¤¸à¤ķ":649,"Ġà¤ıà¤µ":650,"à¤¾à¥ĩ":651,"Ġà¥¤âĢĻ":652,"Ġà¤Ĩà¤ľ":653,"à¤ĩà¤¦":654,"à¤¸à¤Ń":655,"à¤ªà¤Łà¤ķ":656,"Ġà¤§à¤°":657,"à¤ªà¤¯":658,"Ġà¤ľà¤®":659,"à¤§à¤¤":660,"à¤µà¤¤":661,"à¤¸à¤¬":662,"Â¥":663,"à¤°à¤¤à¤ķ":664,"Ġà¥§à¥¯":665,"à¤¶à¤²":666,"à¤¦à¤®":667,"Ġà¤ıà¤ķà¤¤":668,"à¤¹à¤²":669,"Ġà¤¹à¤¸":670,"à¤°à¤ª":671,"à¤Ńà¤ıà¤ķ":672,"Ġà¤Ľà¤²à¤«à¤²":673,"à¤¯à¤¯à¤¨":674,"Ġà¤¨à¤ª":675,"à¤§à¤®":676,"à¤¾âĢĵ":677,"à¤¤à¤¬":678,"à¤°à¤ľ":679,"à¤¬à¤¦":680,"Ġà¥¨à¥¦à¥Ń":681,"à¤°à¤£à¤®":682,"à¤®à¤§":683,"à¤Ļà¤ķ":684,"Ġà¤Ĩà¤¤":685,"à¤°à¤ļà¤¨":686,"à¤ķà¤ª":687,"à¤ªà¤¦":688,"à¤Ĺà¤ł":689,"Ġà¤¸à¤¹à¤®à¤¤":690,"à¤°à¤ļ":691,"Ġà¤¨à¤°":692,"Ġà¥§à¥«":693,"à¤²à¤¨à¤®":694,"à¤¡à¤²":695,"à¤ķà¤¸":696,"Ġà¥§à¥¨":697,"Ġà¤¸à¤¹à¤ľ":698,"Ġà¤ªà¤¢":699,"à¤łà¤ķ":700,"à¤°à¤·":701,"Ġà¥«à¥¦":702,"Ġà¤ĺà¤Ł":703,"à¤²à¤¯à¤®":704,"à¤ļà¤®":705,"à¤·à¤®à¤¤":706,"à¤µà¤¯à¤¨":707,"Ġà¥¨à¥«":708,"Ġà¤®à¤°":709,"à¤¥à¤²":710,"à¤Ļà¤²":711,"à¥Įà¤Ĥà¥¤":712,"à¤Ĺà¤¦":713,"à¤ĩà¤Ł":714,"Ġà¤«à¤°à¤ķ":715,"Ġà¤ªà¤¶":716,"à¤²à¤µ":717,"Ġà¤ķà¤®à¤ľ":718,"Ġà¤Ŀà¤¨":719,"à¤ıà¤®":720,"Ġà¤¨à¤ľ":721,"Ġà¤¸à¤µ":722,"Ġà¤¬à¤ļ":723,"à¤¨à¤¸à¤ķ":724,"à¥ģ,":725,"âĢĻ,":726,"Ġà¤¯à¤¸à¤®":727,"à¤®à¤¸":728,"Ġà¤§à¤¨":729,"Ġà¤ľà¤¤":730,"Ġà¤¸à¤ľ":731,"à¤ľà¤°":732,"à¤ĩà¤ķ":733,"à¤¯à¤µà¤¹":734,"à¤¨à¤ª":735,"Ġà¤¸à¤¹à¤°":736,"Ġà¤¹à¤¤":737,"Ġà¤ħà¤µà¤§":738,"à¤Ńà¤¯":739,"Ġà¥§à¥§":740,"à¤ľà¤§":741,"à¤Īà¤²":742,"à¤¦à¤µ":743,"à¤ľà¤¦":744,"à¥ģà¤Ĥ":745,"à¤µà¤µ":746,"Ġà¤ħà¤ªà¤°":747,"Ġà¤¤à¤¹à¤ķ":748,"à¤¤à¤¤":749,"à¤¯à¤¸à¤ªà¤Ľ":750,"à¤ĩà¤°":751,"Ġà¤ĩà¤¤":752,"Ġà¤Ĺà¤łà¤¨":753,"Ġà¤¹à¤Ł":754,"à¤ľà¤¨à¤ķ":755,"à¤¹à¤¤":756,"à¤ªà¤£":757,"à¤¯à¤ķà¤¤":758,"Ġà¤ķà¤¨":759,"Ġà¤ľà¤¹":760,"à¤°à¤£à¤²":761,"à¤¹à¤®":762,"Ġà¤¦à¤²à¤ķ":763,"Ã·":764,"Ġà¤Ĺà¤£":765,"Ġà¤Ńà¤µ":766,"à¤·à¤²":767,"Ġà¤īà¤ªà¤¯":768,"Ġà¤¶à¤¨":769,"à¤²à¤°":770,"Ġà¤ķà¤ª":771,"Ġà¤¯à¤¸à¤ħà¤ĺ":772,"à¤Īà¤ķ":773,"Ġà¥©à¥¦":774,"à¤®à¤°":775,"à¤·à¤§":776,"Ġà¤¸à¤¹à¤ķ":777,"Ġà¤®à¤¸":778,"à¤°à¤®à¤£à¤ķ":779,"Ġà¤ıà¤¨à¤Ĩà¤°":780,"Ġà¤Ńà¤ıà¤¨":781,"à¤ķà¤Ł":782,"ĠĠĊ":783,"à¤µà¤¤à¤¨":784,"à¤®à¤¦":785,"Ġà¤Ńà¤Ł":786,"Ġà¤īà¤ªà¤¸":787,"à¤¸à¤¸":788,"Ġà¤ħà¤µà¤¸à¤°":789,"Ġà¤Ĳà¤¨":790,"à¤¯à¤¹à¤°":791,"Ġà¤ĸà¤¡":792,"à¤²à¤¨à¤ķ":793,"Ġà¤°à¤ķ":794,"Ġà¤µà¤¡":795,"à¤ľà¤¯":796,"à¤¬à¤¹":797,"Ġà¤Ĩà¤ª":798,"Ġà¤°à¤¨":799,"à¤¯à¤¯":800,"Ġà¤ľà¤¸à¤²":801,"à¤¤à¤ª":802,"à¤¯à¤ķà¤°":803,"Ġà¤¤à¤¸":804,"Ġà¤¸à¤®à¤¨":805,"Ġà¤Ĺà¤®":806,"à¤¯à¤Łà¤¨":807,"Ġà¤¸à¤®à¤°":808,"Ġà¤Ńà¤£":809,"à¤¥à¤ķ":810,"à¤ĸà¤ķ":811,"à¤®à¤Ĺ":812,"Ġà¤ıà¤ª":813,"Ġà¤¯à¤¸à¤¬":814,"à¤§à¤¨à¤ķ":815,"Ġà¤¯à¤¸à¤°":816,"à¤ļà¤²":817,"à¤ıà¤²":818,"Ġà¤¸à¤²":819,"à¤£à¤®":820,"à¤ķà¤°à¤£à¤ķ":821,"à¤§à¤°":822,"Ġà¤Ĩà¤ĩà¤¤à¤¬":823,"à¤¸à¤¨à¤²":824,"à¤¨à¤¸à¤®":825,"Ġà¥§à¥®":826,"à¤ªà¤·":827,"Ġà¤Ķà¤·à¤§":828,"Ġà¤¯à¤¦":829,"à¤¯à¤®à¤¨":830,"à¤ķà¤¤à¤¨":831,"Ġà¤ľà¤¨à¤ķ":832,"à¤¯à¤¬":833,"à¤°à¤¤à¤²":834,"Ġà¤ıà¤¨à¤Ĩà¤°à¤ıà¤¨":835,"à¥ģà¥¤":836,"à¤ĺà¤°":837,"à¥ĢâĢĻ":838,"Ġà¤°à¤®":839,"à¤µà¤¦":840,"Ġà¥§à¥¬":841,"Ġà¤¤à¤¹à¤®":842,"à¤¨à¤Ĺà¤°":843,"à¤¾âĢĻ":844,"à¤Ĺà¤¢":845,"Ġà¥§à¥ª":846,"à¥Ī,":847,"à¤§à¤¬":848,"à¤ĺà¤Łà¤¨":849,"Ġà¤Ńà¤¤":850,"à¤ķà¤¹à¤°":851,"à¤ĩà¤¨à¤²":852,"à¤¨à¤¯":853,"à¤ļà¤°":854,"à¤¯à¤¦":855,"à¤¸à¤ļ":856,"ĠĠĠĠ":857,"à¤¡à¤°":858,"Ġà¥¨à¥¦à¥¦":859,"Ġà¤ªà¤°à¤®":860,"Ġà¤µà¤¸":861,"à¤°à¤¹à¤¨":862,"Ġà¤Ĭ":863,"à¤¤à¤°à¤ķ":864,"à¤°à¤£à¤ķ":865,"à¤ĩà¤ľ":866,"à¤²à¤¸à¤®":867,"à¥Ģ)":868,"Ġà¤¦à¤¬":869,"à¥ģà¤ĥ":870,"à¤¸à¤¨à¤ķ":871,"à¤Ĩà¤µ":872,"à¤ĩà¤®":873,"à¤ļà¤¨à¤®":874,"Ġà¥§à¥©":875,"à¤°à¤¸à¤®":876,"Ġà¤¨à¤µ":877,"Ġà¤Ĩà¤²":878,"Ġà¤īà¤¡":879,"à¤ĩà¤¤":880,"à¤ķà¤²à¤¨":881,"à¤°à¤®à¤ķ":882,"Ġà¤Ĩà¤ļ":883,"Ġà¤ľà¤¨à¤¸":884,"à¤ĩà¤¸":885,"à¤Ĺà¤²à¤¬":886,"ĠâĢľ":887,"à¤¶à¤¬":888,"à¤Łà¤°à¤¨":889,"à¤ªà¤ļ":890,"à¤¥à¤¨":891,"âĢĿ":892,"Ġà¤Ĩà¤ł":893,"à¤¯à¤Łà¤ķ":894,"Ġà¤¹à¤²":895,"Ġà¤ľà¤¨à¤ķà¤ª":896,"à¤¯à¤£":897,"Ġà¤ĭ":898,"à¤¥à¤¤à¤¨":899,"à¤Ĺà¤¬":900,"Ġà¤īà¤ľ":901,"à¤¨à¤¦":902,"Ġà¤ĸà¤¨":903,"Ġà¤Ĩà¤ķà¤°":904,"Ġà¤²à¤¡":905,"à¤łà¤²":906,"Ġà¤ķà¤ķ":907,"à¤Ĺà¤®à¤¨":908,"à¤¯à¤¸à¤¬":909,"à¤µà¤§":910,"à¤°à¤Ĩà¤µ":911,"Ġà¤īà¤ªà¤Ń":912,"Ġà¥¨à¥§":913,"à¤Ĺà¤¤à¤®":914,"Ġà¤¦à¤¶":915,"Ġà¤ľà¤¬":916,"Ġà¤®à¤¦":917,"à¤£à¤¸":918,"Ġà¤Ĺà¤²à¤¤":919,"Ġà¤¨à¤ķ":920,"Ġà¥§à¥Ń":921,"à¤¸à¤µ":922,"Ġà¤¯à¤¥":923,"à¤°à¤¤à¤®":924,"Ġà¤¦à¤²à¤¹à¤°":925,"à¤Ĺà¤¨":926,"à¤ľà¤ª":927,"à¥Įà¤ĤâĢĵ":928,"à¤īà¤µ":929,"à¥ĢâĢĵ":930,"Ġà¤Ńà¤Ī":931,"à¥ĭ,âĢĻ":932,"Ġà¤ķà¤Ł":933,"Ġà¤ħà¤ĸ":934,"à¤·à¤¯à¤²":935,"Ġà¤°à¤¸":936,"à¤ĸà¤²":937,"Ġà¤ĺà¤°à¤®":938,"à¤¶à¤¸":939,"Ġà¤¸à¤¡":940,"Ġà¤ħà¤¸à¤°":941,"à¤Ĺà¤¤à¤ķ":942,"à¤Ĺà¤łà¤¨":943,"Ġà¤Ĩà¤ĩà¤ª":944,"à¥ĩà¤ģ":945,"à¤µà¤Ł":946,"Ġà¤ľà¤µ":947,"Ġà¥¨à¥¦à¥¬":948,"à¤Ķ":949,"Ġà¥ªà¥¦":950,"Ġà¤ķà¤¥":951,"Ġà¤ħà¤ķ":952,"à¥ģÂ¥":953,"à¤Ńà¤®":954,"Ġà¤ħà¤¡":955,"Ġà¤¦à¤¶à¤ķ":956,"à¤ħà¤°":957,"Ġà¤ĩà¤²":958,"Ġà¤ļà¤¨":959,"Ġà¤Ĺà¤łà¤¬à¤¨":960,"Ġà¤ĩà¤®":961,"à¤¶à¤¸à¤Ń":962,"Ġà¤ľà¤¨à¤ª":963,"Ġà¤®à¤¤à¤¦":964,"à¤·à¤£à¤ķ":965,"à¤Łà¤¬":966,"Ġà¤ļà¤°à¤£à¤®":967,"Ġà¤īà¤¸à¤²":968,"Ġà¤®à¤¹à¤¸":969,"à¤¸à¤¹à¤°":970,"à¤µà¤¶":971,"à¤®à¤¹":972,"Ġà¤«à¤²":973,"Ġà¥¬à¥¦":974,"à¥Įà¤ģà¥¤":975,"à¤¤à¤°à¤®":976,"à¥ĭ?":977,"à¤īà¤¨à¤ķ":978,"Ġà¤¨à¤²":979,"à¤ĩà¤¡":980,"à¤¹à¤°à¤£":981,"à¤Ļà¤®":982,"à¤¸à¤ª":983,"Ġà¤¸à¤§":984,"Ġà¥¨à¥¨":985,"Ġà¤ķà¤¡":986,"à¤ĺà¤²":987,"à¤°à¤µà¤ķ":988,"à¤°à¤¬à¤¹":989,"à¤¿à¤ĥ":990,"à¤Ńà¤ķ":991,"à¤ŀà¤ª":992,"à¤Ĺà¤°à¤®":993,"Ġà¤ľà¤²à¤µ":994,"Ġà¤Ńà¤µà¤¨":995,"Ġà¤ļà¤²à¤ļ":996,"Ġà¤ķà¤ł":997,"Ġà¤®à¤ŀ":998,"à¤°à¤®à¤£à¤®":999,"Ġà¤¤à¤¨":1000,"à¤°à¤°":1001,"à¤ķà¤¬":1002,"à¤®à¤£":1003,"à¤¡à¤¨":1004,"à¤¤à¤¹à¤°":1005,"Ġà¤µà¤¨":1006,"Ġà¥¦":1007,"à¤ĩà¤¯":1008,"Ġà¤ķà¤µ":1009,"à¤°à¤ĸ":1010,"Ġà¤ªà¤¦à¤®":1011,"à¤µà¤Ń":1012,"à¤¨à¤¹à¤°":1013,"Ġà¤¸à¤«":1014,"Ġà¤ĸà¤¤":1015,"Ġà¤¸à¤ªà¤¨":1016,"à¤ıà¤Ī":1017,"à¤īà¤¦":1018,"Ġà¤¨à¤Ńà¤Ī":1019,"à¤łà¤ķà¤²":1020,"à¤ķà¤®à¤²":1021,"à¤ªà¤¸":1022,"âĢĺ":1023,"Ġà¤¶à¤¬":1024,"Ġà¥¨à¥ª":1025,"Ġà¤ĺà¤¨":1026,"à¤Ĺà¤ķà¤°":1027,"Ġà¤¤à¤²":1028,"à¤¾à¥¤":1029,"à¤ıà¤¨à¤¨":1030,"à¤²à¤¤à¤²":1031,"à¤łà¤ķà¤®":1032,"Ġà¤īà¤ªà¤¤":1033,"à¤¾)":1034,"à¤§à¤²":1035,"Ġà¤ħà¤µà¤°":1036,"à¤¨à¤Ńà¤¨":1037,"à¤¦à¤¨à¤®":1038,"à¤¬à¤®":1039,"Ġà¤¨à¤¤":1040,"à¤«à¤¬":1041,"à¤°à¤Ĺà¤¤":1042,"Ġà¤Ĺà¤¨":1043,"à¤ľà¤µ":1044,"à¤ĸà¤®":1045,"à¤²à¤ª":1046,"à¤®à¤ª":1047,"Ġà¤¸à¤ª":1048,"Ġà¤¬à¤®":1049,"Ġà¤¡à¤²à¤°":1050,"à¤²à¤¤à¤ķ":1051,"Ġà¤¨à¤¬":1052,"Ġà¤Ĭà¤°":1053,"Ġ:":1054,"à¤²à¤¤à¤®":1055,"à¤¬à¤Ī":1056,"à¤·à¤ħà¤ĺ":1057,"à¤¦à¤Ľ":1058,"Ġà¤¸à¤«à¤²à¤¤":1059,"Ġà¤ªà¤ŀ":1060,"Ġà¤ĸà¤¸":1061,"à¥ĩâĢĵ":1062,"à¤«à¤ķ":1063,"Ġà¤Ĺà¤ıà¤°":1064,"Ġà¤ªà¤¹à¤²":1065,"âĢĶ":1066,"à¤¯à¤¤à¤²":1067,"à¤¤à¤°à¤¤":1068,"Ġà¤ıà¤ľ":1069,"à¤ļà¤¨à¤ķ":1070,"Ġà¤Ĺà¤²":1071,"à¥¨à¥¦":1072,"à¥Ģà¤ģ":1073,"Ġà¤ªà¤²":1074,"à¥Įà¤Ĥ,":1075,"à¤Ĩà¤«":1076,"à¤£à¤¨":1077,"Ġà¤Ĩà¤ľà¤ķ":1078,"à¤¸à¤°à¤ķ":1079,"à¤¡à¤¬":1080,"Ġà¤ħà¤ªà¤¨":1081,"Ġà¤ªà¤°à¤°":1082,"à¥ĩà¤Ĥ":1083,"Ġà¤µà¤ķ":1084,"à¤¯à¤®à¤¬":1085,"à¤¯à¤°à¤¤":1086,"Ġà¤īà¤Ń":1087,"Ġà¥¨à¥®":1088,"à¤ľà¤¤":1089,"à¤ªà¤Ł":1090,"à¥ģ-":1091,"à¤Łà¤µ":1092,"à¤Łà¤°à¤®":1093,"à¤¬à¤ķ":1094,"Ġà¤Ĩà¤ıà¤°":1095,"à¤¯à¤Ł":1096,"à¤ĩà¤ª":1097,"à¤Łà¤«":1098,"Ġà¤Ńà¤ıà¤ªà¤¨":1099,"Ġà¤Ķà¤ªà¤ļ":1100,"Ġà¤Ĺà¤£à¤¤à¤¨":1101,"Ġà¤ĸà¤£":1102,"Ġà¥¨à¥©":1103,"à¤Łà¤¬à¤²":1104,"à¤¶à¤¨à¤®":1105,"Ġà¤īà¤¸à¤ķ":1106,"Ġà¤Ĩà¤ĩà¤°à¤¹":1107,"Ġà¤Ĩà¤ı":1108,"Ġà¤ħà¤µà¤¸à¤°à¤®":1109,"à¤·à¤°":1110,"Ġà¤ľà¤¸à¤ķ":1111,"Ġà¤¹à¤ª":1112,"à¤¥à¤²à¤®":1113,"Ġà¤ĩà¤ļ":1114,"à¤¡à¤¸":1115,"à¤°à¤®à¤²":1116,"Ġà¤§à¤¨à¤Ĺà¤¢":1117,"Ġà¤ľà¤²":1118,"Ġà¤¸à¤ĺ":1119,"Ġà¤¦à¤²à¤²":1120,"à¤¨à¤Ĺà¤°à¤ª":1121,"Ġà¤¬à¤²à¤®":1122,"à¥ĭà¥¤âĢĻ":1123,"Ġà¤ĭà¤£":1124,"à¤·à¤¸à¤®":1125,"Ġà¥¨à¥Ń":1126,"Ġà¤ħà¤ľ":1127,"à¤£à¤¤":1128,"Ġà¤¨à¤ªà¤°":1129,"à¤¶à¤¹à¤°":1130,"Ġà¤Ŀà¤£":1131,"..":1132,"à¤¦à¤¨à¤ķ":1133,"Ġà¥¨à¥¬":1134,"Ġà¤Ī":1135,"à¤¤à¤¸":1136,"Ġà¤¬à¤¦à¤²":1137,"à¤¬à¤¸":1138,"Ġà¤Ľà¤ķ":1139,"Ġà¥Ńà¥¦":1140,"Ġà¤ĸà¤Ł":1141,"à¤ªà¤¦à¤£":1142,"Ġà¤ĸà¤¤à¤°":1143,"Ġà¤ıà¤²":1144,"Ġà¤ľà¤¨à¤¶à¤ķ":1145,"à¤Ĺà¤°à¤ķ":1146,"à¤¬à¤°à¤ķ":1147,"Ġà¤¬à¤¹à¤¸":1148,"Ġà¤¬à¤Ĺ":1149,"à¤¸à¤¨à¤®":1150,"Ġà¤¨à¤Ĩ":1151,"à¤¨à¤¸à¤Ń":1152,"Ġà¤¸à¤Ĺà¤°à¤®":1153,"Ġà¤¦à¤®":1154,"à¤ĸà¤¨":1155,"Ġà¤¸à¤®à¤Ĺ":1156,"à¥ĭà¥ĩ":1157,"à¤¤à¤¹":1158,"Ġà¥¨à¥¦à¥Ńà¥ª":1159,"Ġà¤Ńà¤ķ":1160,"à¤Ńà¤²":1161,"Ġà¤¨à¤Ńà¤ı":1162,"Ġà¤Ĺà¤¹":1163,"à¤ľà¤¬":1164,"Ġà¤ĺà¤£":1165,"à¥ĭâĢĵ":1166,"à¤®à¤ªà¤¨":1167,"à¤Łà¤°à¤ķ":1168,"Ġà¤¹à¤µ":1169,"à¤Ŀà¤¨":1170,"Ġà¤ªà¤¦à¤ķ":1171,"à¤·à¤¬":1172,"à¤¥à¤°":1173,"à¤¶à¤¨à¤ķ":1174,"à¤¤à¤¨à¤ķ":1175,"à¤¦à¤¤":1176,"Ġà¤¹à¤ķ":1177,"à¤ħà¤§":1178,"à¥Įà¤ģ,":1179,"Ġà¤¨à¤Ńà¤ıà¤°":1180,"Ġà¤ľà¤¸à¤°":1181,"Ġà¥¨à¥¯":1182,"à¤¯à¤¤à¤®":1183,"à¤Ĭ":1184,"Ġà¤¸à¤¸":1185,"à¤¡à¤«":1186,"Ġà¤Ĳà¤¤":1187,"à¤ļà¤¸":1188,"Ġà¥¨à¥¦à¥ª":1189,"à¤ĸà¤¦":1190,"Ġà¥©à¥«":1191,"Ġà¥®à¥¦":1192,"Ġà¤°à¤¨à¤ķ":1193,"Ġà¤°à¤£à¤¨":1194,"à¤¹à¤¸":1195,"Ġà¤¨à¤Ĺà¤¦":1196,"Ġà¤²à¤¨":1197,"à¤¥à¤®à¤¨":1198,"à¥Įà¤Ĥ,âĢĻ":1199,"à¤ķà¤°à¤£à¤²":1200,"à¤²à¤¦":1201,"Ġà¥©à¥©":1202,"Ġà¤łà¤¹à¤°":1203,"Ġ-":1204,"à¥ģà¥ģ":1205,"Ġà¤īà¤¸":1206,"Ġà¤¹à¤®à¤²":1207,"à¤Łà¤¸":1208,"à¤£à¤²":1209,"âĢľ":1210,"à¤ķà¤µ":1211,"à¤ªà¤¬":1212,"Ġà¤¦à¤¸":1213,"à¤ĩà¤Ń":1214,"à¤°à¤¤à¤¬":1215,"Ġà¤ħà¤¸à¤«à¤²":1216,"à¤·à¤£à¤®":1217,"à¤µà¤¯à¤¨à¤®":1218,"Ġ!":1219,"à¤īà¤ķ":1220,"Ġà¤¸à¤Ļ":1221,"Ġà¤ħà¤¸à¤¨":1222,"Ġà¤¸à¤®à¤¯à¤¦":1223,"à¤§à¤µ":1224,"Ġà¤ľà¤Ł":1225,"Ġà¤¤à¤¹à¤²":1226,"à¤°à¤«":1227,"à¤°à¤ļà¤£":1228,"à¤ªà¤¨à¤ķ":1229,"Ġà¤¬à¤¯":1230,"à¤Ĺà¤¶":1231,"Ġà¤ľà¤¡":1232,"Ġà¤ļà¤¯à¤¨":1233,"Ġà¤§à¤®":1234,"Ġà¤ĵà¤Ń":1235,"Ġà¤Ĩà¤¹":1236,"Ġà¤ľà¤¸à¤®":1237,"à¤«à¤°":1238,"à¤²à¤Ń":1239,"Ġà¤®à¤¨à¤®":1240,"à¤µà¤¯à¤¨à¤ķ":1241,"à¤·à¤Ń":1242,"à¤¶à¤µ":1243,"Ġà¥¨à¥¦à¥«":1244,"Ġà¤Ĺà¤¯":1245,"à¤ıà¤«":1246,"Ġà¤Ĩà¤Ī":1247,"Ġà¤īà¤ªà¤°":1248,"Ġà¤ķà¤¦à¤®":1249,"à¥ĭâĢĻ":1250,"à¤²à¤¨à¤²":1251,"Ġà¤ıà¤ķà¤ľà¤¨":1252,"à¤¹à¤¦":1253,"à¤īà¤²":1254,"Ġà¤Ĩà¤ĩà¤«":1255,"à¤®à¤°à¤£":1256,"à¤¶à¤¤à¤²":1257,"à¥Įà¤Ĥ-":1258,"à¤¸à¤¤":1259,"Ġà¤ħà¤¸à¤®":1260,"à¤·à¤ªà¤Ľ":1261,"Ġà¤ļà¤¢":1262,"Ġà¤ķà¤¸à¤²":1263,"à¤ģà¥¤":1264,"à¤¯à¤®à¤²":1265,"Ġà¤ĩà¤¸":1266,"Ġà¤¸à¤°à¤¸":1267,"Ġà¤ªà¤¸":1268,"Ġà¤¬à¤ķ":1269,"Ġà¥©à¥§":1270,"Ġà¤ħà¤¬à¤ķ":1271,"à¤²à¤ªà¤¤":1272,"Ġà¤ħà¤¨à¤²":1273,"Ġà¥Ńà¥«":1274,"à¤Łà¤¹à¤°":1275,"à¤§à¤¨à¤²":1276,"à¥į,âĢĻ":1277,"Ġà¤ľà¤¨à¤ľ":1278,"Ġà¤Ńà¤ıà¤®":1279,"Ġà¤®à¤¹à¤°":1280,"à¤·à¤¹à¤°":1281,"à¤¶à¤ķà¤²":1282,"',":1283,"à¤ªà¤¥":1284,"Ġà¤¸à¤¶à¤¸":1285,"à¤°à¤¥":1286,"à¤¶à¤¨à¤²":1287,"à¤°à¤®à¤¶":1288,"à¥Įà¤Ĥà¥¤âĢĻ":1289,"Ġà¥¨à¥¦à¥Ńà¥¨":1290,"à¤ĩà¤¨à¤²à¤®":1291,"à¤¦à¤µà¤²":1292,"à¤°à¤¤à¤¸":1293,"à¤¿?":1294,"à¤ªà¤ª":1295,"à¤µà¤¬":1296,"Ġà¤ĺà¤²":1297,"Ġà¤Ńà¤¦":1298,"Ġà¤Ńà¤Ĺ":1299,"Ġà¤¤à¤°à¤ķ":1300,"Ġà¤¡à¤°":1301,"à¤µà¤¡":1302,"à¤µà¤¨à¤®":1303,"Ġà¤¶à¤¤":1304,"à¥ĩ?":1305,"Ġà¤²à¤²":1306,"à¤ıà¤¸à¤ª":1307,"Ġà¤ħà¤¶":1308,"Ġà¤¢à¤²":1309,"Ġà¤ĺà¤°à¤ķ":1310,"Ġà¤ħà¤¸à¤¹":1311,"Ġà¤Ľà¤²à¤«":1312,"à¤µà¤¨à¤ķ":1313,"Ġà¤Ĩà¤ıà¤ªà¤Ľ":1314,"à¤°à¤¸à¤°":1315,"à¤°à¤¥à¤®":1316,"à¥ĩâĢĻ":1317,"Ġà¤Ľà¤°":1318,"Ġà¤ľà¤¨à¤®":1319,"Ġà¤¶à¤°à¤£":1320,"Ġà¥ªà¥«":1321,"Ġà¤Ķà¤¦":1322,"à¤²à¤¹à¤°":1323,"Ġà¤¸à¤®à¤¯à¤ķ":1324,"Ġà¤Ĩà¤«à¤¨":1325,"Ġà¥¨à¥¦à¥§à¥Ń":1326,"à¤¤à¤µà¤®":1327,"à¤īà¤¤":1328,"Ġà¤Ĩà¤ĩà¤¸":1329,"Ġà¥¯à¥¦":1330,"à¤ªà¤¶":1331,"Ġà¤Ĩà¤¸":1332,"Ġà¤²à¤®":1333,"Ġà¤ıà¤ķà¤²":1334,"à¤·à¤ľ":1335,"à¤¯à¤®à¤ķ":1336,"à¤ļà¤¯":1337,"à¤ĩà¤ķà¤²":1338,"à¤°à¤µà¤¦":1339,"Ġà¤Ĺà¤ı":1340,"à¤Łà¤ª":1341,"Ġà¤Łà¤°":1342,"Ġà¤ĩà¤°":1343,"à¤°à¤Ĺ":1344,"à¤Ńà¤Ĺ":1345,"à¤ľà¤¨à¤®":1346,"à¤¹à¤®à¤¨":1347,"Ġà¤ıà¤ķà¤¦à¤®":1348,"Ġà¤¸à¤¡à¤ķà¤®":1349,"à¤Ĺà¤¸":1350,"Ġà¤¯à¤¸à¤ªà¤Łà¤ķ":1351,"Ġà¤¸à¤®à¤¯à¤¸à¤®":1352,"à¤°à¤¬à¤¨":1353,"Ġà¤¸à¤¶à¤ķ":1354,"Ġà¤¢à¤ķ":1355,"ĠĠĠĠĠĠĠĠ":1356,"à¤µà¤¹":1357,"Ġà¤°à¤µ":1358,"à¤¶à¤Ń":1359,"à¤ĩà¤¨à¤¨":1360,"à¤°à¤®à¤£à¤²":1361,"à¤¨à¤µà¤Ł":1362,"à¤¨à¤¥":1363,"à¤ªà¤¹":1364,"à¤¥à¤µ":1365,"à¤Ĺà¤ľ":1366,"Ġà¤¨à¤°à¤¹":1367,"à¥įà¥¤âĢĻ":1368,"Ġà¤ľà¤¨à¤¸à¤®":1369,"à¤°à¤¶à¤¸":1370,"à¤¾à¥Īà¤Ĥ":1371,"à¤¯à¤°à¤²":1372,"à¤¯à¤¸à¤°":1373,"),":1374,"à¤ĩà¤«":1375,"à¤°à¤¸à¤°à¤ķ":1376,"Ġà¤ĵà¤Ńà¤°à¤®":1377,"à¤ķà¤¹":1378,"Ġà¤ķà¤¬":1379,"Ġà¥©à¥¨":1380,"à¤¹à¤£":1381,"à¤Ĺà¤¹à¤°":1382,"à¤Ĺà¤°à¤²":1383,"à¥Ĥ,":1384,"à¤ĩà¤¬":1385,"à¤¯à¤®à¤®":1386,"à¤Łà¤¨à¤Ĺà¤°":1387,"à¤¨à¤Ń":1388,"à¤§à¤¨à¤®":1389,"à¤Ŀà¤¦":1390,"Ġà¤ķà¤®à¤²":1391,"Ġà¤¸à¤¦à¤°à¤®":1392,"Ġà¤Ĩà¤¨à¤¨":1393,"à¤°à¤¹à¤£":1394,"à¤°à¤µà¤°":1395,"à¤Ĩà¤Ī":1396,"Ġà¤Ĺà¤ĩà¤°à¤¹":1397,"Ġà¤®à¤£":1398,"à¤£à¤µ":1399,"à¤ĸà¤£":1400,"à¤ħà¤ª":1401,"Ġà¤łà¤Ĺ":1402,"à¤¨à¤¹":1403,"Ġà¤īà¤°":1404,"à¤īà¤®":1405,"Ġà¤ĸà¤¬à¤°":1406,"à¤ľà¤¨à¤²":1407,"à¤¯à¤¸à¤Ń":1408,"Ġà¤īà¤ªà¤®à¤¹":1409,"Ġà¥§à¥¯à¥¯":1410,"à¤ģ,":1411,"Ġà¤ľà¤¨à¤Ĩ":1412,"Ġà¥¨à¥¦à¥§à¥«":1413,"Ġà¤ıà¤«":1414,"Ġà¤«à¤¸":1415,"à¤ħà¤¹":1416,"Ġà¥¨à¥¦à¥§à¥¬":1417,"Ġà¤¹à¤ķà¤®":1418,"Ġà¤ļà¤ķ":1419,"Ġà¤ļà¤°à¤®":1420,"Ġà¤ĩà¤ľ":1421,"Ġà¤ħà¤·":1422,"Ġà¤ħà¤²à¤Ĺ":1423,"à¤ıà¤¨à¤ı":1424,"à¤Ĺà¤¡":1425,"à¤¦à¤¨à¤¶":1426,"à¤µà¤°à¤²":1427,"Ġà¤ªà¤Łà¤ķà¤ªà¤Łà¤ķ":1428,"à¤®à¤¯":1429,"Ġà¤īà¤ªà¤¨":1430,"à¤ªà¤ķà¤®à¤²":1431,"ÅĴ":1432,"à¤®à¤¹à¤°":1433,"à¤µà¤ļ":1434,"à¤µà¤¸à¤®":1435,"à¤Łà¤°à¤²":1436,"à¤¬à¤ľ":1437,"Ġà¥©à¥¬":1438,"à¤ľà¤ķà¤²":1439,"à¤ĸà¤¨à¤¨":1440,"Ġà¥«à¥«":1441,"à¤·à¤ķà¤ķ":1442,"Ġà¤¤à¤²à¤¬":1443,"à¤Īà¤®":1444,"à¤īà¤¨à¤²":1445,"à¤®à¤µ":1446,"Ġà¤ħà¤Ł":1447,"à¤·à¤¯à¤ķ":1448,"à¤ĺà¤¸":1449,"Ġà¤Ŀà¤°":1450,"à¥į?":1451,"à¤£à¤°":1452,"Ġà¤ıà¤¡":1453,"à¤²à¤¯à¤¬":1454,"Ġà¤¨à¤¬à¤¨":1455,"Ġà¤Ńà¤²":1456,"à¤ľà¤¶":1457,"Ġà¤ļà¤²à¤¨":1458,"à¤ħà¤²":1459,"à¤¯à¤¥":1460,"à¤Łà¤°à¤¸":1461,"à¤²à¤¯à¤¹à¤°":1462,"à¤°à¤Ńà¤¨":1463,"Ġà¤®à¤¨à¤ªà¤°":1464,"à¤¬à¤°à¤®":1465,"à¤Ĥ.":1466,"à¤ļà¤¬":1467,"Ġà¤Ĩà¤ĩà¤¸à¤ķ":1468,"à¥įâĢĵ":1469,"Ġà¤ħà¤µà¤²":1470,"à¤ģà¥ģ":1471,"à¤Īà¤¨":1472,"à¤Ĺà¤łà¤¨à¤ķ":1473,"Ġà¤¸à¤¹à¤°à¤®":1474,"à¤¿âĢĵ":1475,"Ġà¤¨à¤ļ":1476,"Ġà¤¸à¤¡à¤ķà¤ķ":1477,"à¥¤'":1478,"à¤ŀà¤¹à¤°":1479,"à¤¤à¤ķà¤ķ":1480,"à¤¶à¤ķà¤ķ":1481,"à¤ĩà¤°à¤¹à¤¨":1482,"Ġà¥ªà¥¨":1483,"à¤¨à¤ķà¤°":1484,"à¤¸à¤¦à¤ķ":1485,"à¤Ńà¤µà¤¤":1486,"à¤¦à¤¸à¤®":1487,"à¤¹à¤ķà¤²":1488,"à¤¸à¤¦à¤¹à¤°":1489,"Ġà¤ħà¤ļ":1490,"Ġà¤ıà¤¨à¤¸":1491,"Ġà¥¬à¥«":1492,"à¤®à¤¬à¤¹":1493,"Ġà¤Ĩà¤ªà¤¤":1494,"à¤īà¤¡":1495,"Ġà¤ĩà¤ľà¤°":1496,"à¤¤à¤°à¤£à¤ķ":1497,"Ġà¥¨à¥¦à¥Ńà¥«":1498,"à¤°à¤¯à¤¤":1499,"Ġà¤¸à¤°à¤²":1500,"à¤°à¤ķà¤°":1501,"Ġà¤ħà¤µà¤¶":1502,"à¤¨à¤¤à¤®":1503,"Ġà¤ķà¤«":1504,"à¤¾?":1505,"à¤¨à¤ħà¤¨":1506,"à¤¤à¤µà¤¨":1507,"à¤£à¤ªà¤¤":1508,"Ġà¤¶à¤µ":1509,"à¤¨à¤ļ":1510,"à¤¯à¤§":1511,"Ġà¤®à¤¦à¤¨":1512,"Ġà¤ĩà¤ķ":1513,"à¤°à¤ŀ":1514,"à¤¸à¤Ĺà¤°":1515,"à¥ĥà¤Ĥ":1516,"Ġà¤®à¤¹ÅĴ":1517,"à¤ķà¤°à¤£à¤®":1518,"Ġà¤ıà¤¨à¤Ĩà¤°à¤ıà¤¨à¤ı":1519,"à¤¤à¤ļ":1520,"à¤¯à¤¶":1521,"à¤µà¤Ńà¤°":1522,"Ġà¤°à¤Ĺà¤¤":1523,"Ġà¤Ńà¤°à¤®":1524,"Ġà¤ħà¤¥à¤µ":1525,"à¤¸à¤ķà¤ķ":1526,"à¤ĺà¤¨":1527,"Ġà¥¨à¥¦à¥Ńà¥©":1528,"Ġ,":1529,"à¤Ĺà¤®à¤¤":1530,"Ġà¤®à¤ľà¤¦":1531,"à¤¶à¤®à¤¨":1532,"Ġà¤Ĩà¤®à¤¨":1533,"à¤Īà¤µà¤Ł":1534,"à¤°à¤ķà¤Ł":1535,"à¤¸à¤®à¤ķ":1536,"à¤ĺà¤°à¤®":1537,"à¤°à¤¸à¤ŀ":1538,"à¤¯à¤¯à¤¨à¤²":1539,"Ġà¤¸à¤²à¤®":1540,"Ġà¤¡à¤²":1541,"Ġà¤Ĺà¤ıà¤ªà¤Ľ":1542,"à¤·à¤ķà¤²":1543,"Ġà¤¤à¤¸à¤°":1544,"à¤®à¤¸à¤®":1545,"à¤ªà¤ªà¤Ľ":1546,"Ġà¤¨à¤¸":1547,"Ġà¤¸à¤®à¤Ŀà¤¦":1548,"Ġà¤ħà¤¸à¤²":1549,"à¤¨à¤ľ":1550,"à¤ķà¤¦":1551,"à¤Łà¤¬à¤¨":1552,"Ġà¤¬à¤¡":1553,"à¤ľà¤¤à¤¨":1554,"Ġà¤Ľà¤µ":1555,"à¤īà¤ª":1556,"Ġà¤īà¤ªà¤ª":1557,"à¤¯à¤¯à¤¨à¤ķ":1558,"Ġà¤¸à¤°à¤¸à¤«":1559,"à¥ĩ)":1560,"à¤¶à¤¤à¤®":1561,"à¤¹à¤°à¤£à¤ķ":1562,"à¤¸à¤¦à¤²":1563,"à¤¸à¤ķà¤¹à¤°":1564,"Ġà¤Ŀà¤²":1565,"à¤¨à¤¸à¤°":1566,"à¤µà¤¸à¤¨":1567,"Ġà¤Ľà¤²à¤«à¤²à¤®":1568,"à¤®à¤¶":1569,"Ġà¤¸à¤¬à¤Ńà¤¨":1570,"Ġà¤ķà¤ªà¤¡":1571,"à¤¥à¤Ĺ":1572,"Ġà¤Ĩà¤¬à¤¦":1573,"à¤ħà¤¬":1574,"Ġà¥¦à¥Ń":1575,"à¤īà¤°":1576,"Ġà¤ļà¤°à¤£à¤ķ":1577,"à¤«à¤®":1578,"Ġà¤¥à¤°":1579,"à¤¿à¥¤":1580,"à¤µà¤¹à¤°":1581,"Ġà¤ķà¤¦":1582,"Ġà¤Ĩà¤£à¤µ":1583,"à¤ĸà¤¤":1584,"Ġà¤ªà¤¸à¤²":1585,"Ġà¤°à¤¨à¤®":1586,"Ġà¤ĵà¤°":1587,"à¤ľà¤ķà¤¤":1588,"à¤ıà¤Īà¤®":1589,"à¤¥à¤²à¤ķ":1590,"à¤¶à¤Ńà¤°":1591,"à¤¸à¤ķà¤²":1592,"Ġà¥«à¥§":1593,"...":1594,"à¤¯à¤°à¤ķ":1595,"Ġà¤¨à¤·":1596,"à¤Łà¤ĺ":1597,"à¥¦à¥¦":1598,"à¤²à¤¬à¤²":1599,"à¤¦à¤¬":1600,"à¤ıà¤Īà¤ķ":1601,"Ġà¤ľà¤¬à¤°":1602,"à¤Ļà¤¬":1603,"à¤ĵà¤¸":1604,"Ġà¤ªà¤Ł":1605,"à¤µà¤¯à¤®":1606,"Ġà¤Ĺà¤ľ":1607,"Ġà¤Ńà¤°à¤¤":1608,"à¤ľà¤¹à¤°":1609,"Ġà¤¦à¤°à¤¬":1610,"à¤ħà¤Ń":1611,"Ġà¥¨à¥¦à¥©":1612,"Ġà¤ıà¤®à¤¬":1613,"Ġà¥¨à¥¦à¥§à¥®":1614,"Ġà¤¤à¤®":1615,"Ġà¤ļà¤°à¤£":1616,"Ġà¤ħà¤²à¤ªà¤¤":1617,"Ġà¤ıà¤¨à¤Ĩà¤°à¤ı":1618,"à¤µà¤°à¤ķ":1619,"Ġà¤Ĩà¤īà¤Ł":1620,"à¤£à¤ª":1621,"à¤ĩà¤¹":1622,"à¤¯à¤ķà¤ķ":1623,"à¤ŀà¤µ":1624,"Ġà¤®à¤¨à¤¸":1625,"Ġà¤ľà¤¨à¤Ĩà¤¨":1626,"à¤¨à¤ªà¤Ľ":1627,"Ġà¤ķà¤ŀ":1628,"Ġà¤¤à¤¬":1629,"Ġà¤¶à¤²":1630,"Ġà¤Łà¤¸":1631,"à¤Ļà¤Ł":1632,"à¤ħà¤®":1633,"Ġà¤ĩà¤ľà¤²":1634,"à¤·à¤ķà¤¹à¤°":1635,"à¤¤à¤¦":1636,"à¤ªà¤¯à¤²":1637,"à¤µà¤¸à¤ķ":1638,"à¤ıà¤ªà¤¨":1639,"Ġà¤¹à¤²à¤®":1640,"à¤°à¤¸à¤¹":1641,"à¤·à¤£à¤²":1642,"Ġà¥©à¥Ń":1643,"Ġà¥«à¥¨":1644,"ĠĠčĊ":1645,"à¤¨à¤ħà¤ĺ":1646,"Ġà¤ıà¤Ł":1647,"à¤łà¤ķà¤ķ":1648,"Ġà¤¡à¤Ł":1649,"Ġà¤ĵà¤ª":1650,"à¤¶à¤¤à¤Ńà¤¨":1651,"Ġà¤¸à¤Ł":1652,"à¤¦à¤¨à¤²":1653,"à¤Łà¤µà¤°":1654,"Ġà¤¹à¤¦à¤¸à¤®":1655,"à¤£à¤¯à¤²":1656,"Ġà¤²à¤£":1657,"Ġà¤īà¤ªà¤¹":1658,"à¤ħà¤Ĺ":1659,"à¤¡à¤¤":1660,"à¤«à¤¦":1661,"à¤²à¤¬à¤ķ":1662,"Ġà¥ªà¥©":1663,"Ġà¥¨à¥¦à¥§à¥§":1664,"Ġà¤ľà¤¨à¤µ":1665,"Ġà¤łà¤ķ":1666,"à¤Ĩà¤ľ":1667,"Ġà¥©à¥ª":1668,"Ġà¥¨à¥¦à¥§à¥ª":1669,"à¤¾à¥ĩà¥¤":1670,"à¤¤à¤ľ":1671,"à¤łà¤Ń":1672,"à¤ĺà¤®":1673,"à¥§à¥¦":1674,"à¤Ĩà¤ĩà¤ª":1675,"à¤¦à¤°à¤Ĺ":1676,"Ġà¥§à¥¯à¥«":1677,"à¥Ģà¥¤":1678,"Ġà¤¦à¤°à¤²":1679,"à¤¶à¤°":1680,"à¤ĩà¤¨à¤®":1681,"à¤°à¤®à¤¨":1682,"à¤¤à¤°à¤¦":1683,"Ġà¥¨à¥¦à¥¨":1684,"Ġà¤Ńà¤Ĺà¤µ":1685,"à¥įâĢĻ":1686,"Ġà¤¨à¤ĸ":1687,"à¤ľà¤¯à¤ķ":1688,"Ġà¤¦à¤«":1689,"Ġà¤īà¤ªà¤ķ":1690,"Ġà¤²à¤Ĺà¤¤":1691,"Ġà¤Īà¤¶":1692,"à¥ģâĢĻ":1693,"Ġà¤ħà¤²à¤®":1694,"Ġà¤ľà¤¨à¤ļ":1695,"Ġà¤¸à¤¹à¤°à¤ķ":1696,"à¤°à¤µà¤Ł":1697,"à¥§à¥§":1698,"Ġà¤Ĩà¤ªà¤¸":1699,"Ġà¤ªà¤ļ":1700,"à¤Ĺà¤®à¤²":1701,"Ġà¤°à¤¤":1702,"Ġà¤¨à¤Ł":1703,"Ġà¤¨à¤µà¤¨":1704,"à¤¥à¤ª":1705,"à¤°à¤®à¤¹à¤°":1706,"Ġà¤ıà¤£":1707,"à¤µà¤¨à¤¶":1708,"à¤ķà¤¥":1709,"à¥ģ,âĢĻ":1710,"à¤ªà¤¨à¤®":1711,"à¤Ĺà¤£":1712,"Ġà¤īà¤ªà¤µ":1713,"à¤ļà¤¨à¤ª":1714,"Ġà¤ħà¤µà¤²à¤®":1715,"à¤¹à¤¦à¤°à¤¬":1716,"à¥¤âĢĿ":1717,"Ġà¤®à¤Ĺà¤°":1718,"à¤¶à¤¦":1719,"à¤¡à¤µ":1720,"à¤¯à¤Łà¤¨à¤ķ":1721,"à¤¯à¤¨à¤ķ":1722,"à¤¦à¤¯":1723,"Ġà¤Ńà¤ĩà¤¨":1724,"Ġà¤µà¤ŀ":1725,"Ġà¤²à¤Ĺà¤Ńà¤Ĺ":1726,"à¤²à¤¬à¤¹":1727,"à¤¸à¤¦à¤®":1728,"Ġà¥¨à¥¦à¥¦à¥Ń":1729,"à¤¤à¤ķà¤®":1730,"Ġà¤¹à¤®":1731,"à¤ĩà¤ı":1732,"à¤Ĩà¤īà¤Ł":1733,"Ġà¥©à¥®":1734,"à¥¬à¥©":1735,"à¤Łà¤¬à¤²à¤ķ":1736,"à¤¿âĢĻ":1737,"à¤¤à¤ķà¤²":1738,"Ġà¤ªà¤£":1739,"à¤Łà¤²à¤®":1740,"Ġà¤µà¤²":1741,"Ġà¤īà¤¦à¤¯à¤ª":1742,"Ġà¤Ķà¤ļ":1743,"à¤°à¤ļà¤²à¤¨":1744,"à¥ģà¥¤âĢĻ":1745,"Ġà¤¨à¤¨":1746,"Ġà¤¬à¤Ł":1747,"Ġà¤²à¤¤":1748,"Ġà¤ıà¤¶":1749,"à¤²à¤ķà¤²":1750,"à¤¯à¤¸à¤¹":1751,"à¤ħà¤«":1752,"Ġà¥©à¥¯":1753,"à¤ĵà¤²":1754,"Ġà¤ħà¤«à¤Ĺ":1755,"à¥ģà¥į":1756,"à¤¹à¤¬":1757,"à¤ģà¥Ī":1758,"Ġà¤¦à¤£":1759,"à¤Īà¤¦":1760,"à¤ĩà¤²à¤®":1761,"Ġà¤Ĳà¤¨à¤®":1762,"Ġà¤ıà¤¸à¤ª":1763,"à¤¯à¤°à¤®":1764,"Ġà¤°à¤ľ":1765,"à¤ıà¤ļ":1766,"Ġà¤¤à¤Łà¤¬à¤¨":1767,"Ġà¤ľà¤¥":1768,"Ġà¤ľà¤²à¤¸":1769,"Ġà¤ıà¤µà¤®":1770,"Ġà¥¨à¥¦à¥§à¥¯":1771,"à¤°à¤Ļ":1772,"à¤·à¤Ĺà¤°":1773,"à¤£à¤¬":1774,"Ġà¤ĸà¤ªà¤¤":1775,"Ġà¤¶à¤¹à¤°":1776,"Ġà¤ıà¤ķà¤ªà¤Łà¤ķ":1777,"à¥§à¥«":1778,"à¤°à¤Ńà¤°":1779,"à¤¤à¤¸à¤®":1780,"à¤µà¤°à¤®":1781,"Ġà¤ķà¤ļ":1782,"à¤Łà¤¸à¤®":1783,"Ġà¤ħà¤µà¤ķ":1784,"Ġà¤®à¤ķà¤µ":1785,"à¤¶à¤¤à¤ķ":1786,"Ġà¤Ĩà¤Ĩà¤«":1787,"à¤ŀà¤²":1788,"à¤Ĩà¤®":1789,",'":1790,"à¤²à¤ªà¤Ľ":1791,"à¤¸à¤µà¤ķ":1792,"à¤Ĺà¤Ł":1793,"à¤§à¤ª":1794,"Ġà¤Ĩà¤¸à¤ª":1795,"Ġà¤²à¤ĺ":1796,"à¤ĩà¤µ":1797,"à¤ķà¤¡":1798,"à¤®à¤¹à¤¤":1799,"à¤¯à¤ľ":1800,"à¤·à¤Ńà¤¨":1801,"à¤ĺà¤°à¤ķ":1802,"Ġà¤ĺà¤°à¤¬":1803,"à¤°à¤®à¤£à¤¬":1804,"Ġà¤ĩà¤£":1805,"à¥¨à¥«":1806,"à¤°à¤ľà¤¨":1807,"à¤¿à¥į":1808,"à¤¸à¤µà¤®":1809,"Ġà¤īà¤ĸ":1810,"à¤¡à¤²à¤ķ":1811,"à¤¯à¤Łà¤ķà¤²":1812,"Ġà¤®à¤¹ÅĴà¤µà¤ª":1813,"Ġà¤·":1814,"à¥ĩà¥į":1815,"à¤¦à¤Ĺ":1816,"à¤ĩà¤¨à¤ķ":1817,"Ġà¤¯à¤¸à¤ª":1818,"Ġà¤ħà¤°à¤¬":1819,"Ġà¤¦à¤¶à¤ķà¤®":1820,"Ġà¤¦à¤¶à¤®à¤²":1821,"à¤¯à¤Ń":1822,"Ġà¤Ĩà¤ĸ":1823,"à¤īà¤¸":1824,"ĠâĢĻ":1825,"Ġà¤Ńà¤ıà¤¸":1826,"Ġà¥«à¥¬":1827,"à¤ķà¤Łà¤ķ":1828,"à¤µà¤ķà¤²":1829,"Ġà¤®à¤ľà¤¬":1830,"Ġà¤Ĩà¤Ń":1831,"à¤ļà¤¨à¤²":1832,"Ġà¤īà¤ªà¤ķà¤°à¤£":1833,"à¤ıà¤¨à¤Ĩà¤°":1834,"Ġà¥¬à¥ª":1835,"à¤µà¤°à¤£à¤®":1836,"à¤°à¤Ĺà¤¨":1837,"à¤¨à¤¡":1838,"à¤®à¤¤à¤ķ":1839,"à¤ªà¤¨à¤²":1840,"Ġà¤¨à¤Ĺ":1841,"à¤Łà¤¨à¤ķ":1842,"Ġà¤¸à¤¹à¤¨":1843,"à¤ħà¤¸":1844,"à¥ĩ,âĢĺ":1845,"Ġà¥«à¥©":1846,"Ġà¤¨à¤Ńà¤ıà¤ªà¤Ľ":1847,"à¤¨à¤¯à¤¨":1848,"à¤Łà¤µà¤²":1849,"à¤ľà¤ķà¤®":1850,"à¤·à¤¯à¤µà¤¸":1851,"à¤£à¤¯à¤®":1852,"à¥Ĥà¤ģ":1853,"Ġà¤ıà¤ķà¤ħà¤°":1854,"à¤Ļà¤¸":1855,"à¤ķà¤®à¤ķ":1856,"Ġà¤Ńà¤ĩà¤°à¤¹à¤¨":1857,"à¤Īà¤¤":1858,"à¤Ńà¤ªà¤¤":1859,"Ġà¤¸à¤®à¤¯à¤¸":1860,"à¤ĩà¤°à¤¸":1861,"Ġà¤ĩà¤Ł":1862,"Ġà¤Ĳà¤¨à¤²":1863,"à¤ķà¤¤à¤®":1864,"à¤¯à¤ľà¤¨":1865,"à¤µà¤¨à¤²":1866,"Ġà¤¹à¤¨":1867,"à¤·à¤¸":1868,"à¤°à¤®à¤¬":1869,"Ġà¤ıà¤ķà¤®":1870,"à¥Ńà¥ª":1871,"Ġà¥«à¥ª":1872,"Ġà¥¬à¥©":1873,"Ġà¥ªà¥§":1874,"à¤Ĺà¤łà¤¨à¤²":1875,"Ġà¤¨à¤Ĩà¤ıà¤ķ":1876,"à¤°à¤ªà¤Ľ":1877,"à¤¸à¤°à¤®":1878,"Ġà¤ħà¤¯":1879,"Ġà¤¬à¤§":1880,"Ġà¤Ĩà¤°à¤ķ":1881,"Ġà¤«à¤¡":1882,"à¤Ļà¤¤à¤°":1883,"Ġà¤¡à¤°à¤²":1884,"Ġà¤ĵà¤Ŀ":1885,"Ġà¤ļà¤²à¤ĸ":1886,"Ġà¥¬à¥Ń":1887,"Ġà¥ªà¥Ń":1888,"Ġà¥ªà¥®":1889,"Ġà¤Ĳà¤¨à¤ķ":1890,"Ġà¤Ĩà¤ľà¤¸à¤®":1891,"Ġà¤·à¤¡":1892,"Ġà¤¦à¤¶à¤®à¤²à¤µ":1893,"à¤¾à¥Ī":1894,"à¤ķà¤¨à¤ķ":1895,"à¤®à¤ļà¤¨":1896,"à¥ģâĢĵ":1897,"à¤ªà¤¸à¤®":1898,"Ġà¤¹à¤Ļà¤ķ":1899,"Ġà¤®à¤¡":1900,"Ġà¤¥à¤²":1901,"à¤ľà¤¨à¤¤":1902,"à¤Ĩà¤¯":1903,"Ġà¥®à¥¨":1904,"à¥ĩà¤ģà¥¤":1905,"à¤ķà¤Ń":1906,"Ġà¤Ĺà¤¹à¤¨":1907,"à¤ıà¤¸à¤®":1908,"à¤·à¤¯à¤¤":1909,"à¤¥à¤¸":1910,"Ġà¤Ĩà¤Ĺà¤²":1911,"à¤ĸà¤Ńà¤¨":1912,"Ġà¤ıà¤ķà¤¦":1913,"Ġà¤Łà¤¨":1914,"à¤µà¤ķà¤°":1915,"Ġà¥ªà¥ª":1916,"Ġà¤®à¤ķ":1917,"à¤·à¤ķà¤®":1918,"à¤£à¤¯à¤ķ":1919,"à¤Ńà¤ıà¤¨":1920,"à¤«à¤°à¤ķ":1921,"Ġà¥ªà¥¬":1922,"Ġà¥¨à¥¦à¥§à¥©":1923,"à¤°à¤ªà¤¶":1924,"Ġà¤ħà¤ĸà¤£":1925,"à¤¾-":1926,"à¤µà¤ľ":1927,"à¤Łà¤¤":1928,"Ġà¤®à¤Ŀ":1929,"Ġà¤ľà¤¨à¤µà¤°":1930,"Ġà¤¸à¤¹à¤¸à¤ļ":1931,"à¥§à¥¬":1932,"à¤®à¤ľ":1933,"à¤ªà¤ķà¤°":1934,"à¤Ĺà¤²à¤®":1935,"à¤ĩà¤¬à¤°":1936,"Ġà¤ıà¤Ńà¤°":1937,"Ġà¤ľà¤¨à¤¯":1938,"Ġà¤¤à¤¹à¤¬":1939,"Ġà¤Ķà¤¸à¤¤":1940,"à¤¶à¤¤à¤¸à¤®":1941,"Ġà¤Ńà¤°à¤¤à¤ª":1942,"Ġà¤¨à¤µà¤°":1943,"Ġà¤¨à¤µà¤²":1944,"à¤īà¤£":1945,"à¤ĸà¤¸à¤®":1946,"Ġà¤¶à¤ªà¤¥":1947,"Ġà¤ĺà¤¡":1948,"à¤°à¤²à¤Ĺ":1949,"Ġà¤īà¤ªà¤¸à¤Ń":1950,"à¥§à¥¨":1951,"à¤¨à¤¸à¤¹":1952,"Ġà¥¬à¥¬":1953,"Ġà¥Ńà¥¨":1954,"Ġà¤ıà¤¸à¤ıà¤¸à¤ª":1955,"à¤¹à¤²à¤ª":1956,"à¤Ĺà¤ª":1957,"à¥Īà¥¤":1958,"à¤ľà¤°à¤²":1959,"Ġà¤Ĩà¤¦à¤°":1960,"à¤Ĩà¤¬":1961,"à¤µà¤ķà¤ķ":1962,"Ġà¥ªà¥¯":1963,"à¤¹à¤¨à¤¤":1964,"à¤¤à¤µà¤¨à¤ķ":1965,"à¤¤à¤ªà¤¤":1966,"à¤¯à¤ªà¤°":1967,"Ġà¤¸à¤¦à¤¨":1968,"Ġà¤ķà¤°à¤ķ":1969,"Ġà¤Ĺà¤Ńà¤°":1970,"Ġà¤°à¤¦":1971,"à¤ľà¤Ń":1972,"Ġà¤ľà¤Ĺà¤¤":1973,"à¤īà¤¥":1974,"Ġà¤¯à¤ķ":1975,"à¤¯à¤ķà¤®":1976,"à¤Ĩà¤¤":1977,"à¤²à¤Ĺà¤¨":1978,"Ġà¤Ńà¤°à¤ªà¤°":1979,"Ġà¥¨à¥¦à¥Ńà¥§":1980,"Ġà¤ıà¤¨à¤Ĩà¤°à¤ıà¤¨à¤ķ":1981,"à¤Ĺà¤®à¤ķ":1982,"Ġà¤ħà¤ŀ":1983,"Ġà¤¦à¤²à¤¬":1984,"à¤£à¤¬à¤¹":1985,"Ġà¤¶à¤®":1986,"à¤Ĩà¤ĩ":1987,"à¥Ńà¥«":1988,"à¥©à¥¦":1989,"à¤Ńà¤°à¤ª":1990,"Ġà¥§à¥¦à¥¦":1991,"Ġà¥¨à¥¦à¥¬à¥¨":1992,"Â«":1993,"à¤ķà¤Łà¤®":1994,"à¤ªà¤²à¤²":1995,"Ġà¤°à¤ļà¤¨":1996,"Ġà¤¨à¤Ĺà¤°à¤ķ":1997,"à¤°à¤£à¤¸à¤Ń":1998,"à¤¤à¤ķà¤°":1999,"Ġà¥«à¥®":2000,"Ġà¥®à¥«":2001,"à¤¨à¤µà¤ħà¤§":2002,"Ġà¤Ĩà¤ķà¤¸":2003,"Ġà¥§à¥¯à¥®":2004,"Ġà¤ħà¤¸à¤¹à¤®à¤¤":2005,"à¤¨à¤Ľ":2006,"à¤¯à¤ªà¤¤":2007,"à¤¸à¤¸à¤®":2008,"Ġà¤Ĺà¤¦":2009,"à¤Ĺà¤Ń":2010,"Ġà¤®à¤ľ":2011,"Ġà¤¸à¤®à¤ķ":2012,"Ġà¤ħà¤¨à¤¶à¤¨":2013,"à¤¯à¤®à¤¹à¤°":2014,"Ġà¤ķà¤®à¤°":2015,"Ġà¤ªà¤¹à¤²à¤®":2016,"à¥§à¥¯":2017,"Ġà¤ħà¤«à¤°":2018,"à¤°à¤ļà¤²":2019,"à¤¿.":2020,"à¤²à¤Ĺà¤¤":2021,"à¥Ģ'":2022,"à¤¸à¤ħà¤«":2023,"Ġà¤ªà¤¬":2024,"Ġà¤ķà¤Ńà¤°":2025,"Ġà¤¨à¤ļà¤²":2026,"à¤Łà¤°à¤¹à¤°":2027,"Ġà¤ħà¤ªà¤®":2028,"Ġà¤µà¤¨à¤¸":2029,"Ġà¤ıà¤¯à¤°":2030,"Ġà¤ĸà¤Ĺ":2031,"à¤¾à¤ģà¥Ī":2032,"à¤Ĩà¤ıà¤ķ":2033,"Ġà¤ĵà¤ªà¤¨":2034,"Ġà¥Ńà¥¬":2035,"Ġà¥¨à¥¦à¥§à¥¨":2036,"Ġà¥¨à¥¦à¥¦à¥¯":2037,"Ġà¥¨à¥¦à¥ªà¥¬":2038,"à¤ķà¤ħà¤¨":2039,"à¥ĭ)":2040,"à¤¤à¤¨à¤²":2041,"à¤¤à¤°à¤²":2042,"à¤¦à¤ª":2043,"à¤¶à¤ª":2044,"Ġà¤²à¤¹":2045,"à¥ĤâĢĵ":2046,"à¤¡à¤ª":2047,"Ġà¤§à¤ķ":2048,"à¥§à¥®":2049,"Ġà¥¬à¥®":2050,"ĠĠĠ":2051,"à¤¯à¤Łà¤°":2052,"Ġà¤®à¤ļ":2053,"à¤ľà¤ķà¤ķ":2054,"à¤īà¤¤à¤²":2055,"à¤ŀà¤ķ":2056,"à¥ģà¤ģà¥¤":2057,"Ġ?âĢĻ":2058,"à¤¤à¤®à¤²":2059,"Ġà¤ĵà¤¸":2060,"Ġà¤Ŀà¤Ĺà¤¡":2061,"Ġà¤«à¤²à¤«":2062,"à¤¸à¤Ł":2063,"à¤¦à¤Ń":2064,"Ġà¤ķà¤°à¤£":2065,"à¤Ĺà¤¸à¤®":2066,"Ġà¤īà¤ªà¤®":2067,"à¤²à¤²à¤Ĺ":2068,"à¤²à¤¤à¤¬":2069,"à¤¨à¤¬à¤¹":2070,"Ġà¥¨à¥¦à¥¬à¥ª":2071,"à¤¤à¤¹à¤Ł":2072,"à¤Ńà¤ªà¤¤à¤¨":2073,"à¤¾âĢľ":2074,"à¤ķà¤¶":2075,"à¤²à¤ļ":2076,"à¤²à¤ĸ":2077,"à¤Łà¤²à¤ķ":2078,"Ġà¤Ńà¤ĩà¤¹":2079,"à¤¥à¤²à¤¬":2080,"Ġà¤ıà¤¯à¤°à¤²":2081,"Ġà¤ĸà¤¬":2082,"à¤¤à¤°à¤¬":2083,"Ġà¥«à¥Ń":2084,"Ġà¤ħà¤µà¤¤à¤°à¤£":2085,"à¤°à¤¨à¤Ĺà¤°":2086,"à¤¿)":2087,"à¤ķà¤°à¤ķ":2088,"Ġà¤¨à¤Ľ":2089,"Ġà¤ħà¤Ļ":2090,"Ġà¤Ĩà¤¯à¤ķà¤°":2091,"à¤Īà¤ıà¤ķ":2092,"à¤ĩà¤Łà¤®":2093,"Ġà¤ĸà¤²":2094,"à¤¯à¤¤à¤¯":2095,"à¤µà¤¨à¤¸":2096,"à¥§à¥Ń":2097,"Ġà¤Ĩà¤ĩà¤ıà¤®":2098,"Ġà¥Ńà¥§":2099,"Ġà¥Ńà¥Ń":2100,"Ġà¤°à¤ķà¤®à¤ķ":2101,"à¤¯à¤¯à¤¨à¤®":2102,"à¤¯à¤¨à¤²":2103,"à¤ľà¤¦à¤°":2104,"à¤ĸà¤¹à¤°":2105,"à¤ļà¤¨à¤ªà¤Ľ":2106,"Ġà¥«à¥¯":2107,"Ġà¥Ńà¥®":2108,"à¤Ĺà¤®à¤¨à¤ķ":2109,"Ġà¤Ĩà¤ªà¤¸à¤®":2110,"ĠĠĠĠĠĠĠĠĠĠĠĠĠĠĠĠ":2111,"à¥ĩÃ·":2112,"à¤®à¤¥":2113,"à¤ľà¤¹":2114,"à¤ľà¤°à¤ķ":2115,"Ġà¤¤à¤°à¤²":2116,"à¤Łà¤°à¤«":2117,"Ġà¤ªà¤Łà¤ķà¤ķ":2118,"Ġà¥¯à¥«":2119,"à¤¤à¤µà¤Ł":2120,"Ġà¥¨à¥¦à¥¬à¥©":2121,"Ġà¤¨à¤Ĩà¤īà¤¨":2122,"à¤¨à¤ľà¤¨":2123,"à¤ķà¤°à¤²":2124,"à¥ĩ/":2125,"à¤¸à¤¤à¤®":2126,"à¤¦à¤£":2127,"Ġà¤¦à¤®à¤ķ":2128,"Ġà¤Ĩà¤ªà¤°":2129,"à¤¯à¤ķà¤²":2130,"à¤Łà¤ķà¤ķ":2131,"à¤ļà¤¨à¤¬":2132,"Ġà¤Ĩà¤µà¤§":2133,"Ġà¥¬à¥¨":2134,"à¤¨à¤¬à¤®":2135,"Ġà¤¬à¤ļà¤¤":2136,"à¤¶à¤Ńà¤°à¤ķ":2137,"Ġ...":2138,"à¤¾à¤¾":2139,"à¤¯à¤²à¤ķ":2140,"à¤¸à¤«":2141,"à¤¸à¤²à¤®":2142,"à¤¹à¤ª":2143,"Ġà¤¬à¤¦":2144,"à¤¡à¤¦":2145,"à¤°à¤ķà¤°à¤£à¤®":2146,"Ġà¤¶à¤¶":2147,"à¤°à¤£à¤¬":2148,"à¤²à¤ķà¤ķ":2149,"Ġà¤ĺà¤°à¤§":2150,"à¤Ŀà¤Ł":2151,"Ġà¤łà¤®":2152,"Ġà¥¬à¥¯":2153,"à¤¯à¤¯à¤¨à¤°à¤¤":2154,"Ġà¤¸à¤¡à¤ķà¤²":2155,"à¥ĭâĢĻ,":2156,"Ġà¤ªà¤µ":2157,"à¤¦à¤¶":2158,"à¤¹à¤£à¤ķ":2159,"à¤Łà¤°à¤¬":2160,"à¤Ńà¤¸":2161,"à¤°à¤¤à¤°":2162,"à¤¨à¤²à¤Ĺ":2163,"Ġà¤Ńà¤ıà¤¨à¤¨":2164,"Ġà¤¸à¤®à¤¯à¤ħà¤ĺ":2165,"Ġà¤ªà¤¦à¤¯":2166,"à¤·à¤¯à¤¹à¤°":2167,"ĠĠĠĊ":2168,"Ġà¥§à¥¯à¥¬":2169,"Ġà¤ľà¤¨à¤®à¤¤":2170,"à¤¨à¤¤à¤°":2171,"à¤ķà¤¸à¤®":2172,"à¤Ĺà¤µ":2173,"Ġà¤°à¤ľà¤¤":2174,"à¤¶à¤°à¤£":2175,"à¤ĸà¤¬":2176,"Ġà¤¸à¤¬à¤²":2177,"à¤°à¤¬à¤°":2178,"Ġà¥Ńà¥ª":2179,"à¤¯à¤¸à¤®à¤§":2180,"Ġà¥¨à¥¦à¥Ńà¥¦":2181,"à¤łà¤ķà¤¬":2182,"à¤¯à¤Łà¤ķà¤ķ":2183,"Ġà¥¦à¥¬":2184,"à¤ıà¤¨à¤Ĩà¤°à¤ıà¤¨à¤ı":2185,"à¤²à¤ĸà¤£":2186,"Ġà¤²à¤ľ":2187,"Ġà¤īà¤§":2188,"Ġà¤¡à¤ķ":2189,"Ġà¥¨à¥¦à¥¨à¥¦":2190,"Ġà¤ĵà¤®":2191,"à¤·à¤¦à¤ķ":2192,"Ġà¥¨à¥¦à¥§à¥¦":2193,"à¤¤à¤Ĺà¤¤":2194,"Ġà¤¨à¤Ńà¤¨":2195,"Ġà¤µà¤¸à¤¨":2196,"à¤ļà¤¥à¤°":2197,"à¤¡à¤¨à¤®":2198,"à¤¡à¤²à¤®":2199,"Ġà¤¥à¤ķ":2200,"à¤µà¤ķà¤ª":2201,"Ġà¤¤à¤¹à¤¸à¤®":2202,"Ġà¤ħà¤ªà¤¡":2203,"Ġà¤ħà¤ªà¤¹à¤°à¤£":2204,"à¤®à¤¸à¤¤":2205,"à¤¯à¤Łà¤ķà¤¹à¤°":2206,"Ġà¤¸à¤ªà¤¥":2207,"Ġà¤¨à¤Ńà¤ıà¤¸à¤®":2208,"Ġà¤¨à¤Łà¤Ĩà¤īà¤Ł":2209,"à¤°à¤ĺ":2210,"à¤¨à¤Ńà¤°":2211,"à¤²à¤¯à¤¸":2212,"à¤Łà¤ķà¤®":2213,"Ġà¤¦à¤¯":2214,"à¤¥à¤¶":2215,"Ġà¥¤âĢĿ":2216,"à¤Īà¤Ł":2217,"à¤īà¤¨à¤®":2218,"Ġà¤ľà¤¨à¤¹":2219,"à¤¯à¤®à¤¶":2220,"à¤¾à¤Ĥà¥Ī":2221,"à¤®à¤ķà¤°":2222,"à¤¯à¤²à¤²":2223,"Ġà¤Ĩà¤µà¤¦":2224,"Ġà¥¬à¥§":2225,"à¤ĵà¤ķ":2226,"à¤¤à¤°à¤£à¤®":2227,"Ġà¤ľà¤¬à¤¸à¤®":2228,"à¤¬à¤Īà¤®":2229,"Ġà¤Ĩà¤Īà¤¸":2230,"à¤¤à¤¹à¤¤":2231,"à¥Ģà¤Ĥ":2232,"à¤·à¤ª":2233,"Ġà¤Ĩà¤Ļ":2234,"à¤īà¤¹":2235,"Ġà¤¸à¤®à¤¯à¤²":2236,"à¤°à¤ķà¤²":2237,"Ġà¤ļà¤®":2238,"Ġà¤ħà¤µà¤¸à¤°à¤ķ":2239,"Ġà¤ĵà¤Ĺà¤Ł":2240,"Ġà¤ªà¤¦à¤¬":2241,"Ġà¤ľà¤¬à¤ķ":2242,"Ġà¥¨à¥¦à¥ªà¥Ń":2243,"à¤°à¤ħà¤¨":2244,"à¤²à¤¸à¤¹":2245,"Ġà¤¸à¤¨à¤®":2246,"Ġà¤¸à¤¤à¤°":2247,"à¤ªà¤¹à¤°":2248,"à¤¦à¤¸":2249,"à¤ıà¤«à¤²":2250,"à¤ģà¤Ĥ":2251,"Ġà¤¦à¤²à¤®":2252,"à¤¥à¤¤":2253,"à¤Ńà¤°à¤¤":2254,"à¤¯à¤ķà¤µ":2255,"Ġà¤Łà¤ķ":2256,"à¤ķà¤²à¤¨à¤ķ":2257,"à¤Ĩà¤ĩà¤¸":2258,"à¤¡à¤ķà¤ª":2259,"Ġà¤¸à¤®à¤¯à¤ªà¤Ľ":2260,"à¤·à¤¯à¤Ĺà¤¤":2261,"Ġà¤ıà¤¨à¤ľ":2262,"Ġà¥¯à¥®":2263,"Ġà¥§à¥¯à¥ª":2264,"à¤¨à¤¯à¤¨à¤®":2265,"à¤¾âĢĻ,":2266,"à¤¾Ã·":2267,"à¤¨à¤Ĺà¤°à¤ķ":2268,"à¤²à¤Ł":2269,"à¤¤à¤Ń":2270,"à¤¤à¤¨à¤®":2271,"à¤¸à¤¶":2272,"Ġà¤¸à¤°à¤¹":2273,"à¤ıà¤²à¤ķ":2274,"à¤ıà¤¸à¤¨":2275,"à¤ıà¤«à¤ķ":2276,"Ġà¤¯à¤®":2277,"Ġà¤ıà¤ļ":2278,"à¤ĺà¤Ł":2279,"à¤¯à¤¸à¤ħà¤ĺ":2280,"Ġà¤§à¤°à¤¹à¤°":2281,"à¤¯à¤¤à¤¸":2282,"Ġà¤īà¤ªà¤¦":2283,"à¥Ńà¥¬":2284,"Ġà¤¦à¤¶à¤ķà¤¦":2285,"à¤Ĭà¤¨":2286,"à¥ĭà¤Ĥ":2287,"à¤¯à¤¦à¤²":2288,"à¤¦à¤¹à¤°":2289,"Ġà¤ķà¤·":2290,"Ġà¤ķà¤¸à¤ķ":2291,"Ġà¤ķà¤²à¤ķ":2292,"Ġà¤ķà¤²à¤®":2293,"Ġà¤Ĺà¤«":2294,"à¤Ĺà¤ļ":2295,"à¤ıà¤¸à¤ķ":2296,"Ġà¤ħà¤ł":2297,"à¤¬à¤¤":2298,"Ġà¤ľà¤¯":2299,"à¤Īà¤ªà¤Łà¤ķ":2300,"à¤¡à¤¹à¤°":2301,"à¤¡à¤¨à¤ķ":2302,"à¥Į,":2303,"Ġà¤°à¤¹à¤¸":2304,"à¤°à¤¹à¤µ":2305,"à¤²à¤ķà¤¹à¤°":2306,"Ġà¤ıà¤ķà¤¸":2307,"à¤¯à¤¤à¤¬":2308,"Ġà¥®à¥®":2309,"Ġà¥¯à¥¨":2310,"à¤¥à¤²à¤Ĺà¤¤":2311,"à¥ĩà¤ģ,":2312,"Ġà¤¤à¤°à¤²à¤¤":2313,"à¤¾/":2314,"à¤¦à¤µà¤ķ":2315,"à¤Ĺà¤ħà¤¨":2316,"à¤ıà¤Īà¤²":2317,"à¤·à¤¤à¤°":2318,"Ġà¤¦à¤µ":2319,"à¤¶à¤¯":2320,"à¤ļà¤°à¤ķ":2321,"à¤Īà¤¸":2322,"à¤¡à¤²à¤²":2323,"à¤ĩà¤ıà¤¨":2324,"à¤¯à¤¨à¤ľà¤°":2325,"à¥į,âĢĺ":2326,"Ġà¤¸à¤¯à¤Ńà¤¨":2327,"Ġà¤ħà¤ªà¤µ":2328,"Ġà¤Ľà¤²à¤«à¤²à¤ķ":2329,"Ġà¤ħà¤²à¤®à¤²":2330,"à¤¾à¥Īà¤ģ":2331,"à¤¨à¤ĸ":2332,"à¤²à¤¹":2333,"à¤¯à¤£à¤ķ":2334,"à¤ªà¤°à¤ķ":2335,"à¤¦à¤°à¤²":2336,"Ġà¤Ĺà¤ĩà¤¸à¤ķ":2337,"à¤Ĺà¤²à¤ķ":2338,"Ġà¤ħà¤ļà¤®":2339,"à¤¶à¤Ńà¤ķ":2340,"à¤īà¤ľ":2341,"à¤ĩà¤ĵ":2342,"à¤ĩà¤Ńà¤°":2343,"à¤«à¤¸":2344,"à¥Įà¥¤":2345,"Ġà¤ıà¤¯":2346,"Ġà¤ıà¤ķà¤°":2347,"Ġà¤Łà¤¹à¤°":2348,"Ġà¤ĩà¤Ń":2349,"à¥ĩ,âĢĻ":2350,"à¤Ĩà¤ĩà¤ľ":2351,"Ġà¥Ńà¥¯":2352,"Ġà¤Ńà¤µà¤¨à¤ķ":2353,"Ġà¤ıà¤¨à¤Ĩà¤°à¤ıà¤¨à¤ıà¤ķ":2354,"à¤¨à¤°à¤®":2355,"à¤¨à¤ªà¤°":2356,"à¤¦à¤¤à¤®":2357,"à¤Ĺà¤¬à¤¨":2358,"à¤Ĺà¤¬à¤¹":2359,"à¤ıà¤īà¤Ł":2360,"Ġà¤Ĩà¤µà¤ķ":2361,"Ġà¤īà¤¬":2362,"à¤°à¤®à¤§":2363,"Ġà¤¶à¤¤à¤ª":2364,"Ġà¤«à¤²à¤¸":2365,"à¤ŀà¤¤":2366,"Ġà¤ĩà¤Ļ":2367,"Ġà¤ħà¤®à¤°":2368,"Ġà¤ľà¤¸à¤ħà¤¨":2369,"Ġà¤Ĩà¤Ĺà¤®à¤¨":2370,"Ġà¥¯à¥Ń":2371,"Ġà¥«à¥¦à¥¦":2372,"Ġà¥¨à¥¦à¥ªà¥®":2373,"à¤°à¤Ļà¤ķ":2374,"à¤ķà¤ħà¤ª":2375,"à¤¹à¤¹à¤°":2376,"Ġà¤Ĺà¤Ĺà¤¨":2377,"Ġà¤°à¤Ļ":2378,"à¤ıà¤¬":2379,"Ġà¤µà¤ļà¤¨":2380,"Ġà¤Ĩà¤¸à¤¨":2381,"Ġà¤ľà¤¯à¤¨":2382,"Ġà¤¸à¤®à¤ķà¤ķ":2383,"Ġà¤¥à¤¨":2384,"Ġà¤ªà¤°à¤¨":2385,"Ġà¤¯à¤¸à¤ªà¤Ľ":2386,"à¤¤à¤°à¤ª":2387,"à¤¶à¤ķà¤¹à¤°":2388,"à¤¸à¤¨à¤¬":2389,"Ġà¤ħà¤Ĺà¤¸":2390,"Ġà¥Ńà¥©":2391,"Ġà¥¯à¥ª":2392,"à¤¤à¤¹à¤Łà¤ķ":2393,"Ġà¤¨à¤µà¤²à¤ªà¤°":2394,"à¥įà¥į":2395,"à¤¸à¤ŀ":2396,"Ġà¤ķà¤£":2397,"Ġà¤°à¤¥":2398,"Ġà¤°à¤¹à¤°":2399,"Ġà¤®à¤Ĺà¤°à¤²":2400,"Ġà¤¤à¤µà¤°à¤²":2401,"Ġà¤²à¤ļ":2402,"à¤¯à¤¸à¤ħà¤¨":2403,"à¤Ļà¤¯":2404,"à¤²à¤¨à¤¬":2405,"à¤¶à¤¨à¤¬":2406,"Ġà¤¦à¤°à¤¬à¤¨":2407,"Ġà¥¯à¥§":2408,"Ġà¥¯à¥¯":2409,"Ġà¥¨à¥¦à¥¦à¥®":2410,"Ġà¥¨à¥¦à¥¬à¥¯":2411,"à¤Ķà¤·à¤§":2412,"Ġà¤¦à¤¶à¤ķà¤ķ":2413,"Ġà¤ªà¤¥":2414,"à¤¹à¤ķà¤ķ":2415,"Ġà¤Ĺà¤Ī":2416,"Ġà¥¤âĢĺ":2417,"Ġà¤Ĩà¤¡à¤®":2418,"Ġà¤²à¤°":2419,"à¤Īà¤¹à¤°":2420,"à¤¡à¤¯à¤¨":2421,"à¤ĩà¤°à¤²":2422,"Ġà¤ļà¤Ł":2423,"à¤ªà¤¨à¤ªà¤¤":2424,"à¤ĩà¤¨à¤¬":2425,"à¤ķà¤²à¤¸":2426,"Ġà¤ĩà¤ª":2427,"à¥§à¥ª":2428,"à¤®à¤¤à¤²":2429,"à¥Įà¤ģ,âĢĻ":2430,"à¤ıà¤¸à¤ıà¤®":2431,"Ġà¤Ĳà¤¨à¤ħà¤¨":2432,"à¤Ńà¤²à¤ªà¤®":2433,"Ġà¤ħà¤¸à¤¹à¤ľ":2434,"à¤°à¤ľà¤¸":2435,"à¤¤à¤¯":2436,"à¤Ĺà¤ªà¤¤":2437,"à¥ĪâĢĵ":2438,"à¤Łà¤ªà¤Ľ":2439,"à¤ıà¤²à¤¸":2440,"Ġà¤¹à¤¡":2441,"Ġà¤®à¤¨à¤²":2442,"à¤īà¤¡à¤®":2443,"Ġà¤ıà¤Ĺ":2444,"Ġà¤ĸà¤ª":2445,"Ġà¤ĺà¤°à¤¹à¤°":2446,"Ġà¤¡à¤¨":2447,"Ġà¤¡à¤¬":2448,"à¥Įà¤ĤâĢĻ":2449,"à¤ªà¤¤à¤ķ":2450,"Ġà¤ĵà¤Ł":2451,"Ġà¥®à¥ª":2452,"Ġà¥¯à¥¬":2453,"Ġà¥§à¥¯à¥Ń":2454,"Ġà¤¸à¤¹à¤ľà¤¤":2455,"Ġà¤¨à¤¬à¤¢":2456,"à¤Ĳ":2457,"à¥į)":2458,"à¤ķà¤Ńà¤°":2459,"à¤®à¤Ń":2460,"Ġà¤ªà¤ª":2461,"à¤¦à¤Ľà¤¨":2462,"à¥Īà¥Ī":2463,"Ġà¤°à¤ŀ":2464,"Ġà¤¨à¤²à¤Ĺ":2465,"Ġà¤Ńà¤ĩ":2466,"à¤¥à¤¨à¤®":2467,"à¤Ĥà¥Ī":2468,"à¤Īà¤¬":2469,"à¤īà¤¡à¤ķ":2470,"Ġà¤ıà¤°":2471,"Ġà¤ıà¤ªà¤®":2472,"Ġà¤§à¤¨à¤ķ":2473,"Ġà¤Ĩà¤°à¤ľ":2474,"Ġà¥¯à¥©":2475,"Ġà¤ħà¤¸à¤«à¤²à¤¤":2476,"Ġà¤ľà¤¸à¤®à¤§":2477,"Ġà¥§à¥¯à¥¯à¥¦":2478,"Ġà¤¡à¤²à¤°à¤ķ":2479,"à¤ķà¤¬à¤¹":2480,"à¤¦à¤°à¤¤":2481,"Ġà¤¦à¤¹":2482,"Ġà¤²à¤¹à¤°":2483,"à¤Īà¤ľà¤¨":2484,"à¤¡à¤¹":2485,"à¤¡à¤°à¤ķ":2486,"à¤¡à¤°à¤²":2487,"à¤Ńà¤¨à¤®":2488,"à¤ĩà¤²à¤ķ":2489,"Ġà¤«à¤¨":2490,"Ġà¤łà¤ª":2491,"Ġà¤ĩà¤¯":2492,"à¤·à¤£à¤¬":2493,"à¥Įà¤ģâĢĵ":2494,"Ġà¤®à¤¤à¤²à¤¬":2495,"à¤Ĺà¤łà¤¨à¤®":2496,"Ġà¥§à¥¯à¥«à¥¦":2497,"à¥įâĢĻ,":2498,"à¤²à¤µà¤¸":2499,"à¤¤à¤ļà¤°":2500,"à¥Ģ-":2501,"à¤¹à¤Ł":2502,"à¤¹à¤ľ":2503,"à¤¬à¤Īà¤ķ":2504,"Ġà¤¦à¤¨":2505,"Ġà¤Ĩà¤ĩà¤¨":2506,"à¤Ľà¤¡":2507,"à¤¡à¤¨à¤¸":2508,"à¤ĩà¤¡à¤°":2509,"Ġà¤ıà¤ªà¤ķ":2510,"à¤°à¤¹à¤®":2511,"Ġà¤®à¤¹à¤¤à¤²":2512,"à¤²à¤ķà¤£":2513,"à¤Ļà¤Ĺ":2514,"à¤Łà¤¨à¤Ĺà¤°à¤ķ":2515,"à¥Įà¤ģà¥¤âĢĻ":2516,"à¤¤à¤®à¤§":2517,"Ġà¤ĵà¤¶":2518,"Ġà¤ĵà¤²à¤®":2519,"à¤µà¤Ńà¤°à¤ķ":2520,"à¤¾à¤ĥ":2521,"à¤¤à¤¡":2522,"à¤¯à¤Ńà¤¨":2523,"à¤ªà¤¡":2524,"à¤ªà¤²à¤ķ":2525,"à¤µà¤²à¤®":2526,"à¤ıà¤ħà¤¨":2527,"à¤·à¤°à¤¤":2528,"à¤īà¤Ľ":2529,"à¤¾à¤ģ,":2530,"à¤łà¤°":2531,"à¤¸à¤®à¤®":2532,"Ġà¤ĺà¤°à¤Ń":2533,"à¥ģà¤ģ,":2534,"Ġà¤ĩà¤Łà¤¹à¤°":2535,"à¥§à¥©":2536,"Ġà¤ĵà¤Ńà¤°":2537,"à¤¡à¤ķà¤ªà¤ķ":2538,"Ġà¤ĩà¤¨à¤°":2539,"Ġà¤Ķà¤²":2540,"Ġà¤ĺà¤°à¤ªà¤°":2541,"Ġà¥®à¥©":2542,"à¥įâĢº":2543,"à¤ıà¤®à¤ıà¤¸":2544,"Ġà¤Ńà¤µà¤¨à¤®":2545,"âĢĿ,":2546,"Ġà¤ĭà¤·":2547,"Ġà¤ĭà¤£à¤ķ":2548,"Ġà¤®à¤¦à¤¨à¤ķ":2549,"Ġà¤ĸà¤¤à¤°à¤¨":2550,"Ġà¤ľà¤¬à¤°à¤ľà¤¸":2551,"à¤°à¤¸à¤ķ":2552,"Ġà¤¸à¤ĸ":2553,"Ġà¤°à¤¨à¤°":2554,"Ġà¤¬à¤¦à¤¨":2555,"à¤¬à¤²à¤ķ":2556,"à¤¥à¤¬":2557,"à¤¡à¤Ń":2558,"Ġà¤¯à¤ľ":2559,"à¤ĩà¤Ĺà¤¡":2560,"à¤°à¤ķà¤®":2561,"à¤łà¤¨":2562,"à¤²à¤ķà¤°":2563,"Ġà¤Łà¤ª":2564,"Ġà¤¸à¤¹à¤ª":2565,"à¥«à¥¦":2566,"à¥Įà¤ģà¤Ĥ":2567,"Ġà¤ªà¤Łà¤ķà¤¥":2568,"à¤µà¤°à¤£à¤ķ":2569,"à¤ĩà¤²à¤Ł":2570,"à¤¤à¤µà¤¨à¤®":2571,"Ġà¤ªà¤łà¤¨à¤ª":2572,"à¥Įà¤Ĥà¥¤'":2573,"Ġà¤Īà¤¨":2574,"mà¤¨":2575,"à¤ķà¤ľ":2576,"à¥ĩÂ«":2577,"Ġà¤ªà¤®":2578,"Ġà¤¬à¤ĸà¤¤":2579,"à¤¶à¤ķà¤®":2580,"à¤Ĥà¤Ĥ":2581,"Ġà¤²à¤ĸ":2582,"à¥ĤâĢĻ":2583,"à¤¡à¤Ńà¤¨":2584,"à¤ĸà¤¸":2585,"à¤ĩà¤ļ":2586,"Ġà¤ļà¤ª":2587,"Ġà¤ıà¤¬":2588,"Ġà¤ľà¤¨à¤¨":2589,"Ġà¤¯à¤¸à¤¸":2590,"Ġà¤Łà¤®":2591,"Ġà¤Ĩà¤¯à¤²":2592,"à¤²à¤¬à¤®":2593,"à¤ķà¤°à¤£à¤¬":2594,"à¤¶à¤®à¤¶":2595,"Ġà¤ĺà¤°à¤ĺà¤°à¤®":2596,"Ġà¤¬à¤²à¤°":2597,"Ġà¥®à¥§":2598,"Ġà¥®à¥Ń":2599,"Ġà¥®à¥¬":2600,"à¥ĭ-":2601,"à¥ĭà¤ģ":2602,"à¤²à¤ľ":2603,"Ġà¤¸à¤ľà¤Ĺ":2604,"à¤¦à¤ķà¤¤":2605,"à¤Ĺà¤£à¤¨":2606,"Ġà¤ħà¤Ľ":2607,"à¤Ľà¤µ":2608,"à¤ļà¤µ":2609,"à¤¡à¤ľ":2610,"Ġà¤ħà¤¨à¤®":2611,"à¤°à¤¹à¤ķ":2612,"Ġà¤ıà¤ķà¤ªà¤Ľ":2613,"à¤Ļà¤µ":2614,"Ġà¤īà¤ªà¤ľ":2615,"à¥Įà¤ĤâĢĶ":2616,"à¤Łà¤°à¤ª":2617,"Ġà¤¸à¤¡à¤ķà¤ĸà¤£":2618,"à¥ĭâĢĶ":2619,"à¤²à¤§":2620,"à¤²à¤ľà¤¸":2621,"à¥ĢâĢĻ,":2622,"à¤¹à¤¯":2623,"à¤¹à¤µ":2624,"Ġà¤Ĺà¤¥":2625,"Ġà¤Ńà¤ĩà¤¦":2626,"Ġà¤¹à¤²à¤µ":2627,"Ġà¤®à¤¨à¤ķ":2628,"à¤¥à¤²à¤²":2629,"Ġà¤²à¤Ń":2630,"Ġà¤īà¤Ĺ":2631,"à¤īà¤¸à¤²":2632,"à¤ĩà¤ªà¤²":2633,"à¤ĩà¤ľà¤°":2634,"Ġà¤ıà¤ĺ":2635,"à¤¯à¤¸à¤¨":2636,"à¤¯à¤¸à¤Ńà¤¨":2637,"Ġà¤µà¤°à¤ªà¤°":2638,"Ġà¤ħà¤¸à¤ľ":2639,"Ġà¤¬à¤¸à¤°":2640,"à¤Łà¤¨à¤Ĺà¤°à¤²":2641,"Ġà¤¬à¤¹à¤¸à¤ķ":2642,"à¥įâĢĮ":2643,"Ġà¥¨à¥¦à¥¬à¥®":2644,"Ġà¤ľà¤¨à¤Ĩà¤¸":2645,"Ġà¤¡à¤²à¤°à¤®":2646,"Ġà¤¤à¤¬à¤¸à¤®":2647,"Ġà¤ıà¤¯à¤°à¤¬":2648,",âĢĿ":2649,"mà¤²":2650,"à¤°à¤«à¤²":2651,"à¤ķà¤¤à¤°":2652,"à¤µà¤Ĺ":2653,"à¤µà¤¯à¤ķ":2654,"à¤Ĺà¤¤à¤°":2655,"à¤Ĺà¤¦à¤°":2656,"Ġà¤°à¤¨à¤²":2657,"à¤ıà¤²à¤®":2658,"Ġà¤ħà¤£":2659,"Ġà¤®à¤¤à¤²":2660,"à¤ľà¤¸à¤®":2661,"Ġà¤¦à¤®à¤¨":2662,"à¤ļà¤¤":2663,"à¤ļà¤µà¤Ł":2664,"à¤īà¤¸à¤ķ":2665,"à¤īà¤ªà¤°":2666,"à¤°à¤®à¤¸":2667,"Ġà¤«à¤ķ":2668,"à¤ľà¤¨à¤Ńà¤¨":2669,"Ġà¤ıà¤ķà¤ľ":2670,"à¤¯à¤¸à¤ļ":2671,"Ġà¤ĩà¤¶":2672,"Ġà¤īà¤¦à¤¯":2673,"à¤§à¤¨à¤¬":2674,"à¤Ĺà¤®à¤¨à¤®":2675,"Ġà¤¦à¤²à¤¸":2676,"Ġà¤Ńà¤°à¤ª":2677,"Ġà¤ıà¤¸à¤ıà¤²à¤¸":2678,"à¤°à¤ªà¤¸":2679,"à¤ıà¤«à¤ª":2680,"Ġà¤Ńà¤Ĺà¤µà¤¤":2681,"Ġà¥¦à¥Ńà¥ª":2682,"à¤°à¤ľà¤¨à¤¨":2683,"à¤ľà¤Ńà¤£":2684,"à¤¨à¤Ĺ":2685,"à¤¨à¤ľà¤¸":2686,"à¤ķà¤«":2687,"à¤¯à¤¨à¤®":2688,"à¤ªà¤¢":2689,"à¤¹à¤¨à¤ķ":2690,"Ġà¤Ĺà¤ļ":2691,"à¤ıà¤®à¤¬":2692,"Ġà¤¬à¤¸à¤®":2693,"Ġà¤®à¤¤à¤ķ":2694,"à¤¬à¤¢":2695,"à¤§à¤¸":2696,"Ġà¤¦à¤°à¤®":2697,"à¤¥à¤¯":2698,"Ġà¤Ĩà¤ıà¤¨":2699,"à¤Ľà¤°":2700,"Ġà¤²à¤¸":2701,"à¤Ńà¤¤":2702,"à¤ĩà¤Ļ":2703,"à¤¨à¤®à¤§":2704,"Ġà¤¯à¤¸à¤¤à¤°":2705,"à¤²à¤ķà¤¤":2706,"à¤¯à¤¸à¤¤à¤°":2707,"à¤Ŀà¤¬":2708,"à¤°à¤µà¤²":2709,"Ġà¤Ĩà¤µà¤¤à¤ľ":2710,"à¤¹à¤ķà¤¹à¤°":2711,"Ġà¤«à¤°à¤ķà¤«à¤°à¤ķ":2712,"Ġà¤¨à¤ľà¤°à¤®":2713,"Ġà¤°à¤®à¤£":2714,"Ġà¤Ĩà¤ļà¤°à¤£":2715,"Ġà¥¨à¥¦à¥¬à¥«":2716,"Ġà¤¤à¤¨à¤¹":2717,"à¤¤à¤¹à¤¤à¤ķ":2718,"Ġà¤²à¤®à¤ľ":2719,"Ġà¤¹à¤Ļà¤ķà¤Ļ":2720,"Ġà¤ĥ":2721,"à¤¤à¤ªà¤Ľ":2722,"à¤ªà¤µ":2723,"à¤µà¤ħà¤§":2724,"à¤Łà¤¨à¤®":2725,"Ġà¤®à¤Ļ":2726,"à¤§à¤µà¤ķ":2727,"Ġà¤Ľà¤¤":2728,"à¤ģâĢĵ":2729,"Ġà¤¦à¤¯à¤¨":2730,"à¤¥à¤ķà¤¤":2731,"à¤īà¤Ľà¤¨":2732,"Ġà¤ļà¤£":2733,"à¤°à¤¤à¤¤à¤°":2734,"Ġà¤ĺà¤°à¤¦":2735,"à¤¯à¤¤à¤¥":2736,"Ġà¤īà¤ªà¤¸à¤®":2737,"Ġà¤ĩà¤Ļà¤²":2738,"Ġà¤¬à¤¸à¤ª":2739,"à¤µà¤ķà¤¹à¤°":2740,"à¤ķà¤ķà¤°":2741,"Ġà¤Ĩà¤µà¤®":2742,"Ġà¤ªà¤ķà¤¡":2743,"Ġà¤Ĩà¤ĩà¤ªà¤°":2744,"à¤Ĺà¤®à¤¨à¤²":2745,"à¤£à¤¯à¤¬":2746,"à¤£à¤¯à¤¹à¤°":2747,"à¤¯à¤ªà¤¹":2748,"Ġà¤¸à¤¡à¤ķà¤¬":2749,"à¤·à¤§à¤°":2750,"Ġà¥¦à¥ª":2751,"à¤°à¤«à¤²à¤®":2752,"Ġà¤¯à¤¸à¤ªà¤Łà¤ķà¤ķ":2753,"à¤¨à¤°à¤²":2754,"à¤¿!":2755,"à¤¿à¤¾":2756,"à¥ĩà¥ĩ":2757,"à¤®à¤ĺ":2758,"à¤¤à¤ľà¤¨":2759,"Ġà¤ªà¤µà¤¨":2760,"à¤ªm":2761,"à¤¦à¤¦":2762,"Ġà¤¨à¤°à¤¹à¤¨":2763,"Ġà¤®à¤¸à¤²":2764,"à¤¬à¤¬":2765,"à¤¬à¤Īà¤²":2766,"à¤§à¤¹à¤°":2767,"Ġà¤Ĩà¤°à¤®":2768,"à¤Ńà¤¦":2769,"à¤Ńà¤°à¤ķ":2770,"à¤Ńà¤µà¤ķ":2771,"Ġà¤¯à¤¶":2772,"à¤ĩà¤Łà¤²":2773,"à¤¹à¤°à¤²":2774,"Ġà¤ĸà¤®":2775,"à¤¯à¤¤à¤¨":2776,"à¤¯à¤¨à¤¸":2777,"à¥¨à¥§":2778,"à¤°à¤®à¤£à¤ªà¤Ľ":2779,"Ġà¤Ĩà¤ĩà¤ľ":2780,"à¤ĩà¤¨à¤²à¤ķ":2781,"Ġà¥¨à¥¦à¥¦à¥©":2782,"Ġà¤ħà¤ªà¤¨à¤¤":2783,"Ġà¥¨à¥¦à¥«à¥§":2784,"Ġà¥¨à¥¦à¥©à¥¦":2785,"Ġà¤Ĩà¤ĩà¤ıà¤®à¤Ī":2786,"à¤¨à¤ľà¤¨à¤ķ":2787,"à¤²à¤¯à¤¨":2788,"à¤²à¤Ńà¤°":2789,"à¤¯à¤Ĺà¤¤":2790,"à¥ģ)":2791,"Ġà¤ªà¤¤à¤¨":2792,"Ġà¤¨à¤°à¤®":2793,"à¤ıà¤ľà¤¸":2794,"Ġà¤¹à¤ķà¤ķ":2795,"à¤·à¤ľà¤¨à¤ķ":2796,"à¤ģ,âĢĻ":2797,"Ġà¤¦à¤°à¤µ":2798,"Ġà¤ľà¤²à¤¬":2799,"Ġà¤ľà¤Ĺà¤®":2800,"Ġà¤ľà¤¯à¤ª":2801,"à¤£à¤ªà¤¨":2802,"à¤£à¤ļà¤¨":2803,"à¤ļà¤ª":2804,"à¤ļà¤²à¤¨":2805,"à¤ĸà¤°à¤®":2806,"âĢĮ":2807,"à¤¯à¤ķà¤¹à¤°":2808,"Ġà¤ľà¤¨à¤°à¤²":2809,"Ġà¤¯à¤¸à¤µà¤°":2810,"à¤¯à¤¸à¤¤":2811,"à¤Ļà¤¦":2812,"à¤ķà¤²à¤Ĺ":2813,"à¤ķà¤®à¤ľ":2814,"à¤µà¤°à¤¬":2815,"à¤Łà¤°à¤Ł":2816,"Ġà¤Ĺà¤¤à¤µà¤°":2817,"Ġà¤ľà¤¸à¤¬":2818,"à¤Ĺà¤łà¤¬à¤¨":2819,"Ġà¤¸à¤¹à¤°à¤²":2820,"Ġà¤Ĺà¤£à¤¨":2821,"Ġà¤Ńà¤Īà¤°à¤¹":2822,"à¤¹à¤¦à¤°à¤µ":2823,"Ġà¤¶à¤¹à¤°à¤®":2824,"Ġà¤ĵà¤ªà¤¨à¤°":2825,"à¤¨à¤¶":2826,"à¤ķà¤Ĺ":2827,"à¤®à¤Ĺà¤°":2828,"à¤¤à¤®à¤ķ":2829,"à¤¯à¤ļ":2830,"à¤¸à¤Ļ":2831,"à¤¸à¤°à¤²":2832,"à¤ªà¤°à¤®":2833,"à¤Ĺà¤²à¤²":2834,"Ġà¤¨à¤ī":2835,"à¤Łà¤¦":2836,"à¤Łà¤Ńà¤¨":2837,"à¤ıà¤Ł":2838,"Ġà¤®à¤®":2839,"à¤Ńà¤µà¤²":2840,"Ġà¤¸à¤®à¤¤":2841,"à¤łà¤¤":2842,"Ġà¤ıà¤ķà¤¥à¤°":2843,"Ġà¤§à¤¨à¤°":2844,"Ġà¤¸à¤¹à¤¸":2845,"à¤¤à¤°à¤µ":2846,"à¤°à¤µà¤¹à¤¨":2847,"à¤Ĩà¤§":2848,"Ġà¤ħà¤µà¤¹":2849,"Ġà¤ħà¤Ĺà¤·":2850,"ĠĠĠĠĊ":2851,"Ġà¤¸à¤¤à¤¹à¤®":2852,"Ġà¤ıà¤¨à¤ħ":2853,"Ġà¤°à¤ķà¤®à¤®":2854,"à¤¥à¤²à¤¹à¤°":2855,"à¤ıà¤²à¤Ĺà¤¤":2856,"Ġà¥¨à¥¦à¥¦à¥ª":2857,"Ġà¤¨à¤µà¤ľ":2858,"à¤Ĺà¤łà¤¨à¤¹à¤°":2859,"à¤Łà¤¬à¤²à¤®":2860,"Ġà¤¨à¤¬à¤¸":2861,"à¤ªà¤Łà¤ª":2862,"Ġà¤®à¤¹ÅĴà¤µ":2863,"Ġà¥¦à¥Ńà¥©":2864,"Ġà¤ķà¤¦à¤®à¤ķ":2865,"?âĢĻ":2866,"à¤¨à¤Ī":2867,"à¤¨à¤¯à¤ķ":2868,"à¤¨à¤¯à¤®":2869,"à¥ĭÂ¥":2870,"à¤®à¤Ĺà¤łà¤¬à¤¨":2871,"à¥Ģ/":2872,"à¤¸à¤¸à¤¹":2873,"Ġà¤¸à¤µà¤²":2874,"Ġà¤ªà¤¡":2875,"Ġà¤ªà¤¹à¤°":2876,"à¤µà¤µà¤°":2877,"à¤ıà¤¡":2878,"Ġà¤¬à¤²à¤ķ":2879,"à¤ľà¤ªà¤¤":2880,"à¤·à¤Ńà¤°":2881,"à¤§à¤°à¤²":2882,"Ġà¤Ĩà¤ĺ":2883,"Ġà¤²à¤¬":2884,"à¤ļà¤¤à¤®":2885,"à¤¡à¤¡":2886,"à¤īà¤ļ":2887,"à¤ĩà¤ıà¤ªà¤Ľ":2888,"à¤°à¤£à¤¹à¤°":2889,"à¤ľà¤¨à¤¶":2890,"à¥ĭà¥¤âĢĿ":2891,"Ġà¤ıà¤ķà¤¤à¤°":2892,"à¤¯à¤¸à¤µ":2893,"à¥Įà¤ĤâĢĻ,":2894,"à¤°à¤¬à¤¦":2895,"à¤²à¤¨à¤ªà¤Ľ":2896,"à¤ĵà¤ıà¤¸":2897,"Ġà¤Ĩà¤ĩà¤°à¤¹à¤¨":2898,"Ġà¤ħà¤¸à¤¹à¤¯":2899,"à¤ļà¤¯à¤ªà¤¤":2900,"à¤®à¤¶à¤°à¤£":2901,"Ġà¤ĸà¤¬à¤°à¤¦":2902,"à¤²à¤¡":2903,"à¤®à¤ĸ":2904,"à¤¯à¤ħà¤¨":2905,"à¥ģâĢľ":2906,"à¤¸à¤¸à¤ķ":2907,"à¤ªà¤¸à¤ķ":2908,"à¤ªà¤ŀ":2909,"Ġà¤ķà¤¯":2910,"à¤Ĺà¤°à¤£":2911,"Ġà¤¨à¤¶":2912,"à¤Łà¤¨à¤²":2913,"à¤ıà¤ª":2914,"Ġà¤Ńà¤¡":2915,"Ġà¤ħà¤¢":2916,"Ġà¤¬à¤¸à¤¨":2917,"Ġà¤®à¤¯":2918,"Ġà¤®à¤²à¤®":2919,"Ġà¤Ĺà¤°à¤ķ":2920,"à¤ľà¤°à¤Ń":2921,"à¤§à¤¨à¤¸":2922,"à¤¶à¤¯à¤¯":2923,"Ġà¤²à¤®à¤¹":2924,"à¤ļà¤¥":2925,"à¤ļà¤¶":2926,"à¤¡à¤ħà¤¨":2927,"à¤ĩà¤¹à¤°":2928,"à¤ĩà¤ķà¤°":2929,"Ġà¤¶à¤¹":2930,"à¤µà¤¸à¤¹":2931,"à¥¦à¥Ń":2932,"Ġà¤®à¤¹à¤²":2933,"Ġà¤¡à¤¬à¤²":2934,"à¥Įà¤Ĥà¤ģ":2935,"à¤ħà¤¤":2936,"Ġà¤ªà¤¹à¤²à¤ķ":2937,"Ġà¤ĵà¤¹":2938,"à¤ıà¤¨à¤ľ":2939,"Ġà¤ªà¤¦à¤¸":2940,"Ġà¤ıà¤¸à¤ıà¤®à¤ıà¤¸":2941,"à¤ıà¤¸à¤ľ":2942,"à¤ıà¤®à¤ı":2943,"à¤¨à¤¯à¤¨à¤ķ":2944,"Ġà¥¨à¥¦à¥¦à¥¦":2945,"Ġà¥¨à¥¦à¥ªà¥¯":2946,"à¤ĩà¤«à¤¸":2947,"Ġà¤ķà¤¦à¤®à¤²":2948,"à¤¾à¤¿":2949,"à¤ķà¤¨à¤®":2950,"à¤ķà¤Ńà¤¨":2951,"à¤²à¤¤à¤°":2952,"à¤²à¤Ńà¤¨":2953,"à¤®à¤¦à¤°":2954,"à¤µà¤²à¤²":2955,"à¤Ĺà¤ľà¤®":2956,"Ġà¤°à¤ļ":2957,"Ġà¤°à¤Ĺà¤¤à¤ķ":2958,"à¤Łà¤¸à¤²":2959,"à¤ıà¤Łà¤°":2960,"Ġà¤ħà¤¶à¤ķ":2961,"Ġà¤®à¤Ĺ":2962,"Ġà¤Ĩà¤µà¤¸":2963,"à¤Ľà¤ķ":2964,"à¤£à¤¸à¤®":2965,"à¤Īà¤ª":2966,"à¤¡à¤¸à¤®":2967,"à¤¡à¤°à¤¸":2968,"à¤īà¤¬":2969,"à¤īà¤ªà¤ª":2970,"à¤ĩà¤²à¤¬":2971,"à¤°à¤ķà¤ķ":2972,"Ġà¤ıà¤ıà¤«à¤ª":2973,"à¤°à¤¤à¤µ":2974,"à¥ĥâĢĻ":2975,"à¥¦à¥¬à¥©":2976,"à¥ĭà¥¤'":2977,"Ġà¤¸à¤¹à¤ķà¤°":2978,"à¥Įà¤Ĥ',":2979,"à¤°à¤¬à¤²":2980,"à¤²à¤¨à¤°à¤¤":2981,"à¥ĭ,'":2982,"Ġà¤ĵà¤¬":2983,"à¥¨à¥¨":2984,"Ġà¤Ŀà¤¡à¤ª":2985,"Ġà¤¸à¤¦à¤¨à¤®":2986,"Ġà¤¨à¤Ńà¤ĩ":2987,"Ġà¤¸à¤¤à¤¹":2988,"Ġà¥§à¥«à¥¦":2989,"Ġà¥¨à¥¦à¥¦à¥¬":2990,"à¤¯à¤£à¤Ĺà¤¢":2991,"Ġà¤¦à¤¶à¤°à¤¥":2992,"à¤¤à¤¹à¤¤à¤®":2993,"Ġà¤ıà¤«à¤ıà¤®":2994,"Ġà¤¸à¤¹à¤¨à¤¶":2995,"à¤¼":2996,"à¤¾'":2997,"à¤°à¤ħ":2998,"à¥ĭ',":2999,"à¤¤à¤°à¤¹":3000,"à¥ģâĢĻ,":3001,"Ġà¤¸à¤¯à¤®":3002,"à¤¦à¤°à¤®":3003,"à¤µà¤ªà¤Ľ":3004,"à¤ıà¤¤":3005,"Ġà¤¬à¤¹à¤°":3006,"Ġà¤¬à¤²à¤²":3007,"à¤¶à¤¸à¤®":3008,"Ġà¤Ĩà¤¯à¤ķ":3009,"Ġà¤²à¤¯":3010,"à¤Īà¤ĺ":3011,"à¤ĩà¤¸à¤®":3012,"à¤ĩà¤¡à¤ķ":3013,"à¤¹à¤°à¤£à¤®":3014,"Ġà¤ļà¤¹":3015,"à¤«à¤¨":3016,"Ġà¤ıà¤ªà¤²":3017,"à¤¾à¤ģ)":3018,"à¤¾à¤ģà¤ģ":3019,"Ġà¤ħà¤¨à¤¨":3020,"Ġà¤¡à¤®":3021,"à¤®à¤ķà¤¥":3022,"Ġà¤Ńà¤ıà¤ľà¤¸":3023,"à¤Ĺà¤¤à¤¦":3024,"à¤¤à¤¨à¤¶":3025,"à¤Łà¤°à¤¸à¤®":3026,"Ġà¤ħà¤µà¤Ĺà¤¤":3027,"à¤¯à¤¦à¤²à¤²":3028,"à¥Ģ),":3029,"Ġà¤ıà¤¯à¤°à¤ª":3030,"à¤¾âĢĶ":3031,"à¤¨à¤°à¤ķ":3032,"à¤²à¤Ļ":3033,"à¤®à¤«":3034,"à¤¯à¤Ĺ":3035,"à¤¸à¤¯":3036,"à¤ªà¤°à¤¤":3037,"Ġà¤Ĺà¤¢":3038,"Ġà¤Ĺà¤¡à¤¬":3039,"à¤Ĺà¤¨à¤®":3040,"à¥ĪâĢĻ":3041,"à¤Łà¤¡":3042,"à¤Łà¤ķà¤²":3043,"Ġà¤¬à¤¬":3044,"Ġà¤¹à¤¦":3045,"Ġà¤¹à¤²à¤²":3046,"à¤¬à¤²à¤®":3047,"à¤¶à¤²à¤¤":3048,"Ġà¤Ĩà¤¯à¤¸":3049,"à¤Ľà¤¦":3050,"à¤ĸà¤¨à¤ķ":3051,"à¤ĸà¤ķà¤ķ":3052,"à¤ĩà¤Łà¤ķ":3053,"à¤°à¤®à¤ħà¤¨":3054,"à¤¾à¤ģà¤Ĥ":3055,"à¤¾à¤ģâĢĵ":3056,"Ġà¤«à¤Ł":3057,"à¤¨à¤²à¤ķ":3058,"à¤ĺà¤¬":3059,"Ġà¤¸à¤¹à¤µ":3060,"à¤ħà¤ªà¤°":3061,"à¤®à¤ķà¤¤":3062,"Ġà¤Ĩà¤¯à¤°à¤²":3063,"à¤¯à¤²à¤Ĺ":3064,"à¤Ĩà¤¨":3065,"à¥¨à¥©":3066,"Ġà¤Ŀà¤Ł":3067,"à¥ªà¥«":3068,"à¤ıà¤¨à¤ıà¤®":3069,"Ġà¤¬à¤¹à¤¸à¤®":3070,"Ġà¤Ĩà¤īà¤²":3071,"Ġà¤®à¤¤à¤Ń":3072,"Ġà¤Ĩà¤®à¤ľà¤¨à¤¤":3073,"à¤¤à¤¬à¤¹":3074,"Ġà¥©à¥¦à¥¦":3075,"à¤ķà¤Łà¤¤":3076,"Ġà¤¹à¤ķà¤¹":3077,"Ġà¤ĵà¤Ńà¤°à¤ķ":3078,"à¤Ĺà¤ľà¤ªà¤¤":3079,"Ġà¤ıà¤¨à¤Ĩà¤°à¤ıà¤¨à¤²":3080,"Ġà¤ħà¤²à¤®à¤²à¤®":3081,"Ġà¤¨à¤īà¤ł":3082,"à¤ķà¤ľà¤¸":3083,"à¤ķà¤Łà¤²":3084,"à¤®à¤¦à¤²":3085,"à¤¸à¤«à¤°":3086,"à¤ªà¤¸à¤²":3087,"à¤µà¤°à¤¤":3088,"à¤Łà¤¸à¤¹":3089,"à¤ıà¤Ŀ":3090,"Ġà¤ħà¤¥":3091,"Ġà¤¹à¤ļ":3092,"Ġà¤¹à¤²à¤ķ":3093,"Ġà¤¹à¤¡à¤¤":3094,"Ġà¤®à¤²à¤ķ":3095,"Ġà¤®à¤Ĺà¤°à¤ķ":3096,"Ġà¤Ĩà¤ıà¤®":3097,"à¤Īà¤ľ":3098,"Ġà¤īà¤Ľ":3099,"à¤ĸà¤¨à¤®":3100,"à¤¯à¤¸à¤ª":3101,"à¤¯à¤¤à¤°":3102,"Ġà¤µà¤°à¤ªà¤°à¤ķ":3103,"Ġà¤īà¤ªà¤²":3104,"à¤ħà¤µ":3105,"Ġà¤®à¤¨à¤¨":3106,"Ġà¤ĩà¤ŀ":3107,"Ġà¤Ńà¤ıà¤²à¤Ĺà¤¤":3108,"Ġà¤ħà¤µà¤¸à¤°à¤²":3109,"Ġà¤ħà¤µà¤¸à¤°à¤µ":3110,"à¤²à¤¬à¤¸":3111,"à¥Ńà¥©":3112,"Ġà¤¸à¤¯à¤¦":3113,"à¤¸à¤¦à¤¸":3114,"Ġà¤¨à¤Ńà¤ıà¤®":3115,"Ġà¤Ĩà¤ĩà¤¤à¤µ":3116,"à¤¶à¤®à¤§":3117,"Ġà¤®à¤²à¤ľà¤²":3118,"Ġà¤Ĳà¤ķ":3119,"à¤ľà¤¨à¤ķà¤ª":3120,"Ġà¤ıà¤¨à¤Ĩà¤°à¤ıà¤¨à¤ıà¤²":3121,"Ġà¤ĭà¤ļ":3122,"à¤°à¤Ĺà¤ŀ":3123,"Ġï":3124,"à¤¨à¤Ĺà¤°à¤²":3125,"à¤¤à¤¥":3126,"à¤¤à¤ħà¤¨":3127,"à¤¸à¤¡à¤ķ":3128,"Ġà¤ªà¤Łà¤¨":3129,"à¤ªà¤ķà¤²":3130,"à¤¦à¤ķà¤²":3131,"Ġà¤Ĺà¤¸":3132,"Ġà¤¨à¤Ĺà¤°à¤®":3133,"à¤§à¤ªà¤Ľ":3134,"à¤¥à¤¹à¤°":3135,"Ġà¤Ĩà¤¬":3136,"à¤¡à¤ªà¤°":3137,"à¤ĸà¤¡":3138,"à¤īà¤¨à¤¸à¤®":3139,"Ġà¤¶à¤°à¤¦":3140,"à¤ªà¤°à¤¬":3141,"à¤Ļà¤ľ":3142,"à¤¤à¤°à¤¸à¤®":3143,"à¤Ŀà¤ķ":3144,"à¤ķà¤²à¤¨à¤®":3145,"à¤¸à¤¨à¤¸":3146,"à¥¨à¥ª":3147,"Ġà¤Ŀà¤¡":3148,"à¤°à¤Ńà¤°à¤ķ":3149,"Ġà¤¸à¤®à¤¯à¤Ń":3150,"Ġà¤¸à¤®à¤¯à¤ħà¤¨":3151,"Ġà¤Ĩà¤ĩà¤²":3152,"Ġà¤Ĩà¤ĩà¤¡":3153,"Ġà¤Ķà¤ľ":3154,"Ġà¤Ĺà¤łà¤¨à¤ķ":3155,"Ġà¤°à¤ķà¤®à¤²":3156,"à¤°à¤ļà¤¢":3157,"à¤¯à¤Łà¤¨à¤²":3158,"Ġà¤ľà¤²à¤ļà¤°":3159,"Ġà¤¸à¤ĺà¤¨":3160,"Ġà¥¨à¥¦à¥«à¥¨":3161,"à¤ıà¤«à¤¸":3162,"Ġà¤ıà¤«à¤¥":3163,"ĠÂ¥":3164,"à¤¾(":3165,"à¤²à¤°à¤ķ":3166,"à¥ģâĢ":3167,"à¥Ģ?":3168,"Ġà¤¸à¤Ī":3169,"à¤ªà¤¯à¤ķ":3170,"à¤ªà¤£à¤ķ":3171,"à¤¹à¤¤à¤ķ":3172,"Ġà¤ķà¤¦à¤°":3173,"à¤Ĺà¤§à¤¨":3174,"à¤Ĺà¤¸à¤¹":3175,"Ġà¤°à¤¶":3176,"à¤Łà¤ħà¤¨":3177,"à¤ıà¤ľ":3178,"Ġà¤ħà¤ľà¤¯":3179,"à¤ľà¤¸à¤²":3180,"Ġà¤µà¤¹":3181,"Ġà¤µà¤¨à¤ķ":3182,"à¤·à¤¯à¤°":3183,"Ġà¤¤à¤¦":3184,"Ġà¤¤à¤²à¤®":3185,"à¤ģâĢĻ":3186,"à¤¥à¤ķà¤²":3187,"à¤¶à¤ªà¤Ľ":3188,"Ġà¤Ĩà¤¶à¤®":3189,"à¤¡à¤¨à¤²":3190,"à¤Ńà¤Ł":3191,"à¤Ńà¤ķà¤°":3192,"Ġà¤¯à¤¨":3193,"Ġà¤ļà¤¤":3194,"Ġà¤ıà¤¯à¤°à¤ķ":3195,"Ġà¤¶à¤®à¤¶":3196,"à¤¸à¤ķà¤¸":3197,"à¤¢à¤¤":3198,"à¤¢à¤¯":3199,"à¤¯à¤¸à¤¯à¤¤":3200,"à¤Ļà¤ª":3201,"Ġà¤¸à¤¹à¤ļ":3202,"Ġà¤ķà¤®à¤¸à¤²":3203,"à¤ħà¤¦":3204,"à¤¸à¤²à¤Ĺ":3205,"à¤¤à¤¨à¤ªà¤Ľ":3206,"à¥Įà¤ģ-":3207,"à¥Ńà¥¦":3208,"à¥Ńà¥¨":3209,"Ġà¤Ŀà¤¸":3210,"à¤ıà¤¨à¤ª":3211,"à¤ķà¤°à¤£à¤¸":3212,"Ġà¤¦à¤°à¤°":3213,"Ġà¤¥à¤ªà¤²":3214,"à¤ıà¤¸à¤¨à¤ķ":3215,"Ġà¤Ĩà¤ľà¤Ń":3216,"à¤ĩà¤ķà¤²à¤ķ":3217,"Ġà¤īà¤ªà¤¸à¤ļ":3218,"à¤¯à¤¬à¤¸":3219,"Ġà¤ħà¤ĸà¤¬":3220,"à¤¯à¤Łà¤¨à¤®":3221,"Ġà¤¡à¤Łà¤ķà¤®":3222,"à¤¨à¤Ł":3223,"à¤ķà¤¸à¤¹":3224,"à¤²à¤°à¤¹":3225,"à¤®à¤Ŀ":3226,"à¤¤à¤«":3227,"à¤¤à¤²à¤®":3228,"à¤¤à¤Ĺà¤°":3229,"à¤¯à¤¬à¤¦":3230,"à¥ģ.":3231,"à¥ĢÃ·":3232,"à¤¸à¤¸à¤²":3233,"à¤µà¤²à¤¨":3234,"Ġà¤ķà¤ªà¤ķ":3235,"Ġà¤°à¤ľà¤¨":3236,"Ġà¤°à¤£à¤µ":3237,"à¤Łà¤¯":3238,"à¤ľà¤¯à¤²":3239,"à¤¬à¤¨à¤®":3240,"à¤·à¤ħà¤Ĺ":3241,"à¤§à¤ķà¤°":3242,"à¤Ĥà¤ģ":3243,"à¤£à¤¨à¤Ĺà¤°":3244,"à¤ļà¤ľà¤¨":3245,"Ġà¤īà¤¨à¤®":3246,"à¤¡à¤®à¤ķ":3247,"à¤īà¤ªà¤¯":3248,"à¤ĩà¤Ĺà¤°":3249,"à¤µà¤¸à¤²":3250,"Ġà¤¸à¤ķà¤°":3251,"à¤¯à¤®à¤ħà¤¨":3252,"à¤°à¤¹à¤²":3253,"Ġà¤®à¤¹à¤¨":3254,"à¤¯à¤¸à¤¸":3255,"à¤Ļà¤Łà¤¨":3256,"Ġà¤ĺà¤°à¤²":3257,"à¤¤à¤°à¤°":3258,"à¤°à¤¸à¤¨":3259,"à¤°à¤¸à¤Ļ":3260,"à¤ķà¤®à¤§":3261,"à¤Łà¤ķà¤°":3262,"à¤·à¤£à¤¹à¤°":3263,"à¤¸à¤¨à¤µ":3264,"à¤Łà¤¨à¤Ĺà¤°à¤®":3265,"à¤Łà¤°à¤Ńà¤¨":3266,"Ġà¤ĵà¤Ľ":3267,"Ġà¤Ŀà¤²à¤¨":3268,"Ġà¤ħà¤ªà¤²":3269,"Ġà¤¤à¤ªà¤¸":3270,"Ġà¥®à¥¯":3271,"Ġà¤¨à¤®à¤¸":3272,"Ġà¤Ĳà¤°":3273,"Ġà¤ªà¤łà¤¨":3274,"à¤¯à¤¯à¤¨à¤ħà¤¨":3275,"à¤łà¤ķà¤¹à¤°":3276,"Ġà¤°à¤®à¤ªà¤®":3277,"à¤¯à¤£à¤²":3278,"à¤Ĺà¤¬à¤£":3279,"Ġà¥¨à¥¦à¥¬à¥¬":3280,"Ġà¤¨à¤Ĩà¤ī":3281,"Ġà¥¨à¥¦à¥«à¥¯":3282,"Ġà¤ªà¤¸à¤²à¤®":3283,"à¤°à¤Ļà¤®":3284,"à¤¨à¤Ńà¤ıà¤ķ":3285,"à¤ķà¤°à¤®":3286,"à¤ķà¤«à¤°":3287,"à¤²à¤¬à¤¨":3288,"à¤®à¤ħà¤¨":3289,"à¥Ģà¤ĥ":3290,"à¤¸à¤ªà¤Ľ":3291,"à¤ªà¤ĸ":3292,"à¤ªà¤ķà¤ķ":3293,"à¤¦à¤¶à¤¨":3294,"à¤¹à¤ªà¤Ľ":3295,"à¤¹à¤ľà¤¨à¤ķ":3296,"à¤µà¤Łà¤ķ":3297,"Ġà¤Ĺà¤¡":3298,"à¤Ĺà¤¨à¤ķ":3299,"Ġà¤°à¤ĺ":3300,"Ġà¤°à¤Ĺà¤¤à¤®":3301,"Ġà¤¬à¤Ļ":3302,"Ġà¤¬à¤¦à¤®":3303,"Ġà¤®à¤Ł":3304,"Ġà¤®à¤°à¤¹":3305,"à¤ľà¤¯à¤¨":3306,"Ġà¤µà¤¯à¤¸":3307,"à¤¬à¤Ńà¤¨":3308,"Ġà¤Ľà¤Ł":3309,"Ġà¤¦à¤¤":3310,"à¤¶à¤ļà¤¨":3311,"Ġà¤Ĩà¤®à¤®":3312,"à¤£à¤¹à¤°":3313,"à¤ļà¤¡":3314,"à¤ļà¤°à¤®":3315,"à¤¡à¤ķà¤²":3316,"à¤ĸà¤ķà¤²":3317,"à¤ĩà¤Łà¤°":3318,"à¤ĩà¤ķà¤¨":3319,"Ġà¤ıà¤¥":3320,"à¤¯à¤ķà¤°à¤£":3321,"à¤ªà¤°à¤²":3322,"à¤ľà¤¨à¤¯":3323,"à¤ľà¤¨à¤¸":3324,"à¤¨à¤²à¤®":3325,"Ġà¤¯à¤¸à¤¸à¤®":3326,"Ġà¤®à¤¹à¤¶":3327,"Ġà¤ıà¤ķà¤Ľ":3328,"Ġà¤ĩà¤«":3329,"à¤¯à¤¨à¤¹à¤°":3330,"à¤®à¤ķà¤°à¤£":3331,"Ġà¤Ńà¤ıà¤¯à¤¤":3332,"à¤¯à¤²à¤¯":3333,"Ġà¤ħà¤¸à¤°à¤²":3334,"à¤²à¤¬à¤ļ":3335,"à¤Ĩà¤Ĺ":3336,"à¤°à¤¬à¤¦à¤²":3337,"Ġà¤ĵà¤®à¤ª":3338,"à¥¨à¥®":3339,"Ġà¤¸à¤®à¤¯à¤¯à¤¤":3340,"à¤·à¤¦à¤²":3341,"Ġà¤ıà¤¸à¤ĩ":3342,"à¤Ĩà¤°à¤Ĩà¤Ī":3343,"à¤ĩà¤°à¤¸à¤ķ":3344,"Ġà¤Ĺà¤£à¤¤":3345,"Ġà¤¨à¤µà¤īà¤¦":3346,"Ġà¤¦à¤¶à¤ķà¤ªà¤Ľ":3347,"Ġà¤«à¤²à¤¦":3348,"à¤¾),":3349,"Ġà¤¹à¤ķà¤¦":3350,"Ġà¥¨à¥¦à¥«à¥©":3351,"Ġà¥¨à¥¦à¥«à¥®":3352,"Ġà¤ħà¤¸à¤®à¤°":3353,"Ġà¤ħà¤¸à¤®à¤Ŀà¤¦":3354,"à¤®à¤¸à¤®à¤°":3355,"Ġà¤·à¤¡à¤¯à¤¨":3356,"à¤ªmà¤¤":3357,"à¤ļà¤¥à¤°à¤ķ":3358,"Ġà¤Ĺà¤¡à¤¬à¤¡":3359,")à¥¤":3360,"à¥ĭ'":3361,"à¤²à¤°à¤®":3362,"à¤®à¤µà¤°":3363,"à¤¤à¤Ńà¤°":3364,"à¤¯à¤ľà¤¨à¤ķ":3365,"à¤¸à¤µà¤°":3366,"à¤µà¤¤à¤ķ":3367,"à¥¤âĢĺ":3368,"à¤Ĺà¤¯":3369,"à¤Ĺà¤«à¤²":3370,"Ġà¤°à¤ĸ":3371,"à¤Łà¤²à¤²":3372,"Ġà¤ħà¤ķà¤¸":3373,"Ġà¤µà¤ľà¤¨":3374,"Ġà¤¦à¤¶à¤®":3375,"Ġà¤ľà¤²à¤®":3376,"à¤ļà¤¦":3377,"à¤ļà¤¹à¤°":3378,"à¤ļà¤¸à¤®":3379,"Ġà¤īà¤·":3380,"à¤Ńà¤µà¤®":3381,"à¤°à¤¤à¤¤":3382,"Ġà¤ĸà¤ļ":3383,"Ġà¤ľà¤¨à¤Ĺà¤£à¤¨":3384,"à¤¯à¤®à¤¯":3385,"Ġà¤ıà¤ķà¤ªà¤²":3386,"Ġà¤¸à¤¹à¤®à¤¹":3387,"Ġà¤¡à¤£":3388,"Ġà¤¡à¤¡":3389,"Ġà¤łà¤Ł":3390,"à¤¯à¤²à¤¸":3391,"à¤¤à¤¨à¤ª":3392,"à¤Ĩà¤ķ":3393,"à¥«à¥¬":3394,"à¤®à¤¤à¤®":3395,"Ġà¤¸à¤¨à¤°":3396,"Ġà¤ĵà¤ķ":3397,"à¥ªà¥¦":3398,"à¤²à¤¯à¤¦":3399,"à¤²à¤¯à¤¸à¤®":3400,"à¤²à¤¯à¤ħà¤¨":3401,"à¤ľà¤ķà¤¹à¤°":3402,"à¤Ĺà¤²à¤Ĺ":3403,"à¤¶à¤¨à¤¸à¤®":3404,"Ġà¤Ĩà¤ĩà¤ıà¤¸":3405,"à¤¯à¤°à¤¡":3406,"Ġà¤ıà¤®à¤¸":3407,"Ġà¤¦à¤²à¤Ń":3408,"Ġà¤ķà¤¸à¤°à¤¤":3409,"Ġà¤ħà¤ªà¤¹":3410,"à¤ľà¤Ĺà¤¢":3411,"Ġà¤Ĩà¤®à¤¸à¤ŀ":3412,"Ġà¤ľà¤Ĺà¤¦":3413,"Ġà¤Ĩà¤ľà¤Ńà¤¨":3414,"à¤°à¤ªà¤Ł":3415,"Ġà¤¸à¤¹à¤°à¤¹à¤°":3416,"à¤¯à¤¦à¤²à¤ķ":3417,"Ġà¤ĭà¤¤":3418,"à¤¯à¤°à¤¤à¤°":3419,"Ġ!âĢĻ":3420,"Ġà¥§à¥¯à¥¯à¥Ń":3421,"Ġà¤¨à¤µà¤²à¤ª":3422,"Ġà¤®à¤¤à¤²à¤µ":3423,"à¥ģâĢ°":3424,"Åĵ":3425,"à¤°à¤¡à¤ķ":3426,"à¤²à¤°à¤²":3427,"à¤¤à¤¸à¤¹":3428,"à¤¯à¤¡":3429,"à¥Ģ:":3430,"à¤¸à¤°à¤¬":3431,"à¤¦à¤¥":3432,"à¤µà¤®à¤¨":3433,"à¤ıà¤Ľ":3434,"à¤ıà¤¨à¤¸":3435,"Ġà¤Ńà¤ĩà¤°":3436,"Ġà¤ħà¤ķà¤°":3437,"Ġà¤¬à¤¸à¤ķ":3438,"Ġà¤¬à¤ŀ":3439,"Ġà¤¬à¤¦à¤°":3440,"à¤¬à¤§":3441,"Ġà¤¤à¤²à¤ķ":3442,"Ġà¤¤à¤µà¤°à¤¬":3443,"Ġà¤¦à¤°à¤ķ":3444,"à¤¥à¤¨à¤ķ":3445,"à¤¶à¤¶à¤°à¤£":3446,"Ġà¤Ĩà¤ķà¤²à¤¨":3447,"à¤ļà¤°à¤²":3448,"à¤ļà¤ªà¤¦":3449,"à¤Īà¤ļ":3450,"à¤Ńà¤²à¤®":3451,"à¤ĸà¤²à¤¨":3452,"Ġà¤ļà¤¶":3453,"Ġà¤¶à¤°à¤£à¤®":3454,"à¥įà¥¤'":3455,"à¤¯à¤®à¤¸":3456,"à¤¯à¤®à¤¨à¤ķ":3457,"Ġà¤°à¤¹à¤®":3458,"à¤°à¤¸à¤µ":3459,"à¤ħà¤ķ":3460,"à¤ħà¤«à¤®":3461,"Ġà¤łà¤¡":3462,"Ġà¤ĩà¤¡":3463,"Ġà¤Ńà¤ıà¤¤":3464,"Ġà¤ħà¤¸à¤¦":3465,"à¤Ĩà¤ĩà¤¡":3466,"à¤Łà¤¨à¤°":3467,"à¥«à¥«":3468,"Ġà¤¨à¤Ĺà¤°à¤¸à¤Ń":3469,"à¤°à¤¶à¤®à¤¶":3470,"à¤¡à¤ķà¤ªà¤®":3471,"Ġà¤¸à¤¦à¤¨à¤ķ":3472,"Ġà¤ªà¤¦à¤¹à¤°":3473,"Ġà¤ħà¤¬à¤¦":3474,"Ġà¤¤à¤¹à¤¹à¤°":3475,"Ġà¤ıà¤®à¤ı":3476,"Ġà¤ķà¤¹à¤²":3477,"à¤µà¤°à¤£à¤²":3478,"à¤ľà¤®à¤°":3479,"Ġà¤Ĩà¤īà¤ľ":3480,"à¤ıà¤¸à¤ıà¤²":3481,"à¤ĩà¤ķà¤²à¤®":3482,"Ġà¤¸à¤¹à¤°à¤µ":3483,"à¤¥à¤ķà¤¹à¤°":3484,"Ġà¥¨à¥¦à¥¦à¥§":3485,"Ġà¥¨à¥¦à¥¬à¥Ń":3486,"à¤Łà¤«à¤°":3487,"Ġà¥¨à¥¦à¥«à¥¦":3488,"à¤®à¤°à¤£à¤¶à¤ķ":3489,"Ġà¥§à¥¯à¥¯à¥®":3490,"Ġà¥¨à¥¦à¥¨à¥¨":3491,"à¤«à¤¸à¤²à¤ķ":3492,"Åĵà¤¯":3493,"Ĥ§":3494,"à¤ķà¤ķà¤²":3495,"à¤ķà¤°à¤¹à¤°":3496,"à¤²à¤¸à¤ķ":3497,"à¤®à¤²à¤ķ":3498,"à¤®à¤Ńà¤¨":3499,"à¤®à¤µà¤°à¤£":3500,"à¥ģ',":3501,"à¤¸à¤¬à¤°":3502,"Ġà¤¸à¤Ĺ":3503,"à¤ªà¤¬à¤¹":3504,"à¤¦à¤²à¤²":3505,"à¤µà¤ħà¤¨":3506,"Ġà¤ķà¤°à¤¦":3507,"à¤ıà¤Ľà¤¨":3508,"Ġà¤Ńà¤¬":3509,"à¤ľà¤¯à¤ª":3510,"Ġà¤µà¤¤":3511,"à¤¬à¤°à¤²":3512,"à¤·à¤¸à¤¹":3513,"à¤§à¤¶à¤¤à¤ķ":3514,"à¤¥à¤ķà¤°":3515,"à¤Ĥ,":3516,"Ġà¤ľà¤Ļ":3517,"à¤Īà¤°":3518,"à¤¡à¤°à¤®":3519,"à¤īà¤¸à¤®":3520,"Ġà¤¸à¤®à¤²":3521,"à¤ĩà¤Ĺ":3522,"Ġà¤ļà¤®à¤¤":3523,"Ġà¤ļà¤¯à¤¨à¤ķ":3524,"à¤«à¤°à¤²":3525,"Ġà¤¥à¤®":3526,"à¥Į,âĢĻ":3527,"à¤¸à¤®à¤¸":3528,"à¤ĺà¤ļ":3529,"Ġà¤ľà¤¨à¤ħà¤ª":3530,"Ġà¤ıà¤ķà¤ļ":3531,"Ġà¤īà¤ªà¤§":3532,"à¤ĩà¤¨à¤°":3533,"Ġà¤®à¤¨à¤Ĺ":3534,"Ġà¤¸à¤¬à¤ħà¤²":3535,"à¤°à¤µà¤ļà¤¨":3536,"à¤µà¤¨à¤¯":3537,"Ġà¤¬à¤¸à¤¹à¤°":3538,"à¤¨à¤¨à¤Ĺà¤°":3539,"Ġà¤Ĩà¤µà¤°à¤£à¤®":3540,"Ġà¤ĵà¤ĸà¤²":3541,"à¥¨à¥Ń":3542,"à¥¨à¥¬":3543,"à¥¬à¥¦":3544,"à¤¤à¤²à¤Ĺ":3545,"à¤ıà¤¨à¤ıà¤ķ":3546,"Ġà¤ĺà¤°à¤ľà¤Ĺ":3547,"à¤²à¤Ĺà¤ŀ":3548,"à¤°à¤¨à¤Ĺà¤°à¤ķ":3549,"Ġà¤°à¤ķà¤®à¤¬":3550,"à¤ıà¤¸à¤¸":3551,"à¤®à¤Ĺà¤°à¤²":3552,"à¤¸à¤¨à¤²à¤²":3553,"à¤¤à¤¹à¤Łà¤²":3554,"Ġà¥¨à¥¦à¥«à¥ª":3555,"Ġà¤ľà¤¨à¤®à¤¤à¤ķ":3556,"Ġà¤Ĩà¤ªà¤¤à¤ķ":3557,"Ġà¤¹à¤Ļà¤ķà¤Ļà¤®":3558,"ĠĠĠĠĠĠĠĠĠĠĠĠĠĠĠĠĠĠĠĠĠĠĠĠĠĠĠĠĠĠĠĠ":3559,"Ġà¤ªà¤¹à¤²à¤ķà¤¦à¤®":3560,"ĠïĤ§":3561,"à¤ļà¤ªà¤¦à¤¸":3562,"Ġà¤ĵà¤ĸà¤²à¤¢":3563,"à¤¾à¥į":3564,"à¥į',":3565,"à¤¨à¤«":3566,"à¤¨à¤µà¤°":3567,"à¤ķà¤Ľ":3568,"à¤ķà¤ħ":3569,"à¤²à¤¶":3570,"à¤²à¤«":3571,"à¤®à¤¦à¤¨":3572,"à¤®à¤¥à¤²":3573,"à¤¯à¤ľà¤¸":3574,"à¥Ģ(":3575,"à¤¸à¤ľ":3576,"Ġà¤¸à¤¯à¤ķ":3577,"à¤ªà¤ľ":3578,"à¤¦à¤°à¤ķ":3579,"à¤µà¤°à¤¸":3580,"Ġà¤Ĺà¤ıà¤®":3581,"Ġà¤°à¤«":3582,"Ġà¤¨à¤¸à¤®":3583,"à¤Łà¤Ń":3584,"à¤Łà¤®à¤®":3585,"à¤ıà¤¸à¤²":3586,"à¤ıà¤Łà¤°à¤®":3587,"Ġà¤¬à¤Ŀ":3588,"Ġà¤¬à¤¸à¤²":3589,"Ġà¤¤à¤²à¤µ":3590,"Ġà¤¦à¤¬à¤¦":3591,"Ġà¤ľà¤¯à¤°":3592,"à¤£à¤¦":3593,"à¤£à¤¤à¤°":3594,"à¤ļà¤²à¤ķ":3595,"à¤Īà¤¸à¤®":3596,"à¤Ńà¤ļ":3597,"à¤ĸà¤¬à¤°":3598,"à¤°à¤ķà¤°à¤£":3599,"à¤°à¤ķà¤°à¤£à¤ķ":3600,"à¤īà¤¨à¤¬":3601,"Ġà¤ĺà¤ļ":3602,"à¤ªà¤¨à¤¬":3603,"à¤ķà¤®à¤°":3604,"Ġà¤Ńà¤ıà¤Ľ":3605,"à¤·à¤£à¤¸":3606,"à¤¸à¤¨à¤¹":3607,"à¤¤à¤¨à¤¸":3608,"à¤Ĩà¤ľà¤ķ":3609,"Ġà¤ħà¤®à¤²":3610,"à¤¦à¤¨à¤¹à¤°":3611,"à¤¦à¤¨à¤¸à¤®":3612,"à¤¤à¤²à¤ļ":3613,"Ġà¤¢à¤Ļ":3614,"à¤§à¤¨à¤µ":3615,"à¤§à¤¨à¤¹à¤°":3616,"à¤¶à¤¨à¤ªà¤Ľ":3617,"Ġà¤Ĩà¤ĩà¤°":3618,"Ġà¤Ĩà¤ĩà¤¹":3619,"à¤¿à¤Ĥà¤ģ":3620,"à¤¯à¤µà¤§":3621,"Ġà¤Ĩà¤Ĺà¤ľà¤¨":3622,"à¤®à¤ļà¤²":3623,"Ġà¤Ĩà¤®à¤°à¤£":3624,"à¤µà¤¤à¤¯":3625,"Ġà¥§à¥¨à¥¦":3626,"Ġà¥¨à¥«à¥¦":3627,"à¤ıà¤®à¤¸":3628,"à¤ľà¤¦à¤°à¤®":3629,"à¤¹à¤®à¤¦":3630,"à¤¯à¤¯à¤Ń":3631,"Ġà¥¨à¥¦à¥¦à¥«":3632,"à¤Ĩà¤µà¤¶":3633,"à¤¯à¤£à¤ª":3634,"à¤¯à¤£à¤¹":3635,"Ġà¤¦à¤¶à¤ķà¤ħà¤ĺ":3636,"Ġà¤Ĺà¤¹à¤¤à¤°":3637,"Ġà¥¨à¥¦à¥«à¥¬":3638,"Ġà¤Ĩà¤Īà¤¤à¤¬":3639,"Ġà¥¦à¥Ńà¥¨":3640,"à¤ıà¤¨à¤Ĩà¤°à¤ıà¤¨":3641,"Ġà¤¨à¤Ĺà¤ıà¤ķ":3642,"à¤īà¤¥à¤¹":3643,"Ġà¥§à¥¯à¥¬à¥¦":3644,"Ġà¤°à¤¨à¤°à¤ħà¤ª":3645,"Ġà¤Ľà¤Łà¤ªà¤Ł":3646,"Ġà¤¦à¤¬à¤¦à¤¬":3647,"Ġ)":3648,"à¤°à¤ªà¤Łà¤ķ":3649,"à¥ĩâĢĻ,":3650,"à¤¤à¤Ĺ":3651,"à¤¯à¤ĺ":3652,"à¤¯à¤ªà¤Ľ":3653,"à¤¯à¤¶à¤ķ":3654,"à¤¯à¤°à¤¹à¤°":3655,"à¤¸à¤ĸ":3656,"à¤¸à¤Ńà¤¨":3657,"à¤¸à¤ľà¤¸":3658,"à¤¸à¤µà¤²":3659,"Ġà¤ªà¤ĸ":3660,"à¤¹à¤¸à¤®":3661,"à¤µà¤¶à¤ķ":3662,"à¤Ĺà¤Ńà¤¨":3663,"à¤Ĺà¤®à¤®":3664,"Ġà¤¹à¤ķà¤²":3665,"Ġà¤¹à¤µà¤²":3666,"Ġà¤µà¤¢":3667,"à¤¬à¤¡":3668,"à¤¬à¤¹à¤°":3669,"à¤¬à¤®à¤®":3670,"à¤§à¤¸à¤®":3671,"Ġà¤¤à¤¦à¤°":3672,"à¤¥à¤°à¤²":3673,"à¤¶à¤ħà¤¨":3674,"Ġà¤Ĩà¤°à¤¸":3675,"à¤Īà¤°à¤¹":3676,"à¤Īà¤®à¤§":3677,"à¤ĩà¤²à¤²":3678,"à¤ĩà¤ıà¤®":3679,"Ġà¤ħà¤¨à¤°":3680,"Ġà¤ħà¤¨à¤Ĺ":3681,"Ġà¤ħà¤¨à¤Ń":3682,"à¤°à¤£à¤µ":3683,"à¤ªà¤°à¤°":3684,"à¤¨à¤²à¤²":3685,"à¤²à¤ķà¤®":3686,"Ġà¤Łà¤¨à¤ķ":3687,"à¤ªà¤¨à¤¸à¤®":3688,"à¤Ŀà¤²":3689,"Ġà¤īà¤ªà¤²à¤µ":3690,"Ġà¤®à¤¨à¤¹à¤°":3691,"Ġà¤łà¤¹":3692,"Ġà¤ķà¤°à¤¬":3693,"Ġà¤ĩà¤°à¤«":3694,"Ġà¤Ńà¤ıà¤¦":3695,"Ġà¤Ńà¤ıà¤ħà¤¨":3696,"à¤¤à¤ķà¤¹à¤°":3697,"à¤Ĩà¤¦":3698,"à¤Ĩà¤¶":3699,"à¤Ĩà¤ī":3700,"à¤Ĩà¤ĩà¤Ł":3701,"à¤Ĩà¤Īà¤²":3702,"à¤®à¤¤à¤¸à¤®":3703,"Ġà¤ħà¤µà¤¤":3704,"Ġà¤Ķà¤¸à¤¤à¤®":3705,"Ġà¤ĺà¤°à¤ª":3706,"à¤Łà¤²à¤¹à¤°":3707,"à¤ıà¤¸à¤ı":3708,"Ġà¤Ĩà¤¤à¤Ļ":3709,"Ġà¥§à¥¨à¥«":3710,"Ġà¤¸à¤¹à¤ľà¤°":3711,"à¥ģà¥¤'":3712,"Ġà¤¦à¤¶à¤ķà¤¸à¤®":3713,"à¥Įà¤Ĥ,'":3714,"à¤¤à¤¸à¤ŀ":3715,"à¤¾à¥Īà¤Ĥà¥¤":3716,"Ġà¤ªà¤Łà¤ķà¤®":3717,"Ġà¥¦à¥¬à¥¨":3718,"Ġà¤īà¤ªà¤¦à¤«":3719,"Ġà¤¦à¤¶à¤®à¤²à¤¬":3720,"th":3721,"à¤°à¤¡":3722,"à¤°à¤Ĩ":3723,"à¤°à¤Ļà¤²":3724,"à¤¨à¤¯à¤¤":3725,"à¤¨à¤ªà¤¤":3726,"à¤ķà¤¸à¤°":3727,"à¤ķà¤°à¤¬à¤°":3728,"à¥ĩà¥Ī":3729,"à¤®à¤¤à¤°":3730,"à¤¤à¤Ńà¤¨":3731,"à¤¯à¤¯à¤ķ":3732,"à¤¯à¤µà¤°":3733,"à¤¯à¤¬à¤¹":3734,"à¤¸à¤ľà¤¨":3735,"à¤¸à¤°à¤¹":3736,"Ġà¤ªà¤¥à¤²":3737,"à¤¦à¤¬à¤¹":3738,"à¤µà¤¤à¤®":3739,"Ġà¤Ĺà¤ĩà¤¨":3740,"à¥Īà¤ĥ":3741,"Ġà¤°à¤Ļà¤ķ":3742,"à¤Łà¤¹":3743,"à¤Łà¤®à¤ķ":3744,"Ġà¤¬à¤°à¤¦":3745,"Ġà¤¬à¤¹à¤¨":3746,"Ġà¤¹à¤ł":3747,"à¤ľà¤¡":3748,"à¤ľà¤¬à¤¹":3749,"à¤¬à¤¥":3750,"à¤·à¤¯à¤¸":3751,"à¤§à¤ķà¤ķ":3752,"Ġà¤¤ÅĴ":3753,"à¤¥à¤¹":3754,"à¤Ńà¤°à¤®":3755,"à¤īà¤Ń":3756,"à¤ĩà¤¸à¤²":3757,"Ġà¤ļà¤¸":3758,"à¤īà¤¨à¤¸à¤ķ":3759,"à¥Įà¥¤âĢĻ":3760,"Ġà¤ıà¤Ń":3761,"Ġà¤¶à¤µà¤²":3762,"à¤łà¤¸":3763,"Ġà¤«à¤¤":3764,"Ġà¤«à¤Ľ":3765,"à¤ªà¤°à¤¸":3766,"à¤ľà¤¨à¤¬":3767,"Ġà¤ĺà¤Łà¤ķ":3768,"Ġà¤¬à¤¢à¤¨":3769,"à¤°à¤¸à¤°à¤¤":3770,"à¤ĩà¤¨à¤¸":3771,"Ġà¤ķà¤®à¤®":3772,"à¤ħà¤¯":3773,"à¤ħà¤Ł":3774,"Ġà¤ĩà¤µ":3775,"à¤µà¤°à¤¹à¤°":3776,"Ġà¤Ĩà¤°à¤ıà¤²":3777,"à¤ļà¤¨à¤¸":3778,"à¤ļà¤¨à¤ħà¤ĺ":3779,"à¤µà¤ķà¤¤":3780,"à¤²à¤¨à¤¸":3781,"à¤²à¤¨à¤ª":3782,"à¥ĩà¥¤âĢĻ":3783,"à¤®à¤¨à¤¸":3784,"Ġà¤ĵà¤¡":3785,"Ġà¤ĵà¤¢":3786,"à¤¦à¤¨à¤¬":3787,"à¤¦à¤¨à¤ħà¤¨":3788,"à¥¬à¥¨":3789,"à¥¬à¥ª":3790,"à¤Ĺà¤²à¤µ":3791,"à¤®à¤²à¤Ĺ":3792,"à¤ĵà¤®":3793,"Ġà¤ħà¤ªà¤¹à¤°à¤£à¤®":3794,"à¤¨à¤µà¤¤":3795,"Ġà¤ľà¤Ĺà¤ľ":3796,"Ġà¤Ľà¤²à¤«à¤²à¤ªà¤Ľ":3797,"à¤¯à¤¯à¤¨à¤ªà¤Ľ":3798,"à¤°à¤ļà¤²à¤¨à¤®":3799,"Ġà¤¨à¤ľà¤°":3800,"Ġà¤¯à¤¸à¤®à¤§":3801,"à¤¸à¤¨à¤²à¤ķ":3802,"à¤¯à¤¦à¤²à¤®":3803,"Ġà¤Ĩà¤łà¤µà¤Ł":3804,"Ġà¤Ńà¤Īà¤¸à¤ķ":3805,"Ġà¥ªà¥¦à¥¦":3806,"Ġà¤¦à¤¶à¤ķà¤Ńà¤¨":3807,"à¤®à¤ªà¤¹":3808,"Ġà¤Ĩà¤ıà¤ªà¤¨":3809,"Ġà¤ļà¤°à¤®à¤¸":3810,"Ġà¥¦à¥Ńà¥«":3811,"à¤ıà¤ļà¤¡":3812,"Ġà¤ĸà¤ªà¤¤à¤ķ":3813,"Ġà¤¶à¤¹à¤°à¤¹à¤°":3814,"à¤ĩà¤°à¤¸à¤²":3815,"Ġà¤ĸà¤¬à¤°à¤²":3816,"Ġà¤²à¤ļà¤ķà¤¤":3817,"Ġà¥¦à¥ªà¥¬":3818,"à¤¾à¥ĩ,":3819,"à¤°à¤°à¤¹":3820,"à¤¨à¤Ĺà¤°à¤®":3821,"à¤ķà¤ĺ":3822,"à¤®à¤¨à¤²":3823,"à¤®à¤ªà¤Ľ":3824,"à¥ĢâĢĶ":3825,"Ġà¤¸à¤°à¤¦à¤°":3826,"à¤¹à¤¡":3827,"à¤¹à¤ħà¤¨":3828,"à¤µà¤ĺ":3829,"à¤µà¤¤à¤°":3830,"à¤µà¤Ńà¤¨":3831,"Ġà¤ķà¤¶":3832,"Ġà¤°à¤¡":3833,"Ġà¤¨à¤¹à¤°":3834,"Ġà¤¨à¤«":3835,"à¤ıà¤Ĩà¤°":3836,"Ġà¤¬à¤ĸ":3837,"Ġà¤¹à¤¬":3838,"à¤ľà¤ľà¤¸":3839,"Ġà¤µà¤¨à¤µ":3840,"à¤¬à¤ªà¤¤":3841,"à¤·à¤µ":3842,"Ġà¤ľà¤ĺà¤¨":3843,"à¤£à¤¯à¤¸":3844,"à¤Īà¤ªà¤ķ":3845,"Ġà¤īà¤«":3846,"à¤¡à¤²à¤¸":3847,"à¤ĩà¤¡à¤®":3848,"à¤°à¤®à¤¸à¤®":3849,"Ġà¤ıà¤²à¤°":3850,"à¤¾à¤ģâĢĻ":3851,"Ġà¤ħà¤¨à¤¶à¤¨à¤®":3852,"Ġà¤ªà¤°à¤ľ":3853,"à¤łà¤¹à¤°":3854,"Ġà¤«à¤²à¤¤":3855,"ĠâĢĶ":3856,"à¤°à¤¹à¤¤":3857,"à¤Ļà¤¸à¤®":3858,"à¤ŀà¤¸":3859,"à¤²à¤®à¤²":3860,"Ġà¤¤à¤°à¤Ļ":3861,"Ġà¤īà¤ªà¤ķà¤°à¤£à¤ķ":3862,"à¤°à¤¦à¤¤":3863,"à¥ģà¤ģ,âĢĻ":3864,"Ġà¤Ńà¤ıà¤¸à¤®":3865,"à¤°à¤µà¤£":3866,"Ġà¤Ĩà¤¯à¤Ĩà¤°":3867,"Ġà¤ħà¤µà¤¸à¤°à¤¹à¤°":3868,"Ġà¤ħà¤¹à¤®à¤¦":3869,"à¤Ĺà¤¤à¤¯":3870,"à¤²à¤¬à¤¬":3871,"à¤¸à¤¨à¤¹à¤¸":3872,"à¤¤à¤¨à¤¬":3873,"à¤°à¤§à¤¨":3874,"Ġà¤Ŀà¤ķ":3875,"à¥¬à¥®":3876,"à¤ıà¤¨à¤¡":3877,"à¤ıà¤¨à¤ıà¤²":3878,"à¤§à¤¨à¤ªà¤Ľ":3879,"à¥©à¥«":3880,"Ġà¤ķà¤²à¤°":3881,"Ġà¤¤à¤¹à¤¸à¤¨à¤¹à¤¸":3882,"à¤·à¤¯à¤¬":3883,"Ġà¤Ĩà¤Ĺà¤¨":3884,"à¥Īà¤ģà¤Ĥ":3885,"Ġà¤Ĩà¤¶à¤¯":3886,"Ġà¤¨à¤ªà¤¢":3887,"ĠĠĠĠčĊ":3888,"Ġà¤Ĭà¤¸":3889,"Ġà¤ľà¤¬à¤ľ":3890,"Ġà¤ķà¤Łà¤µ":3891,"à¥¨à¥¦à¥¦":3892,"à¥¨à¥¦à¥Ńà¥ª":3893,"Ġà¤¨à¤Ĩà¤ĵà¤¸":3894,"Ġà¤¨à¤Ńà¤ıà¤ªà¤¨":3895,"Ġà¤ļà¤²à¤¨à¤ļà¤²":3896,"Ġà¤¹à¤Ļà¤ķà¤Ļà¤ķ":3897,"à¤Ĩà¤ĩà¤ıà¤¸":3898,"Ġà¤ķà¤²à¤ķà¤¤":3899,"Ġà¤®à¤°à¤¹à¤ł":3900,"on":3901,"or":3902,"Ġw":3903,"à¤¾!":3904,"à¥įà¥ĩ":3905,"à¤¨à¤Īà¤²":3906,"à¤ķà¤°à¤¬":3907,"à¤ķà¤¦à¤°":3908,"à¥ĭ/":3909,"à¤²à¤Ŀ":3910,"à¤²à¤µà¤ķ":3911,"à¤®à¤¨à¤ķ":3912,"à¤¯à¤Ļ":3913,"à¤¸à¤°à¤¤":3914,"Ġà¤ªà¤°à¤ķ":3915,"à¤¹à¤°à¤ķ":3916,"Ġà¤ķà¤Ľ":3917,"à¤Ĺà¤°à¤£à¤ķ":3918,"Ġà¤¨à¤ľà¤¨":3919,"Ġà¤¨à¤¸à¤°":3920,"Ġà¤¨à¤Ĺà¤¨":3921,"Ġà¤¨à¤«à¤°":3922,"Ġà¤¨à¤¥à¤ª":3923,"à¤Łà¤²à¤Ĺ":3924,"à¤Łà¤ħà¤ª":3925,"à¤Łà¤Ĩà¤īà¤Ł":3926,"Ġà¤ħà¤ķà¤²":3927,"Ġà¤®à¤¬":3928,"Ġà¤®à¤ł":3929,"Ġà¤®à¤®à¤¤":3930,"à¤ľà¤¸à¤°":3931,"Ġà¤µà¤¹à¤¨":3932,"à¤¬à¤ļ":3933,"Ġà¤Ľà¤¯":3934,"Ġà¤Ĩà¤ıà¤¸":3935,"à¤Ńà¤°à¤²":3936,"à¤ĸà¤Ń":3937,"à¤ĩà¤®à¤¨":3938,"à¤°à¤®à¤Ń":3939,"Ġà¤ĸà¤¹à¤°":3940,"à¤łà¤¶":3941,"à¥ĥà¥ĥ":3942,"à¤¨à¤®à¤°":3943,"Ġà¤°à¤¹à¤ķ":3944,"Ġà¤¯à¤¸à¤µ":3945,"à¤°à¤¹à¤£à¤ķ":3946,"Ġà¤ıà¤ķà¤¨":3947,"Ġà¤§à¤®à¤²":3948,"à¤Ļà¤°":3949,"à¤Ļà¤²à¤Ĺ":3950,"Ġà¤¸à¤¹à¤ħà¤¸":3951,"Ġà¤¡à¤®à¤°":3952,"à¤Ŀà¤¸à¤®":3953,"à¤°à¤¸à¤²":3954,"à¥Įà¤Ĥ?":3955,"Ġà¤ķà¤®à¤²à¤ª":3956,"Ġà¤ĩà¤·":3957,"Ġà¤īà¤¨à¤¬":3958,"Ġà¤ħà¤¸à¤°à¤¬":3959,"à¤Ĩà¤ĩà¤ı":3960,"à¤ķà¤ķà¤¥":3961,"à¤łà¤®à¤£":3962,"à¥į,'":3963,"à¥©à¥¬":3964,"à¤·à¤®à¤£":3965,"Ġà¤Ĩà¤ĩà¤Łà¤®":3966,"Ġà¤Ĩà¤ĩà¤ĵ":3967,"à¤¶à¤¤à¤¬":3968,"à¤¯à¤µà¤¶":3969,"à¤°à¤¨à¤Ĺà¤°à¤²":3970,"à¤·à¤¤à¤µ":3971,"Ġà¤Ĩà¤®à¤°":3972,"Ġà¤Ĩà¤ľà¤ķà¤²":3973,"Ġà¤ľà¤®à¤ĺà¤Ł":3974,"à¤°à¤ľà¤¹à¤°":3975,"à¤¥à¤²à¤ª":3976,"Ġà¤ĭà¤£à¤®":3977,"Ġà¤ķà¤Łà¤¹à¤°":3978,"Ġà¤ħà¤ĸà¤¡":3979,"Ġà¥¨à¥¦à¥¬à¥§":3980,"à¤ıà¤Īà¤¬":3981,"Ġà¤ĺà¤¨à¤¶":3982,"à¥¨à¥¦à¥§à¥Ń":3983,"Ġà¤®à¤¹à¤°à¤²":3984,"à¤ĩà¤¬à¤°à¤²":3985,"à¤Łà¤¨à¤Ĺà¤°à¤¬":3986,"à¤īà¤ªà¤¡":3987,"à¥¦à¥¦à¥¦":3988,"Ġà¥¨à¥¦à¥©à¥¯":3989,"Ġà¥§à¥¯à¥«à¥©":3990,"Ġà¥¨à¥¦à¥¨à¥§":3991,"à¤ªà¤¨à¤²à¤Ĺ":3992,"Ġà¤ĺà¤°à¤§à¤¨":3993,",âĢĺ":3994,"at":3995,"à¤°à¤ľà¤¨à¤²":3996,"à¤°à¤Ĩà¤®":3997,"à¤¨à¤µà¤¸":3998,"à¤¨à¤¯à¤²":3999,"à¤¨à¤ļà¤°":4000,"à¤¿à¥ĩ":4001,"à¤ķà¤¸à¤ķ":4002,"à¤ķà¤²à¤®":4003,"à¥ĩ-":4004,"à¤®à¤Ł":4005,"à¤¤à¤¶":4006,"à¤¯à¤²à¤®":4007,"à¤¯à¤°à¤¸":4008,"à¥Ģ.":4009,"à¤¸à¤°à¤¸":4010,"Ġà¤ªà¤Ĺ":4011,"à¤ªà¤²à¤Ĺ":4012,"à¤¹à¤¨à¤²":4013,"à¤¹à¤ķà¤®":4014,"à¤µà¤ĩà¤¨":4015,"Ġà¤ķà¤°à¤®":4016,"Ġà¤ķà¤¥à¤¨":4017,"Ġà¤Ĺà¤Ľ":4018,"Ġà¤Ĺà¤ľà¤²":4019,"à¤Ĺà¤¨à¤²":4020,"à¥Īà¥į":4021,"Ġà¤°à¤¬":4022,"à¤Łà¤ļ":4023,"à¤Łà¤²à¤¬":4024,"à¤ıà¤Ń":4025,"Ġà¤ħà¤µà¤®":4026,"Ġà¤¬à¤«":4027,"Ġà¤®à¤łà¤®":4028,"à¤·à¤°à¤®":4029,"à¤·à¤ªà¤¹":4030,"à¤§à¤ĸ":4031,"à¤§à¤ķà¤²":4032,"Ġà¤¤à¤Łà¤¸":4033,"à¤ģà¤ģ":4034,"à¤¥à¤Ĺà¤¨":4035,"Ġà¥¤)":4036,"Ġà¤Ĩà¤°à¤¤":4037,"Ġà¤Ĩà¤ıà¤¨à¤¨":4038,"à¤£à¤Ĺ":4039,"à¤£à¤¯à¤µ":4040,"à¤ļà¤Ĺ":4041,"à¤ļà¤ĸ":4042,"à¤ļà¤µà¤°":4043,"à¤Īà¤¸à¤ķ":4044,"à¥Ĥ)":4045,"Ġà¤īà¤¥à¤²à¤ª":4046,"à¤¡à¤¨à¤µ":4047,"à¤Ńà¤¬":4048,"à¤Ńà¤ŀ":4049,"à¤ĩà¤Ńà¤¨":4050,"à¤ĩà¤¡à¤²":4051,"Ġà¤Ńà¤¨à¤¸":4052,"Ġà¤ļà¤¤à¤°":4053,"Ġà¤ıà¤ıà¤¨":4054,"Ġà¤ıà¤¥à¤²":4055,"Ġà¤ĸà¤ķ":4056,"Ġà¤¶à¤¸à¤ķ":4057,"Ġà¤¶à¤Ļ":4058,"à¤łà¤¸à¤²":4059,"Ġà¤«à¤Ĺ":4060,"à¤¸à¤®à¤¯à¤®":4061,"à¤µà¤¸à¤°":4062,"ĠâĢĺâĢĺ":4063,"à¤¢à¤²":4064,"Ġà¤ľà¤¨à¤ħà¤§":4065,"à¤¯à¤®à¤§":4066,"Ġà¤ıà¤ķà¤ķ":4067,"à¤Ļà¤¹à¤°":4068,"à¤Ļà¤¸à¤¹":4069,"à¤¯à¤¤à¤¹à¤²":4070,"Ġà¤īà¤ªà¤²à¤ķ":4071,"à¥Įà¤Ĥà¤Ĥ":4072,"Ġà¤ķà¤®à¤¸":4073,"à¤ħà¤¡":4074,"à¤°à¤µà¤¨":4075,"à¤µà¤°à¤ª":4076,"à¤µà¤¨à¤Ńà¤°":4077,"à¤Ĩà¤Īà¤ķ":4078,"à¤Ĩà¤ĩà¤¬":4079,"à¤°à¤¬à¤ľ":4080,"à¤µà¤ķà¤ªà¤®":4081,"à¤Łà¤¨à¤¬":4082,"à¥«à¥Ń":4083,"à¤¿à¤ģà¤Ĥ":4084,"Ġà¤Ĩà¤µà¤°à¤£":4085,"à¥¨à¥¯":4086,"Ġà¤Ŀà¤°à¤¨":4087,"à¤ķà¤°à¤£à¤¸à¤®":4088,"à¤ķà¤°à¤£à¤ªà¤Ľ":4089,"Ġà¤¸à¤®à¤¯à¤Ńà¤¨":4090,"à¤²à¤¯à¤ª":4091,"à¤²à¤¯à¤Ń":4092,"Ġà¤ªà¤¦à¤Ń":4093,"à¤µà¤²à¤Ĺ":4094,"à¤Łà¤®à¤§":4095,"à¤µà¤®à¤¹":4096,"Ġà¤Ĩà¤ĩà¤¡à¤²":4097,"à¤ĵà¤°":4098,"Ġà¤Ķà¤§":4099,"à¥®à¥¦":4100,"Ġà¤ħà¤ªà¤¹à¤°à¤£à¤ķ":4101,"Ġà¤¨à¤¹à¤Ł":4102,"Ġà¤ıà¤¨à¤ª":4103,"Ġà¤ıà¤¨à¤Ĩà¤ĩà¤¸":4104,"à¤ļà¤ķà¤¹à¤°":4105,"Ġà¤Ĺà¤łà¤¨à¤®":4106,"Ġà¤Ĺà¤łà¤µà¤¨":4107,"à¤·à¤¦à¤®":4108,"à¤¸à¤¹à¤Ń":4109,"Ġà¤®à¤¤à¤ªà¤¤":4110,"à¤°à¤ªà¤¥":4111,"à¤¯à¤¯à¤¨à¤¶":4112,"à¤ķà¤ªà¤¡":4113,"Ġà¤¸à¤¹à¤ľà¤ķà¤°":4114,"à¤ıà¤®à¤ıà¤²":4115,"Ġà¤Ĺà¤łà¤¨à¤ªà¤Ľ":4116,"à¤¯à¤¯à¤¨à¤ķà¤°":4117,"Ġà¥§à¥®à¥¦":4118,"Ġà¤¦à¤¶à¤ķà¤¯à¤¤":4119,"Ġà¥¬à¥¦à¥¦":4120,"à¥ĩà¤Ĥ,":4121,"à¥ĩà¤Ĥà¥¤":4122,"Ġà¤Īà¤²":4123,"Ġà¤¨à¤Ĩà¤ıà¤ªà¤Ľ":4124,"à¤¤à¤¹à¤Łà¤®":4125,"à¤ıà¤«à¤¡":4126,"Ġà¤Ĩà¤Īà¤°à¤¹":4127,"Ġà¤ªà¤¸à¤²à¤ķ":4128,"à¤Ĩà¤Īà¤ª":4129,"Ġà¥§à¥¯à¥¯à¥«":4130,"Ġà¥§à¥¯à¥¯à¥¬":4131,"Ġà¤®à¤¦à¤¨à¤ª":4132,"Ġà¥¨à¥¦à¥©à¥¬":4133,"Ġà¤ļà¤°à¤£à¤¬à¤¦":4134,"Ġà¤Ĩà¤īà¤Łà¤²":4135,"à¤¦à¤¯à¤ĺ":4136,"à¤Ĳà¤¶":4137,"Ġ,âĢĻ":4138,"à¤°à¤ıà¤¨":4139,"à¤°à¤ħà¤°":4140,"à¤¨à¤¢":4141,"à¤¨à¤ªà¤¨":4142,"à¤ķà¤¯":4143,"à¥ĩâĢĺ":4144,"à¥ĭÃ·":4145,"à¤²à¤¥":4146,"à¤²à¤ĺ":4147,"à¤²à¤µà¤²":4148,"à¤®à¤¨à¤®":4149,"à¤®à¤¸à¤¹":4150,"à¤¤à¤²à¤ķ":4151,"à¤¸à¤¡":4152,"à¤¸à¤ħà¤¨":4153,"Ġà¤¸à¤¶":4154,"à¤¦à¤²à¤®":4155,"à¤µà¤²à¤ķ":4156,"à¥Īà¥ĩ":4157,"Ġà¤°à¤£":4158,"Ġà¤¨à¤µà¤¯":4159,"Ġà¤¨à¤µà¤ª":4160,"Ġà¤¨à¤°à¤¬à¤¹":4161,"à¤ıà¤ĩ":4162,"à¤ıà¤¨à¤ķ":4163,"à¤ıà¤¨à¤²":4164,"à¤ıà¤Ńà¤¨":4165,"Ġà¤Ńà¤ľà¤¨":4166,"Ġà¤Ńà¤¬à¤¨":4167,"Ġà¤ħà¤®à¤¨":4168,"Ġà¤µà¤ľ":4169,"à¤¬à¤¨à¤ķ":4170,"à¤¬à¤°à¤¦":4171,"Ġà¤Ľà¤¨à¤ķ":4172,"Ġà¤¤à¤¦à¤¨":4173,"Ġà¤¦à¤¸à¤ķ":4174,"à¤¥à¤ħà¤¨":4175,"à¤¶à¤Ĺ":4176,"à¤¶à¤ľ":4177,"Ġà¤Ĩà¤µà¤°":4178,"Ġà¤Ĩà¤ĩà¤ıà¤ķ":4179,"Ġà¤ľà¤ª":4180,"à¤Ľà¤¤":4181,"à¤£à¤ªà¤Ľ":4182,"Ġà¤²à¤ļà¤ķ":4183,"à¥Ĥà¥¤":4184,"à¤Ńà¤²à¤ķ":4185,"à¤īà¤ĸ":4186,"à¤ĸà¤ª":4187,"à¤ĩà¤Ī":4188,"à¤°à¤®à¤¦":4189,"Ġà¤ļà¤ķà¤²":4190,"à¤«à¤²à¤ķ":4191,"à¥ĮâĢĻ":4192,"à¤¯à¤ķà¤¸":4193,"Ġà¤ĸà¤ľ":4194,"Ġà¤¶à¤¡":4195,"Ġà¤¶à¤°à¤¦à¤°":4196,"Ġà¤ħà¤¨à¤ª":4197,"à¤łà¤¬":4198,"Ġà¤«à¤ľ":4199,"Ġà¤«à¤°à¤µ":4200,"à¤°à¤£à¤¸à¤®":4201,"à¤ľà¤¨à¤ľ":4202,"à¤¸à¤®à¤¯":4203,"à¥įà¥¤âĢĿ":4204,"à¤ĺà¤¦":4205,"Ġà¤¸à¤ķà¤Ńà¤°":4206,"Ġà¤ľà¤¨à¤ªà¤°":4207,"Ġà¤ľà¤¨à¤¸à¤¹à¤Ń":4208,"Ġà¤¯à¤¸à¤ħà¤¨":4209,"Ġà¤ıà¤ķà¤ıà¤ķ":4210,"à¤Ļà¤¹":4211,"Ġà¤īà¤ªà¤ķà¤ª":4212,"à¤°à¤¸à¤¸":4213,"Ġà¤ķà¤®à¤¬":4214,"à¤ħà¤¬à¤ķ":4215,"Ġà¤ĩà¤ķà¤¬":4216,"à¤¾,âĢĻ":4217,"à¤¾à¤Ĥà¤Ĥ":4218,"Ġà¤ħà¤¹à¤®":4219,"à¤µà¤¨à¤¬":4220,"à¤·à¤£à¤¸à¤®":4221,"à¤¸à¤¨à¤¸à¤®":4222,"à¤ļà¤¨à¤ľ":4223,"à¤ļà¤¨à¤¸à¤®":4224,"à¥«à¥§":4225,"Ġà¤īà¤¦à¤ĺ":4226,"à¤ªà¤ķà¤¹à¤°":4227,"à¤¤à¤®à¤¸":4228,"Ġà¤ĵà¤¤":4229,"Ġà¤ĵà¤ł":4230,"à¥ªà¥ª":4231,"à¤¸à¤¦à¤¬":4232,"Ġà¤¸à¤¦à¤°":4233,"à¥©à¥©":4234,"Ġà¤ªà¤¦à¤ª":4235,"Ġà¤ªà¤¦à¤ļ":4236,"Ġà¤Ĩà¤ĩà¤¬":4237,"Ġà¤¤à¤¹à¤¸":4238,"à¤ĵà¤ª":4239,"à¤ĵà¤¬":4240,"ĠĠĠčĊ":4241,"à¤Ńà¤µà¤¬":4242,"à¤¬à¤²à¤Ł":4243,"à¤¨à¤µà¤¶":4244,"Ġà¤Ĳà¤¶":4245,"Ġà¤°à¤ķà¤®à¤®à¤§":4246,"à¤¦à¤ķà¤¹à¤°":4247,"à¤Ĩà¤°à¤ıà¤«":4248,"à¤¯à¤ªà¤¶":4249,"Ġà¤¸à¤¡à¤ķà¤¹à¤°":4250,"Ġà¤¨à¤ªà¤ł":4251,"Ġà¤¸à¤¹à¤°à¤¬":4252,"à¤ľà¤¦à¤°à¤¬":4253,"à¤ķà¤Łà¤¬":4254,"à¤ķà¤Łà¤¤à¤®":4255,"à¤¸à¤¸à¤¹à¤°":4256,"à¤ļà¤²à¤ļ":4257,"Ġà¥§à¥¬à¥«":4258,"Ġà¥¨à¥¦à¥¦à¥¨":4259,"à¤¤à¤°à¤ķà¤²":4260,"Ġà¥¨à¥¦à¥¬à¥¦":4261,"à¤¾)âĢĶ":4262,"à¤¬à¤Īà¤¬":4263,"à¥¨à¥¦à¥§à¥®":4264,"à¤ªà¤Łà¤¨à¤®":4265,"à¤Łà¤µà¤²à¤ķ":4266,"Ġà¤¦à¤®à¤¨à¤ķ":4267,"Ġà¤¦à¤®à¤ķà¤®":4268,"Ġà¤¹à¤ķà¤ħà¤§":4269,"Ġà¥¨à¥¦à¥ªà¥«":4270,"Ġà¥¨à¥¦à¥«à¥Ń":4271,"Ġà¥§à¥¯à¥¯à¥¨":4272,"Ġà¥¨à¥¦à¥¨à¥¬":4273,"Ġà¤®à¤łà¤®à¤¨":4274,"en":4275,"in":4276,"à¤¾Â¥":4277,"à¤°à¤ªà¤°":4278,"à¤°à¤¨à¤®":4279,"à¤¿à¥ģ":4280,"à¤ķà¤¨à¤²":4281,"à¤²à¤ħà¤¨":4282,"à¤®à¤ŀ":4283,"à¤¤à¤ĸ":4284,"à¤¸à¤ıà¤ª":4285,"Ġà¤¸à¤°à¤¦":4286,"à¤¦à¤°à¤¹":4287,"à¤¦à¤ķà¤ķ":4288,"à¤¦à¤®à¤¨":4289,"à¤¦à¤ľà¤¸":4290,"à¤¹à¤£à¤®":4291,"Ġà¤Ĺà¤®à¤²":4292,"à¤Ĺà¤ªà¤Ľ":4293,"Ġà¤°à¤£à¤¬à¤¹":4294,"Ġà¤¨à¤ł":4295,"Ġà¤¨à¤°à¤¸":4296,"à¤Łà¤²à¤¨":4297,"à¤ıà¤®à¤®":4298,"Ġà¤¹à¤¨à¤¨":4299,"Ġà¤®à¤¶":4300,"à¤ľà¤«":4301,"à¤ľà¤ħà¤¨":4302,"à¤¬à¤Ł":4303,"à¤¬à¤¸à¤®":4304,"à¤¬à¤ĸà¤¤":4305,"à¤§à¤¯":4306,"à¤§à¤ľà¤¯à¤¨":4307,"Ġà¤¤à¤Ł":4308,"à¤ģà¥¤âĢĻ":4309,"Ġà¤¦à¤°à¤Ń":4310,"à¤¶à¤¨à¤¸":4311,"à¤¶à¤°à¤ľ":4312,"à¤¶à¤¬à¤¹":4313,"Ġà¤Ĩà¤Ĭ":4314,"Ġà¤²à¤¥":4315,"Ġà¤²à¤¤à¤®":4316,"à¤Īà¤¥":4317,"à¤Īà¤Ń":4318,"à¤¡à¤²à¤¬":4319,"à¤¡à¤²à¤Ĺ":4320,"à¤¡à¤¬à¤²":4321,"à¤Ńà¤ı":4322,"à¤īà¤¤à¤ķ":4323,"à¤ĸà¤¨à¤²":4324,"Ġà¤¯à¤®à¤¨":4325,"Ġà¤¸à¤®à¤¥à¤°":4326,"à¤¹à¤°à¤®":4327,"Ġà¤ĸà¤²à¤¨":4328,"Ġà¤ħà¤¨à¤§":4329,"Ġà¤ªà¤°à¤¸":4330,"à¤łà¤Ĺ":4331,"à¤łà¤¨à¤ķ":4332,"Ġà¤«à¤¹à¤°":4333,"Ġà¤«à¤Ĺà¤¤":4334,"à¤ĺà¤¨à¤ķ":4335,"à¤ĺà¤°à¤²":4336,"à¤ĺà¤¸à¤¸":4337,"à¤¯à¤®à¤¦":4338,"à¤¯à¤®à¤µ":4339,"à¤¯à¤®à¤µà¤°":4340,"à¤²à¤ķà¤¬":4341,"Ġà¤ıà¤ķà¤ª":4342,"Ġà¤ıà¤ķà¤Ĩ":4343,"Ġà¤ĺà¤¨à¤®":4344,"à¤ŀà¤¸à¤¹":4345,"à¤ªà¤¨à¤¹":4346,"à¤²à¤®à¤®":4347,"Ġà¤¤à¤°à¤¬":4348,"Ġà¤¡à¤ķà¤°":4349,"à¤ħà¤¨à¤²":4350,"à¤ħà¤²à¤Ĺ":4351,"à¤ķà¤²à¤¬":4352,"Ġà¤ĩà¤®à¤²":4353,"Ġà¤Ńà¤ıà¤ªà¤¶":4354,"Ġà¤īà¤¨à¤¸":4355,"Ġà¤¸à¤¬à¤¥":4356,"à¤Ĺà¤¤à¤Ńà¤¨":4357,"à¤·à¤£à¤ªà¤Ľ":4358,"à¤Ĩà¤¸":4359,"à¤Ĩà¤°à¤ķ":4360,"à¤Ĩà¤īà¤¨":4361,"à¤Ĩà¤°à¤²":4362,"à¤²à¤¨à¤¹à¤°":4363,"à¤¨à¤¨à¤¸à¤ķ":4364,"à¥Įà¤ģâĢĻ":4365,"Ġà¤Ŀà¤®":4366,"Ġà¤¨à¤Ĺà¤°à¤µ":4367,"à¤¨à¤¸à¤¹à¤¨":4368,"à¥©à¥§":4369,"à¤¶à¤¨à¤¹à¤°":4370,"Ġà¤Ķà¤ª":4371,"Ġà¤Ķà¤ªà¤¨":4372,"Ġà¤¬à¤²à¤ª":4373,"à¤ķà¤¨à¤Ĺ":4374,"Ġà¤®à¤²à¤ĸ":4375,"Ġà¤ıà¤¨à¤¬":4376,"à¤£à¤¯à¤ª":4377,"Ġà¤ªà¤Łà¤ķà¤¸à¤®":4378,"à¤µà¤¯à¤¨à¤²":4379,"à¤µà¤°à¤£à¤ħà¤¨":4380,"Ġà¤°à¤ķà¤®à¤¸à¤®":4381,"Ġà¤ıà¤¸à¤¡":4382,"à¤Ĩà¤°à¤ľ":4383,"Ġà¤®à¤¤à¤Ĺà¤£à¤¨":4384,"Ġà¤Ĩà¤ľà¤¬":4385,"à¤łà¤ķà¤ªà¤Ľ":4386,"à¤µà¤¯à¤¨à¤¸":4387,"à¤ĩà¤Łà¤¬":4388,"à¤®à¤¸à¤Ļà¤²":4389,"Ġà¤ıà¤ªà¤¹à¤°":4390,"à¤¨à¤Ĺà¤°à¤¬":4391,"à¤Ĺà¤łà¤¨à¤Ń":4392,"Ġà¤¨à¤²à¤¡":4393,"à¤¤à¤°à¤¤à¤°":4394,"à¤ªà¤Łà¤ķà¤®":4395,"à¤Łà¤µà¤²à¤®":4396,"Ġà¤Īà¤¸":4397,"Ġà¤ıà¤²à¤ĩà¤¡":4398,"Ġà¤¨à¤Ĩà¤ı":4399,"à¤ĸà¤¨à¤¨à¤ķ":4400,"Ġà¥®à¥¦à¥¦":4401,"Ġà¤Ĩà¤Īà¤ª":4402,"Ġà¤Ĩà¤Īà¤ĵà¤ıà¤¸":4403,"Ġà¤¸à¤°à¤¸à¤²":4404,"Ġà¤Ľà¤°à¤Ľ":4405,"à¤¶à¤Ńà¤°à¤¬":4406,"à¤¾à¥Īà¤Ĥà¥¤âĢĻ":4407,"Ġà¤ľà¤¨à¤Ĩà¤ķ":4408,"Ġà¥¨à¥¦à¥©à¥§":4409,"Ġà¥§à¥¯à¥«à¥ª":4410,"Ġà¥¨à¥¦à¥¨à¥®":4411,"Ġà¤Ńà¤ĩà¤¨à¤¸à¤ķ":4412,"Ġà¤¨à¤Ĺà¤Ī":4413,"Ġà¥§à¥¯à¥®à¥¦":4414,"Ġà¥§à¥¯à¥ªà¥®":4415,"Ġà¤ıà¤ķà¤¸à¤¯":4416,"Ġà¥§à¥¯à¥Ńà¥¦":4417,"?)":4418,"al":4419,"an":4420,"ion":4421,"Ġ/":4422,"à¤Ĵ":4423,"à¤¾à¥¤âĢĻ":4424,"à¥į!":4425,"à¤¨à¤ı":4426,"à¤¨à¤¬à¤°":4427,"à¤¿),":4428,"à¤ķà¤¸à¤²":4429,"à¤ķà¤¨à¤ķà¤°":4430,"à¤²à¤¯à¤¤":4431,"à¤®à¤¬à¤°":4432,"à¤¸à¤Ĺ":4433,"à¤¸à¤ªà¤°":4434,"à¤¦à¤²à¤¯":4435,"à¤µà¤¥":4436,"à¤Ĺà¤ľà¤ķ":4437,"à¤Ĺà¤¹à¤¨":4438,"à¤Ĺà¤µà¤¤":4439,"Ġà¤¨à¤¥":4440,"Ġà¤¨à¤Ļ":4441,"Ġà¤¨à¤ķà¤°":4442,"Ġà¤¨à¤ĺà¤Ł":4443,"à¤ıà¤²à¤²":4444,"Ġà¤¹à¤¯":4445,"Ġà¤¹à¤¦à¤®":4446,"Ġà¤¹à¤¬à¤ķ":4447,"à¤ľà¤°à¤®":4448,"à¤¬à¤ĩ":4449,"à¤¬à¤¨à¤²":4450,"à¤¬à¤®à¤ķ":4451,"à¤¬à¤¤à¤ķ":4452,"à¤¬à¤²à¤²":4453,"Ġà¤Ľà¤¦":4454,"Ġà¤Ľà¤¡":4455,"à¤ģ/":4456,"à¤ıà¤ķà¤¤":4457,"à¤¥à¤¨à¤²":4458,"Ġà¤Ĩà¤¯à¤®":4459,"Ġà¤Ĩà¤¬à¤ķ":4460,"Ġà¤Ĩà¤ĵà¤¸":4461,"Ġà¤ľà¤Ĺà¤¤à¤®":4462,"Ġà¤ľà¤¯à¤¶":4463,"Ġà¤²à¤ł":4464,"Ġà¤²à¤ĸà¤¨":4465,"à¤ļà¤ķà¤ķ":4466,"à¤Īà¤¡":4467,"à¤Īà¤ķà¤²":4468,"à¥Ĥà¥Ĥ":4469,"à¤¡à¤ªà¤®":4470,"à¤Ńà¤µà¤¨":4471,"Ġà¤¸à¤®à¤ª":4472,"Ġà¤¸à¤®à¤¨à¤ª":4473,"à¤°à¤ķà¤¹à¤°":4474,"à¤°à¤®à¤ª":4475,"à¤°à¤®à¤ľ":4476,"à¤°à¤®à¤¸à¤¹":4477,"Ġà¤ļà¤Łà¤ķ":4478,"Ġà¤ļà¤¹à¤²à¤ª":4479,"Ġà¤ļà¤¯à¤¨à¤®":4480,"à¥ĮâĢĵ":4481,"Ġà¤ıà¤«à¤¬":4482,"à¤°à¤¤à¤ľà¤¸":4483,"Ġà¤ĸà¤µ":4484,"à¤¨à¤ķà¤¨":4485,"Ġà¤¶à¤Ĵ":4486,"à¤łà¤¸à¤®":4487,"à¤ªà¤°à¤¹":4488,"à¤¸à¤®à¤¨":4489,"à¤¨à¤²à¤¬":4490,"à¤µà¤¸à¤ļ":4491,"à¥¦à¥¬":4492,"Ġà¤ľà¤¨à¤¸à¤°":4493,"Ġà¤°à¤¹à¤¨à¤¸à¤¹à¤¨":4494,"Ġà¤ıà¤ķà¤Ńà¤¨":4495,"à¤¯à¤¸à¤¨à¤ķ":4496,"Ġà¤§à¤ľ":4497,"à¤¤à¤°à¤¸":4498,"à¤Ŀà¤£":4499,"à¥ģà¤ģà¤Ĥ":4500,"Ġà¤ĩà¤¥":4501,"Ġà¤ĩà¤¨à¤ķ":4502,"Ġà¤ĩà¤¨à¤²":4503,"Ġà¤ĩà¤Łà¤²":4504,"à¤¯à¤²à¤¯à¤®":4505,"Ġà¤ħà¤¸à¤°à¤ķ":4506,"Ġà¤ħà¤¸à¤¦à¤ķ":4507,"à¤¶à¤ķà¤¦":4508,"à¤²à¤¬à¤¦":4509,"à¤¸à¤¨à¤ª":4510,"à¤ļà¤¨à¤¹à¤°":4511,"à¤µà¤ķà¤¸":4512,"à¤²à¤¨à¤¸à¤®":4513,"à¥Ńà¥§":4514,"Ġà¤ĵà¤¨":4515,"à¤¦à¤¨à¤¸":4516,"Ġà¤¨à¤Ĺà¤°à¤ªà¤°":4517,"à¥ªà¥¬":4518,"Ġà¤¢à¤°":4519,"Ġà¤¨à¤Ńà¤ĩà¤¸à¤ķ":4520,"Ġà¤ķà¤²à¤¹":4521,"à¤¶à¤¨à¤ħà¤¨":4522,"Ġà¤Ĩà¤ĩà¤Ł":4523,"Ġà¤Ĩà¤ĩà¤ķà¤¨":4524,"Ġà¤Ĩà¤ĩà¤¡à¤²à¤ķ":4525,"Ġà¤ħà¤µà¤ľ":4526,"à¤¹à¤¨à¤¤à¤ķ":4527,"à¥¯à¥¯":4528,"à¤¾...":4529,"à¤¨à¤¬à¤¤":4530,"à¤¸à¤¹à¤¯":4531,"à¤ĩà¤²à¤¹à¤°":4532,"à¤²à¤¯à¤²à¤Ĺ":4533,"Ġà¤Ĩà¤®à¤¹à¤¡":4534,"à¤ıà¤¸à¤Ł":4535,"Ġà¤¹à¤¸à¤¨à¤²":4536,"Ġà¥§à¥¨à¥¬":4537,"à¤ıà¤®à¤Ī":4538,"à¤®à¤Ĺà¤°à¤ķ":4539,"à¥ģà¥¤âĢĿ":4540,"Ġà¥§à¥¬à¥¦":4541,"Ġà¥§à¥ªà¥¦":4542,"ĠĠĠĠĠĊ":4543,"Ġà¤ľà¤¨à¤¸à¤°à¤ķ":4544,"Ġà¤¨à¤ķà¤Ĩà¤īà¤Ł":4545,"à¤Łà¤¬à¤²à¤²":4546,"Ġà¥¨à¥¨à¥¦":4547,"Ġà¥¦à¥¦à¥¦":4548,"Ġà¥¦à¥¦à¥Ń":4549,"Ġà¥¨à¥ªà¥¦":4550,"à¥ĩâĢĵâĢĺ":4551,"à¥ĩà¤Ĥ,âĢĻ":4552,"Ġà¥Ńà¥¦à¥¦":4553,"Ġà¥¨à¥¦à¥«à¥«":4554,"Ġà¤ķà¤¦à¤®à¤¹à¤°":4555,"à¤ĩà¤«à¤Ł":4556,"Ġà¤¬à¤¡à¤¹à¤°":4557,"Ġà¤ķà¤¦à¤®à¤®":4558,"...âĢĻ":4559,"Ġà¥¨à¥¦à¥¨à¥ª":4560,"à¤ıà¤ļà¤ıà¤¸":4561,"Ġà¤¶à¤ªà¤¥à¤Ĺ":4562,"Ġà¤Ĩà¤ĩà¤ıà¤®à¤ĩ":4563,"à¤Ĳà¤¤":4564,"Ġà¤ıà¤¯à¤°à¤¬à¤¸à¤²":4565,"Ġà¤¶à¤¹à¤°à¤ķ":4566,"à¤ĩà¤²à¤¬à¤¢":4567,"Ġà¤Ŀà¤¡à¤ªà¤ķ":4568,"Ġà¤ıà¤¸à¤ĩà¤ĩ":4569,"Ġà¤Łà¤¨à¤ķà¤ª":4570,"à¤ıà¤Ĩà¤°à¤ĵ":4571,"à¤Łà¤Ĩà¤īà¤Łà¤®":4572,"Ġà¤ıà¤ķà¤Ĩà¤ªà¤¸à¤®":4573,"Ġà¤ļà¤¹à¤²à¤ªà¤¹à¤²":4574,")âĢĻ":4575,"ar":4576,"à¤°à¤¨à¤ķ":4577,"à¤°à¤µà¤¸":4578,"à¤°à¤ľà¤²":4579,"à¤°à¤ıà¤¨à¤ı":4580,"à¤¨à¤°à¤¸":4581,"à¤¨à¤Ľà¤¨":4582,"à¤¨à¤Īà¤ķ":4583,"à¤¨à¤ħà¤Ĺ":4584,"à¤¨à¤°à¤µà¤²":4585,"à¤¿Ã·":4586,"à¤ķà¤ł":4587,"à¤ķà¤°à¤¸":4588,"à¤ķà¤Ĺà¤¢":4589,"à¥ĩ.":4590,"à¥ĩà¤¾":4591,"à¥ĭ!":4592,"à¥ĭà¥ĩà¥¤":4593,"à¤²à¤ł":4594,"à¤®à¤®à¤¤":4595,"à¤®à¤¬à¤²":4596,"à¤¤à¤¥à¤²":4597,"à¥ģ?":4598,"à¥Ģà¥ĩ":4599,"à¤¸à¤¯à¤ķ":4600,"à¤¸à¤¤à¤°":4601,"à¤¸à¤Ĺà¤¢":4602,"à¤¦à¤ķà¤°":4603,"à¤¹à¤Ĺ":4604,"à¤µà¤¤à¤²":4605,"à¤Łà¤ľà¤¸":4606,"à¤Łà¤®à¤²":4607,"à¤ıà¤Ĺ":4608,"à¤ıà¤®à¤²":4609,"à¤ıà¤Łà¤°à¤ķ":4610,"Ġà¤Ńà¤ľ":4611,"Ġà¤ħà¤¥à¤ķ":4612,"Ġà¤¬à¤Ĺà¤°":4613,"Ġà¤¬à¤²à¤¬":4614,"Ġà¤¬à¤Łà¤¨":4615,"Ġà¤¬à¤®à¤¬":4616,"Ġà¤®à¤Ńà¤¨":4617,"Ġà¤Ĺà¤°à¤Ĺà¤¹à¤¨":4618,"à¤ľà¤ªà¤°":4619,"Ġà¤µà¤¯":4620,"Ġà¤µà¤¨à¤®":4621,"à¤·à¤¦à¤°":4622,"à¤§à¤¶":4623,"à¤§à¤°à¤ķ":4624,"à¤§à¤¦à¤°":4625,"Ġà¤Ľà¤ª":4626,"Ġà¤¦à¤ĸ":4627,"à¤¥à¤²à¤¸":4628,"Ġà¤²à¤«":4629,"à¤ļà¤¯à¤ķ":4630,"à¤ļà¤ķà¤®":4631,"Ġà¤īà¤¸à¤®":4632,"à¤¡à¤§":4633,"à¤¡à¤ķà¤ķ":4634,"à¤īà¤Ĺ":4635,"à¤īà¤¡à¤°":4636,"à¤ĸà¤Ĺ":4637,"Ġà¤¸à¤®à¤·":4638,"à¤ĩà¤²à¤¨":4639,"à¤ĩà¤ªà¤ķ":4640,"à¤°à¤ķà¤°à¤£à¤²":4641,"Ġà¤ļà¤®à¤ķ":4642,"à¤«à¤°à¤®":4643,"Ġà¤ıà¤²à¤¸":4644,"à¤°à¤¤à¤Ń":4645,"Ġà¤ĸà¤²à¤ª":4646,"à¤¾à¤ģà¥¤":4647,"à¤°à¤£à¤ª":4648,"à¤¸à¤®à¤²":4649,"à¤ĺà¤¨à¤¤":4650,"Ġà¤ľà¤¨à¤Ĺ":4651,"Ġà¤ľà¤¨à¤§à¤¨à¤ķ":4652,"Ġà¤°à¤¹à¤¦":4653,"Ġà¤®à¤¹à¤¤à¤ķ":4654,"Ġà¤ıà¤ķà¤ªà¤ķ":4655,"Ġà¤Łà¤£":4656,"Ġà¤Łà¤¡":4657,"à¤Ŀà¤®":4658,"Ġà¤ħà¤°à¤¬à¤ķ":4659,"à¤ħà¤Ŀ":4660,"Ġà¤²à¤Ĺà¤¨à¤¶":4661,"Ġà¤ĩà¤®à¤°":4662,"Ġà¤Ńà¤ıà¤¬":4663,"à¤°à¤µà¤¹":4664,"à¤¯à¤²à¤¯à¤²":4665,"Ġà¤ħà¤¹à¤®à¤¦à¤²":4666,"à¤Ĩà¤°à¤¬":4667,"à¤Ĩà¤ĵ":4668,"à¥«à¥¨":4669,"à¥«à¥®":4670,"Ġ(?)":4671,"à¤®à¤¤à¤¸":4672,"à¥Įà¤ģ?":4673,"à¤®à¤¨à¤°":4674,"Ġà¤ĵà¤ľ":4675,"Ġà¤ĵà¤ĸ":4676,"Ġà¤ĵà¤¹à¤¦":4677,"à¥Īà¤Ĥà¤ģ":4678,"à¤°à¤¶à¤¨":4679,"Ġà¤¸à¤¯à¤¸à¤®":4680,"à¥ªà¥©":4681,"Ġà¤¸à¤®à¤¯à¤¬":4682,"Ġà¤ļà¤²à¤¨à¤²":4683,"Ġà¤Ĩà¤ĩà¤ıà¤¨à¤ľ":4684,"à¤Ĺà¤®à¤ŀ":4685,"à¥¯à¥¦":4686,"à¥¯à¥«":4687,"à¤ķà¤¨à¤ªà¤Ľ":4688,"à¤²à¤¤à¤ª":4689,"à¤¯à¤¸à¤²à¤Ĺà¤¤":4690,"Ġà¤¸à¤«à¤²à¤ª":4691,"à¤µà¤ªà¤¶":4692,"à¤¡à¤®à¤°":4693,"à¤ľà¤Ĺà¤ŀ":4694,"à¤§à¤ķà¤¹à¤°":4695,"à¤ıà¤¸à¤¬":4696,"à¤¯à¤¯à¤¨à¤¬":4697,"à¤ķà¤¸à¤¤":4698,"Ġà¤«à¤°à¤ķà¤ªà¤¨":4699,"Ġà¤¨à¤ľà¤°à¤ħà¤¨":4700,"à¤®à¤¸à¤Ļ":4701,"à¤ĸà¤ķà¤¹à¤°":4702,"Ġà¤°à¤®à¤ľ":4703,"à¤°à¤¸à¤®à¤ķ":4704,"à¤¯à¤¸à¤¬à¤ĸà¤¤":4705,"Ġà¤ªà¤¦à¤®à¤ª":4706,"à¤µà¤Ńà¤°à¤¬":4707,"à¤ªà¤Łà¤ªà¤®":4708,"à¤Łà¤¬à¤²à¤ª":4709,"à¤£à¤¤à¤¯":4710,"Ġà¤Īà¤·":4711,"Ġà¤ĸà¤Łà¤ªà¤Ł":4712,"Ġà¤¨à¤Ĩà¤ıà¤¸à¤®":4713,"à¤Ĭà¤°":4714,"Ġà¤Ľà¤²à¤«à¤²à¤²":4715,"Ġà¥§à¥¯à¥¯à¥ª":4716,"Ġà¤ıà¤«à¤Ł":4717,"à¤Łà¤°à¤¸à¤¹":4718,"Ġà¤ªà¤¸à¤²à¤¬":4719,"Ġà¥¨à¥¦à¥¨à¥«":4720,"Ġà¤ľà¤Ĺà¤¤à¤¬à¤¹":4721,"Ġà¥§à¥¯à¥®à¥«":4722,"Ġà¥¦à¥¬à¥Ń":4723,"âĢĮà¤Ĥ":4724,"Ġà¤¤ÅĴà¤µ":4725,"er":4726,"Ġ.":4727,"Ġà¤Ļ":4728,"à¤°à¤Ľ":4729,"à¤°à¤°à¤¤":4730,"à¤°à¤Ĺà¤°":4731,"à¤°à¤ĸà¤°":4732,"à¤°à¤Ĺà¤¢":4733,"à¤¨à¤¬à¤¨":4734,"à¤¨à¤¤à¤²":4735,"à¤¨à¤Łà¤®":4736,"à¤¨à¤ªà¤Łà¤ķ":4737,"à¤ķà¤£":4738,"à¤ķà¤ļ":4739,"à¤ķà¤²à¤ķ":4740,"à¤ķà¤ªà¤Ľ":4741,"à¤®à¤¯à¤ķ":4742,"à¤®à¤ľà¤¨":4743,"à¤®à¤²à¤²":4744,"à¤®à¤°à¤£à¤®":4745,"à¤¯à¤ªà¤ķ":4746,"à¤¸à¤ı":4747,"à¤¸à¤¢":4748,"Ġà¤ªà¤Ļ":4749,"à¤ªà¤Ńà¤¨":4750,"à¤ªà¤Łà¤¨":4751,"à¤¦à¤īà¤¨":4752,"à¤¦à¤²à¤ķ":4753,"à¤¦à¤Ńà¤¨":4754,"à¤¹à¤Ń":4755,"à¤¹à¤²à¤®":4756,"à¤¹à¤Ĺà¤¤":4757,"à¤µà¤°à¤¹":4758,"à¤µà¤¬à¤¹":4759,"à¤Ĺà¤¸à¤¬":4760,"à¤Ĺà¤£à¤®":4761,"à¥Ī)":4762,"Ġà¤°à¤¬à¤°":4763,"Ġà¤¨à¤ªà¤¤":4764,"Ġà¤¨à¤°à¤¹à¤°":4765,"Ġà¤¨à¤¸à¤ļ":4766,"Ġà¤¨à¤Ĺà¤°à¤²":4767,"à¤ıà¤°à¤®":4768,"à¤ıà¤®à¤ķ":4769,"à¤ıà¤¤à¤ķ":4770,"à¤ıà¤Łà¤°à¤²":4771,"Ġà¤¬à¤¬à¤Ī":4772,"Ġà¤¹à¤ķà¤ª":4773,"Ġà¤®à¤Ľ":4774,"à¤ľà¤¸à¤ķ":4775,"à¤ľà¤¤à¤²":4776,"à¤ľà¤¬à¤ķ":4777,"Ġà¤µà¤¨à¤²":4778,"à¤¬à¤°à¤¬":4779,"à¤¬à¤¤à¤®":4780,"à¤·à¤°à¤ķ":4781,"à¤§à¤Ĺ":4782,"à¤§à¤Ń":4783,"à¤§à¤ĺ":4784,"à¤§à¤µà¤ª":4785,"Ġà¤Ľà¤µà¤Ł":4786,"à¤¶à¤Ńà¤¨":4787,"à¤¶à¤¯à¤¬":4788,"à¤Ĥà¥¤":4789,"Ġà¤ľà¤¯à¤¸":4790,"Ġà¤ľà¤¯à¤¦":4791,"à¤£à¤¸à¤¹":4792,"à¤£à¤¶à¤®à¤¶":4793,"à¤ļà¤¤à¤°":4794,"à¤ļà¤²à¤²":4795,"à¤Īà¤¶":4796,"à¤Īà¤ķà¤¨":4797,"à¤¡à¤¯":4798,"à¤¡à¤°à¤¶":4799,"à¤Ńà¤§":4800,"à¤Ńà¤¸à¤®":4801,"à¤īà¤Łà¤ķ":4802,"à¤ĸà¤ļ":4803,"à¤ĸà¤²à¤Ĺ":4804,"à¤ĸà¤®à¤§":4805,"à¤ĩà¤ªà¤°":4806,"à¤ĩà¤«à¤²":4807,"à¤ĩà¤ħà¤¨":4808,"à¤ĩà¤¬à¤²":4809,"à¤°à¤®à¤°":4810,"à¤°à¤®à¤¯":4811,"à¤«à¤²à¤®":4812,"à¤«à¤¸à¤²à¤®":4813,"à¤īà¤¨à¤¤":4814,"Ġà¤ıà¤Ļ":4815,"Ġà¤ıà¤¡à¤®":4816,"à¤¯à¤ķà¤¬":4817,"à¤°à¤¤à¤ª":4818,"à¤°à¤¤à¤Ńà¤°":4819,"Ġà¤ĸà¤Ľ":4820,"Ġà¤ĸà¤¡à¤ķ":4821,"à¤°à¤£à¤¯":4822,"à¤ľà¤¨à¤ª":4823,"à¤ľà¤¨à¤ªà¤Ľ":4824,"à¤µà¤¸à¤Ń":4825,"à¥¦à¥Ńà¥¬":4826,"à¤ĺà¤£":4827,"Ġà¤ıà¤ķà¤¡":4828,"Ġà¤ıà¤ķà¤²à¤ķ":4829,"Ġà¤Łà¤ļ":4830,"Ġà¤§à¤¡":4831,"Ġà¤§à¤®à¤¨":4832,"à¤Ļà¤ĸ":4833,"à¤²à¤®à¤¨":4834,"à¤¤à¤°à¤ªà¤¶":4835,"à¤¤à¤°à¤Ĺà¤¯":4836,"à¤Ŀà¤ª":4837,"Ġà¤ħà¤°à¤¨":4838,"à¤ħà¤ļ":4839,"à¤ħà¤µà¤¸":4840,"Ġà¤®à¤¨à¤¤":4841,"Ġà¤ĩà¤¯à¤°":4842,"à¤¯à¤¨à¤¶":4843,"Ġà¤ħà¤µà¤¸à¤°à¤¬":4844,"à¤Ĺà¤¤à¤²":4845,"à¤µà¤¨à¤ª":4846,"à¤·à¤£à¤µ":4847,"à¤²à¤¬à¤ľ":4848,"à¤¸à¤¨à¤¸à¤¤":4849,"à¤¸à¤°à¤¸à¤®":4850,"à¥Ńà¥®":4851,"Ġà¤ĵà¤µ":4852,"à¤·à¤ķà¤¦":4853,"à¤°à¤Ńà¤ķ":4854,"à¥ªà¥¨":4855,"à¥ªà¥®":4856,"Ġà¤ħà¤µà¤¤à¤°à¤£à¤ķ":4857,"Ġà¤Ĩà¤īà¤¨à¤¸à¤ķ":4858,"à¤Ĺà¤®à¤¸":4859,"Ġà¤¦à¤²à¤Ĺà¤¤":4860,"Ġà¤ħà¤ªà¤ļà¤²à¤¨":4861,"à¤Łà¤²à¤°à¤²":4862,"Ġà¥§à¥¦à¥ª":4863,"Ġà¥§à¥¦à¥®":4864,"Ġà¥§à¥¦à¥¯":4865,"à¤²à¤¤à¤¦":4866,"à¤ªà¤²à¤Ł":4867,"Ġà¤Ĳà¤²":4868,"à¤·à¤¦à¤¬":4869,"à¤ĩà¤²à¤¨à¤®":4870,"à¤ľà¤Ĺà¤¨":4871,"Ġà¤Ĩà¤īà¤Ľà¤¨":4872,"à¤¯à¤ªà¤¦":4873,"Ġà¤Ĩà¤®à¤¸à¤Ń":4874,"à¤ıà¤¸à¤¨à¤²":4875,"Ġà¤ľà¤®à¤°":4876,"à¤¯à¤¯à¤¨à¤¹à¤°":4877,"à¤¡à¤²à¤¹à¤°":4878,"Ġà¥§à¥¨à¥§":4879,"Ġà¥§à¥¨à¥®":4880,"à¤²à¤¯à¤®à¤§":4881,"Ġà¥§à¥§à¥¦":4882,"Ġà¥§à¥®à¥§":4883,"Ġà¤Ĩà¤łà¤ľà¤¨":4884,"Ġà¤¹à¤²à¤¹à¤°":4885,"à¤¯à¤£à¤¹à¤°":4886,"Ġà¤®à¤¦à¤¨à¤²":4887,"Ġà¤°à¤¸à¤Ĺ":4888,"Ġà¤ķà¤łà¤ĺà¤°":4889,"Ġà¤¡à¤²à¤°à¤Ńà¤¨":4890,"à¥¨à¥¦à¥§à¥¬":4891,"Ġà¤ĭà¤£à¤ªà¤¤":4892,"Ġà¤¨à¤Ĺà¤¦à¤¸à¤¹":4893,"Ġà¤®à¤¨à¤®à¤¸":4894,"Ġà¥Ńà¥«à¥©":4895,"à¤§à¤¨à¤²à¤Ĺ":4896,"Ġà¥¯à¥¦à¥¦":4897,"à¤¾à¥Īà¤Ĥ,âĢĻ":4898,"à¤Łà¤¨à¤Ĺà¤°à¤¸":4899,"Ġà¤Ĺà¤ĩà¤°à¤¹à¤¨":4900,"Ġà¤¤à¤²à¤¬à¤Ńà¤¤":4901,"Ġà¥¨à¥¦à¥©à¥©":4902,"à¤Ĺà¤£à¤¤à¤¨":4903,"à¤ķà¤¡à¤Ń":4904,"Ġà¤īà¤ªà¤ķà¤°à¤£à¤¹à¤°":4905,"à¤ķà¤Ńà¤°à¤ķ":4906,"à¤¤à¤°à¤²à¤¤":4907,"ĠĠĠĠĠĠĠĠĠĠĠĠĠĠĠĠĠĠĠĠĠĠĠĠ":4908,"à¤Ĺà¤µà¤£":4909,"Ġà¥§à¥¯à¥ªà¥¯":4910,"Ġà¤¸à¤°à¤¹à¤ķ":4911,"Ġà¤¯à¤®à¤¨à¤®":4912,"Ġà¤ķà¤²à¤®à¤ľ":4913,"à¤¡à¤¹à¤²à¤®":4914,"à¤°à¤Ĩà¤µà¤¸":4915,"Ġà¤²à¤«à¤¡":4916,")âĢĵ":4917,"as":4918,"di":4919,"ep":4920,"it":4921,"mà¤¸à¤²":4922,"ÂŃ":4923,"Ġ\"":4924,"ĠA":4925,"Ġth":4926,"à¥įà¤ĥ":4927,"à¤°à¤²à¤ķ":4928,"à¤¨à¤§":4929,"à¤¨à¤ıà¤ľ":4930,"à¤¿/":4931,"à¤ķà¤Łà¤¨":4932,"à¤ķà¤Ĺà¤£":4933,"à¥ĩâĢĿ":4934,"à¥ĭâĢĿ,":4935,"à¤²à¤µà¤°":4936,"à¤²à¤ļà¤¨":4937,"à¤®à¤ªà¤¤":4938,"à¤¤à¤ľà¤¸":4939,"à¤¤à¤ħà¤²":4940,"à¤¯à¤ļà¤ķ":4941,"à¤¸à¤°à¤£":4942,"à¤¸à¤ļà¤¨":4943,"Ġà¤¸à¤¯à¤²":4944,"Ġà¤¸à¤¤à¤²":4945,"Ġà¤¸à¤¶à¤°":4946,"Ġà¤ªà¤Ĺà¤°":4947,"Ġà¤ªà¤¥à¤®":4948,"Ġà¤ªà¤¥à¤ª":4949,"à¤ªà¤ħà¤¨":4950,"à¤¦à¤¡":4951,"à¤¦à¤¯à¤®":4952,"à¤¹à¤¤à¤®":4953,"à¤¹à¤²à¤¤":4954,"à¤¹à¤£à¤²":4955,"à¤µà¤ĸ":4956,"à¤µà¤ķà¤®":4957,"à¤µà¤ļà¤¨":4958,"à¤µà¤¦à¤²":4959,"à¤µà¤ªà¤°à¤°":4960,"Ġà¤ķà¤ľ":4961,"Ġà¤ķà¤Ļ":4962,"Ġà¤ķà¤Łà¤¨":4963,"à¤Ĺà¤Łà¤¨":4964,"à¤Ĺà¤ľà¤¸":4965,"à¤Łà¤Ĺ":4966,"à¤Łà¤Ł":4967,"à¤ıà¤¦":4968,"Ġà¤Ńà¤·":4969,"Ġà¤Ńà¤ŀ":4970,"Ġà¤Ńà¤Łà¤®":4971,"Ġà¤¹à¤Ĺ":4972,"Ġà¤¹à¤Ļ":4973,"Ġà¤®à¤ª":4974,"Ġà¤®à¤¥":4975,"à¤ľà¤µà¤²":4976,"Ġà¤µà¤°à¤£":4977,"à¤¬à¤¬à¤Ī":4978,"à¤·à¤°à¤¶":4979,"Ġà¤Ľà¤®":4980,"Ġà¤¤à¤²à¤¸à¤®":4981,"Ġà¤¤à¤µà¤°à¤®":4982,"à¤ģÃ·":4983,"à¤¥à¤Ńà¤¨":4984,"à¤¥à¤¸à¤ļ":4985,"à¤¶à¤¯à¤ķ":4986,"à¤¶à¤µà¤ķ":4987,"Ġà¤Ĩà¤Ļà¤¬":4988,"Ġà¤Ĩà¤ıà¤²à¤Ĺà¤¤":4989,"Ġà¤ľà¤¯à¤ķ":4990,"à¤£à¤§":4991,"Ġà¤²à¤µ":4992,"Ġà¤²à¤¯à¤®":4993,"Ġà¤²à¤Ļ":4994,"à¤ļà¤Ńà¤¨":4995,"à¤Īà¤¨à¤²":4996,"à¤Īà¤ľà¤ķ":4997,"à¤Īà¤²à¤Ĺ":4998,"à¤Īà¤¥à¤°":4999,"Ġà¤īà¤¥à¤ª":5000,"à¤¡à¤Ł":5001,"à¤¡à¤ªà¤¤":5002,"à¤Ńà¤°à¤¸":5003,"à¤Ńà¤ıà¤Ľ":5004,"à¤īà¤¡à¤¸":5005,"à¤ĸà¤°à¤ķ":5006,"à¤ĸà¤ªà¤¢":5007,"âĢį":5008,"Ġà¤¸à¤®à¤µ":5009,"à¤ĩà¤ľà¤®":5010,"à¤ĩà¤¤à¤¬":5011,"à¤ĩà¤¬à¤°à¤ķ":5012,"à¤ĩà¤Ńà¤²":5013,"à¤°à¤®à¤µ":5014,"à¤°à¤®à¤ªà¤Ľ":5015,"à¥ĮâĢĻ,":5016,"Ġà¤ıà¤²à¤ª":5017,"Ġà¤ıà¤ıà¤¨à¤ı":5018,"Ġà¤ĸà¤°à¤¬":5019,"Ġà¤ĸà¤Łà¤¨":5020,"Ġà¤ħà¤¨à¤µ":5021,"Ġà¤ªà¤°à¤¦":5022,"à¤¸à¤ķà¤¬":5023,"Ġà¤«à¤£":5024,"Ġà¤«à¤²à¤ķ":5025,"à¤°à¤£à¤¸":5026,"à¤ªà¤°à¤µ":5027,"à¤ľà¤¨à¤°":5028,"à¤ľà¤¨à¤¨":5029,"à¤¨à¤®à¤¸":5030,"âĢĻà¥¤":5031,"à¤ĺà¤·":5032,"à¤ĺà¤Ń":5033,"à¤ĺà¤°à¤¬":5034,"à¤ĺà¤²à¤Ĺ":5035,"à¤ĺà¤Łà¤¨à¤ķ":5036,"Ġà¤¸à¤ķà¤¸":5037,"à¤¯à¤®à¤¤":5038,"Ġà¤¯à¤¸à¤ĸ":5039,"Ġà¤¯à¤¸à¤Ńà¤¨":5040,"Ġà¤®à¤¹à¤²à¤®":5041,"Ġà¤ıà¤ķà¤²à¤®":5042,"Ġà¤ıà¤ķà¤µà¤°":5043,"Ġà¤ıà¤ķà¤®à¤¤":5044,"Ġà¤ıà¤ķà¤ªà¤Łà¤ķà¤®":5045,"Ġà¤Łà¤ķà¤°":5046,"Ġà¤§à¤¸":5047,"Ġà¤§à¤¨à¤®":5048,"Ġà¤§à¤°à¤²":5049,"à¤Ļà¤¨":5050,"à¤Ļà¤ļ":5051,"à¤Ļà¤ľà¤¸":5052,"à¤Ļà¤¬à¤ľ":5053,"à¤¯à¤¤à¤¹":5054,"Ġà¤¸à¤¹à¤ħà¤§":5055,"à¤¤à¤°à¤¨":5056,"Ġà¤µà¤°à¤¦":5057,"Ġà¤īà¤ªà¤¶":5058,"à¤ĩà¤¨à¤ª":5059,"à¤ĩà¤¨à¤¹à¤°":5060,"à¥Įà¤Ĥà¤ģà¥¤":5061,"à¤ħà¤µà¤°":5062,"à¤ªà¤®à¤¤à¤ķ":5063,"à¤ªà¤®à¤¤à¤®":5064,"Ġà¤²à¤Ĺà¤¨à¤ĸ":5065,"à¤¯à¤¨à¤°à¤¤":5066,"Ġà¤Ńà¤ıà¤Ńà¤°à¤ķ":5067,"à¤¶à¤ķà¤¸":5068,"à¤¶à¤ķà¤¬":5069,"à¤¸à¤²à¤°":5070,"à¤Ĺà¤¤à¤¤à¤°":5071,"à¤µà¤¨à¤°":5072,"à¤·à¤£à¤¯":5073,"à¤·à¤£à¤ªà¤¤":5074,"à¤²à¤¬à¤°":5075,"à¤²à¤¬à¤¸à¤¹":5076,"à¤¸à¤¨à¤¦":5077,"à¤¤à¤¨à¤¹à¤°":5078,"à¥§à¥¦à¥¦":5079,"à¤Ĩà¤ª":5080,"à¤Ĩà¤ł":5081,"à¤Ĩà¤°à¤¸":5082,"Ġà¤Ĩà¤°à¤ª":5083,"à¤Łà¤¨à¤ľ":5084,"à¤Łà¤¨à¤°à¤ķ":5085,"à¤²à¤¨à¤µ":5086,"à¥«à¥ª":5087,"à¥«à¥¦à¥¦":5088,"à¤®à¤¤à¤¦":5089,"à¤®à¤¤à¤¬":5090,"à¤Łà¤°à¤Ń":5091,"à¤ªà¤ķà¤¤":5092,"Ġà¤Ĩà¤µà¤¤":5093,"à¤®à¤¨à¤Ĺà¤°":5094,"Ġà¤ĵà¤ĸà¤¤":5095,"à¤«à¤²à¤¤":5096,"Ġà¤¨à¤Ĺà¤°à¤¬":5097,"Ġà¤¸à¤¯à¤ľà¤¨":5098,"à¥¬à¥«":5099,"à¥ªà¥Ń":5100,"à¤ıà¤¨à¤Ł":5101,"Ġà¤¢à¤²à¤ķ":5102,"à¤§à¤¨à¤¸à¤®":5103,"à¥©à¥Ń":5104,"à¥©à¥ª":5105,"à¥©à¥®":5106,"à¤Ĺà¤²à¤¸":5107,"Ġà¤ªà¤¦à¤²":5108,"Ġà¤ªà¤¦à¤µ":5109,"Ġà¤ªà¤¦à¤ķà¤®":5110,"Ġà¤ªà¤¦à¤ķà¤ķ":5111,"Ġà¤Ĩà¤ĩà¤¦":5112,"Ġà¤Ĩà¤ĩà¤ĵà¤ıà¤¸":5113,"Ġà¤¤à¤¹à¤¦":5114,"à¤ĵà¤Ł":5115,"à¤ĵà¤Ńà¤°":5116,"à¤¬à¤°à¤¸à¤®":5117,"Ġà¤ıà¤®à¤ª":5118,"Ġà¤ıà¤®à¤Ń":5119,"Ġà¤ıà¤®à¤Ĩà¤ĩà¤Ł":5120,"Ġà¤¦à¤²à¤¸à¤®":5121,"à¤¹à¤¨à¤Ĺà¤°":5122,"Ġà¤ĺà¤°à¤¸à¤®":5123,"Ġà¤ĺà¤°à¤ĸà¤°":5124,"à¤·à¤¯à¤¬à¤¸":5125,"à¤ķà¤¨à¤¹à¤°":5126,"Ġà¥§à¥¦à¥Ń":5127,"Ġà¥§à¥¦à¥¨":5128,"Ġà¤ıà¤¨à¤Ĩ":5129,"à¤²à¤¤à¤¸à¤®":5130,"à¤£à¤¯à¤ħà¤¨":5131,"à¤¨à¤µà¤ľ":5132,"à¤¨à¤µà¤ħ":5133,"à¥Īà¤ģ,":5134,"Ġà¤Ĺà¤łà¤ľ":5135,"Ġà¤Ĺà¤łà¤¨à¤¸":5136,"à¤µà¤°à¤£à¤®à¤¨":5137,"à¤ľà¤®à¤£":5138,"à¥įâĢĿ":5139,"Ġà¤ıà¤¸à¤¯":5140,"à¤ıà¤¸à¤ıà¤ķ":5141,"Ġà¤ľà¤Ĺà¤¤à¤ķ":5142,"Ġà¤Ĩà¤ľà¤¦":5143,"Ġà¤§à¤°à¤ªà¤ķ":5144,"à¤µà¤¤à¤¬":5145,"à¤°à¤ªà¤ŀ":5146,"Ġà¥§à¥¨à¥©":5147,"à¤¥à¤²à¤¸à¤®":5148,"à¤ıà¤®à¤ĵ":5149,"Ġà¤¬à¤ļà¤¤à¤®":5150,"Ġà¤¸à¤¹à¤°à¤¸":5151,"Ġà¥§à¥§à¥§":5152,"à¤ľà¤¦à¤°à¤ķ":5153,"à¤ªà¤£à¤ªà¤Ľ":5154,"à¤ķà¤Łà¤¸":5155,"à¤®à¤¦à¤¤":5156,"à¤®à¤Ĺà¤¨":5157,"Ġà¥§à¥®à¥¨":5158,"Ġà¤ľà¤¨à¤ķà¤²":5159,"à¤¨à¤Ĺà¤°à¤¸":5160,"Ġà¥§à¥©à¥¦":5161,"Ġà¥§à¥©à¥©":5162,"Ġà¤¨à¤µà¤Ĺà¤ł":5163,"Ġà¤Ĩà¤²à¤Ł":5164,"Ġà¤ľà¤¨à¤¸à¤Ļ":5165,"Ġà¤ĭà¤·à¤Ń":5166,"à¤Ĺà¤®à¤¨à¤ªà¤Ľ":5167,"Ġà¤¦à¤¶à¤µà¤°":5168,"à¥ĩà¤ģâĢĵ":5169,"Ġà¤¦à¤¶à¤ķà¤ħà¤Ĺ":5170,"à¤®à¤£à¤²":5171,"Ġà¤¡à¤²à¤°à¤¸à¤®":5172,"à¤ıà¤«à¤ıà¤ķ":5173,"Ġà¤Ĩà¤Īà¤¡à¤²à¤ķ":5174,"Ġà¤Ľà¤²à¤«à¤²à¤¬":5175,"ĠĠĠĠĠĠĠĠĠ":5176,"Ġà¤ľà¤¨à¤¸à¤®à¤°":5177,"à¤¾à¥Īà¤Ĥ-":5178,"Ġà¥§à¥¯à¥¯à¥©":5179,"Ġà¤®à¤¦à¤¨à¤¸":5180,"Ġ,âĢĺ":5181,"à¤īà¤ªà¤Ĺ":5182,"à¤īà¤ªà¤Ń":5183,"Ġà¤ªà¤¸à¤²à¤²":5184,"Ġà¤ªà¤¸à¤²à¤¹à¤°":5185,"Ġà¤Ĺà¤ľà¤²à¤ķ":5186,"Ġà¤ļà¤°à¤£à¤¬":5187,"Ġà¥¨à¥¦à¥¨à¥©":5188,"à¤Ńà¤ªà¤¤à¤¨à¤ķ":5189,"à¤¾à¥ĪâĢĮ":5190,"à¤®à¤ľà¤¯à¤¨":5191,"Ġà¥§à¥¯à¥ªà¥Ń":5192,"Ġà¤ıà¤¯à¤°à¤µ":5193,"Ġà¤ıà¤¯à¤°à¤¬à¤¸à¤ķ":5194,"Ġà¤Ŀà¤¡à¤ªà¤®":5195,"à¤ķà¤ħà¤ªà¤®":5196,"à¤¨à¤ıà¤ľà¤°":5197,"Ġà¤Ĩà¤ĩà¤ıà¤®à¤ĩà¤Ĩà¤Ī":5198,"):":5199,"il":5200,"is":5201,"om":5202,"Ġ1":5203,"Ġ4":5204,"à¤ĭ":5205,"à¤¾à¥ĭ":5206,"à¥į'":5207,"à¤°à¤¡à¤®":5208,"à¤¨à¤°à¤¤":5209,"à¤¨à¤¸à¤²":5210,"à¤¨à¤°à¤¬":5211,"à¤¨à¤¶à¤¨":5212,"à¤¨à¤¯à¤¬":5213,"à¤¿'":5214,"à¤¿,âĢĻ":5215,"à¤¿Â¥":5216,"à¤ķà¤Ļ":5217,"à¤ķà¤°à¤¦":5218,"à¥ĩ'":5219,"à¥ĩâĢĶ":5220,"à¥ĭâĢĿ":5221,"à¤²à¤Ī":5222,"à¤²à¤¸à¤²":5223,"à¤®à¤°à¤²":5224,"à¤®à¤¸à¤²":5225,"à¤®à¤¸à¤¨":5226,"à¤¤à¤£":5227,"à¤¤à¤¤à¤°":5228,"à¤¤à¤Ĺà¤¢":5229,"à¥ģ:":5230,"à¤¸à¤°à¤¹à¤°":5231,"à¤ªà¤²à¤®":5232,"à¤ªà¤ķà¤®":5233,"à¤¦à¤¹":5234,"à¤¦à¤ĸ":5235,"à¤¦à¤°à¤¬":5236,"à¤¹à¤¨à¤®":5237,"à¤µà¤¯à¤²":5238,"à¤µà¤ħà¤°":5239,"Ġà¤ķà¤¹à¤°":5240,"Ġà¤Ĺà¤ıà¤¨":5241,"Ġà¤°à¤Ł":5242,"Ġà¤¨à¤¯à¤¨":5243,"Ġà¤¨à¤¤à¤®à¤¸":5244,"à¤Łà¤¸à¤ķ":5245,"à¤Łà¤¤à¤¨":5246,"à¤ıà¤µ":5247,"à¤ıà¤ıà¤¸":5248,"Ġà¤Ńà¤Ļ":5249,"Ġà¤Ńà¤°à¤¤à¤®":5250,"Ġà¤Ńà¤°à¤£à¤ª":5251,"Ġà¤ħà¤¸à¤ķ":5252,"Ġà¤¬à¤°à¤¬":5253,"Ġà¤¬à¤ļà¤¨":5254,"Ġà¤¬à¤¬à¤°à¤®":5255,"Ġà¤¹à¤°à¤ķ":5256,"Ġà¤¹à¤¸à¤¨":5257,"Ġà¤¹à¤¦à¤ķ":5258,"Ġà¤®à¤ĸ":5259,"Ġà¤®à¤²à¤²":5260,"Ġà¤®à¤¤à¤®":5261,"à¤ľà¤Ļ":5262,"à¤ľà¤®à¤ķ":5263,"à¤ľà¤²à¤Ĺ":5264,"Ġà¤µà¤®":5265,"Ġà¤µà¤¶":5266,"à¤·à¤°à¤¸":5267,"à¤·à¤ľà¤¸":5268,"à¤·à¤§à¤ķ":5269,"à¤§à¤µà¤²":5270,"à¤§à¤§à¤°":5271,"à¤§à¤°à¤£à¤ķ":5272,"Ġà¤¤à¤Ĺ":5273,"Ġà¤¤à¤£":5274,"Ġà¤¤à¤²à¤¤":5275,"à¤ģà¥į":5276,"Ġà¤¦à¤®à¤¦":5277,"Ġà¤¦à¤ĸà¤²":5278,"à¤¶à¤¹":5279,"Ġà¤Ĩà¤²à¤®":5280,"Ġà¤Ĩà¤¶à¤ķ":5281,"Ġà¤Ĩà¤łà¤®":5282,"Ġà¤Ĩà¤Ĺà¤®à¤¨à¤²":5283,"Ġà¤ľà¤ķ":5284,"Ġà¤ľà¤«à¤¤":5285,"à¤Ľà¤²":5286,"à¤ļà¤²à¤®":5287,"à¤ļà¤°à¤¹à¤°":5288,"à¤ļà¤²à¤¸":5289,"Ġà¤īà¤¸à¤¬":5290,"à¤¡à¤Ĺ":5291,"à¤¡à¤µà¤ķ":5292,"à¤¡à¤°à¤¹à¤°":5293,"à¤Ńà¤ıà¤ªà¤Ľ":5294,"à¤īà¤ªà¤ķ":5295,"à¤ĸà¤¸à¤¹":5296,"à¤ĩà¤£":5297,"à¤ĩà¤ªà¤Ľ":5298,"à¤ĩà¤²à¤Ĺ":5299,"à¤ĩà¤Ļà¤²":5300,"à¤ĩà¤®à¤°":5301,"à¤°à¤ķà¤°à¤£à¤¬":5302,"à¤«à¤Ł":5303,"à¤«à¤¹à¤°":5304,"à¥Įà¥Īà¤Ĥ":5305,"Ġà¤ıà¤Łà¤®":5306,"Ġà¤ĸà¤²à¤²":5307,"à¤¨à¤ķà¤¹à¤°":5308,"Ġà¤¶à¤¸":5309,"Ġà¤ħà¤¨à¤¸":5310,"Ġà¤ħà¤¨à¤¶à¤¨à¤ķ":5311,"Ġà¤ħà¤¨à¤µà¤°à¤¤":5312,"Ġà¤ªà¤°à¤¶":5313,"à¤łà¤ª":5314,"à¤łà¤¦":5315,"Ġà¤«à¤·":5316,"à¤°à¤£à¤Ńà¤¨":5317,"à¤ľà¤¨à¤¸à¤¹":5318,"à¤¸à¤®à¤µ":5319,"à¤¸à¤®à¤§":5320,"à¤µà¤¸à¤¤":5321,"à¥¦à¥§":5322,"à¤ĺà¤ħà¤¨":5323,"à¤¢à¤ķ":5324,"Ġà¤°à¤¹à¤²":5325,"Ġà¤¯à¤¸à¤ħà¤°":5326,"Ġà¤®à¤¹à¤®à¤¦":5327,"Ġà¤ıà¤ķà¤®à¤¨":5328,"Ġà¤Łà¤²":5329,"Ġà¤Łà¤¨à¤®":5330,"Ġà¤§à¤ª":5331,"Ġà¤§à¤µà¤¨à¤²":5332,"Ġà¤§à¤¨à¤¬à¤¹":5333,"à¤Ļà¤ªà¤Ľ":5334,"Ġà¤ĺà¤®":5335,"Ġà¤ĺà¤°à¤µ":5336,"Ġà¤ĺà¤®à¤£":5337,"Ġà¤ĺà¤°à¤¸à¤¹":5338,"à¤ªà¤¨à¤¸":5339,"à¤¯à¤¤à¤ª":5340,"à¤²à¤®à¤§":5341,"Ġà¤¸à¤¹à¤ħà¤Ń":5342,"à¤¤à¤°à¤Ĺà¤¤":5343,"Ġà¤¤à¤°à¤ªà¤¨":5344,"Ġà¤¡à¤°à¤ķ":5345,"à¤Ŀà¤Łà¤®":5346,"Ġà¤ħà¤°à¤¬à¤®":5347,"à¤°à¤¸à¤¬":5348,"à¤°à¤¸à¤°à¤²":5349,"à¤ĩà¤¨à¤Ń":5350,"à¥ģà¤ģà¥¤âĢĻ":5351,"Ġà¤ķà¤®à¤¨":5352,"à¤ħà¤°à¤²":5353,"à¤ħà¤¸à¤²":5354,"à¤ħà¤²à¤°":5355,"à¤ķà¤®à¤£":5356,"Ġà¤ķà¤°à¤¨":5357,"Ġà¤ĩà¤Ńà¤¨":5358,"à¤¯à¤¨à¤¤à¤°":5359,"à¤¾à¤Ĥà¥Ī,":5360,"Ġà¤¸à¤¬à¤ķ":5361,"à¤°à¤µà¤¤":5362,"à¤°à¤µà¤ª":5363,"à¤¯à¤²à¤¯à¤ķ":5364,"Ġà¤ħà¤¸à¤¤":5365,"à¤¸à¤²à¤²":5366,"à¤µà¤¨à¤°à¤ķ":5367,"à¤µà¤¨à¤ļà¤ķ":5368,"Ġà¤ħà¤Ńà¤¯":5369,"à¤¸à¤¨à¤ľ":5370,"à¤Ĩà¤²":5371,"à¤Ĩà¤ĩà¤Ń":5372,"Ġà¤Ĩà¤°à¤¬":5373,"Ġà¤Ĩà¤°à¤Ĩà¤°":5374,"Ġà¤Ĩà¤°à¤ıà¤¸à¤ķ":5375,"à¤Łà¤¨à¤°à¤²":5376,"à¥«à¥¯":5377,"à¤¸à¤°à¤Ń":5378,"à¥Įà¤ģâĢĻ,":5379,"Ġà¤Ŀà¤²à¤ķ":5380,"à¥Īà¤Ĥ,":5381,"à¤·à¤ķà¤¬":5382,"à¥į,âĢĿ":5383,"à¥¬à¥§":5384,"à¥¬à¥¯":5385,"à¤®à¤®à¤§":5386,"à¥ªà¥§":5387,"à¥ªà¥¯":5388,"Ġà¤¢à¤¡":5389,"à¤ķà¤°à¤£à¤¤à¤°":5390,"à¤ľà¤¸à¤ľ":5391,"Ġà¤ħà¤¬à¤°":5392,"Ġà¤ħà¤¬à¤ļ":5393,"Ġà¤ħà¤¬à¤²à¤®":5394,"Ġà¤Ĩà¤ĩà¤®":5395,"Ġà¤Ĩà¤ĩà¤°à¤¨":5396,"Ġà¤Ĩà¤ĩà¤ıà¤²":5397,"Ġà¤¤à¤¹à¤Ĺà¤¤":5398,"Ġà¤¤à¤¹à¤®à¤§":5399,"à¤ĵà¤ªà¤¨":5400,"Ġà¤¦à¤²à¤ª":5401,"Ġà¤¦à¤²à¤¦à¤²à¤®":5402,"Ġà¤ħà¤ªà¤ľà¤¸":5403,"Ġà¤¬à¤¹à¤¸à¤²":5404,"à¤·à¤¯à¤ª":5405,"Ġà¤¬à¤²à¤°à¤ķ":5406,"Ġà¤īà¤łà¤¨":5407,"Ġà¥§à¥¦à¥§":5408,"Ġà¤ıà¤¨à¤ıà¤®à¤¬":5409,"Ġà¤ıà¤¨à¤Ĩà¤ĩà¤¡":5410,"Ġà¤ıà¤¨à¤ıà¤«à¤¡":5411,"à¤Ńà¤µà¤¹à¤°":5412,"Ġà¤Ĳà¤¸":5413,"Ġà¤ħà¤«à¤µ":5414,"à¤ĩà¤²à¤Łà¤²":5415,"à¤¤à¤°à¤£à¤²":5416,"Ġà¤ıà¤¸à¤ıà¤¸à¤ķ":5417,"à¤Ĩà¤°à¤ª":5418,"à¤Ĩà¤°à¤ıà¤¸":5419,"Ġà¤Ĩà¤īà¤¦":5420,"Ġà¤Ĩà¤¦à¤°à¤£":5421,"Ġà¤Ĩà¤¶à¤¯à¤ªà¤¤":5422,"à¤ªà¤Łà¤ķà¤ķ":5423,"à¤µà¤¤à¤¨à¤ķ":5424,"Ġà¥§à¥¯à¥Ńà¥«":5425,"Ġà¤Ľà¤²à¤«à¤²à¤¸à¤®":5426,"à¤Ĺà¤łà¤¨à¤¬":5427,"à¤°à¤ļà¤¨à¤²":5428,"Ġà¤ªà¤¢à¤¨":5429,"Ġà¤ĺà¤Łà¤¬à¤¢":5430,"à¤¥à¤²à¤¤à¤°":5431,"à¤¨à¤ªà¤¹":5432,"à¤ĩà¤°à¤²à¤ķ":5433,"à¤ªà¤£à¤®":5434,"à¤·à¤§à¤°à¤²":5435,"Ġà¤Ĳà¤¨à¤¹à¤°":5436,"à¤¯à¤Łà¤¨à¤¬":5437,"à¤ıà¤²à¤ı":5438,"Ġà¥§à¥¬à¥®":5439,"Ġà¥§à¥¬à¥¯":5440,"à¤¨à¤Ĺà¤°à¤Ń":5441,"Ġà¥§à¥ªà¥¨":5442,"à¤Ĺà¤¬à¤ľ":5443,"Ġà¥§à¥Ńà¥¦":5444,"Ġà¥§à¥Ńà¥ª":5445,"à¥ĩà¤ģ,âĢĻ":5446,"à¥Įà¤ģà¥¤âĢĿ":5447,"Ġà¥¦à¥¬à¥©":5448,"Ġà¤ĺà¤¨à¤«":5449,"Ġà¤ĸà¤¸à¤Ĩà¤°":5450,"à¥¨à¥¦à¥Ńà¥«":5451,"à¤Ĩà¤«à¤¨":5452,"Ġà¤Ĩà¤ıà¤Ľ":5453,"à¤ĸà¤¨à¤¨à¤®":5454,"Ġà¥¨à¥¦à¥ªà¥¨":5455,"Ġà¤¸à¤°à¤¸à¤°":5456,"à¤¶à¤¨à¤²à¤²":5457,"Ġà¤ħà¤¸à¤¹à¤ľà¤¤":5458,"Ġà¤Ĺà¤ıà¤ªà¤¨":5459,"Ġà¤¸à¤®à¤¯à¤¸à¤®à¤¯à¤®":5460,"à¤¾à¥Īà¤Ĥ,":5461,"à¤ĩà¤«à¤¸à¤ķ":5462,"à¤Ĩà¤Īà¤ľ":5463,"Ġà¥§à¥¯à¥¯à¥¯":5464,"Ġà¤ıà¤«à¤ı":5465,"Ġà¤ıà¤¡à¤Ń":5466,"Ġà¤¨à¤ļà¤¢":5467,"Ġà¤®à¤¹ÅĴà¤µà¤ķ":5468,"Ġà¥¨à¥¦à¥©à¥ª":5469,"Ġà¥¨à¥¦à¥©à¥®":5470,"Ġà¤ıà¤¨à¤Ĩà¤°à¤ıà¤¨à¤®":5471,"Ġà¥§à¥¯à¥«à¥§":5472,"Ġà¥§à¥¯à¥«à¥Ń":5473,"à¤¥à¤ªà¤°à¤ķ":5474,"à¤ıà¤ļà¤ĵ":5475,"Ġà¥§à¥¯à¥®à¥§":5476,"Ġà¥§à¥¯à¥®à¥ª":5477,"Ġà¥§à¥¯à¥®à¥¯":5478,"Ġà¤ĸà¤¬à¤°à¤¹à¤°":5479,"Ġà¥§à¥¯à¥¬à¥¬":5480,"Ġà¥¦à¥¬à¥ª":5481,"Ġà¥¦à¥¬à¥¯":5482,"Ġà¤ıà¤ļà¤¡":5483,"Ġà¤Ĩà¤Ĺà¤®à¤¨à¤ªà¤Ľ":5484,"Ġà¤µà¤ļà¤¨à¤¬à¤¦":5485,"Ġà¥§à¥¯à¥Ńà¥¯":5486,"à¥Įà¤ģà¤Ĥà¥¤":5487,"Ġà¤ıà¤¯à¤°à¤¬à¤¸":5488,"Ġà¥¦à¥ªà¥®":5489,"à¤¬à¤§à¤¶":5490,"ation":5491,"Ġà¤ıà¤ıà¤¨à¤Ĩà¤Īà¤²":5492,"In":5493,"mà¤®":5494,"mà¤¹à¤°":5495,"Ġ@":5496,"à¤¾:":5497,"à¤¾à¥ģ":5498,"à¤¾âĢĿ":5499,"à¥įà¤¿":5500,"à¤°à¤Ł":5501,"à¤°à¤¨à¤²":5502,"à¤°à¤ħà¤ĺ":5503,"à¤¨à¤¯à¤¸":5504,"à¤¨à¤Ŀ":5505,"à¤¨à¤µà¤ķ":5506,"à¤¨à¤µà¤²":5507,"à¤¿-":5508,"à¤¿à¥Ģ":5509,"à¤¿âĢĻ,":5510,"à¤ķà¤·":5511,"à¤ķà¤§":5512,"à¤ķà¤¡à¤®":5513,"à¤ķà¤°à¤µà¤°":5514,"à¥ĩ),":5515,"à¤²à¤īà¤ªà¤°":5516,"à¤®à¤°à¤ķ":5517,"à¤®à¤°à¤¤":5518,"à¤®à¤ľà¤¸":5519,"à¤®à¤ªà¤¦":5520,"à¤¤à¤Ľ":5521,"à¤¤à¤ªà¤°":5522,"à¤¤à¤µà¤²":5523,"à¤¯à¤¦à¤ķ":5524,"à¥ģ/":5525,"à¤¸à¤§":5526,"à¤¸à¤ĺ":5527,"à¤¸à¤¤à¤ķ":5528,"à¤¸à¤¤à¤¬":5529,"à¤¸à¤ħà¤°":5530,"Ġà¤¸à¤¯à¤®à¤®":5531,"à¤ªà¤Ń":5532,"à¤ªà¤¯à¤®":5533,"à¤ªà¤¸à¤¹":5534,"à¤ªà¤Łà¤¬":5535,"à¤ªà¤¸à¤¹à¤°":5536,"à¤¦à¤µà¤¸":5537,"à¤¦à¤ªà¤Ľ":5538,"à¤¦à¤¤à¤°":5539,"à¤¦à¤¯à¤²":5540,"à¤¦à¤²à¤Ĺ":5541,"à¤¹à¤¸à¤ķ":5542,"à¤µà¤Ī":5543,"à¤µà¤¦à¤¨":5544,"à¤µà¤µà¤¤":5545,"à¤µà¤§à¤°":5546,"à¥¤âĢĵ":5547,"Ġà¤ķà¤°à¤²":5548,"Ġà¤Ĺà¤ľà¤®":5549,"Ġà¤Ĺà¤ıà¤¨à¤¨":5550,"Ġà¤Ĺà¤«à¤®":5551,"Ġà¤Ĺà¤Ľà¤°":5552,"à¥Ī?":5553,"Ġà¤°à¤¥à¤²":5554,"Ġà¤°à¤¥à¤ķ":5555,"Ġà¤¨à¤ħ":5556,"Ġà¤¨à¤Ĺà¤£":5557,"à¤Łà¤°à¤¦":5558,"à¤Łà¤ªà¤Łà¤ķ":5559,"à¤ıà¤ĩà¤®":5560,"Ġà¤ħà¤«à¤²":5561,"Ġà¤ħà¤ľà¤®":5562,"Ġà¤¬à¤Łà¤²à¤°à¤²":5563,"Ġà¤¹à¤²à¤¬":5564,"Ġà¤¹à¤¬à¤²":5565,"Ġà¤®à¤°à¤£":5566,"Ġà¤®à¤ľà¤µ":5567,"à¤ľà¤ªà¤Ľ":5568,"à¤ľà¤°à¤¸":5569,"à¤ľà¤²à¤²":5570,"à¤ľà¤Ńà¤¨":5571,"à¤ľà¤®à¤²":5572,"Ġà¤µà¤§":5573,"à¤¬à¤Ĺà¤°":5574,"à¤·à¤Ĺ":5575,"à¤·à¤°à¤²":5576,"à¤§à¤ľà¤¨":5577,"à¤§à¤°à¤£à¤²":5578,"à¤§à¤Ĺà¤¯":5579,"Ġà¤Ľà¤¹":5580,"Ġà¤Ľà¤°à¤ªà¤¸":5581,"Ġà¤¦à¤²à¤¬à¤¹":5582,"à¤¥à¤¸à¤®":5583,"à¤¥à¤®à¤²":5584,"à¤¥à¤²à¤Ĺ":5585,"Ġà¤Ĩà¤£":5586,"Ġà¤Ĩà¤¡":5587,"Ġà¤ľà¤²à¤ª":5588,"à¤£à¤¯à¤ķà¤°":5589,"à¤£à¤ªà¤¶":5590,"à¤ļà¤ķà¤¨":5591,"à¤ļà¤ĺà¤°à¤®":5592,"à¤Īà¤¯":5593,"à¤Īà¤¤à¤°":5594,"à¤Īà¤Ńà¤¨":5595,"à¤Īà¤®à¤¤":5596,"à¤Īà¤¸à¤¹":5597,"à¤Īà¤ľà¤¹":5598,"à¤¡à¤ľà¤¸":5599,"à¤¡à¤¸à¤¹":5600,"à¤Ńà¤ª":5601,"à¤Ńà¤¹":5602,"à¤Ńà¤ľ":5603,"à¤īà¤ľà¤²":5604,"à¤ĸà¤°à¤²":5605,"à¤ĩà¤ªà¤®":5606,"à¤ĩà¤ķà¤ķ":5607,"à¤ĩà¤Ńà¤ķ":5608,"à¤ĩà¤Ĺà¤°à¤²":5609,"à¤«à¤¯":5610,"à¤«à¤µ":5611,"Ġà¤¥à¤°à¤ķ":5612,"Ġà¤¥à¤ªà¤ķ":5613,"à¤īà¤¨à¤¦":5614,"à¥Įà¥Ī":5615,"à¥Įà¥Īà¤ģ":5616,"Ġà¤ıà¤¤":5617,"Ġà¤ıà¤®à¤ķ":5618,"Ġà¤ıà¤²à¤¬":5619,"Ġà¤ıà¤Łà¤²":5620,"à¤¯à¤ķà¤Ĺ":5621,"Ġà¤¶à¤¤à¤ķ":5622,"Ġà¤ªà¤°à¤µ":5623,"à¤łà¤¨à¤²":5624,"à¤łà¤¨à¤®":5625,"à¤łà¤¤à¤®":5626,"à¤łà¤²à¤Ĺ":5627,"à¤łà¤¸à¤¹":5628,"Ġà¤«à¤¨à¤ª":5629,"à¤ľà¤¨à¤¹à¤°":5630,"à¤ľà¤¨à¤¸à¤®":5631,"à¥įà¥¤âĢĺ":5632,"à¥¦à¥Ńà¥ª":5633,"à¥¦à¥Ńà¥«":5634,"à¤ĺà¤¤":5635,"à¤ĺà¤¸à¤®":5636,"Ġà¤ľà¤¨à¤Ń":5637,"Ġà¤ľà¤¨à¤ªà¤ķ":5638,"à¤¯à¤®à¤¨à¤®":5639,"à¤°à¤¹à¤¸à¤®":5640,"Ġà¤®à¤¹à¤ľ":5641,"Ġà¤®à¤¹à¤²à¤ķ":5642,"Ġà¤ıà¤ķà¤¬":5643,"à¤¯à¤¸à¤¸à¤®":5644,"à¤¯à¤¸à¤¨à¤²":5645,"à¤Ļà¤¤":5646,"à¤Ļà¤ĺ":5647,"Ġà¤ĺà¤Łà¤ķà¤ķ":5648,"à¤¯à¤¤à¤¹à¤ķ":5649,"à¤¯à¤¤à¤µà¤¶":5650,"à¤²à¤®à¤£":5651,"à¤¤à¤°à¤ľ":5652,"à¤¤à¤°à¤ªà¤Ľ":5653,"à¤¤à¤°à¤ħà¤ĺ":5654,"Ġà¤¡à¤¸":5655,"à¤Ŀà¤°":5656,"à¤Ŀà¤Ĺà¤¡":5657,"Ġà¤īà¤ªà¤ľà¤ķ":5658,"Ġà¤īà¤ªà¤ķà¤°à¤£à¤®":5659,"à¤°à¤¦à¤®":5660,"à¤°à¤¦à¤¹":5661,"à¤ĩà¤¨à¤«":5662,"Ġà¤ķà¤®à¤ķ":5663,"Ġà¤ķà¤®à¤Ł":5664,"à¤ħà¤°à¤ķ":5665,"à¤ħà¤°à¤¬":5666,"à¤ķà¤®à¤®":5667,"Ġà¤ĩà¤¦":5668,"Ġà¤ĩà¤²à¤®":5669,"à¥ĩ,'":5670,"à¥ĩ,âĢľ":5671,"Ġà¤¸à¤¬à¤¸":5672,"à¤°à¤µà¤¶":5673,"à¤°à¤µà¤®à¤¯":5674,"à¤Łà¤ķà¤¸":5675,"à¤Łà¤ķà¤¹à¤°":5676,"à¤·à¤£à¤ħà¤¨":5677,"à¤²à¤¬à¤¹à¤°":5678,"à¤¸à¤¨à¤°":5679,"à¤¸à¤¨à¤¹à¤°":5680,"à¤¸à¤¨à¤ªà¤Ľ":5681,"à¤Ńà¤¨à¤°":5682,"à¤Ĩà¤°à¤®":5683,"à¤Ĩà¤¨à¤¨":5684,"à¤Ĩà¤ĩà¤µ":5685,"Ġà¤Ĩà¤°à¤¨à¤²":5686,"Ġà¤Ĩà¤°à¤ıà¤¸":5687,"à¤ļà¤¨à¤¤":5688,"à¤µà¤ķà¤ªà¤ķ":5689,"à¤Łà¤¨à¤¸":5690,"à¤ķà¤°à¤ª":5691,"à¤ķà¤°à¤¶":5692,"Ġ?,":5693,"à¤¤à¤®à¤¨":5694,"à¥Ńà¥Ń":5695,"Ġà¤ĵà¤ĩà¤°":5696,"Ġà¤ĵà¤®à¤¬à¤¹":5697,"Ġà¤ĵà¤¨à¤¸à¤°":5698,"Ġà¤ħà¤®à¤°à¤¸":5699,"Ġà¤ħà¤®à¤°à¤¬à¤¹":5700,"à¤¦à¤¨à¤ªà¤Ľ":5701,"à¥¬à¥Ń":5702,"à¥¬à¥¬":5703,"à¤¸à¤¦à¤µ":5704,"à¤ķà¤°à¤£à¤µ":5705,"à¤²à¤¯à¤ľà¤¸":5706,"à¤ľà¤ķà¤¸":5707,"Ġà¤ļà¤²à¤¨à¤ķ":5708,"à¥©à¥©à¥¦":5709,"à¤ľà¤¸à¤¹":5710,"Ġà¤ªà¤¦à¤§":5711,"Ġà¤ħà¤¬à¤¸":5712,"à¤Łà¤®à¤¬":5713,"Ġà¤ķà¤²à¤¸":5714,"Ġà¤ķà¤²à¤¹à¤ķ":5715,"à¤¶à¤¨à¤ªà¤¶":5716,"Ġà¤ĩà¤¨à¤¬":5717,"à¤ĵà¤Ń":5718,"Ġà¤ıà¤®à¤¡":5719,"Ġà¤ıà¤®à¤ĵ":5720,"Ġà¤ıà¤®à¤¡à¤¬":5721,"à¤Ĺà¤®à¤§":5722,"à¤Ĺà¤®à¤¨à¤ķà¤°":5723,"à¥®à¥«":5724,"à¥¯à¥§":5725,"à¥¯à¥ª":5726,"à¤ķà¤¨à¤¸à¤®":5727,"Ġà¤ħà¤¦à¤®":5728,"à¤°à¤¨à¤Ĺà¤°à¤®":5729,"à¤²à¤¤à¤Ń":5730,"à¤²à¤¤à¤ªà¤¤":5731,"à¤£à¤¯à¤¸à¤®":5732,"à¤£à¤¯à¤ªà¤Ľ":5733,"Ġà¤Ńà¤°à¤¥":5734,"Ġà¤ħà¤²à¤Ĩà¤īà¤Ł":5735,"à¤¦à¤ķà¤¸":5736,"Ġà¤ıà¤¸à¤ıà¤®":5737,"Ġà¤®à¤¤à¤ª":5738,"Ġà¤¸à¤¡à¤ķà¤¸à¤®":5739,"à¤ľà¤²à¤¸":5740,"Ġà¤Ĩà¤¶à¤¯à¤ķ":5741,"à¤ıà¤¸à¤ıà¤¸à¤ª":5742,"Ġà¤¨à¤°à¤Ĺ":5743,"à¤ķà¤¸à¤ª":5744,"à¤µà¤¯à¤¨à¤¤à¤°":5745,"Ġà¤«à¤°à¤ķà¤®":5746,"Ġà¤¬à¤ļà¤¤à¤ķ":5747,"Ġà¤¹à¤¤à¤ªà¤¤":5748,"Ġà¤Ĺà¤£à¤ªà¤¤":5749,"à¤ľà¤¯à¤ªà¤Ľ":5750,"à¤¯à¤¯à¤°à¤¤":5751,"Ġà¤ıà¤¨à¤Ĩà¤°à¤ıà¤¨à¤ıà¤®":5752,"Ġà¥§à¥¬à¥©":5753,"Ġà¥§à¥ªà¥©":5754,"Ġà¥§à¥ªà¥®":5755,"ĠĠĠĠĠĠĊ":5756,"à¤¤à¤°à¤ķà¤ķ":5757,"à¤ĩà¤ľà¤¹":5758,"à¤ĩà¤ľà¤°à¤ķ":5759,"Ġà¥§à¥©à¥«":5760,"Ġà¥§à¥©à¥¨":5761,"Ġà¤¹à¤²à¤ļà¤²":5762,"à¤Ķà¤¦":5763,"Ġà¤¦à¤¶à¤ķà¤Ń":5764,"à¥ĭ?âĢĻ":5765,"Ġà¤Ńà¤µà¤¨à¤¸":5766,"à¤®à¤£à¤ª":5767,"Ġà¤µà¤¨à¤ľ":5768,"Ġà¥¦à¥«à¥¬":5769,"Ġà¤¨à¤¬à¤¤":5770,"à¥¨à¥¦à¥§à¥¯":5771,"Ġà¥¨à¥®à¥®":5772,"à¤ªà¤Łà¤²à¤®":5773,"Ġà¤ĭà¤£à¤¬":5774,"Ġà¤Īà¤ķ":5775,"Ġà¤¦à¤®à¤ķà¤²":5776,"à¤ıà¤«à¤ľ":5777,"à¤°à¤¥à¤®à¤¤":5778,"à¤µà¤¬à¤ľ":5779,"Ġà¤ľà¤¨à¤®à¤¤à¤²":5780,"à¤ĩà¤ķà¤²à¤²":5781,"à¤Ĩà¤Īà¤¸":5782,"à¤¨à¤¹à¤ľ":5783,"Ġà¥§à¥¯à¥¯à¥§":5784,"Ġà¤ıà¤«à¤¡":5785,"Ġà¤ıà¤«à¤Ĩà¤Ī":5786,"à¥įâĢĵâĢĺ":5787,"Ġà¤¡à¤²à¤°à¤²":5788,"à¤®à¤¶à¤°à¤£à¤²":5789,"Ġà¤Ĺà¤ľà¤¬à¤ķ":5790,"Ġà¤¡à¤Łà¤ķà¤®à¤ķ":5791,"Ġà¤¸à¤Łà¤¹":5792,"à¤ıà¤ļà¤ª":5793,"à¤¸à¤°à¤®à¤§":5794,"à¤Ĩà¤ĩà¤ıà¤¨":5795,"à¤Ĺà¤Ńà¤Ļ":5796,"Ġà¤²à¤¹à¤¡":5797,"Ġà¤²à¤¹à¤°à¤ķ":5798,"à¤²à¤ļà¤²à¤¨":5799,"Ġà¤¦à¤®à¤ķà¤ķ":5800,"Ġà¥§à¥¯à¥¬à¥«":5801,"Ġà¤¯à¤®à¤¨à¤ķ":5802,"à¤Ĺà¤ļà¤²à¤¨":5803,"Ġà¤ľà¤¯à¤¬à¤¹":5804,"à¤¾à¥Īà¤ģ,":5805,"Ġà¤°à¤¹à¤°à¤²":5806,"Ġà¥§à¥¯à¥Ńà¥®":5807,"à¤Ĳà¤¨":5808,"à¥įâĢºà¥Ģ":5809,"à¤¤à¤ľà¤¨à¤¹à¤°":5810,"à¤ħà¤µà¤¤à¤°à¤£":5811,"Ġà¤¶à¤°à¤¦à¤¸":5812,"Ġà¤®à¤°à¤¹à¤Ł":5813,"Ġà¤ıà¤ķà¤Ľà¤¤":5814,"à¤°à¤Ĩà¤ĸ":5815,"Ġà¤Ŀà¤ķà¤Ŀà¤ķ":5816,"à¤°à¤®à¤Ńà¤Ļ":5817,"Ġà¤§à¤°à¤ªà¤ķà¤¡":5818,"!âĢĻ":5819,")-":5820,"00":5821,"com":5822,"of":5823,"re":5824,"ww":5825,"Â¬":5826,"Ġa":5827,"Ġt":5828,"Ġ..":5829,"Ġof":5830,"ĢŃ":5831,"à¥ī":5832,"à¤°à¤¯à¤®":5833,"à¤°à¤Ŀ":5834,"à¤°à¤¶à¤ķ":5835,"à¤°à¤ľà¤ķ":5836,"à¤¨à¤¥à¤²":5837,"à¤¿(":5838,"à¤¿à¤¿":5839,"à¤¿à¥ĥ":5840,"à¤¿...":5841,"à¤ķà¤ĸ":5842,"à¤ķà¤ľà¤¨":5843,"à¤ķà¤ŀ":5844,"à¤ķà¤·à¤£":5845,"à¥ĩ!":5846,"à¥ĩ...":5847,"à¥ĭ),":5848,"à¤²à¤ľà¤¨":5849,"à¤²à¤¢":5850,"à¤²à¤ħà¤ĺ":5851,"à¤®à¤·":5852,"à¤®à¤ıà¤ķ":5853,"à¤®à¤Ľ":5854,"à¤®à¤°à¤¹":5855,"à¤®à¤Ļ":5856,"à¤®à¤¶à¤ķ":5857,"à¤®à¤Łà¤¨":5858,"à¤®à¤¸à¤°":5859,"à¤¤à¤Ł":5860,"à¤¤à¤²à¤²":5861,"à¤¯à¤°à¤¬":5862,"à¤¯à¤£à¤®":5863,"à¥ģà¥ĥ":5864,"à¥ĢâĢĿ":5865,"Ġà¤¸à¤¨à¤ķ":5866,"Ġà¤¸à¤ªà¤°":5867,"Ġà¤¸à¤Ĺà¤°":5868,"Ġà¤ªà¤¥à¤°":5869,"à¤¦à¤«":5870,"à¤¦à¤¯à¤ķ":5871,"à¤¦à¤¨à¤¨":5872,"à¤¦à¤Ńà¤®":5873,"à¤¹à¤ļ":5874,"à¤¹à¤ľà¤¸":5875,"à¤¹à¤²à¤Ĺ":5876,"à¤¹à¤¸à¤ļ":5877,"à¤¹à¤µà¤°à¤®":5878,"à¤µà¤ªà¤°":5879,"à¤µà¤ªà¤¤":5880,"à¤µà¤Łà¤°":5881,"à¤µà¤ľà¤¸":5882,"à¤µà¤¶à¤¤":5883,"à¤µà¤īà¤ª":5884,"Ġà¤ķà¤£à¤²":5885,"Ġà¤ķà¤Ńà¤°à¤ķ":5886,"Ġà¤Ĺà¤ľà¤¬":5887,"Ġà¤Ĺà¤ĩà¤¹":5888,"à¤Ĺà¤Ĺà¤°":5889,"Ġà¤°à¤ľà¤ķà¤²":5890,"Ġà¤¨à¤µà¤¸":5891,"Ġà¤¨à¤¡à¤°":5892,"à¤Łà¤Ĺà¤°":5893,"à¤Łà¤Ĺà¤¤":5894,"à¤Łà¤®à¤¨":5895,"à¤ıà¤¥":5896,"à¤ıà¤ļà¤ķ":5897,"Ġà¤Ńà¤¯à¤ķ":5898,"Ġà¤Ńà¤ĩà¤¯":5899,"Ġà¤¬à¤ĺ":5900,"Ġà¤¬à¤®à¤ķ":5901,"Ġà¤¬à¤¥à¤¨":5902,"Ġà¤¬à¤²à¤¬à¤¹":5903,"Ġà¤¹à¤¡à¤ª":5904,"Ġà¤®à¤·":5905,"Ġà¤®à¤Ń":5906,"Ġà¤®à¤ľà¤¸":5907,"Ġà¤®à¤¤à¤µ":5908,"à¤ľà¤¯à¤®":5909,"à¤ľà¤²à¤ķ":5910,"à¤ľà¤²à¤®":5911,"Ġà¤µà¤«":5912,"Ġà¤µà¤¥à¤¨":5913,"à¤¬à¤µ":5914,"à¤¬à¤Ń":5915,"à¤¬à¤°à¤£":5916,"à¤¬à¤ľà¤¨":5917,"à¤¬à¤¤à¤¸":5918,"à¤·à¤°à¤¹":5919,"à¤·à¤®à¤ķ":5920,"à¤§à¤ħà¤¨":5921,"à¤§à¤Ńà¤°":5922,"à¤§à¤¸à¤°à¤ķ":5923,"à¤§à¤¨à¤¸à¤¹":5924,"Ġà¤¤à¤¡à¤ķ":5925,"Ġà¤¤à¤®à¤²":5926,"Ġà¤¤à¤¬à¤®":5927,"Ġà¤¦à¤¹à¤¨":5928,"à¤¥à¤ķà¤ķ":5929,"à¤¶à¤¯à¤¤":5930,"à¤¶à¤¸à¤¹":5931,"Ġà¤Ĩà¤¸à¤¨à¤®":5932,"Ġà¤Ĩà¤Ĺà¤®à¤¨à¤®":5933,"Ġà¤ľà¤ļ":5934,"Ġà¤ľà¤µà¤°":5935,"Ġà¤ľà¤®à¤²":5936,"à¤Ľà¤¸":5937,"à¤£à¤ĺ":5938,"à¤£à¤ħà¤¨":5939,"à¤£à¤²à¤Ĺ":5940,"Ġà¤²à¤¯à¤°":5941,"à¤ļà¤°à¤£":5942,"à¤ļà¤¯à¤®":5943,"à¤ļà¤ķà¤²":5944,"à¤ļà¤°à¤¬":5945,"à¤ļà¤ķà¤¤":5946,"à¤ļà¤²à¤¨à¤ķ":5947,"à¤Īà¤µ":5948,"à¤Īà¤Ĺ":5949,"à¤Īà¤«":5950,"à¤Īà¤¨à¤ķ":5951,"à¤Īà¤²à¤®":5952,"à¤Īà¤ķà¤°":5953,"à¤Īà¤Łà¤®":5954,"Ġà¤īà¤¬à¤°":5955,"à¤¡à¤¶":5956,"à¤¡à¤ļ":5957,"à¤¡à¤°à¤¬":5958,"à¤¡à¤¬à¤°":5959,"à¤Ńà¤°à¤£":5960,"à¤Ńà¤µà¤¸":5961,"à¤Ńà¤¡à¤¹à¤²à¤®":5962,"à¤īà¤ªà¤¨":5963,"à¤īà¤ªà¤¤":5964,"à¤īà¤§à¤¨":5965,"à¤īà¤¦à¤²":5966,"à¤ĸà¤µ":5967,"à¤ĸà¤Ĺà¤¨":5968,"âĢ©":5969,"Ġà¤¸à¤®à¤¦":5970,"Ġà¤¸à¤®à¤¯à¤¤":5971,"à¤ĩà¤ľà¤ķ":5972,"à¤ĩà¤®à¤²":5973,"à¤ĩà¤ıà¤²":5974,"à¤ĩà¤ıà¤ªà¤¨":5975,"à¤°à¤®à¤¤":5976,"Ġà¤ļà¤ĸ":5977,"à¤«à¤ľ":5978,"à¤«à¤°à¤ª":5979,"Ġà¤¥à¤Ł":5980,"à¤īà¤¨à¤¸":5981,"à¥Į?":5982,"à¥Į',":5983,"à¥Įà¥¤'":5984,"Ġà¤ıà¤Łà¤ķ":5985,"Ġà¤ıà¤ıà¤¸":5986,"Ġà¤ıà¤ħà¤°":5987,"Ġà¤ıà¤Ĩà¤ĩà¤ľ":5988,"Ġà¤ıà¤ıà¤¨à¤¸":5989,"à¤¯à¤ķà¤¥":5990,"à¤°à¤¤à¤¸à¤®à¤ķ":5991,"Ġà¤ĸà¤Ĺà¤°":5992,"Ġà¤ĸà¤²à¤¬à¤²":5993,"Ġà¤¶à¤µà¤ķ":5994,"Ġà¤ħà¤¨à¤Ĺà¤¨":5995,"Ġà¤ªà¤°à¤²":5996,"à¤łà¤ķà¤¸":5997,"à¥ĥ.":5998,"à¤¸à¤ķà¤®":5999,"Ġà¤«à¤Ļ":6000,"à¤°à¤£à¤²à¤Ĺ":6001,"à¤°à¤£à¤¸à¤¹":6002,"à¤ľà¤¨à¤¦":6003,"à¤¸à¤®à¤Ĺ":6004,"à¤¨à¤®à¤²":6005,"âĢĻâĢĵ":6006,"à¥¦à¥¯":6007,"à¤ĺà¤µ":6008,"à¤ĺà¤¹à¤°":6009,"à¤ĺà¤°à¤¤":6010,"Ġà¤¸à¤ķà¤²":6011,"Ġà¤ľà¤¨à¤¸à¤¨à¤²":6012,"Ġà¤°à¤¹à¤¨à¤ķ":6013,"Ġà¤¯à¤¸à¤ªà¤²":6014,"à¤°à¤¹à¤ª":6015,"à¤²à¤ķà¤¨":6016,"Ġà¤Łà¤ļà¤ķ":6017,"Ġà¤§à¤¨à¤²":6018,"Ġà¤§à¤µà¤¨":6019,"à¤Ļà¤«":6020,"Ġà¤ĺà¤¸":6021,"à¤ŀà¤¸à¤®":6022,"à¤ŀà¤¶à¤²":6023,"à¤¯à¤¤à¤µ":6024,"à¤²à¤®à¤ķ":6025,"à¤²à¤®à¤ĸ":6026,"à¤Ĺà¤°à¤ª":6027,"à¤¤à¤°à¤Ĺ":6028,"Ġà¤¡à¤Ĺ":6029,"Ġà¤¡à¤¢":6030,"Ġà¤¡à¤²à¤ķ":6031,"à¤Ŀà¤ªà¤Ł":6032,"Ġà¤īà¤ªà¤¬":6033,"Ġà¤īà¤ªà¤ľà¤®":6034,"Ġà¤īà¤ªà¤ķà¤°à¤£à¤²":6035,"à¥Įà¤Ĥ'":6036,"à¥Įà¤Ĥà¤ģ,":6037,"Ġà¤ķà¤®à¤²à¤°":6038,"Ġà¤ķà¤®à¤²à¤®à¤£":6039,"à¤ħà¤ľ":6040,"à¤ħà¤·":6041,"à¤ħà¤²à¤²":6042,"à¤ħà¤¸à¤¦à¤ķ":6043,"Ġà¤®à¤¨à¤¬à¤¹":6044,"Ġà¤ĩà¤¬":6045,"à¤¾à¤Ĥà¥Īà¥¤":6046,"à¤®à¤ķà¤°à¤£à¤ķ":6047,"à¤°à¤µà¤¬":6048,"à¤°à¤µà¤¬à¤¹":6049,"Ġà¤Ĩà¤¯à¤µ":6050,"à¤¤à¤ķà¤¤":6051,"à¤¤à¤ķà¤¬":6052,"à¤¤à¤ķà¤£":6053,"à¤Łà¤ķà¤ĺà¤°à¤®":6054,"Ġà¤ħà¤¸à¤Ń":6055,"Ġà¤ħà¤¸à¤¦à¤²":6056,"Ġà¤ħà¤¹à¤¸":6057,"à¤µà¤¨à¤ľ":6058,"à¤µà¤¨à¤ªà¤Ľ":6059,"à¤·à¤£à¤²à¤Ĺ":6060,"à¤·à¤£à¤Ńà¤°à¤®":6061,"à¤¸à¤¨à¤Ń":6062,"à¤¤à¤¨à¤§":6063,"à¤Ĩà¤Ļ":6064,"Ġà¤Ĩà¤°à¤ıà¤²à¤ķ":6065,"à¤°à¤¬à¤ķ":6066,"à¤Łà¤¨à¤¹à¤°":6067,"à¤²à¤¨à¤¤":6068,"à¤²à¤¨à¤ľ":6069,"à¥«à¥©":6070,"à¥ĭ,âĢĿ":6071,"Ġà¤īà¤¦à¤¯à¤²":6072,"Ġà¤Ĺà¤¤à¤¹à¤ª":6073,"à¤¸à¤°à¤ªà¤Ľ":6074,"à¥Įà¤ģ)":6075,"à¤®à¤¨à¤¶":6076,"Ġà¤ħà¤®à¤°à¤®":6077,"Ġà¤ħà¤®à¤°à¤ª":6078,"Ġà¤Ŀà¤Ŀà¤²":6079,"à¤¦à¤¨à¤¹":6080,"Ġà¤¨à¤¯à¤°":6081,"à¤¨à¤¸à¤ªà¤Łà¤²à¤®":6082,"à¤°à¤®à¤£à¤¸":6083,"à¤°à¤®à¤£à¤µ":6084,"à¤°à¤®à¤£à¤¹à¤°":6085,"à¤°à¤¶à¤®":6086,"à¤²à¤¯à¤Ńà¤¨":6087,"à¤§à¤¨à¤ª":6088,"Ġà¤ľà¤¸à¤ª":6089,"Ġà¤ľà¤¸à¤ľà¤¸à¤²":6090,"à¤Ĺà¤²à¤¤":6091,"à¤Ĺà¤²à¤¤à¤°":6092,"Ġà¤¨à¤Ńà¤ĩà¤¦":6093,"à¤®à¤²à¤¤":6094,"à¤®à¤²à¤Ł":6095,"Ġà¤Ńà¤¯à¤°à¤¹":6096,"à¤Łà¤®à¤¯":6097,"à¤µà¤®à¤£":6098,"à¤¶à¤¨à¤°":6099,"Ġà¤Ĩà¤ĩà¤¯":6100,"Ġà¤Ĩà¤ĩà¤ĩà¤Ī":6101,"Ġà¤¦à¤°à¤ĸ":6102,"Ġà¤ħà¤µà¤¯à¤µ":6103,"à¤ĵà¤¨":6104,"à¤ĵà¤¤":6105,"Ġà¤¹à¤°à¤¸à¤®":6106,"Ġà¤Ķà¤ķ":6107,"Ġà¤Ķà¤¸à¤¬à¤°":6108,"à¤¹à¤¨à¤µ":6109,"Ġà¤ĺà¤°à¤ľà¤®":6110,"Ġà¤ĺà¤°à¤ĺà¤°":6111,"à¥®à¥§":6112,"à¥®à¥©":6113,"à¥®à¥®":6114,"Ġà¤ħà¤ªà¤¶à¤¬":6115,"à¤·à¤¯à¤¸à¤®":6116,"à¤Łà¤²à¤¸":6117,"Ġà¤ħà¤¦à¤ķ":6118,"Ġà¥§à¥¦à¥©":6119,"Ġà¤¸à¤¤à¤ª":6120,"à¤²à¤¤à¤¸à¤®à¤ķ":6121,"Ġà¤¨à¤®à¤°":6122,"Ġà¤Ĩà¤ķà¤·":6123,"à¤µà¤°à¤£à¤¬":6124,"à¤µà¤°à¤£à¤¹à¤°":6125,"à¤µà¤°à¤£à¤¸à¤®":6126,"Ġà¤ħà¤²à¤°":6127,"à¤¡à¤®à¤§":6128,"à¤¤à¤µà¤¨à¤²":6129,"à¤¤à¤µà¤°à¤²":6130,"à¤¦à¤ķà¤ª":6131,"Ġà¤ıà¤¸à¤Ī":6132,"Ġà¤ıà¤¸à¤ĵ":6133,"à¤Ĩà¤°à¤Ĩà¤°":6134,"Ġà¤Ĩà¤īà¤Ľ":6135,"à¤¯à¤ªà¤°à¤ķ":6136,"Ġà¤®à¤¤à¤¸":6137,"Ġà¤¸à¤¡à¤ķà¤¦":6138,"Ġà¤¸à¤¡à¤ķà¤Ńà¤¨":6139,"à¤ľà¤²à¤µ":6140,"à¤ıà¤¸à¤¡":6141,"à¤¸à¤¬à¤ķ":6142,"Ġà¥§à¥¯à¥¦":6143,"à¤°à¤£à¤®à¤§":6144,"à¤ķà¤ªà¤Ł":6145,"à¤ªà¤¦à¤¯":6146,"à¤°à¤ļà¤²à¤¨à¤²":6147,"Ġà¥§à¥«à¥©":6148,"Ġà¥§à¥¨à¥Ń":6149,"Ġà¥§à¥¨à¥ª":6150,"Ġà¥§à¥¨à¥¯":6151,"Ġà¥§à¥¨à¥¦à¥¦":6152,"à¤łà¤ķà¤ħà¤ĺ":6153,"à¤µà¤¯à¤¨à¤¬":6154,"Ġà¥¨à¥«à¥¬":6155,"Ġà¥¨à¥«à¥¬à¥¨":6156,"à¤¥à¤²à¤¦":6157,"à¤ĩà¤Łà¤¹à¤°":6158,"à¤ıà¤®à¤ľ":6159,"Ġà¤¸à¤ľà¤Ĺà¤¤":6160,"Ġà¥§à¥§à¥¨":6161,"à¥ģà¤Ĥà¤ģ":6162,"à¤¹à¤¤à¤¸":6163,"Ġà¤ķà¤ªà¤Ł":6164,"à¤·à¤§à¤°à¤¤":6165,"Ġà¤Ńà¤ıà¤¨à¤Ńà¤ıà¤ķ":6166,"à¤¯à¤Łà¤¨à¤¸":6167,"à¤®à¤Ĺà¤¨à¤²":6168,"Ġà¤ıà¤ªà¤¬":6169,"à¤¸à¤¨à¤²à¤Ĺ":6170,"Ġà¤ıà¤¨à¤Ĩà¤°à¤ıà¤¨à¤¹à¤°":6171,"Ġà¥§à¥ªà¥«":6172,"à¤ĩà¤¨à¤²à¤¸à¤®":6173,"à¤¨à¤¯à¤¨à¤²":6174,"Ġà¤Ĭà¤¨":6175,"à¤°à¤¸à¤®à¤£":6176,"Ġà¤Ĩà¤ļà¤°à¤£à¤²":6177,"Ġà¤Ĩà¤łà¤¬":6178,"à¤¯à¤£à¤ĺ":6179,"à¤¯à¤£à¤¬à¤¹":6180,"Ġà¤ĭà¤¦":6181,"à¤Ĺà¤®à¤¨à¤¸à¤®":6182,"Ġà¥¨à¥§à¥¦":6183,"Ġà¥¨à¥§à¥©":6184,"Ġà¤ľà¤¬à¤ľà¤²":6185,"Ġà¤®à¤¦à¤¤":6186,"Ġà¥§à¥Ńà¥«":6187,"à¤µà¤Łà¤°à¤²":6188,"à¤¸à¤¹à¤°à¤¹à¤°":6189,"Ġà¥¬à¥¦à¥§":6190,"à¤Ńà¤ķà¤°à¤ķ":6191,"Ġà¤Ńà¤µà¤¨à¤¹à¤°":6192,"Ġà¥¦à¥§à¥«":6193,"Ġà¥¦à¥«à¥§":6194,"Ġà¤ķà¤µà¤ļ":6195,"à¤īà¤¦à¤¯à¤ª":6196,"Ġà¤¨à¤Ńà¤Īà¤ķà¤¨":6197,"Ġà¤¤à¤²à¤¦":6198,"à¤¾)-":6199,"à¥¨à¥¦à¥¬à¥¨":6200,"à¤¸à¤°à¤ķà¤°":6201,"à¤ªà¤Łà¤¨à¤²":6202,"à¤¯à¤Łà¤¨à¤®à¤¨":6203,"Ġà¤Ĩà¤ıà¤ľà¤¸":6204,"Ġà¤ľà¤²à¤ľà¤²":6205,"Ġà¤ĭà¤£à¤²":6206,"Ġà¥¨à¥Ńà¥«":6207,"Ġà¤Īà¤®":6208,"Ġà¤Īà¤Ļà¤ĺ":6209,"Ġà¤¨à¤Ĩà¤¤":6210,"Ġà¤¨à¤Ĩà¤Ī":6211,"à¤¤à¤¹à¤¸à¤®":6212,"à¤Ĭà¤ª":6213,"à¤ļà¤¸à¤¯":6214,"Ġà¥¨à¥¦à¥ªà¥ª":6215,"Ġà¥©à¥«à¥¦":6216,"Ġà¤¦à¤¸à¤Ĺà¤ľ":6217,"Ġà¤ĵà¤Ńà¤°à¤¸":6218,"à¤ıà¤«à¤ı":6219,"Ġà¤Ĩà¤Īà¤Ł":6220,"Ġà¤Ĩà¤Īà¤¡":6221,"Ġà¤ħà¤¸à¤®à¤¯à¤®":6222,"à¤ģà¥¤'":6223,"Ġà¥Ńà¥«à¥¦":6224,"à¥ĩ?âĢĻ":6225,"Ġà¥ªà¥«à¥¦":6226,"Ġà¤ıà¤ķà¤²à¤¤à¤°":6227,"Ġà¤¨à¤°à¤¹à¤²":6228,"à¤ĩà¤¬à¤°à¤®":6229,"à¤Ĩà¤Īà¤Ł":6230,"à¤Ĩà¤Īà¤Ń":6231,"Ġà¤ħà¤²à¤Ĺà¤ħà¤²à¤Ĺ":6232,"à¤µà¤°à¤²à¤Ĺ":6233,"Ġà¥«à¥«à¥¦":6234,"Ġà¤Ńà¤°à¤®à¤Ĺ":6235,"à¤¥à¤Ĺà¤¨à¤ķ":6236,"Ġà¥¦à¥Ńà¥¦":6237,"Ġà¤Ńà¤°à¤¤à¤¬à¤¹":6238,"Ġà¥¨à¥¦à¥©à¥¨":6239,"Ġà¥§à¥¯à¥«à¥¨":6240,"Ġà¤ħà¤°à¤¬à¤ªà¤¤":6241,"à¤ļà¤¨à¤²à¤Ĺà¤¤":6242,"à¤Ĩà¤ĩà¤¤à¤¬":6243,"à¤Ĩà¤ĩà¤ıà¤«":6244,"Â«à¥ĭ":6245,"Ġà¥§à¥¯à¥®à¥¬":6246,"Ġà¥§à¥¯à¥®à¥®":6247,"Ġà¤ıà¤¯à¤°à¤«":6248,"Ġà¤Ĩà¤ĩà¤ıà¤®à¤Īà¤²":6249,"Ġà¥¦à¥¬à¥«":6250,"Ġà¤ıà¤ļà¤Ĩà¤ĩà¤Ń":6251,"Ġà¤ıà¤ļà¤Ĩà¤Īà¤Ń":6252,"Ġà¥§à¥¯à¥Ńà¥©":6253,"Ġà¤¨à¤Ńà¤ĩà¤ķà¤¨":6254,"Ġà¤Ĩà¤¯à¤ķà¤°à¤ķ":6255,"ĠïĢŃ":6256,"à¤ľà¤Ĺà¤¢à¤®":6257,"Ġà¤ıà¤®à¤ıà¤¡à¤¬":6258,"à¤Ĩà¤īà¤Łà¤ķ":6259,"Ġà¤ħà¤®à¤¨à¤ļ":6260,"Ġà¤²à¤ļà¤ķà¤¦":6261,"ass":6262,"Ġthe":6263,"Ġà¤¸à¤¤à¤²à¤ľ":6264,"11":6265,"23":6266,"44":6267,"?'":6268,"?âĢĿ":6269,"ad":6270,"ma":6271,"nep":6272,"op":6273,"ÃĪ":6274,"Ġ9":6275,"ĠT":6276,"Ġh":6277,"à¤¾à¥Ģ":6278,"à¤¾âĢĺ":6279,"à¥į/":6280,"à¥į:":6281,"à¥įà¤ģ":6282,"à¥įà¤¾à¤¾":6283,"à¤°à¤ł":6284,"à¤°à¤ªà¤¨":6285,"à¤¨à¤ıà¤ķ":6286,"à¤¨à¤°à¤¹":6287,"à¤¨à¤Ĺà¤¢":6288,"à¤¿à¥¤âĢĻ":6289,"à¤ķà¤¢":6290,"à¤ķà¤ķà¤®":6291,"à¤ķà¤¸à¤Ń":6292,"à¤ķà¤·à¤°":6293,"à¤ķà¤¸à¤®à¤ķ":6294,"à¤ķà¤¨à¤¸à¤¹":6295,"à¥ĭà¥Ī":6296,"à¤²à¤ļà¤ķ":6297,"à¤²à¤ľà¤¯":6298,"à¤²à¤īà¤¦":6299,"à¤®à¤°à¤®":6300,"à¤®à¤¸à¤ķ":6301,"à¤®à¤°à¤¸":6302,"à¤®à¤Ńà¤ķ":6303,"à¤¤à¤§":6304,"à¤¤à¤µà¤°":6305,"à¤¤à¤Ĺà¤¤à¤ķ":6306,"à¤¤à¤¶à¤®à¤¶":6307,"à¤¯à¤ĸ":6308,"à¤¯à¤ŀ":6309,"à¤¯à¤¬à¤°":6310,"à¤¯à¤¬à¤²":6311,"à¤¯à¤ľà¤¨à¤²":6312,"à¤¯à¤°à¤¬à¤ľ":6313,"à¥ģà¥ģà¤ģ":6314,"à¥ģ),":6315,"à¤¸à¤ł":6316,"à¤¸à¤«à¤²":6317,"à¤¸à¤¨à¤®à¤¨":6318,"à¤¸à¤ľà¤¨à¤ķ":6319,"à¤¸à¤¯à¤¯":6320,"à¤¸à¤ħà¤ª":6321,"à¤¸à¤°à¤²à¤Ĺ":6322,"Ġà¤¸à¤°à¤®":6323,"Ġà¤¸à¤°à¤¤":6324,"Ġà¤¸à¤ľà¤¨":6325,"Ġà¤ªà¤²à¤ķ":6326,"à¤ªà¤§":6327,"à¤ªà¤Ńà¤°":6328,"à¤ªà¤ħà¤ĺ":6329,"à¤ªà¤Łà¤²":6330,"à¤¦à¤¯à¤¸":6331,"à¤¦à¤°à¤¹à¤°":6332,"à¤¦à¤¬à¤²":6333,"à¤¦à¤Ļà¤µ":6334,"à¤¹à¤²à¤ķ":6335,"à¤µà¤£":6336,"à¤µà¤Ĺà¤°":6337,"à¤µà¤Ĺà¤¤":6338,"à¤µà¤Ĩ":6339,"à¤µà¤ªà¤ķ":6340,"à¤µà¤§à¤¨":6341,"à¤µà¤Łà¤®":6342,"à¤µà¤ħà¤ĺ":6343,"à¤µà¤Ĩà¤°":6344,"à¤µà¤¶à¤²":6345,"à¤µà¤īà¤ªà¤ķ":6346,"à¥¤)":6347,"Ġà¤ķà¤¸à¤®":6348,"Ġà¤ķà¤łà¤®":6349,"Ġà¤ķà¤ľà¤²":6350,"Ġà¤ķà¤Ńà¤°à¤²":6351,"Ġà¤Ĺà¤ĩ":6352,"Ġà¤Ĺà¤Ĺà¤¨à¤ķ":6353,"à¤Ĺà¤¹":6354,"à¤Ĺà¤Ĺ":6355,"à¤Ĺà¤¦à¤¨":6356,"à¤Ĺà¤µà¤¶":6357,"Ġà¤°à¤¸à¤®":6358,"Ġà¤°à¤¤à¤¨":6359,"Ġà¤°à¤®à¤¨":6360,"Ġà¤°à¤¨à¤µ":6361,"Ġà¤¨à¤§":6362,"Ġà¤¨à¤¡":6363,"Ġà¤¨à¤¢":6364,"Ġà¤¨à¤°à¤¦":6365,"Ġà¤¨à¤®à¤¨":6366,"Ġà¤¨à¤ħà¤Ł":6367,"à¤Łà¤Ĺà¤¢":6368,"à¤Łà¤Ńà¤Ł":6369,"à¤Łà¤Ĩà¤īà¤Łà¤ķ":6370,"à¤ıà¤²à¤¬":6371,"à¤ıà¤¬à¤²":6372,"à¤ıà¤ĩà¤ķ":6373,"à¤ıà¤¬à¤®":6374,"à¤ıà¤«à¤¬":6375,"à¤ıà¤ªà¤¶":6376,"Ġà¤Ńà¤®":6377,"Ġà¤Ńà¤¸":6378,"Ġà¤Ńà¤µà¤¸":6379,"Ġà¤Ńà¤²à¤¬":6380,"Ġà¤Ńà¤²à¤ª":6381,"Ġà¤ħà¤Łà¤²":6382,"Ġà¤¬à¤Ĺà¤°à¤®":6383,"Ġà¤¹à¤°à¤£":6384,"Ġà¤¹à¤°à¤Ń":6385,"Ġà¤¹à¤²à¤¸à¤®":6386,"Ġà¤®à¤²à¤¯":6387,"Ġà¤Ĺà¤°à¤®":6388,"à¤ľà¤°à¤¬":6389,"à¤ľà¤ķà¤°":6390,"à¤¬à¤Łà¤ķ":6391,"à¤¬à¤²à¤¬":6392,"à¤¬à¤²à¤Ĺ":6393,"à¤¬à¤¤à¤¬":6394,"à¤¬à¤°à¤¬à¤¹":6395,"à¤·à¤ĺ":6396,"à¤·à¤°à¤¬":6397,"à¤·à¤ļà¤¨":6398,"à¤·à¤ħà¤¨":6399,"à¤·à¤¯à¤µ":6400,"à¤·à¤¬à¤¹":6401,"à¤§à¤°à¤£":6402,"à¤§à¤Ļ":6403,"à¤§à¤¤à¤°":6404,"à¤§à¤ķà¤®":6405,"à¤§à¤ªà¤¶":6406,"Ġà¤Ľà¤¬":6407,"Ġà¤Ľà¤²à¤ķ":6408,"Ġà¤Ľà¤¤à¤®":6409,"Ġà¤Ľà¤°à¤ª":6410,"Ġà¤¤à¤Ļ":6411,"Ġà¤¤à¤Łà¤®":6412,"Ġà¤¤à¤ľà¤¬":6413,"Ġà¤¦à¤ľ":6414,"Ġà¤¦à¤Ļ":6415,"à¤ıà¤ķà¤²":6416,"à¤ıà¤ķà¤ľà¤¨":6417,"à¤¥à¤«":6418,"Ġà¥¤'":6419,"à¤¶à¤¸à¤ķ":6420,"à¤¶à¤ľà¤¸":6421,"à¤¶à¤°à¤ŀ":6422,"à¤Ĥà¥ĩà¥¤":6423,"Ġà¤Ĩà¤Ł":6424,"Ġà¤Ĩà¤¸à¤ķ":6425,"Ġà¤Ĩà¤®à¤ļ":6426,"Ġà¤Ĩà¤¹à¤¤":6427,"Ġà¤Ĩà¤°à¤£à¤²":6428,"Ġà¤Ĩà¤²à¤®à¤²":6429,"Ġà¤ľà¤Ĺà¤ķ":6430,"Ġà¤ľà¤¯à¤¸à¤µ":6431,"à¤Ľà¤ľà¤¸":6432,"à¤£à¤Ńà¤¨":6433,"à¤£à¤¸à¤Ń":6434,"à¤£à¤ľà¤Ļ":6435,"Ġà¤²à¤Ľ":6436,"Ġà¤²à¤ŀ":6437,"Ġà¤²à¤Łà¤°à¤®":6438,"à¤ļà¤ªà¤Ľ":6439,"à¤ļà¤¤à¤¨":6440,"à¤ļà¤ħà¤¨":6441,"à¤ļà¤°à¤¨":6442,"à¤ļà¤²à¤¨à¤®":6443,"à¤Īà¤¨à¤®":6444,"à¤Īà¤µà¤°":6445,"à¤Īà¤ľà¤°":6446,"à¥Ĥà¤ģ,":6447,"Ġà¤īà¤®à¤¨":6448,"à¤¡à¤ĺà¤Ł":6449,"à¤Ńà¤¹à¤°":6450,"à¤Ńà¤Ńà¤¨":6451,"à¤Ńà¤¡à¤ķ":6452,"à¤īà¤¹à¤°":6453,"à¤īà¤ł":6454,"à¤īà¤ªà¤®":6455,"à¤īà¤ļà¤ķ":6456,"à¤īà¤ªà¤¦":6457,"à¤īà¤ľà¤°":6458,"à¤īà¤ªà¤ļ":6459,"à¤īà¤¤à¤¸":6460,"à¤ĸà¤¤à¤ķ":6461,"à¤ĸà¤¤à¤²":6462,"à¤ĸà¤¬à¤¹":6463,"Ġà¤¯à¤®à¤²":6464,"âĢ²":6465,"Ġà¤¸à¤®à¤°à¤ķ":6466,"à¤ĩà¤ĩ":6467,"à¤ĩà¤¤à¤°":6468,"à¤ĩà¤¸à¤¨":6469,"à¤ĩà¤¤à¤²":6470,"à¤ĩà¤Ļà¤ķ":6471,"à¤ĩà¤¬à¤¹":6472,"à¤ĩà¤ħà¤²à¤°":6473,"à¤°à¤ķà¤¸":6474,"à¤°à¤ķà¤µ":6475,"Ġà¤ļà¤ŀ":6476,"Ġà¤ļà¤ķà¤¨":6477,"Ġà¤ļà¤²à¤®à¤²":6478,"à¤«à¤·":6479,"à¤«à¤¸à¤²":6480,"Ġà¤¥à¤®à¤®":6481,"à¥ĮâĢĮ":6482,"Ġà¤ıà¤¸à¤ķ":6483,"à¤¯à¤ķà¤¸à¤®":6484,"à¤°à¤¤à¤¸à¤®":6485,"à¤°à¤¤à¤µà¤°":6486,"à¤°à¤¤à¤ªà¤°à¤¸":6487,"Ġà¤¶à¤ª":6488,"Ġà¤¶à¤¯à¤¨":6489,"Ġà¤ħà¤¨à¤ªà¤¢":6490,"Ġà¤ªà¤°à¤ĸ":6491,"à¥ĥà¤¿":6492,"à¤¸à¤ķà¤°":6493,"Ġà¤«à¤ķà¤°":6494,"à¤°à¤£à¤µà¤¶":6495,"à¤°à¤£à¤¬à¤¸":6496,"à¤ªà¤°à¤ľ":6497,"à¤ªà¤°à¤¹à¤°":6498,"ĠâĢĿ":6499,"à¤ľà¤¨à¤¸à¤¤":6500,"à¤ľà¤¨à¤ĺà¤¨à¤¤":6501,"à¤¸à¤®à¤°":6502,"à¤¨à¤®à¤£":6503,"à¤ĺà¤ľà¤¸":6504,"Ġà¤¬à¤¨à¤¸":6505,"à¤¢à¤¦":6506,"à¥ĭà¥¤âĢĺ":6507,"Ġà¤ľà¤¨à¤ªà¤¦":6508,"Ġà¤ľà¤¨à¤īà¤¤":6509,"Ġà¤ľà¤¨à¤ĺà¤¨à¤¤":6510,"Ġà¤®à¤¹à¤ķ":6511,"à¤²à¤ķà¤¸à¤®":6512,"à¤²à¤ķà¤¸à¤¹":6513,"Ġà¤ıà¤ķà¤¥":6514,"Ġà¤ıà¤ķà¤¦à¤²":6515,"Ġà¤ıà¤ķà¤®à¤¹":6516,"Ġà¤ıà¤ķà¤¹à¤ľ":6517,"Ġà¤Łà¤¯":6518,"Ġà¤Łà¤ªà¤°":6519,"Ġà¤Łà¤ļà¤¸":6520,"à¤¯à¤¸à¤¦":6521,"Ġà¤§à¤Ļ":6522,"à¤Ļà¤Ĺà¤²":6523,"à¤Ļà¤ķà¤¨":6524,"à¤Ļà¤ĸà¤²":6525,"Ġà¤ĺà¤¤à¤²":6526,"à¤ŀà¤°":6527,"à¤ŀà¤¶à¤ķ":6528,"à¤ªà¤¨à¤°à¤¤":6529,"Ġà¤ħà¤§à¤ķ":6530,"Ġà¤ħà¤§à¤¬":6531,"à¤Ĺà¤°à¤¸à¤®":6532,"à¤¤à¤°à¤ħà¤¨":6533,"Ġà¤¤à¤°à¤ĸà¤°à¤®":6534,"Ġà¤¬à¤¢à¤¦":6535,"Ġà¤¬à¤¢à¤µ":6536,"à¤Ŀà¤¨à¤²":6537,"à¤Ŀà¤®à¤ķ":6538,"à¤Ŀà¤ªà¤ĸ":6539,"Ġà¤īà¤ªà¤Ĺ":6540,"Ġà¤īà¤ªà¤®à¤¨":6541,"Ġà¤ħà¤°à¤µ":6542,"à¤ĩà¤¨à¤µ":6543,"à¤ĩà¤¨à¤¸à¤ķ":6544,"à¤ĩà¤¨à¤¸à¤®":6545,"à¥ģà¤ģ',":6546,"Ġà¤ķà¤®à¤Ĺà¤°":6547,"Ġà¤ķà¤®à¤¨à¤µ":6548,"à¤ħà¤µà¤²":6549,"à¤ħà¤µà¤§":6550,"à¤ªà¤¤à¤®":6551,"à¤ªà¤®à¤¤":6552,"à¤ķà¤²à¤²":6553,"à¤ķà¤²à¤µ":6554,"Ġà¤®à¤¨à¤¬":6555,"Ġà¤®à¤¨à¤¨à¤ªà¤°":6556,"à¤ķà¤®à¤¸":6557,"Ġà¤ķà¤°à¤¸à¤®":6558,"Ġà¤ĩà¤¨à¤¸":6559,"Ġà¤ĩà¤¹à¤²":6560,"Ġà¤ĩà¤ıà¤¨à¤Ł":6561,"à¤¯à¤¨à¤¬":6562,"à¤¾à¤Ĥà¤ģ":6563,"Ġà¤Ńà¤ıà¤Ŀ":6564,"Ġà¤Ńà¤ıà¤Ńà¤¨":6565,"Ġà¤Ńà¤ıà¤¬à¤®":6566,"Ġà¤ªà¤¹à¤²à¤¬":6567,"à¤¤à¤ķà¤¸":6568,"à¤Łà¤ķà¤¹":6569,"Ġà¤ħà¤¸à¤°à¤¦":6570,"à¤¸à¤²à¤¦":6571,"à¤¸à¤²à¤ªà¤¨":6572,"à¤µà¤°à¤¸à¤®":6573,"à¤Ĺà¤¤à¤¬":6574,"à¤µà¤¨à¤ªà¤¦":6575,"à¤·à¤£à¤ķà¤°":6576,"à¤²à¤¬à¤µ":6577,"à¤Ĩà¤ĩà¤ıà¤ķ":6578,"Ġà¤Ĩà¤°à¤ĩà¤ķ":6579,"Ġà¤Ĩà¤°à¤ıà¤®à¤¬":6580,"Ġà¤¬à¤¸à¤¬":6581,"à¤ļà¤¨à¤Ńà¤¨":6582,"à¤Łà¤¨à¤°à¤¸":6583,"à¤Łà¤¨à¤¸à¤¤":6584,"à¤®à¤¤à¤¸à¤¹":6585,"Ġà¤īà¤¦à¤¹":6586,"Ġà¤īà¤¦à¤¯à¤ķ":6587,"à¤ķà¤°à¤Ń":6588,"à¤Łà¤°à¤¨à¤²":6589,"Ġà¤¸à¤°à¤ª":6590,"à¤¸à¤°à¤ª":6591,"à¥Įà¤ģâĢĿ,":6592,"à¤¤à¤®à¤¬":6593,"Ġà¤ĵà¤¦":6594,"Ġà¤ĵà¤Ĺ":6595,"Ġà¤ĵà¤łà¤®":6596,"Ġà¤ĵà¤®à¤¨":6597,"Ġà¤ĵà¤®à¤®":6598,"Ġà¤ĵà¤ĸà¤°":6599,"Ġà¤Ŀà¤ªà¤Ł":6600,"Ġà¤Ŀà¤®à¤Ŀ":6601,"à¥Īà¤Ĥà¤Ĥ":6602,"à¤¦à¤¨à¤ª":6603,"à¤·à¤ķà¤¸":6604,"à¤·à¤ķà¤¸à¤®":6605,"Ġà¤¨à¤Ĺà¤°à¤Ń":6606,"à¤¨à¤¸à¤¬":6607,"à¤°à¤®à¤£à¤¸à¤®":6608,"Ġà¤¸à¤¯à¤µà¤Ł":6609,"à¤¤à¤²à¤¹à¤°":6610,"à¤ķà¤°à¤£à¤²à¤Ĺ":6611,"Ġà¤¸à¤¦à¤Ń":6612,"à¤²à¤¯à¤¸à¤®à¤ķ":6613,"à¤§à¤¨à¤¦":6614,"à¥©à¥¨à¥¦":6615,"Ġà¤¨à¤Ńà¤°":6616,"Ġà¤¨à¤Ńà¤¤":6617,"Ġà¤ħà¤¬à¤²":6618,"Ġà¤ħà¤¬à¤¸à¤°":6619,"Ġà¤ªà¤¤à¤¨à¤ķ":6620,"Ġà¤ªà¤¤à¤ŀ":6621,"à¤µà¤®à¤§":6622,"Ġà¤ķà¤²à¤°à¤ķ":6623,"Ġà¤ķà¤²à¤¹à¤¬":6624,"à¤¶à¤¨à¤¦":6625,"Ġà¤Ĩà¤ĩà¤ıà¤«à¤¸":6626,"Ġà¤Ĩà¤ĩà¤ıà¤«à¤ľ":6627,"Ġà¤¦à¤°à¤ª":6628,"à¤ĵà¤¢":6629,"à¤ĵà¤Ĩà¤°":6630,"Ġà¤¹à¤°à¤ªà¤²":6631,"Ġà¤¹à¤°à¤«à¤¹à¤°":6632,"Ġà¤Ķà¤·à¤¤":6633,"Ġà¤ıà¤®à¤Ĩà¤°à¤Ĩà¤Ī":6634,"à¤Ĺà¤®à¤°":6635,"Ġà¤¦à¤²à¤¸à¤¹":6636,"Ġà¤ĺà¤°à¤¨":6637,"à¥®à¥¬":6638,"à¥®à¥ª":6639,"Ġà¤¬à¤¹à¤ķ":6640,"à¤·à¤¯à¤Ńà¤¨":6641,"Ġà¤¬à¤²à¤°à¤¸":6642,"Ġà¤¬à¤²à¤Ńà¤¦":6643,"à¥¯à¥¬":6644,"Ġà¤¥à¤ªà¤ĺà¤Ł":6645,"Ġà¥§à¥¦à¥«":6646,"Ġà¤¨à¤¹à¤°à¤ķ":6647,"à¤°à¤¨à¤ľ":6648,"Ġà¤¸à¤¤à¤¹à¤¦":6649,"Ġà¤ıà¤¨à¤Ł":6650,"Ġà¤ıà¤¨à¤ıà¤®":6651,"à¤ªà¤²à¤Ĺà¤¤":6652,"Ġà¤Ĳà¤°à¤²":6653,"Ġà¤Ĳà¤¨à¤µ":6654,"Ġà¤Ĺà¤łà¤¨à¤²":6655,"à¤¹à¤ķà¤¬":6656,"à¤µà¤°à¤£à¤¸":6657,"Ġà¤°à¤ķà¤®à¤¸à¤¹":6658,"à¤¸à¤¹à¤ľ":6659,"à¤¸à¤¹à¤°à¤ķ":6660,"à¤¸à¤¹à¤®à¤¤":6661,"Ġà¤ħà¤«à¤¸":6662,"Ġà¤ħà¤«à¤°à¤®":6663,"à¤ĩà¤²à¤°":6664,"à¤ĩà¤²à¤Łà¤ķ":6665,"à¥įâĢĶ":6666,"à¤ľà¤Ĺà¤¦":6667,"à¤ľà¤Ĺà¤ľ":6668,"à¤¤à¤°à¤£à¤¸":6669,"Ġà¤ıà¤¸à¤ı":6670,"Ġà¤ıà¤¸à¤ľ":6671,"à¤Ĩà¤°à¤ıà¤²":6672,"à¤Ĩà¤°à¤Ĩà¤Īà¤ķ":6673,"Ġà¤®à¤¤à¤¬":6674,"Ġà¤®à¤¤à¤ªà¤°":6675,"Ġà¤Ĩà¤¶à¤²":6676,"à¤ıà¤¸à¤ıà¤ļ":6677,"à¤²à¤¸à¤ĸ":6678,"Ġà¤ľà¤Ĺà¤¨":6679,"Ġà¤ľà¤Ĺà¤ľà¤Ĺ":6680,"Ġà¥§à¥¯à¥Ńà¥ª":6681,"Ġà¥§à¥¯à¥§à¥Ń":6682,"Ġà¥§à¥¯à¥Ńà¥¬":6683,"à¤¯à¤¯à¤¨à¤¸à¤®":6684,"à¤°à¤ľà¤¨à¤ķ":6685,"Ġà¥¨à¥¦à¥Ńà¥¬":6686,"à¤Ĺà¤łà¤¨à¤¸":6687,"Ġà¥§à¥«à¥¨":6688,"Ġà¥§à¥«à¥¦à¥¦":6689,"Ġà¥§à¥¨à¥¨":6690,"à¤łà¤ķà¤¸à¤®":6691,"à¥Įà¤Ĥà¥¤âĢĿ":6692,"à¤ĩà¤Łà¤¸":6693,"à¤ıà¤®à¤Ĩà¤ĩà¤ıà¤¸":6694,"Ġà¤¨à¤ľà¤°à¤²":6695,"Ġà¤§à¤¨à¤¦":6696,"Ġà¤§à¤¨à¤ľà¤¨à¤ķ":6697,"à¤¨à¤ªà¤¶":6698,"Ġà¤¸à¤¹à¤°à¤Ń":6699,"Ġà¥§à¥§à¥¬":6700,"à¤ªà¤£à¤²":6701,"à¤ªà¤£à¤¸à¤®":6702,"Ġà¤Ńà¤µà¤¨à¤²":6703,"à¤ıà¤²à¤Ł":6704,"à¤ıà¤²à¤ĩà¤¡":6705,"Ġà¥§à¥®à¥Ń":6706,"Ġà¥§à¥®à¥¬":6707,"Ġà¥§à¥®à¥©":6708,"Ġà¥§à¥®à¥¦à¥¦":6709,"Ġà¥§à¥®à¥¨à¥«":6710,"Ġà¤ľà¤¨à¤ķà¤°":6711,"Ġà¤ľà¤¨à¤ķà¤ķ":6712,"Ġà¥§à¥¬à¥Ń":6713,"Ġà¥§à¥¬à¥§à¥¬":6714,"ĠĠĠĠĠĠ":6715,"ĠĠĠĠĠĠĠ":6716,"à¤ĩà¤ľà¤ħà¤¨":6717,"à¤Ĺà¤²à¤¬à¤ľ":6718,"à¤¯à¤Łà¤ķà¤¸":6719,"à¤¯à¤Łà¤ķà¤¬":6720,"à¤¯à¤£à¤¸":6721,"Ġà¤¦à¤¶à¤ķà¤²":6722,"Ġà¤ľà¤¬à¤ľà¤ķ":6723,"Ġà¤ķà¤Łà¤¨à¤ķ":6724,"à¤µà¤Łà¤¸":6725,"à¤Ķà¤·à¤§à¤ķ":6726,"à¤®à¤¹à¤¤à¤²":6727,"à¥ĭ?'":6728,"à¤¹à¤°à¤£à¤¬":6729,"à¤¹à¤°à¤£à¤¹à¤°":6730,"Ġà¤Ńà¤µà¤¨à¤¬":6731,"Ġà¤Ńà¤µà¤¨à¤Ń":6732,"Ġà¥¦à¥§à¥Ń":6733,"Ġà¥¦à¥©à¥§":6734,"à¤°à¤ĸà¤£":6735,"à¤ıà¤Īà¤¸":6736,"à¤¾à¥¤'":6737,"à¥¨à¥¦à¥§à¥©":6738,"à¥¨à¥¦à¥©à¥ª":6739,"Ġà¥¨à¥®à¥«":6740,"à¤¯à¤Łà¤¨à¤²à¤Ĺ":6741,"à¤Łà¤¬à¤²à¤°":6742,"Ġà¤Īà¤°":6743,"Ġà¤Īà¤Ł":6744,"Ġà¤Īà¤ļ":6745,"Ġà¤ıà¤²à¤ľ":6746,"Ġà¤ıà¤²à¤¨à¤²":6747,"Ġà¤ıà¤²à¤Ĩà¤ĩà¤¸":6748,"à¤ĸà¤¨à¤¨à¤²":6749,"Ġà¤¨à¤Ńà¤ıà¤ľà¤¸":6750,"à¤ľà¤¬à¤ľ":6751,"à¤·à¤¬à¤¢":6752,"Ġà¤¹à¤ķà¤¸à¤®":6753,"Ġà¥¨à¥¦à¥ªà¥¦":6754,"Ġà¥¨à¥¦à¥ªà¥§":6755,"à¤°à¤«à¤²à¤ķ":6756,"Ġà¤Ĩà¤Īà¤ıà¤¨à¤ľ":6757,"Ġà¤ķà¤¦à¤®à¤ªà¤Ľ":6758,"à¥ĩ?'":6759,"Ġà¤Ĩà¤¸à¤¯":6760,"Ġà¤¢à¤ķà¤¢à¤ķ":6761,"à¤¾à¥Īà¤ĤâĢĵ":6762,"Ġà¤ªà¤Łà¤ķà¤ªà¤Łà¤ķà¤ķ":6763,"Ġà¥©à¥¬à¥¦":6764,"Ġà¥¬à¥«à¥¦":6765,"Ġà¤¸à¤°à¤²à¤¤":6766,"Ġà¤®à¤¦à¤¨à¤¦":6767,"à¤īà¤ªà¤²à¤¬":6768,"Ġà¥¦à¥Ńà¥§":6769,"Ġà¤ķà¤¦à¤®à¤¬":6770,"à¤µà¤¯à¤®à¤¸":6771,"Ġà¤Ĩà¤īà¤Łà¤ª":6772,"à¥§à¥¦à¥¨":6773,"Ġà¥§à¥¯à¥«à¥®":6774,"Ġà¥¨à¥¦à¥¨à¥Ń":6775,"Ġà¤ħà¤²à¤®à¤²à¤ķ":6776,"à¤ıà¤ļà¤ĵà¤²":6777,"à¤īà¤¸à¤«":6778,"Ġà¤¨à¤Ĺà¤¦à¤ķ":6779,"à¤Ńà¤ªà¤¤à¤¨à¤²":6780,"à¤ĩà¤°à¤¸à¤¬":6781,"à¤¾à¥Ī,âĢĻ":6782,"Ġà¤ľà¤Ĺà¤¤à¤ª":6783,"à¤Ĩà¤ĩà¤ĩà¤Ī":6784,"à¥Ńà¥«à¥Ń":6785,"Ġà¥§à¥¯à¥®à¥©":6786,"Ġà¤²à¤¹à¤¡à¤®":6787,"à¤°à¤¨à¤Ĺà¤°à¤¸":6788,"à¤°à¤¨à¤Ĺà¤°à¤¬":6789,"Ġà¥§à¥¯à¥¬à¥§":6790,"Ġà¥§à¥¯à¥¬à¥®":6791,"Ġà¥§à¥¯à¥¬à¥¯":6792,"Ġà¥¦à¥¬à¥®":6793,"Ġà¤ĵà¤®à¤¨à¤®":6794,"Ġà¥§à¥¯à¥ªà¥¦":6795,"à¤¤à¤¨à¤®à¤¨à¤¨":6796,"à¤«à¤¸à¤¬à¤°":6797,"Ġà¤°à¤Ļà¤°":6798,"Ġà¥§à¥¯à¥Ńà¥§":6799,"Ġà¤²à¤¹à¤°à¤²":6800,"à¤ļà¤¥à¤°à¤®":6801,"à¤µà¤¸à¤¹à¤®à¤¤":6802,"à¤¡à¤°à¤¸à¤¨à¤²":6803,"Ġà¤¦à¤¶à¤°à¤¥à¤ľ":6804,"Ġà¤¦à¤¶à¤°à¤¥à¤ļà¤¨":6805,"à¤¼à¥Ģ":6806,"Ġà¤ļà¤¹à¤²à¤²":6807,"Ġà¤Ĺà¤¢à¤µ":6808,"Ġà¤Ĺà¤¡à¤¬à¤¢":6809,"Ġà¤¡à¤Łà¤ķà¤®à¤¬":6810,"Ġà¤Ĺà¤¡à¤µà¤¡":6811,"Ġà¤ıà¤¸à¤ĩà¤Ī":6812,"Ġà¤Ĩà¤ĩà¤ıà¤¸à¤Ł":6813,"ĠĠĠĠĠĠĠĠĠĠĠĠĠĠĠĠĠĠĠĠĠĠĠĠĠĠĠĠĠĠĠĠĠĠĠĠĠĠĠĠĠĠĠĠĠĠĠĠĠĠĠĠĠĠĠĠĠĠĠĠĠĠĠĠ":6814,"à¤ķà¤ħà¤ªà¤ķ":6815,"Ġà¤¸à¤¯à¤ķà¤¡":6816,"Ġà¤ĺà¤ļà¤ĺà¤ļ":6817,"Ġà¤ĺà¤Łà¤ķà¤¹à¤°":6818,"Ġà¤°à¤£à¤ľ":6819,"Ġà¤²à¤ĸà¤¨à¤ī":6820,"à¤¸à¤ıà¤ªà¤ķ":6821,"à¤¡à¤¯à¤¨à¤®à¤¨":6822,"à¤¡à¤°à¤¶à¤Łà¤¸":6823,"à¤ĩà¤ªà¤°à¤¥":6824,"Indi":6825,"Ġà¤¨à¤ħà¤ªà¤¨":6826,"Ġà¤¤à¤¡à¤ķà¤Ńà¤¡à¤ķ":6827,"Ġà¤ħà¤µà¤¯à¤µà¤¹à¤°":6828,"à¤µà¤Ĩà¤¦à¤°":6829,"Ġà¤¹à¤°à¤Ńà¤ľà¤¨":6830,"Ġà¤Ľà¤°à¤ªà¤·":6831,"Ġà¤§à¤Ļà¤§à¤Ļ":6832,"Ġà¤Ŀà¤®à¤Ŀà¤®":6833,"ay":6834,"ec":6835,"es":6836,"ith":6837,"ri":6838,"st":6839,"ter":6840,"Ãŀ":6841,"ĠI":6842,"ĠM":6843,"ĠO":6844,"ĠP":6845,"Ġb":6846,"Ġf":6847,"Ġp":6848,"Ġà¥ģ":6849,"Ġin":6850,"à¤¾',":6851,"à¥įà¤¾":6852,"à¥įà¥ģ":6853,"à¥įà¤Ĥ":6854,"à¥įÃ·":6855,"à¤°à¤ıà¤¨à¤ıà¤ķ":6856,"à¤¨à¤¤à¤ķ":6857,"à¤¨à¤¶à¤ķ":6858,"à¤¨à¤¸à¤¨":6859,"à¤¨à¤°à¤¹à¤°":6860,"à¤¨à¤ľà¤°":6861,"à¤¨à¤°à¤¸à¤¹":6862,"à¤¿à¥ĭ":6863,"à¤¿âĢ":6864,"à¤¿Â«":6865,"à¤¿âĢĮà¤Ĥ":6866,"à¤ķà¤ıà¤ķ":6867,"à¤ķà¤ªà¤¨":6868,"à¤ķà¤¤à¤ķ":6869,"à¤ķà¤·à¤ķ":6870,"à¤ķà¤¤à¤²":6871,"à¤ķà¤ļà¤ķ":6872,"à¤ķà¤¥à¤¨":6873,"à¤ķà¤¥à¤°":6874,"à¤ķà¤²à¤ķà¤¹à¤°":6875,"à¤ķà¤ĵà¤Ńà¤°":6876,"à¥ĩÂ¥":6877,"à¤²à¤ŀ":6878,"à¤²à¤µà¤®":6879,"à¤²à¤ļà¤®":6880,"à¤²à¤¯à¤¸à¤¹":6881,"à¤²à¤Ńà¤°à¤ª":6882,"à¤²à¤¯à¤¤à¤°":6883,"à¤®à¤²à¤®":6884,"à¤®à¤¯à¤²":6885,"à¤®à¤§à¤¨":6886,"à¤®à¤°à¤¨":6887,"à¤®à¤°à¤£à¤ķ":6888,"à¤®à¤ľà¤¨à¤®":6889,"à¤¤à¤ĺ":6890,"à¤¤à¤²à¤¨":6891,"à¤¤à¤ľà¤¨à¤ķ":6892,"à¤¤à¤ĵà¤Ł":6893,"à¤¤à¤¤à¤µà¤°à¤²":6894,"à¤¯à¤ªà¤¨":6895,"à¤¯à¤Ĺà¤°":6896,"à¤¯à¤§à¤°":6897,"à¤¯à¤¶à¤¨à¤ķ":6898,"à¤¯à¤°à¤§à¤¨":6899,"à¤¯à¤Ĭà¤°":6900,"à¥ģà¤¿":6901,"à¥ģà¥ĩ":6902,"à¥Ģ...":6903,"à¤¸à¤ªà¤¨":6904,"à¤¸à¤¤à¤²":6905,"à¤¸à¤Łà¤²":6906,"à¤¸à¤Ĺà¤°à¤®":6907,"à¤¸à¤«à¤°à¤ķ":6908,"à¤¸à¤°à¤¹à¤ķ":6909,"Ġà¤¸à¤·":6910,"Ġà¤¸à¤¸à¤¦":6911,"Ġà¤ªà¤²à¤¸":6912,"Ġà¤ªà¤°à¤ķà¤®":6913,"à¤ªà¤Ĺ":6914,"à¤ªà¤ľà¤¸":6915,"à¤ªà¤¸à¤¬":6916,"à¤¦à¤°à¤µ":6917,"à¤¦à¤¤à¤ķ":6918,"à¤¦à¤µà¤¨":6919,"à¤¦à¤ħà¤¨":6920,"à¤¦à¤¯à¤°":6921,"à¤¦à¤¸à¤¹":6922,"à¤¦à¤¬à¤ľ":6923,"à¤¦à¤µà¤¸à¤¹":6924,"à¤¹à¤¤à¤°":6925,"à¤¹à¤®à¤§":6926,"à¤µà¤°à¤¦":6927,"à¤µà¤¬à¤¨":6928,"à¤µà¤Łà¤²":6929,"à¤µà¤Ĺà¤¨":6930,"à¤µà¤īà¤ªà¤ª":6931,"Ġà¤ķà¤Ń":6932,"Ġà¤ķà¤¨à¤ķ":6933,"Ġà¤ķà¤ªà¤®":6934,"Ġà¤Ĺà¤Ĺ":6935,"Ġà¤Ĺà¤²à¤ķ":6936,"Ġà¤Ĺà¤¹à¤ķ":6937,"Ġà¤Ĺà¤ľà¤°":6938,"Ġà¤Ĺà¤®à¤¨à¤¶":6939,"à¤Ĺà¤«":6940,"à¤Ĺà¤Ńà¤°":6941,"à¤Ĺà¤¡à¤²":6942,"à¤Ĺà¤Ĳà¤¤":6943,"à¥Ī...":6944,"Ġà¤°à¤¯":6945,"Ġà¤°à¤¸à¤ķ":6946,"Ġà¤°à¤¸à¤°":6947,"Ġà¤°à¤Ļà¤²":6948,"Ġà¤°à¤ľà¤Ĺà¤ľ":6949,"Ġà¤¨à¤ķà¤®":6950,"Ġà¤¨à¤²à¤¸":6951,"Ġà¤¨à¤Ŀà¤°":6952,"à¤Łà¤ľ":6953,"à¤Łà¤§":6954,"à¤Łà¤«à¤²":6955,"à¤Łà¤ļà¤¨à¤²":6956,"à¤Łà¤ľà¤°à¤²":6957,"à¤ıà¤¨à¤®":6958,"à¤ıà¤ĺ":6959,"à¤ıà¤¯à¤°à¤²":6960,"à¤ıà¤¸à¤²à¤Ĺ":6961,"Ġà¤Ńà¤¯à¤²":6962,"Ġà¤Ńà¤Ĺà¤¤":6963,"Ġà¤ħà¤¹à¤°":6964,"Ġà¤ħà¤Ĺà¤°":6965,"Ġà¤ħà¤µà¤¨":6966,"Ġà¤ħà¤ľà¤°":6967,"Ġà¤ħà¤¨à¤ķà¤¨":6968,"Ġà¤¬à¤¥":6969,"Ġà¤¬à¤¨à¤ķ":6970,"Ġà¤¬à¤ķà¤®":6971,"Ġà¤¬à¤Ĺà¤²":6972,"Ġà¤¬à¤Łà¤®":6973,"Ġà¤¬à¤®à¤¬à¤¹":6974,"Ġà¤¹à¤£":6975,"Ġà¤¹à¤ķà¤¬":6976,"Ġà¤®à¤¨à¤®à¤¨":6977,"Ġà¤®à¤ķà¤¹":6978,"à¤ľà¤Ł":6979,"à¤ľà¤Ĺà¤°":6980,"à¤ľà¤¤à¤°":6981,"à¤ľà¤¤à¤ķ":6982,"à¤ľà¤¬à¤°":6983,"Ġà¤µà¤ļ":6984,"Ġà¤µà¤¨à¤¬":6985,"à¤¬à¤¸à¤ķ":6986,"à¤¬à¤ĩà¤®":6987,"à¤¬à¤Ĺà¤°à¤®":6988,"à¤·à¤ľà¤¨":6989,"à¤·à¤ªà¤¨":6990,"à¤·à¤Ŀ":6991,"à¤·à¤²à¤Ĺ":6992,"à¤§à¤ļ":6993,"à¤§à¤¡":6994,"à¤§à¤°à¤¤":6995,"à¤§à¤ªà¤¤":6996,"à¤§à¤¦à¤ķ":6997,"à¤§à¤ľà¤²":6998,"à¤§à¤¯à¤ķà¤ķ":6999,"à¤§à¤Ńà¤¤":7000,"Ġà¤Ľà¤¹à¤°":7001,"Ġà¤¤à¤Łà¤ķ":7002,"à¤ģà¥ĩ":7003,"à¤ģ',":7004,"Ġà¤¦à¤Ĺ":7005,"Ġà¤¦à¤²à¤¬à¤²":7006,"à¤¥à¤ľ":7007,"à¤¶à¤¯à¤®":7008,"à¤¶à¤¤à¤°":7009,"à¤¶à¤¯à¤²":7010,"à¤¶à¤¤à¤¨":7011,"à¤¶à¤²à¤Ĺ":7012,"à¤Ĥà¥ģ":7013,"à¤ĤâĢĻ":7014,"Ġà¤Ĩà¤¯à¤¤":7015,"Ġà¤Ĩà¤¸à¤²":7016,"Ġà¤Ĩà¤ľà¤®":7017,"Ġà¤Ĩà¤¯à¤¤à¤¨":7018,"Ġà¤ľà¤ľ":7019,"Ġà¤ľà¤¨à¤²":7020,"Ġà¤ľà¤ªà¤¨":7021,"Ġà¤ľà¤¤à¤¨":7022,"Ġà¤ľà¤¯à¤µ":7023,"Ġà¤ľà¤¡à¤¸":7024,"à¤Ľà¤Ńà¤¨":7025,"à¤£à¤¢":7026,"à¤£à¤µà¤¤":7027,"à¤£à¤Ńà¤ķ":7028,"Ġà¤²à¤¸à¤ª":7029,"Ġà¤²à¤Ńà¤¸":7030,"à¤ļà¤Ń":7031,"à¤ļà¤Ļ":7032,"à¤ļà¤ľà¤¸":7033,"à¤ļà¤¸à¤¹":7034,"à¤ļà¤¤à¤¤":7035,"à¤ļà¤Ĺà¤®à¤¨":7036,"à¤Īà¤µà¤¸":7037,"à¤Īà¤ľà¤¸":7038,"à¤Īà¤ªà¤²":7039,"à¤Īà¤¡à¤°":7040,"à¥Ĥ?":7041,"à¥Ĥà¥į":7042,"à¥Ĥà¤Ĥ":7043,"Ġà¤īà¤ĺ":7044,"Ġà¤īà¤¸à¤°":7045,"à¤¡à¤ªà¤¬":7046,"à¤Ńà¤²à¤²":7047,"à¤Ńà¤¬à¤¹":7048,"à¤Ńà¤ĩà¤¹":7049,"à¤īà¤Łà¤°":7050,"à¤īà¤¥à¤²":7051,"à¤īà¤¥à¤µ":7052,"à¤ĸà¤°à¤¤":7053,"à¤ĸà¤ľà¤¸":7054,"à¤ĸà¤¨à¤µ":7055,"à¤ĸà¤ķà¤¸":7056,"à¤ĸà¤¨à¤¸à¤®":7057,"Ġà¤¸à¤®à¤µà¤°":7058,"à¤ĩà¤¥":7059,"à¤ĩà¤Ľ":7060,"à¤ĩà¤ľà¤¨":7061,"à¤ĩà¤Łà¤¨":7062,"à¤ĩà¤µà¤Ł":7063,"à¤ĩà¤Ļà¤¸":7064,"Ġà¤Ńà¤¨à¤ķ":7065,"à¤¹à¤°à¤ª":7066,"à¤°à¤®à¤¶à¤ķ":7067,"Ġà¤ļà¤°à¤¨":7068,"Ġà¤ļà¤¹à¤²":7069,"Ġà¤ļà¤īà¤°":7070,"à¤«à¤²à¤¬":7071,"Ġà¤¥à¤µ":7072,"à¤īà¤¨à¤ªà¤°":7073,"Ġà¤ıà¤²à¤¨":7074,"Ġà¤ıà¤Ĩà¤°":7075,"Ġà¤ıà¤Ĩà¤ĩà¤Ł":7076,"à¤°à¤¤à¤¬à¤¨":7077,"Ġà¤ĸà¤°à¤²":7078,"Ġà¤ĸà¤µà¤°":7079,"à¤¨à¤ķà¤²":7080,"à¤¨à¤ķà¤¤":7081,"Ġà¤¶à¤Ń":7082,"Ġà¤¶à¤¨à¤®":7083,"Ġà¤¶à¤¶à¤°":7084,"Ġà¤¶à¤¹à¤µ":7085,"à¤¾à¤ģ(":7086,"à¤¾à¤ģ?":7087,"à¤¾à¤ģà¥Ī,":7088,"Ġà¤ħà¤¨à¤¦":7089,"Ġà¤ħà¤¨à¤¬":7090,"à¤łà¤¯":7091,"à¤¸à¤ķà¤¸à¤¹":7092,"Ġà¤«à¤°à¤®":7093,"Ġà¤«à¤²à¤®":7094,"à¤°à¤£à¤¨":7095,"à¤°à¤£à¤µà¤¸":7096,"à¤ªà¤°à¤Ń":7097,"ĠâĢ¢":7098,"à¤ľà¤¨à¤¸à¤°à¤ķ":7099,"à¥¦à¥«":7100,"à¥¦à¥ª":7101,"à¥¦à¥©":7102,"à¤ĺà¤¡":7103,"à¤ĺà¤¨à¤²":7104,"à¤ĺà¤°à¤¸":7105,"Ġà¤¸à¤ķà¤¸à¤®":7106,"Ġà¤ľà¤¨à¤¦":7107,"à¤¯à¤®à¤°":7108,"à¤¯à¤®à¤£":7109,"à¤¯à¤®à¤¸à¤®":7110,"à¤¯à¤®à¤¤à¤°":7111,"Ġà¤°à¤¹à¤¯":7112,"Ġà¤¯à¤¸à¤Ń":7113,"à¤°à¤¹à¤°à¤ķ":7114,"à¤°à¤¹à¤ªà¤Ľ":7115,"à¤°à¤¹à¤¸à¤¨":7116,"à¤°à¤¹à¤¦à¤¶":7117,"Ġà¤®à¤¹à¤Ļ":7118,"Ġà¤ıà¤ķà¤ĸ":7119,"Ġà¤ıà¤ķà¤¢":7120,"à¤¯à¤¸à¤ŀ":7121,"Ġà¤§à¤°à¤¤":7122,"Ġà¤§à¤µà¤²":7123,"Ġà¤§à¤¨à¤µ":7124,"à¤Ļà¤¥":7125,"à¤Ļà¤¡":7126,"à¤Ļà¤Ń":7127,"à¤Ļà¤®à¤¸":7128,"à¤Ļà¤«à¤¸":7129,"à¤ŀà¤®":7130,"à¤ŀà¤¬à¤¹":7131,"à¤ªà¤¨à¤¦":7132,"à¤ªà¤¨à¤µ":7133,"à¤ªà¤¨à¤ªà¤Ľ":7134,"à¤¯à¤¤à¤Ńà¤¨":7135,"à¤²à¤®à¤¯":7136,"Ġà¤¸à¤¹à¤Ĩà¤¯":7137,"à¤¤à¤°à¤¯":7138,"à¤¤à¤°à¤ĺ":7139,"à¤¤à¤°à¤Ńà¤¨":7140,"à¤¤à¤°à¤Ĩ":7141,"Ġà¤¡à¤°à¤®":7142,"Ġà¤īà¤ªà¤ľà¤²":7143,"à¤°à¤¦à¤²":7144,"à¤°à¤¦à¤¶":7145,"à¤ĩà¤¨à¤°à¤¹à¤°":7146,"à¤ĩà¤¨à¤ľà¤¸":7147,"à¥ģà¤ģâĢĻ":7148,"Ġà¤ķà¤®à¤²à¤¸":7149,"Ġà¤ķà¤®à¤²à¤¬à¤¹":7150,"à¤ħà¤¨à¤¨":7151,"à¤ħà¤¸à¤¦":7152,"à¤ħà¤°à¤¨":7153,"à¤ªà¤¤à¤¨":7154,"à¤ķà¤²à¤Ŀ":7155,"Ġà¤®à¤¨à¤°":7156,"Ġà¤®à¤¨à¤¶":7157,"Ġà¤®à¤¨à¤Ĺà¤£à¤¨":7158,"Ġà¤²à¤Ĺà¤¨":7159,"Ġà¤²à¤Ĺà¤¤à¤®":7160,"Ġà¤²à¤Ĺà¤¨à¤Ĺ":7161,"Ġà¤ĩà¤Ĺ":7162,"Ġà¤ĩà¤²à¤ķ":7163,"Ġà¤ĩà¤µà¤¨":7164,"Ġà¤ĩà¤¶à¤¨":7165,"Ġà¤ĩà¤¦à¤²":7166,"Ġà¤ĩà¤ıà¤ļà¤ıà¤¸":7167,"à¤¯à¤¨à¤¸à¤®":7168,"à¤¬à¤¨à¤¸":7169,"à¤¬à¤¨à¤¬":7170,"à¤®à¤ķà¤¹":7171,"Ġà¤Ńà¤ıà¤°à¤®":7172,"Ġà¤Ńà¤ıà¤īà¤ª":7173,"à¤°à¤µà¤ľ":7174,"à¤°à¤µà¤§":7175,"à¤Łà¤ķà¤ĺà¤°":7176,"à¤Łà¤ķà¤ĺà¤°à¤²":7177,"à¤¶à¤ķà¤°":7178,"à¤Ĺà¤¤à¤¹à¤°":7179,"à¤µà¤¨à¤µ":7180,"à¤µà¤¨à¤Ĺ":7181,"à¤·à¤£à¤¸à¤¹":7182,"Ġà¤ħà¤Ńà¤¦":7183,"à¤¸à¤¨à¤¤à¤°":7184,"à¤¸à¤¨à¤¯à¤¨":7185,"à¤¸à¤¨à¤ľà¤¸":7186,"à¤¸à¤¨à¤¸à¤¹":7187,"à¤¸à¤¨à¤ªà¤Ł":7188,"à¤¤à¤¨à¤Ĺà¤°":7189,"à¤Ĩà¤ļ":7190,"à¤Ĩà¤Ĺà¤¨":7191,"Ġà¤Ĩà¤°à¤¨":7192,"Ġà¤Ĩà¤°à¤Ī":7193,"Ġà¤¬à¤¸à¤¸":7194,"à¤²à¤¨à¤¦":7195,"à¤¨à¤¨à¤¨":7196,"à¤ķà¤ķà¤ķ":7197,"à¤®à¤¤à¤ª":7198,"à¤®à¤¤à¤ªà¤Ľ":7199,"Ġà¤¸à¤¨à¤¬":7200,"Ġ?âĢĿ":7201,"Ġà¤Ĺà¤¤à¤¸":7202,"à¤łà¤®à¤¡":7203,"à¤ªà¤ķà¤¸":7204,"à¤ªà¤ķà¤ª":7205,"à¥Įà¤ģà¤ģ":7206,"à¤¤à¤®à¤¯":7207,"à¥ĩà¥¤'":7208,"à¤®à¤¨à¤¦":7209,"à¤®à¤¨à¤Ĺà¤°à¤®":7210,"Ġà¤ĵà¤ķà¤²":7211,"Ġà¤ĵà¤®à¤ķ":7212,"Ġà¤ĵà¤ıà¤¨à¤ıà¤®":7213,"Ġà¤¬à¤ľà¤Ĺ":7214,"Ġà¤Ŀà¤ª":7215,"à¤ĥ,":7216,"à¤ĥâĢĻ":7217,"à¤¦à¤¨à¤¤à¤°":7218,"à¤¦à¤¨à¤ªà¤¤":7219,"à¤¦à¤¨à¤Ńà¤¨":7220,"à¤¦à¤¨à¤īà¤ªà¤°":7221,"Ġà¤¨à¤Ĺà¤°à¤¸":7222,"Ġà¤ªà¤ķà¤¡à¤®":7223,"à¤°à¤®à¤£à¤ª":7224,"à¤°à¤®à¤£à¤Ńà¤¨":7225,"Ġà¤¸à¤¯à¤°":7226,"Ġà¤¸à¤¯à¤µà¤°":7227,"à¤°à¤Ńà¤°à¤¬":7228,"à¤¡à¤ķà¤¹à¤°":7229,"à¤¤à¤²à¤¤":7230,"à¤ķà¤°à¤£à¤Ń":7231,"à¤ķà¤°à¤£à¤ľà¤¸":7232,"à¤²à¤¯à¤µ":7233,"à¤ľà¤ķà¤¸à¤®":7234,"Ġà¥¬à¥§à¥¨":7235,"à¤§à¤¨à¤Ń":7236,"à¤§à¤¨à¤ªà¤¤":7237,"à¥©à¥¨":7238,"à¥©à¥¯":7239,"Ġà¤ªà¤¦à¤¬à¤¹":7240,"Ġà¤ħà¤¬à¤§":7241,"Ġà¤ħà¤¬à¤§à¤ķ":7242,"Ġà¤ħà¤¬à¤īà¤ª":7243,"Ġà¤ķà¤²à¤°à¤®":7244,"à¤¶à¤¨à¤µ":7245,"à¤¶à¤¨à¤°à¤¤":7246,"Ġà¤Ĩà¤ĩà¤ķ":7247,"à¤¯à¤°à¤¸à¤®":7248,"Ġà¤ħà¤µà¤¯":7249,"Ġà¤Ĩà¤īà¤¨à¤ķ":7250,"Ġà¤¤à¤¹à¤Ńà¤¨":7251,"Ġà¤ĩà¤¨à¤«":7252,"à¤ĵà¤¹à¤°":7253,"à¤ĵà¤Ĩà¤ĩà¤ª":7254,"Ġà¤¹à¤°à¤°":7255,"Ġà¤¹à¤°à¤ª":7256,"Ġà¤Ķà¤°":7257,"à¤¬à¤°à¤Ńà¤¨":7258,"ĠâĢĵâĢĺ":7259,"à¤¶à¤¤à¤Ń":7260,"Ġà¤ıà¤®à¤ıà¤²à¤ķ":7261,"à¤¹à¤¨à¤¬":7262,"à¤¹à¤¨à¤¬à¤¹":7263,"à¤¹à¤¨à¤¶à¤®à¤¶":7264,"Ġà¤ĺà¤°à¤Ĩ":7265,"à¥®à¥¯":7266,"Ġà¤¬à¤²à¤¦":7267,"Ġà¤¬à¤²à¤ľà¤«":7268,"à¤Łà¤²à¤¸à¤®":7269,"Ġà¥§à¥¦à¥¬":7270,"Ġà¤¸à¤¤à¤¹à¤¬":7271,"Ġà¤ıà¤¨à¤Ń":7272,"à¤£à¤¯à¤¬à¤®":7273,"à¤ļà¤ķà¤¸à¤®":7274,"à¤Ńà¤µà¤ª":7275,"à¤¨à¤µà¤°à¤¹":7276,"Ġà¤Ĳà¤¯à¤°":7277,"Ġà¤Ĳà¤¨à¤¬":7278,"Ġà¤Ĳà¤¨à¤¬à¤®":7279,"à¤·à¤¦à¤¸":7280,"Ġà¤Ńà¤°à¤¸à¤ķ":7281,"à¤µà¤ªà¤ŀ":7282,"Ġà¤ħà¤²à¤µ":7283,"à¤¡à¤®à¤Ľ":7284,"à¤¡à¤®à¤£":7285,"à¤¯à¤¸à¤®à¤ķ":7286,"à¤¨à¤¬à¤¸":7287,"Ġà¤ħà¤«à¤°à¤ķ":7288,"Ġà¤ıà¤¸à¤Ł":7289,"Ġà¤ıà¤¸à¤¬":7290,"Ġà¤ıà¤¸à¤Ń":7291,"Ġà¤ıà¤¸à¤ıà¤¸":7292,"Ġà¤ıà¤¸à¤ĵà¤ıà¤¸":7293,"Ġà¤¸à¤¡à¤ķà¤Ľ":7294,"Ġà¤Ĩà¤®à¤ª":7295,"Ġà¤Ĩà¤®à¤ľà¤¨à¤®":7296,"Ġà¤Ĩà¤®à¤īà¤ªà¤Ń":7297,"à¤¦à¤²à¤¹à¤°":7298,"à¤¾à¥ĩà¤Ĥ":7299,"à¤µà¤¤à¤¨à¤²":7300,"Ġà¥§à¥¯à¥§":7301,"Ġà¥§à¥¯à¥¨à¥¦":7302,"Ġà¥§à¥¯à¥§à¥§":7303,"Ġà¥§à¥¯à¥§à¥¬":7304,"à¤°à¤ªà¤¥à¤®":7305,"Ġà¤Ľà¤²à¤«à¤²à¤¹à¤°":7306,"Ġà¤¨à¤ªà¤¸":7307,"Ġà¥§à¥«à¥«":7308,"Ġà¥§à¥«à¥ª":7309,"à¤¡à¤²à¤°":7310,"à¤ķà¤¸à¤ªà¤®":7311,"Ġà¥«à¥¦à¥¦à¥¦":7312,"à¤µà¤¯à¤¨à¤¸à¤®":7313,"à¤ĩà¤Łà¤¨à¤²":7314,"Ġà¤«à¤°à¤ķà¤ķ":7315,"à¤ıà¤®à¤ıà¤ķ":7316,"à¤ıà¤®à¤¡":7317,"à¤®à¤¸à¤¨à¤²":7318,"à¤®à¤¸à¤Ļà¤ķ":7319,"Ġà¤¸à¤¹à¤°à¤Ńà¤¨":7320,"Ġà¥§à¥§à¥Ń":7321,"Ġà¥§à¥§à¥ª":7322,"à¤ªà¤£à¤µ":7323,"Ġà¤Ĺà¤£à¤µ":7324,"à¤·à¤§à¤°à¤¹à¤°":7325,"à¤ķà¤Łà¤Ĺ":7326,"à¤ľà¤¯à¤ľ":7327,"à¤ľà¤¯à¤¬à¤¹":7328,"Ġà¤°à¤¨à¤Ń":7329,"Ġà¤Ĺà¤®à¤Ĺà¤¢":7330,"à¤ļà¤²à¤¨à¤²":7331,"à¤ıà¤²à¤ĵ":7332,"à¤¸à¤¨à¤²à¤¸":7333,"Ġà¥§à¥®à¥¯à¥«":7334,"Ġà¤ľà¤¨à¤ķà¤Ļ":7335,"Ġà¤ıà¤¨à¤Ĩà¤°à¤ıà¤¨à¤Ń":7336,"à¥ģà¥¤âĢĺ":7337,"à¤ĺà¤°à¤ĺà¤°à¤®":7338,"à¤µà¤¦à¤¹":7339,"Ġà¥§à¥¬à¥§":7340,"Ġà¥§à¥¬à¥ª":7341,"Ġà¥§à¥ªà¥Ń":7342,"Ġà¥§à¥ªà¥¬":7343,"Ġà¥§à¥ªà¥ª":7344,"à¤ĩà¤¨à¤²à¤²":7345,"à¤ĩà¤¨à¤²à¤Ĺ":7346,"à¤ļà¤°à¤°":7347,"ĠĠĠĠĠ":7348,"Ġà¤Ĭà¤¬":7349,"à¤¤à¤°à¤ķà¤¹à¤°":7350,"à¤¸à¤¨à¤ķà¤°":7351,"Ġà¥§à¥©à¥Ń":7352,"Ġà¤¨à¤µà¤§à¤¨":7353,"à¤ĩà¤¸à¤°à¤ķ":7354,"Ġà¤Ĩà¤łà¤°":7355,"Ġà¥¨à¥§à¥§":7356,"Ġà¥¨à¥§à¥Ń":7357,"Ġà¥¨à¥§à¥¬":7358,"Ġà¤¦à¤¶à¤Ĺà¤ľ":7359,"Ġà¤®à¤¦à¤ķà¤ķ":7360,"Ġà¥§à¥Ńà¥Ń":7361,"Ġà¥§à¥Ńà¥¬":7362,"Ġà¥§à¥Ńà¥®":7363,"Ġà¥§à¥Ńà¥¯":7364,"Ġà¥§à¥Ńà¥¬à¥®":7365,"Ġà¤ķà¤Łà¤Ĩà¤īà¤Ł":7366,"Ġà¤ħà¤¸à¤°à¤«":7367,"Ġà¤ħà¤ķà¤¬à¤°":7368,"Ġà¤«à¤²à¤ª":7369,"à¤ĩà¤¡à¤¸":7370,"à¤ķà¤¬à¤¡":7371,"à¤°à¤ĸà¤ª":7372,"Ġà¥¨à¥ªà¥§":7373,"Ġà¥¨à¥ªà¥¨":7374,"à¤¾)âĢĵ":7375,"à¤¦à¤¨à¤®à¤§":7376,"à¥¨à¥¦à¥§à¥«":7377,"à¥¨à¥¦à¥Ńà¥¨":7378,"à¤ľà¤¤à¤ªà¤¤":7379,"à¤ªà¤Łà¤¨à¤ķ":7380,"à¤ªà¤Łà¤ªà¤ķ":7381,"à¤ªà¤Łà¤ªà¤²":7382,"à¤¯à¤Łà¤ķà¤®":7383,"à¤¯à¤Łà¤¨à¤ķà¤°":7384,"à¤¯à¤Łà¤ķà¤®à¤§":7385,"à¤ĩà¤ªà¤¬":7386,"Ġà¥¨à¥©à¥¨":7387,"Ġà¤ľà¤²à¤¶":7388,"Ġà¤ľà¤²à¤ļà¤°à¤¹à¤°":7389,"Ġà¤ĭà¤£à¤¸à¤®":7390,"Ġà¥¨à¥Ńà¥¬":7391,"Ġà¥¨à¥Ńà¥¦à¥¦":7392,"Ġà¤ħà¤ľà¤¯à¤®":7393,"Ġà¤ħà¤ľà¤°à¤¬":7394,"Ġà¥¨à¥¬à¥¦à¥¦":7395,"Ġà¤ĸà¤Łà¤ªà¤Łà¤²":7396,"à¤Łà¤°à¤ķà¤¨":7397,"Ġà¥©à¥©à¥¦":7398,"à¤Łà¤¸à¤²à¤ķ":7399,"à¤Łà¤¸à¤²à¤®":7400,"à¤ĩà¤Ńà¤°à¤²":7401,"à¤ıà¤«à¤Ł":7402,"Ġà¤Ĩà¤Īà¤¸à¤ķ":7403,"Ġà¤Ĩà¤Īà¤ıà¤®à¤Ī":7404,"à¤¹à¤¦à¤¸à¤®":7405,"Ġà¥©à¥§à¥¦":7406,"à¤¿?âĢĻ":7407,"à¤ªà¤ªà¤¶":7408,"à¤°à¤®à¤£à¤²à¤Ĺà¤¤":7409,"à¤ªà¤¹à¤ª":7410,"Ġà¤ľà¤¨à¤¸à¤®à¤ķ":7411,"à¤ĩà¤¬à¤²à¤ķ":7412,"à¤ĩà¤¬à¤²à¤®":7413,"à¤ĩà¤¬à¤°à¤¬":7414,"à¤Ĩà¤Īà¤ı":7415,"à¤Ĩà¤Īà¤¬":7416,"à¤ħà¤ªà¤µ":7417,"Ġà¤ıà¤«à¤¸":7418,"Ġà¤ļà¤ķà¤ļà¤ķ":7419,"à¤Łà¤°à¤²à¤Ĺ":7420,"Ġà¥«à¥«à¥«":7421,"Ġà¤¤à¤²à¤¬à¤ķ":7422,"Ġà¤ħà¤µà¤¶à¤°":7423,"à¤¤à¤µà¤¨à¤¬":7424,"Ġà¤°à¤Ĺà¤¤à¤²":7425,"Ġà¤¨à¤¸à¤¹à¤¨":7426,"Ġà¤Ŀà¤²à¤Ŀà¤²":7427,"Ġà¥«à¥§à¥¨":7428,"Ġà¤Ńà¤°à¤¤à¤µ":7429,"Ġà¥¨à¥¦à¥©à¥Ń":7430,"Ġà¤ļà¤°à¤£à¤¹à¤°":7431,"Ġà¤Ĩà¤īà¤Łà¤¸":7432,"Ġà¤Ĩà¤īà¤Łà¤¡":7433,"Ġà¤ĵà¤ªà¤¨à¤®":7434,"à¤Ĩà¤ľà¤¸à¤®":7435,"Ġà¥©à¥ªà¥¯":7436,"Ġà¥¨à¥¦à¥¨à¥¯":7437,"à¤ĩà¤ıà¤¬":7438,"à¤ĩà¤ıà¤Ľ":7439,"à¤°à¤ļà¤²à¤¨à¤ħà¤¨":7440,"Ġà¤ĸà¤ªà¤¤à¤²":7441,"à¤µà¤°à¤®à¤§":7442,"Ġà¥«à¥¬à¥¦":7443,"Ġà¤¨à¤Ĺà¤ıà¤°":7444,"Ġà¤¨à¤Ĺà¤ıà¤ªà¤Ľ":7445,"Ġà¤¨à¤Ĺà¤¦à¤®":7446,"à¤ħà¤¸à¤«à¤²":7447,"à¤ħà¤¸à¤«à¤²à¤¤":7448,"à¤·à¤¸à¤°à¤¹":7449,"Ġà¤¹à¤Ļà¤ķà¤Ļà¤¬":7450,"Ġà¥¬à¥¬à¥¬":7451,"à¤Ĩà¤ĩà¤ıà¤®":7452,"Ġà¥§à¥¯à¥®à¥Ń":7453,"à¤¨à¤Ľà¤ķ":7454,"Ġà¤ħà¤«à¤°à¤ħà¤¨":7455,"à¤°à¤¨à¤Ĺà¤°à¤¸à¤®":7456,"Ġà¤Ĩà¤ĩà¤ıà¤®à¤ıà¤¸":7457,"Ġà¥Ńà¥Ńà¥Ń":7458,"Ġà¥§à¥¯à¥¬à¥Ń":7459,"Ġà¥¦à¥¬à¥§":7460,"Ġà¤¸à¤¨à¤®à¤ķ":7461,"Ġà¥§à¥¯à¥ªà¥«":7462,"Ġà¥§à¥¯à¥ªà¥¬":7463,"Ġà¤Ĺà¤«à¤Ĺ":7464,"Ġà¤ħà¤®à¤°à¤Ĺà¤¢":7465,"Ġà¤°à¤¥à¤¯":7466,"à¤Ķà¤·à¤§à¤¸à¤¹":7467,"Ġà¤²à¤¹à¤°à¤®":7468,"Ġà¤Ĩà¤ĩà¤¨à¤¸à¤ķ":7469,"à¥įâĢºà¤¿":7470,"Ġà¤²à¤ĸà¤¨à¤ª":7471,"Ġà¥¦à¥ªà¥Ń":7472,"à¤ªmà¤¬":7473,"à¥¦à¥Ńà¥¨":7474,"à¥¦à¥Ńà¥©":7475,"Ġà¤®à¤Ĺà¤¹":7476,"Ġà¤¹à¤¦à¤¬à¤¨":7477,"à¥ªà¥«à¥¬":7478,"Ġà¤ıà¤¯à¤°à¤ķà¤¨":7479,"Ġà¤ıà¤®à¤ıà¤ıà¤ļ":7480,"Ġà¤¹à¤µà¤²à¤¦":7481,"Ġà¤¨à¤¹à¤°à¤¬":7482,"Ġà¤¬à¤ĸà¤¤à¤®":7483,"ore":7484,"org":7485,"Ġwith":7486,"Ġà¤Ĩà¤ĩà¤ĵà¤ıà¤®":7487,"Ġà¤Ĩà¤ĩà¤ĵà¤ıà¤®à¤²":7488,"à¤¸à¤¡à¤ķà¤®":7489,"Ġà¤¦à¤¸à¤ķà¤®":7490,"end":7491,"Ġà¤µà¤¯à¤·":7492,"à¤¸à¤ıà¤ªà¤²":7493,"âĢįà¥ĭ":7494,"Ġà¤ĸà¤Łà¤¨à¤ªà¤Łà¤¨à¤®":7495,"Ġà¤ĸà¤Łà¤¨à¤ªà¤Łà¤¨":7496,"Ġà¤ıà¤¨à¤Ĩà¤ıà¤¨à¤ı":7497,"ill":7498,"Ġ123":7499,"à¤ĭà¤·":7500,"à¤¦à¤¹à¤¡à¤¤":7501,"Ġà¤¨à¤¯à¤¨à¤°":7502,"Ġà¤¬à¤¬à¤°à¤®à¤¹à¤²":7503,"à¤Ľà¤²à¤«à¤²":7504,"à¤ıà¤²à¤ıà¤ıà¤¸à¤¸":7505,"à¤¨à¤µà¤²à¤ªà¤°":7506,"Ġà¤ıà¤«à¤Ĩà¤Īà¤Ĩà¤°":7507,"Ġà¤ľà¤µà¤°à¤ľà¤¸":7508,"Ġà¤ıà¤¸à¤Īà¤Ī":7509,"Ġà¤Īà¤Ļà¤ĺà¤Ļ":7510,"Ġà¤¸à¤°à¤®à¤¥à¤²":7511,"âĢ²,":7512,"Ġà¤²à¤¸à¤ªà¤¸":7513,"à¤ļà¤Ĺà¤®à¤¨à¤¤":7514,"à¤¤à¤°à¤Ĩà¤¬à¤¦":7515,"Ġà¤ķà¤Łà¤Ĩà¤īà¤Łà¤¸":7516,"45":7517,"67":7518,"ac":7519,"bass":7520,"ce":7521,"ef":7522,"em":7523,"go":7524,"gma":7525,"ig":7526,"lo":7527,"me":7528,"mà¤¯":7529,"pp":7530,"rad":7531,"te":7532,"uJ":7533,"uk":7534,"ve":7535,"ºà¥ĭ":7536,"ĠB":7537,"ĠN":7538,"ĠQ":7539,"ĠS":7540,"ĠW":7541,"Ġc":7542,"Ġà¥ĩ":7543,"Ġan":7544,"Ġre":7545,"Ġnep":7546,"ŀà¥ģ":7547,"Ġà¤¿":7548,"à¤¾à¥Ī,":7549,"à¤¾âĢĮà¤Ĥ":7550,"à¥į-":7551,"à¥įà¥Į":7552,"à¥įà¥įà¥¤":7553,"à¥įà¥Įà¤Ĥà¥¤":7554,"à¥į...âĢĻ":7555,"à¤°à¤ıà¤ķ":7556,"à¤°à¤¯à¤¸":7557,"à¤°à¤ªà¤ķ":7558,"à¤°à¤°à¤®à¤£":7559,"à¤°à¤ĸà¤ķ":7560,"à¤°à¤Ĺà¤®à¤¨":7561,"à¤°à¤¥à¤°":7562,"à¤°mà¤®":7563,"à¤¨à¤ĩ":7564,"à¤¨à¤īà¤¨":7565,"à¤¨à¤µà¤¨":7566,"à¤¨à¤ļà¤¨":7567,"à¤¨à¤¹à¤¨":7568,"à¤¨à¤Ńà¤µ":7569,"à¤¨à¤§à¤°":7570,"à¤¨à¤ĺà¤°":7571,"à¤¨à¤ĵà¤Ńà¤°":7572,"à¤¿âĢĿ":7573,"à¤¿âĢĺ":7574,"à¤¿âĢľ":7575,"à¤ķà¤µà¤¸":7576,"à¤ķà¤Ĺà¤¤":7577,"à¤ķà¤¸à¤¨":7578,"à¤ķà¤§à¤®":7579,"à¥ĩà¥ĥ":7580,"à¥ĭ.":7581,"à¥ĭà¥ĩ,":7582,"à¥ĭà¤ĥ":7583,"à¥ĭ...":7584,"à¥ĭà¥ĩà¥¤âĢĻ":7585,"à¤²à¤£":7586,"à¤²à¤Ĺà¤°":7587,"à¤²à¤ªà¤®":7588,"à¤²à¤Łà¤ķ":7589,"à¤²à¤°à¤¹à¤°":7590,"à¤²à¤Ĺà¤®":7591,"à¤²à¤¹à¤¨":7592,"à¤²à¤ĸà¤¨":7593,"à¤²à¤ħà¤¸":7594,"à¤®à¤¡":7595,"à¤®à¤ł":7596,"à¤®à¤ªà¤°":7597,"à¤®à¤¯à¤®":7598,"à¤®à¤Ńà¤°":7599,"à¤®à¤¹à¤ķ":7600,"à¤®à¤ªà¤Łà¤ķ":7601,"à¤®à¤¹à¤²":7602,"à¤®à¤¶à¤®à¤¶":7603,"à¤®à¤Ĩà¤²":7604,"à¤¤à¤·":7605,"à¤¤à¤Ľà¤¨":7606,"à¤¤à¤¸à¤°":7607,"à¤¤à¤Ńà¤ıà¤ķ":7608,"à¤¤à¤¹à¤®":7609,"à¤¤à¤ľà¤¨à¤²":7610,"à¤¤à¤¸à¤®à¤ķ":7611,"à¤¯à¤·":7612,"à¤¯à¤īà¤¨":7613,"à¤¯à¤¯à¤®":7614,"à¤¯à¤°à¤¹":7615,"à¤¯à¤¡à¤®":7616,"à¤¯à¤ıà¤¸":7617,"à¥ģ'":7618,"à¥ģà¤¾":7619,"à¥ģà¥ģà¤Ĥ":7620,"à¥Ģ...âĢĻ":7621,"à¤¸à¤¯à¤¤":7622,"à¤¸à¤¹à¤ķ":7623,"à¤¸à¤¸à¤¬":7624,"à¤¸à¤¡à¤°":7625,"à¤¸à¤Ĺà¤¨":7626,"à¤¸à¤¶à¤¸":7627,"à¤¸à¤ľà¤¨à¤²":7628,"Ġà¤¸à¤Łà¤°":7629,"Ġà¤¸à¤¸à¤°":7630,"Ġà¤¸à¤ĺà¤°":7631,"Ġà¤ªà¤¥à¤ķ":7632,"Ġà¤ªà¤µà¤¨à¤²":7633,"à¤ªà¤¯à¤¤":7634,"à¤ªà¤¤à¤°":7635,"à¤ªà¤¶à¤ķ":7636,"à¤ªà¤²à¤¬":7637,"à¤ªà¤ħà¤°":7638,"à¤¦à¤ľ":7639,"à¤¦à¤°à¤¦":7640,"à¤¦à¤ķà¤®":7641,"à¤¦à¤¶à¤ķ":7642,"à¤¦à¤¶à¤®":7643,"à¤¦à¤¯à¤µ":7644,"à¤¦à¤¬à¤¸":7645,"à¤¹à¤¥":7646,"à¤¹à¤Łà¤ķ":7647,"à¤¹à¤¸à¤²":7648,"à¤¹à¤Ńà¤¨":7649,"à¤¹à¤Łà¤®":7650,"à¤¹à¤¸à¤¹":7651,"à¤¹à¤²à¤¸":7652,"à¤¹à¤¬à¤°à¤®":7653,"à¤¹à¤¨à¤ķà¤°":7654,"à¤¹à¤ħà¤Ĺ":7655,"à¤µà¤Ļ":7656,"à¤µà¤¯à¤¤":7657,"à¤µà¤°à¤µ":7658,"à¤µà¤¡à¤ķ":7659,"à¤µà¤£à¤²":7660,"à¤µà¤ľà¤¹à¤°":7661,"à¤µà¤īà¤ªà¤°":7662,"à¤µà¤ħà¤²à¤°":7663,"à¥¤à¥¤":7664,"Ġà¤ķà¤Ĺ":7665,"Ġà¤ķà¤°à¤¤":7666,"Ġà¤ķà¤ķà¤²":7667,"Ġà¤ķà¤²à¤²":7668,"Ġà¤ķà¤¦à¤ķ":7669,"Ġà¤ķà¤ľà¤°":7670,"Ġà¤ķà¤°à¤£à¤²":7671,"Ġà¤ķà¤ļà¤²":7672,"Ġà¤ķà¤«à¤°":7673,"Ġà¤ķà¤²à¤ķà¤²":7674,"Ġà¤Ĺà¤ıà¤¸":7675,"Ġà¤Ĺà¤ĩà¤¦":7676,"Ġà¤Ĺà¤ĩà¤°":7677,"Ġà¤Ĺà¤ĩà¤¸":7678,"Ġà¤Ĺà¤ĩà¤¯":7679,"Ġà¤Ĺà¤²à¤¤à¤²":7680,"à¤Ĺà¤ıà¤ķ":7681,"à¤Ĺà¤ķà¤®":7682,"à¤Ĺà¤µà¤¨":7683,"à¤Ĺà¤£à¤ķ":7684,"à¤Ĺà¤¨à¤ª":7685,"à¤Ĺà¤¸à¤®à¤ķ":7686,"à¥Ī'":7687,"à¥Īà¥Īà¤Ĥ":7688,"à¥ĪâĢĮ":7689,"Ġà¤°à¤Ń":7690,"Ġà¤°à¤¸à¤¦":7691,"Ġà¤°à¤ľà¤¸":7692,"Ġà¤°à¤¥à¤®":7693,"Ġà¤°à¤Ļà¤®":7694,"Ġà¤¨à¤ĩ":7695,"Ġà¤¨à¤µà¤®":7696,"Ġà¤¨à¤ľà¤²":7697,"Ġà¤¨à¤īà¤¤":7698,"Ġà¤¨à¤īà¤¡":7699,"à¤Łà¤ĸ":7700,"à¤Łà¤Ļ":7701,"à¤Łà¤ļà¤¨":7702,"à¤Łà¤µà¤ķ":7703,"à¤Łà¤¬à¤¹":7704,"à¤Łà¤ªà¤Ł":7705,"à¤Łà¤¹à¤Ł":7706,"à¤Łà¤īà¤ªà¤Ĺ":7707,"à¤ıà¤ı":7708,"à¤ıà¤ŀ":7709,"à¤ıà¤¯à¤¤":7710,"à¤ıà¤Łà¤®":7711,"à¤ıà¤¯à¤°":7712,"à¤ıà¤Ńà¤°":7713,"à¤ıà¤ıà¤²":7714,"à¤ıà¤ıà¤«":7715,"à¤ıà¤Ĩà¤ĩà¤ľ":7716,"à¤ıà¤ıà¤«à¤ª":7717,"à¤ıà¤Ĩà¤°à¤²":7718,"Ġà¤Ńà¤¯à¤®":7719,"Ġà¤Ńà¤ĩà¤¸":7720,"Ġà¤ħà¤ıà¤ķ":7721,"Ġà¤ħà¤ªà¤¤":7722,"Ġà¤ħà¤®à¤¤":7723,"Ġà¤ħà¤¡à¤ķ":7724,"Ġà¤ħà¤ļà¤²":7725,"Ġà¤ħà¤¡à¤°":7726,"Ġà¤ħà¤Łà¤µ":7727,"Ġà¤¬à¤µ":7728,"Ġà¤¬à¤°à¤£":7729,"Ġà¤¬à¤®à¤²":7730,"Ġà¤¬à¤°à¤¬à¤°":7731,"Ġà¤¬à¤¬à¤Īà¤®":7732,"Ġà¤¹à¤¥":7733,"Ġà¤¹à¤°à¤¦à¤®":7734,"Ġà¤®à¤¸à¤ķ":7735,"Ġà¤®à¤²à¤¬":7736,"Ġà¤®à¤ķà¤°":7737,"Ġà¤®à¤Ĺà¤¨":7738,"à¤ľà¤ĺ":7739,"à¤ľà¤¬à¤¨":7740,"à¤ľà¤µà¤ķ":7741,"à¤ľà¤®à¤®":7742,"à¤ľà¤¯à¤°":7743,"à¤ľà¤Ĺà¤®":7744,"à¤ľà¤īà¤¡":7745,"à¤ľà¤¸à¤®à¤ķ":7746,"à¤ľÃŀ":7747,"Ġà¤µà¤£":7748,"Ġà¤µà¤¨à¤¤":7749,"à¤¬à¤¶":7750,"à¤¬à¤ĺ":7751,"à¤¬à¤°à¤¹":7752,"à¤¬à¤Ļ":7753,"à¤¬à¤¸à¤²":7754,"à¤¬à¤°à¤¹à¤°":7755,"à¤¬à¤¦à¤¨":7756,"à¤¬à¤ĩà¤²":7757,"à¤¬à¤®à¤§":7758,"à¤¬à¤ľà¤°":7759,"à¤¬à¤¸à¤ª":7760,"à¤·à¤¶":7761,"à¤·à¤ļ":7762,"à¤·à¤ªà¤¤":7763,"à¤·à¤µà¤°":7764,"à¤·à¤ķà¤°":7765,"à¤·à¤®à¤²":7766,"à¤·à¤ľà¤¤":7767,"à¤·à¤°à¤ķà¤°":7768,"à¤·à¤¯à¤¸à¤¹":7769,"à¤§à¤¦":7770,"à¤§à¤ľ":7771,"à¤§à¤²à¤Ĺ":7772,"à¤§à¤Ńà¤ķ":7773,"à¤§à¤¯à¤ķà¤®":7774,"à¤§à¤¶à¤®à¤¶":7775,"à¤§à¤°à¤£à¤¹à¤°":7776,"Ġà¤Ľà¤ł":7777,"Ġà¤Ľà¤Ļ":7778,"Ġà¤Ľà¤®à¤¤":7779,"Ġà¤Ľà¤ªà¤ķ":7780,"Ġà¤¤à¤ķ":7781,"Ġà¤¤à¤¡":7782,"Ġà¤¤à¤¬à¤²":7783,"Ġà¤¤à¤®à¤¸":7784,"à¤ģ)":7785,"à¤ģâĢĻ,":7786,"Ġà¤¦à¤¹à¤¤":7787,"à¤ıà¤ķà¤°":7788,"à¤¥à¤¦":7789,"à¤¥à¤°à¤®":7790,"à¤¥à¤®à¤ķ":7791,"à¤¥à¤µà¤¤":7792,"à¤¥à¤ķà¤¸":7793,"à¤¶à¤£":7794,"à¤¶à¤ļ":7795,"à¤¶à¤Ļ":7796,"à¤¶à¤¬à¤¨":7797,"à¤¶à¤®à¤ķ":7798,"à¤¶à¤µà¤²":7799,"à¤¶à¤µà¤ª":7800,"à¤¶à¤¯à¤ª":7801,"à¤Ĥà¤¾":7802,"Ġà¤Ĩà¤¥":7803,"Ġà¤Ĩà¤¸à¤®":7804,"Ġà¤Ĩà¤ªà¤¨":7805,"Ġà¤Ĩà¤¯à¤¨":7806,"Ġà¤Ĩà¤®à¤ķ":7807,"Ġà¤Ĩà¤ĵ":7808,"Ġà¤Ĩà¤²à¤¸":7809,"Ġà¤Ĩà¤ļà¤°":7810,"Ġà¤Ĩà¤¡à¤µ":7811,"Ġà¤Ĩà¤Ĺà¤®à¤¨à¤ķ":7812,"Ġà¤Ĩà¤Ĩà¤ª":7813,"Ġà¤ľà¤®à¤ķ":7814,"Ġà¤ľà¤ľà¤¸à¤²":7815,"à¤Ľà¤®":7816,"à¤Ľà¤ª":7817,"à¤Ľà¤²à¤«":7818,"à¤£à¤¹":7819,"à¤£à¤ľ":7820,"à¤£à¤Ĺà¤°":7821,"à¤£à¤ķà¤°":7822,"Ġà¤²à¤ª":7823,"Ġà¤²à¤Ł":7824,"Ġà¤²à¤²à¤ķ":7825,"Ġà¤²à¤Łà¤ķ":7826,"Ġà¤²à¤¯à¤²":7827,"Ġà¤²à¤ķà¤°":7828,"Ġà¤²à¤¤à¤¬":7829,"Ġà¤²à¤µà¤ľ":7830,"Ġà¤²à¤°à¤¤à¤°":7831,"à¤ļà¤Ł":7832,"à¤ļà¤ľ":7833,"à¤ļà¤«":7834,"à¤ļà¤¯à¤¸":7835,"à¤ļà¤¯à¤¨":7836,"à¤ļà¤²à¤¬":7837,"à¤ļà¤°à¤£à¤®":7838,"à¤ļà¤®à¤§":7839,"à¤ļà¤ķà¤®à¤§":7840,"à¤Īà¤¹":7841,"à¤Īà¤Łà¤ķ":7842,"à¤Īà¤¤à¤²":7843,"à¤Īà¤ĵ":7844,"à¤Īà¤ľà¤²":7845,"à¤Īà¤¬à¤¸":7846,"à¤Īà¤¨à¤²à¤ķ":7847,"à¥Ĥà¥¤âĢĿ":7848,"à¤¡à¤·":7849,"à¤¡à¤ĸ":7850,"à¤¡à¤ªà¤Ľ":7851,"à¤¡à¤¸à¤¨":7852,"à¤¡à¤®à¤²":7853,"à¤¡à¤¨à¤¦":7854,"à¤¡à¤ħà¤ª":7855,"à¤¡à¤ħà¤²à¤²":7856,"à¤Ńà¤£":7857,"à¤Ńà¤ľà¤¨":7858,"à¤Ńà¤ıà¤°":7859,"à¤Ńà¤®à¤§":7860,"à¤īà¤°à¤®":7861,"à¤īà¤ªà¤¸":7862,"à¤īà¤¡à¤¬":7863,"à¤ĸà¤¯":7864,"à¤ĸà¤ľ":7865,"à¤ĸà¤ķà¤®":7866,"à¤ĸà¤°à¤¬":7867,"à¤ĸà¤®à¤¨":7868,"à¤ĸà¤¦à¤°":7869,"à¤ĸà¤²à¤¤":7870,"à¤ĸà¤²à¤¨à¤ķ":7871,"Ġà¤¯à¤°":7872,"Ġà¤¸à¤®à¤§":7873,"Ġà¤¸à¤®à¤¶":7874,"Ġà¤¸à¤®à¤Ń":7875,"à¤ĩà¤ķà¤®":7876,"à¤ĩà¤µà¤°":7877,"à¤ĩà¤®à¤®":7878,"à¤ĩà¤¸à¤¬":7879,"à¤ĩà¤«à¤ķ":7880,"à¤ĩà¤Ĺà¤°à¤ķ":7881,"à¤°à¤ķà¤¨":7882,"à¤°à¤ķà¤¬":7883,"à¤°à¤ķà¤°à¤ķ":7884,"à¤°à¤ķà¤Łà¤¨":7885,"à¤°à¤ķà¤¤à¤¤":7886,"à¤¹à¤°à¤¸":7887,"à¤¹à¤°à¤¬":7888,"à¤¹à¤°à¤£à¤¸":7889,"à¤°à¤®à¤°à¤¤":7890,"à¤°à¤®à¤®à¤¨":7891,"à¤°à¤®à¤ľà¤¸":7892,"à¤°à¤®à¤ħà¤ĺ":7893,"Ġà¤ļà¤¡":7894,"Ġà¤ļà¤¹à¤°":7895,"Ġà¤ļà¤µà¤¨":7896,"Ġà¤ļà¤°à¤£à¤²":7897,"Ġà¤ļà¤ķà¤Ł":7898,"Ġà¤ļà¤īà¤°à¤®":7899,"à¤«à¤¸à¤®":7900,"à¤«à¤ªà¤Ľ":7901,"à¤«à¤°à¤¹à¤°":7902,"Ġà¤¥à¤¹":7903,"Ġà¤¥à¤ªà¤®":7904,"à¤īà¤¨à¤ªà¤¨":7905,"à¤īà¤¨à¤¤à¤°":7906,"à¥Į-":7907,"Ġà¤ıà¤¸à¤°":7908,"Ġà¤ıà¤ıà¤«":7909,"Ġà¤ıà¤Ĩà¤Ī":7910,"Ġà¤ıà¤ıà¤Ĩà¤°":7911,"Ġà¤ıà¤ĩà¤¬à¤°à¤²":7912,"Ġà¤ıà¤ĩà¤¬à¤°à¤ķ":7913,"Ġà¤ıà¤ħà¤°à¤²":7914,"Ġà¤ıà¤ıà¤Ĩà¤°à¤²":7915,"à¤¯à¤ķà¤Ńà¤¨":7916,"à¤°à¤¤à¤¶":7917,"à¤°à¤¤à¤ªà¤Ľ":7918,"à¤°à¤¤à¤²à¤Ĺ":7919,"Ġà¤ĸà¤¤à¤®":7920,"Ġà¤ĸà¤¬à¤°à¤®":7921,"à¤¨à¤ķà¤ķ":7922,"à¤¨à¤ķà¤ª":7923,"Ġà¤¶à¤¦":7924,"Ġà¤¶à¤¬à¤²":7925,"à¤¾à¤ģâĢĻ,":7926,"Ġà¤ħà¤¨à¤²à¤ķ":7927,"Ġà¤ħà¤¨à¤°à¤²":7928,"Ġà¤ħà¤¨à¤¸à¤¨":7929,"Ġà¤ħà¤¨à¤¶à¤¨à¤¸":7930,"Ġà¤ªà¤°à¤ª":7931,"Ġà¤ªà¤°à¤¹":7932,"Ġà¤ªà¤°à¤«à¤°à¤®":7933,"à¤łà¤µ":7934,"à¤łà¤ľà¤¸":7935,"à¥ĥâĢĻ,":7936,"à¥ĥâĢĿ":7937,"à¤¸à¤ķà¤µ":7938,"à¤¸à¤ķà¤¸à¤ķ":7939,"à¤¸à¤ķà¤¸à¤®":7940,"à¤¸à¤ķà¤®à¤§":7941,"à¤°à¤£à¤¦":7942,"à¤°à¤£à¤ļ":7943,"à¤°à¤£à¤ªà¤Ľ":7944,"à¤°à¤£à¤¤à¤¯":7945,"à¤ªà¤°à¤¦":7946,"ĠâĢŀà¥ģ":7947,"à¤ľà¤¨à¤µ":7948,"à¤ľà¤¨à¤ļ":7949,"à¤ľà¤¨à¤ľà¤¤":7950,"à¤ľà¤¨à¤Ĩà¤¸":7951,"à¤¸à¤®à¤¬":7952,"à¤¨à¤®à¤ķ":7953,"à¤¨à¤®à¤®":7954,"à¤¨à¤®à¤¤":7955,"à¤µà¤¸à¤¬":7956,"à¤µà¤¸à¤§":7957,"à¥¦à¥¨":7958,"ĠâĢĺ...":7959,"à¤ĺà¤°à¤¦":7960,"à¤ĺà¤®à¤®":7961,"à¤¢à¤µ":7962,"Ġà¤¸à¤ķà¤¸à¤²":7963,"Ġà¤ľà¤¨à¤ħà¤Ń":7964,"à¤¯à¤®à¤ªà¤Ľ":7965,"à¤¯à¤®à¤ľà¤¸":7966,"à¤¯à¤®à¤¨à¤¸à¤®":7967,"Ġà¤°à¤¹à¤°à¤ķ":7968,"Ġà¤¯à¤¸à¤ħà¤§":7969,"Ġà¤¯à¤¸à¤ħà¤Ĺ":7970,"à¤°à¤¹à¤¸":7971,"à¤°à¤¹à¤¦":7972,"à¤°à¤¹à¤¬":7973,"à¤°à¤¹à¤¹à¤°":7974,"à¤°à¤¹à¤ħà¤¨":7975,"Ġà¤®à¤¹à¤¦":7976,"à¤²à¤ķà¤Ńà¤°":7977,"Ġà¤ıà¤ķà¤ł":7978,"Ġà¤ıà¤ķà¤¤à¤²":7979,"Ġà¤ıà¤ķà¤§à¤°":7980,"Ġà¤ıà¤ķà¤¹à¤ª":7981,"Ġà¤ıà¤ķà¤®à¤¤à¤²":7982,"Ġà¤Łà¤Ł":7983,"Ġà¤Łà¤¹à¤²":7984,"Ġà¤Łà¤¨à¤¸à¤®":7985,"Ġà¤Łà¤¨à¤Ńà¤¨":7986,"Ġà¤Łà¤¸à¤®à¤¸":7987,"à¤¯à¤¸à¤¨à¤®":7988,"à¤¯à¤¸à¤µà¤°":7989,"à¤¯à¤¸à¤ªà¤Łà¤ķ":7990,"à¤¯à¤¸à¤ªà¤¶":7991,"Ġà¤§à¤¤":7992,"Ġà¤§à¤¨à¤¸":7993,"à¤Ļà¤Ńà¤¨":7994,"à¤Ļà¤ķà¤°":7995,"à¤Ļà¤µà¤°à¤ķ":7996,"Ġà¤ĺà¤¨à¤ķ":7997,"Ġà¤ĺà¤®à¤¨":7998,"Ġà¤ĺà¤¨à¤ª":7999,"Ġà¤ĺà¤°à¤¤à¤°":8000,"à¤°à¤²à¤²":8001,"à¤ŀà¤¦":8002,"à¤ŀà¤¬":8003,"à¤ŀà¤¶":8004,"à¤ªà¤¨à¤¹à¤°":8005,"à¤¯à¤¤à¤¤":8006,"à¤¯à¤¤à¤¸à¤®":8007,"à¤¯à¤¤à¤µà¤¸":8008,"à¤¯à¤¤à¤²à¤Ĺ":8009,"à¤¯à¤¤à¤¬à¤¸":8010,"à¤²à¤®à¤¸":8011,"à¤Ĺà¤°à¤¦":8012,"à¤Ĺà¤°à¤¬":8013,"Ġà¤¸à¤¹à¤®":8014,"à¤¤à¤°à¤Ĺà¤¤à¤ķ":8015,"à¤¤à¤°à¤¨à¤Ĺà¤°à¤ª":8016,"Ġà¤¤à¤°à¤µ":8017,"Ġà¤µà¤°à¤ª":8018,"Ġà¤¡à¤ļ":8019,"Ġà¤¡à¤Ĺà¤®":8020,"Ġà¤¡à¤Ĺà¤²à¤¸":8021,"à¤Ŀà¤¸":8022,"à¤Ŀà¤Łà¤ķ":8023,"à¤°à¤¸à¤ļ":8024,"à¤°à¤¸à¤°à¤®":8025,"à¤°à¤¦à¤¹à¤¸":8026,"à¤°à¤¦à¤¶à¤°":8027,"à¤ĩà¤¨à¤¹":8028,"à¤ĩà¤¨à¤Ńà¤¨":8029,"à¤ĩà¤¨à¤ħà¤¨":8030,"à¥Įà¤Ĥ)":8031,"à¤ıà¤°à¤ıà¤¨":8032,"à¥ģà¤ģà¤ģ":8033,"Ġà¤ķà¤®à¤Ńà¤¨":8034,"à¤ħà¤¶":8035,"à¤ħà¤ĸ":8036,"à¤ħà¤¨à¤®":8037,"à¤ħà¤¨à¤¸":8038,"à¤ħà¤ªà¤²":8039,"à¤ħà¤µà¤¤":8040,"à¤ħà¤®à¤°":8041,"à¤ħà¤ļà¤²":8042,"à¤ħà¤¸à¤¦à¤²":8043,"à¤ħà¤µà¤¸à¤°":8044,"à¤ªà¤®à¤§":8045,"Ġà¤®à¤¨à¤Ń":8046,"à¤ķà¤®à¤¬":8047,"Ġà¤ĩà¤¨à¤®":8048,"Ġà¤ĩà¤¸à¤¨":8049,"Ġà¤ĩà¤ĵ":8050,"Ġà¤ĩà¤Łà¤°à¤¨":8051,"Ġà¤ĩà¤Ĩà¤¸":8052,"à¤¯à¤¨à¤Ńà¤¨":8053,"à¤¬à¤¨à¤¨":8054,"Ġà¤Ńà¤ıà¤Ĺà¤°":8055,"Ġà¤Ńà¤ıà¤ľà¤¤":8056,"Ġà¤ªà¤¹à¤ļ":8057,"Ġà¤ªà¤¹à¤²à¤²":8058,"Ġà¤ªà¤¹à¤²à¤¸":8059,"Ġà¤¸à¤¬à¤²à¤¤":8060,"à¤°à¤µà¤Ĺ":8061,"Ġà¤Ĩà¤¯à¤¶":8062,"à¤¤à¤ķà¤ª":8063,"à¤¤à¤ķà¤¸à¤®":8064,"à¤¯à¤²à¤¬":8065,"à¤¯à¤²à¤¹à¤°":8066,"Ġà¤ħà¤¸à¤¹à¤¨":8067,"à¤¶à¤ķà¤¸à¤®":8068,"à¤¶à¤ķà¤¸à¤®à¤ķ":8069,"Ġà¥¨à¥¦à¥¯":8070,"à¤¸à¤²à¤Ł":8071,"à¤¸à¤²à¤°à¤²":8072,"à¤µà¤°à¤°":8073,"à¤Ĺà¤¤à¤¸":8074,"à¤Ĺà¤¤à¤ª":8075,"à¤Ĺà¤¤à¤¹à¤ª":8076,"à¤µà¤¨à¤¤":8077,"à¤µà¤¨à¤¦":8078,"à¤µà¤¨à¤ªà¤°":8079,"à¤·à¤£à¤¦":8080,"à¤¸à¤¨à¤¯":8081,"à¤¤à¤¨à¤µ":8082,"à¤Ĩà¤ĸ":8083,"à¤Ĩà¤¶à¤®":8084,"à¤Ĩà¤ľà¤®":8085,"à¤Ĩà¤ķà¤¸":8086,"à¤Ĩà¤ªà¤¸":8087,"à¤Ĩà¤ĩà¤«":8088,"à¤Ĩà¤Ļà¤¸":8089,"Ġà¤Ĩà¤°à¤Ł":8090,"Ġà¤Ĩà¤°à¤ĩ":8091,"Ġà¤Ĩà¤°à¤¨à¤ķ":8092,"Ġà¤Ĩà¤°à¤ĩà¤²":8093,"Ġà¤Ĩà¤°à¤ıà¤²à¤®":8094,"à¤°à¤¬à¤²à¤ķ":8095,"à¤ļà¤¨à¤ªà¤¶":8096,"à¤ļà¤¨à¤Ĩà¤¯":8097,"à¤µà¤ķà¤¯":8098,"à¤µà¤ķà¤ªà¤¸à¤®":8099,"à¤²à¤¨à¤¯à¤¤":8100,"à¤²à¤¨à¤ªà¤¶":8101,"à¤¨à¤¨à¤°":8102,"à¤ķà¤ķà¤¬":8103,"à¥Ģ,âĢĻ":8104,"Ġà¤īà¤¦à¤¯à¤°":8105,"Ġà¤īà¤¦à¤¯à¤¸à¤®":8106,"à¤ķà¤°à¤ļ":8107,"à¤Łà¤°à¤Ĺ":8108,"à¤Łà¤°à¤²à¤ķ":8109,"à¤Łà¤°à¤ªà¤¨":8110,"à¤Łà¤°à¤ľà¤¸":8111,"Ġ?)":8112,"Ġà¤¸à¤°à¤Ĺà¤°":8113,"Ġà¤¸à¤°à¤ļà¤¨":8114,"Ġà¤¸à¤°à¤«à¤°":8115,"Ġà¤Ĺà¤¤à¤²":8116,"Ġà¤Ĺà¤¤à¤¬à¤°":8117,"à¤¿à¤ģ?":8118,"à¤¸à¤°à¤ľà¤¸":8119,"Ġà¤Ĩà¤µà¤ľ":8120,"à¥Įà¤ģâĢĿ":8121,"à¤¤à¤®à¤¹":8122,"à¥ĩà¥¤âĢĿ":8123,"Ġà¥«à¥Ńà¥ª":8124,"à¤®à¤¨à¤¬":8125,"à¤®à¤¨à¤µà¤®":8126,"Ġà¤ĵà¤ļ":8127,"Ġà¤ĵà¤«":8128,"Ġà¤ĵà¤ľà¤¸":8129,"Ġà¤ĵà¤®à¤°":8130,"Ġà¤ĵà¤¤à¤ª":8131,"Ġà¤ĵà¤ıà¤ıà¤¸":8132,"Ġà¤Ŀà¤®à¤ķ":8133,"à¤«à¤²à¤¸":8134,"à¤¦à¤¨à¤¦":8135,"à¤·à¤ķà¤¤":8136,"à¤·à¤ķà¤¤à¤°":8137,"Ġà¤¨à¤Ĺà¤°à¤µà¤§":8138,"à¤°à¤®à¤£à¤¤":8139,"à¤°à¤®à¤£à¤ªà¤¶":8140,"à¤°à¤¶à¤®à¤¸":8141,"Ġà¤¸à¤¯à¤¥":8142,"à¤°à¤Ńà¤²":8143,"à¤¡à¤ķà¤¬":8144,"à¤¡à¤ķà¤°à¤ķ":8145,"à¤¡à¤ķà¤°à¤²":8146,"à¥ªà¥¦à¥¦":8147,"à¤ıà¤¨à¤ıà¤¨":8148,"à¤ıà¤¨à¤ıà¤¸":8149,"Ġà¤¢à¤²à¤®":8150,"à¤ķà¤°à¤£à¤¤":8151,"à¤ķà¤°à¤£à¤¦":8152,"Ġà¤¸à¤¦à¤®":8153,"Ġà¤¸à¤¦à¤¨à¤²":8154,"Ġà¤¸à¤®à¤¯à¤ħà¤Ĺ":8155,"à¤²à¤¯à¤ªà¤Ľ":8156,"à¤ľà¤ķà¤¬":8157,"Ġà¤ļà¤²à¤¨à¤®":8158,"à¤§à¤¨à¤Ńà¤¨":8159,"à¤§à¤¨à¤Ĺà¤¢":8160,"Ġà¥ªà¥§à¥¦":8161,"à¥©à¥¦à¥¦":8162,"à¤Ĺà¤²à¤¸à¤®":8163,"à¤Ĺà¤²à¤ªà¤¨":8164,"Ġà¤ªà¤¦à¤®à¤°":8165,"Ġà¤¨à¤Ńà¤ĩà¤°à¤¹":8166,"à¤ķà¤¤à¤¥":8167,"à¤µà¤²à¤¤":8168,"Ġà¤Ńà¤¯à¤Ń":8169,"Ġà¤ħà¤¬à¤®":8170,"à¤·à¤®à¤¯":8171,"à¤µà¤®à¤¯":8172,"Ġà¤Ĩà¤ĩà¤ı":8173,"Ġà¤Ĩà¤ĩà¤¸à¤²":8174,"Ġà¤Ĩà¤ĩà¤Ńà¤°":8175,"Ġà¤Ĩà¤ĩà¤ķà¤¨à¤®":8176,"Ġà¤Ĩà¤ĩà¤Łà¤®à¤®":8177,"Ġà¤Ĩà¤ĩà¤ıà¤ĩ":8178,"Ġà¤ķà¤¤à¤µ":8179,"Ġà¤ħà¤µà¤ļ":8180,"à¤ĵà¤¶":8181,"à¤ĵà¤²à¤®":8182,"à¤ĵà¤Ŀ":8183,"à¤ĵà¤ıà¤¨à¤ıà¤®":8184,"Ġà¤¹à¤°à¤ł":8185,"à¤¿à¤Ĥà¤Ĥ":8186,"Ġà¤Ķà¤Ĺ":8187,"Ġà¤Ķà¤·à¤§à¤ķ":8188,"ĠâĢĵâĢľ":8189,"à¤¶à¤¤à¤¦":8190,"Ġà¤ıà¤®à¤Ł":8191,"Ġà¤ıà¤®à¤ľ":8192,"Ġà¤ıà¤®à¤Ĩà¤°":8193,"Ġà¤ıà¤®à¤Ĩà¤ĩà¤ıà¤¸":8194,"Ġà¤ıà¤®à¤Ĩà¤°à¤ª":8195,"à¤Ĺà¤®à¤¯":8196,"Ġà¤¦à¤²à¤ľ":8197,"Ġà¤¦à¤²à¤¹à¤¨":8198,"Ġà¤Ńà¤ĩà¤°à¤¹à¤ķ":8199,"à¤¹à¤¨à¤°":8200,"à¤¹à¤¨à¤ª":8201,"à¤¹à¤¨à¤¦":8202,"à¤¹à¤¨à¤¤à¤¸":8203,"Ġà¤ĺà¤°à¤Ĺ":8204,"à¥®à¥Ń":8205,"à¤²à¤Ĺà¤¢":8206,"Ġà¤ħà¤ªà¤Ĺ":8207,"Ġà¤ħà¤ªà¤ļ":8208,"Ġà¤ħà¤ªà¤¦à¤¸":8209,"Ġà¤ħà¤ªà¤ľà¤¸à¤ķ":8210,"Ġà¤¬à¤°à¤«":8211,"à¤¯à¤µà¤¤":8212,"à¤¯à¤µà¤¨à¤®":8213,"à¤·à¤¯à¤ļ":8214,"Ġà¤¬à¤²à¤¸":8215,"Ġà¤¬à¤²à¤µ":8216,"Ġà¤¬à¤²à¤¶":8217,"à¤¦à¤°à¤ª":8218,"à¤ķà¤¨à¤¬":8219,"Ġà¤ħà¤¦à¤Ń":8220,"Ġà¤¨à¤¹à¤²":8221,"Ġà¤«à¤°à¤«":8222,"Ġà¤®à¤²à¤¦":8223,"à¤°à¤¨à¤¹à¤°":8224,"Ġà¤ıà¤¨à¤¡":8225,"Ġà¤ıà¤¨à¤ıà¤¸à¤ľ":8226,"Ġà¤ıà¤¨à¤ıà¤ļà¤ķ":8227,"à¤¨à¤°à¤ª":8228,"Ġà¤ªà¤Łà¤ķà¤¦":8229,"à¤Ńà¤µà¤¶":8230,"à¤Ńà¤µà¤¸à¤®":8231,"Ġà¤®à¤¹à¤¤à¤¸":8232,"à¤µà¤¯à¤¸à¤®":8233,"à¤µà¤¯à¤Ĺà¤°":8234,"à¤¨à¤µà¤¹à¤°":8235,"Ġà¤Ĳà¤ľ":8236,"Ġà¤Ĳà¤¨à¤¸":8237,"Ġà¤Ĳà¤¯à¤°à¤²":8238,"Ġà¤Ĺà¤łà¤¨à¤¬":8239,"Ġà¤Ĺà¤łà¤¨à¤²à¤Ĺ":8240,"à¤¹à¤ķà¤¸":8241,"Ġà¤Ńà¤°à¤ĸà¤°":8242,"à¤µà¤°à¤£à¤µ":8243,"Ġà¤Ľà¤²à¤ª":8244,"à¤ľà¤®à¤§":8245,"à¤ľà¤®à¤¹à¤²":8246,"Ġà¤ħà¤²à¤ª":8247,"Ġà¤ħà¤«à¤®":8248,"à¤¦à¤ķà¤¬":8249,"Ġà¤ıà¤¸à¤ıà¤¸à¤¬":8250,"à¤Ĩà¤°à¤Ł":8251,"Ġà¤Ĩà¤īà¤Łà¤°":8252,"Ġà¤®à¤¤à¤¸à¤¹":8253,"Ġà¤Ĩà¤®à¤µ":8254,"Ġà¤Ĩà¤®à¤¬":8255,"Ġà¤Ĩà¤®à¤§":8256,"Ġà¤Ĩà¤®à¤¸à¤°":8257,"Ġà¤Ĩà¤®à¤®à¤¤à¤¦":8258,"Ġà¤Ĩà¤¦à¤®":8259,"Ġà¤Ĩà¤¶à¤Ļ":8260,"à¤ıà¤¸à¤§":8261,"à¤ıà¤¸à¤ıà¤²à¤¸":8262,"à¤ıà¤¸à¤ĩà¤ĩ":8263,"à¤²à¤¸à¤ľ":8264,"à¤®à¤¬à¤¦":8265,"à¤®à¤¬à¤ľ":8266,"Ġà¤ľà¤Ĺà¤¦à¤®":8267,"à¤¾à¥ĩâĢĻ":8268,"à¤¾à¥ĩâĢĵ":8269,"Ġà¥¤âĢĻâĢĺ":8270,"Ġà¤Ĩà¤ľà¤ªà¤°":8271,"Ġà¥§à¥¯à¥¨":8272,"Ġà¥§à¥¯à¥©à¥¦":8273,"Ġà¥§à¥¯à¥§à¥®":8274,"Ġà¥§à¥¯à¥¨à¥Ń":8275,"Ġà¥§à¥¯à¥©à¥¬":8276,"Ġà¥§à¥¯à¥©à¥©":8277,"à¤¦à¤®à¤¯":8278,"Ġà¤Ľà¤²à¤«à¤²à¤¦":8279,"Ġà¤¨à¤ªà¤ļ":8280,"à¤¾âĢĵâĢĵ":8281,"à¤¤à¤¬à¤®":8282,"à¤Ļà¤ķà¤Ł":8283,"Ġà¤Ĩà¤¤à¤¤":8284,"à¤°à¤ļà¤²à¤¨à¤ķ":8285,"Ġà¥§à¥«à¥§":8286,"Ġà¥§à¥«à¥¬":8287,"Ġà¥§à¥«à¥¯":8288,"à¤ķà¤¸à¤°à¤¹":8289,"à¤łà¤ķà¤¸à¤®à¤ķ":8290,"Ġà¥«à¥¦à¥§":8291,"Ġà¥¨à¥«à¥«":8292,"à¤¥à¤²à¤Ń":8293,"à¤ĩà¤Łà¤¥":8294,"à¤ĩà¤Łà¤Ŀ":8295,"Ġà¤«à¤°à¤ķà¤ĸ":8296,"à¤ıà¤®à¤Īà¤²":8297,"Ġà¤¬à¤ļà¤¤à¤ªà¤¤":8298,"Ġà¤¬à¤ļà¤¤à¤ķà¤°":8299,"à¥ģ,âĢĿ":8300,"à¤ľà¤°à¤ªà¤Ľ":8301,"à¤ľà¤°à¤ľà¤¸":8302,"à¤ľà¤§à¤°":8303,"Ġà¤Ĺà¤łà¤¨à¤¸à¤®":8304,"à¤¹à¤®à¤¦à¤²":8305,"Ġà¤ķà¤ªà¤Łà¤ª":8306,"Ġà¥©à¥¦à¥ª":8307,"Ġà¥©à¥¦à¥®":8308,"Ġà¥©à¥¦à¥¦à¥¦":8309,"à¤ķà¤Łà¤ª":8310,"à¤ķà¤Łà¤¹à¤°":8311,"à¤®à¤¦à¤¯":8312,"à¤®à¤¦à¤¨à¤ķ":8313,"à¤ľà¤¯à¤¬":8314,"à¤¯à¤ķà¤°à¤¥":8315,"à¤¯à¤Łà¤¨à¤¸à¤®":8316,"à¤¯à¤Łà¤¨à¤ľà¤¸":8317,"à¤ĸà¤ķà¤¬":8318,"à¤ĸà¤ķà¤¸à¤®":8319,"à¤¨à¤¸à¤®à¤ķ":8320,"Ġà¥§à¥®à¥«":8321,"Ġà¥§à¥®à¥®":8322,"Ġà¥§à¥®à¥§à¥¯":8323,"Ġà¥§à¥®à¥¨à¥¨":8324,"Ġà¥§à¥®à¥¨à¥ª":8325,"Ġà¥§à¥®à¥Ńà¥¨":8326,"Ġà¥§à¥®à¥Ńà¥§":8327,"Ġà¥§à¥¬à¥¬":8328,"à¤¨à¤Ĺà¤°à¤¦":8329,"à¤ĺà¤Łà¤¨à¤ªà¤Ľ":8330,"ĠĠĠĠĠčĊ":8331,"Ġà¤ªà¤°à¤®à¤¸à¤¤":8332,"à¤¤à¤°à¤ķà¤¨":8333,"à¤²à¤¸à¤®à¤ķ":8334,"à¥Ģ)âĢĶ":8335,"Ġà¥§à¥©à¥§":8336,"Ġà¥§à¥©à¥®":8337,"Ġà¥§à¥©à¥¯":8338,"Ġà¤¨à¤µà¤¬":8339,"Ġà¤¨à¤µà¤Ĩà¤Ĺà¤¨":8340,"Ġà¤īà¤¡à¤¯à¤¨":8341,"Ġà¤Ĩà¤ļà¤°à¤£à¤ķ":8342,"Ġà¤¹à¤²à¤ĸ":8343,"à¤¯à¤£à¤Ł":8344,"à¤Ĺà¤¬à¤®":8345,"à¤¨à¤¦à¤¹":8346,"Ġà¥¨à¥§à¥¨":8347,"Ġà¥¨à¥§à¥ª":8348,"Ġà¤¦à¤¶à¤ľà¤¨":8349,"Ġà¥§à¥Ńà¥©":8350,"Ġà¥§à¥Ńà¥«à¥«":8351,"Ġà¥§à¥Ńà¥¯à¥¯":8352,"à¤¸à¤µà¤Ł":8353,"à¤¸à¤µà¤¬":8354,"Ġà¤Ńà¤Īà¤¦":8355,"Ġà¤Ńà¤Īà¤ķà¤¨":8356,"Ġà¤ĺà¤°à¤®à¤§":8357,"Ġà¤¸à¤¡à¤¨":8358,"à¥ĩà¤ģà¥¤âĢĻ":8359,"à¥ĩà¤ģ',":8360,"à¤Ķà¤¸à¤¤":8361,"Ġà¤ħà¤ķà¤¬à¤°à¤²":8362,"Ġà¤ħà¤¡à¤ķà¤²à¤¬":8363,"Ġà¤¦à¤¶à¤ķà¤¤":8364,"Ġà¤ĩà¤®à¤°à¤ľ":8365,"à¤Łà¤¬à¤²à¤¬":8366,"à¤¸à¤¹à¤°à¤²":8367,"à¤¸à¤¹à¤°à¤¬":8368,"Ġà¥¬à¥¦à¥®":8369,"à¤¤à¤°à¤®à¤¨":8370,"à¥ĭ?âĢĿ":8371,"à¤ĩà¤¡à¤°à¤®":8372,"à¤¹à¤°à¤£à¤²":8373,"Ġà¥¨à¥¨à¥¨":8374,"Ġà¥¨à¥¨à¥¬":8375,"à¤°à¤¬à¤¹à¤¨à¤ķ":8376,"à¤Ńà¤ķà¤°à¤¬":8377,"Ġà¤Ńà¤µà¤¨à¤¸à¤®":8378,"Ġà¤µà¤¨à¤ľà¤¨":8379,"Ġà¥¦à¥§à¥¬":8380,"Ġà¥¦à¥©à¥¬":8381,"Ġà¥¦à¥«à¥¨":8382,"à¤īà¤¦à¤¯":8383,"à¤łà¤ķà¤²à¤Ĺ":8384,"à¤ªà¤¸à¤²à¤®":8385,"Ġà¥¨à¥ªà¥«":8386,"Ġà¤ĺà¤¨à¤ĺ":8387,"à¤²à¤¤à¤²à¤Ĺ":8388,"à¤ĸà¤®à¤¯":8389,"Ġà¤¸à¤ªà¤¥à¤Ĺ":8390,"Ġà¤¨à¤¬à¤ľ":8391,"à¤¬à¤Īà¤¸":8392,"à¥¨à¥¦à¥§à¥¨":8393,"à¥¨à¥¦à¥¦à¥Ń":8394,"à¥¨à¥¦à¥Ńà¥¦":8395,"à¤¡à¤¬à¤¡":8396,"Ġà¥¨à¥®à¥¦":8397,"Ġà¥¨à¥®à¥ª":8398,"à¤Łà¤µà¤²à¤²":8399,"à¤Łà¤µà¤²à¤¬":8400,"à¤·à¤°à¤ªà¤Ľ":8401,"Ġà¤ľà¤¸à¤ķà¤¸":8402,"à¤¡à¤¸à¤ľ":8403,"Ġà¥¨à¥Ńà¥¦":8404,"Ġà¤ħà¤ľà¤¯à¤²":8405,"....":8406,"Ġà¥¨à¥¬à¥«":8407,"Ġà¥¨à¥¬à¥ª":8408,"Ġà¥¨à¥¬à¥¯":8409,"Ġà¤Īà¤¤":8410,"Ġà¤Īà¤ľ":8411,"Ġà¤Īà¤Ń":8412,"Ġà¤ıà¤²à¤¡":8413,"Ġà¤¨à¤Ĩà¤ıà¤®":8414,"Ġà¤¨à¤Ĩà¤īà¤²":8415,"Ġà¤¦à¤®à¤¨à¤®":8416,"à¥Įà¤ģ,âĢĿ":8417,"Ġà¥¨à¥¯à¥«":8418,"Ġà¥¨à¥¯à¥©":8419,"Ġà¥¨à¥¯à¥®":8420,"Ġà¥©à¥©à¥ª":8421,"Ġà¥©à¥©à¥§à¥¦":8422,"âĢľ,":8423,"à¤ĩà¤Ńà¤°à¤ķ":8424,"à¤ĩà¤Ńà¤²à¤ķ":8425,"Ġà¤ĵà¤Ńà¤°à¤Ń":8426,"à¤«à¤°à¤ıà¤«":8427,"à¤·à¤Ńà¤°à¤ķ":8428,"à¤ıà¤«à¤¡à¤¬":8429,"Ġà¤Ĩà¤Īà¤°":8430,"Ġà¤Ĩà¤Īà¤¸à¤°":8431,"Ġà¤ķà¤¦à¤®à¤ª":8432,"Ġà¤ķà¤¦à¤®à¤µ":8433,"à¤²à¤¨à¤²à¤Ĺ":8434,"à¤®à¤°à¤£à¤¯":8435,"à¤ģà¥¤âĢĿ":8436,"Ġà¤¸à¤°à¤¸à¤¹à¤¯":8437,"à¤¦à¤µà¤²à¤Ĺ":8438,"à¥ĩ?âĢĿ":8439,"Ġà¤ľà¤¨à¤®à¤¤à¤®":8440,"Ġà¤ľà¤¨à¤®à¤¤à¤¬":8441,"Ġà¤ľà¤¨à¤®à¤¤à¤¸":8442,"Ġà¤Ĩà¤ĩà¤¸à¤«à¤²":8443,"Ġà¤Ĺà¤ıà¤Ĺ":8444,"à¤Ńà¤Ĺà¤µ":8445,"Ġà¤¸à¤¡à¤ķà¤®à¤§":8446,"ĠĠĠĠĠĠĠĠĠĠ":8447,"à¤¶à¤Ńà¤°à¤®":8448,"à¤¹à¤£à¤ªà¤Ľ":8449,"à¤¹à¤£à¤¦à¤²à¤²":8450,"à¤ĩà¤¬à¤°à¤¯":8451,"à¤Łà¤¨à¤Ĺà¤°à¤¦":8452,"à¤Łà¤¨à¤Ĺà¤°à¤µ":8453,"à¤¨à¤Ńà¤ı":8454,"à¤¨à¤Ńà¤ıà¤°":8455,"Ġà¤ķà¤®à¤²à¤ľ":8456,"à¤ħà¤ªà¤¡":8457,"Ġà¤ĸà¤¬à¤°à¤ªà¤¤":8458,"à¤ģ,'":8459,"Ġà¤ıà¤«à¤µ":8460,"Ġà¤ıà¤«à¤ľ":8461,"à¤ıà¤¨à¤ıà¤ļà¤¸":8462,"Ġà¤ħà¤Łà¤²à¤¬":8463,"Ġà¤ıà¤¡à¤ª":8464,"Ġà¤ıà¤¡à¤µ":8465,"Ġà¤ıà¤¡à¤®à¤¨":8466,"Ġà¤¸à¤°à¤²à¤°":8467,"Ġà¤¸à¤°à¤²à¤²":8468,"à¤¨à¤ħà¤¨à¤µ":8469,"Ġà¤®à¤¦à¤¨à¤°":8470,"à¥ĥà¤Ĥà¤Ĥ":8471,"à¤¤à¤ļà¤°à¤ķ":8472,"à¤¤à¤ļà¤°à¤®":8473,"à¤¤à¤ļà¤°à¤¹à¤°":8474,"Ġà¤°à¤Ĺà¤¤à¤¬":8475,"Ġà¤°à¤Ĺà¤¤à¤ľà¤¸":8476,"Ġ,'":8477,"Ġà¤¡à¤²à¤°à¤¬à¤°":8478,"Ġà¤¨à¤¸à¤¬à¤¨":8479,"à¤¨à¤ľà¤¡":8480,"à¤īà¤ªà¤ľ":8481,"à¤īà¤ªà¤°à¤ķ":8482,"Ġà¥¦à¥Ńà¥¬":8483,"à¤ĸà¤¤à¤¸à¤®":8484,"Ġà¤ªà¤¸à¤²à¤¦":8485,"Ġà¤Ńà¤°à¤¤à¤°":8486,"Ġà¥¨à¥¦à¥©à¥«":8487,"à¤Ļà¤Łà¤¨à¤®":8488,"Ġà¤¡à¤Łà¤ķà¤®à¤²":8489,"Ġà¥§à¥¯à¥«à¥¯":8490,"Ġà¤ħà¤²à¤®à¤¨":8491,"à¤Łà¤²à¤®à¤§":8492,"à¤ħà¤«à¤¸":8493,"à¤ħà¤«à¤Ĺ":8494,"à¤ıà¤ļà¤ıà¤²":8495,"Ġà¤ıà¤ķà¤ªà¤Łà¤ķà¤ķ":8496,"Ġà¤īà¤ªà¤ķà¤°à¤£à¤¬":8497,"Ġà¤īà¤ªà¤ķà¤°à¤£à¤¸à¤¹":8498,"à¤ıà¤¨à¤Ĩà¤°à¤ıà¤¨à¤²":8499,"à¤¨à¤¯à¤¨à¤¸":8500,"à¤ĩà¤°à¤¸à¤¹à¤°":8501,"Ġà¤Ĳà¤¨à¤²à¤Ĺ":8502,"Ġà¤¹à¤¨à¤¨à¤ķ":8503,"Ġà¥ªà¥ªà¥§":8504,"Ġà¤Ķà¤¸à¤¤à¤Ńà¤¨":8505,"Ġà¤¸à¤¦à¤¨à¤¬":8506,"Ġà¤ľà¤Ĺà¤¤à¤²":8507,"à¤Ĩà¤ĩà¤Ĩà¤°":8508,"à¤Ĩà¤ĩà¤ĵà¤ıà¤¸":8509,"à¤Ĩà¤ĩà¤ıà¤¨à¤ľ":8510,"Ġà¥§à¥¯à¥®à¥¨":8511,"à¥§à¥¯à¥«":8512,"à¤īà¤¤à¤²à¤Ĺ":8513,"à¤²à¤ĸà¤¬à¤°":8514,"Ġà¤¬à¤¦à¤ĸ":8515,"Ġà¥§à¥¯à¥¬à¥¨":8516,"Ġà¤ĵà¤®à¤Ńà¤ķ":8517,"à¤¾à¤Ĥà¥Ī,âĢĻ":8518,"Ġà¥§à¥¯à¥ªà¥¨":8519,"à¤¤à¤Ńà¤£":8520,"Ġà¤¯à¤®à¤¨à¤²":8521,"à¤ĺà¤Łà¤¨à¤®":8522,"Ġà¤ľà¤¯à¤ļà¤¨":8523,"à¤¾à¥Īà¤ģâĢĵ":8524,"à¤¨à¤ĸà¤¡":8525,"à¤ĩà¤ĵà¤¹à¤°":8526,"Ġà¤Ĩà¤Ĺà¤®à¤¨à¤¸":8527,"Ġà¤ľà¤¯à¤¨à¤Ĺà¤°":8528,"Ġà¥¯à¥ªà¥©":8529,"Ġà¥§à¥¯à¥Ńà¥Ń":8530,"Ġà¥§à¥¯à¥Ńà¥¨":8531,"à¤Ĳà¤°à¤²":8532,"Ġà¤Ńà¤ĩà¤ıà¤²":8533,"Ġà¤¦à¤¹à¤ļ":8534,"à¤¤à¤ļà¤°à¤¸à¤®":8535,"Ġà¤²à¤Ńà¤ª":8536,"Ġà¤ıà¤¯à¤°à¤¬à¤¸à¤®":8537,"Ġà¤ıà¤¯à¤°à¤¬à¤¸à¤¸":8538,"à¤µà¤Ĺà¤¨à¤ķ":8539,"à¤§à¤¸à¤¤à¤ķ":8540,"Ġà¤²à¤¸à¤ıà¤ŀ":8541,"Ġà¤¹à¤Ļà¤ķà¤Ļà¤¸à¤®à¤ķ":8542,"à¤¿!âĢĻ":8543,"Ġà¤®à¤¸à¤²à¤¨":8544,"Ġà¤ªà¤¤à¤¨à¤¸":8545,"à¤®à¤ĸà¤¡":8546,"à¤ıà¤®à¤ıà¤¸à¤²":8547,"à¤¡à¤°à¤¸à¤¨":8548,"à¤¡à¤°à¤¸à¤Łà¤ķ":8549,"à¤¡à¤°à¤¸à¤Łà¤¸":8550,"Ġà¤Ŀà¤¡à¤ªà¤¹à¤°":8551,"Ġà¤ıà¤«à¤ıà¤®à¤¹à¤°":8552,"à¤¼à¤¾":8553,"à¤¼à¤¿":8554,"Ġà¤Ĩà¤¯à¤ķà¤°à¤®":8555,"Ġà¤Ĩà¤¯à¤ķà¤°à¤¬":8556,"à¤®à¤«à¤²à¤ķ":8557,"à¤¸à¤¡à¤ķà¤¸":8558,"Ġà¤Ĩà¤¬à¤¶":8559,"Ġà¤¶à¤°à¤¦à¤²":8560,"Ġà¤µà¤¹à¤¸à¤ķ":8561,"Ġà¤¡à¤Łà¤ķà¤®à¤®":8562,"à¤ľà¤¯à¤¨à¤Ĺà¤°":8563,"à¤ļà¤¡à¤Ĺ":8564,"Ġà¤ıà¤¸à¤ĩà¤ĩà¤®":8565,"Ġà¤ľà¤²à¤®à¤Ĺ":8566,"à¤ķà¤ħà¤ªà¤²":8567,"à¤®à¤¦à¤¨à¤¦":8568,"Ġà¤Ĩà¤ĩà¤°à¤¨à¤ķ":8569,"à¤°à¤ªà¤Łà¤ķà¤¸à¤®":8570,"Ġà¤ĺà¤°à¤ªà¤Ŀ":8571,"à¤°à¤¡à¤®à¤²":8572,"Ġà¤¤ÅĴà¤µà¤¹à¤°":8573,"Ġà¤¬à¤ĸà¤¤à¤ķ":8574,"Ġà¤¹à¤¬à¤¸à¤®":8575,"à¤°à¤µà¤£à¤¶à¤ķ":8576,"ort":8577,"Ġwar":8578,"à¤¾!âĢĻ":8579,"à¤¯à¤°à¤¸à¤ª":8580,"Ġà¤Ĺà¤ľà¤²à¤¸à¤Ļ":8581,"à¤¸à¤¡à¤ķà¤ķ":8582,"Ġà¤°à¤£à¤Ń":8583,"à¤Ĩà¤°à¤ıà¤«à¤Ĩà¤ĩà¤¡":8584,"ing":8585,"Ġà¤²à¤ĸà¤¨à¤īà¤¬":8586,"à¥¦à¥¬à¥Ń":8587,"à¥ªà¥¬à¥§":8588,"Ġà¥¨à¥ªà¥¦à¥§":8589,"Ġà¤ĵà¤ĸà¤°à¤¬":8590,"à¤¨à¤ªà¤Łà¤ķà¤¸à¤®":8591,"Ġà¤ıà¤¡à¤®à¤£":8592,"ĠAuJ":8593,"Ġà¤«à¤²à¤ķà¤¨":8594,"à¤¯à¤¤à¤¹à¤ħà¤§":8595,"à¤®à¤¨à¤Ĺà¤°à¤¸":8596,"Ġà¤ıà¤¨à¤Ĩà¤ıà¤°à¤ıà¤¨":8597,"à¥įâĢĿ,":8598,"Ġà¥§à¥¨à¥©à¥ªà¥«à¥¬":8599,"à¤¾à¥ĪâĢĮ,âĢĻ":8600,"à¤ªà¤ķà¤®à¤²à¤ķ":8601,"Ġà¤ķà¤¹à¤°à¤¬":8602,"Ġà¤ķà¤¹à¤°à¤¹à¤°":8603,"Ġà¤¬à¤¬à¤°à¤®à¤¹à¤²à¤¸":8604,"Ġà¤Ĩà¤²à¤®à¤¬":8605,"Ġà¤Ĩà¤ĩà¤ıà¤²à¤ĵà¤ķ":8606,"Ġà¤ıà¤«à¤ıà¤ı":8607,"Ġà¤Ĩà¤°à¤ıà¤¸à¤ıà¤¸":8608,"Ġà¤ıà¤®à¤ĵà¤¯":8609,"Ġà¤ıà¤¸à¤ıà¤®à¤ıà¤¸à¤®":8610,"Ġà¤ıà¤¸à¤ıà¤®à¤ıà¤¸à¤ķ":8611,"Ġto":8612,"à¤®à¤ıà¤ķà¤µ":8613,"India":8614,"ect":8615,"à¤¿âĢºà¥ĭ":8616,"Ġà¤ıà¤Ĩà¤°à¤ıà¤¨":8617,"Ġ12345":8618,"bassy":8619,"embassy":8620,"gmail":8621,"Ġà¤Ĩà¤ĵà¤ĩ":8622,"Ġà¤ľà¤®à¤ķà¤Ł":8623,"Ġà¤¡à¤Ĺà¤®à¤Ĺ":8624,"Ġà¤ĩà¤ĵà¤Ĩà¤Ī":8625,"Ġà¤Ĩà¤ĩà¤ıà¤ĩà¤ıà¤²":8626,"Ġ1234567":8627,"!'":8628,")\"":8629,",,":8630,",âĢĵ":8631,".)":8632,"//":8633,"20":8634,"500":8635,"://":8636,"?,":8637,"?',":8638,"Def":8639,"MS":8640,"Mo":8641,"Pl":8642,"et":8643,"ex":8644,"ear":8645,"ge":8646,"ic":8647,"ive":8648,"li":8649,"lect":8650,"mà¤°":8651,"mà¤¦":8652,"mà¤²à¤ķ":8653,"more":8654,"no":8655,"nt":8656,"ol":8657,"pass":8658,"port":8659,"ration":8660,"tp":8661,"ttp":8662,"ur":8663,"vis":8664,"year":8665,"ºà¥ģ":8666,"ÃĴ":8667,"Ġ#":8668,"Ġ$":8669,"Ġ*":8670,"Ġ;":8671,"ĠF":8672,"ĠH":8673,"Ġà¥į":8674,"Ġà¥Ī":8675,"ĠÃ·":8676,"Ġon":8677,"Ġat":8678,"Ġst":8679,"Ġex":8680,"Ġvis":8681,"Ġyear":8682,"Ġà¤¾":8683,"à¤¾âĢį":8684,"à¥įà¥į,":8685,"à¥į),":8686,"à¥įà¥Įà¤Ĥà¤Ĥ":8687,"à¤°à¤°à¤ķ":8688,"à¤°à¤īà¤¨":8689,"à¤°à¤°à¤£":8690,"à¤°à¤¯à¤²":8691,"à¤°à¤Łà¤°":8692,"à¤°à¤ªà¤²":8693,"à¤°à¤ĩà¤²":8694,"à¤°à¤¥à¤ķ":8695,"à¤°à¤ħà¤ª":8696,"à¤°à¤īà¤¡":8697,"à¤°à¤Ĺà¤®à¤¨à¤®":8698,"à¤°à¤ıà¤¨à¤ıà¤®":8699,"à¤°à¤ıà¤¨à¤ıà¤²":8700,"à¤¨à¤·":8701,"à¤¨à¤¨à¤®":8702,"à¤¨à¤ĺ":8703,"à¤¨à¤ħ":8704,"à¤¨à¤Łà¤ķ":8705,"à¤¨à¤µà¤®":8706,"à¤¨à¤¦à¤°":8707,"à¤¨à¤ľà¤®":8708,"à¤¨à¤¯à¤ª":8709,"à¤¨à¤Ĺà¤¨":8710,"à¤¨à¤¡à¤¬":8711,"à¤¨à¤ľà¤¤":8712,"à¤¨à¤¥à¤°":8713,"à¤¨à¤ħà¤§":8714,"à¤¨à¤°à¤²à¤Ĺ":8715,"à¤¨à¤Ĩà¤¤":8716,"à¤¨à¤Ĩà¤ıà¤ķ":8717,"à¤¨à¤ĵà¤ķ":8718,"à¤¨à¤Īà¤¬":8719,"à¤¨à¤¶à¤®à¤¶":8720,"à¤¨à¤ĺà¤£":8721,"à¤¨à¤Ĩà¤¨à¤¨":8722,"à¤¿:":8723,"à¤ķà¤ªà¤°":8724,"à¤ķà¤°à¤¹":8725,"à¤ķà¤Ŀ":8726,"à¤ķà¤¬à¤¨":8727,"à¤ķà¤ļà¤¨":8728,"à¤ķà¤ªà¤ķ":8729,"à¤ķà¤¨à¤¸":8730,"à¤ķà¤¦à¤²":8731,"à¤ķà¤¦à¤®":8732,"à¤ķà¤·à¤£à¤ķ":8733,"à¤ķà¤ħà¤«":8734,"à¤ķà¤¸à¤¨à¤ľ":8735,"à¥ĩ(":8736,"à¥ĩà¥ģ":8737,"à¥ĩà¥ĩ,":8738,"à¥ĩ',":8739,"à¥ĭ:":8740,"à¥ĭà¤¾":8741,"à¥ĭà¥į":8742,"à¥ĭà¥įà¥¤":8743,"à¥ĭâĢĺ":8744,"à¤²à¤·":8745,"à¤²à¤Ľ":8746,"à¤²à¤²à¤ķ":8747,"à¤²à¤ªà¤¨":8748,"à¤²à¤°à¤¦":8749,"à¤²à¤¸à¤¨":8750,"à¤²à¤°à¤¬":8751,"à¤²à¤ªà¤ķ":8752,"à¤²à¤Łà¤®":8753,"à¤²à¤Ńà¤ķ":8754,"à¤²à¤ħà¤§":8755,"à¤²à¤ħà¤ª":8756,"à¤²à¤ħà¤Ń":8757,"à¤²à¤ħà¤Ĺ":8758,"à¤®à¤¢":8759,"à¤®à¤¯à¤¤":8760,"à¤®à¤Łà¤ķ":8761,"à¤®à¤°à¤¬":8762,"à¤®à¤¦à¤ķ":8763,"à¤®à¤µà¤¤":8764,"à¤®à¤ľà¤¦":8765,"à¤®à¤ĺà¤°":8766,"à¤®à¤ľà¤¤":8767,"à¤®à¤¥à¤°":8768,"à¤®à¤µà¤¹":8769,"à¤®à¤ľà¤¨à¤²":8770,"à¤®à¤ıà¤ķà¤¤":8771,"à¤®à¤ħà¤µà¤¤":8772,"à¤¤à¤ıà¤ķ":8773,"à¤¤à¤Ŀ":8774,"à¤¤à¤ļà¤¨":8775,"à¤¤à¤µà¤ķ":8776,"à¤¤à¤¯à¤¹":8777,"à¤¤à¤ħà¤ĺ":8778,"à¤¤à¤µà¤°à¤£":8779,"à¤¤à¤ħà¤§":8780,"à¤¤à¤Ĺà¤£":8781,"à¤¤à¤ľà¤¨à¤¤":8782,"à¤¤à¤µà¤°à¤¬":8783,"à¤¯à¤«":8784,"à¤¯à¤¯à¤¸":8785,"à¤¯à¤¯à¤²":8786,"à¤¯à¤¡à¤ķ":8787,"à¤¯à¤µà¤®":8788,"à¤¯à¤Ńà¤°":8789,"à¤¯à¤Łà¤²":8790,"à¤¯à¤Ĩà¤°":8791,"à¤¯à¤ľà¤²":8792,"à¤¯à¤ħà¤Ń":8793,"à¤¯à¤°à¤¸à¤¹":8794,"à¤¯à¤µà¤®à¤¹":8795,"à¤¯à¤ħà¤µà¤¸":8796,"à¥ģ(":8797,"à¥ģà¥Ĥ":8798,"à¥ģâĢĿ,":8799,"à¥ģ?âĢĻ":8800,"à¥Ģ!":8801,"à¥Ģà¤¿":8802,"à¥ĢâĢĺ":8803,"à¥ĢâĢľ":8804,"à¥ĢâĢĿ,":8805,"à¥Ģ?âĢĻ":8806,"à¤¸à¤ıà¤ķ":8807,"à¤¸à¤£":8808,"à¤¸à¤¯à¤®":8809,"à¤¸à¤°à¤¦":8810,"à¤¸à¤°à¤µ":8811,"à¤¸à¤Łà¤ķ":8812,"à¤¸à¤Łà¤¨":8813,"à¤¸à¤Łà¤°":8814,"à¤¸à¤¦à¤¨":8815,"à¤¸à¤¹à¤¨":8816,"à¤¸à¤ħà¤ĺ":8817,"à¤¸à¤ļà¤ķ":8818,"à¤¸à¤¥à¤²":8819,"à¤¸à¤ıà¤²":8820,"à¤¸à¤¯à¤¬":8821,"à¤¸à¤ļà¤°":8822,"à¤¸à¤¡à¤¬":8823,"à¤¸à¤°à¤¸à¤°":8824,"à¤¸à¤ĩà¤«":8825,"à¤¸à¤°à¤¸à¤¹":8826,"à¤¸à¤ıà¤²à¤ķ":8827,"à¤¸à¤ĵà¤°":8828,"Ġà¤¸à¤¥":8829,"Ġà¤¸à¤µà¤¸":8830,"Ġà¤¸à¤ªà¤®":8831,"Ġà¤¸à¤¤à¤ķ":8832,"Ġà¤¸à¤¸à¤¨":8833,"Ġà¤¸à¤ĩà¤¦":8834,"Ġà¤¸à¤¯à¤®à¤ķ":8835,"Ġà¤ªà¤§":8836,"Ġà¤ªà¤ıà¤¨":8837,"Ġà¤ªà¤Ĺà¤²":8838,"Ġà¤ªà¤¯à¤°":8839,"Ġà¤ªà¤²à¤ª":8840,"Ġà¤ªà¤īà¤²":8841,"Ġà¤ªà¤µà¤¨à¤ķ":8842,"à¤ªà¤ł":8843,"à¤ªà¤ļà¤¨":8844,"à¤ªà¤ľà¤ķ":8845,"à¤ªà¤¦à¤°":8846,"à¤ªà¤ľà¤²":8847,"à¤ªà¤¸à¤¸":8848,"à¤¦à¤Ł":8849,"à¤¦à¤ļ":8850,"à¤¦à¤ªà¤¨":8851,"à¤¦à¤¯à¤¤":8852,"à¤¦à¤¤à¤²":8853,"à¤¦à¤µà¤ª":8854,"à¤¦à¤¸à¤Ń":8855,"à¤¦à¤¬à¤¦":8856,"à¤¦à¤¯à¤¹à¤°":8857,"à¤¦à¤¯à¤¬":8858,"à¤¦à¤¯à¤¦":8859,"à¤¦à¤¬à¤ķ":8860,"à¤¦à¤¸à¤¤":8861,"à¤¦à¤¯à¤¶":8862,"à¤¦à¤°à¤¬à¤ľ":8863,"à¤¹à¤Ļ":8864,"à¤¹à¤ªà¤¨":8865,"à¤¹à¤®à¤ķ":8866,"à¤¹à¤²à¤²":8867,"à¤¹à¤ªà¤ķ":8868,"à¤¹à¤¨à¤¸":8869,"à¤¹à¤Łà¤²":8870,"à¤¹à¤¬à¤²":8871,"à¤¹à¤¬à¤¦":8872,"à¤¹à¤¸à¤¸":8873,"à¤¹à¤£à¤¸":8874,"à¤¹à¤¸à¤ª":8875,"à¤¹à¤¬à¤®":8876,"à¤¹à¤¦à¤¤":8877,"à¤¹à¤ªà¤¶":8878,"à¤¹à¤¡à¤¤":8879,"à¤¹à¤ķà¤®à¤§":8880,"à¤¹à¤ħà¤µà¤°":8881,"à¤µà¤ªà¤¨":8882,"à¤µà¤²à¤¬":8883,"à¤µà¤¦à¤°":8884,"à¤µà¤µà¤ª":8885,"à¤µà¤ĩà¤²":8886,"à¤µà¤¦à¤ķ":8887,"à¤µà¤¯à¤ķà¤°":8888,"à¤µà¤§à¤¨à¤ķ":8889,"à¤µà¤ļà¤°":8890,"à¤µà¤¶à¤¸":8891,"à¤µà¤ĸà¤¤":8892,"à¤µà¤°à¤¸à¤¹":8893,"à¤µà¤¶à¤®à¤¶":8894,"à¤µà¤Ĭà¤°":8895,"Ġà¤ķà¤ªà¤°":8896,"Ġà¤ķà¤¤à¤°":8897,"Ġà¤ķà¤Łà¤ķ":8898,"Ġà¤ķà¤Łà¤°":8899,"Ġà¤ķà¤µà¤²":8900,"Ġà¤ķà¤¹à¤¨":8901,"Ġà¤ķà¤ķà¤¨":8902,"Ġà¤ķà¤¥à¤®":8903,"Ġà¤ķà¤ªà¤²":8904,"Ġà¤ķà¤¬à¤²":8905,"Ġà¤ķà¤£à¤ķ":8906,"Ġà¤ķà¤ķà¤Ł":8907,"Ġà¤ķà¤£à¤®":8908,"Ġà¤ķà¤Ńà¤°à¤ª":8909,"Ġà¤Ĺà¤µ":8910,"Ġà¤Ĺà¤Ł":8911,"Ġà¤Ĺà¤Ļ":8912,"Ġà¤Ĺà¤ŀ":8913,"Ġà¤Ĺà¤Ĺà¤°":8914,"Ġà¤Ĺà¤¤à¤ķ":8915,"Ġà¤Ĺà¤«à¤²":8916,"Ġà¤Ĺà¤£à¤ķ":8917,"Ġà¤Ĺà¤¹à¤¤":8918,"Ġà¤Ĺà¤ıà¤²à¤Ĺà¤¤":8919,"Ġà¤Ĺà¤Ĺà¤¨à¤²":8920,"Ġà¤Ĺà¤Ńà¤¨à¤°":8921,"à¤Ĺà¤°à¤¤":8922,"à¤Ĺà¤°à¤¹":8923,"à¤Ĺà¤ªà¤¨":8924,"à¤Ĺà¤µà¤°":8925,"à¤Ĺà¤¨à¤°":8926,"à¤Ĺà¤¡à¤®":8927,"à¤Ĺà¤¨à¤¬":8928,"à¤Ĺà¤ľà¤²":8929,"à¤Ĺà¤¨à¤¸à¤®":8930,"à¤Ĺà¤£à¤¤":8931,"à¤Ĺà¤£à¤²":8932,"à¤Ĺà¤²à¤ķà¤²":8933,"à¤Ĺà¤¨à¤¸à¤¹":8934,"à¤Ĺà¤°à¤¤à¤°":8935,"à¤Ĺà¤¨à¤²à¤Ĺ":8936,"à¥Ī!":8937,"à¥ĪâĢĻ,":8938,"à¥ĪÃ·":8939,"à¥ĪâĢĶ":8940,"Ġà¤°à¤Ĺ":8941,"Ġà¤°à¤Ľ":8942,"Ġà¤°à¤ªà¤®":8943,"Ġà¤°à¤¡à¤ķ":8944,"Ġà¤°à¤®à¤²":8945,"Ġà¤°à¤ķà¤¸":8946,"Ġà¤°à¤¬à¤°à¤ķ":8947,"Ġà¤¨à¤²à¤®":8948,"Ġà¤¨à¤¤à¤°":8949,"Ġà¤¨à¤Ŀ":8950,"Ġà¤¨à¤°à¤Ń":8951,"Ġà¤¨à¤¬à¤°":8952,"Ġà¤¨à¤Ĺà¤®":8953,"Ġà¤¨à¤°à¤¨":8954,"Ġà¤¨à¤ĸà¤°":8955,"Ġà¤¨à¤¬à¤²":8956,"Ġà¤¨à¤ľà¤®":8957,"Ġà¤¨à¤ķà¤¸":8958,"Ġà¤¨à¤µà¤µ":8959,"Ġà¤¨à¤µà¤¦":8960,"Ġà¤¨à¤īà¤¦":8961,"Ġà¤¨à¤īà¤²":8962,"Ġà¤¨à¤ħà¤²":8963,"Ġà¤¨à¤«à¤¸":8964,"Ġà¤¨à¤ħà¤¡":8965,"Ġà¤¨à¤°à¤µà¤¹":8966,"à¤Łà¤¶":8967,"à¤Łà¤Ľ":8968,"à¤Łà¤¤à¤°":8969,"à¤Łà¤ħ":8970,"à¤Łà¤ªà¤¤":8971,"à¤Łà¤°à¤µ":8972,"à¤Łà¤¤à¤®":8973,"à¤Łà¤ħà¤ĺ":8974,"à¤Łà¤ľà¤®":8975,"à¤Łà¤¸à¤¬":8976,"à¤Łà¤Ńà¤¯":8977,"à¤Łà¤µà¤Ł":8978,"à¤Łà¤ıà¤«":8979,"à¤ıà¤°à¤ķ":8980,"à¤ıà¤īà¤¨":8981,"à¤ıà¤°à¤¸":8982,"à¤ıà¤¶à¤¨":8983,"à¤ıà¤ĩà¤²":8984,"à¤ıà¤¡à¤¬":8985,"à¤ıà¤¶à¤¨à¤ķ":8986,"à¤ıà¤ıà¤¨à¤ı":8987,"à¤ıà¤¯à¤°à¤ķ":8988,"à¤ıà¤ıà¤¨à¤ıà¤²":8989,"Ġà¤Ńà¤¡à¤ķ":8990,"Ġà¤Ńà¤°à¤¤à¤ķ":8991,"Ġà¤Ńà¤ľà¤¨à¤ķ":8992,"Ġà¤Ńà¤ĩà¤¨à¤¨":8993,"Ġà¤ħà¤²à¤ķ":8994,"Ġà¤ħà¤¤à¤°":8995,"Ġà¤ħà¤²à¤¬":8996,"Ġà¤ħà¤ªà¤ķ":8997,"Ġà¤ħà¤Ĺà¤²":8998,"Ġà¤ħà¤ľà¤µ":8999,"Ġà¤ħà¤¥à¤°":9000,"Ġà¤ħà¤Ļà¤¸":9001,"Ġà¤¬à¤¨à¤²":9002,"Ġà¤¬à¤¨à¤®":9003,"Ġà¤¬à¤°à¤¹":9004,"Ġà¤¬à¤µà¤¨":9005,"Ġà¤¬à¤ķà¤¸":9006,"Ġà¤¬à¤Ļà¤²":9007,"Ġà¤¬à¤Ĺà¤¦":9008,"Ġà¤¬à¤ĩà¤ľ":9009,"Ġà¤¬à¤Ĺà¤°à¤ķ":9010,"Ġà¤¬à¤¦à¤Ĺ":9011,"Ġà¤¬à¤¬à¤Īà¤²":9012,"Ġà¤¬à¤¯à¤²à¤Ĺ":9013,"Ġà¤¹à¤«":9014,"Ġà¤¹à¤°à¤¤":9015,"Ġà¤¹à¤°à¤µ":9016,"Ġà¤¹à¤µà¤ķ":9017,"Ġà¤¹à¤¥à¤ķ":9018,"Ġà¤¹à¤ķà¤¹à¤°":9019,"Ġà¤¹à¤¦à¤¬":9020,"Ġà¤¹à¤°à¤¹à¤®":9021,"Ġà¤¹à¤¡à¤¬à¤¡":9022,"Ġà¤®à¤Ī":9023,"Ġà¤®à¤°à¤ķ":9024,"Ġà¤®à¤ªà¤Ľ":9025,"Ġà¤®à¤¯à¤²":9026,"Ġà¤®à¤°à¤¬":9027,"Ġà¤®à¤¸à¤°":9028,"Ġà¤®à¤ľà¤ķ":9029,"Ġà¤®à¤¦à¤°":9030,"Ġà¤®à¤ķà¤¨":9031,"Ġà¤®à¤°à¤£à¤²":9032,"Ġà¤®à¤ĸà¤¨":9033,"Ġà¤®à¤¯à¤²à¤²":9034,"Ġà¤Ĺà¤°à¤ļ":9035,"à¤ľà¤ľ":9036,"à¤ľà¤ĸ":9037,"à¤ľà¤ľà¤¨":9038,"à¤ľà¤Ĺà¤¤":9039,"à¤ľà¤²à¤¬":9040,"à¤ľà¤¤à¤®":9041,"à¤ľà¤Ĺà¤²":9042,"à¤ľà¤ļà¤²":9043,"à¤ľà¤Ńà¤ķ":9044,"à¤ľà¤ĸà¤¬à¤°":9045,"Ġà¤µà¤¦":9046,"Ġà¤µà¤·":9047,"Ġà¤µà¤ļà¤¨à¤®":9048,"Ġà¤µà¤Ĺà¤¨":9049,"Ġà¤µà¤¹à¤¸":9050,"Ġà¤µà¤²à¤Ń":9051,"Ġà¤µà¤ļà¤¨à¤²":9052,"Ġà¤µà¤ļà¤¨à¤¬":9053,"à¤¬à¤ĸ":9054,"à¤¬à¤°à¤¸":9055,"à¤¬à¤¸à¤¨":9056,"à¤¬à¤²à¤¨":9057,"à¤¬à¤ķà¤ķ":9058,"à¤¬à¤®à¤¨":9059,"à¤¬à¤°à¤Ń":9060,"à¤¬à¤ľà¤¸":9061,"à¤¬à¤¬à¤°":9062,"à¤¬à¤²à¤¤":9063,"à¤¬à¤¦à¤²":9064,"à¤¬à¤ĩà¤ķ":9065,"à¤¬à¤¹à¤¤":9066,"à¤¬à¤Ĺà¤°à¤ķ":9067,"à¤¬à¤Ĺà¤°à¤²":9068,"à¤·à¤¨":9069,"à¤·à¤ĸ":9070,"à¤·à¤°à¤£":9071,"à¤·à¤ªà¤ķ":9072,"à¤·à¤¤à¤®":9073,"à¤·à¤®à¤®":9074,"à¤·à¤¯à¤¹":9075,"à¤·à¤µà¤¦":9076,"à¤§à¤¹":9077,"à¤§à¤Ĺà¤°":9078,"à¤§à¤µà¤°":9079,"à¤§à¤Ńà¤¨":9080,"à¤§à¤ľà¤¸":9081,"à¤§à¤¸à¤Ń":9082,"à¤§à¤¬à¤¹":9083,"à¤§à¤¹à¤¸":9084,"à¤§à¤°à¤£à¤¸à¤Ń":9085,"à¤§à¤ķà¤®à¤§":9086,"Ġà¤Ľà¤Ńà¤¨":9087,"Ġà¤Ľà¤łà¤ķ":9088,"Ġà¤Ľà¤ļà¤²":9089,"Ġà¤¤à¤Ľ":9090,"Ġà¤¤à¤¹à¤°":9091,"Ġà¤¤à¤°à¤¹":9092,"Ġà¤¤à¤Łà¤¬":9093,"Ġà¤¤à¤µà¤°à¤ķ":9094,"à¤ģ'":9095,"à¤ģ-":9096,"à¤ģâĢĿ":9097,"à¤ģà¥ĩâĢĵ":9098,"Ġà¤¦à¤¨à¤ķ":9099,"Ġà¤¦à¤¶à¤²":9100,"Ġà¤¦à¤¹à¤®":9101,"Ġà¤¦à¤¸à¤ķà¤ķ":9102,"à¤ıà¤ķà¤ķ":9103,"à¤ıà¤ķà¤¦":9104,"à¤ıà¤ķà¤¦à¤®":9105,"à¤ıà¤ķà¤µà¤Ł":9106,"à¤¥à¤°à¤ķ":9107,"à¤¥à¤ªà¤¨":9108,"à¤¥à¤ķà¤®":9109,"à¤¥à¤µà¤°":9110,"à¤¥à¤Ĺà¤¤":9111,"à¤¥à¤°à¤¬":9112,"à¤¥à¤ľà¤¸":9113,"à¤¥à¤¬à¤¹":9114,"à¤¥à¤¨à¤¸à¤®":9115,"à¤¥à¤Łà¤¬":9116,"à¤¥à¤¬à¤¸":9117,"à¤¥à¤ĸà¤¨":9118,"à¤¥à¤²à¤²à¤Ĺ":9119,"Ġà¥¤\"":9120,"Ġà¥¤à¥¤":9121,"Ġà¥¤...":9122,"à¤¶à¤¶":9123,"à¤¶à¤ªà¤°":9124,"à¤¶à¤ľà¤¨":9125,"à¤¶à¤²à¤ķ":9126,"à¤¶à¤²à¤²":9127,"à¤¶à¤µà¤°":9128,"à¤¶à¤¯à¤µ":9129,"à¤¶à¤£à¤ķ":9130,"à¤¶à¤¸à¤ļ":9131,"à¤¶à¤°à¤¬à¤¹":9132,"à¤¶à¤¦à¤¤":9133,"à¤¶à¤ªà¤¶":9134,"à¤Ĥ?":9135,"à¤Ĥà¤¿":9136,"à¤ĤâĢĵ":9137,"Ġà¤Ĩà¤¨à¤ķ":9138,"Ġà¤Ĩà¤ľà¤¨":9139,"Ġà¤Ĩà¤¢":9140,"Ġà¤Ĩà¤ŀ":9141,"Ġà¤Ĩà¤¸à¤°":9142,"Ġà¤Ĩà¤Ļà¤²":9143,"Ġà¤Ĩà¤°à¤£à¤ķ":9144,"Ġà¤Ĩà¤Ķ":9145,"Ġà¤Ĩà¤Ļà¤¸":9146,"Ġà¤Ĩà¤ķà¤²à¤¨à¤®":9147,"Ġà¤Ĩà¤Ĺà¤¤à¤¬":9148,"Ġà¤ľà¤ŀ":9149,"Ġà¤ľà¤¯à¤¤":9150,"Ġà¤ľà¤°à¤µ":9151,"Ġà¤ľà¤¯à¤²":9152,"Ġà¤ľà¤®à¤¨":9153,"Ġà¤ľà¤²à¤¯":9154,"Ġà¤ľà¤Ĺà¤²":9155,"Ġà¤ľà¤¯à¤¬":9156,"Ġà¤ľà¤²à¤¸à¤®":9157,"Ġà¤ľà¤ķà¤¡":9158,"Ġà¤ľà¤¯à¤ķà¤²":9159,"Ġà¤ľà¤²à¤ķà¤¨":9160,"à¤Ľà¤¯":9161,"à¤Ľà¤Ł":9162,"à¤Ľà¤°à¤¤":9163,"à¤Ľà¤¸à¤®":9164,"à¤Ľà¤Ļ":9165,"à¤Ľà¤®à¤²":9166,"à¤£à¤¶":9167,"à¤£à¤°à¤®":9168,"à¤£à¤ľà¤¨":9169,"à¤£à¤¨à¤®":9170,"à¤£à¤¯à¤¤":9171,"à¤£à¤µà¤°":9172,"à¤£à¤®à¤§":9173,"à¤£à¤ļà¤°":9174,"à¤£à¤µà¤¹":9175,"à¤£à¤Ĺà¤£":9176,"Ġà¤²à¤¤à¤ķ":9177,"Ġà¤²à¤ķà¤ķ":9178,"Ġà¤²à¤Łà¤®":9179,"Ġà¤²à¤Ńà¤ķ":9180,"Ġà¤²à¤Ńà¤°à¤ª":9181,"Ġà¤²à¤Ļà¤µ":9182,"Ġà¤²à¤²à¤®à¤¨":9183,"à¤ļà¤§":9184,"à¤ļà¤ªà¤°":9185,"à¤ļà¤°à¤¦":9186,"à¤ļà¤ķà¤°":9187,"à¤ļà¤Łà¤®":9188,"à¤ļà¤¬à¤°":9189,"à¤ļà¤²à¤Ĺ":9190,"à¤ļà¤ıà¤¸":9191,"à¤ļà¤ªà¤Łà¤ķ":9192,"à¤ļà¤Ńà¤ıà¤ķ":9193,"à¤ļà¤¯à¤¬":9194,"à¤ļà¤Ķ":9195,"à¤ļà¤°à¤¸à¤¹":9196,"à¤ļà¤ĺà¤°à¤ķ":9197,"à¤ļà¤°à¤²à¤Ĺ":9198,"à¤Īà¤ı":9199,"à¤Īà¤²à¤ķ":9200,"à¤Īà¤¨à¤¨":9201,"à¤Īà¤ħà¤¨":9202,"à¤Īà¤Ńà¤°":9203,"à¤Īà¤ıà¤¸":9204,"à¤Īà¤§à¤°":9205,"à¤Īà¤°à¤¹à¤¨":9206,"à¤Īà¤ħà¤®":9207,"à¤Īà¤ľà¤¨à¤¤":9208,"à¤Īà¤Ĩà¤¤":9209,"à¤Īà¤Ńà¤¸":9210,"à¤Īà¤ĩà¤ļ":9211,"à¤Īà¤¨à¤²à¤®":9212,"à¤Īà¤Ńà¤°à¤²":9213,"à¥Ĥ.":9214,"à¥Ĥà¤¿":9215,"à¥Ĥà¥ģ":9216,"à¥Ĥà¤ĥ":9217,"à¥ĤâĢĻ,":9218,"à¥Ĥà¤ģà¥¤":9219,"Ġà¤īà¤¤à¤°":9220,"Ġà¤īà¤¡à¤²":9221,"Ġà¤īà¤¸à¤¸":9222,"Ġà¤īà¤Łà¤ªà¤Ł":9223,"à¤¡à¤Ľ":9224,"à¤¡à¤£":9225,"à¤¡à¤ķà¤°":9226,"à¤¡à¤ªà¤ķ":9227,"à¤¡à¤®à¤®":9228,"à¤¡à¤µà¤¯":9229,"à¤¡à¤¨à¤¬":9230,"à¤¡à¤Ĩà¤°":9231,"à¤¡à¤ľà¤¤":9232,"à¤¡à¤¯à¤¨à¤ķ":9233,"à¤Ńà¤¶":9234,"à¤Ńà¤Ń":9235,"à¤Ńà¤¨à¤ķ":9236,"à¤Ńà¤¯à¤¤":9237,"à¤Ńà¤°à¤¬":9238,"à¤Ńà¤¸à¤°":9239,"à¤Ńà¤ĩà¤¸à¤ķ":9240,"à¤Ńà¤¸à¤¹":9241,"à¤īà¤²à¤²":9242,"à¤īà¤¸à¤°":9243,"à¤īà¤ľà¤¸":9244,"à¤īà¤¸à¤¬":9245,"à¤īà¤¡à¤²":9246,"à¤īà¤§à¤¨à¤ķ":9247,"à¤īà¤¬à¤¸":9248,"à¤īà¤ªà¤¶":9249,"à¤īà¤Ĩà¤®":9250,"à¤īà¤¤à¤¹à¤¸à¤®":9251,"à¤ĸà¤Ł":9252,"à¤ĸà¤ıà¤ķ":9253,"à¤ĸà¤¶":9254,"à¤ĸà¤°à¤£":9255,"à¤ĸà¤ľà¤¨":9256,"à¤ĸà¤ĺ":9257,"à¤ĸà¤¯à¤¤":9258,"à¤ĸà¤¬à¤¨":9259,"à¤ĸà¤¨à¤¬":9260,"à¤ĸà¤¸à¤®à¤ķ":9261,"à¤ĸà¤°à¤¤à¤°":9262,"Ġà¤¯à¤®à¤ķ":9263,"Ġà¤¯à¤¶à¤ķ":9264,"Ġà¤¯à¤¤à¤¨":9265,"Ġà¤¯à¤®à¤°":9266,"Ġà¤¯à¤¶à¤°":9267,"âĢ¨":9268,"Ġà¤¸à¤®à¤Ŀ":9269,"Ġà¤¸à¤®à¤µà¤¨":9270,"Ġà¤¸à¤®à¤¤à¤²":9271,"Ġà¤¸à¤®à¤¯à¤¤à¤°":9272,"à¤ĩà¤§":9273,"à¤ĩà¤¶":9274,"à¤ĩà¤ĸ":9275,"à¤ĩà¤ł":9276,"à¤ĩà¤®à¤ķ":9277,"à¤ĩà¤Ĩ":9278,"à¤ĩà¤°à¤¯":9279,"à¤ĩà¤¸à¤°":9280,"à¤ĩà¤ľà¤²":9281,"à¤ĩà¤ıà¤¸":9282,"à¤ĩà¤®à¤¬":9283,"à¤ĩà¤Ńà¤®":9284,"à¤ĩà¤ħà¤²":9285,"à¤ĩà¤Ļà¤¬":9286,"à¤ĩà¤ĵà¤²":9287,"à¤ĩà¤ħà¤ķ":9288,"à¤ĩà¤Ĩà¤ĩà¤ı":9289,"à¤°à¤ķà¤¹":9290,"à¤°à¤ķà¤Ńà¤¨":9291,"à¤°à¤ķà¤®à¤§":9292,"Ġà¤Ńà¤¨à¤¨":9293,"à¤¹à¤°à¤¨":9294,"à¤¹à¤°à¤¦":9295,"à¤°à¤®à¤ĸ":9296,"à¤°à¤®à¤°à¤ª":9297,"à¤°à¤®à¤¬à¤¦":9298,"à¤°à¤®à¤¬à¤ľ":9299,"Ġà¤ļà¤¸à¤ķ":9300,"Ġà¤ļà¤ķà¤®":9301,"Ġà¤ļà¤Łà¤¨":9302,"Ġà¤ļà¤®à¤ļ":9303,"Ġà¤ļà¤¨à¤®à¤¤":9304,"à¤«à¤ļ":9305,"à¤«à¤¤à¤°":9306,"à¤«à¤°à¤¸":9307,"à¤«à¤ħà¤²":9308,"Ġà¤¥à¤¯":9309,"Ġà¤¥à¤ļà¤ķ":9310,"à¤īà¤¨à¤°":9311,"à¤īà¤¨à¤¹à¤²à¤®":9312,"à¥ĮâĢľ":9313,"Ġà¤ıà¤¦":9314,"Ġà¤ıà¤¹":9315,"Ġà¤ıà¤¨à¤ķ":9316,"Ġà¤ıà¤ªà¤°":9317,"Ġà¤ıà¤ŀ":9318,"Ġà¤ıà¤ħ":9319,"Ġà¤ıà¤¸à¤²":9320,"Ġà¤ıà¤ıà¤®":9321,"Ġà¤ıà¤¡à¤°":9322,"Ġà¤ıà¤ļà¤¬":9323,"Ġà¤ıà¤Ĩà¤ĩà¤ª":9324,"Ġà¤ıà¤ıà¤«à¤¸":9325,"Ġà¤ıà¤Ĩà¤Īà¤ª":9326,"à¤¯à¤ķà¤¤à¤°":9327,"à¤¯à¤ķà¤®à¤®":9328,"à¤¯à¤ķà¤²à¤Ĺ":9329,"à¤¯à¤ķà¤°à¤£à¤®":9330,"à¤¯à¤ķà¤°à¤£à¤ķ":9331,"à¤°à¤¤à¤¨":9332,"à¤°à¤¤à¤¸à¤¹":9333,"Ġà¤ĸà¤¦":9334,"Ġà¤ĸà¤¶":9335,"Ġà¤ĸà¤°à¤ķ":9336,"Ġà¤ĸà¤Łà¤®":9337,"Ġà¤ĸà¤¸à¤¹à¤°":9338,"Ġà¤ĸà¤µà¤°à¤ķ":9339,"Ġà¤ĸà¤²à¤ķà¤ķ":9340,"à¤¨à¤ķà¤®":9341,"à¤¨à¤ķà¤°à¤£à¤¦":9342,"Ġà¤¶à¤°à¤®":9343,"Ġà¤¶à¤®à¤¨":9344,"Ġà¤¶à¤®à¤¸":9345,"Ġà¤¶à¤°à¤£à¤²":9346,"Ġà¤¶à¤¸à¤¸":9347,"Ġà¤¶à¤°à¤¤à¤¸":9348,"à¤¾à¤ģ/":9349,"à¤¾à¤ģà¥Īà¥¤":9350,"Ġà¤ħà¤¨à¤ľ":9351,"Ġà¤ħà¤¨à¤«":9352,"Ġà¤ħà¤¨à¤¶à¤¨à¤²":9353,"Ġà¤ªà¤°à¤«à¤°":9354,"à¤łà¤Ł":9355,"à¤łà¤īà¤¤":9356,"à¥ĥ)":9357,"à¥ĥ,":9358,"à¥ĥà¥Ģ":9359,"à¤¸à¤ķà¤¸à¤¦":9360,"à¤¸à¤ķà¤¸à¤¨à¤ľ":9361,"Ġà¤«à¤®":9362,"Ġà¤«à¤¯":9363,"Ġà¤«à¤°à¤¹":9364,"Ġà¤«à¤¤à¤ķ":9365,"Ġà¤«à¤ĩà¤¦":9366,"à¤°à¤£à¤¯à¤ķ":9367,"à¤°à¤£à¤¯à¤°à¤¤":9368,"à¤ªà¤°à¤ª":9369,"à¤ªà¤°à¤Ńà¤¨":9370,"à¤ªà¤°à¤¸à¤¹":9371,"ĠâĢ°":9372,"ĠâĢºà¥ģ":9373,"à¤ľà¤¨à¤¤à¤°":9374,"à¤ľà¤¨à¤µà¤°":9375,"à¤ľà¤¨à¤°à¤®à¤£":9376,"à¤ľà¤¨à¤ľà¤¸":9377,"à¤ľà¤¨à¤ħà¤¨":9378,"à¤ľà¤¨à¤²à¤Ĺ":9379,"à¤¸à¤®à¤¤":9380,"à¤¸à¤®à¤¯à¤ķ":9381,"à¤¸à¤®à¤Ŀà¤¦":9382,"à¤¨à¤²à¤¨":9383,"à¤¨à¤²à¤¸":9384,"à¤¨à¤²à¤¸à¤¹":9385,"à¥įà¥¤âĢľ":9386,"âĢĻâĢĻ":9387,"à¤µà¤¸à¤¦à¤¸":9388,"à¥¦à¥®":9389,"à¥¦à¥§à¥Ń":9390,"à¥¦à¥¬à¥ª":9391,"ĠâĢĺ(":9392,"à¤ĺà¤ľ":9393,"à¤ĺà¤¨à¤®":9394,"à¤ĺà¤ĺ":9395,"à¤ĺà¤Łà¤ķ":9396,"à¤ĺà¤°à¤Ń":9397,"à¤ĺà¤¸à¤¹":9398,"à¤ĺà¤Ļà¤²":9399,"à¤ĺà¤Ĺà¤¨":9400,"à¤ĺà¤®à¤£":9401,"à¤ĺà¤łà¤¨":9402,"à¤¢à¤¨":9403,"à¤¢à¤¸":9404,"à¤¢à¤Ĺ":9405,"à¤¢à¤¥":9406,"Ġà¤¸à¤ķà¤¸à¤ª":9407,"à¥ĭà¥¤)":9408,"Ġà¤ľà¤¨à¤°":9409,"Ġà¤ľà¤¨à¤¶":9410,"Ġà¤ľà¤¨à¤ħà¤¨":9411,"Ġà¤ľà¤¨à¤¬à¤°":9412,"Ġà¤ľà¤¨à¤ľà¤¨à¤²":9413,"à¤¯à¤®à¤¯à¤°":9414,"Ġà¤°à¤¹à¤²à¤ª":9415,"Ġà¤¯à¤¸à¤¤":9416,"Ġà¤¯à¤¸à¤ªà¤¹":9417,"Ġà¤¯à¤¸à¤ħà¤µà¤§":9418,"à¤°à¤¹à¤ľ":9419,"à¤°à¤¹à¤µà¤¨":9420,"à¤°à¤¹à¤Ńà¤¨":9421,"à¤°à¤¹à¤¸à¤¹":9422,"à¤°à¤¹à¤£à¤®":9423,"à¤²à¤ķà¤µ":9424,"à¤²à¤ķà¤¥":9425,"à¤²à¤ķà¤°à¤²":9426,"à¤²à¤ķà¤®à¤²":9427,"Ġà¤ıà¤ķà¤§":9428,"Ġà¤ıà¤ķà¤Łà¤ķ":9429,"Ġà¤ıà¤ķà¤¦à¤°":9430,"Ġà¤ıà¤ķà¤ªà¤¦":9431,"Ġà¤ıà¤ķà¤µà¤Ł":9432,"Ġà¤Łà¤¬":9433,"Ġà¤Łà¤²à¤ķ":9434,"Ġà¤Łà¤ªà¤ķ":9435,"Ġà¤Łà¤ªà¤²":9436,"Ġà¤Łà¤ļà¤²":9437,"Ġà¤Łà¤ķà¤®à¤°":9438,"à¤¯à¤¸à¤ĸ":9439,"à¤¯à¤¸à¤Ļ":9440,"à¤¯à¤¸à¤¹à¤°à¤®":9441,"Ġà¤§à¤¬":9442,"Ġà¤§à¤°à¤£":9443,"Ġà¤§à¤°à¤®à¤°":9444,"à¤Ļà¤Ŀ":9445,"à¤Ļà¤®à¤¤":9446,"à¤Ļà¤ħà¤ĺ":9447,"à¤Ļà¤®à¤§":9448,"à¤Ļà¤¹à¤®":9449,"à¤Ļà¤§à¤°":9450,"à¤Ļà¤¬à¤®":9451,"à¤Ļà¤ĸà¤£":9452,"à¤Ļà¤ĺà¤®":9453,"à¤Ļà¤ĩà¤Ļ":9454,"Ġà¤ĺà¤°à¤¤":9455,"Ġà¤ĺà¤¢":9456,"Ġà¤ĺà¤°à¤µà¤°":9457,"Ġà¤ĺà¤°à¤²à¤Ĺ":9458,"à¤°à¤²à¤¯":9459,"à¤ŀà¤¤à¤°":9460,"à¤ŀà¤µà¤²":9461,"à¤ªà¤¨à¤¤à¤°":9462,"à¤¯à¤¤à¤ªà¤Ľ":9463,"à¤¯à¤¤à¤¤à¤°":9464,"Ġà¤ħà¤§à¤°":9465,"Ġà¤ħà¤§à¤µ":9466,"à¤²à¤®à¤¤":9467,"à¤²à¤®à¤¹":9468,"à¤²à¤®à¤°à¤²":9469,"Ġà¤¸à¤¹à¤²":9470,"Ġà¤¸à¤¹à¤¶":9471,"Ġà¤¸à¤¹à¤ľà¤¸":9472,"Ġà¤¸à¤¹à¤µà¤°à¤£":9473,"Ġà¤¸à¤¹à¤īà¤¤":9474,"à¤¤à¤°à¤¶":9475,"à¤¤à¤°à¤¹à¤°":9476,"à¤¤à¤°à¤īà¤¨":9477,"à¤¤à¤°à¤¸à¤¹":9478,"à¤¤à¤°à¤¸à¤°à¤ķ":9479,"à¤¤à¤°à¤ªà¤Ł":9480,"Ġà¤¡à¤Ļ":9481,"Ġà¤¡à¤²à¤²":9482,"Ġà¤¡à¤²à¤¬":9483,"Ġà¤¡à¤°à¤¬":9484,"Ġà¤¡à¤°à¤§":9485,"Ġà¤¡à¤¨à¤µ":9486,"Ġà¤¡à¤¨à¤¹à¤°":9487,"Ġà¤¡à¤¶à¤¨à¤²":9488,"Ġà¤¡à¤¢à¤²":9489,"âĢĵâĢĺ":9490,"à¤Ŀà¤«":9491,"à¤Ŀà¤Łà¤²":9492,"à¤Ŀà¤ĸà¤°":9493,"à¤Ŀà¤¨à¤¯":9494,"à¤Ŀà¤Łà¤¬":9495,"à¤Ŀà¤Ŀà¤²":9496,"Ġà¤īà¤ªà¤°à¤ķ":9497,"Ġà¤īà¤ªà¤µà¤¨à¤ķ":9498,"Ġà¤īà¤ªà¤ľà¤¹à¤°":9499,"Ġà¤ħà¤°à¤°":9500,"Ġà¤ħà¤°à¤¶à¤¦":9501,"à¤°à¤¸à¤¤":9502,"à¤°à¤¸à¤ª":9503,"à¤°à¤¸à¤¦":9504,"à¤°à¤¸à¤°à¤¬":9505,"à¤°à¤¸à¤µà¤ķ":9506,"à¤°à¤¸à¤°à¤¹à¤°":9507,"à¤°à¤¦à¤¸":9508,"à¤°à¤¦à¤¯à¤²":9509,"à¤°à¤¦à¤¶à¤¨":9510,"à¤°à¤¦à¤¹à¤®":9511,"à¤°à¤¦à¤¹à¤¦":9512,"à¤ĩà¤¨à¤°à¤ķ":9513,"à¤ĩà¤¨à¤ªà¤Ľ":9514,"à¤ĩà¤¨à¤¸à¤¹":9515,"à¤ĩà¤¨à¤«à¤°":9516,"à¤ıà¤°à¤Ńà¤¨":9517,"à¥ģà¤ģ'":9518,"à¥ģà¤ģâĢĵ":9519,"Ġà¤ķà¤®à¤¦":9520,"Ġà¤ķà¤®à¤£":9521,"Ġà¤ķà¤®à¤²à¤ķ":9522,"Ġà¤ķà¤®à¤²à¤²":9523,"Ġà¤ķà¤®à¤²à¤µ":9524,"à¤ħà¤¨à¤ķ":9525,"à¤ħà¤ł":9526,"à¤ħà¤¸à¤®":9527,"à¤ħà¤²à¤®":9528,"à¤ħà¤¸à¤°":9529,"à¤ħà¤®à¤²":9530,"à¤ħà¤¬à¤¦":9531,"à¤ħà¤µà¤¶":9532,"à¤ħà¤¥à¤°":9533,"à¤ħà¤²à¤ªà¤¤":9534,"à¤ħà¤µà¤¹":9535,"à¤ħà¤¸à¤¹à¤ľ":9536,"à¤ķà¤²à¤¤":9537,"à¤ķà¤²à¤¨à¤²":9538,"à¤ķà¤²à¤°à¤¸":9539,"à¤ķà¤²à¤¨à¤¬":9540,"à¤ķà¤²à¤¸à¤¹":9541,"à¤ķà¤²à¤¬à¤¹":9542,"Ġà¤®à¤¨à¤Ńà¤°":9543,"Ġà¤®à¤¨à¤«à¤°":9544,"à¤ķà¤®à¤µ":9545,"à¤ķà¤®à¤Ĺ":9546,"Ġà¤łà¤£":9547,"Ġà¤ķà¤°à¤µ":9548,"Ġà¤ķà¤°à¤¹à¤°":9549,"Ġà¤ķà¤°à¤Ļ":9550,"Ġà¤²à¤Ĺà¤¤à¤ķ":9551,"Ġà¤ĩà¤¤à¤°":9552,"Ġà¤ĩà¤Łà¤°":9553,"Ġà¤ĩà¤ľà¤®":9554,"Ġà¤ĩà¤¡à¤²":9555,"Ġà¤ĩà¤Ńà¤®":9556,"Ġà¤ĩà¤ıà¤¸à¤ª":9557,"Ġà¤ĩà¤ıà¤¸à¤ı":9558,"à¤¯à¤¨à¤ª":9559,"à¤¬à¤¨à¤Ł":9560,"à¤¬à¤¨à¤¡":9561,"à¤®à¤ķà¤¬":9562,"Ġà¤Ńà¤ıà¤¹":9563,"Ġà¤¸à¤¬à¤ĩà¤¨":9564,"à¤°à¤µà¤®":9565,"à¤°à¤µà¤¹à¤¨à¤ķ":9566,"Ġà¤Ĩà¤¯à¤²à¤ķ":9567,"Ġà¤Ĩà¤¯à¤²à¤¬":9568,"à¤¤à¤ķà¤¨":9569,"à¤¤à¤ķà¤¦":9570,"à¤Łà¤ķà¤ª":9571,"à¤Łà¤ķà¤¬":9572,"à¤Łà¤ķà¤Ńà¤¨":9573,"à¤Łà¤ķà¤ħà¤¨":9574,"à¤Łà¤ķà¤ĺà¤°à¤ķ":9575,"à¤¯à¤²à¤¦":9576,"à¤¯à¤²à¤Ĺà¤®":9577,"à¤¯à¤²à¤¯à¤ª":9578,"Ġà¤ħà¤¸à¤¨à¤®":9579,"Ġà¤ħà¤¸à¤Ļ":9580,"Ġà¤ħà¤¸à¤²à¤²":9581,"Ġà¤ħà¤¸à¤°à¤¹à¤°":9582,"Ġà¤ħà¤¸à¤¦à¤µ":9583,"Ġà¤ħà¤¸à¤¹à¤®":9584,"Ġà¤ħà¤¸à¤«à¤²à¤®":9585,"à¤¶à¤ķà¤µ":9586,"Ġà¥¨à¥¦à¥®":9587,"Ġà¥¨à¥¦à¥®à¥«":9588,"à¤²à¤²à¤²":9589,"à¤µà¤°à¤Ńà¤¨":9590,"à¤µà¤°à¤ļà¤¨":9591,"à¤µà¤°à¤ľà¤¸":9592,"à¤Ĺà¤¤à¤¸à¤®":9593,"à¤Ĺà¤¤à¤¸à¤¹":9594,"à¤Ĺà¤¤à¤®à¤§":9595,"à¤µà¤¨à¤Ń":9596,"à¤µà¤¨à¤¸à¤®":9597,"à¤µà¤¨à¤Ĺà¤°":9598,"à¤µà¤¨à¤¬à¤¹":9599,"à¤·à¤£à¤Ĺ":9600,"à¤·à¤£à¤°à¤¹":9601,"à¤·à¤£à¤¤à¤°":9602,"à¤·à¤£à¤Ńà¤¨":9603,"à¤¸à¤¨à¤¶":9604,"à¤¸à¤¨à¤ļ":9605,"à¤¸à¤¨à¤Ńà¤¨":9606,"à¤¸à¤¨à¤ħà¤¨":9607,"à¤¸à¤¨à¤ªà¤¦":9608,"à¤¸à¤¨à¤¸à¤®à¤ķ":9609,"à¤¤à¤¨à¤¦":9610,"à¤¤à¤¨à¤¤à¤°":9611,"à¤¤à¤¨à¤Ĺà¤°à¤ķ":9612,"à¤¤à¤¨à¤ªà¤¶":9613,"à¤Ĩà¤¹":9614,"à¤Ĩà¤¨à¤ķ":9615,"à¤Ĩà¤ªà¤°":9616,"à¤Ĩà¤¨à¤²":9617,"à¤Ĩà¤¯à¤®":9618,"à¤Ĩà¤ĩà¤¨":9619,"à¤Ĩà¤ªà¤¤":9620,"à¤Ĩà¤¯à¤²":9621,"à¤Ĩà¤¸à¤¨":9622,"à¤Ĩà¤ĩà¤°à¤¹":9623,"à¤Ĩà¤¤à¤®":9624,"à¤Ĩà¤®à¤¸":9625,"à¤Ĩà¤®à¤¹":9626,"à¤Ĩà¤Ĩà¤«":9627,"Ġà¤Ĩà¤°à¤¡":9628,"à¤°à¤¬à¤®":9629,"à¤°à¤¬à¤²à¤²":9630,"à¤°à¤¬à¤¹à¤¨":9631,"à¤°à¤¬à¤¹à¤ķ":9632,"à¤°à¤¬à¤¬à¤¹":9633,"Ġà¤¬à¤¸à¤¯":9634,"à¤ļà¤¨à¤°":9635,"à¤ļà¤¨à¤¦":9636,"à¤ļà¤¨à¤¤à¤°":9637,"à¤µà¤ķà¤°à¤£":9638,"à¤µà¤ķà¤¸à¤¹":9639,"à¤°à¤§à¤°":9640,"à¤Łà¤¨à¤¤":9641,"à¤Łà¤¨à¤µ":9642,"à¤Łà¤¨à¤¡":9643,"à¤Łà¤¨à¤ªà¤Ľ":9644,"à¤Łà¤¨à¤¤à¤°":9645,"à¤²à¤¨à¤Ń":9646,"à¤²à¤¨à¤Ĺà¤°":9647,"à¤²à¤¨à¤Ńà¤°":9648,"à¤¨à¤¨à¤¸":9649,"à¤¨à¤¨à¤ľ":9650,"à¤¨à¤¨à¤°à¤¸":9651,"à¤°à¤¯à¤¦":9652,"à¤ķà¤ķà¤¸":9653,"à¤ķà¤ķà¤¸à¤®":9654,"Ġà¥©à¥¨à¥¦":9655,"Ġà¤īà¤¦à¤£":9656,"Ġà¤īà¤¦à¤¯à¤®":9657,"à¤ķà¤°à¤°":9658,"à¤ķà¤°à¤ľ":9659,"à¤ķà¤°à¤Ńà¤¨":9660,"à¤ĩà¤°à¤¹à¤ķ":9661,"à¤ĩà¤°à¤¹à¤¦":9662,"Ġà¤¸à¤¨à¤¸":9663,"Ġà¤¸à¤¨à¤¤à¤ķ":9664,"Ġà¤¸à¤¨à¤¸à¤¨":9665,"à¤Łà¤°à¤ļ":9666,"à¤Łà¤°à¤ħà¤Ĺ":9667,"Ġ?,âĢĻ":9668,"Ġ?âĢĻ,":9669,"Ġà¤¸à¤°à¤Ĺà¤®":9670,"Ġà¤¸à¤°à¤ľà¤®":9671,"à¤¸à¤°à¤ľà¤¨":9672,"à¤ªà¤ķà¤Ł":9673,"à¤ªà¤ķà¤ļà¤¨":9674,"Ġà¤Ĩà¤µà¤¬":9675,"Ġà¤Ĩà¤µà¤°à¤®":9676,"Ġà¤Ĩà¤µà¤¤à¤°à¤£à¤®":9677,"Ġà¤Ĩà¤µà¤Ĺà¤®à¤¨à¤®":9678,"à¥Įà¤ģ'":9679,"à¥Įà¤ģà¤ĥ":9680,"à¥Įà¤ģà¤ģà¥¤":9681,"à¥ĩà¥¤âĢľ":9682,"à¤®à¤¨à¤ª":9683,"à¤®à¤¨à¤µ":9684,"à¤®à¤¨à¤Ĺà¤²":9685,"à¤®à¤¨à¤Ĺà¤°à¤ķ":9686,"Ġà¤ĵà¤¥":9687,"Ġà¤ĵà¤ī":9688,"Ġà¤ĵà¤°à¤¬":9689,"Ġà¤ĵà¤¬à¤°":9690,"Ġà¤ĵà¤ıà¤¸":9691,"Ġà¤ĵà¤ªà¤¨à¤ķ":9692,"Ġà¤ĵà¤Ĺà¤µ":9693,"Ġà¤ĵà¤®à¤¨à¤¸":9694,"Ġà¤ĵà¤Ĩà¤°à¤ľ":9695,"Ġà¤ĵà¤¹à¤°à¤¦":9696,"Ġà¤¹à¤ľà¤¬":9697,"Ġà¤¹à¤ľà¤°à¤¤":9698,"à¥¨à¥§à¥§":9699,"Ġà¤ħà¤®à¤¨à¤ķ":9700,"Ġà¤ħà¤®à¤¨à¤²":9701,"Ġà¤ħà¤®à¤°à¤ľ":9702,"Ġà¤Ŀà¤ŀ":9703,"Ġà¤Ŀà¤¸à¤Ļ":9704,"Ġà¤¸à¤®à¤¸à¤¨à¤²":9705,"à¤¦à¤¨à¤Ĺà¤°":9706,"à¤·à¤ķà¤ħà¤¨":9707,"Ġà¤ªà¤ķà¤¡à¤ķ":9708,"à¤¨à¤¸à¤¯":9709,"à¤¨à¤¸à¤¸":9710,"à¤¨à¤¸à¤°à¤ķ":9711,"à¤¨à¤¸à¤¨à¤²":9712,"à¤¨à¤¸à¤ĸà¤£":9713,"à¤¨à¤¸à¤¦à¤¸":9714,"à¤īà¤Łà¤²":9715,"à¤°à¤®à¤£à¤¨":9716,"à¤°à¤®à¤£à¤ħà¤ĺ":9717,"à¤°à¤®à¤£à¤Ńà¤¤":9718,"à¤°à¤¶à¤®à¤£":9719,"Ġà¤¸à¤¯à¤¬":9720,"Ġà¤¸à¤¯à¤ªà¤¤":9721,"à¤Ĺà¤ķà¤¤":9722,"à¤¡à¤ķà¤ªà¤²":9723,"à¤¤à¤²à¤ª":9724,"à¤ıà¤¨à¤¬":9725,"à¤ıà¤¨à¤ıà¤«à¤¡":9726,"à¤¸à¤¦à¤¤":9727,"à¤¸à¤¦à¤¦":9728,"à¤¸à¤¦à¤ľ":9729,"à¤¸à¤¦à¤Ń":9730,"à¤¸à¤¦à¤°à¤®":9731,"à¤¸à¤¦à¤²à¤Ĺ":9732,"à¤¸à¤¦à¤®à¤§":9733,"Ġà¤¢à¤²à¤¨":9734,"à¤ķà¤°à¤£à¤¯":9735,"à¤ķà¤°à¤£à¤¹à¤°":9736,"à¤ķà¤°à¤£à¤ħà¤¨":9737,"Ġà¤¸à¤®à¤¯à¤ļ":9738,"Ġà¤¸à¤®à¤¯à¤¬à¤¦":9739,"Ġà¤¸à¤®à¤¯à¤ĸà¤£":9740,"à¤²à¤¯à¤²à¤ķ":9741,"à¤ľà¤ķà¤¸à¤¹":9742,"Ġà¥¬à¥¨à¥¦":9743,"Ġà¥¬à¥§à¥¬":9744,"à¤§à¤¨à¤Ĺ":9745,"à¤§à¤¨à¤ľà¤¸":9746,"à¤°à¤®à¤®à¤§":9747,"à¥©à¥®à¥¦":9748,"à¤Ĺà¤²à¤°":9749,"à¤Ĺà¤²à¤Ł":9750,"à¤Ĺà¤²à¤¹à¤°":9751,"Ġà¤ªà¤¦à¤¤":9752,"Ġà¤ªà¤¦à¤ħà¤¨":9753,"Ġà¤ªà¤¦à¤®à¤§":9754,"Ġà¤ªà¤¦à¤®à¤¬à¤¹":9755,"Ġà¤¨à¤Ńà¤ĩà¤¨à¤¹":9756,"à¤®à¤²à¤°":9757,"à¤®à¤²à¤¸":9758,"à¤®à¤²à¤¢":9759,"à¤µà¤²à¤Ĺà¤¤":9760,"Ġà¤Ńà¤¯à¤¬":9761,"Ġà¤Ńà¤¯à¤µà¤¹":9762,"Ġà¤ħà¤¬à¤Ńà¤¨":9763,"Ġà¤ħà¤¬à¤Ĩà¤«":9764,"Ġà¤ħà¤¬à¤¸à¤°à¤®":9765,"à¤·à¤®à¤§":9766,"à¤Łà¤®à¤°":9767,"à¤Łà¤®à¤ª":9768,"Ġà¤ªà¤¤à¤¨à¤²":9769,"Ġà¤ªà¤¤à¤¨à¤®":9770,"Ġà¤ªà¤¤à¤Ļ":9771,"Ġà¤ķà¤²à¤¹à¤²":9772,"à¤¶à¤¨à¤Ĺà¤°":9773,"à¤¶à¤¨à¤Ńà¤¨":9774,"Ġà¤Ĩà¤ĩà¤¥":9775,"Ġà¤Ĩà¤ĩà¤ļ":9776,"Ġà¤Ĩà¤ĩà¤Ń":9777,"Ġà¤Ĩà¤ĩà¤ĩ":9778,"Ġà¤Ĩà¤ĩà¤¨à¤²":9779,"Ġà¤Ĩà¤ĩà¤ĵà¤µ":9780,"Ġà¤Ĩà¤ĩà¤ıà¤Ī":9781,"Ġà¤Ĩà¤ĩà¤ıà¤¸à¤ª":9782,"Ġà¤Ĩà¤ĩà¤ıà¤¸à¤ķ":9783,"Ġà¤Ĩà¤ĩà¤ıà¤¸à¤²":9784,"Ġà¤¦à¤°à¤¸à¤®":9785,"Ġà¤¦à¤°à¤Ńà¤¨":9786,"à¤¯à¤°à¤¨":9787,"à¤¯à¤°à¤«":9788,"à¤¯à¤°à¤ªà¤Ľ":9789,"Ġà¤ħà¤µà¤Ĺ":9790,"Ġà¤ħà¤µà¤¤à¤°":9791,"Ġà¤ħà¤µà¤īà¤ª":9792,"Ġà¤¤à¤¹à¤ħà¤¨":9793,"à¤ĵà¤¹":9794,"à¤ĵà¤Ľ":9795,"à¤ĵà¤®à¤°":9796,"à¤ĵà¤¨à¤°à¤¸":9797,"à¤ĵà¤Ĩà¤°à¤¬":9798,"à¤ĵà¤ıà¤®à¤ľ":9799,"à¤¶à¤®à¤¬à¤¹":9800,"Ġà¤¹à¤°à¤Ĺ":9801,"à¤¿à¤Ĥ)":9802,"à¤¿à¤Ĥ,":9803,"à¤¿à¤Ĥ.":9804,"Ġà¤Ķà¤¬":9805,"Ġà¤Ķà¤¡":9806,"Ġà¤Ķà¤ł":9807,"Ġà¤ĶÃĪ":9808,"à¤¬à¤°à¤ª":9809,"à¤¬à¤°à¤Ĺ":9810,"à¤¬à¤°à¤ľà¤¸":9811,"Ġà¤ħà¤Ĺà¤Łà¤¸":9812,"Ġà¥Ńà¥Ńà¥ª":9813,"à¤¶à¤¤à¤µ":9814,"Ġà¤ıà¤®à¤µ":9815,"Ġà¤ıà¤®à¤«":9816,"Ġà¤ıà¤®à¤ıà¤®":9817,"Ġà¤ıà¤®à¤Ĩà¤Ī":9818,"Ġà¤ıà¤®à¤ıà¤ļ":9819,"Ġà¤ıà¤®à¤ıà¤¸à¤®":9820,"Ġà¤ıà¤®à¤Ĩà¤ĩà¤¸":9821,"Ġà¤ıà¤®à¤°à¤¸à¤¨":9822,"Ġà¤ıà¤®à¤ıà¤ļà¤ª":9823,"à¤Ĺà¤®à¤¬":9824,"à¤Ĺà¤®à¤¹à¤²":9825,"Ġà¤¦à¤²à¤°":9826,"Ġà¤¦à¤²à¤¦":9827,"Ġà¤¦à¤²à¤µ":9828,"Ġà¤¦à¤²à¤ªà¤¨":9829,"Ġà¤ķà¤¸à¤°à¤¤à¤ķ":9830,"Ġà¤Ńà¤ĩà¤°à¤¹à¤¯":9831,"à¤¹à¤¨à¤ľ":9832,"à¤¹à¤¨à¤ļà¤¨":9833,",âĢĻâĢĵ":9834,"Ġà¤ĺà¤°à¤ľà¤¸":9835,"Ġà¤ĺà¤°à¤ĺà¤¡":9836,"à¤µà¤ľà¤¨à¤®":9837,"à¥®à¥¨":9838,"à¤²à¤Ĺà¤£":9839,"Ġà¤¯à¤¸à¤²à¤Ĺà¤¤":9840,"Ġà¤ħà¤ªà¤ľà¤¸à¤²":9841,"Ġà¤ħà¤ªà¤¹à¤°à¤£à¤¸":9842,"Ġà¤¬à¤¹à¤²":9843,"Ġà¤¬à¤¹à¤¸à¤¬":9844,"Ġà¤¬à¤¹à¤¸à¤¹à¤°":9845,"à¤¯à¤µà¤¦":9846,"à¤·à¤¯à¤ľà¤¸":9847,"Ġà¤¬à¤²à¤ľ":9848,"Ġà¤¬à¤²à¤Ń":9849,"Ġà¤¬à¤²à¤°à¤²":9850,"à¥¯à¥¨":9851,"à¥¯à¥©":9852,"Ġà¤Ĩà¤Ĺà¤¡":9853,"Ġà¤Ĩà¤Ĺà¤¤à¤ķ":9854,"à¤Łà¤²à¤¦":9855,"à¤Łà¤²à¤°à¤ķ":9856,"à¤Łà¤²à¤Ĺà¤¤":9857,"Ġà¤īà¤łà¤Ľ":9858,"Ġà¤īà¤łà¤¬à¤¸":9859,"à¤ķà¤¨à¤ªà¤ķ":9860,"à¤ķà¤¨à¤ľà¤¸":9861,"Ġà¥§à¥¦à¥¦à¥¦":9862,"Ġà¤¨à¤¹à¤ķ":9863,"Ġà¤¨à¤¹à¤¸":9864,"Ġà¤®à¤²à¤¸":9865,"Ġà¤®à¤²à¤¹":9866,"Ġà¤®à¤²à¤¹à¤°":9867,"à¥¤âĢĻâĢĻ":9868,"Ġà¤¸à¤¹à¤Ńà¤Ĺ":9869,"à¤°à¤¨à¤¦":9870,"à¤°à¤¨à¤µ":9871,"à¤°à¤¨à¤ļ":9872,"à¤°à¤¨à¤°à¤¸":9873,"Ġà¥®à¥§à¥¦":9874,"Ġà¥®à¥§à¥«":9875,"Ġà¥®à¥Ńà¥«":9876,"Ġà¤ıà¤¨à¤ıà¤¸":9877,"Ġà¤ıà¤¨à¤ıà¤®à¤¸":9878,"Ġà¤ıà¤¨à¤ıà¤®à¤ıà¤²":9879,"Ġà¤ıà¤¨à¤Ĩà¤Īà¤¬":9880,"Ġà¤ļà¤°à¤¨à¤ķ":9881,"à¤²à¤¤à¤¹à¤°":9882,"à¤¨à¤°à¤¸à¤®":9883,"à¤ĸà¤°à¤ª":9884,"à¤ĸà¤°à¤¸à¤®":9885,"à¤ĸà¤°à¤ļà¤¨":9886,"à¤ªà¤²à¤¡":9887,"Ġà¤ªà¤Łà¤ķà¤Ńà¤¨":9888,"à¤Ńà¤µà¤¹":9889,"à¤Ńà¤µà¤ļ":9890,"Ġà¤īà¤®à¤°":9891,"à¤¬à¤²à¤ª":9892,"à¤¬à¤²à¤µ":9893,"à¤µà¤¯à¤¬":9894,"à¤¨à¤µà¤¦":9895,"à¤¨à¤µà¤¯à¤¨":9896,"à¤¨à¤µà¤¤à¤¸":9897,"à¤¨à¤µà¤¬à¤¸":9898,"à¤¿,'":9899,"Ġà¤Ĳà¤¯":9900,"Ġà¤Ĳà¤¨à¤¨":9901,"Ġà¤Ĳà¤łà¤¨":9902,"Ġà¤Ĺà¤łà¤¨à¤ª":9903,"à¤·à¤¦à¤¦":9904,"Ġà¤Ńà¤°à¤Ĺ":9905,"Ġà¤ħà¤Ŀà¤¸à¤®":9906,"Ġà¤¸à¤«à¤²à¤°":9907,"Ġà¤¸à¤«à¤²à¤¤à¤®":9908,"Ġà¤ķà¤¹à¤°à¤ķ":9909,"Ġà¤Ĩà¤ķà¤¡":9910,"à¤µà¤°à¤£à¤¸à¤¹":9911,"à¤ľà¤®à¤ľ":9912,"à¤ľà¤®à¤¹à¤²à¤ķ":9913,"Ġà¤°à¤ķà¤®à¤¸":9914,"à¤¸à¤¹à¤¤":9915,"à¤¸à¤¹à¤¸à¤ļ":9916,"Ġà¤ħà¤«à¤¤":9917,"Ġà¤ħà¤«à¤°à¤²":9918,"Ġà¤ħà¤«à¤°à¤¹à¤°":9919,"à¤ĩà¤²à¤¸":9920,"à¤¤à¤µà¤°à¤®":9921,"à¤¦à¤ķà¤Ł":9922,"à¤¦à¤ķà¤¸à¤®":9923,"à¤¦à¤ķà¤¤à¤²":9924,"à¤¦à¤ķà¤ªà¤¦":9925,"à¤ľà¤Ĺà¤ªà¤¤":9926,"Ġ''":9927,"à¤¤à¤°à¤£à¤¬":9928,"à¤¤à¤°à¤£à¤¸à¤®":9929,"Ġà¤ıà¤¸à¤¸":9930,"Ġà¤ıà¤¸à¤ıà¤²":9931,"Ġà¤ıà¤¸à¤ıà¤®à¤Ī":9932,"à¤¨à¤¤à¤¸":9933,"à¤¨à¤¤à¤¹":9934,"à¤¨à¤¤à¤¬":9935,"à¤¯à¤ªà¤Ł":9936,"Ġà¤®à¤¤à¤®à¤¤":9937,"Ġà¤®à¤¤à¤ħà¤¨":9938,"Ġà¤¸à¤¡à¤ķà¤ľà¤¸":9939,"Ġà¤¸à¤¡à¤ķà¤¸à¤ŀ":9940,"Ġà¤Ĩà¤®à¤Ĺ":9941,"Ġà¤Ĩà¤®à¤Ń":9942,"Ġà¤Ĩà¤®à¤¦à¤ħà¤¨":9943,"à¤ľà¤²à¤¸à¤®":9944,"Ġà¤Ĩà¤¦à¤¤":9945,"à¤¦à¤²à¤µ":9946,"Ġà¤Ĩà¤¶à¤µ":9947,"à¤ıà¤¸à¤¸à¤®":9948,"à¤ıà¤¸à¤ªà¤Ľ":9949,"à¤ıà¤¸à¤ıà¤¸":9950,"à¤ıà¤¸à¤Ĩà¤Ī":9951,"à¤ıà¤¸à¤¨à¤²à¤Ĺ":9952,"à¤ıà¤¸à¤ĩà¤Ī":9953,"à¤ıà¤¸à¤Ĩà¤°à¤²":9954,"à¤ıà¤¸à¤ıà¤¸à¤¬":9955,"à¤ıà¤¸à¤Ĩà¤ĩà¤Ĩà¤°":9956,"à¤²à¤¸à¤¡à¤ķ":9957,"Ġà¤ľà¤Ĺà¤¬":9958,"Ġà¤ľà¤Ĺà¤¹à¤¸":9959,"à¤¾à¥ĩ?":9960,"Ġà¥¤âĢĻâĢĻ":9961,"Ġà¤ľà¤®à¤²à¤®":9962,"Ġà¤ľà¤®à¤°à¤ķà¤Ł":9963,"à¤¸à¤¬à¤¹":9964,"à¤¸à¤¬à¤Ńà¤¨":9965,"Ġà¥§à¥¯à¥©":9966,"Ġà¥§à¥¯à¥¬à¥©":9967,"Ġà¥§à¥¯à¥¨à¥«":9968,"Ġà¥§à¥¯à¥¨à¥©":9969,"Ġà¥§à¥¯à¥¨à¥ª":9970,"Ġà¥§à¥¯à¥¨à¥¬":9971,"Ġà¥§à¥¯à¥¦à¥¬":9972,"Ġà¥§à¥¯à¥©à¥Ń":9973,"à¤¶à¤²à¤ª":9974,"à¤¹à¤²à¤µ":9975,"à¤¹à¤²à¤ĸ":9976,"Ġà¤¹à¤¸à¤¨à¤ķ":9977,"à¤°à¤ªà¤¦":9978,"à¤°à¤ªà¤¥à¤¸":9979,"à¤°à¤ªà¤¥à¤¬":9980,"Ġà¤Ľà¤²à¤«à¤²à¤ħà¤¨":9981,"à¤¯à¤¯à¤¨à¤ª":9982,"à¤¯à¤¯à¤¨à¤ªà¤¶":9983,"à¤§à¤®à¤§":9984,"à¤¤à¤¬à¤Ŀ":9985,"à¤°à¤ľà¤¹":9986,"à¤°à¤ľà¤¸à¤®à¤ķ":9987,"Ġà¤Ĩà¤¤à¤¸à¤¬":9988,"à¤ķà¤ªà¤°à¤®":9989,"à¤Ĺà¤łà¤ķ":9990,"à¤Ĺà¤łà¤¨à¤ª":9991,"à¤°à¤ļà¤¨à¤ķ":9992,"à¤¡à¤²à¤°à¤²":9993,"à¤ķà¤¸à¤¸":9994,"à¤łà¤ķà¤¦":9995,"Ġà¤ĺà¤Łà¤ķà¤²":9996,"à¤ļà¤®à¤¹":9997,"à¤µà¤¯à¤¨à¤Ĺà¤°":9998,"à¤µà¤¯à¤¨à¤¸à¤¹":9999,"à¤Ļà¤²à¤°":10000,"à¤Ĺà¤¦à¤°à¤¬":10001,"à¤ĩà¤Łà¤¸à¤¹":10002,"Ġà¤«à¤°à¤ķà¤°":10003,"Ġà¤«à¤°à¤ķà¤²":10004,"Ġà¤«à¤°à¤ķà¤ªà¤¨à¤ķ":10005,"Ġà¤«à¤°à¤ķà¤®à¤¤à¤®":10006,"à¤²à¤µà¤¹à¤°":10007,"à¤ıà¤®à¤ª":10008,"à¤ıà¤®à¤Ł":10009,"à¤ıà¤®à¤Ĩ":10010,"à¤ıà¤®à¤ıà¤¨":10011,"à¤ıà¤®à¤ıà¤®":10012,"à¤ıà¤®à¤ıà¤«":10013,"à¤ıà¤®à¤Ĩà¤Ī":10014,"à¤ıà¤®à¤Ĩà¤ĩà¤Ł":10015,"à¤ıà¤®à¤Ĩà¤Īà¤Ł":10016,"Ġà¤¨à¤ľà¤°à¤¬":10017,"Ġà¤¨à¤ľà¤°à¤¬à¤¨":10018,"Ġà¤¬à¤ļà¤ªà¤¨":10019,"Ġà¤¬à¤ļà¤ªà¤¨à¤®":10020,"Ġà¤§à¤¨à¤ª":10021,"Ġà¤§à¤¨à¤ľà¤¨":10022,"Ġà¤§à¤¨à¤¸à¤®":10023,"Ġà¤§à¤¨à¤ŀ":10024,"Ġà¤§à¤¨à¤ªà¤¤":10025,"à¤ĩà¤ķà¤°à¤²":10026,"à¤¨à¤ªà¤¸":10027,"à¤¨à¤ªà¤Ł":10028,"à¤¨à¤ªà¤ŀ":10029,"à¤¨à¤ªà¤¸à¤²":10030,"Ġà¤¸à¤¹à¤°à¤®à¤§":10031,"Ġà¤¹à¤¤à¤ª":10032,"Ġà¥§à¥§à¥«":10033,"Ġà¥§à¥§à¥«à¥«":10034,"Ġà¥§à¥§à¥©à¥Ń":10035,"à¤¦à¤µà¤¬":10036,"à¤¦à¤µà¤¹à¤°":10037,"à¤¦à¤µà¤¸à¤®":10038,"Ġà¤ħà¤ªà¤°à¤¹à¤£":10039,"Ġà¤ĩà¤¤à¤°à¤ķ":10040,"Ġà¤¹à¤Łà¤¸":10041,"à¤¹à¤¤à¤°à¤®":10042,"à¤¹à¤¤à¤¸à¤®":10043,"à¤ªà¤£à¤¸":10044,"à¤¹à¤®à¤¦à¤ķ":10045,"Ġà¤Ĺà¤£à¤°":10046,"Ġà¤ķà¤ªà¤¬":10047,"Ġà¥©à¥¦à¥§":10048,"à¤·à¤§à¤°à¤ķ":10049,"à¤ķà¤Łà¤¸à¤®":10050,"à¤ķà¤Łà¤ªà¤®":10051,"à¤ķà¤Łà¤µà¤°":10052,"à¤¸à¤¸à¤¸":10053,"Ġà¤ħà¤µà¤¸à¤°à¤¸à¤®":10054,"à¤ľà¤¯à¤ļà¤¨":10055,"à¤ľà¤¯à¤Ńà¤ıà¤ķ":10056,"à¤¬à¤¹à¤ª":10057,"à¤¬à¤¹à¤¸à¤®":10058,"Ġà¤°à¤¨à¤Ĩà¤īà¤Ł":10059,"à¤¤à¤ªà¤°à¤ķ":10060,"à¤¤à¤ªà¤Łà¤®":10061,"à¤¥à¤ķà¤¬":10062,"à¤®à¤Ĺà¤°à¤®":10063,"à¤ıà¤²à¤ľ":10064,"à¤ıà¤²à¤ıà¤«":10065,"à¤¸à¤¨à¤²à¤®":10066,"à¤¸à¤¨à¤²à¤ª":10067,"à¤¸à¤¨à¤²à¤¬":10068,"Ġà¥§à¥®à¥§à¥¬":10069,"Ġà¥§à¥®à¥Ńà¥«":10070,"Ġà¥§à¥®à¥Ńà¥¬":10071,"Ġà¥§à¥®à¥§à¥ª":10072,"Ġà¥§à¥®à¥ªà¥¦":10073,"Ġà¥§à¥®à¥«à¥Ń":10074,"Ġà¥§à¥®à¥©à¥§":10075,"Ġà¥§à¥®à¥¯à¥¦":10076,"Ġà¥§à¥®à¥ªà¥®":10077,"Ġà¥§à¥®à¥«à¥ª":10078,"Ġà¤ľà¤¨à¤ķà¤µ":10079,"Ġà¤°à¤®à¤£à¤ķ":10080,"à¤µà¤¦à¤¹à¤ķ":10081,"Ġà¥§à¥¬à¥¦à¥¦":10082,"à¤¨à¤Ĺà¤°à¤µ":10083,"à¤¨à¤Ĺà¤°à¤Ńà¤°":10084,"à¤Ĺà¤¢à¤¬":10085,"à¤ļà¤°à¤ľà¤¨":10086,"ĠĠĠĠĠĠčĊ":10087,"ĠĠĠĠĠĠĠĊ":10088,"à¤¡à¤°à¤Ĺ":10089,"à¤¡à¤°à¤ħà¤¨":10090,"Ġà¤ªà¤°à¤®à¤¹":10091,"Ġà¤Ĭà¤®":10092,"Ġà¤Ĭà¤§":10093,"Ġà¤Ĭà¤¨à¤ķ":10094,"à¤ĩà¤ľà¤°à¤¸à¤¹":10095,"à¥Ģ)âĢĻ":10096,"à¥Ģ)âĢĵ":10097,"Ġà¥§à¥©à¥«à¥¬":10098,"Ġà¤¨à¤µà¤²à¤ķ":10099,"Ġà¤¨à¤µà¤µà¤°":10100,"Ġà¤Ĩà¤ļà¤°à¤£à¤®":10101,"Ġà¤Ĩà¤ļà¤°à¤£à¤¬":10102,"Ġà¤ľà¤¨à¤¸à¤¤":10103,"à¤ĩà¤¸à¤§":10104,"à¤ĩà¤¸à¤ļà¤°":10105,"à¤¥à¤¨à¤Ĺ":10106,"à¤¥à¤¨à¤ľ":10107,"à¤¥à¤¨à¤Ńà¤¨":10108,"âĢĿâĢĵ":10109,"Ġà¤Ĩà¤łà¤¦":10110,"à¤¯à¤£à¤Ĺ":10111,"à¤¯à¤£à¤¬":10112,"Ġà¤ĸà¤¨à¤ľ":10113,"Ġà¤ķà¤ķà¤¬":10114,"Ġà¤ķà¤ķà¤¸à¤ķ":10115,"à¤Ĺà¤®à¤¨à¤µ":10116,"à¤Ĺà¤®à¤¨à¤¬":10117,"à¤¯à¤¸à¤¬à¤ĸà¤¤à¤ķ":10118,"Ġà¥¨à¥§à¥®":10119,"Ġà¥¨à¥§à¥¯":10120,"Ġà¤¦à¤¶à¤Ĺ":10121,"Ġà¤¦à¤¶à¤µà¤Ł":10122,"Ġà¤¦à¤¶à¤°à¤¥à¤ķ":10123,"Ġà¤ľà¤¬à¤ľà¤®":10124,"Ġà¤®à¤¦à¤°à¤¸":10125,"Ġà¤®à¤¦à¤¤à¤®":10126,"Ġà¥§à¥Ńà¥«à¥Ń":10127,"à¤¸à¤µà¤¹à¤°":10128,"Ġà¤Ńà¤Īà¤¸":10129,"Ġà¤Ńà¤Īà¤°à¤¹à¤¨":10130,"à¤ĸà¤²à¤¨à¤²":10131,"à¤Ĺà¤łà¤¨à¤ľà¤¸":10132,"à¤Ĺà¤łà¤¨à¤ħà¤¨":10133,"à¥ĩà¤ģà¥¤'":10134,"à¤µà¤Łà¤¦":10135,"à¤µà¤Łà¤¬":10136,"à¤µà¤Łà¤°à¤ķ":10137,"Ġà¤ħà¤ķà¤µ":10138,"Ġà¤ħà¤ķà¤¬à¤°à¤ķ":10139,"Ġà¤ĩà¤®à¤°à¤¨":10140,"Ġà¤®à¤¹à¤¸à¤ŀ":10141,"à¤¸à¤¹à¤°à¤®":10142,"Ġà¤«à¤²à¤Ń":10143,"Ġà¥¬à¥¦à¥«":10144,"à¤¤à¤°à¤®à¤¹":10145,"à¤¤à¤°à¤®à¤¨à¤ķ":10146,"à¥ĭ?âĢĻ,":10147,"à¥ĭ?âĢľ":10148,"à¤ĩà¤¡à¤ĩà¤«":10149,"à¤¹à¤°à¤£à¤¸à¤®":10150,"Ġà¥¨à¥¨à¥«":10151,"Ġà¥¨à¥¨à¥ª":10152,"Ġà¥¨à¥¨à¥®":10153,"Ġà¤Ńà¤µà¤¨à¤¨":10154,"Ġà¤Ńà¤µà¤¨à¤¤":10155,"Ġà¤Ńà¤µà¤¨à¤¸à¤¹":10156,"Ġà¤ķà¤łà¤ª":10157,"Ġà¤ķà¤łà¤ĺà¤°à¤®":10158,"à¤ķà¤¬à¤ķ":10159,"à¤®à¤£à¤°":10160,"à¤®à¤£à¤µ":10161,"Ġà¤µà¤¨à¤Ń":10162,"Ġà¥¦à¥«à¥¦":10163,"Ġà¥¦à¥«à¥Ń":10164,"Ġà¥¦à¥¯à¥¦":10165,"Ġà¥¦à¥¦à¥¯":10166,"à¤°à¤ĸà¤°à¤¤":10167,"à¤°à¤ĸà¤§à¤¨":10168,"à¤µà¤Ńà¤°à¤®":10169,"à¤ªà¤¸à¤Ļ":10170,"Ġà¤¤à¤²à¤ªà¤Ł":10171,"Ġà¤Ĺà¤¨à¤Ĺà¤¨à¤¸à¤®":10172,"à¤²à¤ªà¤Ł":10173,"à¤®à¤ªà¤Ł":10174,"à¤®à¤ªà¤¶":10175,"Ġà¤¸à¤ªà¤¥à¤®":10176,"Ġà¤¸à¤ªà¤¥à¤ķ":10177,"Ġà¤¨à¤¬à¤Ĺ":10178,"Ġà¤¨à¤¬à¤¦à¤²":10179,"à¤¬à¤Īà¤¤à¤°":10180,"Ġà¤ªà¤¹à¤²à¤¹à¤°":10181,"Ġà¤ªà¤¹à¤²à¤ªà¤Ľ":10182,"Ġà¤Ĺà¤²à¤¬à¤¨":10183,"Ġà¤Ĺà¤²à¤Ļà¤ķ":10184,"à¥¨à¥¦à¥§à¥§":10185,"à¥¨à¥¦à¥¬à¥©":10186,"à¥¨à¥¦à¥©à¥¦":10187,"à¥¨à¥¦à¥§à¥ª":10188,"à¥¨à¥¦à¥Ńà¥©":10189,"à¥¨à¥¦à¥ªà¥¦":10190,"à¥¨à¥¦à¥«à¥«":10191,"à¥¨à¥¦à¥¬à¥ª":10192,"à¥¨à¥¦à¥«à¥®":10193,"à¥¨à¥¦à¥ªà¥Ń":10194,"à¥Ģà¤ģ,":10195,"Ġà¤ªà¤²à¤¹":10196,"Ġà¤ªà¤²à¤ľ":10197,"à¤£à¤¨à¤Ĺà¤°à¤®":10198,"à¤£à¤¨à¤Ĺà¤°à¤ķ":10199,"à¤¡à¤¬à¤²à¤®":10200,"à¥ĩà¤Ĥà¥¤âĢĻ":10201,"à¥ĩà¤ĤâĢĻ,":10202,"à¥ĩà¤Ĥà¤ģà¥¤":10203,"Ġà¥¨à¥®à¥¨":10204,"Ġà¥¨à¥®à¥¬":10205,"Ġà¥¨à¥®à¥¯":10206,"à¤¯à¤Łà¤¸":10207,"Ġà¥¨à¥©à¥¦":10208,"Ġà¥¨à¥©à¥¬":10209,"Ġà¥¨à¥©à¥ª":10210,"Ġà¥¨à¥©à¥¯":10211,"Ġà¥¨à¥©à¥¯à¥¬":10212,"à¤Łà¤¬à¤²à¤¸":10213,"à¤Łà¤¬à¤²à¤°à¤¹à¤°":10214,"Ġà¤Ĩà¤ıà¤Ńà¤¨":10215,"Ġà¤Ĩà¤ıà¤ħà¤¨":10216,"Ġà¤ľà¤²à¤¦":10217,"Ġà¤ľà¤²à¤¨à¤²":10218,"Ġà¤ľà¤²à¤ļà¤°à¤ķ":10219,"Ġà¤¸à¤ĺà¤¨à¤¤":10220,"Ġà¤Īà¤¯":10221,"Ġà¤Īà¤¨à¤ķà¤°":10222,"Ġà¥Ńà¥¦à¥©":10223,"Ġà¤¬à¤¹à¤¸à¤ªà¤Ľ":10224,"Ġà¤¨à¤Ĩà¤ĩ":10225,"Ġà¤¨à¤Ĩà¤ĩà¤ª":10226,"Ġà¤¨à¤Ĩà¤Ĭ":10227,"Ġà¤¨à¤Ĩà¤ıà¤ªà¤¨":10228,"Ġà¤¦à¤®à¤¨à¤¨":10229,"à¥ĭà¥ĩâĢĻ":10230,"à¤¤à¤¹à¤Łà¤¬":10231,"Ġà¤¨à¤Ńà¤ıà¤¬":10232,"à¤ľà¤¬à¤¡":10233,"à¤ľà¤¬à¤¸à¤®":10234,"Ġà¥¨à¥¯à¥¨":10235,"Ġà¥¨à¥¯à¥¬":10236,"à¤Ĭà¤®":10237,"à¤Ĭà¤ĵà¤²":10238,"Ġà¥©à¥«à¥©":10239,"Ġà¤¨à¤Ĺà¤¦à¤°à¤¹":10240,"Ġà¥©à¥©à¥§":10241,"Ġà¥©à¥©à¥«":10242,"Ġà¥©à¥©à¥¬":10243,"Ġà¥©à¥©à¥®":10244,"à¥ģà¥ģà¥ģ":10245,"à¥ģà¥ģâĢľ":10246,"à¥ģà¥ģ',":10247,"Ġà¤¦à¤¸à¤µà¤°":10248,"Ġ!!":10249,"Ġà¤ĵà¤Ńà¤°à¤²":10250,"Ġà¤ĵà¤Ńà¤°à¤¬":10251,"à¤²à¤Ńà¤ª":10252,"à¤²à¤Ńà¤°à¤ķ":10253,"à¤ıà¤«à¤µ":10254,"à¤ıà¤«à¤Ĩà¤°":10255,"à¤ıà¤«à¤Ĩà¤ĩà¤¡":10256,"à¤ıà¤«à¤ıà¤²à¤ıà¤«":10257,"Ġà¤Ĩà¤Īà¤¯":10258,"Ġà¤Ĩà¤Īà¤¸à¤²":10259,"Ġà¤Ĩà¤Īà¤¤à¤µ":10260,"Ġà¤īà¤ªà¤°à¤¥":10261,"Ġà¤ķà¤¦à¤®à¤¸à¤¹":10262,"à¥ĭâĢĻà¥¤":10263,"à¥ĭâĢĻâĢĵ":10264,"à¤¹à¤¦à¤¬":10265,"à¤®à¤°à¤£à¤°à¤¹":10266,"Ġà¤ħà¤¸à¤®à¤ķ":10267,"Ġà¤ļà¤¢à¤¨":10268,"Ġà¥©à¥§à¥«":10269,"Ġà¥©à¥§à¥¨":10270,"Ġà¥©à¥§à¥¬":10271,"à¤§à¤¨à¤²à¤Ĺà¤¤":10272,"à¤¶à¤¨à¤²à¤ķ":10273,"Ġà¤ħà¤¶à¤°":10274,"à¤µà¤¨à¤ķà¤¥":10275,"à¥ĩâĢĻâĢĵ":10276,"Ġà¤¶à¤°à¤£à¤°":10277,"Ġà¥ªà¥«à¥¬":10278,"Ġà¤Ĩà¤¸à¤«":10279,"Ġà¤Ĩà¤¸à¤¯à¤²":10280,"Ġà¤²à¤®à¤¤à¤¨":10281,"Ġà¤Ĺà¤ıà¤¦":10282,"à¤¥à¤µà¤°à¤¸":10283,"à¤Ĺà¤ľà¤¹à¤°":10284,"à¤¾à¥Īà¤ĤâĢĻ":10285,"Ġà¤ķà¤¬à¤¡":10286,"Ġà¥©à¥¨à¥¬":10287,"à¤ĩà¤¬à¤²à¤²":10288,"à¤¨à¤Ńà¤°à¤ķ":10289,"à¤¨à¤Ńà¤ıà¤Ńà¤¨":10290,"à¤§à¤¨à¤®à¤§":10291,"à¤°à¤¹à¤£à¤¶":10292,"à¤Ĩà¤Īà¤ıà¤ķ":10293,"à¤Ĩà¤Īà¤ıà¤¸":10294,"à¤Ĩà¤Īà¤¤à¤¬":10295,"à¤Ĩà¤Īà¤ıà¤²":10296,"à¤Ĩà¤Īà¤ıà¤¸à¤ķ":10297,"à¤¨à¤¹à¤ª":10298,"Ġà¤ĸà¤¬à¤°à¤ª":10299,"Ġà¤ĸà¤¬à¤°à¤¸à¤®":10300,"Ġà¤ĸà¤¬à¤°à¤ªà¤Ľ":10301,"Ġà¤ıà¤«à¤ıà¤¸à¤²":10302,"Ġà¤ıà¤«à¤ıà¤®à¤®":10303,"Ġà¤ıà¤«à¤ıà¤®à¤ķ":10304,"Ġà¤ıà¤«à¤«à¤°à¤ıà¤«":10305,"Ġà¤ļà¤°à¤®à¤°":10306,"Ġà¤ħà¤²à¤Ĺà¤¥à¤²à¤Ĺ":10307,"à¤ıà¤¨à¤ıà¤¬":10308,"à¤ıà¤¨à¤ıà¤¨à¤²":10309,"à¤®à¤¯à¤£à¤®":10310,"à¤µà¤¸à¤®à¤ķ":10311,"Ġà¥©à¥¬à¥«":10312,"Ġà¥©à¥¬à¥ª":10313,"Ġà¤¤à¤²à¤¬à¤²":10314,"Ġà¤ıà¤¡à¤ľà¤¸":10315,"Ġà¤ļà¤²à¤¨à¤¹à¤°":10316,"à¤¯à¤¥à¤²à¤¨":10317,"Ġà¤ħà¤µà¤²à¤ļ":10318,"Ġà¥ªà¥¨à¥«":10319,"Ġà¥ªà¥¨à¥ª":10320,"Ġà¥¬à¥«à¥«":10321,"Ġà¥¬à¥«à¥¯":10322,"Ġà¤ħà¤µà¤¶à¤°à¤®":10323,"Ġà¤®à¤¦à¤¨à¤ªà¤¥":10324,"Ġà¤®à¤¹ÅĴà¤µà¤¸à¤®":10325,"Ġà¤ıà¤¨à¤Ĩà¤°à¤ıà¤¨à¤ıà¤Ń":10326,"à¤¤à¤ļà¤°à¤²":10327,"Ġà¤¡à¤²à¤°à¤¬":10328,"Ġà¤¡à¤²à¤°à¤¨":10329,"Ġà¤¡à¤²à¤°à¤ª":10330,"Ġà¤¡à¤²à¤°à¤¸à¤¹":10331,"Ġà¤¬à¤¡à¤¬à¤°":10332,"à¤īà¤ªà¤§":10333,"à¤īà¤ªà¤ł":10334,"à¤īà¤ªà¤¸à¤Ń":10335,"à¤¥à¤Ĺà¤¨à¤®":10336,"Ġà¥¦à¥Ńà¥Ń":10337,"à¤¿à¥¤âĢĿ":10338,"...'":10339,"Ġà¤ªà¤Łà¤ķà¤²":10340,"Ġà¤Ĺà¤ľà¤²à¤®":10341,"Ġà¤ļà¤°à¤£à¤¦":10342,"Ġà¤ļà¤°à¤£à¤¸à¤®":10343,"Ġà¤ıà¤¨à¤Ĩà¤°à¤ıà¤¨à¤¸":10344,"à¤£à¤ªà¤ĸ":10345,"Ġà¤¤à¤¬à¤°à¤¬":10346,"Ġà¥©à¥Ńà¥«":10347,"Ġà¥©à¥Ńà¥Ń":10348,"Ġà¥«à¥¨à¥«":10349,"Ġà¥«à¥¨à¥®":10350,"à¤¦à¤¨à¤²à¤Ĺ":10351,"Ġà¥ªà¥©à¥«":10352,"Ġà¥ªà¥©à¥¬":10353,"Ġà¥ªà¥©à¥ª":10354,"Ġà¥ªà¥©à¥®":10355,"à¤Ĩà¤ľà¤Ń":10356,"à¤Ĩà¤ľà¤Ńà¤¨":10357,"Ġà¥©à¥ªà¥¬":10358,"à¥§à¥¦à¥¯":10359,"Ġà¥§à¥¯à¥«à¥«":10360,"Ġà¥§à¥¯à¥«à¥¬":10361,"à¤ĩà¤¨à¤®à¤§":10362,"Ġà¤ħà¤²à¤®à¤²à¤²":10363,"à¥§à¥§à¥«":10364,"Ġà¤ªà¤ļà¤¹à¤¤":10365,"Ġà¤®à¤Ĺà¤°à¤¹à¤°":10366,"à¤ĩà¤ıà¤¦":10367,"à¤ĩà¤ıà¤Ŀ":10368,"à¤ĩà¤ıà¤ľà¤¸":10369,"à¤ĩà¤ıà¤ħà¤¨":10370,"à¤ĩà¤ıà¤ļà¤ıà¤¸":10371,"Ġà¤¬à¤Łà¤¨à¤ķ":10372,"Ġà¤¬à¤Łà¤¨à¤²":10373,"Ġà¤²à¤¤à¤¸à¤®":10374,"Ġà¤²à¤¤à¤ªà¤¤":10375,"à¤ĩà¤²à¤®à¤ķ":10376,"Ġà¤°à¤ľà¤¤à¤ªà¤Łà¤®":10377,"à¤ıà¤ļà¤ı":10378,"à¤ıà¤ļà¤ıà¤«":10379,"à¤ıà¤ļà¤ĵà¤ķ":10380,"à¤ıà¤ļà¤Ĩà¤°à¤²":10381,"à¤°à¤Ļà¤Ĺ":10382,"à¤°à¤Ļà¤¸à¤®":10383,"à¥§à¥«à¥¯":10384,"à¤°à¤ľà¤¨à¤¸":10385,"à¤¸à¤µà¤®à¤¯":10386,"à¤īà¤¸à¤¸à¤®":10387,"ĠâĢĻ,":10388,"Ġà¥«à¥¬à¥«":10389,"à¤ıà¤¨à¤Ĩà¤°à¤ıà¤¨à¤ķ":10390,"à¤ıà¤¨à¤Ĩà¤°à¤ıà¤ı":10391,"Ġà¤¨à¤Ĺà¤ª":10392,"Ġà¤¨à¤Ĺà¤ı":10393,"Ġà¤¸à¤¹à¤¨à¤¶à¤ķ":10394,"Ġà¥«à¥©à¥¨":10395,"à¤ľà¤ķà¤®à¤§":10396,"à¥Ĥà¤ģ?":10397,"à¤Ńà¤ªà¤¤à¤¨à¤¬":10398,"à¤¯à¤ľà¤¨à¤¸":10399,"Ġà¥¬à¥©à¥¦":10400,"Ġà¥ªà¥§à¥ª":10401,"Ġà¥ªà¥Ńà¥¦":10402,"à¤¾à¥Īà¥¤âĢĻ":10403,"Ġà¤¹à¤Ļà¤ķà¤Ļà¤µ":10404,"Ġà¥®à¥¨à¥®":10405,"à¤ķà¤Ńà¤°à¤®":10406,"Ġà¤Ĺà¤¹à¤¨à¤°":10407,"Ġà¤Ĺà¤¹à¤¨à¤¤à¤®":10408,"à¤·à¤¯à¤¤à¤°":10409,"à¤·à¤ķà¤®à¤§":10410,"Ġà¥ªà¥¬à¥¦":10411,"à¥§à¥¨à¥§":10412,"à¥§à¥¨à¥ª":10413,"à¤¨à¤¸à¤¹à¤ª":10414,"à¤¹à¤¨à¤¤à¤ªà¤Ľ":10415,"à¤¹à¤¨à¤¤à¤ħà¤¨":10416,"Ġà¤¸à¤¦à¤¨à¤¸à¤¹":10417,"à¤ľà¤Ńà¤¤":10418,"Ġà¤ľà¤Ĺà¤¤à¤¸":10419,"à¤²à¤Ĺà¤¨à¤¶":10420,"à¤Ĩà¤ĩà¤Ĩ":10421,"Ġà¥®à¥«à¥¦":10422,"Ġà¤ħà¤¸à¤¹à¤®à¤¤à¤¹à¤°":10423,"à¤¨à¤Ľà¤¹à¤°":10424,"Ġà¤ħà¤¨à¤¶à¤¨à¤¦":10425,"Ġà¤ħà¤¨à¤¶à¤¨à¤¬":10426,"Ġà¤ıà¤¯à¤°à¤°":10427,"Ġà¤ĵà¤ªà¤¨à¤¹":10428,"Ġà¥¬à¥®à¥¨":10429,"Ġà¥¬à¥®à¥©":10430,"Ġà¤ķà¤°à¤£à¤°":10431,"à¤²à¤ĸà¤¬à¤¨":10432,"à¤Łà¤²à¤ķà¤ľ":10433,"Ġà¤ĸà¤¬à¤°à¤¸":10434,"à¤¤à¤°à¤¬à¤¹à¤¤":10435,"Ġà¥«à¥Ńà¥©":10436,"Ġà¤ħà¤µà¤¤à¤°à¤£à¤ªà¤Ľ":10437,"à¤ĩà¤Łà¤®à¤§":10438,"Ġà¤Ĩà¤ĩà¤ıà¤®à¤Īà¤ķ":10439,"Ġà¤Ĩà¤ĩà¤ıà¤®à¤Īà¤¦":10440,"Ġà¥Ńà¥®à¥©":10441,"Ġà¤¦à¤®à¤ķà¤¡":10442,"Ġà¥¬à¥¨à¥¬":10443,"à¤¸à¤«à¤°à¤®":10444,"Ġà¤łà¤®à¤łà¤®":10445,"Ġà¤¸à¤¡à¤ķà¤²à¤Ĺ":10446,"à¤¦à¤¶à¤ľà¤¨":10447,"à¤¦à¤¶à¤Ĺà¤ľ":10448,"Ġà¥§à¥¯à¥¬à¥ª":10449,"à¤Ĺà¤µà¤¤à¤®":10450,"à¤Ĺà¤µà¤¤à¤®à¤¯":10451,"Ġà¤¡à¤ķà¤µà¤°":10452,"Ġà¤¸à¤ªà¤¥à¤ªà¤Ľ":10453,"Ġà¤¸à¤ªà¤¥à¤ªà¤¤":10454,"Ġà¤Ĩà¤Īà¤¸à¤«à¤²":10455,"Ġà¤¸à¤¨à¤®à¤²":10456,"Ġà¤¦à¤²à¤®à¤§":10457,"Ġà¤Łà¤ķà¤¬à¤¹":10458,"Ġà¥¯à¥®à¥ªà¥®":10459,"à¤²à¤Łà¤Ńà¤¨":10460,"Ġà¤¸à¤°à¤¹à¤®":10461,"Ġà¤¸à¤°à¤¹à¤¦à¤Ń":10462,"Ġà¤ıà¤ļà¤ı":10463,"à¤¯à¤¦à¤²à¤¹à¤°":10464,"Ġà¤ķà¤²à¤ķà¤²à¤µ":10465,"Ġà¤ķà¤²à¤®à¤ķ":10466,"à¤Īà¤ªà¤Łà¤ķà¤ķ":10467,"à¤Īà¤ªà¤Łà¤ķà¤Ńà¤¨":10468,"à¤¡à¤¹à¤°à¤®":10469,"à¤¯à¤¤à¤¬à¤¶":10470,"à¤ĩà¤ĵà¤Ĩà¤Ī":10471,"Ġà¥Ńà¥¯à¥§à¥«":10472,"Ġà¤ĩà¤Ļà¤ĺà¤Ļà¤²":10473,"Ġà¥¯à¥Ńà¥§":10474,"Ġà¥¯à¥Ńà¥¯":10475,"à¤ķà¤ħà¤ªà¤ªà¤Ľ":10476,"Ġà¤µà¤ļà¤¨à¤µà¤¦":10477,"Ġà¤ľà¤¯à¤¨à¤¨":10478,"Ġà¤°à¤¹à¤°à¤®":10479,"Ġà¥¯à¥¯à¥¦":10480,"Ġà¤ªà¤¥à¤Ń":10481,"Ġà¤ļà¤Łà¤ªà¤Ł":10482,"à¥Įà¤ģ,âĢĻâĢĻ":10483,"à¤ıà¤¸à¤ıà¤®à¤ıà¤¸":10484,"à¤Ĳà¤ķ":10485,"Ġà¤Ńà¤ĩà¤Ĺ":10486,"Ġà¤Ńà¤ĩà¤Ľ":10487,"Ġà¤Ńà¤ĩà¤ķà¤¨":10488,"Ġà¤Ńà¤ĩà¤Ĩà¤ıà¤ķ":10489,"à¤ĩà¤²à¤ķà¤°":10490,"à¤Ĺà¤łà¤¨à¤®à¤§":10491,"Ġà¤Ĩà¤ĩà¤¨à¤ª":10492,"à¤¾à¤ĥ,":10493,"Ġà¤ĵà¤Ńà¤°à¤¡":10494,"à¥įâĢº,":10495,"Ġà¤²à¤ĸà¤¨à¤²":10496,"à¤ĩà¤ļà¤¢":10497,"Ġà¤Łà¤®à¤Łà¤°":10498,"Ġà¤®à¤¨à¤ķà¤²":10499,"Ġà¤µà¤°à¤ªà¤°à¤¬":10500,"Ġà¤¦à¤®à¤¨à¤µ":10501,"Ġà¤¦à¤®à¤¨à¤¬":10502,"Ġà¤īà¤¦à¤¯à¤ªà¤Ľ":10503,"à¤¨à¤Ĺà¤¯":10504,"à¤ķà¤«à¤Łà¤®":10505,"Ġà¤²à¤¸à¤ıà¤¨":10506,"Ġà¥¦à¥ªà¥§":10507,"Ġà¥¦à¥ªà¥¨":10508,"Ġà¤ªà¤¤à¤¨à¤ªà¤Ľ":10509,"Ġà¤¨à¤°à¤®à¤ªà¤¨":10510,"Ġà¤¨à¤īà¤¬":10511,"Ġà¤¨à¤īà¤Ń":10512,"à¤¨à¤Īà¤¶":10513,"à¤°à¤¬à¤¦à¤²à¤ķ":10514,"à¤¸à¤¸à¤ķà¤°":10515,"Ġà¤®à¤²à¤®à¤ªà¤Ł":10516,"à¤ļà¤¥à¤°à¤²":10517,"Ġà¤®à¤¹à¤²à¤ħà¤¨":10518,"Ġà¤Ĩà¤µà¤¸à¤°":10519,"à¤¡à¤°à¤¸à¤¨à¤ķ":10520,"à¤¡à¤°à¤¸à¤Łà¤®":10521,"à¤¼à¥ģ":10522,"à¤¼à¥Ī":10523,"à¤¼à¥Į":10524,"à¤°à¤ħà¤µ":10525,"Ġà¤¸à¤¯à¤®à¤§":10526,"à¤Īà¤ĺà¤£":10527,"Ġà¤¡à¤®à¤°à¤¬à¤¹":10528,"Ġà¤¹à¤¦à¤Ńà¤¨":10529,"Ġà¤īà¤Ľà¤²à¤ķ":10530,"à¥Ńà¥©à¥Ń":10531,"Ġà¤Ŀà¤¡à¤ªà¤¬":10532,"à¥ģâĢº":10533,"à¤¦à¤¶à¤¨à¤ªà¤Ľ":10534,"Ġà¤Ĺà¤¡à¤Ĺà¤¡":10535,"à¤¯à¤ķà¤°à¤£à¤¸":10536,"Ġà¤ıà¤¸à¤ĩà¤ĩà¤ķ":10537,"à¥«à¥¬à¥¬":10538,"Ġà¤Ĩà¤ĩà¤ıà¤¸à¤¡":10539,"Ġà¤Ĩà¤ĩà¤ıà¤¸à¤ĵ":10540,"à¤ľà¤Ĺà¤¢à¤¸à¤®":10541,"Ġà¤ıà¤®à¤ıà¤ıà¤ļà¤ķ":10542,"à¤ľà¤¯à¤ªà¤¶":10543,"à¤§à¤¶à¤¤à¤ķà¤ª":10544,"à¤°à¤µà¤ļà¤¨à¤¹à¤°":10545,"ĠĠĠĠĠĠĠĠĠĠĠĠĠĠĠĠĠĠĠĠĠĠĠĠĠĠĠĠĠĠĠĠĠĠĠĠĠĠĠĠĠĠĠĠĠĠĠĠĠĠĠĠĠĠĠĠ":10546,"à¤¾à¥įà¥Īà¤Ĥ":10547,"à¤°à¤ķà¤°à¤£à¤¸":10548,"Ġà¤Ĩà¤ĩà¤°à¤¨à¤²":10549,"à¤¯à¤ĺà¤£":10550,"Ġà¤µà¤¢à¤¨":10551,"à¤ıà¤¸à¤ıà¤²à¤¬":10552,"Ġà¥§à¥¨à¥«à¥®":10553,"ther":10554,"à¤°à¤¡à¤®à¤®":10555,"à¤¸à¤ľà¤¨à¤µ":10556,"à¤¸à¤ľà¤¨à¤¹à¤°":10557,"Ġà¤¹à¤łà¤µ":10558,"Ġà¤¤ÅĴà¤µà¤²":10559,"à¤¯à¤¦à¤²à¤®à¤§":10560,"Ġà¤°à¤¡à¤²à¤Ĺ":10561,"à¤Ĩà¤ĩà¤ıà¤¸à¤ĵ":10562,"Ġwe":10563,"Ġwww":10564,"Ġwill":10565,"à¤¯à¤Ļà¤¨":10566,"Ġà¤Ĩà¤ĩà¤ĵà¤ıà¤¸à¤®":10567,"Ġà¤Ĩà¤ĩà¤ĵà¤ıà¤¸à¤ķ":10568,"Ġà¤Ĩà¤ĩà¤ĵà¤ıà¤®à¤ķ":10569,"à¤¯à¤°à¤¸à¤¯":10570,"à¤ģà¤ģà¤ģà¤ģ":10571,"à¤ļà¤ĸà¤ªà¤¨à¤ķ":10572,"à¤ļà¤ĸà¤ªà¤¨à¤²":10573,"Ġà¤ıà¤ıà¤¨à¤ıà¤¸":10574,"à¤¢à¤²à¤ªà¤²":10575,"Ġà¤Ĩà¤µà¤°à¤£à¤Ń":10576,"à¥¨à¥¯à¥®":10577,"Ġà¥§à¥®à¥¦à¥§":10578,"à¤°à¤ıà¤¨à¤¹à¤°":10579,"à¤®à¤¨à¤®à¤Ĺà¤¨":10580,"à¥ªà¥ªà¥ª":10581,"à¤ĵà¤ªà¤¸à¤¨":10582,"ent":10583,"alpass":10584,"à¤¸à¤Ĺà¤ŀ":10585,"à¤Īà¤ķà¤²à¤²":10586,"à¤°à¤®à¤¸à¤¹à¤ļ":10587,"à¥¦à¥¬à¥¬":10588,"à¥¯à¥¯à¥¯":10589,"Ġà¥§à¥ªà¥¦à¥ª":10590,"à¤¨à¤°à¤¸à¤¬":10591,"à¤ķà¤łà¤ª":10592,"à¤¸à¤¯à¤ķà¤¡":10593,"Ġà¤¬à¤Ĺà¤°à¤Ľ":10594,"Ġà¤ľà¤¨à¤Ĺà¤£à¤ķ":10595,"à¤°à¤µà¤¹à¤¨à¤®":10596,"à¤®à¤ľà¤¨à¤®à¤²":10597,"à¤¡à¤°à¤¶à¤Ł":10598,"à¤¡à¤°à¤¶à¤Łà¤®":10599,"Ġà¤ıà¤Ļà¤Ĺà¤²à¤¬":10600,"ĠĠĠĠĠĠĠĠĠĠĠĠĠĠĠĠĠĠĠĠĠĠĠĠĠĠ":10601,"ĠĠĠĠĠĠĠĠĠĠĠĠĠĠĠĠĠĠĠĠĠĠĠĠĠĠĠĠĠĠ":10602,"ĠĠĠĠĠĠĠĠĠĠĠĠĠĠĠĠĠĠĠĠĠĠĠĠĠĠĠĠĠ":10603,"epal":10604,"iti":10605,"ity":10606,"ÂŃ)":10607,"ÂŃÂŃ)":10608,"ĠAf":10609,"ĠApp":10610,"à¥įà¤ĥâĢĵ":10611,"Ġà¤¸à¤¤à¤²à¤ľà¤²":10612,"Ġà¤Ľà¤®à¤Ľà¤®":10613,"Ġà¤²à¤µà¤ľà¤®":10614,"à¤ıà¤®à¤ĵà¤¯":10615,"à¤ıà¤®à¤ĵà¤¡":10616,"à¤ķà¤Łà¤¸à¤¬à¤¨":10617,"Ġ,âĢĺâĢĺ":10618,"à¤ĭà¤£":10619,"à¥ĩâĢĶâĢĺ":10620,"à¤¦à¤°à¤¬à¤¸":10621,"Ġà¤¹à¤°à¤ķà¤łà¤µ":10622,"à¤īà¤ªà¤ķà¤°à¤£":10623,"à¥Įà¥Īà¤Ĥà¥¤":10624,"Ġà¤ħà¤¨à¤¸à¤¶à¤¨":10625,"Ġà¤Ĩà¤ĩà¤ıà¤²à¤Ł":10626,"à¤Ĩà¤°à¤ıà¤¸à¤ıà¤¸":10627,"Ġà¥§à¥Ńà¥¦à¥¨à¥«":10628,"à¤¥à¤²à¤Ĺà¤¤à¤°":10629,"Ġà¤Ĩà¤¡à¤Ńà¤°":10630,"à¥Įà¥Īà¤ģâĢĻ":10631,"Ġà¤Ĩà¤°à¤ıà¤¸à¤ıà¤¸à¤ķ":10632,"Ġà¤ıà¤«à¤Ĩà¤Īà¤Ĩà¤°à¤®":10633,"www":10634,"Â¬)":10635,"Ġtal":10636,"à¤¿...?":10637,"à¤®à¤°à¤¹à¤ł":10638,"à¤¹à¤ļà¤°à¤£à¤®":10639,"à¤¹à¤ļà¤°à¤£à¤ķ":10640,"Ġà¤ľà¤®à¤²à¤¸":10641,"âĢ©âĢ©":10642,"Ġà¤ıà¤¸à¤ĵà¤ıà¤ļà¤Ĩà¤°à¤²":10643,"Ġà¤Īà¤Ļà¤ĺà¤Ļà¤²":10644,"444":10645,"nepembassy":10646,"oper":10647,"ĠTh":10648,"Ġhttp":10649,"à¤¤à¤§à¤®à¤¨":10650,"Ġà¤°à¤¤à¤¨à¤ļ":10651,"Ġà¤Ľà¤²à¤ķà¤ªà¤Łà¤ķ":10652,"Ġà¤Ľà¤²à¤ķà¤ªà¤Ł":10653,"à¤īà¤ªà¤®à¤¹":10654,"Ġà¤¶à¤ªà¤¥à¤ķ":10655,"à¤Ŀà¤®à¤ķà¤ķ":10656,"Ġà¤ıà¤¸à¤ıà¤Łà¤ª":10657,"ĠĠĠĠĠĠĠĠĠĠĠĠĠĠĠĠĠĠĠĠĠĠĠĠĠĠĠĠĠĠĠĠĠĠĠĠĠĠĠĠĠĠĠĠĠĠĠĠĠĠĠĠĠĠĠĠĠĠĠĠĠĠĠĠĠĠĠĠ":10658,"Indian":10659,"Ġà¤¤à¤¡à¤ķà¤Ńà¤¡à¤ķà¤Ńà¤¨":10660,"riend":10661,"ĠOli":10662,"ĠPM":10663,"Ġbe":10664,"Ġà¤ķà¤Ńà¤°à¤¬":10665,"Ġà¤ķà¤¨à¤ķà¤®à¤£":10666,"Ġà¤Ĺà¤Ĺà¤¨à¤¸":10667,"à¥Ī...)à¥¤":10668,"Ġà¤°à¤¸à¤°à¤Ļ":10669,"Ġà¤ħà¤Ĺà¤°à¤¬à¤¤":10670,"à¤ľà¤¬à¤°à¤ľà¤¸":10671,"Ġà¤¦à¤²à¤¬à¤²à¤¸à¤¹":10672,"Ġà¤Ĩà¤ľà¤®à¤¸":10673,"illion":10674,"acy":10675,"gov":10676,"rade":10677,"ĠBillion":10678,"ĠNepal":10679,"ĠQmore":10680,"ĠWe":10681,"Ġand":10682,"Ġnepalpass":10683,"à¤¨à¤Ńà¤µà¤¨à¤®":10684,"Ġà¤°à¤¸à¤¦à¤ª":10685,"à¤ıà¤ıà¤«à¤¯":10686,"Ġà¤Ľà¤łà¤ªà¤°":10687,"Ġà¤Ľà¤Ļà¤Ľà¤Ļ":10688,"Ġà¤Ĩà¤ªà¤¨à¤¤":10689,"Ġà¤ħà¤¸à¤¹à¤¨à¤¶":10690,"Ġà¤Ľà¤²à¤ªà¤«à¤²":10691,"Ġ12345678":10692,"Play":10693,"not":10694,"Ġstore":10695,"Ġext":10696,"Ġvisit":10697,"à¤¨à¤ħà¤Łà¤°":10698,"Ġà¤ªà¤²à¤ªà¤²à¤®":10699,"à¤Ĺà¤µà¤°à¤ªà¤°":10700,"à¤ıà¤ıà¤¨à¤ıà¤²à¤Ł":10701,"Ġà¤¬à¤°à¤¹à¤¥à¤µ":10702,"Ġà¤¹à¤¥à¤ķà¤£":10703,"Ġà¤µà¤²à¤Ńà¤¦":10704,"à¤¥à¤Łà¤¬à¤ķ":10705,"à¤¡à¤µà¤¯à¤°à¤ķ":10706,"Ġà¤ıà¤ħà¤°à¤ª":10707,"Ġà¤°à¤¹à¤²à¤ªà¤¹à¤²":10708,"Ġà¤¡à¤°à¤§à¤®":10709,"à¤Ĩà¤®à¤¸à¤ŀ":10710,"à¤Ĩà¤®à¤¹à¤¡":10711,"Ġà¤ĶÃĪà¤§":10712,"Ġà¤ıà¤¨à¤ıà¤¸à¤¡à¤¬":10713,"Ġà¤ıà¤¸à¤ıà¤²à¤ıà¤«à¤ª":10714,"à¤ıà¤¸à¤Ĩà¤ĩà¤Ĩà¤°à¤ĵ":10715,"Ġà¥¯à¥®à¥ªà¥®à¥©":10716,"Ġnepalpassport":10717,"%)":10718,"''":10719,"'à¥¤":10720,")(":10721,").":10722,");":10723,")à¥ĩ":10724,")âĢĶ":10725,"))à¥¤":10726,",\"":10727,",à¥¤":10728,",à¥¤âĢĻ":10729,",Ã·":10730,"01":10731,"06":10732,"123":10733,"21":10734,"29":10735,"2500":10736,"35":10737,"300":10738,"321":10739,"4321":10740,"54321":10741,"654321":10742,"72":10743,"7654321":10744,"87654321":10745,"90":10746,"?,âĢĻ":10747,"?âĢĻ,":10748,"AF":10749,"AK":10750,"AP":10751,"Aw":10752,"Blo":10753,"CC":10754,"Ch":10755,"Co":10756,"Cri":10757,"Di":10758,"Dom":10759,"ED":10760,"EF":10761,"ER":10762,"Es":10763,"Gu":10764,"II":10765,"IO":10766,"IAF":10767,"Jo":10768,"KA":10769,"KL":10770,"KP":10771,"LA":10772,"Mr":10773,"Min":10774,"Mar":10775,"MCC":10776,"NP":10777,"NR":10778,"NT":10779,"OM":10780,"OKL":10781,"Pi":10782,"Pre":10783,"Qu":10784,"RA":10785,"Re":10786,"SD":10787,"Sp":10788,"TY":10789,"Tw":10790,"Top":10791,"Vis":10792,"Was":10793,"WER":10794,"ab":10795,"ak":10796,"av":10797,"ain":10798,"app":10799,"ave":10800,"age":10801,"ch":10802,"ck":10803,"cort":10804,"de":10805,"df":10806,"dv":10807,"ding":10808,"een":10809,"edi":10810,"eop":10811,"eWas":10812,"fect":10813,"flect":10814,"gp":10815,"gan":10816,"gion":10817,"gis":10818,"ha":10819,"ho":10820,"hs":10821,"hat":10822,"har":10823,"hes":10824,"iz":10825,"ks":10826,"kes":10827,"le":10828,"ly":10829,"lat":10830,"lom":10831,"lation":10832,"lcom":10833,"let":10834,"llect":10835,"mp":10836,"mà¤¸":10837,"mà¤ª":10838,"mà¤Ľ":10839,"mà¤Ń":10840,"mà¤¨à¤ķ":10841,"mà¤¸à¤®":10842,"mà¤²à¤®":10843,"mà¤²à¤¬":10844,"mà¤²à¤¨":10845,"mà¤ľà¤¸":10846,"mà¤Ńà¤¦":10847,"man":10848,"np":10849,"nà¤¨à¤µ":10850,"nal":10851,"nation":10852,"nav":10853,"ow":10854,"ool":10855,"other":10856,"ooper":10857,"okes":10858,"per":10859,"pec":10860,"prad":10861,"pet":10862,"plom":10863,"rep":10864,"riti":10865,"roper":10866,"racy":10867,"rgan":10868,"son":10869,"sen":10870,"san":10871,"send":10872,"sive":10873,"tu":10874,"tw":10875,"ty":10876,"tin":10877,"tter":10878,"tac":10879,"tration":10880,"tGu":10881,"ue":10882,"ual":10883,"unt":10884,"ulat":10885,"ump":10886,"usan":10887,"utu":10888,"vit":10889,"wor":10890,"§§":10891,"Âģ":10892,"Âį":10893,"Ãľ":10894,"ÅĤ":10895,"Ì¸":10896,"à§§":10897,"Ġ3":10898,"ĠU":10899,"Ġ[":10900,"Ġ\\":10901,"Ġ|":10902,"Ġ~":10903,"Ġà¥Ĥ":10904,"Ġor":10905,"Ġar":10906,"ĠIn":10907,"Ġlo":10908,"ĠIndia":10909,"ĠDef":10910,"ĠIndian":10911,"Ġnot":10912,"Ġ06":10913,"Ġ29":10914,"ĠCh":10915,"ĠEs":10916,"ĠJo":10917,"ĠKP":10918,"ĠRe":10919,"ĠVis":10920,"Ġde":10921,"Ġlet":10922,"Ġman":10923,"Ġnà¤¨à¤µ":10924,"Ġrep":10925,"Ġsend":10926,"Ġump":10927,"ĠÅĤ":10928,"ĠÌ¸":10929,"Ġà§§":10930,"à¤±":10931,"à¥Ĭ":10932,"à¤¾]":10933,"à¤¾à¤¾à¤ģ":10934,"à¤¾à¥ĥ":10935,"à¤¾à¤¾à¥Īà¤Ĥ":10936,"à¤¾âĢĮ":10937,"à¥į(":10938,"à¥į_":10939,"à¥įà¥ĭ":10940,"à¥įà¥Ĥ":10941,"à¥įà¥Įà¤Ĥ":10942,"à¥įà¥Įà¤ģà¥¤":10943,"à¥įà¥ģà¥ģ":10944,"à¥į...":10945,"à¥įÂ«":10946,"à¥įà¥Īà¥Ī":10947,"à¥įà¥ĩà¥ĩ":10948,"à¥įà¤¾à¥į":10949,"à¥įà¥Įà¤Ĥ,'":10950,"à¥įà¤¾à¥ĭ":10951,"à¥įà¥Ģà¤¿":10952,"à¤°m":10953,"à¤°à¤°à¤®":10954,"à¤°à¤¢":10955,"à¤°à¤°à¤²":10956,"à¤°à¤Łà¤¨":10957,"à¤°à¤¨à¤¨":10958,"à¤°à¤łà¤®":10959,"à¤°à¤ıà¤ªà¤Ľ":10960,"à¤°à¤ľà¤®":10961,"à¤°à¤Ĩà¤°":10962,"à¤°à¤¯à¤ķà¤°":10963,"à¤°à¤ĺà¤°":10964,"à¤°à¤°à¤£à¤ķ":10965,"à¤°à¤Ķ":10966,"à¤°à¤īà¤¨à¤ķ":10967,"à¤°à¤¡à¤¨":10968,"à¤°à¤Ĩà¤«":10969,"à¤°à¤Łà¤«":10970,"à¤°à¤Łà¤°à¤ķ":10971,"à¤°à¤ħà¤§":10972,"à¤°à¤ĩà¤Ń":10973,"à¤°à¤īà¤¤":10974,"à¤°à¤ħà¤¹":10975,"à¤°à¤ħà¤Ń":10976,"à¤°à¤·à¤£à¤²":10977,"à¤°à¤ħà¤¸":10978,"à¤°à¤Ĩà¤¬":10979,"à¤°à¤¡à¤ª":10980,"à¤°à¤Ĺà¤®à¤¨à¤ķ":10981,"à¤°à¤¯à¤ķà¤²":10982,"à¤°à¤¨à¤²à¤Ĺ":10983,"à¤°à¤¯à¤²à¤²":10984,"à¤°à¤Īà¤¸":10985,"à¤°à¤ıà¤¬":10986,"à¤°mà¤¨":10987,"à¤°à¤¡à¤Ńà¤¨":10988,"à¤°à¤īà¤ªà¤°":10989,"à¤°à¤¡à¤®à¤ķ":10990,"à¤°à¤Ŀà¤²":10991,"à¤°à¤ıà¤¨à¤ķ":10992,"à¤°à¤łà¤Ĺ":10993,"à¤°à¤ĵà¤Ł":10994,"à¤°à¤ĩà¤Ńà¤ķ":10995,"à¤°à¤ľà¤Ĺà¤ľ":10996,"à¤°à¤ħà¤¸à¤«à¤²":10997,"à¤°à¤īà¤ªà¤°à¤ķ":10998,"à¤¨à¤¨à¤²":10999,"à¤¨à¤°à¤¦":11000,"à¤¨à¤°à¤µ":11001,"à¤¨à¤¤à¤¨":11002,"à¤¨à¤Łà¤¨":11003,"à¤¨à¤Łà¤°":11004,"à¤¨à¤¦à¤¨":11005,"à¤¨à¤°à¤Ń":11006,"à¤¨à¤ıà¤¨":11007,"à¤¨à¤ľà¤ķ":11008,"à¤¨à¤Ĺà¤²":11009,"à¤¨à¤¯à¤°":11010,"à¤¨à¤¶à¤®":11011,"à¤¨à¤ļà¤ķ":11012,"à¤¨à¤ĸà¤°":11013,"à¤¨à¤ªà¤²":11014,"à¤¨à¤¬à¤²":11015,"à¤¨à¤µà¤¯":11016,"à¤¨à¤¡à¤®":11017,"à¤¨à¤¯à¤¸à¤®":11018,"à¤¨à¤ĩà¤²":11019,"à¤¨à¤¤à¤°à¤£":11020,"à¤¨à¤¹à¤²":11021,"à¤¨à¤¡à¤²":11022,"à¤¨à¤ıà¤®":11023,"à¤¨à¤ĩà¤ķ":11024,"à¤¨à¤ļà¤²":11025,"à¤¨à¤¡à¤°":11026,"à¤¨à¤Ĺà¤łà¤¨":11027,"à¤¨à¤ħà¤°":11028,"à¤¨à¤Ĩà¤«":11029,"à¤¨à¤¡à¤¸":11030,"à¤¨à¤¶à¤¨à¤²":11031,"à¤¨à¤ĺà¤°à¤®":11032,"à¤¨à¤īà¤ª":11033,"à¤¨à¤ħà¤¬":11034,"à¤¨à¤Ĺà¤£":11035,"à¤¨à¤Īà¤¦":11036,"à¤¨à¤Ĺà¤Ń":11037,"à¤¨à¤Īà¤¸":11038,"à¤¨à¤ıà¤īà¤Ł":11039,"à¤¨à¤¶à¤¨à¤¬":11040,"à¤¨à¤ĩà¤ļ":11041,"à¤¨à¤¯à¤²à¤Ĺ":11042,"à¤¨à¤Ĩà¤µà¤¶":11043,"à¤¨à¤Ĩà¤īà¤¨":11044,"à¤¨à¤ĵà¤Ł":11045,"à¤¨à¤ĺà¤¨à¤²":11046,"à¤¿',":11047,"à¤¿âĢĮ":11048,"à¤¿...âĢĻ":11049,"à¤ķà¤¯à¤¤":11050,"à¤ķà¤µà¤°":11051,"à¤ķà¤¨à¤¨":11052,"à¤ķà¤Łà¤°":11053,"à¤ķà¤°à¤®à¤£":11054,"à¤ķà¤ªà¤²":11055,"à¤ķà¤£à¤ķ":11056,"à¤ķà¤ªà¤Łà¤ķ":11057,"à¤ķà¤¹à¤²":11058,"à¤ķà¤Ńà¤ıà¤ķ":11059,"à¤ķà¤¥à¤²":11060,"à¤ķà¤ļà¤²":11061,"à¤ķà¤°à¤¹à¤¨":11062,"à¤ķà¤Ĺà¤¨":11063,"à¤ķà¤īà¤µ":11064,"à¤ķà¤Ķ":11065,"à¤ķà¤ħà¤°":11066,"à¤ķà¤Ļà¤®":11067,"à¤ķà¤°à¤¬à¤¹":11068,"à¤ķà¤ľà¤µ":11069,"à¤ķà¤Ĭ":11070,"à¤ķà¤īà¤¤":11071,"à¤ķà¤ħà¤Ń":11072,"à¤ķà¤°à¤¸à¤¹":11073,"à¤ķà¤°à¤®à¤¨":11074,"à¤ķà¤°à¤²à¤Ĺ":11075,"à¤ķà¤²à¤ķà¤ķ":11076,"à¤ķà¤ªà¤¨à¤¬":11077,"à¤ķà¤Ĩà¤¦":11078,"à¤ķà¤°à¤¦à¤¤":11079,"à¤ķà¤¦à¤²à¤¹à¤°":11080,"à¥ĩ:":11081,"à¥ĩ;":11082,"à¥ĩ<":11083,"à¥ĩà¤ĥ":11084,"à¥ĩà¤¾à¥¤":11085,"à¥ĩâĢĿ,":11086,"à¥ĩ...âĢĻ":11087,"à¥ĩâĢį":11088,"à¥ĭ(":11089,"à¥ĭà¤¾à¥¤":11090,"à¥ĭà¥ĩà¤Ĥ":11091,"à¥ĭ..":11092,"à¥ĭà¤¾à¤¿":11093,"à¥ĭ...âĢĻ":11094,"à¥ĭà¥Īà¤ģ,":11095,"à¥ĭà¥Īà¤Ĥ,":11096,"à¥ĭâĢ²,":11097,"à¤²à¤ıà¤ķ":11098,"à¤²à¤°à¤¸":11099,"à¤²à¤°à¤µ":11100,"à¤²à¤µà¤¨":11101,"à¤²à¤¤à¤¨":11102,"à¤²à¤¸à¤°":11103,"à¤²à¤¶à¤¨":11104,"à¤²à¤¹à¤ķ":11105,"à¤²à¤µà¤ª":11106,"à¤²à¤Ļà¤ķ":11107,"à¤²à¤¡à¤²":11108,"à¤²à¤¥à¤²":11109,"à¤²à¤ļà¤²":11110,"à¤²à¤ĺà¤°":11111,"à¤²à¤·à¤£à¤ķ":11112,"à¤²à¤Ńà¤²":11113,"à¤²à¤¦à¤¤":11114,"à¤²à¤ļà¤¸":11115,"à¤²à¤¹à¤¬":11116,"à¤²à¤¡à¤ª":11117,"à¤²à¤¯à¤¤à¤¸":11118,"à¤²à¤¸à¤²à¤Ĺ":11119,"à¤²à¤Ĩà¤¦":11120,"à¤²à¤Ĩà¤ī":11121,"à¤²à¤Ĺà¤®à¤§":11122,"à¤²à¤ħà¤µà¤§":11123,"à¤®à¤°à¤¦":11124,"à¤®à¤ķà¤²":11125,"à¤®à¤ķà¤®":11126,"à¤®à¤¬à¤¨":11127,"à¤®à¤²à¤¬":11128,"à¤®à¤¨à¤¨":11129,"à¤®à¤Łà¤°":11130,"à¤®à¤®à¤¨":11131,"à¤®à¤«à¤²":11132,"à¤®à¤ľà¤ķ":11133,"à¤®à¤µà¤²":11134,"à¤®à¤¹à¤¨":11135,"à¤®à¤¥à¤®":11136,"à¤®à¤£à¤ķ":11137,"à¤®à¤¯à¤¸à¤®":11138,"à¤®à¤¯à¤ª":11139,"à¤®à¤§à¤®":11140,"à¤®à¤Ńà¤¯":11141,"à¤®à¤¦à¤µ":11142,"à¤®à¤ľà¤¨à¤ķ":11143,"à¤®à¤¯à¤¯":11144,"à¤®à¤¥à¤ķ":11145,"à¤®à¤£à¤®":11146,"à¤®à¤¯à¤¬":11147,"à¤®à¤µà¤¦":11148,"à¤®à¤ĩà¤¤":11149,"à¤®à¤¥à¤¨":11150,"à¤®à¤£à¤¸":11151,"à¤®à¤Ļà¤®":11152,"à¤®à¤ĸà¤®":11153,"à¤®à¤µà¤¬":11154,"à¤®à¤īà¤¤":11155,"à¤®à¤ĸà¤£":11156,"à¤®à¤°à¤ķà¤Ł":11157,"à¤®à¤ľà¤¹à¤°":11158,"à¤®à¤ĺà¤°à¤ķ":11159,"à¤®à¤Ĩà¤ıà¤ķ":11160,"à¤®à¤²à¤²à¤Ĺ":11161,"à¤®à¤Łà¤¨à¤®":11162,"à¤®à¤Łà¤¨à¤²":11163,"à¤®à¤ħà¤ªà¤°":11164,"à¤®à¤Ĩà¤¨":11165,"à¤®à¤ıà¤ľ":11166,"à¤®à¤¸à¤ķà¤¸":11167,"à¤®à¤¹à¤®à¤¦":11168,"à¤®à¤Ĩà¤¦":11169,"à¤®à¤Ĩà¤¶":11170,"à¤®à¤¢à¤²":11171,"à¤®à¤Łà¤¨à¤¬":11172,"à¤®à¤ĩà¤¤à¤°":11173,"à¤¤à¤ªà¤¨":11174,"à¤¤à¤²à¤¬":11175,"à¤¤à¤¤à¤¨":11176,"à¤¤à¤¤à¤²":11177,"à¤¤à¤¶à¤®":11178,"à¤¤à¤¦à¤°":11179,"à¤¤à¤ĸà¤°":11180,"à¤¤à¤§à¤°":11181,"à¤¤à¤Ĩà¤«":11182,"à¤¤à¤¸à¤°à¤ķ":11183,"à¤¤à¤Łà¤¸":11184,"à¤¤à¤Ĺà¤¸":11185,"à¤¤à¤ħà¤ª":11186,"à¤¤à¤ĸà¤¤":11187,"à¤¤à¤²à¤¬à¤²":11188,"à¤¤à¤ħà¤Ń":11189,"à¤¤à¤µà¤°à¤£à¤®":11190,"à¤¤à¤²à¤¨à¤¬":11191,"à¤¤à¤µà¤²à¤Ĺ":11192,"à¤¤à¤ĭà¤·":11193,"à¤¯à¤ł":11194,"à¤¯à¤¯à¤¤":11195,"à¤¯à¤Ŀ":11196,"à¤¯à¤¯à¤µà¤¸":11197,"à¤¯à¤µà¤¨":11198,"à¤¯à¤ļà¤¨":11199,"à¤¯à¤µà¤ķ":11200,"à¤¯à¤·à¤ķ":11201,"à¤¯à¤°à¤Ń":11202,"à¤¯à¤µà¤²":11203,"à¤¯à¤¶à¤¨":11204,"à¤¯à¤ħà¤ĺ":11205,"à¤¯à¤¦à¤°":11206,"à¤¯à¤ªà¤²":11207,"à¤¯à¤¯à¤¤à¤ķ":11208,"à¤¯à¤ľà¤®":11209,"à¤¯à¤¦à¤®":11210,"à¤¯à¤Ńà¤ıà¤ķ":11211,"à¤¯à¤Ļà¤²":11212,"à¤¯à¤Ĺà¤¢":11213,"à¤¯à¤īà¤¨à¤ķ":11214,"à¤¯à¤¯à¤®à¤¬":11215,"à¤¯à¤Łà¤°à¤®":11216,"à¤¯à¤¯à¤®à¤²":11217,"à¤¯à¤¶à¤¨à¤²":11218,"à¤¯à¤ľà¤¨à¤®":11219,"à¤¯à¤ħà¤®":11220,"à¤¯à¤ħà¤«":11221,"à¤¯à¤ĩà¤ļ":11222,"à¤¯à¤ħà¤¡":11223,"à¤¯mà¤®":11224,"à¥ģà¥įâĢį":11225,"à¥ģà¥ģ,":11226,"à¥ģà¥ģà¤ĥ":11227,"à¥ģâĢĿ":11228,"à¥ģâĢĶ":11229,"à¥ģà¥Ĥà¤ģ":11230,"à¥ģ...âĢĻ":11231,"à¥Ģ;":11232,"à¥Ģà¥į":11233,"à¥Ģà¥Ģ":11234,"à¥Ģ..":11235,"à¥Ģ',":11236,"à¥Ģà¥¤'":11237,"à¥ĢÂŃ":11238,"à¥ĢÂ¬)":11239,"à¤¸à¤µà¤¸":11240,"à¤¸à¤ĩà¤¨":11241,"à¤¸à¤ªà¤¤":11242,"à¤¸à¤¬à¤¨":11243,"à¤¸à¤¯à¤²":11244,"à¤¸à¤°à¤¯":11245,"à¤¸à¤Ńà¤°":11246,"à¤¸à¤ĸà¤°":11247,"à¤¸à¤¯à¤¸à¤®":11248,"à¤¸à¤¸à¤Ń":11249,"à¤¸à¤Ļà¤²":11250,"à¤¸à¤¤à¤¤":11251,"à¤¸à¤¯à¤¹à¤°":11252,"à¤¸à¤ĺà¤²":11253,"à¤¸à¤ħà¤§":11254,"à¤¸à¤Łà¤ª":11255,"à¤¸à¤ľà¤¨à¤®":11256,"à¤¸à¤ĩà¤¬":11257,"à¤¸à¤Łà¤¨à¤ķ":11258,"à¤¸à¤¯à¤Ńà¤¨":11259,"à¤¸à¤ħà¤¦":11260,"à¤¸à¤¡à¤ķà¤²":11261,"à¤¸à¤Ĩà¤¦":11262,"à¤¸à¤ĵà¤¨":11263,"à¤¸à¤ħà¤ªà¤²":11264,"Ġà¤¸à¤ĩ":11265,"Ġà¤¸à¤¸à¤ķ":11266,"Ġà¤¸à¤¨à¤²":11267,"Ġà¤¸à¤²à¤ķ":11268,"Ġà¤¸à¤ªà¤Ľ":11269,"Ġà¤¸à¤ĩà¤¨":11270,"Ġà¤¸à¤¯à¤¨":11271,"Ġà¤¸à¤¬à¤¨":11272,"Ġà¤¸à¤Ĺà¤¤":11273,"Ġà¤¸à¤°à¤¬":11274,"Ġà¤¸à¤ļà¤¨":11275,"Ġà¤¸à¤Łà¤¨":11276,"Ġà¤¸à¤ľà¤ķ":11277,"Ġà¤¸à¤Ĺà¤²":11278,"Ġà¤¸à¤Łà¤®":11279,"Ġà¤¸à¤¶à¤¤":11280,"Ġà¤¸à¤Ĺà¤®":11281,"Ġà¤¸à¤ĸà¤°":11282,"Ġà¤¸à¤«à¤¤":11283,"Ġà¤¸à¤ľà¤²":11284,"Ġà¤¸à¤²à¤¸":11285,"Ġà¤¸à¤°à¤¤à¤ķ":11286,"Ġà¤¸à¤²à¤µ":11287,"Ġà¤¸à¤¸à¤¸":11288,"Ġà¤¸à¤¥à¤ķ":11289,"Ġà¤¸à¤¸à¤ļ":11290,"Ġà¤¸à¤°à¤¹à¤¨":11291,"Ġà¤¸à¤°à¤®à¤ķ":11292,"Ġà¤¸à¤Ĺà¤łà¤¨":11293,"Ġà¤¸à¤īà¤¦":11294,"Ġà¤¸à¤Łà¤¹à¤°":11295,"Ġà¤¸à¤°à¤µà¤°":11296,"Ġà¤¸à¤Łà¤°à¤¸":11297,"Ġà¤¸à¤²à¤¬à¤²":11298,"Ġà¤¸à¤¥à¤ª":11299,"Ġà¤¸à¤Ĺà¤łà¤¨à¤¹à¤°":11300,"Ġà¤¸à¤Ĺà¤¯":11301,"Ġà¤¸à¤¥à¤°à¤²":11302,"Ġà¤¸à¤°à¤®à¤¦":11303,"Ġà¤¸à¤Łà¤°à¤¸à¤¹":11304,"Ġà¤ªà¤ľ":11305,"Ġà¤ªà¤²à¤®":11306,"Ġà¤ªà¤ªà¤®":11307,"Ġà¤ªà¤²à¤²":11308,"Ġà¤ªà¤µà¤°":11309,"Ġà¤ªà¤ķà¤°":11310,"Ġà¤ªà¤Łà¤°":11311,"Ġà¤ªà¤°à¤®à¤®":11312,"Ġà¤ªà¤¶à¤²":11313,"Ġà¤ªà¤¸à¤ª":11314,"Ġà¤ªà¤Ĺà¤¡":11315,"Ġà¤ªà¤¡à¤¤":11316,"Ġà¤ªà¤¥à¤¸":11317,"Ġà¤ªmà¤²":11318,"Ġà¤ªà¤¸à¤¨à¤°":11319,"Ġà¤ªÃŀ":11320,"à¤ªà¤«":11321,"à¤ªà¤īà¤¨":11322,"à¤ªà¤°à¤£":11323,"à¤ªà¤ľà¤¨":11324,"à¤ªà¤ĺ":11325,"à¤ªà¤Ļ":11326,"à¤ªà¤Ŀ":11327,"à¤ªà¤ħ":11328,"à¤ªà¤ªà¤¤":11329,"à¤ªà¤ªà¤®":11330,"à¤ªà¤¸à¤°":11331,"à¤ªà¤°à¤®à¤£":11332,"à¤ªà¤¬à¤°":11333,"à¤ªà¤¬à¤¦":11334,"à¤ªà¤¥à¤ķ":11335,"à¤ªà¤§à¤°":11336,"à¤ªà¤ļà¤°":11337,"à¤ªà¤Ĺà¤¨":11338,"à¤ªà¤Ĩà¤«":11339,"à¤ªà¤ľà¤¬":11340,"à¤ªà¤īà¤²":11341,"à¤ªà¤¡à¤¤":11342,"à¤ªà¤łà¤¨":11343,"à¤ªà¤Ńà¤°à¤ķ":11344,"à¤ªà¤¦à¤ķà¤¸":11345,"à¤ªà¤Łà¤®à¤¯":11346,"à¤¦à¤§":11347,"à¤¦à¤°à¤£":11348,"à¤¦à¤ĺ":11349,"à¤¦à¤Ļ":11350,"à¤¦à¤Ŀ":11351,"à¤¦à¤¯à¤¨":11352,"à¤¦à¤®à¤ķ":11353,"à¤¦à¤¸à¤²":11354,"à¤¦à¤µà¤°":11355,"à¤¦à¤¦à¤¨":11356,"à¤¦à¤°à¤®à¤£":11357,"à¤¦à¤®à¤²":11358,"à¤¦à¤µà¤®":11359,"à¤¦à¤Ńà¤°":11360,"à¤¦à¤ĩà¤¸à¤ķ":11361,"à¤¦à¤¹à¤ķ":11362,"à¤¦à¤®à¤¬":11363,"à¤¦à¤¶à¤²":11364,"à¤¦à¤ļà¤®":11365,"à¤¦à¤¶à¤¬":11366,"à¤¦à¤ħà¤°":11367,"à¤¦à¤¶à¤¨à¤®":11368,"à¤¦à¤Ńà¤²":11369,"à¤¦à¤¶à¤¨à¤ķ":11370,"à¤¦à¤¶à¤µ":11371,"à¤¦à¤°à¤¸à¤¹":11372,"à¤¦à¤°à¤²à¤Ĺ":11373,"à¤¦à¤¶à¤ª":11374,"à¤¦à¤¶à¤®à¤¶":11375,"à¤¦à¤°à¤¸à¤¨":11376,"à¤¦à¤ķà¤®à¤§":11377,"à¤¹à¤¶":11378,"à¤¹à¤ĩ":11379,"à¤¹à¤µà¤°":11380,"à¤¹à¤²à¤¬":11381,"à¤¹à¤¤à¤¨":11382,"à¤¹à¤ķà¤°":11383,"à¤¹à¤Łà¤°":11384,"à¤¹à¤²à¤¯":11385,"à¤¹à¤ķà¤¤":11386,"à¤¹à¤®à¤²":11387,"à¤¹à¤µà¤²":11388,"à¤¹à¤ħà¤ĺ":11389,"à¤¹à¤²à¤¯à¤ķ":11390,"à¤¹à¤¤à¤µ":11391,"à¤¹à¤¦à¤²":11392,"à¤¹à¤®à¤¬":11393,"à¤¹à¤¸à¤Ń":11394,"à¤¹à¤¸à¤¬":11395,"à¤¹à¤Ńà¤ıà¤ķ":11396,"à¤¹à¤¤à¤¬":11397,"à¤¹à¤Ļà¤ķ":11398,"à¤¹à¤ľà¤°":11399,"à¤¹à¤Ĺà¤¢":11400,"à¤¹à¤Łà¤¬":11401,"à¤¹à¤¶à¤®à¤¶":11402,"à¤µà¤·":11403,"à¤µà¤ıà¤ķ":11404,"à¤µà¤Ľ":11405,"à¤µà¤«":11406,"à¤µà¤¢":11407,"à¤µà¤¯à¤¸":11408,"à¤µà¤Ŀ":11409,"à¤µà¤²à¤¯":11410,"à¤µà¤ľà¤ķ":11411,"à¤µà¤¹à¤¨":11412,"à¤µà¤¡à¤²":11413,"à¤µà¤ľà¤°":11414,"à¤µà¤Īà¤²":11415,"à¤µà¤¹à¤¤":11416,"à¤µà¤Īà¤ķ":11417,"à¤µà¤ĩà¤®":11418,"à¤µà¤ļà¤¨à¤®":11419,"à¤µà¤¶à¤¬":11420,"à¤µà¤Ńà¤ķ":11421,"à¤µà¤¬à¤®":11422,"à¤µà¤ļà¤¨à¤ķ":11423,"à¤µà¤ĩà¤¬":11424,"à¤µà¤¯à¤®à¤®":11425,"à¤µà¤Īà¤®":11426,"à¤µà¤ľà¤¶":11427,"à¤µà¤¤à¤°à¤£à¤ķ":11428,"à¤µà¤Ĩà¤¯":11429,"à¤µà¤Ĩà¤ĩà¤ľ":11430,"à¤µà¤ĩà¤ļ":11431,"à¤µà¤ħà¤¤":11432,"à¤µà¤£à¤¸à¤®":11433,"à¤µà¤¤à¤²à¤Ĺ":11434,"à¤µà¤ħà¤¡":11435,"à¤µà¤ħà¤µà¤¸":11436,"à¤µà¤Ĩà¤ª":11437,"à¤µà¤ıà¤Ĩà¤ĩà¤ľ":11438,"à¤µà¤īà¤ªà¤®à¤¹":11439,"à¥¤\"":11440,"à¥¤âĢľ":11441,"à¥¤âĢ²":11442,"Ġà¤ķà¤ªà¤¨":11443,"Ġà¤ķà¤°à¤¸":11444,"Ġà¤ķà¤µà¤°":11445,"Ġà¤ķà¤²à¤¬":11446,"Ġà¤ķà¤¤à¤¨":11447,"Ġà¤ķà¤ļà¤¨":11448,"Ġà¤ķà¤²à¤¨":11449,"Ġà¤ķà¤«à¤²":11450,"Ġà¤ķà¤¡à¤ķ":11451,"Ġà¤ķà¤ļà¤ķ":11452,"Ġà¤ķà¤µà¤¯":11453,"Ġà¤ķà¤°à¤¦à¤°":11454,"Ġà¤ķà¤ªà¤Łà¤ķ":11455,"Ġà¤ķà¤°à¤£à¤®":11456,"Ġà¤ķà¤ķà¤ª":11457,"Ġà¤ķà¤ļà¤¨à¤ķ":11458,"Ġà¤ķà¤Ĺà¤ľ":11459,"Ġà¤ķà¤īà¤¡":11460,"Ġà¤ķà¤²à¤¬à¤²":11461,"Ġà¤ķà¤°à¤®à¤¨":11462,"Ġà¤ķà¤°à¤²à¤Ĺ":11463,"Ġà¤ķà¤°à¤¤à¤°":11464,"Ġà¤ķà¤Ļà¤¦":11465,"Ġà¤ķà¤²à¤¬à¤¸":11466,"Ġà¤ķà¤Ńà¤°à¤®":11467,"Ġà¤ķà¤ĸà¤Ĺ":11468,"Ġà¤ķà¤īà¤²à¤²":11469,"Ġà¤Ĺà¤ª":11470,"Ġà¤Ĺà¤ľà¤¨":11471,"Ġà¤Ĺà¤¨à¤®":11472,"Ġà¤Ĺà¤Ľà¤¨":11473,"Ġà¤Ĺà¤®à¤ķ":11474,"Ġà¤Ĺà¤¯à¤²":11475,"Ġà¤Ĺà¤²à¤²":11476,
[...]
