#version: 0.2 - Trained by `huggingface/tokenizers`
à ¤
à ¥
Ġ à¤
à¤ ¾
à¥ į
à¤ °
à¤ ¨
à¤ ķ
à¤ ¿
à¥ ĩ
à¥ ĭ
à¤ ²
à¤ ®
à¤ ¤
à¤ ¯
à¥ ģ
à¥ Ģ
à¤ ¸
Ġà¤ ¸
Ġà¤ ª
à¤ ¹
Ġ à¥
à¤ ª
à¤ ¦
à¤ µ
Ġà¤ ķ
Ġà¤ Ĺ
à¤ Ĺ
Ġà¤ °
Ġà¥ ¤
à¥ Ī
à¤ Ł
Ġà¤ ¨
à¤ ı
Ġà¤ ¬
Ġà¤ ®
Ġà¤ Ń
à¤ ľ
Ġà¤ ħ
Ġà¤ ¹
Ġà¤Ĺ à¤°
Ġà¤ µ
à¤ ¬
à¤ ·
à¤ §
Ġà¤ Ľ
Ġà¤ ¤
Ġà¤ ¦
à¤ı à¤ķ
à¤ ¥
à¤ ģ
à¤ ¶
Ġà¤ Ĩ
Ġà¤ ľ
à¤ Ĥ
Ġà¤ ²
à¤ ļ
à¤ Ī
à¤ ¡
à¤ £
à¤ Ľ
à¥ Ĥ
à¤ Ń
Ġà¤ ī
à¤ ĸ
à¤ ī
Ġà¤ ¯
à¤¹ à¤°
Ġà¤¸ à¤®
à¤° à¤ķ
â Ģ
à¤ ĩ
à¤° à¤®
Ġà¤ ļ
Ġà¤Ń à¤¨
à¤ «
à¥ ¤
à¥ Į
Ġà¤ ¶
Ġà¤ ¥
Ġà¤ ĸ
à¤¯ à¤ķ
Ġà¤ ı
à¤ī à¤¨
Ġà¤ª à¤¨
à¤¾ à¤ģ
à¤ ł
à¤¨ à¤ķ
Ġà¤Ń à¤ıà¤ķ
Ġà¤ª à¤°
à¤° à¤¤
Ġà¤ħ à¤¨
à¥ ĥ
à¤ Ļ
à¥ ¦
Ġà¤ «
à¤° à¤£
à¤¸ à¤ķ
à¤ľ à¤¨
Ġà¤Ľ à¤¨
Ġà¥ §
Ġà¥ ¨
à¤ ¢
à¤¸ à¤®
à¤ª à¤°
à¤ ĺ
Ġà¤° à¤¹
Ġ âĢ
à¤¨ à¤®
à¤µ à¤¸
à¤¨ à¤²
Ġà¤® à¤¹
Ġà¤ ĺ
Ġà¤ı à¤ķ
Ġà¤¬ à¤¨
Ġà¤¯ à¤¸
Ġà¤ľ à¤¨
Ġà¤ §
à¤² à¤ķ
à¤¯ à¤®
Ġà¤ Ł
Ġà¤¸ à¤ķ
à¤ª à¤¨
à¤° à¤¹
à¤ ŀ
à¤Ĺ à¤°
Ġà¤¤ à¤¥
Ġà¤Ĩ à¤«
. .
Ġà¤ħ à¤§
à¤° à¤²
Ġà¤¸ à¤¹
Ġà¤µ à¤°
Ġà¤ ¡
âĢ Ļ
Ġà¥§ à¥
à¤¯ à¤¸
à¤² à¤®
ĠâĢ ĺ
Ġà¤¤ à¤°
à¤¤ à¤°
à¤ª à¤Ľ
à¤ Ŀ
à¤¯ à¤¤
à¤° à¤¸
Ġà¤ī à¤ª
Ġà¤¬ à¤¤
à¥Į à¤Ĥ
Ġà¤ħ à¤°
à¤ı à¤°
Ġà¤® à¤¨
Ġà¤¬ à¤¢
Ġà¤¸ à¤°à¤ķ
Ġà¤ķ à¤®
à¤° à¤¦
à¤ª à¤¤
à¤Ľ à¤¨
à¤¾ ,
Ġà¤ķ à¤°
à¤ª à¤®
Ġà¤² à¤Ĺ
à¤ķ à¤²
à¤ĩ à¤¨
Ġà¤ ł
âĢ ĵ
à¤° à¤¹à¤°
Ġà¤ ĩ
à¤ķ à¤®
à¤ł à¤®
à¤ ħ
à¥ģ à¤ģ
Ġà¤ª à¤¹
à¤¤ à¤ķ
Ġà¤¸ à¤¬
Ġà¥¨ à¥¦
Ġà¤ħ à¤¸
à¤® à¤ķ
à¤Ł à¤ķ
Ġà¤Ĩ à¤¯
à¤¯ à¤¨
Ġà¤ī à¤¨
à¤µ à¤°
à¤¬ à¤¨
à¤µ à¤ķ
à¤¯ à¤µà¤¸
à¥ §
Ġà¤ī à¤¤
Ġà¤ī à¤¨à¤²
à¥ «
Ġà¤Ń à¤ı
à¥ Ń
à¤µ à¤¨
à¤ļ à¤¨
à¤² à¤²
Ġà¤¬ à¤¸
Ġà¥ ©
à¤¾ à¤Ĥ
à¤Ĺ à¤¤
à¤² à¤¯
Ġ (
à¤¸ à¤²
à¤² à¤¨
à¥ĩ ,
à¤² à¤¬
à¥į à¥¤
Ġà¤Ĺ à¤¤
à¥Ģ ,
à¤Ł à¤¨
à¤· à¤£
à¤° à¤µ
à¤° à¤¬
à¥ĭ à¥¤
à¤¶ à¤ķ
Ġà¤ħ à¤µà¤¸
.. .
à¥ ¨
à¤¸ à¤¨
Ġà¤ħ à¤Ń
Ġà¤¨ à¤Ĺà¤°
Ġà¤Ĩ à¤ıà¤ķ
Ġà¥ «
Ġà¤ Ŀ
Ġà¤¬ à¤ľ
Ġà¤Ĩ à¤°
Ġà¤¹ à¤ľ
à¤¤ à¤®
à¤· à¤ķ
à¥ĭ ,
à¤Ł à¤°
Ġà¤ħ à¤¹
à¥Ī à¤Ĥ
Ġà¤ī à¤¦
à¤® à¤¤
à¥ ª
à¤¤ à¤¨
à¤ Ĩ
à¤Ń à¤¨
à¤° à¤§
à¤ķ à¤°
à¥ ¬
à¤® à¤¨
à¤ķ à¤ķ
à¤° à¤¯
Ġà¤¸ à¤¨
Ġà¤¸ à¤°
à¤¯ à¤²
à¥ ©
Ġà¥ ª
Ġà¤Ĩ à¤µ
Ġà¤¸ à¤ŀ
à¤Ń à¤¯
à¥Į à¤ģ
Ġà¤ļ à¤²
Ġà¤ ĵ
à¤¡ à¤ķ
à¤ª à¤ķ
à¤¨ à¤¨
à¤ľ à¤ķ
Ġà¤¸ à¤¦
à¤Ń à¤ıà¤ķ
à¤¦ à¤¨
à¤Ĺ à¤²
à¤°à¤® à¤®
à¤ī à¤Ł
Ġà¤ª à¤¤
Ġà¤¨ à¤¯
Ġà¤ª à¤ķ
Ġà¥ ¬
Ġà¤ľ à¤¸
à¤ĩ à¤ıà¤ķ
Ġà¤¬ à¤°
à¤° à¤¶
à¤µ à¤²
Ġà¤ª à¤Ľ
à¤¶ à¤¨
à¤« à¤²
Ġà¤ķ à¤¸
à¤¨ à¤¸
à¤¿ à¤Ĥ
à¤Ĺ à¤ķ
à¤® à¤²
à¥ ®
Ġà¤Ĩ à¤§
à¤¤ à¤²
Ġà¤ī à¤¨à¤ķ
à¤§ à¤¨
Ġà¤ı à¤īà¤Ł
à¤ĩ à¤°à¤¹
Ġ ?
à¤¬ à¤°
à¤¯ à¤°
Ġà¤¹ à¤°
à¤¨à¤® à¤¨
Ġà¤¸ à¤¯
Ġà¤ ¢
Ġà¤ī à¤¹
Ġà¤¯ à¤¹
Ġà¤Ń à¤¯
à¤® à¤®
Ġà¤ħ à¤Ĺ
Ġà¤¸à¤® à¤¯
à¤ ĥ
Ġà¤ħ à¤®
Ġà¤Ĩ à¤ľ
à¤¿ à¤ģ
à¤ ĵ
à¤ķ à¤°à¤£
à¥ ¯
à¥į ,
à¤ĸ à¤°
Ġà¥ Ń
Ġà¤¤ à¤¯
à¤° à¤Ń
Ġà¤ħ à¤¬
à¤¯ à¤¹
Ġà¤ĸ à¤°
Ġà¤¸à¤¹ à¤¯
Ġà¤¸à¤® à¤¸
Ġà¤® à¤§
à¤µ à¤®
Ġà¤¦ à¤°
à¤Ł à¤®
Ġà¤ķ à¤²
Ġà¤ľà¤¨ à¤¤
Ġà¤ Ķ
Ġà¤ĺ à¤°
Ġà¤ī à¤ķ
à¤¸ à¤¦
Ġà¤ķ à¤¤
à¤¹ à¤ķ
à¤Ĺ à¤®
Ġà¤¤ à¤ª
Ġà¤¸à¤¦ à¤¸
Ġà¤ª à¤¦
à¤ľ à¤¸
Ġà¤Ĩ à¤īà¤¨
Ġà¤ħ à¤µ
Ġà¤® à¤²
à¤ķ à¤¤
Ġà¤ĩ à¤¨
Ġà¥§ à¥¦
Ġà¤¨à¤Ĺà¤° à¤ª
Ġà¥ ®
ĠâĢ ľ
à¤² à¤Ĺ
à¤· à¤®
Ġà¤ħ à¤ĺ
à¤¶ à¤®
à¤¦ à¤°
âĢ Ŀ
Ġà¤Ĩà¤µ à¤¶
Ġà¤¬ à¤¹
Ġà¥ ¯
à¤ħ à¤¨
à¤ı à¤¨
Ġà¤Ĩ à¤®
à¤¹ à¤¨
Ġà¤¬ à¤²
Ġà¤Ĩ à¤Ĺ
Ġà¤ī à¤®
Ġà¤¯ à¤¸à¤ķ
à¤¾ à¥ĩ
Ġà¤¸ à¤Ń
Ġà¤ı à¤®
à¤£ à¤ķ
Ġà¤¶ à¤°
Ġà¤ħ à¤¤
à¤µ à¤¤
Ġà¤Ĩ à¤¨
Ġà¤Ĩ à¤ĩ
à¤Ń à¤°
Ġà¤¨ à¤®
Ġà¤® à¤¤
Ġà¤¨ à¤¸à¤ķ
à¤¯ à¤µ
Ġà¤ļ à¤°
à¤Ł à¤²
Ġà¥¨à¥¦ à¥Ń
à¤¿ ,
à¤µ à¤ľà¤¨
Ġà¤ħ à¤ª
Ġà¤Ĺ à¤ıà¤ķ
à¤¶ à¤¤
Ġà¤ī à¤²
à¤ı à¤ªà¤Ľ
Ġà¤« à¤°
Ġà¤¥ à¤ª
Ġà¤ī à¤ļ
Ġà¤¦ à¤²
à¤ķ à¤ª
à¤ķ à¤¨
à¤ľ à¤®
à¤ĩ à¤²
Ġà¤ª à¤¢
Ġà¥¤ âĢĻ
Ġà¤¸ à¤Ļ
Ġà¤ķ à¤¹
à¤ĵ à¤µ
Ġà¤Ĩ à¤¦
Ġà¤Ń à¤°
Ġà¤ª à¤Łà¤ķ
à¥į âĢ
à¤° à¤ļ
à¤ħ à¤ĺ
Ġà¤¸ à¤¤
à¤¡ à¤²
à¤² à¤¯à¤ķ
à¤¦ à¤Ľ
Ġà¤°à¤¹ à¤¨
Ġà¤µ à¤Ł
Ġà¤ĺ à¤Łà¤¨
à¤£ à¤¯
Ġà¤®à¤¹ à¤¤
Ġà¤¨ à¤¹
Ġà¤¸à¤¹ à¤Ń
Ġà¤¯à¤¸ à¤²
à¤° à¤¨
Ġà¤² à¤ķ
Ġà¤¸ à¤ļ
à¤¬ à¤²
Ġà¤¸ à¤«à¤²
à¤ļ à¤ķ
à¤® à¤ļ
à¤¥ à¤®
à¤¦ à¤ķ
à¤¯ à¤¸à¤ķ
à¤¬ à¤¹
Ġà¤µ à¤¡
à¤Ļ à¤ķ
à¤¤ à¤µ
Ġà¤ĵ à¤²
à¤µ à¤°à¤£
à¥įâĢ į
à¤¾ .
Ġà¤¨ à¤¦
à¤ª à¤²
à¤ł à¤¨
à¤¤ à¤°à¤£
à¤· à¤¯à¤®
Ġà¤ Ĳ
Ġà¤¤ à¤¤
Ġà¤Ń à¤ĩà¤°à¤¹
à¤° à¤ª
Ġ ,
à¤¨ à¤µ
Ġà¤ħ à¤²
à¤ľ à¤Ĺ
Ġà¤¯ à¤¤
à¤· à¤¤
à¤¯à¤¤ à¤ķ
Ġà¤§ à¤°
Ġà¤¹ à¤¤
Ġà¤¸à¤® à¤¯à¤®
Ġà¤ħ à¤Ŀ
à¤ĩ à¤¸à¤ķ
à¤¡ à¤®
Ġà¤¸ à¤¡à¤ķ
à¤°à¤® à¤£
Ġà¤Ń à¤ıà¤°
Ġà¤ī à¤ł
Ġà¤° à¤ķà¤®
à¤ľ à¤²
Ġ |
à¤« à¤¤
Ġà¥§à¥ ¯
Ġà¤¸ à¤µ
Ġà¤ª à¤¶
à¤² à¤¤
à¤µ à¤ª
Ġà¥§à¥ «
Ġà¤ľ à¤®
à¥ģ ,
Ġ '
à¤¹ à¤²
à¤¸ à¤¹
Ġà¤ħ à¤¦
à¤° à¤ªà¤¤
Ġà¥§à¥ ¨
à¤²à¤¯ à¤²
Ġà¤§ à¤¨
à¤¸ à¤Ń
à¤¾ âĢĵ
à¤¨ à¤¬
ĠâĢ ĵ
Ġà¤īà¤ª à¤ļ
Ġà¤Ĩ à¤¶
à¤§ à¤ķ
Ġà¤Ľ à¤²
Ġà¤Ĩ à¤ķ
à¤¸ à¤°
à¤µ à¤¯
Ġà¤¨ à¤Ń
Ġà¤ı à¤¸
à¤¦ à¤²
Ġà¤ļà¤² à¤ļ
Ġà¤¶ à¤ķ
Ġà¤Ĩ à¤ī
à¤¦ à¤µ
Ġà¥§à¥ §
Ġà¤Ĩ à¤¤
à¤¹ à¤®
à¥ĩ à¥¤
à¤Ī à¤²
Ġà¤ľ à¤°
Ġà¤¨ à¤Ńà¤ıà¤ķ
Ġà¤® à¤°
Ġà¤¦ à¤¶
à¤ĺ à¤ķ
à¤¤ à¤¬
à¤ı à¤¸
à¤¯ à¤ª
Ġà¤īà¤ª à¤²à¤¬
à¤ĩ à¤¦
Ġà¥¨à¥¦ à¥§
à¤· à¤¦
Ġà¤Ńà¤ı à¤ªà¤Ľ
Ġà¤ħ à¤«
Ġà¤ª à¤ł
à¤· à¤¯
à¤° à¤ľ
à¤ł à¤ķ
à¤² à¤¸
à¤§ à¤®
à¤² à¤¨à¤®
Ġà¤¨ à¤ľ
Ġà¤¬ à¤ļ
Ġà¤ľ à¤Ĺ
à¥Ī à¤ģ
à¤® à¤¦
à¤°à¤¦ à¤°
Ġà¤¨ à¤ª
Ġà¤¸à¤¹ à¤®à¤¤
à¤¨ à¤°
à¤ļ à¤®
Ġà¥« à¥¦
à¤¤ à¤ª
à¤ª à¤¯
à¤² à¤¯à¤®
à¤¨ à¤Ĺà¤°
Ġ ...
à¤® à¤¬
à¤² à¤µ
Ġà¤ķà¤¸ à¤°
à¤¥ à¤²
à¤¨ à¤¤
Ġà¤¨ à¤°
à¤¨ à¤ª
à¤¯ à¤¸à¤®
à¥Įà¤Ĥ ,
Ġà¤Ĺ à¤£
à¤Ī à¤ķ
Ġ :
Ġà¤¹ à¤¸
à¤¦ à¤®
à¤¯ à¤¯à¤¨
Ġà¤ı à¤¨
Ġà¥¨ à¥«
Ġà¤¸à¤¹ à¤ķ
Ġà¤ı à¤µ
Ġ -
Ġà¤ķ à¤ª
Ġà¤ħ à¤ªà¤°
à¤°à¤£ à¤®
à¤Ń à¤µ
à¤ı à¤®
à¤¯ à¤¹à¤°
à¤ĩ à¤ķ
à¤ª à¤Łà¤ķ
Ġà¤¦ à¤ķ
Ġà¤¸ à¤ľ
Ġà¤ĺ à¤Ł
à¤Ļ à¤²
à¤¯à¤¸ à¤²
à¥ģ à¤Ĥ
à¤Ĺ à¤¦
à¤¶ à¤²
Ġà¥© à¥¦
à¤°à¤® à¤ķ
Ġà¤Ľà¤² à¤«à¤²
à¤§ à¤¤
à¤ľ à¤¯
Ġà¤Ń à¤Ł
à¤® à¤§
Â ¥
à¤® à¤°
à¤°à¤¤ à¤ķ
Ġà¤ Ī
à¤ĩ à¤Ł
à¤ī à¤¦
à¤¸ à¤¬
à¤ª à¤¦
Ġà¤Ń à¤ĩà¤¸à¤ķ
Ġà¥§à¥ ©
Ġà¤¯ à¤¦
Ġà¤¸à¤¹ à¤ľ
Ġà¤Ń à¤¦
à¤® à¤¸
Ġà¤ıà¤ķ à¤¤
Ġà¤ĺ à¤°à¤®
Ġà¤Ń à¤µ
Ġà¥§à¥ ª
Ġà¤ľ à¤¤
Ġà¥§à¥ ®
à¤¬ à¤¦
à¤ľ à¤¦
à¤° à¤·
à¤¨ à¤¸à¤ķ
Ġ !
r e
Ġà¤® à¤¸
Ġà¤ª à¤°à¤®
à¤ĺ à¤Łà¤¨
Ġà¤Ń à¤Ī
Ġà¤° à¤®
à¤ľ à¤§
à¤¯ à¤Łà¤ķ
Ġà¥§à¥ ¬
Ġà¤° à¤ķ
à¤¹ à¤¤
à¤¯ à¤¬
Ġà¤¯à¤¸ à¤°
à¤ļ à¤²
à¤¸ à¤¹à¤°
Ġà¤ľ à¤¸à¤²
à¤ķ à¤¹à¤°
Ġà¤Ń à¤£
Ġà¤ħà¤µ à¤§
à¤· à¤®à¤¤
à¤ĩ à¤°
à¤µ à¤¦
Ġà¤ķ à¤µ
Ġà¤ķ à¤¥
Ġà¤ľ à¤¹
à¤¨ à¤¹à¤°
à¤¯à¤¸ à¤ªà¤Ľ
Ġà¤ĸ à¤¡
à¤¸ à¤¸
Ġà¤ ĭ
à¤² à¤¨à¤ķ
Ġà¤ī à¤¸à¤²
à¤ķ à¤Ł
à¤· à¤§
Ġà¤īà¤ª à¤¸
Ġà¤¸ à¤²
à¤ľ à¤¨à¤ķ
à¤° à¤ļà¤¨
Ġà¤®à¤¤ à¤¦
à¤ĩ à¤¤
à¤¯ à¤£
à¤ķ à¤¸
Ġà¤« à¤°à¤ķ
Ġà¤Ĺ à¤łà¤¨
Ġà¤ļ à¤¨
Ġà¤¹ à¤Ł
à¤°à¤£ à¤²
à¤µ à¤µ
Ġà¤īà¤ª à¤¯
à¤ĸ à¤ķ
à¤ĺ à¤°
à¤² à¤°
à¤¯à¤ķ à¤°
Ġà¤Ĩ à¤ª
Ġà¤¶ à¤¨
à¤ľ à¤°
à¤§ à¤¬
à¥Ī ,
Ġà¥ ¦
Ġà¤Ŀ à¤¨
i n
Ġà¤µ à¤¨
Ġà¤ī à¤¡
à¤· à¤²
à¤¿ .
à¤Ń à¤ķ
à¤°à¤£ à¤ķ
à¤°à¤ļ à¤£
Ġà¥§à¥ Ń
à¤¯à¤ķ à¤¤
Ġà¥¨ à¥§
Ġà¤¤ à¤¹à¤ķ
Ġà¤Ĺ à¤ł
à¤§ à¤°
Ġà¤¹ à¤²
à¤¯ à¤Łà¤¨
à¤Ī à¤¨
Ġà¤ Ĭ
à¤Ĩ à¤°
Ġà¥¤ âĢĿ
à¤¤ à¤¤
Ġà¤¯ à¤¸à¤®
à¥¦ à¥¦
Ġà¤Ĺ à¤®
Ġà¤¤ à¤¸
Ġà¤¯à¤¸ à¤ħà¤ĺ
Ġà¤µ à¤¸
Ġà¤¶ à¤¬
Ġà¤ĩ à¤¤
à¤§ à¤¨à¤ķ
à¤µ à¤¯à¤¨
à¥ĩ à¤Ĥ
Ġà¤¨ à¤ķ
à¤Ĥ .
Ġà¤ķ à¤ķ
à¤¤ à¤¹à¤°
à¤ª à¤£
Ġà¤ķà¤® à¤ľ
à¤¯ à¤¦
à¤¸ à¤ļ
Ġà¤¦ à¤²à¤ķ
à¤ļ à¤°
à¤Ĺ à¤²à¤¬
Ġà¤Ĩ à¤Ī
à¤¯à¤µ à¤¹
Ġà¤¸ à¤¡
Ġà¤ķ à¤¨
Ġà¤Ń à¤ķ
Ġà¤¤ à¤²
Ġà¥¨ à¥¨
à¤Ļ à¤®
Ġà¤ħ à¤ķ
à¤¨à¤Ĺà¤° à¤ª
e r
à¤µ à¤¤à¤¨
Ġà¤Ĳ à¤¨
Ġà¤ĸ à¤¨
à¤ķà¤² à¤¨
à¤¯à¤® à¤¨
Ġà¥¨ à¥ª
à¥ĩ à¤ģ
Ġà¤Ĩ à¤²
à¤ª à¤·
à¤® à¤Ĺ
Ġà¤Ķ à¤·à¤§
à¤Ĺ à¤¢
Ġà¤ħà¤µà¤¸ à¤°à¤®
à¤ĩ à¤®
Ġà¤Ĩ à¤ľà¤ķ
à¤ł à¤ķà¤²
Ġà¤ľ à¤¬
Ġà¤ı à¤ľ
à¤ĩ à¤¨à¤²
Ġà¤ľ à¤µ
à¤ľ à¤µ
à¤£ à¤®
à¤ĸ à¤²
Ġà¤¸à¤® à¤°
Ġà¤Ĩ à¤ļ
o n
à¤° à¤ĸ
à¤¡ à¤°
Ġà¤īà¤ª à¤Ń
Ġà¤² à¤¡
Ġà¥¨à¥¦ à¥¬
à¤ķà¤°à¤£ à¤ķ
à¤¥ à¤ķ
Ġà¤ħà¤µà¤¸ à¤°
Ġà¤¤ à¤¹
à¤¨ à¤¦
à¤ł à¤²
a n
Ġà¤Ĩà¤ĩ à¤¤à¤¬
Ġà¤« à¤²
Ġà¤ī à¤ľ
Ġà¤ī à¤¸à¤ķ
à¤¾ )
à¤ī à¤µ
à¤® à¤¹
Ġà¥¨ à¥®
Ġà¤Ń à¤¤
à¤ļ à¤¨à¤®
à¥Įà¤ģ ,
à¤Ł à¤¬
à¤Ĺ à¤łà¤¨
à¤¾ âĢĻ
à¥¨ à¥¦
à¤® à¤ª
à¤¬ à¤°à¤ķ
Ġà¤ķ à¤Ł
Ġà¥¨ à¥Ń
à¥Ģ )
à¤°à¤¹ à¤¨
a l
Ġà¤ľà¤¨ à¤¸
Ġà¤Ĩ à¤ķà¤°
à¤¸ à¤µ
à¤£ à¤¸
Ġà¤¸à¤® à¤¨
, âĢĻ
Ġà¤Ĩ à¤ł
à¤Ĺ à¤¨
à¤¨ à¤¯
à¤¤ à¤°à¤ķ
Ġà¤¶ à¤¹à¤°
Ġ [
Ġà¥ª à¥¦
à¤ĸ à¤®
Ġà¥¨à¥¦à¥Ń à¥«
Ġà¤¬ à¤®
à¥Ģ âĢĻ
Ġà¤¸ à¤ªà¤¨
Ġà¤¨ à¤µ
Ġà¤® à¤¦
Ġà¤ĺ à¤£
Ġà¥¨ à¥©
Ġà¤¦à¤² à¤¹à¤°
Ġà¥¨ à¥¯
âĢ ľ
à¤£ à¤¨
Ġà¤¸ à¤ª
Ġà¤ĩ à¤²
à¤¯ à¤¯
Ġà¤ħ à¤ĸ
à¤¨ à¤¸à¤®
Ġà¤¯à¤¸ à¤¬
à¤°à¤¬ à¤¹
Ã ·
Ġà¤ª à¤¸
Ġà¤Ń à¤µà¤¨
à¤² à¤¸à¤®
à¤° à¤µà¤ķ
Ġà¥¨à¥¦ à¥¦
Ġà¤¨ à¤¤
à¤° à¤°
à¤ª à¤ļ
à¤ł à¤ķà¤®
à¤¸ à¤ª
à¥Ģ âĢĵ
Ġà¥¨ à¥¬
à¤Ĺ à¤ł
à¤ĸ à¤¨
à¤ĩ à¤ľ
Ġà¥¨à¥¦à¥Ń à¥ª
Ġà¤° à¤¸
Ġà¤Ńà¤ı à¤¨
à¤Ĺ à¤¬
Ġà¤ĸ à¤¸
à¤ Ķ
à¤µ à¤Ł
à¤Ł à¤¬à¤²
à¤« à¤¬
à¤µ à¤§
à¤Ń à¤®
Ġà¤¬ à¤Ĺ
à¤ľ à¤ª
à¤Ĺ à¤®à¤¨
Ġà¤¨ à¤¬
Ġà¤ľ à¤²
Ġà¤Ĺ à¤¨
Ġ "
Ġà¤¤ à¤¹à¤®
Ġà¤¤ à¤¨
Ġà¤Ĺ à¤²
Ġà¤ª à¤²
a r
Ġà¤ĭ à¤£
Ġà¤Ĺ à¤ıà¤°
a d
à¤° à¤¸à¤®
à¤Ĺ à¤¤à¤ķ
Ġà¤ļ à¤°à¤£à¤®
à¤ī à¤ķ
Ġà¤Ĩà¤« à¤¨
Ġà¤ª à¤ŀ
Ġà¤¸ à¤§
à¤ı à¤²
à¤ķ à¤µ
à¤µ à¤¶
à¤Łà¤° à¤¨
Ġà¤Ĺà¤ł à¤¬à¤¨
à¤īà¤¨ à¤ķ
a t
à¤ĩ à¤¸
Ġà¤¨ à¤²
à¤ķ à¤¬
à¤ļ à¤¨à¤ķ
à¤¶ à¤¸
Ġà¤¸ à¤«
Ġà¤ĸ à¤¬à¤°
Ġà¤īà¤ª à¤¤
Ġà¤ķ à¤ł
e n
à¤¸ à¤¨à¤²
Ġà¤¸à¤«à¤² à¤¤
à¤Ł à¤¹à¤°
à¤° à¤Ĺà¤¤
à¤°à¤¤ à¤²
à¤® à¤£
Ġà¤ľ à¤¨à¤ķ
à¥ģ Â¥
Ġà¤Ń à¤Ĺ
à¥Įà¤Ĥ à¥¤
Ġà¤¦ à¤¸
à¤¡ à¤¨
à¤¸ à¤¨à¤ķ
Ġà¤ħ à¤¡
à¤Ĩ à¤Ī
Ġà¤ķ à¤¡
à¥ģ à¤ĥ
à¤ĩ à¤¡
à¤· à¤°
Ġà¥¬ à¥¦
à¤¬ à¤®
Ġà¤ħà¤¸ à¤°
Ġ l
à¤° à¤¥à¤®
à¤Ĺà¤¤ à¤®
Ġà¤ĸ à¤Ł
Ġà¤¸ à¤¹à¤°
à¤¾ à¥¤
à¤°à¤® à¤£à¤ķ
à¤¦ à¤Ľà¤¨
à¤¥ à¤¨
à¤¾ ...
âĢĻ ,
à¤¤ à¤°à¤®
âĢ ĺ
Ġ Ð
Ġà¤¯ à¤¥
à¤¬ à¤¸
à¤Ĺ à¤°à¤ķ
o m
Ġ m
à¤Ĺ à¤°à¤®
Ġ[ ...
à¤Ī à¤®
Ġà¤ļ à¤¢
à¤Ł à¤µ
Ġà¤ľ à¤¸à¤ķ
Ġà¤ħà¤¨ à¤²
à¤·à¤£ à¤ķ
s t
Ġà¤¸ à¤¸
Ġà¤ľ à¤²à¤µ
à¤¶ à¤¬
Ġà¤² à¤®
à¤² à¤ª
Ġà¤Ĺ à¤²à¤¤
Ġà¤° à¤¨
à¤µ à¤Ń
Ġ[... ]
Ġà¤Ĩà¤ĩ à¤ª
à¤ħ à¤°
à¤ª à¤¸
à¤ķ à¤¤à¤¨
Ġà¤¦ à¤¬
à¤ĺ à¤²
Ġà¤Ŀ à¤£
Ġ 2
Ġà¤Ńà¤ı à¤ªà¤¨
à¤° à¤Ĺ
Ġà¥© à¥§
à¤¨à¤¸ à¤Ń
Ġà¤ªà¤¦ à¤®
à¤¯à¤¸ à¤¬
Ġà¤ĸ à¤¤
à¤ļ à¤¯
à¤ĩ à¤¯
à¤Ĩ à¤«
à¤¬ à¤ķ
à¤Ŀ à¤¨
à¤¶ à¤¨à¤®
Ġà¤² à¤²
Ġà¤ī à¤°
Ġà¤ĸ à¤£
à¤¶ à¤¨à¤ķ
à¤ī à¤®
Ġà¤ī à¤ªà¤°
à¤¹à¤° à¤£
à¥ģ à¥ģ
Ġà¤ĩ à¤®
Ġà¤¹ à¤ª
Ġà¤ķ à¤ŀ
à¤Ł à¤°à¤ķ
Ġ t
à¤¶ à¤¸à¤Ń
à¤ı à¤¨à¤¨
Ġà¤ľà¤¨ à¤ľ
à¤¤ à¤µà¤¨
Ġà¤¤ à¤°à¤ķ
Ġà¥© à¥«
à¤¯ à¤°à¤¤
à¤§ à¤µ
Ġà¤¸à¤¦ à¤°à¤®
Ġ /
à¤Ł à¤ª
à¤¦ à¤¨à¤®
à¤¥ à¤²à¤®
Ġ S
à¤µ à¤¨à¤ķ
Ġà¤¸ à¤°à¤¸
à¤ļà¤¨ à¤ª
Ġà¤ħ à¤µà¤°
à¤°à¤¤ à¤®
Ġà¤Ĩ à¤ı
Ġà¤ı à¤²
Ġà¤ľ à¤¸à¤®
Ġà¤ī à¤¸
à¥Ĥ ,
Ġà¤Ĩ à¤ıà¤°
o r
Ġà¤¨ à¤ªà¤°
à¤¥ à¤°
à¤ķà¤® à¤²
à¤ľ à¤¤
à¤¡ à¤¬
Ġà¤® à¤Ĺà¤°
à¤Ĺ à¤¹à¤°
Ġà¤ľà¤¨ à¤ª
.. ..
Ġà¤Ĳ à¤¤
à¤°à¤® à¤²
Ġà¤¢ à¤ķ
Ġà¤¨à¤Ń à¤ı
à¤¨ à¤Ńà¤¨
à¤ Ĭ
Ġà¤¨à¤Ń à¤Ī
à¤° à¤«
à¥ģ à¥¤
Ġà¤ľ à¤¡
à¤¹ à¤¦
à¤¾ -
à¤ħ à¤§
à¤¥ à¤µ
à¥ĭ à¥ĩ
Ġ 1
Ġà¤ħ à¤¶
Ġà¤ªà¤¹ à¤²
Ġà¤ĩ à¤ļ
Ð ¾
Ġà¤ľà¤¨à¤ķ à¤ª
Ġà¤® à¤ŀ
Ġà¤¸à¤¡ à¤ķà¤®
à¤« à¤ķ
Ġà¤Ĭ à¤°
à¤¶ à¤¨à¤²
Ġà¤ħ à¤·
Ġà¤ı à¤µà¤®
Ġà¤¨ à¤Ĺà¤¦
à¤Ł à¤°à¤®
Ġà¤¦ à¤¶à¤ķ
à¥Ĥ à¤ģ
ĠâĢ Ķ
à¤² à¤¦
à¤¶ à¤¹à¤°
Ġà¤ı à¤ª
à¤² à¤¤à¤²
Ġà¤¸à¤® à¤Ĺ
à¤®à¤² à¤µ
Ġà¤® à¤¨à¤®
à¤² à¤¹à¤°
à¤µ à¤¨à¤®
Ġà¤¦à¤¶ à¤®à¤²à¤µ
à¤ľ à¤¬
Ġà¤®à¤¹ à¤¸
Ġ N
à¤° à¤¥
o re
Ġà¤ħ à¤ªà¤¨
Ġà¤ķà¤® à¤²
à¤® à¤¹à¤°
à¥Ģ à¤ģ
Ġà¤ļ à¤°à¤£à¤ķ
à¤§ à¤²
Ġà¤¹ à¤ķ
Ġà¤Ĺ à¤ı
Ġà¤® à¤£
Ġà¤Ĩ à¤¹
à¤¦ à¤¤
Ġà¥Ń à¥¦
) ,
Ġà¤Ĺà¤£ à¤¤à¤¨
Ġà¤ĺ à¤°à¤ķ
à¥ģ .
à¤¥ à¤¤à¤¨
à¤ī à¤¸
Ġà¤¬ à¤¡
Ġà¤ļ à¤ķ
Ġà¤Ķ à¤ªà¤ļ
à¤· à¤¹à¤°
Ġà¤¡ à¤²à¤°
Ġà¤ĺ à¤¨
à¤² à¤¤à¤®
à¤¡ à¤¸
à¤¬ à¤ľ
à¤² à¤Ń
Ġà¤ĸ à¤¤à¤°
Ġà¤ī à¤Ń
à¤ĩ à¤ķà¤²
à¤¯ à¤Ł
Ġà¥® à¥¦
Ġà¥¨à¥¦à¥Ń à¥©
à¤¤ à¤¸
à¤Ł à¤°à¤¸
à¤Łà¤¨ à¤Ĺà¤°
à¤¹ à¤¸
Ġà¤µ à¤ķ
Ġà¤ħ à¤Ļ
à¤¹ à¤®à¤¨
Ġà¥¨à¥¦ à¥«
à¤µ à¤¹à¤°
à¤Ī à¤ıà¤ķ
i t
à¤· à¤ħà¤ĺ
à¤£ à¤¤
à¤£ à¤²
à¤°à¤ķ à¤°
à¤¯à¤¤ à¤²
Ġà¤¤ à¤®
Ġà¤® à¤ľà¤¦
à¤Ĺ à¤ľ
Ġ P
Ġà¤§ à¤®
Ġà¤Ĺ à¤¹
à¤¤ à¤°à¤¤
Ġà¥ª à¥«
à¤°à¤®à¤£ à¤®
Ġà¤ľ à¤¨à¤®
à¤¦ à¤µà¤²
à¤µà¤ķ à¤ª
Ġà¤¸ à¤¶à¤¸
Ġà¤¦ à¤®
à¥Ń à¥«
à¤ªà¤¦ à¤£
Ġà¤® à¤Ļ
Ġà¤Ĩ à¤ĩà¤°à¤¹
e s
Ġà¤® à¤¹à¤°
Ġà¤Ĩ à¤¸
à¥ĩ âĢĵ
Ġà¤Ń à¤°à¤¤
à¤· à¤¸à¤®
à¤ŀ à¤ª
Ġà¤ªà¤¦ à¤ķ
Ġà¥© à¥¨
Ġà¤ħà¤¸ à¤¨
ĉ Ċ
Ġ C
à¤Ń à¤Ĺ
Ġà¤īà¤ª à¤®à¤¹
à¤« à¤°
à¤ī à¤ª
Ġà¤ļ à¤²à¤¨
Ġà¤Ĺ à¤¯
Ġà¤ıà¤ķ à¤²
Ġà¤¬ à¤¦à¤²
Ġà¥¨à¥¦à¥Ń à¥¨
Ġà¤¨ à¤Ĩ
R e
à¤Ł à¤¸
Ġ T
Ġà¤ı à¤¶
à¤ĩà¤¨à¤² à¤®
à¥ĭ ...
Ġà¤īà¤ª à¤ª
à¤¿ à¤ĥ
o u
Ġà¤ľà¤¸ à¤°
à¥¤ âĢĻ
Ġà¤° à¤£à¤¨
Ð µ
à¤ª à¤¨à¤ķ
Ð °
à¤Ń à¤²
Ġà¤Ńà¤Ĺ à¤µ
Ġà¤° à¤µ
Ġà¤ıà¤ķ à¤ľà¤¨
à¤ĩ à¤ª
à¤¯à¤® à¤¬
à¤ī à¤²
Ġà¤ī à¤ªà¤¨
à¤ª à¤Ł
Ġà¥© à¥©
à¥ĭ âĢĻ
Ġà¤¤ à¤²à¤¬
Ġà¤ħ à¤¥à¤µ
h e
Ġà¤¶ à¤¤
à¤µ à¤°à¤ķ
Ġà¤¹ à¤µ
à¤® à¤¬à¤¹
Ġà¤Ŀ à¤°
à¤¶ à¤µ
à¤¸ à¤¤
i c
Ġà¤« à¤¸
Ġà¤Ńà¤ı à¤®
à¤ķà¤°à¤£ à¤²
Ġà¤¶ à¤µ
à¤Ĺ à¤¸
à¥ĭ âĢĵ
Ġà¤¡ à¤°
Ġm ore
à¤ī à¤°
à¤· à¤¯à¤²
à¤ı à¤«
à¤° à¤¬à¤¨
Ġà¥Ń à¥«
Ġà¤ļ à¤¯à¤¨
à¤¤ à¤¹
à¥Ģ .
Ġà¤¨à¤Ń à¤ıà¤°
à¤°à¤µ à¤¦
Ġà¤Ĩ à¤ıà¤ªà¤Ľ
à¤¦ à¤¨à¤ķ
à¤ª à¤ķà¤®à¤²
Ġà¤¨ à¤°à¤¹
Ġà¤ľà¤¨ à¤¶à¤ķ
Ġ A
Ġà¤ĩ à¤¸
Ġà¥¨à¥¦ à¥ª
Ġà¤¹ à¤Ļà¤ķ
à¥Ń à¥ª
à¤¨ à¤¤à¤®
à¤Ŀ à¤¦
Ġ M
Ġ p
à¤Ĩ à¤®
à¤°à¤® à¤¹à¤°
Ġà¤Ľ à¤°
Ġà¤ħ à¤ļ
à¤² à¤ĸ
à¤ĸ à¤¦
Ġà¤Ľà¤² à¤«
Ġ2 0
à¤µ à¤¹
à¤¸ à¤°à¤ķ
à¤ģ ,
à¤²à¤¯ à¤¹à¤°
Ġà¤§à¤¨ à¤Ĺà¤¢
à¤· à¤¬
Ġà¤¸à¤® à¤¯à¤ķ
Ġà¥¯ à¥¦
à¤² à¤¤à¤ķ
Ð ¸
Ġà¤ıà¤¨ à¤Ĩà¤°
à¤Ł à¤µà¤²
à¤·à¤ķ à¤ķ
à¤·à¤£ à¤®
à¥ĩ )
Ġà¤ħà¤¸ à¤«à¤²
Ġà¤ªà¤° à¤°
Ġà¥§à¥¯ à¥¯
à¤¤ à¤¨à¤ķ
Ġ a
Ġà¤¸à¤®à¤¯ à¤¦
Ġ s
Ġà¤Ĩ à¤¨à¤¨
à¤°à¤¹ à¤£
à¤²à¤¯ à¤¬
à¤£ à¤ªà¤¤
à¤µ à¤°à¤²
Ġà¤¦ à¤²à¤²
Ġà¤Ń à¤²
Ġà¤ł à¤Ĺ
l e
Ġà¤° à¤ļà¤¨
Ġà¤ħ à¤Ł
à¤Ĺ à¤¶
Re ad
Ġà¤ħ à¤²à¤Ĺ
à¤¨à¤¸ à¤°
à¤ī à¤£
à¤ľà¤¨ à¤®
à¤® à¤°à¤£
à¤ª à¤¶
Ġà¥¨à¥¦à¥§ à¥®
à¤· à¤¯à¤ķ
à¤§ à¤¨à¤²
à¤® à¤µ
Ġà¤ª à¤¸à¤²
à¤¯ à¤°à¤ķ
Ġà¤Ĺ à¤ľ
Ġà¤ķ à¤¸à¤²
Ġà¤ł à¤¹à¤°
à¤ª à¤¬
Ġà¤ķ à¤¬
âĢ Ķ
à¤°à¤® à¤¶
in g
à¤· à¤ķà¤²
Ġà¤¦ à¤°à¤¬
Ñ Ĥ
à¤¸ à¤¨à¤®
Ġà¤¨ à¤µà¤²
à¤® à¤¯
à¤· à¤ªà¤Ľ
Ġ c
à¤ī à¤¤
Ġà¤ķà¤ª à¤¡
Ġà¥« à¥«
Ġà¤¬à¤¹ à¤¸
à¤¨ à¤ļ
à¤°à¤¤ à¤¬
à¥Į ,
à¤² à¤¨à¤²
Ġà¤¸à¤¡ à¤ķà¤ķ
à¤¡ à¤«
à¤µ à¤ļ
Ġà¤ı à¤£
à¤Ĺ à¤ķà¤°
à¤· à¤Ń
à¤µ à¤¡
h a
à¤¶ à¤¤à¤²
Ġà¤ħ à¤ŀ
Ġà¤ıà¤ķ à¤¦à¤®
à¤·à¤ķ à¤¹à¤°
Ġà¤¸à¤°à¤¸ à¤«
Ġà¤ħà¤¸ à¤¹
à¤§ à¤¨à¤®
à¤¦ à¤¶
à¤¥ à¤®à¤¨
à¥§ à¥¦
à¤¨ à¤¥
âĢĿ ,
à¤µà¤¯ à¤¨à¤®
à¤¬ à¤°à¤®
Ġà¤ľ à¤Ł
à¤¯ à¤§
à¤µ à¤¯à¤®
Ġà¤° à¤¤
Ġà¤Ķ à¤¦
i s
à¤® à¤¶
à¤¸ à¤Ļ
à¤µ à¤°à¤®
Ġ d
Ġà¤¸ à¤ĺ
à¤ª à¤¹
Ġà¤¨ à¤¸
à¤µ à¤¸à¤ķ
Ġà¤¬ à¤ķ
à¥ĩ âĢĻ
à¤¥ à¤²à¤ķ
Ġà¥© à¥¬
Ð ½
Ġ Â
Ġà¤¢ à¤²
à¤Ł à¤ĺ
à¤ľà¤¨ à¤²
à¤° à¤Ļ
à¤ıà¤¸ à¤ª
Ġà¤ĺ à¤°à¤¬
Ġà¤ħà¤¬ à¤ķ
i on
à¤¯à¤¤ à¤®
à¤¦à¤¨ à¤¶
à¤ī à¤¡
à¤Ł à¤°à¤²
à¤ĩ à¤¬
à¤¸à¤¦ à¤®
e p
à¤²à¤ķ à¤²
Ġà¤¡ à¤Ł
à¤¯à¤¸ à¤°
Ġà¤¨ à¤ĸ
Ġà¤²à¤Ĺ à¤Ńà¤Ĺ
Ġ )
à¤µà¤¯ à¤¨à¤ķ
Ġà¤Ńà¤°à¤¤ à¤ª
Ġà¤ħ à¤¸à¤®
Ġà¤² à¤ĺ
Ġà¤ı à¤«
à¤ª à¤¥
à¤¦ à¤¯
à¤£ à¤ª
Ġ I
à¤¦ à¤Ĺ
à¤¤ à¤µà¤®
à¤Ĺ à¤¡
à¤°à¤ķ à¤Ł
à¤¯ à¤°à¤²
Ġ B
à¤Ĺà¤ł à¤¨à¤ķ
Ġ f
Ġà¤ħ à¤µà¤²
Ġà¤° à¤Ĺà¤¤
Ġà¤ıà¤¨à¤Ĩà¤° à¤ıà¤¨
Ġà¤¨ à¤ļ
à¤¨ à¤Ń
à¤ĸ à¤£
Ġà¤ħ à¤ľ
à¤µ à¤¬
Ġà¤µ à¤¹
Ġà¥¬ à¥«
à¤° à¤ŀ
Ġà¤° à¤Ļ
à¤ļ à¤¸
à¥© à¥¦
à¤² à¤ªà¤¤
à¥Ĥ .
à¤ĩ à¤Ń
à¤· à¤ľ
à¤Ĺ à¤£
Ġà¤¸à¤® à¤Ŀà¤¦
Ġà¤ª à¤Ł
à¤ľà¤ķ à¤¤
Ñ ģ
Ġà¤¸ à¤Ĺà¤°à¤®
à¤Ń à¤µà¤¤
à¤°à¤¶ à¤¸
Ġà¤¯à¤¸ à¤ªà¤Łà¤ķ
Ġà¤ĩ à¤ķ
Ġà¤ĵ à¤°
Ñ Ģ
Ġà¤¸ à¤Ł
à¥ĩ .
à¤¶ à¤Ń
Ġ w
Ġà¤ĵ à¤Ń
Ġà¤Ī à¤¨
à¤ħ à¤¸
à¤ĺ à¤°à¤®
à¤¯à¤® à¤ķ
à¥Ń à¥©
à¤Ī à¤¦
à¤¸à¤¦ à¤¹à¤°
Ġ D
Ġà¤īà¤ª à¤ķà¤°à¤£
à¤¶ à¤Ńà¤°
Ġà¤ı à¤¡
Ġà¤ĩ à¤ľ
Ġà¤¤ à¤¹à¤²
à¤ķ à¤¦
à¤ļ à¤¬
en t
à¤ŀ à¤µ
Ġà¤Ĩ à¤ĸ
Ġà¤ł à¤ķ
Ġà¤¨à¤µà¤² à¤ªà¤°
à¤¤ à¤¦
Ġà¥¨à¥¦à¥§ à¥Ń
à¤µ à¤ľ
à¥ĭ, âĢĻ
Ġà¤¸ à¤°à¤²
à¤¸à¤¦ à¤ķ
Ġà¤īà¤ª à¤¹
Ġà¤¥ à¤°
Ġà¤Ĩ à¤ªà¤¤
Ġà¤® à¤ķ
Ð¾ Ð
Ġà¤¤ à¤¬
à¤ĩà¤¨ à¤¨
Ġà¤¡ à¤²
à¤ī à¤Ľ
Ġà¤²à¤Ĺ à¤¤
à¤ĸ à¤¤
Ġ20 1
à¤¤à¤® à¤²
e d
Ġà¤¯à¤¸ à¤ª
Ġà¤ĩ à¤°
Ġà¤ķ à¤¦à¤®
à¥Įà¤ģ à¥¤
i l
Ġà¤ļ à¤®
Ġà¥© à¥ª
à¤¯à¤® à¤²
à¤ľ à¤¹à¤°
à¤¨ à¤¹
à¤ ¼
Ġà¥© à¥Ń
Ġà¥« à¥§
à¤¾ âĢľ
à¤¾ à¤¾
à¤ħ à¤ª
Ġ .
Ġà¤¦ à¤«
à¥Ģ à¤Ĥ
Ġà¥© à¥®
à¤īà¤¨ à¤²
à¤ģ à¥ģ
à¤¯ à¤¶
a s
à¤ŀ à¤¹à¤°
à¥ĩ ...
à¤ķ à¤¹
Ġà¤ļ à¤°à¤£
Ġà¤Ł à¤°
Ġà¤Ĺ à¤ĩà¤°à¤¹
Ġ H
Ġà¥§à¥¦ à¥¦
à¤¤à¤µ à¤¨à¤ķ
Ġà¤¬à¤ļ à¤¤
à¥ĭ à¤Ĥ
Ġà¤¨ à¤¬à¤¨
à¤Ĩ à¤ľ
à¤ª à¤¨à¤®
Ġà¥ª à¥¨
_ _
à¥§ à¥¯
à¤° à¤¯à¤¤
Ġà¤¸à¤®à¤¯ à¤¸à¤®
Ġà¤Ł à¤¨
Ġà¤ ·
à¤ģ à¥¤
Ġà¤¸ à¤¶à¤ķ
à¤Ł à¤²à¤®
Ġà¤µ à¤²
à¤ĺ à¤¨
Ġà¤® à¤ķà¤µ
Ġà¤ħà¤¸ à¤²
Ġ? âĢĻ
Ġà¤ľà¤¨ à¤¯
âĢ Į
à¤¯ à¤°à¤®
à¤« à¤®
Ġà¤¨ à¤¨
Ġ b
c om
à¤¤à¤ķ à¤ķ
à¤¤ à¤ľ
à¤µà¤ķ à¤°
à¤¦ à¤¹à¤°
Ġà¤Ī à¤¶
à¤Ī à¤µà¤Ł
q u
Ġà¤Ń à¤ĩ
à¤Ī à¤¹à¤°
Ġà¤ľ à¤¬à¤°
à¤Ĺ à¤£à¤¨
a m
à¤Ī à¤¸
à¤µ à¤¸à¤®
Ġà¤ª à¤ļ
à¤¯à¤¬ à¤¸
Ġà¤Ĩ à¤Ĺà¤²
e w
Ġà¤¨ à¤·
ep al
a g
Ġà¤Ĩ à¤¦à¤°
Ġà¤¹ à¤¨
à¤Ī à¤¤
à¤ĵ à¤¸
Ġà¤ıà¤ķ à¤¦
Ġà¥ª à¥®
Ġà¥¨à¥¦à¥§ à¥¬
ĠâĢ Ļ
à¤¥ à¤Ĺ
e l
Ġà¤¬ à¤Ł
à¤¬ à¤¤
à¤¯ à¤ľ
à¤¸ à¤Ĺà¤°
à¤° à¤ªà¤Ľ
à¤ľ à¤¶
à¤ħ à¤¹
Ġà¤«à¤² à¤«
à¤ĺ à¤¸
Ġà¤¹ à¤®
à¤£ à¤°
à¥§ à¥«
à¤¤ à¤¡
à¤°à¤ª à¤¶
à¥Ģ -
Ġà¤¦ à¤°à¤²
ï ¿
à¤²à¤ķ à¤ķ
Ġà¤® à¤¦à¤¨
ï¿ ½
à¤° à¤µà¤°
ã ģ
à¤Ļ à¤¬
Ġ o
à¥Ń à¥¬
à¤²à¤¬ à¤²
à¤¯à¤ķ à¤ķ
à¥§ à¥§
Ġà¤ª à¤µ
à¤¹ à¤¬
an d
Ġà¤® à¤ľ
Ġà¤ħà¤« à¤Ĺ
à¤® à¤ľ
à¤® à¤ļà¤¨
à¤¤ à¤°à¤²
à¤Ĩ à¤µ
Ġà¤¹ à¤¦
à¤¨à¤µ à¤Ł
à¤Ł à¤«
à¤Ĩ à¤¨
a c
à¤¸à¤ķ à¤¹à¤°
ĠÂ »
Ġà¤§ à¤¨à¤ķ
Ġà¤° à¤¨à¤ķ
Ġà¤® à¤ļ
à¤ķà¤°à¤£ à¤®
Ġà¤ħà¤µ à¤¶
à¤¯à¤® à¤®
e t
à¤® à¤¹à¤¤
à¤Ĺ à¤Ł
Ġà¤ıà¤ķ à¤ªà¤Łà¤ķ
Ġà¤¬ à¤¯
à¤¤à¤° à¤¦
Ġ re
à¤ł à¤ķà¤ķ
à¤¡ à¤²à¤ķ
Ġà¤ª à¤£
Ġà¥ª à¥ª
à¥į âĢĵ
à¤¹à¤¦ à¤°à¤¬
Ġà¥« à¥¨
à¤° à¤ľà¤¨
à¤¶ à¤ķà¤²
à¤¯à¤¯ à¤¨à¤ķ
Ġà¤Ĩ à¤¸à¤ª
Ġà¤ī à¤ĸ
Ġà¤Ń à¤°à¤®
à¤° à¤Ńà¤¨
à¤ħ à¤²
à¤¯ à¤¨à¤ķ
Ġà¤¹ à¤ķà¤®
à¥§ à¥¨
Ġà¥ª à¥©
Ġà¤¬ à¤Ļ
Ġà¤ĩ à¤Łà¤¹à¤°
à¤ª à¤¹à¤°
à¤¨ à¤ªà¤Ľ
r o
Ġà¤ľà¤¨ à¤µ
Ġà¥© à¥¯
à¤® à¤ªà¤¨
à¤¯ à¤ľà¤¨
à¤Ī à¤Ł
à¤¡ à¤ªà¤°
à¤¯ à¤¥
à¤¦ à¤¥
à¤°à¤¸ à¤¹
Ġà¤Ĩà¤ĩ à¤¸à¤ķ
à¤¶ à¤°
Ġà¤Ĩ à¤¬à¤¦
à¤ĩ à¤«
Ġà¥« à¥¬
à¥ģ âĢĻ
Ġà¤° à¤ľ
à¤¤ à¤¸à¤®
à¤ı à¤ªà¤¨
à¤¤à¤°à¤£ à¤ķ
Ġ &
à¤¸ à¤µà¤ķ
Ġà¤Ń à¤ĩà¤¨
à¤¿ à¥į
à¤°à¤¤ à¤¸
à¤¯à¤Łà¤ķ à¤ķ
0 0
Ġà¤Ĺ à¤ıà¤ªà¤Ľ
à¤ľ à¤ķà¤²
Ġà¤µ à¤¤
u n
Ġà¤¨ à¤Ĺ
à¥Ģ à¥¤
à¤Ĺ à¤²à¤®
à¤¾ à¥Ī
Ġà¤¸à¤¹ à¤¸à¤ļ
Ġà¤¤ à¤¸à¤°
à¤ĩ à¤¨à¤®
Ġà¥ª à¥§
à¤¯à¤¸ à¤Ń
Ġà¤² à¤¨
Ġà¤Ŀ à¤²
Ġà¤ħ à¤ļà¤®
à¤¸à¤¦ à¤²
à¥ģ :
à¤¨ à¤ľ
à¤ĸ à¤¹à¤°
à¤Ĺ à¤®à¤²
à¤µ à¤ķà¤²
Ġà¤Ľà¤²à¤« à¤²à¤®
Ġ F
à¤ª à¤ª
Ġà¤Ĩ à¤Ń
Ġà¤ĸ à¤²
Ġà¤§ à¤ķ
à¤¿ à¥¤
Ġà¤ħ à¤µà¤ķ
à¤²à¤¬ à¤¹
à¤²à¤Ĺ à¤ŀ
à¤¸ à¤°à¤®
Ġà¤Ľ à¤µ
Ġà¤ķ à¤ļ
à¤¯à¤¨ à¤¸
Ġà¤Ńà¤ı à¤¸
à¤¾ à¥Īà¤Ĥ
Ġà¤®à¤¨ à¤¸
Ġà¤¶ à¤°à¤£
à¤® à¤¸à¤®
Ġà¤ĭ à¤·
Ġà¤¸à¤® à¤ķ
Ġà¥« à¥®
u r
Ġà¤ĵ à¤¸
ĠâĢ Ŀ
s p
Ġà¤¤à¤¨ à¤¹
Ġà¥ª à¥¬
à¥Ń à¥¨
Ġà¤¬ à¤²à¤®
Ġà¤¨ à¤Ĺà¤°à¤ķ
Ġà¤ ĥ
Ġà¤ķ à¤«
Ġà¤ĵ à¤Ŀ
Ġà¤ĵ à¤Ł
à¤ļ à¤¨à¤²
à¤°à¤ļ à¤²à¤¨
à¤¿ âĢĵ
Ġà¤¬ à¤§
à¤¦ à¤¬
Ġà¤® à¤¨à¤ķ
à¤¡ à¤ª
à¤£ à¤¬à¤¹
à¥« à¥¦
Ġà¤¶ à¤¹
à¤ħ à¤¬
Ġà¤ħà¤° à¤¬
Ġà¤Ĺ à¤Ī
Ġà¥¦ à¥¬
Ġà¤° à¤¹à¤°
à¤ľ à¤°à¤ķ
à¤¡ à¤µ
Ġà¤ķà¤® à¤°
à¤£ à¤µ
à¥ĩ à¥į
Ġà¤ļ à¤°à¤®
Ġà¥ª à¥¯
à¤¨à¤ķ à¤°
Ġà¤Ĺ à¤¹à¤¨
à¤¸à¤® à¤ķ
à¤· à¤ķà¤®
à¤Ļ à¤Ĺ
Ġà¤ıà¤ķ à¤®
à¥Ģ ...
Ġà¤ĩ à¤ľà¤²
à¤µ à¤¨à¤²
Ġà¤Ĩà¤ª à¤¸
à¤¦ à¤¨à¤²
à¤µ à¤Ńà¤°
Ġà¤ĵà¤Ń à¤°à¤®
à¤ĸ à¤¬
à¤Ł à¤µà¤°
Ġà¤Ľ à¤ķ
Ġà¥« à¥©
à¤¡ à¤¹à¤°
Ġt he
à¥ĥ à¤Ĥ
à¤¬ à¤Ī
Ġà¥« à¥ª
à¤°à¤® à¤¨
Ġà¥¨à¥¦ à¥¨
à¤· à¤¸
Ġà¤¦ à¤£
à¥§ à¥®
Ġà¤ĺ à¤¡
à¤²à¤¬ à¤ķ
à¥Įà¤Ĥ âĢĵ
Ġà¥® à¥«
Ġ L
à¤ł à¤Ń
Ġà¤²à¤® à¤ľ
Ġà¤ı à¤¯à¤°
à¤ľ à¤¤à¤¨
à¥ĩ -
Ġà¤Ńà¤Ī à¤°à¤¹
à¤¤ à¤ļ
à¤¥ à¤ª
à¤ķ à¤¥
Ġà¤ķ à¤°à¤ķ
Ġà¤¥ à¤²
Ġà¤Ĺà¤£ à¤¨
à¤° à¤Ĩà¤µ
Ġà¤Ľ à¤ł
Ġà¤®à¤¤ à¤Ĺà¤£à¤¨
à¤¨ à¤¡
Ġà¤ıà¤¸ à¤ª
à¤Łà¤¬ à¤²à¤ķ
Ġà¤Ĩ à¤®à¤¨
à¤Ĩ à¤ıà¤ķ
à¤¨ à¤Ńà¤°
Ġà¤ı à¤ļ
Ġà¥¨à¥¦ à¥©
Ġ E
à¥ĭ )
Ġà¥Ń à¥¨
à¤°à¤§ à¤¨
à¤ķ à¤¡
à¤ī à¤ľ
Ġà¤¹à¤Ļà¤ķ à¤Ļ
Ġà¥¨à¥¦à¥§ à¥«
à¤ķ à¤¤à¤®
à¤µà¤°à¤£ à¤®
Ġà¤ĩ à¤ľà¤°
Ġà¤ľ à¤¯à¤¨
à¤Ĺ à¤®à¤ķ
à¤°à¤Ĺ à¤ŀ
Ġà¥¨à¥¦à¥Ń à¥§
o t
à¤ĩà¤°à¤¹ à¤¨
à¤ª à¤¸à¤®
à¥įâĢ Į
Ġà¤Ĺ à¤¦
Ġà¥¬ à¥ª
Ġà¥ª à¥Ń
Ġà¤ħà¤¨ à¤¶à¤¨
Ġà¥§à¥¯ à¥®
Ġà¤ĵ à¤®
Ġ G
à¤µà¤ķ à¤ªà¤®
à¤¹ à¤£
à¤¡ à¤¯à¤¨
Ġà¤µ à¤ľ
à¥¤ âĢĿ
à¤¨à¤µ à¤ħà¤§
à¤¿ âĢĻ
à¤¶à¤ķ à¤ķ
Ġà¤¬ à¤¦
Ġà¤¦à¤° à¤¬à¤¨
Ġà¤¨ à¤µà¤°
à¤® à¤Ĺà¤°
Ġ R
à¥į ...
, âĢĿ
à¥ĭ -
Ġà¤¹ à¤¡
Ġà¤µ à¤¢
à¤¿ ...
à¤ĺ à¤®
Ġà¤¦ à¤¹
ew s
à¤ħ à¤Ń
Ġ O
Ġà¤ĩ à¤ŀ
qu o
Ġà¤ħ à¤Ľ
Ġà¤ľ à¤Ĺà¤¤
Ġà¤®à¤¨ à¤ªà¤°
Ġà¤¸à¤¹ à¤¨
Ġà¤°à¤¹ à¤¸
Ġà¤ı à¤°
o l
Ġà¥¬ à¥©
Ġ on
à¤¯à¤ķ à¤®
à¤¦ à¤°à¤²
Ġà¤Ĩ à¤īà¤Ł
Ġà¤īà¤¦ à¤¯à¤ª
à¤Ł à¤¸à¤®
Ġà¤² à¤£
à¤¯à¤Ł à¤ķà¤²
à¤¹à¤° à¤£à¤ķ
Ġà¤¦ à¤µ
à¤µà¤ķ à¤ªà¤ķ
Ġà¥« à¥Ń
à¤² à¤µà¤¸
Ġà¤Ĺ à¤ľà¤²
Ġà¤¶ à¤²
Ġà¤ĩ à¤Ł
Ð »
à¤Ń à¤¦
Ġà¤Ĩà¤µ à¤¦
à¤¹ à¤ķà¤²
à¤°à¤¹ à¤µ
à¤°à¤¸ à¤°
à¤¾ '
s quo
Ġà¤ı à¤¨à¤¸
à¤² à¤Ļ
à¤ĩ à¤¨à¤ķ
Ġ in
Ġà¤ķ à¤°à¤£
à¤¾ /
Ġà¤Ĺ à¤«
à¤· à¤Ĺà¤°
à¥¦à¥¦ à¥¦
Ġà¥¨à¥¦à¥§ à¥ª
Ġà¤¦ à¤®à¤ķ
à¤¶ à¤¤à¤ķ
e m
à¤¶ à¤¦
n b
à¥ģ à¥į
Ġà¤¸ à¤Ĺ
Ġà¤ħ à¤¯
- -
c h
à¤¯à¤ķ à¤²
Ġà¥¬ à¥¨
Ġà¤¹ à¤ķà¤ª
à¤¸à¤ķ à¤²
à¤¦ à¤¸
Ġà¤¢ à¤Ļ
à¥Ĥ âĢĵ
à¥ģ âĢĵ
Ġà¤ħà¤² à¤ªà¤¤
à¤µ à¤¤à¤ķ
à¥ĭ ?
à¤· à¤¦à¤ķ
Ġà¤¡ à¤°à¤²
à¤¶ à¤ª
à¤·à¤¯ à¤¹à¤°
Ġà¥« à¥¯
Ġà¤ĩ à¤£
à¤°à¤¸ à¤°à¤ķ
à¥į, âĢĻ
Ġà¤µ à¤¸à¤¨
à¤ļà¤¯ à¤ªà¤¤
à¤Ļ à¤¸
Ġà¤ķ à¤¦
Ġà¤¹ à¤²à¤®
à¥§ à¥¬
Ġà¤ľ à¤Ļ
Ġà¤¨ à¤µà¤¨
Ġà¤¶à¤¹à¤° à¤®
Ġo f
Ġà¤ĺ à¤²
Ġà¤¸à¤¬ à¤Ńà¤¨
Ġà¤ħ à¤£
a y
Ġà¤īà¤ª à¤ķ
à¤¶à¤ķ à¤¹à¤°
Ġà¤Ĩà¤ĩ à¤¸
à¤µà¤¸ à¤¨
w w
Ġà¤ı à¤Ł
à¤¯à¤¤ à¤¯
à¤£ à¤¬
Ġà¤ľà¤¨ à¤ļ
Ġà¤¡ à¤¡
à¤Ĺ à¤µ
Ġ n
à¤ķ à¤¨à¤ķ
à¤° à¤Ĺà¤¨
Ġà¥¨à¥¦à¥Ń à¥¦
à¤²à¤ķ à¤¹à¤°
at ion
à¤ĸà¤² à¤¢
à ¸
à¤® à¤¤à¤ķ
nb sp
à¤¯ à¤Ń
Ġà¤ķ à¤·
Ġà¤ıà¤ķ à¤¸
Ġà¤ľà¤¨ à¤µà¤°
Ġà¥¯ à¥«
Ġà¥Ń à¥ª
Ġà¤ħà¤µ à¤²à¤®
à¤¹à¤ķ à¤¹à¤°
Ġà¤Ĳ à¤¨à¤ķ
à¤Ĺà¤ł à¤¨à¤²
Ġà¤ı à¤¯à¤°à¤²
à¤°à¤¹ à¤ķ
à¤¨ à¤ħà¤ĺ
à¤¦ à¤£
à¥Į à¥¤
à¤ħ à¤Ĺ
à¤Ĩ à¤¤
Ġà¤ļ à¤Ł
à¤ķ à¤Łà¤ķ
Ġà¥«à¥¦ à¥¦
Ġà¤¸ à¤²à¤®
à¤¯à¤® à¤¹à¤°
à¤Ĺà¤® à¤¨à¤ķ
à¤ī à¤Ľà¤¨
à¤¥ à¤¸
Ġà¥¬ à¥¬
Ġà¤ª à¤ª
Ġà¤ªà¤¹ à¤²à¤®
à¤ķ à¤¶
Ġà¤¨à¤Ń à¤ıà¤ªà¤Ľ
Ġà¤Ŀ à¤Ĺà¤¡
à¤Ĩ à¤īà¤Ł
Ġ K
Ġà¤ħà¤® à¤°
à¤¨ à¤ħà¤¨
à¤Ī à¤ľ
Ġà¤ĺà¤° à¤ªà¤°
Ġà¤¨ à¤Ńà¤¨
à¤°à¤ļ à¤²
à¤µà¤¨ à¤¸
Ġà¤¥ à¤ķ
à¤ı à¤ļ
à¤Ĺ à¤²à¤ķ
à¤ª à¤ªà¤Ľ
Ġà¤° à¤¦
à¤īà¤¨ à¤®
Ġà¤ĵ à¤ĸà¤²à¤¢
Ġà¥¬ à¥®
à¤¸ à¤µà¤®
à¥¨ à¥«
i r
Ġà¤¬à¤¸ à¤¨
à¤¯à¤¯à¤¨ à¤°à¤¤
Ġà¤ĸ à¤ªà¤¤
Ġà¥Ń à¥¬
Ġà¤¨ à¤Ľ
à¤ıà¤¨ à¤ı
à¤ª à¤¯à¤²
Ġà¤Ĩ à¤°à¤ķ
Ġà¤¦ à¤¶à¤®
à¤°à¤£ à¤¸à¤Ń
u s
Ġà¤¯ à¤ľ
Ġ 3
à¤°à¤¸ à¤Ļ
Ġà¤ħ à¤ªà¤®
à¤¦ à¤ª
à¤°à¤® à¤¬
à¤¤ à¤ķà¤²
Ġà¤ħà¤ª à¤¹à¤°à¤£
à¥§ à¥ª
à¤Ł à¤°à¤¹à¤°
à¤ĩ à¤ı
Ġà¥Ń à¥Ń
i d
Ġà¥Ń à¥©
Ġà¤ª à¤łà¤¨
à¤¸à¤ķ à¤ķ
à¥į âĢĻ
à¤² à¤ļ
à¤®à¤¦ à¤¤
Ġà¤® à¤¨à¤²
Ġà¤² à¤¤
Ġà¤Ĺ à¤ļ
à¤Łà¤° à¤«
Ġà¤ľà¤¨ à¤Ĩà¤¨
i g
à¤¨ à¤¬à¤¹
à¤°à¤¨ à¤Ĺà¤°
à¤¦ à¤Ń
Ġà¤ľ à¤¯
à¤ī à¤¥
Ġ W
à¤¨ à¤ľà¤¨
à¤Ł à¤°à¤¬
à¤ĺ à¤Ł
à¤°à¤Ń à¤°
à¤ĵ à¤¬
à¥Ń à¥¦
à¤ķà¤® à¤ķ
à¤§ à¤ª
i m
Ġà¤®à¤¹ à¤¶
Ġà¤ħà¤¬ à¤¸
Ġà¤Ń à¤¬
à¤Ł à¤²à¤ķ
à¤¸ à¤¤à¤®
Ġà¥¬ à¥§
Ġà¤ĵ à¤²à¤®
à¤Ī à¤°à¤¹
Ġà¥¯ à¥¯
Ġà¤Ķ à¤¸à¤¤
Ġà¥® à¥®
à¤Ķ à¤·à¤§
à¤·à¤£ à¤²
ĠN epal
à¤ľ à¤°à¤²
Ġà¤² à¤¸
Ġà¤Ķ à¤ļ
Ġà¤ľà¤¨ à¤¸à¤®
Ġà¤®à¤Ĺà¤° à¤²
Ġà¤ł à¤®
à¤ı à¤²à¤¸
à¤Ī à¤¬
Ġà¤ı à¤Ńà¤°
Ġà¤Ĩà¤ķ à¤¸
à¤¾ à¤ĥ
à¤²à¤Ĺ à¤¨
Ġà¤ıà¤® à¤¬
Ġà¤Ĩà¤ľ à¤¸à¤®
Ġ h
Ġà¤ľ à¤¥
Ġà¤īà¤ª à¤¸à¤Ń
à¥Įà¤Ĥ, âĢĻ
à¤° à¤Ļà¤ķ
Ġà¥¨à¥¦à¥¦ à¥Ń
à¤¨ à¤Ĺà¤°à¤ķ
Ġ and
à¤¿ )
Ġà¥® à¥ª
à¥Ģ '
Ġà¥¤ '
Ġà¥Ń à¥®
o w
à¤£ à¤¯à¤²
à¤² à¤Ĺà¤¤
Ġà¤īà¤ª à¤¸à¤®
Ġà¤ªà¤¸ à¤²à¤®
Ġà¥¯ à¥®
à¤µà¤¨ à¤¶
à¤µ à¤²à¤®
Ġà¤ķ à¤²à¤®
Ġà¤Ĩà¤¯ à¤²
Ġà¤īà¤ª à¤®
à¥ĩ, âĢĺ
Ġà¤² à¤¹
Ġà¤Ĩ à¤¬
à¤¯à¤Łà¤ķ à¤¹à¤°
Ġà¥¬ à¥Ń
à¤¤ à¤ķà¤®
à¥§ à¥Ń
à¤Ĺ à¤ª
Ġà¤ľà¤¬ à¤ķ
Ġà¤ªà¤Łà¤ķ à¤ķ
Ġà¤īà¤ª à¤µ
o st
à¤µà¤ķ à¤ķ
à¤¯à¤¯ à¤¨à¤²
Ġà¤¦ à¤¯
Ġà¤¹à¤¦ à¤¸à¤®
à¤ĩ à¤¹à¤°
Ġà¥¤ ...
Ġà¤¤ à¤°à¤²
Ġà¤Ńà¤µ à¤¨à¤ķ
à¤¨à¤¸ à¤¹
à¤ľ à¤¯à¤ķ
Ġà¤Ńà¤µ à¤¨à¤®
à¤¯à¤¸ à¤¹
à¤¦ à¤µà¤ķ
Ġà¤ĸ à¤¬
Ġà¤¯ à¤®
Ñ ĥ
à¥§ à¥©
i v
à¤¯ à¤²à¤ķ
à¤¹ à¤µ
Ġà¤°à¤ķà¤® à¤ķ
à¤¤ à¤¨à¤²
Ġà¥¨à¥¦à¥§ à¥©
Ġt o
u l
Ġà¤Ĩà¤ľ à¤¦
Ġà¥§à¥¯ à¥¬
Ġà¤® à¤ľà¤¬
à¤ļ à¤¤
à¤£ à¤¯à¤ķ
Ð º
Ġ Read
à¤¹à¤² à¤ª
er s
à¤ĩ à¤Łà¤®
Ġà¤ª à¤®
Ġà¤Ńà¤Ĺ à¤µà¤¤
Ġà¤¡ à¤ķ
à¤ľ à¤¦à¤°
Ġà¤Ĳ à¤¨à¤®
Ġà¤Ĩ à¤°à¤®
Ġà¤ªà¤Łà¤ķ à¤ªà¤Łà¤ķ
à¤· à¤¯à¤µà¤¸
Ġà¤ļ à¤ª
à¤« à¤°à¤ķ
Ġà¤ª à¤¬
Ġà¤² à¤¹à¤°
Ġà¥¬ à¥¯
Ġà¤Ĩà¤ª à¤¸à¤®
Ġà¥® à¥©
Ġà¤¨à¤Ĩ à¤ıà¤ķ
à¤¾à¤ģ ,
ĠâĢ ¢
à¤¶à¤Ń à¤°à¤ķ
Ġà¤¹ à¤®à¤²
Ġà¤ĩ à¤¶
Ġà¤ļà¤² à¤ĸ
Ġà¤Ĩà¤Ī à¤ª
à¤¯à¤Ł à¤¨à¤ķ
à¤¤ à¤Ĺà¤¤
Ġà¥® à¥¨
Ġà¥¨à¥¦à¥¬ à¥ª
à¤Ł à¤¤
Ġà¥¨à¥¦à¥¬ à¥®
Ġà¤ľà¤® à¤°
à¥ĩ ?
Ġà¤Ńà¤° à¤ªà¤°
Ġà¤ľ à¤²à¤¸
à¤°à¤µ à¤Ł
c t
à¤ķ à¤°à¤²
Ġà¤ľà¤¨à¤® à¤¤
à¤¦ à¤¦
à¤¨ à¤Ľ
à¤£ à¤¹à¤°
à¤Ľ à¤¦
à¤Ĩ à¤¯
à¤¨ à¤¯à¤¨
Ġ e
à¤°à¤®à¤£ à¤²
à¤ķ à¤Łà¤®
Ġà¤¶ à¤Ļ
o o
Ġ J
à¤Ń à¤¤
Ġà¤ķ à¤¯
à¤¯ à¤Ļ
à¥ģ -
à¤¹ à¤ª
Ġà¤ľà¤¨à¤¸ à¤Ļ
à¤°à¤£ à¤¹à¤°
Ġà¤Ĩ à¤µà¤ķ
à¤ħ à¤®
Ġà¤¶ à¤®
Ġà¥Ń à¥§
Ġre ad
à¤ı à¤Ī
Ġà¤¸à¤¡à¤ķ à¤ĸà¤£
Ġà¤ĸ à¤Ĺ
à¤¦ à¤°à¤¤
à¤Ĺ à¤¬à¤¹
à¤¤ à¤¹à¤¤
à¤¤à¤° à¤¬
Ġà¤ıà¤¸ à¤ıà¤²à¤¸
Å Ĵ
Ġà¤¡à¤² à¤°à¤ķ
à¤Ł à¤¨à¤ķ
Ġà¤®à¤¤ à¤ªà¤¤
Ġà¥¨à¥¦à¥§ à¥¨
á ĥ
.. ...
à¤¤à¤° à¤µ
à¤² à¤Ł
m ent
Ġà¤¸à¤¹à¤° à¤®
à¤¿ à¤¾
à¥ĩà¤ģ ,
à¤ĩ à¤²à¤®
à¤ĵ à¤²
Ġà¤² à¤ľ
Ġà¤¸à¤¬ à¤²
à¤Ī à¤ľà¤¨
Ġà¤¸ à¤¤à¤°
à¤ĸ à¤¸à¤®
à¤¤à¤° à¤°
à¤ı à¤¸à¤®
à¤· à¤Ńà¤¨
à¤¤à¤° à¤Ĺà¤¤
à¤¹à¤¨ à¤¤
Ġà¤Ĩà¤Ī à¤¸
Ġà¤ıà¤ķ à¤ħà¤°
à¤ĩ à¤¬à¤°
Ġà¥® à¥¬
à¤¦à¤° à¤Ĺ
Ġà¤¬à¤¸ à¤ª
Ġà¤Ľà¤²à¤« à¤²à¤ķ
Ġà¤« à¤¡
à¥į à¥į
à¤² à¤¡
à¤ķ à¤¬à¤¹
à¤Ĩà¤Ī à¤ľ
Â «
à¤¤à¤ķ à¤¹à¤°
à¤ª à¤¨à¤²
à¤¬ à¤ľà¤¨
à¤¹ à¤ľ
à¤Ĺà¤² à¤µ
Ġà¥¨à¥¦à¥¬ à¥©
Ġà¤· à¤¡
Ġà¤īà¤ª à¤¦
à¤µ à¤£
à¤Ĩ à¤¬
à¤¶ à¤¤à¤®
à¤°à¤² à¤Ĺ
à¤¡ à¤¤
à¤¸ à¤¸à¤®
Ġà¤ł à¤ª
Ġà¤ĺ à¤°à¤¹à¤°
à¤°à¤ķ à¤²
Ġà¤ĩ à¤Ń
Ġà¤Ľ à¤¤
à¤°à¤¤ à¤°
Ġà¤¬ à¤Ŀ
à¤¤à¤ķ à¤°
à¤ķ à¤¸à¤®
Ġà¤¨à¤Ńà¤ı à¤¸à¤®
à¤Ń à¤ıà¤¨
__ __
Ġà¤¤ à¤Ł
à¤¥ à¤²à¤¬
à¤Ĩ à¤ĩ
à¤¯à¤£ à¤Ĺà¤¢
Ġà¤Ĩà¤ī à¤¦
Ġà¤µ à¤¨à¤¸
Ġà¤° à¤¬
Ġà¤ī à¤¬
à¤¶à¤¤ à¤Ńà¤¨
à¤Ī à¤ª
à¤¡ à¤¦
Ġà¤ħà¤Ĺ à¤¸
à¤ķ à¤Ń
à¤¯ à¤¨à¤²
à¥į à¤¾
ou t
à¤¯ à¤£à¤ķ
à¤¸ à¤Ł
Ġà¤ħ à¤²à¤®
Ġà¤¨à¤Ĩ à¤īà¤¨
Ġà¤Ĺ à¤Ńà¤°
à¤ĩ à¤°à¤²
Ġà¤ĺ à¤°à¤¦
à¤§ à¤¹à¤°
à¤ľà¤¨ à¤¤
Ġà¤¶à¤¹à¤° à¤ķ
Ġà¤® à¤¡
Ġà¥¨à¥¦à¥§ à¥§
à¤¹ à¤¹à¤°
à¤¨ à¤¶
Ġà¤¨ à¤¹à¤°
à¤¯à¤¸ à¤ħà¤ĺ
à¤ı à¤¸à¤¨
Ġà¤ķ à¤¸à¤ķ
Ġà¤¶ à¤°à¤¦
in e
à¤ļ à¤²à¤ķ
à¤ī à¤¤à¤²
u t
Ġà¤ĸ à¤ª
à¤ľà¤Ĺ à¤¢
à¤² à¤§
à¤ľ à¤Ń
Ġà¥Ń à¥¯
à¤¤ à¤ľà¤¨
à¤ªà¤° à¤¬
Ġà¥¯ à¥©
à¤¡ à¤²à¤®
à¤ĩ à¤µ
Ġà¤° à¤¨à¤®
à¤¿ :
Ġà¤¯ à¤ķ
à¤ĵ à¤ķ
à¤² à¤¶
Ġà¤Ĩ à¤¸à¤¨
a k
Ġà¥¨à¥¦à¥§ à¥¦
à¤ª à¤ķà¤°
à¤ª à¤°à¤ķ
Ġà¤Ĩà¤ĩ à¤¤à¤µ
à¤Ī à¤°
Ġà¤ĺ à¤°à¤§
Ġà¤ķ à¤£
Ġ201 8
l o
Ġà¤ħ à¤ł
à¤¡ à¤¨à¤ķ
Ġà¤¶ à¤¶
à¤¶à¤¤ à¤¸à¤®
Ġà¥¯ à¥ª
Ġà¥¯ à¥¬
à¥Ń à¥§
à¤² à¤¯à¤¨
à¤°à¤£ à¤¬
Ġà¤ħà¤¸à¤¹ à¤®à¤¤
Ġà¤ħà¤µ à¤¤à¤°à¤£
à¤ª à¤¡
Ġà¤ħà¤¨ à¤®
à¤¨ à¤Ĺ
Ġà¤® à¤®
Ġà¤ĺ à¤°à¤Ń
ĠI n
Ġ g
à¥Ģ /
Ġà¥¯ à¥¨
à¤· à¤ª
Ġà¤ıà¤¸ à¤ıà¤¸à¤ª
à¤²à¤² à¤Ĺ
à¤°à¤¹ à¤®
à¤¤ à¤®à¤ķ
Ġà¤¸à¤® à¤¯à¤¸
a p
Ġ v
à¤¡ à¤²à¤²
Ġà¤ıà¤ķ à¤Ľ
Ġ U
Ġà¤ĩ à¤Ļ
à¥ĭà¥¤ âĢĻ
à¤¯à¤¨ à¤ľà¤°
à¤Łà¤¬ à¤²à¤®
Ġà¤« à¤¨
à¤ı à¤Ľ
Ġà¤¶ à¤ªà¤¥
Ġ V
o p
à¤· à¤°à¤¤
Ġà¤® à¤Ŀ
Ġà¤ħà¤« à¤°
Ñ ı
Ġà¥® à¥§
à¤Ĺà¤łà¤¨ à¤¹à¤°
Ġà¥¨à¥¦ à¥¨à¥¦
à¤® à¤ĺ
à¤¯à¤ķ à¤µ
à¤°à¤ķ à¤°à¤£à¤®
Ġà¥® à¥Ń
à¥ĩà¤Ĥ ,
Ġà¤¸ à¤ĸ
Ġà¥¨à¥¦à¥¬ à¥¯
Ġà¤° à¤ĺ
à¤Ļ à¤¦
Ġà¤¡ à¤®
à¤· à¤¯à¤¤
Ġà¤¸à¤®à¤¯ à¤ªà¤Ľ
à¥¦ à¥¬
Ġà¤Ńà¤ı à¤¤
Ġà¤Ĳ à¤¨à¤²
Ġà¤¨à¤ľ à¤°
à¤² à¤¯à¤¸
à¤¾ âĢĿ
Ġà¤ĵ à¤Ńà¤°
Ġà¥¨à¥¦à¥¬ à¥¨
à¤¦ à¤¶à¤¨
à¥¤ '
Ġà¥¦ à¥«
Ġà¥¨à¥¦à¥ª à¥¬
à¤¸ à¤«
à¤ī à¤¹
à¤ĸ à¤Ńà¤¨
Ġà¤ħà¤¨ à¤¸à¤¨
Ġà¥¤ à¥¤
à¤« à¤¦
Ġà¤ľà¤¸à¤® à¤§
à¤°à¤®à¤£ à¤¬
Ġà¤¸ à¤°à¤¹
Ġà¤§ à¤°à¤¹à¤°
Ġà¥¯ à¥§
Ġà¤¥ à¤¨
à¤¿ -
o s
' ,
Ġ? âĢĿ
à¤°à¤¬ à¤°
à¤ıà¤® à¤Ī
Ġà¤Ł à¤¸
à¤°à¤¸ à¤ŀ
à¤¥ à¤¤
Ġà¤®à¤¹ ÅĴ
à¤Ī à¤¨à¤²
à¤¯ à¤¬à¤¹
Ġà¤ķ à¤¦à¤°
Ġà¤Ńà¤ĩà¤°à¤¹ à¤¨
à¤ķ à¤°à¤ķ
Ġà¤° à¤ľà¤¤
Ġà¤µ à¤ŀ
ã Ĥ
à¤¹ à¤ķà¤ķ
Ġà¤Ĩà¤µ à¤®
à¥ĭ .
Ġà¤Ĩ à¤Ĩà¤«
à¤£ à¤¯à¤®
à¤¥à¤² à¤Ĺà¤¤
à¥ª à¥«
à¤¾ (
Ġà¤« à¤ķ
Ð° Ð
à¤° à¤«à¤²
à¤Ń à¤ªà¤¤
à¥ĩà¤ģ à¥¤
Ġà¤Ķ à¤²
Ġà¥¨à¥¦à¥¦ à¥®
Ġà¤¸à¤® à¤¯à¤²
à¤² à¤ľ
o v
Ġà¤ªà¤łà¤¨ à¤ª
à¤ķ à¤ľ
Ñ ĭ
Ġà¤ĵ à¤Ĺà¤Ł
Ġà¤ī à¤Ĺ
Ġà¤¨ à¤²à¤Ĺ
Ġà¤Ńà¤Ī à¤¸à¤ķ
à¤² à¤¹
! !
Ġà¤° à¤ļ
à¤Ń à¤°à¤¤
Ġà¤ħà¤µà¤¸ à¤°à¤ķ
Ġà¤ĵ à¤ªà¤¨
Ġà¤ī à¤§
à¤ĺ à¤°à¤ķ
à¤¥ à¤¶
Ġà¤ħà¤¨ à¤¨
Ġà¥® à¥¯
Ġà¤ľà¤¬à¤° à¤ľà¤¸
à¤¥ à¤¹à¤°
Ġ 4
à¤§à¤¨ à¤¬
à¤°à¤® à¤¸
à¤µà¤°à¤£ à¤ķ
ĠN ews
Ġà¤® à¤¤à¤²
Ġà¤ĩà¤¨ à¤°
Ġà¤Ĺ à¤Ĺà¤¨
à¤Ĺ à¤ħà¤¨
à¤·à¤¯ à¤Ĺà¤¤
à¤ľ à¤¹
à¤¶ à¤®à¤¨
Ġà¤¸à¤¯ à¤Ńà¤¨
Ġ 5
a b
à¤¯ à¤ªà¤¤
Ġà¤Ĩ à¤ªà¤°
Ġà¤ªà¤¦ à¤¯
Ġt h
à¤Łà¤¨ à¤Ĺà¤°à¤®
à¤¤ à¤¯
à¤µà¤ķ à¤¹à¤°
Ġà¤¬ à¤ŀ
Ġà¤ª à¤ĸ
Ġà¤Ł à¤ķ
à¤ĩ à¤ļ
à¤Ĺ à¤°à¤£
Ġà¤¨ à¤ļà¤²
à¤¶à¤¨ à¤¬
à¥Ī à¥¤
Ġà¤Ĩà¤Ī à¤¤à¤¬
t h
à¤Ŀ à¤ķ
à¥į -
Ġà¤Ĺ à¤¢
à¤Ĺ à¤¸à¤®
Ġà¤Ĺà¤ł à¤¨à¤ķ
l squo
Ġà¤¨à¤¬ à¤¢
) :
à¤²à¤¨ à¤¬
à¤ª à¤¸à¤ķ
à¤ŀ à¤ķ
Ø §
à¤ĸ à¤ķà¤²
Ġà¤¸à¤¹à¤° à¤ķ
Ġà¤¨ à¤Ł
à¤¤à¤µ à¤¨à¤®
i p
Ġà¤Ł à¤ª
Ġà¤Ĩà¤Ĺ à¤®à¤¨
.... ....
Ġà¤īà¤ªà¤¸ à¤ļ
à¤¾ :
à¤¯ à¤¦à¤²
Ġà¤° à¤ŀ
Ġà¤µ à¤¨à¤ķ
n d
Ġà¤¦à¤¶ à¤ķà¤®
Ġà¤¦ à¤®à¤¨
Ġà¥¯ à¥Ń
Ġà¤ª à¤¡
à¤¸à¤® à¤®
à¥ª à¥¦
à¤¤à¤¹ à¤¤à¤ķ
om e
Ġà¤¯ à¤¨
à¤Ńà¤² à¤ªà¤®
Ġà¤¸à¤¹à¤ľ à¤¤
à¤¯à¤¸à¤® à¤§
à¥ģ )
à¤Ĺ à¤²à¤²
à¥ĩà¤Ĥ à¥¤
Ġà¤ĸ à¤®
Ġà¤ıà¤¨à¤Ĩà¤°à¤ıà¤¨ à¤ı
Ġà¤ħà¤ĸ à¤£
à¤ĸ à¤¨à¤¨
Ġà¤¤à¤°à¤² à¤¤
à¤¤ à¤¬à¤¹
à¤ĩ à¤ıà¤¨
Ġà¤¬ à¤¦à¤¨
à¤Ŀ à¤®
à¤ķ à¤ħà¤¨
à¤¤à¤¹ à¤Ł
à¤µ à¤Ĺ
Ġà¤ªà¤¦ à¤¬
Ġà¤¤à¤¹ à¤¬
à¤ĩ à¤¹
à¤¯à¤¸ à¤¤
m à¤¨
Ġà¤® à¤Ĺ
à¤Ľ à¤¡
à¤§ à¤°à¤²
à¤¯ à¤°à¤§à¤¨
Ġà¤¤à¤¹ à¤¸à¤®
à¤Ł à¤¯
à¤¬ à¤¢
Ġà¤ķ à¤²à¤ķ
à¤Łà¤ķ à¤ķ
à¤²à¤¤ à¤¬
à¤ı à¤¤
Ġà¤Ī à¤²
Ġà¤Ĩ à¤Ļ
Ġà¤ħ à¤¥
à¤ķ à¤¤à¤°
à¤¨à¤² à¤Ĺ
Ġà¥©à¥¦ à¥¦
à¤ķ à¤Ńà¤°
u m
à¤¤à¤°à¤£ à¤®
Ġà¥§à¥« à¥¦
Ðµ Ð
Ġà¤¬ à¤¸à¤®
à¤Ī à¤¡
Ġà¤ªà¤° à¤¦
à¤¬ à¤²à¤ķ
Ġà¤ĭ à¤¤
Ġà¤² à¤ĸ
à¥į à¥ģ
à¤¯à¤¯ à¤¨à¤®
à¤² à¤¬à¤¨
à¤° à¤µà¤¨
à¤¾ à¥į
à¤¤ à¤Ńà¤°
Ġà¤¨ à¤¶
t er
Ġà¥§à¥¯ à¥«
à¤ľ à¤ķà¤ķ
à¤¯à¤¦ à¤²à¤²
à¤£à¤¯ à¤¹à¤°
i st
Ġà¤² à¤¯
à¤¨ à¤ªà¤°
à¤¾à¤ģ à¥Ī
Ġà¤ļ à¤¤
ĠT he
Ġà¤ıà¤ķ à¤ľ
Ġà¤Ĩà¤¤ à¤Ļ
Ġà¤Ĩà¤ľ à¤Ń
à¥Įà¤Ĥ -
Ġ y
à¤¥ à¤¬
2 0
à¤°à¤« à¤²à¤®
Ġà¤īà¤ª à¤²à¤µ
à¥¨ à¥©
à¤§ à¤¸
à¤ī à¤ļ
Ġà¤² à¤Ń
à¥¦ à¥Ńà¥«
à¤Ł à¤¦
Ġà¤®à¤¹ à¤¤à¤²
Ġ â
Ġà¥¦ à¥ª
Ġà¤¬ à¤¬
Ġà¤Ńà¤ı à¤Ľ
à¥ĭ âĢĿ
Ġà¤īà¤¦ à¤¯
à¤µ à¤²à¤²
à¤Ĺ à¤®à¤¤
ĠÐ ¿
Ġà¤Ńà¤ĩ à¤¹
Ġà¥¨à¥¦à¥§ à¥¯
à¤Ŀ à¤Ł
à¤°à¤ľà¤¨ à¤¨
Ġà¤Ĩà¤µ à¤¤à¤ľ
Ġà¤ıà¤¯à¤° à¤ª
à¤¤ à¤Ń
à¤ī à¤¬
à¤ĩ à¤²à¤ķ
Ġà¤¦ à¤°à¤®
à¥¨ à¥¨
Ġà¤ľà¤¸ à¤¬
Ġà¥¨à¥¦à¥¦ à¥¯
à¤ī à¤¡à¤ķ
à¤¾ ?
à¤Ł à¤¨à¤®
à¤Łà¤µ à¤²à¤®
Ġà¤ĺà¤° à¤ľà¤Ĺ
Ġà¥¨à¥¦à¥¬ à¥«
à¤¨ à¤ĸ
à¤²à¤ķ à¤£
à¤Łà¤ķ à¤°
ĠC om
à¤Ī à¤ĵ
à¤° à¤¸à¤ķ
à¥ģà¤ģ ,
à¥ĭ '
Ġà¤ĵ à¤¬
à¤²à¤¬ à¤®
Ġà¤¬ à¤¦à¤°
à¥ĭ âĢĻ,
à¤¾à¤Ĥ à¥Ī
Ġà¤¨à¤® à¤¸
or t
Ġà¤¸à¤¯ à¤ªà¤¤
Ġà¤ı à¤Ń
Ġà¤®à¤¨ à¤Ĺ
Ġà¤Ĩ à¤ıà¤¨
à¤ªà¤¨ à¤ªà¤¤
Ġà¤Ł à¤¹à¤°
à¤ļ à¤¥à¤°
à¤¨ à¤°à¤®
à¤¦à¤¨ à¤¹à¤°
à¤Łà¤ª à¤Ł
à¤ļ à¤µ
Ã ¬
à¤² à¤¸à¤¹
Ġà¥¦ à¥Ńà¥ª
à¤¡ à¤¨à¤®
Ġà¤ĵ à¤¹
Ġà¤īà¤ª à¤²à¤ķ
Ġà¤µ à¤ļà¤¨
à¤ı à¤ľ
Ñģ ÑĤ
Ġà¤¬ à¤¸à¤ķ
Ġà¤¡ à¤¬
Ġà¤¦à¤¶à¤® à¤²à¤¬
Ġà¤¦ à¤¨
à¤¤à¤µ à¤Ł
à¤ĸ à¤¸
à¤Ĩ à¤ĩà¤ľ
à¤ĩà¤¨ à¤¬
à¤§à¤¨ à¤¹à¤°
à¤°à¤® à¤§
à¥į à¥ĩ
à¤® à¤Ń
à¥¦ à¥Ńà¥ª
, ,
à¤¸ à¤²à¤®
Ñ Į
Ġà¤® à¤¸à¤²
à¤ªà¤¤ à¤ķ
Ġà¤Ŀ à¤°à¤¨
à¤ķ à¤ħà¤ª
Ġà¤®à¤¤ à¤²à¤¬
Ġà¤¸à¤¤ à¤¹
Ġà¤ħà¤¸à¤¹ à¤ľ
à¤ħ à¤ķ
à¤¬ à¤¹à¤°
à¤ī à¤¡à¤®
Ġà¤Ń à¤¡
à¤¯ à¤²à¤¯
à¤Ĺà¤® à¤¨à¤®
à¥¨ à¥§
Ġà¤¸à¤¹ à¤ķà¤°
à¥Ī ...
ou r
r a
Ġà¤¬à¤² à¤°
i a
p p
Ġà¤ª à¤¥
Ġà¤Ĩ à¤¡à¤®
à¤ļ à¤¥
à¥Ī à¥Ī
Ġà¤ı à¤¬
à¤°à¤ª à¤¸
Ġà¤¦à¤° à¤ĸ
Ġà¤ĺà¤° à¤ĺà¤°à¤®
à¤Łà¤¨ à¤Ĺà¤°à¤ķ
o c
à¤¯à¤¸ à¤¨
Ġà¤Ĺà¤ľ à¤²à¤ķ
à¤¯à¤¤ à¤¨
Ġà¤¸à¤ª à¤¥
ar m
à¤· à¤Ńà¤°
Ġà¤² à¤°
âĢ į
à¤® à¤ĸ
à¤¯ à¤¨à¤®
Ġ ]
à¤¡ à¤ªà¤®
b er
Ġà¤ıà¤ķ à¤ķ
à¤° à¤ħà¤¨
à¤µà¤° à¤¬
Ġà¤¨ à¤°à¤®
à¤ı à¤Ł
Ġà¤ī à¤Ľ
Ġ k
à¤² à¤ªà¤Ľ
à¤ĩà¤² à¤Ł
Ġà¥¨à¥¦à¥¦ à¥¬
i k
Ġà¤¹à¤Ļà¤ķ à¤Ļà¤®
à¤Ľ à¤°
Ġà¤Ŀ à¤²à¤¨
à¤® à¤²à¤ķ
à¤¡ à¤Ń
à¥ ī
à¤¯à¤® à¤¶
à¥ģ âĢľ
à¤¹ à¤Ł
à¤§ à¤µà¤ķ
à¥¬ à¥©
Ġà¤ıà¤ķ à¤ªà¤Ľ
Ġ Â¥
à¤ª à¤µ
Ġà¤« à¤²à¤¸
à¤¯ à¤°à¤¬
Ġà¤¬ à¤ĸà¤¤
à¤¤à¤° à¤ª
à¤Ń à¤¸
Ġà¤Ĩ à¤£à¤µ
Ġà¤Ń à¤ľà¤¨
Ġà¤¦ à¤¤
à¤Ĺ à¤¬à¤¨
Ġà¤Ĺà¤¤ à¤µà¤°
à¤ķ à¤°à¤®
à¤ĩ à¤°à¤¸
Ġà¤¨à¤¬ à¤¸
ã ĥ
à¤µ à¤²à¤ķ
Ġà¤® à¤Ĺà¤°à¤ķ
à¤Ī à¤Ń
Ġà¤ĵ à¤ª
à¤¯à¤ķ à¤¹à¤°
à¤° à¤ĺ
Ġà¤¦ à¤²à¤¬
Ġà¤¸à¤¡ à¤ķà¤²
Ġà¤ıà¤ķ à¤°
à¥¨ à¥¬
Ġà¤ĵ à¤¢
à¤¶ à¤¯
i e
à¤° à¤ľà¤¸
Ġà¤ľà¤¨ à¤¹
Ġà¤® à¤®à¤¤
à¤ĩà¤ķ à¤²à¤®
Ġà¤® à¤ĸ
Ġà¤¹à¤Ļà¤ķ à¤Ļà¤ķ
c e
à¤ķ à¤°à¤¹à¤°
Ġà¤Ńà¤° à¤ª
à¤ıà¤® à¤ıà¤¸
à¤¡ à¤¸à¤®
Ġà¤ĩ à¤ª
à¤Łà¤µ à¤²à¤ķ
Ġ 0
à¤ĸ à¤¨à¤ķ
à¤Ĺ à¤¨à¤®
à¤Ĥ à¥Ī
Ġà¤ĸà¤¤à¤° à¤¨
à¤ļ à¤¹à¤°
Ġà¤®à¤¨ à¤¨
à¤Ł à¤Ń
r squo
à¤ª à¤ĸ
à¤ļ à¤ª
ĠâĢĺ âĢĺ
Ġà¤ľà¤¨ à¤°à¤²
à¥¨ à¥ª
à¤ŀ à¤¤
es s
à¤łà¤ķ à¤¬
à¥¨ à¥®
à¤Ĩ à¤§
Ġà¤Ī à¤®
à¤ı à¤ľà¤¸
à¤Ĥ ,
à¥ģ ...
à¤ı à¤¤à¤ķ
à¤Ńà¤ªà¤¤ à¤¨
à¤¥ à¤¨à¤®
Ġà¤¯à¤¸ à¤ªà¤Ľ
à¤¨à¤Ĺà¤° à¤²
à¤® à¤«
Ġà¤ªà¤° à¤¨
à¤Ĺ à¤Ń
à¤ªà¤° à¤µ
Ġà¤®à¤¹ à¤¨
à¤¶ à¤Ńà¤ķ
à¤¸ à¤ŀ
ĠT V
ar t
Ġà¤¦à¤¶à¤ķ à¤¦
Ġà¤Ĩ à¤ĩà¤¨
à¥¨ à¥¯
Ġà¤Ŀ à¤Ł
à¤¤à¤µ à¤¨à¤²
at e
Ġà¤Ĩà¤ĩ à¤«
ha b
à¤ı à¤īà¤Ł
Ġà¤°à¤¹ à¤¦
Ġà¤Ńà¤ı à¤¨à¤¨
Ġà¤¸à¤®à¤¯ à¤ħà¤ĺ
à¤ķ à¤Ĺ
Ġà¤ľà¤¨ à¤¨
l y
Ġà¤¤à¤ª à¤¸
Ġà¤¹ à¤ķà¤ķ
l ine
Ġà¤® à¤Ł
à¥Ī âĢĵ
Ġà¤®à¤¤ à¤Ń
à¤ķà¤² à¤¨à¤ķ
Ġd e
Ġà¤µà¤° à¤ªà¤°
à¤¾) ,
à¤¡ à¤Ńà¤¨
à¤Ļ à¤Ł
Ġà¤° à¤¨à¤²
Ġà¤° à¤Ĺà¤¤à¤ķ
à¤· à¤¤à¤°
à¤ģ âĢĵ
à¤¯à¤¸ à¤¤à¤°
à¤ľà¤Ń à¤£
Ġà¥§à¥¯à¥¯ à¥¦
à¤² à¤µà¤ķ
Ġà¤¸ à¤ľà¤Ĺ
an t
à¤²à¤ĸ à¤£
Ġà¤Ĳ à¤¶
Ġà¤° à¤¥
à¤Ľ à¤ķ
Ġà¤ī à¤·
Ġà¤¸à¤¦ à¤¨à¤®
Ġà¤¡à¤Ł à¤ķà¤®
à¤¨ à¤µà¤¤
on t
à¤ľ à¤¸à¤®
Ġà¤Ĩà¤Ī à¤°à¤¹
Ġà¤ľà¤Ĺ à¤¦
à¤ģ à¤Ĥ
à¤·à¤£ à¤¹à¤°
à¤ĸ à¤°à¤®
Ġà¤¯à¤¸ à¤µà¤°
à¤Ī à¤ķà¤²
à¤ĸ à¤¨à¤®
Ġà¤¸à¤¦ à¤¨
u b
à¥Ĥ -
à¤°à¤¬ à¤¦
à¤ī à¤ł
à¤°à¤¸ à¤¨
Ð ²
à¤¯ à¤ļ
Ġà¤ħ à¤ľà¤¯
Ġà¤Ĺ à¤ĩà¤¸à¤ķ
Ġà¤Ŀ à¤¡à¤ª
à¤Ĺ à¤ļ
Ġà¤® à¤¤à¤ķ
à¤Ī à¤¸à¤ķ
à¤¯à¤¸ à¤ļ
Ġà¤Ķ à¤ľ
à¤Ń à¤ļ
à¤°à¤ķ à¤®
à¥¨ à¥Ń
à¤Łà¤° à¤Ł
à¥įà¥¤ âĢĻ
Ġà¥¨à¥¦à¥¬ à¥Ń
Ġà¤Ĩà¤ľ à¤¬
it y
a re
Ġà¤°à¤® à¤£
à¤ª à¤¢
à¤¬ à¤¡
à¤°à¤µ à¤¹à¤¨
ï¿½ ...
h t
à¥ĩ Â«
Ġà¤ĺà¤¨ à¤¶
Ġà¤ħà¤¸à¤«à¤² à¤¤
à¤¸à¤¨ à¤¬
Ġà¤ħà¤Ĺ à¤·
Ġà¤° à¤¨à¤°
Ġà¤¸à¤® à¤¤
Ġà¤§ à¤®à¤²
à¤Ĩà¤Ī à¤¸
à¤¸ à¤¯
à¤® à¤¥
à¤ļ à¤µà¤Ł
à¤ģ à¥Ī
Ġà¤Ĩà¤ĩ à¤ªà¤°
Ġà¥§à¥§ à¥©
ã Ģ
Ġà¤ĵ à¤Ľ
ĠH ome
Ġà¥ Ĳ
Ġà¤ħà¤ª à¤µ
Ġà¤¦ à¤°à¤ķ
à¤Ń à¤¬
Ġà¥¤ "
à¤°à¤® à¤ħà¤¨
à¤Ĥ à¤Ĥ
à¤ľà¤¨ à¤¶
à¤ı à¤Īà¤ķ
Ġà¤®à¤¹ Ã¬
à¥¬ à¥¦
Ġà¥ª à¥¦à¥¦
à¤łà¤ķ à¤¹à¤°
à¤¦ à¤ķà¤¤
à¤¶ à¤°à¤£
à¤Ł à¤ķà¤®
Ġà¥¨à¥¦à¥¬ à¥¬
à¤ĩà¤Ł à¤¹à¤°
à ¦
à¥¨à¥¦ à¥Ńà¥«
Ġà¥¨à¥¦à¥ª à¥®
à¤ľ à¤ªà¤¤
à¤Ń à¤°à¤ķ
Ġà¤ı à¤ĺ
à¤µà¤¸ à¤¹
à¤¤ à¤¨à¤®
à¤ĩ à¤Ļ
à¤· à¤¦à¤²
à¤ļà¤¨ à¤ªà¤Ľ
Ġà¤¨à¤Ń à¤ĩ
à¤ıà¤« à¤¸
à¤Łà¤° à¤ª
à¤¯à¤ª à¤¶
at ha
à¤µ à¤¤à¤®
à¤ıà¤« à¤ª
Ġà¤¤ à¤²à¤ķ
Ġà¤īà¤ª à¤²
b out
Ġà¤¸à¤® à¤ķà¤ķ
Ġà¥§à¥¯ à¥ª
Ġà¤Ľ à¤ª
i f
à¥Ģ âĢĿ
Ġà¤Ĺ à¤¸
Ġà¤ľà¤¬ à¤¸à¤®
à¥Ģ (
à¤ĸ à¤¬à¤°
à¤¥à¤² à¤¹à¤°
Ġà¤ħà¤²à¤® à¤²
à¤¨ à¤¤à¤°
à¤°à¤¸ à¤²
hab ar
Ġà¤ª à¤µà¤¨
Ġà¤ĩ à¤®à¤°
à¤ļà¤¨ à¤¬
e b
à¤ª à¤°à¤®
Ġà¤ħà¤ª à¤¡
à¤Ĺ à¤¦à¤°
à¤¾ à¥Īà¤ģ
à¥ĩ '
à¤Ł à¤¨à¤²
Ġ1 9
Ġà¤ĭ à¤£à¤ķ
Ġà¤² à¤ļ
Ġà¤¤ à¤µà¤°à¤²
Ġ| |
Ġf or
ou s
Ġà¤ħà¤µ à¤¤
ag arm
Ġà¤ı à¤¯à¤°à¤ķ
Ġà¤¯à¤¸ à¤¸
re s
ment s
à¤Ī à¤¯
agarm atha
an g
Ġ 7
Ġ ï
à¤¨ à¤Ł
à¤°à¤ķ à¤°à¤£
à¤®à¤¤ à¤²
) à¥¤
à¤¡ à¤°à¤ķ
à¤¨à¤¨ à¤Ĺà¤°
Ġ1 0
à¤¸ à¤«à¤°
Ġà¤µ à¤¨à¤®
à¥Ĥ âĢĻ
à¤¶à¤® à¤¶
à¤Ĥ à¤ģ
Ġà¤¡ à¤¬à¤²
Ġ 9
à¥į .
Ġà¤¥à¤ª à¤²
à¤°à¤® à¤ľ
à ¨
Ġà¤¸à¤¡à¤ķ à¤¬
Ġà¥¦ à¥Ńà¥©
à¤ķ à¤Łà¤²
à¥ĭ à¤ģ
à¤² à¤ľà¤¸
à¤¯ à¤Ńà¤¨
à¥į ?
Ġ 6
Ġà¤¬ à¤¹à¤°
à¤¸ à¤Ĺ
à¤Ń à¤ķà¤°
à¤ĩ à¤Ĺ
à¤ĩ à¤ıà¤ªà¤Ľ
Ġà¤Ĺ à¤¥
Ñ ĩ
à¤¡ à¤¹
Ġà¤ıà¤¨à¤Ĩà¤° à¤ı
à¤¯ à¤²à¤²
Ðµ Ð½
à¤² à¤°à¤ķ
Ġà¤¯ à¤¶
à¤Ĭ à¤¨
Ġà¤« à¤£
as h
à¤Ł à¤²à¤²
à¤¯à¤® à¤¯
Ġà¤ħà¤ª à¤²
à¤µ à¤®à¤¨
Ġà¤¸ à¤¯à¤ķ
à¥¦ à¥«
à¤¨à¤¬ à¤®
Ġ Ñģ
à¤µ à¤°à¤¸
Ġà¤ļ à¤®à¤¤
à¤° à¤Ĩà¤®
à¤ļ à¤Ĺ
à¤ĩ à¤Ńà¤°
Ġà¤Ŀ à¤®
à¥ĩ /
à¤°à¤ķ à¤ķ
Ġà¤Ĩà¤ļ à¤°à¤£
à¤¯ à¤²à¤®
Ġà¤Ĩ à¤µà¤¸
Ġà¤¨à¤Ĺà¤° à¤¸à¤Ń
à¤² à¤µà¤²
Ġà¤¯ à¤®à¤ª
à¤·à¤£ à¤¬
à¤Ĺà¤ł à¤¨à¤®
à¤¯à¤¨ à¤¹à¤°
Ġà¤ħà¤ĸ à¤¬
Ġ Re
à¤¯à¤¸ à¤µ
à¤Ńà¤° à¤ª
Ġà¤īà¤ª à¤ľ
à¥¦ à¥Ńà¥¬
à¤ĩ à¤ªà¤²
à¤¯à¤¦ à¤²à¤ķ
Ġà¤Ń à¤ĩà¤¦
à¤¬ à¤°à¤²
à¤¡à¤ķ à¤ª
t e
Ġà¤ħ à¤®à¤²
Ġà¤Ī à¤¸
à¤¤à¤¹ à¤¤à¤®
Ġà¤Ł à¤®
à¤¤à¤° à¤¸à¤®
à¤¸ à¤µà¤°
à¤µ à¤²à¤¨
à¥Įà¤Ĥ âĢĻ
Ġà¤īà¤¦ à¤ĺ
Ð¾Ð ²
, '
à¤ªà¤° à¤¸
Ġà¤ĵ à¤¡
à¤ĸ à¤ķà¤ķ
à¥¦ à¥Ńà¥©
Ġà¤¨à¤µ à¤ľ
Ġà¥¨à¥¦à¥« à¥®
à¥ĩ à¥ĩ
à¤¯ à¤°à¤¹à¤°
à¤²à¤¨ à¤°à¤¤
à¤ĩ à¤Łà¤ķ
à¤Ł à¤ªà¤Ľ
à¤« à¤¸
Ġà¥¦ à¥Ńà¥¨
Ġà¤Ĳ à¤°
ĠÐ ²
à¤° à¤ħ
Ġà¤°à¤ķà¤® à¤²
à¤ī à¤¸à¤®
Ġ ....
Ġà¤¡ à¤¢
Ġà¤Ĩà¤ī à¤Ľ
à¤®à¤¸ à¤¤
Ġà¤¨ à¤°à¤¹à¤¨
à¥© à¥«
Ġà¤Ī à¤¤
Ġà¤Ĺ à¤¡
Ġà¥§à¥¯ à¥«à¥¦
Ġà¥§à¥¯à¥¯ à¥®
Ġà¤ķ à¤°à¤¦
Ġà¤¡ à¤¨
Ġà¥¨à¥¦à¥¦ à¥ª
à¤¸ à¤°à¤²
à¤·à¤§ à¤°
à¤§ à¤°à¤ķ
Ġà¤ħà¤¹ à¤®
Ġà¤ķ à¤Ńà¤°
o d
f f
à¤· à¤ľà¤¨à¤ķ
ĠM ore
Ġà¤¬ à¤²à¤ķ
à¤µà¤°à¤£ à¤²
Ð ¼
à¤ı à¤¸à¤ķ
à¥Ģ) ,
à¤Ń à¤µà¤²
à¤ıà¤² à¤Ĺà¤¤
à¤µ à¤¯à¤ķ
à¤Ł à¤ļ
Ġ st
Ġà¤Ĩà¤µ à¤§
Ġà¤¸à¤¹ à¤ª
e st
Ġà¤¯à¤¸à¤ªà¤Łà¤ķ à¤ķ
-- --
à¤ı à¤²à¤ķ
Ġà¤² à¤¬
à¤ļ à¤¦
Ġà¤Ĩà¤ĩ à¤ľ
Ġà¤Ĩà¤ĩ à¤ıà¤®à¤Ī
Ġà¤¯à¤®à¤ª à¤ŀ
à¤¥ à¤²à¤²
à¤¤ à¤ªà¤¤
e c
à¤¬ à¤²à¤®
à¤µ à¤°à¤¹à¤°
Ġà¤Ĺ à¤Ļ
à¤ľà¤¨ à¤Ńà¤¨
à¤¯à¤¸ à¤¯à¤¤
à¤Łà¤² à¤¹à¤°
a il
à¤¨ à¤ľà¤¸
à¤®à¤Ĺà¤° à¤²
m à¤²
à¤µ à¤¤à¤²
à¤Ļ à¤¹à¤°
Ġà¤ıà¤¸ à¤ıà¤®à¤ıà¤¸
Ġà¤ľ à¤ª
Ġà¤¶ à¤®à¤¶
à¤¹ à¤¤à¤ķ
à¤¥ à¤ķà¤¤
Ġà¤® à¤²à¤®
à¤¢ à¤¤
à¤ı à¤®à¤¬
Ġà¤īà¤ª à¤§
à¥Ģ à¥ĩ
à¤ļ à¤²à¤®
à¤²à¤¬ à¤°
à¤°à¤¬ à¤²
à¤ħ à¤«
Ġà¤· à¤¡à¤¯à¤¨
Ġà¤Ĩà¤ĩ à¤¡
Ġà¤¦ à¤²à¤®
à¤ł à¤¤
à¥Įà¤Ĥà¥¤ âĢĻ
h er
Ġà¤ħ à¤¬à¤°
à¤®à¤¶ à¤°à¤£
à¤µ à¤ħà¤§
Ġà¤ĩ à¤·
à¤°à¤ļ à¤¢
à¤² à¤¤à¤°
à¤¹ à¤ľà¤¨à¤ķ
Ġà¤ľà¤¨ à¤Ĺà¤£à¤¨
Ġà¤ª à¤¹à¤°
Ġà¤¤à¤¹ à¤¹à¤°
à¤ķ à¤¨à¤®
Ġà¤°à¤ķà¤® à¤®
e x
à¤ķ à¤°à¤¬
Ġà¤ı à¤ļà¤ķ
à¥¦ à¥ª
Ġà¤®à¤¹ÅĴ à¤µà¤ª
à¤ı à¤ª
Ġà¤Ĩà¤Ī à¤ľ
ww w
Ġà¤īà¤ªà¤¦ à¤«
à¤ł à¤¹à¤°
Ñ ħ
à¤² à¤Ńà¤°
à¤« à¤¨
à¥¦ à¥Ń
à¤°à¤µ à¤²
à¤ĵ à¤®
Ġà¤ħ à¤¶à¤ķ
Ġà¤Ĩà¤ĩ à¤²
à¤¬ à¤°à¤£
à¤ı à¤Īà¤®
Ã ©
à¤Ļ à¤ľ
Ġà¤¨ à¤īà¤ł
à¤ŀ à¤²
Ġà¤Ĩà¤® à¤°à¤£
à¤ª à¤ŀ
Ġà¤¸à¤¦ à¤°
Ġ is
à¤ĩ à¤ķà¤°
Ġà¤ľà¤¸ à¤ħà¤¨
à¤ĩ à¤Łà¤²
Ġà¤ľ à¤²à¤®
à¤Łà¤° à¤¸à¤®
Ġà¤¸à¤¤ à¤¹à¤®
à¤ª à¤²à¤ķ
à¤Ń à¤µà¤ķ
à¤¹à¤²à¤ª à¤¹à¤²
à¥Ī âĢĻ
à¤¤à¤¹ à¤Łà¤ķ
Ġà¤ıà¤ķ à¤¤à¤°
à¤¯à¤¤ à¤¬
Ġà¤ıà¤¨ à¤ľ
Ġà¤ļ à¤¹à¤²à¤ªà¤¹à¤²
Ġà¤¨à¤µà¤² à¤ª
Ġ Ø
à¤¸ à¤ľ
à¤¸ à¤¡
Ġà¤¤à¤Ł à¤¬à¤¨
Ġà¤¦à¤¶ à¤°à¤¥
Ġà¤¬à¤¹ à¤¨
à¤ĩà¤ķ à¤²à¤ķ
à¤ª à¤ķà¤²
à¤¥ à¤ķà¤¹à¤°
Ġà¤ĺ à¤°à¤²
Ġà¤Ĩà¤¯ à¤Ĩà¤°
Ġà¤Ĩà¤Ĺ à¤ľà¤¨
à¥ģ, âĢĻ
à¤¯ à¤Ĺ
Ġà¤¬ à¤ĸ
Ġà¥¨à¥« à¥¦
Ġà¤² à¤ĸà¤¨
Ġà¤ī à¤¨à¤®
Ġà¥¨à¥¦ à¥¦à¥¦
à¤¸ à¤¸à¤¹
à¤¹ à¤¨à¤ķ
N epal
à¥ģ à¤¾
Ġà¤Ľ à¤Łà¤ªà¤Ł
à¤Ī à¤ļ
Â »
à¤ľà¤¨ à¤¬
Ġà¤ħà¤µà¤¸ à¤°à¤¹à¤°
à¤µà¤Ń à¤°à¤ķ
Ġà¤ªà¤ķ à¤¡
à¤¤ à¤°à¤¹
Ġà¤¶ à¤¤à¤ª
Ġà¤¨à¤ľ à¤°à¤®
Ġ201 7
à¥ĭ âĢĿ,
à¤¦ à¤ķà¤²
al l
à¤¬ à¤¬
à¤¨ à¤Ĺà¤°à¤®
à¤¾à¤ģ âĢĵ
Ġà¤ł à¤Ł
à¤ľà¤ķ à¤¹à¤°
Ġà¤¶à¤¹à¤° à¤¹à¤°
Ġà¤ķ à¤ªà¤ķ
à¤Ĺà¤° à¤²
à¤® à¤°à¤¤
Ġà¤Ĩà¤Ĺ à¤¨
à¤ıà¤¨ à¤Ĩà¤°
à¤ľ à¤ķà¤®
Ġà¤ľ à¤Ĺà¤¤à¤®
à¤¬ à¤§
à¤¥ à¤¯
il l
à¤°à¤¹ à¤²
Ġâ Ĩ
Ġà¤ ¿
à¤¯ à¤ľà¤¸
Ġà¤¸ à¤¨à¤®
à¤¬ à¤Īà¤®
à¤ ½
à¤ı à¤¬
Ġà¥¨à¥¦à¥« à¥¯
à¤ĵ à¤Ł
à¤¨ à¤§
à¤ª à¤Łà¤ª
Ġà¤¸à¤¦ à¤Ń
à¤ķ à¤¸à¤¹
à¥¨ à¥¦à¥¦
à¤ļà¤¥ à¤°à¤ķ
Ġà¤¤ à¤²à¤µ
Ġà¤Ĩà¤ī à¤²
à¤¨à¤² à¤®
Ġà¤¨à¤ķ à¤Ĩà¤īà¤Ł
à¤µà¤¨ à¤¯
Ġà¤¸à¤¡à¤ķ à¤¹à¤°
Ġà¥¨à¥¦à¥ª à¥Ń
Ġà¤¸à¤® à¤²
Ġà¤ĸ à¤¡à¤ķ
Ġ 8
Ġà¤° à¤£à¤µ
Ġà¤ħ à¤¢
Ġà¤¦ à¤°à¤µ
Ġà¤ī à¤«
à¤¨ à¤ªà¤¤
Ġà¤µà¤° à¤ªà¤°à¤ķ
ag e
Ġà¤ľ à¤¯à¤ª
Ġà¤¥ à¤®
/ /
v i
à¤Ī à¤«
à¥¦ à¥©
à¤ªà¤° à¤²
ĠÐ ¸
ä ¸
Ġà¤¯à¤¸ à¤¤à¤°
Ġà¤¬à¤¢ à¤¨
à¤ıà¤¸ à¤¬
à¤ľà¤® à¤£
à¤ª m
on g
Ġà¤Ńà¤ı à¤¦
à¤¦ à¤¦à¤°
Ġà¤Ŀ à¤¸
t p
Ġà¤Ĺà¤° à¤ķ
Ġà¤¯ à¤®à¤°
Ġà¤Ĺ à¤¡à¤¬
à¥Įà¤ģ âĢĵ
à¤Ĺà¤® à¤¨à¤²
n t
v e
à¤ª à¤ķà¤ķ
à¤· à¤µ
Ġà¤®à¤¨ à¤¹à¤°
Ġà¤ľ à¤Ĺà¤®
Ġà¤Ĩà¤ĩà¤°à¤¹ à¤¨
à¤¯ à¤ħà¤¨
Ġà¤® à¤²à¤ķ
Ġà¥¨à¥¦à¥« à¥¨
Ġà¤ľ à¤ĺà¤¨
Ġà¤ıà¤« à¤ıà¤®
à¤¨ à¤¢
à¤°à¤ª à¤¥
à¥® à¥¦
Ġp ost
Ġà¤¬ à¤²à¤²
Ġà¤ł à¤¡
à¤µà¤¨ à¤Ńà¤°
Ġà¤īà¤ªà¤ķà¤°à¤£ à¤¹à¤°
à¤¦ à¤²à¤²
Ġà¤Ĩà¤ľ à¤ķà¤²
à¤¶ à¤ļà¤¨
à¤Ĩ à¤ĩà¤¸
à¤°à¤ļ à¤²à¤¨à¤®
Ġà¤¤ à¤²à¤®
à¤¹à¤° à¤ķ
Ġà¤« à¤Ł
Ġà¤° à¤Ĺà¤¤à¤®
Ġ Y
à¤¦ à¤¶à¤®
i es
u e
à¤Ĺà¤ľ à¤ªà¤¤
ĠCom ments
à¤µ à¤ªà¤Ľ
à¤¡ à¤°à¤²
Ġà¥¨à¥¦à¥¬ à¥§
ĠO n
u d
à¤ħ à¤ªà¤°
à¤¨ à¤¯à¤®
à¥¨à¥¦ à¥§à¥®
Ġà¤ĵ à¤®à¤ª
à¤ľà¤Ĺ à¤ŀ
Ġà¤°à¤ķà¤® à¤¬
Ġà¤¹à¤ķ à¤¹
à¤ ĭ
Ġà¤Ī à¤ļ
à¤ Ĳ
à¤Ĺ à¤¯
à¤Ĺ à¤ªà¤¤
à¤ı à¤¡
ow n
Ġà¤ª à¤¤à¤¨
à¤¦ à¤¹
Ġà¤ı à¤Ĺ
à¤¦ à¤²à¤ķ
à¤¡ à¤°à¤®
Ġà¥¨à¥¦à¥¬ à¥¦
r y
à¤Ļ à¤µ
à¥© à¥§
à¤ķà¤® à¤ľ
à¥¦ à¥§
à¤°à¤¸ à¤¸
Ġà¤ĸà¤¬ à¤°à¤¦
20 1
à¤ī à¤¸à¤ķ
ĠS t
Ġà¤° à¤ľà¤¨
à¤§ à¤¯
Ġà¤¬à¤¹ à¤¸à¤ķ
Ġà¤Ĩ à¤²à¤®
à¤µà¤¨ à¤¬
à¤Ĩ à¤ľà¤ķ
Ġà¤®à¤¦ à¤¤
à¤ª à¤¸à¤²
à¤¹ à¤¯
à¥ĭ, âĢĿ
ĠÐ ½
: //
à¤¨ à¤°à¤²
à¤ļ à¤°à¤£
Ġà¤®à¤¤ à¤ª
Ð ´
Ġà¤µ à¤¯à¤¸
à¤ł à¤¶
Ġà¤ħà¤µ à¤Ĺà¤¤
à¤ķà¤Ł à¤¤
à¥ĩâĢĵ âĢĺ
à¤¨ à¤ľà¤¨à¤ķ
à¤¦ à¤¬à¤¹
Ġà¤¨à¤Ĺà¤° à¤µ
Ġà¤¦à¤¶à¤ķ à¤ķ
Ġà¤¹ à¤ļ
ar d
à¤¯à¤¸ à¤Ńà¤¨
à¤¤à¤¨ à¤ª
i al
à¤ĺ à¤£
à¥¨à¥¦ à¥Ńà¥ª
Ġà¤Ĳ à¤ķ
à¤¯à¤ª à¤¹
Ġà¤ªà¤¸à¤² à¤¹à¤°
u st
à¤ı à¤¶
à¤ī à¤ªà¤°
à¤Ĩà¤Ī à¤¬
à¤ı à¤®à¤ķ
à¤ľà¤¦ à¤°à¤®
u p
à¥ĭ |
à¥ĭ Â¥
à¤¯à¤¸ à¤ª
à¤¤ à¤¥
à¤¦à¤ķ à¤¹à¤°
à¤¿ ?
à¥Ĥ )
Ġà¤§à¤¨ à¤°
à¤ıà¤¸ à¤ľ
Ġà¤ªà¤¦ à¤ª
Ġà¤¹à¤¡ à¤¤
Ġà¥§à¥§ à¥¦
à¤Ī à¤ªà¤Łà¤ķ
it h
à¤Ĺ à¤ľà¤®
à¤ļ à¤¤à¤®
à¤°à¤® à¤¦
à¤²à¤¬ à¤ļ
Ġà¤ªà¤°à¤® à¤ª
à¤®à¤ķ à¤¥
Ġ! !
ac k
à¤¾ "
à¤¯ à¤ªà¤°
à¤² à¤«
Ġà¤ªà¤¦ à¤¸
Ġ! âĢĿ
à¤® à¤¨à¤ķ
à¤¯ à¤ľà¤¨à¤ķ
à¤Ł à¤¸à¤²
Ġà¥¦ à¥Ńà¥«
à¤¾âĢĻ ,
à¤£à¤¯ à¤¬
à¤¯à¤£ à¤ª
Ġà¤¸à¤¹ à¤¸
à¤ķà¤® à¤°
Ġà¤§à¤¨ à¤¬à¤¹
à¤¦à¤¯ à¤ĺ
à¤ķ à¤²à¤®
à¤ļ à¤²à¤¨
Ġà¤ª à¤Ļ
Ġà¤¨ à¤°à¤¸
à¤ľ à¤¬à¤¹
à¤ķ à¤«
à¤¹ à¤²à¤®
à¤¹ à¤£à¤ķ
à¤· à¤¨
Ġà¤¦à¤² à¤¸
Ġà¤Ĩ à¤ıà¤®
à¤ķà¤Ł à¤¤à¤®
Ġ #
Ġà¥¨à¥¦à¥¦ à¥«
ĠÐ ¾
à¤²à¤¬ à¤¸
à¤®à¤Ĺ à¤ł
Ġà¤¤à¤¬ à¤¸à¤®
Ġà¤¤ à¤¦
Ġà¤Ī à¤ķ
à¤®à¤ľ à¤¯à¤¨
Ġà¤ļ à¤¹
Ġà¤ĺà¤Ł à¤¸
à¥ĩ à¤¾
Ġà¤¹ à¤µà¤²
Ġ! âĢĻ
Ġ Ì
à¤ıà¤¸ à¤¨à¤ķ
à¥Ģ à¤ĥ
Ġà¤ļ à¤£
à¤°à¤¸ à¤°à¤¤
à¤Ĺà¤® à¤ŀ
Ġà¤ªà¤¦ à¤¹à¤°
Ġà¤¹ à¤¨à¤¨
à¤Ĩà¤Ī à¤ª
Ġa pp
Ġà¤ Ļ
à¥į à¥Ĥ
à¥ĩ âĢĮ
Ġà¤® à¤¦à¤°
à¤¹à¤° à¤²
Ġà¤¸à¤ķ à¤°
à¥¬ à¥®
i z
Ġà¤¬à¤¸ à¤²
Ġà¤Ĩà¤ĩ à¤Ł
Ġà¤ªà¤Łà¤ķ à¤¸à¤®
à¤ħ à¤²à¤Ĺ
Ġà¤ħà¤ª à¤¹à¤°à¤£à¤ķ
Ġh t
à¤¡ à¤ħà¤¨
Ġà¤Ĩà¤¶ à¤Ļ
Ġà¤Ĺà¤£ à¤¤
ic e
____ ____
i b
à¤¸à¤® à¤¸
Ġà¥¨à¥¦à¥« à¥¬
à¤® à¤¥à¤²
Ġà¤ľ à¤ķ
Ġà¤ļ à¤ķà¤²
Ġ j
à¤°à¤µ à¤ļà¤¨
Ġà¤ķà¤¸ à¤°à¤¤
Ġà¤Ĺà¤¡à¤¬ à¤¡
à¥į :
Ġà¤ĸ à¤ļ
Ġ un
à¤² à¤Ńà¤¨
à¤ı à¤Ľà¤¨
à¤°à¤¤ à¤¤
Ġà¤ħà¤° à¤¨
à¤¸à¤® à¤¯
lo ad
à¤ľ à¤Ļ
à¤¸à¤® à¤¨
Ġà¤«à¤² à¤¦
Ġà¤¸ à¤¶
à¤®à¤ķ à¤°à¤£
à¤Ĩ à¤ĩà¤ª
à¤ĩà¤¨à¤² à¤ķ
à¤¦ à¤°à¤ķ
à¤ħ à¤¤
Ġà¥¨à¥¦à¥¦ à¥©
à¤¸ à¤°à¤¬
à¤¶ à¤²à¤¤
Ġp ro
à¤¨à¤® à¤§
ĠC h
à¤²à¤¯ à¤ħà¤¨
Ġà¥¨à¥¦à¥¦ à¥¨
à¤ķ à¤ľà¤¸
à¤µ à¤°à¤¤
à¥© à¥¨
Ġ ..
à¤¤ à¤²à¤®
Ġà¤ª à¤¥à¤°
à¤µ à¤ĺ
Ġà¤ĺ à¤°à¤§à¤¨
Ġà¤¬à¤¹ à¤¸à¤®
Ġ r
à¤®à¤ķ à¤°
Ġà¥¨à¥¦à¥« à¥§
à¤ķ à¤²à¤ķ
Ġà¤Ľ à¤¦
Ġà¥¨à¥¦à¥« à¥ª
Ġà¤ħà¤¸à¤¹ à¤¯
Ġà¤Ľ à¤¡
Ġà¤ªà¤¹ à¤²à¤ķ
à¤īà¤¨ à¤¦
Ġw ww
à¤¤ à¤Ĺ
à¥Ĥ à¥¤
Ġà¤§ à¤¨à¤®
ir st
Ġà¤¸ à¤°à¤¦à¤°
Ġà¤ħà¤¬ à¤¸à¤°à¤®
à¤Ĺ à¤¹à¤¨
à¤¶ à¤ķà¤®
Ġà¤²à¤Ĺ à¤¨à¤¶
à¤² à¤ħà¤¨
Ġà¤¸à¤® à¤µ
Ġà¤Ķ à¤§
Ġà¤¨à¤Ĩ à¤ī
à¤ļ à¤°à¤²
à¤ļ à¤ķà¤ķ
Ġà¤¸à¤¹ à¤ļ
Ġà¤ħ à¤¸à¤ķ
Ġà¤Ńà¤ı à¤ľà¤¸
à¤¤à¤¨ à¤Ĺà¤°
ig ht
Ġà¤ĸà¤¬ à¤°à¤²
à¥ĭà¥¤ âĢĿ
à¤¼ à¤¾
à¤¬ à¤¤à¤ķ
.... ..
Ġà¤¨à¤Ńà¤ı à¤ªà¤¨
Ġà¤¸à¤ĺ à¤¨
à¤² à¤°à¤®
Ġà¥¤ [
à¤¡ à¤¡
Ġà¥¬ à¥¦à¥¦
à¥« à¥«
à¥¦ à¥¨
à¤Ī à¤ĺ
à¤ī à¤¤à¤ķ
ĠNepal i
à¤ļ à¤°à¤ķ
Ġà¤° à¤£
Ġà¤Ľ à¤Ł
à¤Ĺà¤¤ à¤¦
it e
à¤ª à¤²à¤²
Ġà¤² à¤µ
a in
à¤Ł à¤¡
Ġà¤Ĺà¤« à¤Ĺ
à¤ı à¤ħà¤¨
Ġà¤ķà¤¥ à¤¨
o g
Ġà¤ı à¤ħ
Ġà¥¨à¥¦à¥ª à¥¯
à¤ĩ à¤ľà¤°
à¤Ľ à¤¤
Ġà¤¨ à¤Ļ
à¤¨à¤² à¤ķ
à¤ĩà¤¨ à¤°
à¥ĩ, âĢĻ
1 1
à¤¨ à¤°à¤ķ
à¥ĩ âĢĿ
Ġà¥¤ &
Ġà¤¡ à¤£
Ġà¤ķà¤¹ à¤²
ĠS agarmatha
Ġà¥¨à¥¦ à¥©à¥¦
Ġà¤Ĩà¤¬ à¤¶
à¥į )
à¤Ĺ à¤¨à¤ķ
Ġà¤² à¤ł
Ġà¤ķà¤® à¤¸
Ġà¤Ńà¤ı à¤²à¤Ĺà¤¤
Ġà¤¡à¤² à¤°à¤®
* *
à¤ķà¤ª à¤¡
à¥įâĢĮ à¥¤
à¤¾ à¤¿
à¤ĸ à¤¡
à¤ľ à¤¸à¤²
à¤¸ à¤¸à¤²
Ġb e
Ġà¤¦ à¤¯à¤¨
à¥¦ à¥¯
à¤ıà¤® à¤ı
Ġà¤ħà¤¨ à¤Ĺ
Ġà¤Ĩà¤¯ à¤°à¤²
à¤ıà¤ļ à¤¡
r om
à¤² à¤Ŀ
à¤¸ à¤ªà¤Ľ
Ġà¤¯ à¤°
iv e
Ġ Ù
à¤ıà¤® à¤¸
Ġà¤¸à¤®à¤¯ à¤Ń
à¤ļà¤ķ à¤¹à¤°
Ġà¤Ĩà¤ªà¤¤ à¤ķ
à¤¡ à¤ľ
Ð° Ð½
Ġht tp
Ġ1 2
Ġà¤ľ à¤«à¤¤
à¥ģà¤ģ à¥¤
à¥¬ à¥¯
Ġà¤¸à¤®à¤¯ à¤ħà¤¨
à¤ıà¤¨ à¤ľ
à¥ĭ âĢĶ
à¤¯ à¤¤à¤°
à¤ľ à¤¯à¤¨
à¤ĸ à¤ķà¤¹à¤°
Ġà¤ı à¤ıà¤«à¤¸
à¤¾ Ã·
à¤¨ à¤«
à¤¸ à¤°à¤¸
Ġà¤ıà¤¸ à¤Ī
Ġà¥¨à¥¦à¥« à¥¦
à¥ģ âĢĿ
à¤Ł à¤®à¤ķ
à¤° à¤¡
à¤²à¤ķ à¤®
à¤ļ à¤ľà¤¨
Ġà¤ªà¤° à¤¸
à¤µà¤¸ à¤¤
a st
à¤¯à¤¤ à¤¸
à¤łà¤ķ à¤ªà¤Ľ
f t
à¤¡ à¤¯
Ġà¤ĸ à¤ľ
à¤¨ à¤µà¤²
Ġà¤ıà¤ķ à¤ļ
à¤Ĺà¤² à¤¸
Ġà¤Ĩà¤ĩ à¤¡à¤²
à¤¸ à¤¡à¤ķ
à¤²à¤¨ à¤ªà¤Ľ
à¤Ń à¤Ł
à¥¤ "
Ġà¤®à¤ĸ à¤®à¤²
en d
Ġà¤Ńà¤µà¤¨ à¤¹à¤°
a j
à¤¨ à¤µà¤°
Ġà¤¨ à¤Ĺà¤°à¤®
à¤ĩ à¤ĵ
à¥© à¥¬
à¤¾à¥ĩ à¥¤
am p
: :
à¤Ĺ à¤¤à¤°
Ġà¤« à¤¤
or d
Ġà¤¦à¤¶à¤ķ à¤ħà¤ĺ
id e
à¤®à¤Ĺà¤ł à¤¬à¤¨
Ġc om
à¤®à¤¸à¤® à¤°
Ġà¤ª à¤Łà¤¨
Ġà¤ĸ à¤µà¤°
à¤¤à¤ľà¤¨ à¤¹à¤°
y a
à¤ľà¤¨ à¤¸
à¤¯à¤® à¤¨à¤ķ
à¤²à¤¯ à¤¦
ĠP ost
ĠOn line
à¤Ĩ à¤ĩà¤¬
Ġà¤ħà¤ª à¤¹à¤°
Ġà¤¦à¤® à¤ķà¤²
à¤¦ à¤ķà¤ķ
Ġà¤Ĩ à¤®à¤®
Ġà¤¸à¤¨ à¤°
à¤ī à¤¸à¤²
à¤Ł à¤¬à¤¨
Ġà¤¤ à¤ķ
à¤Ĩ à¤ķ
à¤Ĩ à¤ĩà¤Ń
Ġà¥¤ âĢĺ
Ġà¤® à¤¨à¤®à¤¨
Ġà¤ľ à¤µà¤°
Ġà¤¬à¤¢ à¤¦
Ġ1 5
1 0
à¤£ à¤Ĺ
Ġà¤ıà¤ķ à¤¥à¤°
Ġà¤¨à¤Ń à¤ıà¤®
Ðµ ÑĤ
Ø§ Ù
u re
Ġà¤Ĺà¤° à¤Ĺà¤¹à¤¨
Ġà¤Ĩà¤ĩ à¤¸à¤²
à¤Ļ à¤²à¤Ĺ
à¥Ń à¥Ń
Ġf irst
à¥¬ à¥«
à¥© à¥©
Ġà¤ľà¤² à¤ľà¤²
à¤ļ à¤¶
à¤Ń à¤°à¤®
à¤łà¤® à¤£
own load
à¥Ģ :
Ġa bout
à¥ĭ âĢĮ
Ġà¤¸ à¤¯à¤®
Ġà¤Ĩà¤¶ à¤¯
Ġà¤ķà¤² à¤°
à¤¸ à¤°à¤¹
à¤· à¤¯à¤°
à¤Ľ à¤µ
à¤²à¤¨ à¤ª
à¤£ à¤ªà¤¨
à¤¿ '
à¤¤à¤® à¤§
l ic
Ø ±
à¤Ŀ à¤¬
âĢ ĭ
à¤ł à¤Ĺ
Ġà¤Ĩà¤ı à¤ªà¤¨
à¤Ł à¤¸à¤¹
Ġà¤¨ à¤µà¤¦
à¤ł à¤¸
à¤²à¤ķ à¤°
à¤ħ à¤Ļ
Ġà¤Ĺ à¤ĩà¤¨
Ġà¤®à¤¹ à¤Ļ
Ġà¤¤à¤° à¤Ļ
Ġà¤īà¤ª à¤¶
Ġà¤Ĳà¤¨ à¤ħà¤¨
Ġà¤ħà¤ªà¤¨ à¤¤
Ġà¤¹à¤Ļà¤ķ à¤Ļà¤²
Ġà¤Ń à¤¯à¤ķ
Ġà¤¨à¤ª à¤ł
Ðµ ÑĢ
Ġà¤¨ à¤¸à¤°
à¤¬ à¤Ńà¤¨
à¤°à¤¤ à¤¤à¤°
ĠP re
em ber
Ġà¤ª à¤Ĺ
Ġà¤¨ à¤°à¤¬à¤¹
Ð ¿
Û Į
Ġà¤¬ à¤Ĺà¤°
à¤· à¤¦à¤°
à¤¯à¤® à¤¸
à¤¯à¤µ à¤¶
à¤Īà¤¨à¤² à¤®
à¤°à¤¬ à¤¦à¤²
Ġà¤Ľà¤²à¤«à¤² à¤ªà¤Ľ
Ġà¤®à¤¦ à¤¨à¤ķ
Ġà¤¤ à¤¦à¤°
v er
à¥¤ à¥¤
à¤¨à¤² à¤²
à¤µ à¤¦à¤²
à¤Ŀ à¤²
Ë Ĩ
Ġà¤° à¤¶
à¤¶à¤¨ à¤ªà¤Ľ
Ġà¤®à¤¹ à¤²
à¤¹à¤¦ à¤°à¤µ
Ġà¤ħà¤¸à¤® à¤Ŀà¤¦
à¤Ĺ à¤µà¤¤
à¤¥ à¤ķà¤°
Ġà¤ľà¤® à¤ĺà¤Ł
Ġà¤° à¤Ļà¤ķ
Ġà¤ıà¤¨à¤Ĩà¤°à¤ı à¤¨à¤ķ
à¥Ī -
à¤Ł à¤¹
Ġà¤ķà¤° à¤¬
ĠÂ «
à¤°à¤¹ à¤¦
à¤ªà¤ķ à¤¹à¤°
à¤® à¤ŀ
à¤¤ à¤ľà¤¨à¤ķ
Ġà¤¡ à¤¸
à¤Ĺà¤¤ à¤²
à ¹
Ġà¤µ à¤¯
à¤ķà¤² à¤¨à¤®
Ġà¥¨à¥¦à¥¨ à¥¨
à¤ļ à¤¯à¤ķ
à¤¤ à¤ļà¤°
ĠÐ º
Ġ Ã
à¤¤ à¤¶
à¤ĺ à¤¬
Ġà¤Ĩà¤ľ à¤Ńà¤¨
Ġà¤ķà¤²à¤ķ à¤¤
à¤¡ à¤§
à¤®à¤ķ à¤¤
0 7
u g
Ġà¤ªà¤° à¤¶
Ġà¤ĵ à¤ķ
an s
à¥į âĢĿ
Ġà¤ıà¤¨ à¤ıà¤®à¤¬
i o
Ġà¤ħà¤µà¤¸ à¤°à¤²
à¤ĩà¤ķà¤² à¤²
Ġà¤Ĩ à¤·
ĠÐ ´
Ġà¤®à¤¤ à¤ªà¤°
à¥Īà¤Ĥ ,
are d
à¤Ń à¤¨à¤®
à¤Ļ à¤¸à¤®
Ġà¤ıà¤ļ à¤Ĩà¤ĩà¤Ń
Ġapp e
Ġà¤Ĩà¤¦ à¤°à¤£
à¤¡ à¤°à¤¸
à¤¯à¤¤ à¤¥
à¤¸à¤² à¤Ĺ
à¤·à¤¦ à¤®
à¥į âĢĻ,
à¤ķ à¤Ľ
à¤¸à¤¦ à¤¬
Ġ à¥ģ
Ġà¤ķ à¤ªà¤®
Ġà¤¨ à¤ķà¤°
à¤Ĥ à¥¤
Ġà¤ªà¤¸ à¤²à¤ķ
Ġà¤¨ à¤«à¤°
nd ash
Ġà¤®à¤¹Ã¬ à¤µà¤ª
à¤¨ à¤¯à¤ķ
à¤µà¤ª à¤¶
Ġà¤Ĺà¤ł à¤µà¤¨
Ġ ï¿½
à¤²à¤¨ à¤¸
n epal
à¤² à¤Ĺà¤°
Ġà¤īà¤ª à¤ķà¤°à¤£à¤ķ
Ġà¤ħà¤µ à¤¹
à¤Ĺà¤¬ à¤£
Ġà¤ļà¤°à¤£ à¤¬
Ġà¤ħà¤¨à¤¶à¤¨ à¤°à¤¤
à¤ ±
Ġà¤¨ à¤«
Ġà¤Ŀ à¤¡
Ð¾ ÑĢ
n ews
à¤¨ à¤¯à¤¤
Ġà¤ĺ à¤Łà¤ķ
à¤ª à¤£à¤ķ
à¤Ĺ à¤Łà¤¨
à¥¬ à¥¬
à¤ķà¤°à¤£ à¤¬
à¤ıà¤¸ à¤¸
Ġà¤ıà¤« à¤ª
Ġà¤ķ à¤Ļ
Ġà¥® à¥¦à¥¦
Ġà¥¨à¥¦à¥« à¥«
à¤§ à¤¨à¤¸
Ġà¤ħà¤° à¤¬à¤ķ
Ġà¤Ŀ à¤ķ
à¤°à¤¨ à¤Ĺà¤°à¤®
à¤°à¤µ à¤£
Ġà¤¸ à¤°à¤¦
à¤ī à¤¹à¤°
à¥¦ à¥®
Ġà¤¨à¤¹ à¤Ł
Ġà¤Ĩ à¤¯à¤ķ
à¤ĩ à¤ķà¤¨
Ġà¥¨à¥¦à¥¦ à¥§
Ġ ha
à¤¥ à¤Ĺà¤¨
Ġà¤µà¤° à¤¦
à¤Ĩ à¤ªà¤¸à¤®
à¤² à¤°à¤²
à¥© à¥¯
à¤Ł à¤²à¤Ĺ
Ġà¤ĵ à¤¶
Ġà¤¬ à¤¦à¤®
Ġà¤ħ à¤ķà¤¸
Ġà¤ĵ à¤ł
Ġà¤¸à¤Ł à¤¹
à¤¸à¤® à¤¯à¤®
à¤¯à¤² à¤Ĺ
à¤§ à¤ªà¤Ľ
à¤ī à¤ªà¤¯
à¥Ń à¥®
Ġ +
à¤¦ à¤²à¤¯
à¤Ĺ à¤ŀ
à¥Ī à¥į
à¤ľ à¤¡
Ġà¤ıà¤¨ à¤Ĩà¤Īà¤¸
à¤Ĩ à¤¦
à¤¯ à¤Ĺà¤¤
Ġà¤Ĩ à¤¯à¤¸
à¤Ī à¤µ
à¥© à¥®
Ġà¤Ĩà¤ī à¤ľ
Ġà¤Ĺà¤Ī à¤°à¤¹
à¤¸ à¤µà¤²
Ġà¤² à¤®à¤¹
à¤ľ à¤¤à¤²
à¤¸à¤¨ à¤¸
Ġà¤ĭ à¤£à¤®
Ġà¤ķà¤¦ à¤®à¤²
Ġappe ared
à¤® à¤ħà¤¨
à¤°à¤ķ à¤°à¤£à¤ķ
Ġà¤ħà¤¬ à¤¦
Ġà¤Ĩà¤® à¤ľà¤¨à¤¤
el l
à¤¦ à¤ĺ
Ġà¤ļ à¤®à¤ķ
à¤ķà¤² à¤Ĺ
Ġà¥§à¥¯à¥¯ à¥Ń
Ġà¤ľà¤Ĺ à¤¤à¤ķ
Ġw ith
à¤ĩ à¤¡à¤ķ
à¤Ł à¤Ńà¤¨
à¥ī à¤Ĥ
à¤ħ à¤µà¤¸
n p
Ġà¤ ¾
Ġl e
à¥ģà¥¤ âĢĻ
Ġà¤Ĩ à¤ķà¤²à¤¨
âĢĮ à¤Ĥ
ËĨ à¤¨
Ġà¤ļ à¤¯à¤¨à¤ķ
Ġ1 1
Ġà¥¤ )
à¥Ĥ à¥Ĥ
Ġà¤ļ à¤¸
g le
à¥į à¤¾à¤¾
à¤® à¤°à¤ķ
à¤°à¤¶ à¤¨
Ġà¤ıà¤ķà¤¸ à¤¯
Ġà¤® à¤¯
Ġà¤² à¤¯à¤®
à¥į à¥Ģ
Ġà¤Ŀ à¤²à¤ķ
à¤¾ Â¥
à¤Ł à¤Ł
à¤¬ à¤¨à¤®
Ġà¤ľà¤¨ à¤ħà¤§
à¥¯ à¥¦
Ġï ģ
? ?
à¤° à¤Ļà¤®
à¤Ĺ à¤¸à¤¹
à¤§ à¤°à¤£
Ġà¤¬à¤ľ à¤Ĺ
à¤ı à¤Ŀ
Ġà¥§à¥¨ à¥¦
á ŀ
à¤¾ ..
Ġà¤¨à¤ª à¤¢
à¤® à¤µà¤°à¤£
à¤¶à¤¨ à¤¹à¤°
7 5
Ġà¤ı à¤¥
à¥Ī )
à¤£ à¤¸à¤®
à¤°à¤¤ à¤µ
Ġy ou
à¤¦ à¤°à¤®
à¤Ĩ à¤°à¤ķ
à¤ĩ à¤¸à¤®
à¤Ļ à¤Łà¤¨
Ġà¤Ĺ à¤²à¤ķ
à¤Ł à¤«à¤°
Ġà¤¹ à¤Ļ
à¤ģ âĢĻ
à¤Ĩ à¤¶
à¤¯à¤£ à¤¹
Ġà¤ħà¤¨ à¤Ń
Ð° ÑĤ
ac h
à¤ŀ à¤°
à¤µà¤° à¤ª
à¤²à¤¯ à¤¸à¤®
à¥© à¥ª
Ġ *
à¤¨ à¤µà¤ķ
à¤® à¤µà¤°
Ġà¤¨ à¤¥
Ġà¤Ń à¤ĩà¤°
à¤ľ à¤¯à¤²
à¤¯à¤¸ à¤ħà¤¨
à¤¤à¤¨ à¤¶
Ġà¤¸ à¤µà¤²
Ġà¤Ĩ à¤ıà¤¸
un g
à¤Ļ à¤¯
ar y
Ġà¤¬ à¤ļà¤¨
à¤ı à¤¨à¤¸
Ġà¤¸à¤¯ à¤¦
à¤¯ à¤¬à¤¦
1 2
à¤® à¤ªà¤¤
Ð ±
à¤° à¤¨à¤®
s e
à¤¤ à¤ĸ
à¤° à¤°à¤¤
Ġà¤ħ à¤µà¤®
Ġà¤µ à¤ľà¤¨
Ġà¤µ à¤¨à¤²
Ġà¤Ŀ à¤¡à¤ªà¤®
Ġà¤ĩ à¤¬
à¥ª à¥®
Ġà¤¤à¤¹ à¤¸
à¤īà¤¨ à¤¸à¤ķ
à¤īà¤¨ à¤¸à¤®
à¤²à¤¬ à¤ľ
à¤ķà¤¡ à¤Ń
à¤¤ à¤¸à¤¹
à¤µ à¤Łà¤ķ
Ġà¥§à¥¦ à¥®
in d
i an
à¤¬ à¤Īà¤ķ
à¥įâĢ Ķ
Ġ .....
Ġà¤° à¤«
à¤ī à¤Ĺ
Ġà¤¸à¤® à¤·
Ġà¤¸à¤ķ à¤¸
à¤¯à¤¸ à¤¸
à¤° à¤Ł
Ġà¤ķ à¤°à¤®
Ġà¤¬ à¤®à¤ķ
Ġà¤® à¤ł
à¥Ń à¥¯
à¥¬ à¥ª
à¤µ à¤¶à¤ķ
Ġà¤ĵ à¤ĩà¤°
Ð¾Ð ¼
oo gle
à¥Įà¤ģ -
à¤°à¤ľ à¤¹
à¤® à¤¨à¤²
à¤¸ à¤ĸ
Ġà¤ķ à¤¶
Ġà¤® à¤·
Ġà¤¦ à¤°à¤Ń
à¤ħ à¤¦
ot her
à¥ĭ !
Ġà¤ª à¤°à¤ķ
à¤¦ à¤°à¤¬
Ġà¤Ľ à¤łà¤ķ
à¤¯ à¤µà¤°
à¤ķà¤® à¤§
à¤¤à¤® à¤¬
à¤®à¤¨ à¤Ĺà¤°
à¥ģ '
à¤¤à¤° à¤Ļ
Ġà¤Ĩà¤® à¤¸à¤ŀ
à¤īà¤ª à¤¡
oo k
à¤ª à¤¯à¤ķ
Ġà¤ħà¤²à¤® à¤²à¤®
Ġà¤¦ à¤Ļ
Ġà¤ı à¤Ĩà¤Īà¤ľ
Ð½ Ñĭ
à¤° à¤ĸà¤°
Ġà¤¸à¤¦ à¤¨à¤ķ
Ð¾Ð »
à¤® à¤¤à¤°
Ġà¥Ń à¥¦à¥¦
Ġà¤ı à¤¤
Ġà¤ħà¤¨ à¤ª
a h
ĠÐ¿ ÑĢ
Ġ an
à¤¯ à¤ĺ
à¤ł à¤°
u c
Ġà¤ľ à¤²à¤¬
à¤ī à¤ĸ
à¤¿ à¥ĩ
à¤Ł à¤ħà¤¨
Ġà¤Ĩ ËĨà¤¨
à¤¯à¤ķ à¤°à¤£
à¤§à¤¨ à¤µ
à¤¦ à¤¯à¤ķ
à¥įà¥¤ âĢĿ
à¤Ĩ à¤¸
Ġà¤ħ à¤ķà¤²
à¤¶ à¤¸à¤®
à¤Ī à¤¸à¤®
à¤ļ à¤¸à¤®
Ñ İ
à¤µà¤¸ à¤²
à¤¤ à¤ªà¤Ľ
à¤§ à¤¶
Ġà¤Ĩ à¤ĺ
à¤§à¤¨ à¤ªà¤Ľ
à¤Ĺ à¤£à¤®
Ġà¤µ à¤®
à¤°à¤¶ à¤®à¤¶
à¤¨ à¤ļà¤°
à¤²à¤¨ à¤¹à¤°
à¤Ĩà¤Ī à¤Ń
Ġ or
à¤ļ à¤ĸ
Ð¾Ð ´
ĠâĨ Ĵ
à¤ı à¤«à¤ķ
Ġà¤¯à¤¸ à¤¸à¤®
e e
Ġà¤ķ à¤¨à¤ķ
à¤ī à¤Ń
à¤£à¤¯ à¤ħà¤¨
à¤¯à¤ª à¤¦
à¤Ń à¤ı
à¤¯à¤² à¤¯à¤®
à¤¤à¤° à¤¸
à¥ĢâĢĻ ,
e ct
à¤Ł à¤ķà¤²
i re
Ñ Ĩ
à¤¯ à¤¡
à¤¶ à¤ľ
Ġà¥§à¥¦ à¥§
ĠO ff
à¤Ļ à¤ª
à¤ľ à¤°à¤®
Ġà¤« à¤°à¤µ
à¤® à¤¦à¤°
vi ous
Ġà¤¬à¤² à¤¤
Ġà¤Ĩà¤Ī à¤¤à¤µ
Ð ³
Ġà¤ı à¤¯
Ġà¥¦ à¥Ńà¥¦
à¤ķ à¤Ńà¤¨
à¤ĩ à¤Ĺà¤°
Ġà¤Ĩà¤° à¤ľ
à¤²à¤Ĺ à¤¢
Ġà¤®à¤Ļ à¤ª
ĠA r
Ð ¹
à¤® à¤Ŀ
à¤Ĺ à¤§à¤¨
à¤¬ à¤¨à¤ķ
à¤¶ à¤ħà¤¨
à¤ĩ à¤ıà¤®
à¤ĩ à¤ıà¤²
Ġà¤§ à¤ª
Ġà¤ Ĥ
à¥į à¤ģ
Ġà¤® à¤ķà¤°
Ġ! !!
Ġà¥¦à¥ª à¥¬
à¤¾ !
à¤² à¤¢
Ġà¤ı à¤¬à¤®
ĠâĢ ł
Ġà¤ĩ à¤¯
à¤¦à¤¨ à¤ħà¤¨
Ġà¤¸à¤¤ à¤¹à¤¬
Ġà¤¹à¤ķ à¤¸à¤®
à¤Ī à¤Ĺ
Ġà¤« à¤Ľ
à¤°à¤¬ à¤ķ
à¤Ńà¤µ à¤¹à¤°
Ġà¤Ń à¤Ļ
Ġà¤ı à¤¯à¤°à¤¬
Ġ1 6
ex t
à¥ĭ /
Ġà¤«à¤°à¤ķ à¤«à¤°à¤ķ
à¤¨ à¤Ńà¤ıà¤ķ
à¤¶ à¤ªà¤Ľ
Ġà¥¨à¥¦à¥« à¥Ń
à¤° à¤Ľ
à¤¦ à¤¸à¤®
à¤¸à¤¹ à¤Ń
Ñģ Ðº
Ġà¤ĵà¤Ń à¤°à¤ķ
à¤Ĺ à¤®à¤®
Ġà¤Ĩ à¤°à¤¤
Ġà¤ħà¤µà¤¸ à¤°à¤µ
Ġà¥§à¥¦ à¥¦à¥¦
Ġà¤ħà¤ª à¤¹
Ġà¤ªà¤Łà¤ķ à¤¥
ag s
Ġà¤Ĺ à¤Ľ
ĠD ownload
ĠPre vious
Ġà¤ķ à¤¸à¤®
à¤Ļ à¤¤à¤°
à¤¨à¤² à¤¹à¤°
à¤ıà¤¸ à¤ıà¤®
Ġ20 0
à¥ĭ :
à¤ļ à¤²à¤²
à¤Ń à¤ŀ
Ġà¤ħà¤¨ à¤°
à¤½ à¤½
Ġà¤ħà¤ªà¤¹à¤° à¤£à¤®
à¤¦ à¤ķà¤°
à¤Łà¤¨ à¤°
à¥¬ à¥Ń
Ġà¤ĭà¤£ à¤ªà¤¤
à¤¯à¤Ł à¤¨à¤²
i le
à¤ª à¤¬à¤¹
à¤£ à¤§
Ġà¤ħà¤¸ à¤¤
à¤ĵ à¤°
Ġà¤ħà¤¬ à¤§
as s
à¤ı à¤Īà¤²
à¤« à¤Ł
à¤¯à¤Ł à¤¨à¤®
Ġà¤ķà¤¦ à¤®à¤ķ
Ġà¤Ĩà¤µ à¤°à¤£à¤®
on e
Ġà¤ħà¤¸à¤® à¤°
? âĢĻ
à¤°à¤® à¤ª
à¥ĭà¥¤ '
à¤Ĩ à¤²
à¤Łà¤¨à¤Ĺà¤° à¤²
Ġà¤ıà¤ļ à¤Ĩà¤Īà¤Ń
à¤§ à¤¸à¤®
Ġà¤ıà¤ķ à¤ªà¤²
Ġw h
l d
à¤ľ à¤«
Ġà¤µ à¤¹à¤¨
Ġà¤ħà¤¸ à¤ľ
à¤µ à¤¦à¤¨
Ġà¤° à¤¡
à¤ı à¤ıà¤«à¤ª
Ġà¤² à¤Ł
Ġà¤ĸ à¤ķ
à¤¤ à¤¤à¤°
Ġà¤¤ à¤Łà¤¸
Ġà¤ĺ à¤®à¤£
Ġà¤¯à¤¸ à¤Ńà¤¨
ab le
D F
à¤ĺ à¤¦
l l
Ġ1 3
Ġà¤¹ à¤¬
à¥į, âĢĿ
Ð» Ð¸
Ġth is
à¤µ à¤¤à¤°
Ġà¤ķà¤® à¤²à¤ª
à¤· à¤§à¤ķ
Ġà¤ıà¤ķ à¤Ĩà¤ªà¤¸à¤®
à¤¤à¤¨ à¤¸
Ġ: -
Ġà¤¨à¤Ĺ à¤ıà¤ķ
Ġà¤Ĩ à¤¯à¤ķà¤°
à¥« à¥§
à¤®à¤¤ à¤¸à¤®
à¤Ĩ à¤°à¤¸
o k
à¤¸ à¤°à¤¤
à¤¦ à¤²à¤®
à¤§ à¤µà¤ª
à¤ħ à¤µ
à¤¯à¤£ à¤²
à¤¹à¤°à¤£ à¤¹à¤°
Ġc on
à¤¥ à¤ķà¤²
à¤Ĺà¤® à¤¸
Ġà¤¸à¤¹à¤¨ à¤¶
à¥į âĢĿ,
Ġà¤¯à¤¸à¤® à¤§
Ġa re
Ġà¥§à¥¨ à¥«
Ġà¤¨à¤Ĩ à¤ıà¤ªà¤Ľ
à¤ĩà¤¨ à¤¸
Ġà¥§à¥¬ à¥¦
à¤¨ à¤¤à¤²
à¥ĭ à¤ĥ
à¤¸ à¤°à¤£
à¤Ī à¤¬à¤°
Ġà¤ıà¤® à¤ı
à¤Ĩà¤° à¤Ĩà¤Ī
res s
à¤· à¤¶
à¤Ľ à¤¸
Ġà¤ıà¤ķ à¤¨
Ġà¤ĩ à¤Łà¤²
à¤Ĺà¤² à¤Ĺ
or m
à¤¹ à¤ªà¤Ľ
à¤Ĩ à¤Ĺ
à¥¯ à¥¯
Ġà¤ľà¤Ĺ à¤¨
Ġà¤ªà¤¹à¤²à¤ķ à¤¦à¤®
" ,
A N
Ġ en
à¤²à¤® à¤£
à¤°à¤®à¤£ à¤ªà¤Ľ
Ġà¥§à¥¯à¥¯ à¥ª
à¤ĸ à¤°à¤ķ
à¤¤à¤¨ à¤¹à¤°
o b
à¤ķ à¤£
à¤ļ à¤µà¤°
Ġà¤ĩ à¤¥
Ġà¤ĵ à¤ĸà¤°
ation al
à¤ı à¤¶à¤¨
à¤ķà¤°à¤£ à¤¸
Ġà¥¦à¥¬ à¥¨
à¤¸ à¤¸à¤ķ
à¤¸ à¤ªà¤°
à¤ı à¤Łà¤°
Ġà¥§à¥¯à¥¯ à¥¯
Ġà¤Ľ à¤¬
Ġà¤¤ à¤®à¤²
à¥« à¥ª
Ġà¤Ńà¤ı à¤ħà¤¨
à¤ļà¤¨ à¤¸à¤®
Ġà¤Ĩ à¤¡
à¤¸à¤® à¤µ
à¤¯à¤® à¤£
à¤ħ à¤·
Ġà¤¸à¤¨ à¤¸à¤¨
à¥¯ à¥®
à¥į, âĢĺ
Ġ1 4
Ġà¤Ĩà¤ĩ à¤¡à¤²à¤ķ
Ġà¤ľ à¤¯à¤°
Ġà¤īà¤ª à¤Ĺ
Ġà¤ĵ à¤¨à¤¸à¤°
Ġà¤Ī à¤ª
ĠÐ ¼
à¤¼ à¥Ģ
ĠG oogle
Ġà¤Ńà¤ı à¤¸à¤®
Ġà¥¦ à¥Ńà¥§
Ð¸ ÑĤ
Ġà¤¨ à¤µà¤¯
à¥Įà¤Ĥ âĢĻ,
Ġà¤Ĩà¤µ à¤¤
Ġs p
y s
Ġ at
à¤° à¤Ĺà¤¢
à¤Ĺ à¤ľà¤ķ
à¤£ à¤ļà¤¨
à¤ĩ à¤¬à¤²
à¤ªà¤¨ à¤¬
à¤°à¤¦ à¤¤
à¤¬ à¤ļ
à¤· à¤¸à¤¹
Nepal M
a v
Ġà¤ĭ à¤ļ
à¥Įà¤ģ, âĢĻ
à¥¨à¥¦ à¥Ńà¥©
à¤² à¤ĺ
à¤¤ à¤Ĺà¤°
à¥« à¥®
Ġà¤ĵà¤ªà¤¨ à¤°
à¤ł à¤¬
à¤¯à¤¤ à¤ª
ter n
1 9
à¤Ļ à¤ļ
Ġà¥¨à¥¦à¥« à¥©
à¥į |
Ġà¤ĸ à¤µ
Ġà¤§ à¤µà¤²
à¥« à¥©
Ġà¤®à¤¹ÅĴ à¤µ
Ġà¤¦ à¤Ĺ
à¤ĸ à¤²à¤¨
à¤ī à¤¡à¤°
Ġà¤¶ à¤¸à¤¸
Ġà¤°à¤¹ à¤ķ
Ġà¤ªà¤Ł à¤ķà¤®
00 0
Ġà¤ĺ à¤°à¤µ
Ġà¤ļ à¤¡
Ġ =
Ġ ÑĤ
à¤¸ à¤Ńà¤¨
Ġà¤¨ à¤¸à¤®
à¤°à¤ķ à¤µ
à¤²à¤¬ à¤¹à¤°
Ð¾Ð ³
à¤² à¤°à¤¹
à¤£ à¤¦
à¤¯à¤® à¤µ
Ġà¤ķà¤Ł à¤¹à¤°
NepalM other
à¤ı à¤²à¤®
à¥¨à¥¦ à¥Ńà¥¨
Ġà¤ķà¤ł à¤ĺà¤°
E R
à¤² à¤Ĺà¤®
Ġf rom
à¤¸ à¤ľà¤¸
Ġà¤¬ à¤¬à¤Ī
à¤²à¤ķ à¤¬
Ġà¤ħà¤° à¤µ
à¤¹ à¤¸à¤®
à¥ª à¥¬
Ġà¤Ķ à¤¸à¤¤à¤®
Ġà¤ªà¤¦ à¤Ń
à¤®à¤£ à¤²
Ġth at
à ´
Ġà¤Ĩà¤Ī à¤ıà¤®à¤Ī
ĠS h
Ġà¥§à¥¯à¥¯ à¥¬
Ġà¤Ĺ à¤ıà¤®
à¤ı à¤²à¤²
Ġà¤¬ à¤²à¤¬à¤¹
Ġà¤¦ à¤¸à¤®
à¤ĩ à¤µà¤Ł
Ġà¤ĺ à¤®
ont in
Ġà¤¤ à¤µà¤°à¤¬
Ġà¤Ī à¤¯
à¥į à¤ĥ
à¤Ĺ à¤¹
à¥Ī à¤ĥ
à¤¸ à¤¶
à¤Ł à¤®à¤®
à¤¶ à¤¯à¤¯
Ġà¤¶ à¤¸à¤ķ
Ġà¤ĩ à¤¡
Ġà¤ħà¤¸ à¤°à¤²
à¤·à¤£ à¤¸à¤®
à¤¶à¤¨ à¤¸à¤®
Ġ1 8
Ġc h
à¤¦ à¤ķà¤ª
Ġà¤¨à¤Ĺà¤° à¤²
Ġà¤Ĳ à¤²
à¥į '
Ġà¤¨ à¤°à¤¹à¤°
à¤¾à¤ģ )
Ġà¤Ł à¤²
à¤ľà¤Ĺ à¤¨
Ġà¤ħà¤ĸ à¤¡
or k
d f
à¤¾ âĢĶ
à¤² à¤ħà¤§
à¤ı à¤«à¤²
à¤¬ à¤®à¤®
Ġà¤ı à¤²à¤°
Ġà¤¨à¤Ĺà¤° à¤¬
Ġà¤ľà¤² à¤ª
, ...
b r
Ð ·
à¤¬ à¤ĸà¤¤
à¤« à¤µ
Ġà¤Ĩà¤® à¤¸à¤Ń
à¤¯à¤µ à¤§
Ġ $
Ġà¤ľà¤¨ à¤Ĺ
à¥« à¥¬
à¤¹ à¤¡
à¤¹à¤° à¤®
Ġà¤ľà¤¨ à¤§à¤¨à¤ķ
Ġà¤ħà¤¬ à¤¸à¤°
à¤īà¤¨ à¤¬
à¤ĺ à¤¨à¤ķ
à¥Įà¤Ĥ :
à¤§ à¤ķà¤ķ
à¤ĸ à¤§à¤°
à¥¤ [
à¤ľà¤¨ à¤¹à¤°
à¤µà¤°à¤£ à¤¹à¤°
Ġà¤Ĩà¤ł à¤µà¤Ł
Ġà¤ıà¤« à¤ı
ĠS am
ur b
à¥į &
à¤¸ à¤¤à¤°
à¤§ à¤ķà¤°
à¤°à¤µ à¤¹
à¤·à¤ķ à¤¬
s o
Ġà¤ħà¤¹ à¤®à¤¦
à¤¤à¤² à¤Ĺ
ort al
à¤Ī à¤¨à¤®
à¤¡ à¤Ĺ
ac t
ul t
à¤¤ à¤Ńà¤¨
à¤°à¤Ń à¤ķ
Ġ he
à¤ľà¤® à¤°
Ġà¤¨à¤Ĺà¤¦ à¤¸à¤¹
Ġà¤µ à¤ļ
à¤¸à¤¦ à¤¸
à¤¿ /
Ġà¥¤ ,
à¤¬ à¤Ĺà¤°
à¤¥ à¤¨à¤ķ
à¤¤à¤° à¤¨
à¤µà¤¦ à¤¹
Ñ į
à¤¯à¤² à¤¯à¤ķ
Ġà¥¤âĢĻ âĢĻ
Ġb y
à¤° à¤¡à¤ķ
à¤¡ à¤¨à¤¸
à¤¤à¤°à¤¤ à¤°
Ġ ÑĢ
à¤ķ à¤ļ
Ġà¤² à¤Ļ
Ġà¤ĩ à¤«
à¥Įà¤ģ âĢĻ
à¤ĩà¤² à¤¹à¤°
Ġà¥¨à¥¨ à¥¦
à¤ıà¤¨à¤Ĩà¤° à¤ıà¤¨à¤ı
à¤Ł à¤²à¤¬
Ġà¤Ń à¤ŀ
Ġà¤ħ à¤¥à¤ķ
Ġà¤ĺà¤° à¤ª
ĠâĢĵ âĢĺ
N o
à¤ĩ à¤Łà¤°
Ġà¤ĺ à¤ļ
Ġà¤¸à¤¹à¤ľ à¤°
Ġà¥§à¥§à¥© à¥¯
e re
Ġà¤ľ à¤²à¤¯
Ġà¤ĸ à¤¶
à¤Ļ à¤¤
à¤¨à¤² à¤¬
à¤²à¤® à¤²
Ġà¥§à¥¬ à¥«
Ð½ Ð¾
Ġà¤¹ à¤ł
Ġà¤Ł à¤¯
à¤°à¤µ à¤¤
à¤¿ âĢĿ
à¤² à¤ł
à¥© à¥Ń
à¤ļ à¤ķà¤¨
Ġà¤ħà¤¨ à¤¶à¤¨à¤®
Ġà¤ķà¤® à¤¸à¤²
à¤¾à¤ģ à¤Ĥ
Ġà¤Ī à¤ľ
el i
æ ľ
à¤® à¤¤à¤®
à¤¬ à¤°à¤¬
à¤£ à¤¤à¤°
Ġà¤¦à¤¶à¤ķ à¤ªà¤Ľ
Ġà¤¸ à¤°à¤¹à¤ķ
à¤Ļ à¤°
à¤¡à¤² à¤¹à¤°
an c
Ġà¥§à¥¯à¥® à¥¦
Ġe x
Ġà¤Ĩ à¤¯à¤®
Ġà¤ı à¤²à¤ª
à¥ª à¥ª
à¤ľà¤¸ à¤°
Ġà¥§à¥® à¥¦
à¤¨à¤¯ à¤¨à¤®
e ar
à¤§ à¤ľà¤¨
Ġà¤ī à¤¸à¤®
Ġà¤¸à¤® à¤Ŀ
Ġà¤Ĩà¤ĩ à¤°à¤¨
Ðµ Ð»
s s
Â ·
à¤¤à¤¨ à¤ªà¤Ľ
Ġà¤Ĺà¤£ à¤ªà¤¤
à¤¯à¤£ à¤Ĺ
; &
à¤¡ à¤ªà¤¤
à¤ĩ à¤²à¤¬
Ġà¥¨à¥¦à¥ª à¥«
r i
à¤Ł à¤ªà¤Łà¤ķ
Ġà¤ħ à¤Łà¤²
à¤ģ ,âĢĻ
à¤ĩ à¤ľà¤¨
Ġà¤ħà¤¨ à¤µà¤°à¤¤
à¥¬ à¥§
Ġà¤¸à¤¹à¤° à¤¹à¤°
à¤¬ à¤®à¤ķ
à¤¨à¤¬ à¤¤
à¤°à¤ľ à¤¹à¤°
Ø§ Ø
ä º
à¤ķ à¤§
à¤ª à¤ľ
ĠP DF
Ġà¤Ľà¤²à¤« à¤²à¤²
Ġ al
à¤ķ à¤ķà¤²
à¤® à¤²à¤²
Ġà¤¨ à¤ħ
à¤¤ à¤«
à¤ľ à¤ªà¤°
à¤Łà¤® à¤§
à¤īà¤ª à¤Ĺ
Ġà¤ªà¤¸à¤² à¤¬
Ġà¤§ à¤¡
Ġà¤ķà¤® à¤²à¤°
Ġà¥§à¥¯à¥¯ à¥©
o h
Ġà¤¹ à¤²à¤ķ
à¤¬ à¤ªà¤¤
à¤ī à¤¦à¤²
à¤µà¤¸ à¤Ń
à¤¦à¤¨ à¤¸
Ġà¤®à¤² à¤ľà¤²
Ġà¥§à¥¦ à¥«
Ġ1 7
ontin ue
3 0
Ġ qu
Ġà¤ħà¤µ à¤ľ
Ġà¥§à¥¯ à¥Ńà¥¦
Ġà¤ľà¤µà¤° à¤ľà¤¸
n g
à¤· à¤°à¤®
à¤Ń à¤ıà¤Ľ
Ġà¤ħà¤° à¤¬à¤®
à¤¦à¤¨ à¤¬
à¥® à¥«
à¤ªà¤² à¤Ł
Ġ i
Ġà¤¨ à¤µà¤®
Ġà¤¬ à¤Łà¤¨
Ġà¤ĸ à¤Ĺà¤°
à¤Ŀ à¤Ĺà¤¡
à¤Łà¤° à¤Ńà¤¨
à¤¶à¤¤ à¤¬
à¥Ģ Ã·
à¤¶ à¤¬à¤¹
à¤°à¤ķ à¤¹à¤°
Ġà¤¸à¤¬ à¤¸
Ñ Ī
à¤® à¤Ľ
à¥Ģ "
à¤°à¤¹ à¤£à¤ķ
à¤Ŀ à¤¸à¤®
à¥ª à¥Ń
à¤¬à¤° à¤¸à¤®
Ġà¤ªà¤¢ à¤¨
Ġà¤Ľà¤° à¤Ľ
Ġà¥§à¥¯à¥¯ à¥«
Ġà¤¦à¤¸à¤® à¤²à¤µ
à¥į à¤¿
à¤¸ à¤Ĺà¤¢
Ġà¤® à¤łà¤®
à¤¯à¤® à¤§
Ġà¤ĩ à¤¯à¤°
à¤ħ à¤¨à¤²
à¤Ł à¤ħà¤ª
à¤ªà¤° à¤¹
à¤·à¤£ à¤ªà¤Ľ
Ġà¥¯ à¥¦à¥¦
Ġà¤ļà¤²à¤¨ à¤ļà¤²
Ġà¤ľà¤¨ à¤¸à¤¹à¤Ń
en s
ĠP ro
Ġ it
à¤¦ à¤¯à¤®
à¤Ľ à¤²
à¤Ń à¤²à¤ķ
à¤¢ à¤ķ
Ġà¤ĩ à¤Ļà¤²
Ġà¥§à¥¨ à¥®
Ġà¤ķ à¤°à¤²
à¤ł à¤ª
Ġà¤ıà¤¸ à¤ıà¤¸à¤¬
Ġà¥¨à¥¦à¥¨ à¥®
à¤°à¤Ń à¤°à¤ķ
à¤ķ à¤¨à¤²
Ġà¤¦ à¤ĸ
Ġà¤ĸ à¤¹à¤°
à¤ļà¤² à¤ļ
Ġ201 6
E S
T ags
à¤® à¤ªà¤Ľ
à¤¯à¤® à¤¦
à¥¬ à¥¨
? âĢĿ
Ġà¤Ĺ à¤®à¤²
à¤¶ à¤¶à¤°à¤£
Ġà¤¯ à¤®à¤¨
à¤²à¤® à¤¨
c c
à¤Ĺ à¤¨à¤²
Ġà¤¨ à¤ľà¤¨
à¥ª à¥§
à¤®à¤² à¤Ł
Ġà¤Ĩà¤ĩ à¤®
Ù Ī
Ġà¤Ń à¤Łà¤®
à¤¡à¤ķ à¤ªà¤ķ
à¥Īà¤ģ ,
Ġà¤¨à¤Ĩ à¤ı
Ġà¤ıà¤¸à¤Ī à¤Ī
Ġà¤¹ à¤ķà¤²
Ġà¤Ĩà¤Ī à¤Ł
à¤° à¤ªà¤¨
à¤® à¤Ńà¤¨
à¤ħ à¤Ŀ
Ġà¤¨ à¤Ŀ
à¤ľ à¤¯à¤ª
à¤ĸ à¤ļ
à¤ŀ à¤®
Ġà¤ľà¤Ĺ à¤¦à¤®
an k
201 8
à¥Ī /
Ġà¤¬ à¤®à¤²
à¥ª à¥¨
Ġà¤Ľà¤²à¤« à¤²à¤¬
Ġà¤ľà¤¯à¤¨ à¤Ĺà¤°
à¤° à¤¨à¤ķ
à¤µ à¤ħà¤¨
à¤ī à¤ªà¤¤
à¤ĩ à¤£
Ġà¤¶ à¤¯
à¤Ļ à¤¹
Ġ- -
r u
Ġà¤ı à¤¡à¤®
à¥ª à¥¯
à¤Ĩ à¤Īà¤ķ
à¥® à¥®
Ġà¥§à¥© à¥¨
Ġread ing
à¤¯à¤Ł à¤¨à¤®à¤¨
ic al
Ġ3 0
Ġà¥§à¥¯à¥¬ à¥¦
à¥ ħ
à¤® à¤¦à¤¨
à¥« à¥¯
Ġà¤Ī à¤Ł
Ġà¤¸à¤¹à¤ľ à¤ķà¤°
Ġà¤¸à¤® à¤¥à¤°
à¤²à¤¬ à¤¬
Ġà¤Ĩà¤ł à¤¬
Ġà¤° à¤ľà¤¸
Ġà¤ļ à¤Łà¤ķ
Ġà¤ªà¤° à¤µ
in k
> >
à¤° à¤ªà¤°
à¤¤ à¤ľà¤¨à¤²
à¤µ à¤¯à¤²
Ġà¤µ à¤§
à¤¡ à¤ķà¤²
à¤ıà¤¸ à¤¨à¤²
à¤£à¤¤ à¤¯
Ġà¤Ĺà¤¹ à¤¤à¤°
à¤¾à¤ģ à¤ģ
Ġà¤¸à¤ķ à¤Ńà¤°
à¤¸à¤¨ à¤°
Ġà¤ıà¤¡ à¤Ń
Ġà¥¤ -
Ġà¤« à¤Ĺà¤¤
à¤¸à¤¨ à¤µ
ĠN ov
Ġà¥§à¥¯à¥® à¥¬
à¥¦à¥¬ à¥©
m ail
g e
à¥Į à¤¾
Ġà¤¯à¤¸ à¤ħà¤¨
à¤ĩà¤¨ à¤ĸà¤¬
Ġà¤¦à¤® à¤ķà¤®
à¤¿ âĢľ
à¤ª à¤°à¤¤
Ġ' '
] [
à¤ļ à¤¯à¤ķà¤°
à¤¡ à¤°à¤¹à¤°
à¤ĩ à¤¡à¤²
Ġà¤¥ à¤°à¤ķ
Ġà¤ħà¤¨ à¤§
à¥¦ à¥Ńà¥¨
Ð° ÑĢ
à¤¤ à¤ľà¤¸
Ġà¤® à¤¥
à¤¬ à¤¸à¤®
Ġà¤¯à¤¸ à¤µ
Ġà¤Ĩà¤īà¤¨ à¤¸à¤ķ
Ġà¤¦à¤¶à¤ķ à¤¸à¤®
Ġ X
à¤µà¤¤ à¤¯
Ġà¥¨à¥¦à¥© à¥¬
à¤Ĺ à¤Ļ
à¤µà¤°à¤£ à¤ħà¤¨
Ã ¡
à¤² à¤¥
à¤ĸ à¤ª
Ġà¤ĺà¤° à¤¸à¤®
ĠT r
à¤® à¤¬à¤²
à¤ĩ à¤¤à¤®
à¤Ļ à¤ĸ
à¤¨à¤¸ à¤¹à¤¨
à¤ľà¤¤ à¤ªà¤¤
à¤ı à¤¸à¤²
Ġà¤² à¤ª
Ġà¤ħà¤² à¤µ
ĠN ext
Ġà¤ £
à¤Ī à¤ªà¤ķ
à¤ĩ à¤«à¤²
Ð¾ Ð½
Ġà¤ıà¤ķ à¤ª
à¤¨à¤ª à¤Łà¤ķ
à¤ĩà¤¨à¤² à¤¸à¤®
à¤¿ !
Ġà¤¬ à¤«
à¤°à¤£ à¤µ
Ġà¥§à¥¦ à¥ª
Ġà¤¹à¤ķ à¤¦
ĠP urb
Ð¸ Ñı
Ġà¤°à¤¹à¤° à¤²
Ġà¤ħ à¤®à¤¨
à¤ĩ à¤¡à¤®
à¤ĺ à¤ļ
à¤¯à¤® à¤¤
à¤®à¤² à¤Ĺ
Ġà¤Ĩà¤ĩ à¤¹
Ġà¤Ī à¤°
1 4
à¤¹ à¤Ĺà¤¤
Ġà¥¤ .
à¤§ à¤¶à¤¤à¤ķ
à¤°à¤¦ à¤®
à¤¯à¤¯à¤¨ à¤¬
ĠPurb eli
p df
Ġ à¥ĩ
à¥ĩ !
à¤²à¤¨ à¤¸à¤®
à¤®à¤ļ à¤²
à¤Ĺà¤¬ à¤ľ
Ġà¤° à¤£à¤¬à¤¹
Ġà¤Ń à¤·
à¤¾à¤Ĥ à¤ģ
à¤¯à¤£ à¤®
ãĢ ģ
p r
ç ļ
à¤¡ à¤¨à¤²
Ġà¤¦à¤° à¤°
à¤¯à¤¸à¤² à¤Ĺà¤¤
à¤ľà¤¨à¤ķ à¤ª
ar k
à¤Ń à¤ħà¤Ļ
Ġà¤¶ à¤µà¤²
Ġà¤ı à¤¥à¤²
... âĢĻ
Ġà¤ħ à¤ļà¤²
à¤£ à¤¸à¤Ń
à¤¢ à¤²
ãģ ®
Ã ¤
à¤Ĺ à¤«
à¥Į âĢĻ
à¥Įà¤Ĥ à¤ĥ
à¤¸à¤¹ à¤¯
à¤¹à¤® à¤¦
c on
à¤ķ à¤¸à¤Ń
Ġà¤¨ à¤µà¤ª
à¤ıà¤ķ à¤¤
à¤°à¤® à¤¸à¤®
à¤¸à¤¨ à¤¹à¤¸
à¤ªà¤ķ à¤¤
à¥įâĢĵ âĢĺ
à¤¨ à¤ªà¤¨
à¤ł à¤¨à¤®
Ġà¤ķà¤® à¤ķ
at h
Ġà¤¦à¤® à¤¨à¤ķ
Ġà¤ıà¤¨à¤Ĩà¤°à¤ıà¤¨ à¤ıà¤ķ
à¤¾à¥Īà¤Ĥ ,
Ġà¤ĵ à¤ľ
Ġà¤¦à¤¶à¤ķ à¤Ńà¤¨
à¤°à¤ķ à¤°à¤£à¤²
à¥¤ âĢĵ
is h
Ġà¤® à¤°à¤£
Ġà¤°à¤¹ à¤¨à¤¸à¤¹à¤¨
Ġà¤¬à¤¸ à¤¹à¤°
Ġà¤¦à¤®à¤ķ à¤ķ
a z
à¤¤ à¤²à¤ķ
' s
à¤® à¤¸à¤¹
à¤· à¤ħà¤Ĺ
à¤ĩ à¤Ľ
Ġà¤¤à¤¹ à¤¸à¤¨à¤¹à¤¸
à¤ıà¤« à¤ı
Ġà¥§à¥¯à¥¯ à¥¨
à¤¾ à¥Ģ
Ġà¤« à¤¹à¤°
Ġà¤ľà¤¨ à¤ªà¤ķ
Ġà¤Ł à¤¡
à¤¤à¤° à¤Ĺà¤¤à¤ķ
à¤°à¤¨ à¤Ĺà¤°à¤ķ
à¤ıà¤¸ à¤ı
Ġ2 5
ic k
à¥ĭ ..
Ġà¤ħ à¤ķà¤°
Ġà¤¸à¤¹ à¤ħà¤§
à¤µà¤ķ à¤¤
Ġà¤Ĭ à¤¸
ig n
im e
à¤Ń à¤²à¤®
Ġà¤¶ à¤¤à¤ķ
Ġà¤°à¤¹ à¤¯
Ġà¤ľà¤¨ à¤ħà¤ª
Ġà¤Ńà¤ı à¤¯à¤¤
Ġà¤ıà¤® à¤¸
ar i
Ġà¤Ńà¤ĩà¤¨ à¤¸à¤ķ
à¤¯ à¤°à¤¸
Ġà¤Ľ à¤¤à¤®
à¤£ à¤ªà¤Ľ
Ġà¤¸à¤®à¤¯ à¤Ńà¤¨
à¤µà¤® à¤¹
à¤ıà¤¸ à¤Ł
Ġà¥§à¥¯à¥¯ à¥§
Ġà¤° à¤¨à¤µ
à¤ı à¤Ĺ
Ġà¤¶ à¤°à¤£à¤®
à¥« à¥Ń
1 5
à¤¹ à¤ķà¤®
à¤µ à¤µà¤°
Ġà¤ķ à¤Ľ
âĢĵ âĢĺ
Ġà¥¨à¥¦à¥¨ à¥§
çļ Ħ
à¤§à¤¨ à¤ª
Ġà¥§à¥© à¥¦
Ġà¥¤à¥¤ à¥¤
---- ----
I N
à¤° à¤Ļà¤²
Ġà¤¬ à¤¬à¤°à¤®
Ġà¥§à¥¯à¥¬ à¥¬
à¤¹ à¤²à¤¤
à¤Ń à¤¹à¤°
à¤ĩ à¤ľà¤ķ
Ġà¤Ĩà¤ĩ à¤ıà¤®
er t
à¤®à¤Ĺ à¤°à¤ķ
à¤Łà¤Ń à¤Ł
à¤ĵ à¤ª
Ġà¤Ķ à¤°à¤¹
Ġà¤Ńà¤Ī à¤¨
Ð¾ ÑĤ
à¥ģ âĢĻ,
Ġà¤° à¤¤à¤¨
Ġà¤¥ à¤µ
à¤°à¤£ à¤¯
Ġà¤ıà¤¸ à¤Īà¤ĵ
Ġà¤¤à¤¹ à¤¦
Ġy our
à¤µ à¤ªà¤ķ
Ġà¤¸à¤® à¤ª
Ġà¤Ĩà¤ĩ à¤ķ
Ġl a
à¤°à¤« à¤²à¤ķ
Ġà¤ĵà¤Ń à¤°à¤¸
à¤Īà¤ľ à¤¹
à¤¯à¤°à¤¬ à¤ľ
A R
Ġà¤Ĩ à¤Ĺà¤®
à¤µà¤¯ à¤¨à¤²
à¤ľà¤¨ à¤¯
Ġà¤§ à¤¨à¤²
à¤ķ à¤¦à¤°
Ġà¤¤ à¤¦à¤¨
à¤ĺ à¤°à¤¬
à¤ıà¤¨ à¤ª
à¤Ńà¤° à¤Ļ
à¤¨à¤µ à¤¶
Ġà¤Ĺà¤ľ à¤²à¤®
à¤ĩ à¤µà¤°
à¤ľà¤¨ à¤ª
à¤°à¤ª à¤Ł
à¤ľà¤¦ à¤°à¤¬
à¤® à¤Ł
Ġà¤ı à¤¨à¤ª
Ġ? ?
ac e
Ġà¤ľà¤Ĺà¤¤ à¤²
oo d
Ġà¤®à¤łà¤® à¤¨
Ġà¤ľà¤Ĺ à¤ľ
Ġà¤¤à¤¹à¤® à¤§
Ġà¥¨à¥¦à¥© à¥«
à¤ķà¤Ń à¤°à¤ķ
à¤Ń à¤µà¤¨
à¤ī à¤ªà¤®
Ġà¥¨à¥¦à¥© à¥©
à¤® à¤°à¤®
à¤¸ à¤ĺ
à¤¨à¤® à¤¸
à¤ĩà¤¨ à¤¹à¤°
à¥¯ à¥«
à¤°à¤ļ à¤¨à¤²
à¤¨à¤µ à¤ľ
er v
Ġà¤ıà¤² à¤ľ
Ġp l
à¤¦ à¤°à¤¹à¤°
à¤ĩ à¤®à¤°
à¤ĩ à¤¡à¤°
à¤¨ à¤Ľà¤¨
à¤¯ à¤Łà¤°
à¥Ģ ?
à¤ľà¤¨ à¤ľ
à¤Ĩ à¤°à¤ª
à¤ķà¤° à¤ª
Ġà¤ķà¤² à¤¶
Ġà¤ıà¤ļ à¤¡
Ġà¤°à¤¹ à¤²
Ġà¤ħà¤® à¤°à¤¸
Ġà¤ıà¤¨ à¤Ĩà¤ĩà¤¸
Ġà¥§à¥ª à¥¦
ĠT h
z w
à¤¤ à¤ħà¤¨
à¤ļ à¤ķà¤®
à¤¯à¤ķ à¤¬
ãĢ Ĥ
p l
à¥ģ ?
Ġà¤° à¤ĸ
à¤ĩ à¤²à¤²
à¤ĩ à¤®à¤¨
Ġà¤¸à¤®à¤¯ à¤¯à¤¤
Ġà¤¹à¤² à¤ļà¤²
Ġà¤Ĩà¤² à¤Ł
| |
Å ĵ
à¥į !
à¤Ī à¤µà¤°
Ġà¤ī à¤¥à¤²
Ġà¤ļ à¤Ļ
Ġà¤ĩ à¤¦
à¤¶à¤¨ à¤ħà¤¨
ic h
ĠK habar
Ġà¤¨ à¤Ĺà¤¨
Ġà¤Ĩ à¤ıà¤¨à¤¨
à¤Ĩ à¤ĩà¤¡
Ġà¤ľà¤¨à¤® à¤¤à¤ķ
à¥į à¤Ĥ
à¥ĭ "
à¤Ĺ à¤ľà¤¸
Ġà¤Ł à¤¨à¤ķ
Ġà¤¸à¤¹ à¤®à¤¹
à¤¯à¤¸ à¤¦
Ġà¤§à¤° à¤ªà¤ķ
Ġà¤¬à¤Ĺ à¤°à¤®
Ġà¤¨à¤Ł à¤Ĩà¤īà¤Ł
à¤ķ à¤¸à¤²
à¤Ł à¤Ĩà¤īà¤Ł
à¤§ à¤Ńà¤¤
Ġà¤² à¤¥
à¥ĭ, '
à¤¤à¤µà¤¨ à¤¬
or y
g r
à¤² à¤ļà¤¨
Ġà¤® à¤¶
à¤ĺ à¤¹à¤°
à¥ª à¥©
Ġà¤ıà¤® à¤¡
re e
Ġà¤ķà¤¬ à¤¡
à¤· à¤°à¤ķ
à¤¤à¤¨ à¤¬
Ġà¤Ķ à¤°
Ġà¤ħà¤µ à¤¤à¤°à¤£à¤ķ
Ġà¥§à¥¦ à¥¨
Ġà¤ľà¤® à¤ĺ
à¤¿à¤Ĥ à¤ģ
an n
ĠÐ ±
Ġà¤ľà¤² à¤¶
Ġà¤ıà¤« à¤¸
ð Ł
à¤ķ à¤ł
Ġà¤² à¤«
Ġà¤¶ à¤µà¤ķ
à¤°à¤£ à¤¸à¤®
à¤¯à¤® à¤ħà¤¨
à¤ıà¤¸ à¤ıà¤²
Ġà¥§à¥® à¥®
Ġà¥¦à¥¬ à¥©
à¤²à¤® à¤§
à¤®à¤¨ à¤¸
Ġà¥¨à¥¦à¥ª à¥¦
Ġà¤ķ à¤ľ
à¤ªà¤° à¤Ń
à¤ħ à¤¡
à¤Ķ à¤·à¤§à¤ķ
Ġà¤ıà¤¯ à¤°à¤µ
Ġà¤¨ à¤®à¤¨
Ġà¤Ĩ à¤Ĭ
à¤ĩ à¤¬à¤¹
à¥« à¥¨
à¤µà¤¨ à¤ª
à¤ıà¤¨ à¤ıà¤¸
à¤ķà¤² à¤²
Ġà¤ľà¤¨à¤ķ à¤²
Ġà¤²à¤ļ à¤ķà¤¤
f orm
à¤Ń à¤§
à¥Į âĢĵ
ak habar
à¥ĩ ),
Ġà¤ħà¤² à¤Ĩà¤īà¤Ł
or g
à¤¯ à¤¶à¤ķ
à¤Ĩ à¤Īà¤²
ĠTV S
Åĵ à¤¯
u al
Ù Ĩ
à¤ģ -
à¤ĸ à¤ľ
Ġà¤ľà¤¨ à¤¶
Ġà¤®à¤¨ à¤Ń
Ġà¥§à¥§ à¥§
Ġà¤¦à¤¶ à¤Ĺà¤ľ
Ġà¤Ī à¤Łà¤¹à¤°
a i
Ġ z
à¤ķ à¤ħ
Ġà¤¹ à¤¯
Ġà¤Ķ à¤ªà¤¨
à¤°à¤¸à¤® à¤ķ
Ð° Ð»
à¤ļ à¤¡
à¥ĥ .
Ġà¤Ł à¤ķà¤°
Ġà¤¸à¤¬ à¤ķ
Ġà¤¸à¤¦ à¤¨à¤²
Ġà¥§à¥¦ à¥¯
Ġà¥¨à¥¦à¥© à¥ª
Ġà¤¨ à¤ªà¤¤
à¤¯à¤¯à¤¨ à¤ħà¤¨
à¤ķà¤Ł à¤¬
ĠA n
Ġa s
à¥ĩ âĢĶ
Ġà¤°à¤¹ à¤®
Ġà¤ĩ à¤Ĺ
à¤Ĩ à¤īà¤¨
âĢĿ âĢĵ
Ġà¤ıà¤¸ à¤ĩ
Ġà¤µà¤¨ à¤Ń
Ġà¤ķà¤Ł à¤µ
T C
à¤° à¤¨à¤²
à¤¹ à¤¹
à¤¦ à¤¨à¤¨
à¤§ à¤ĸ
à¤¶ à¤µà¤ķ
à¤²à¤ķ à¤¤
à¤°à¤¦ à¤²
ĠTVS agarmatha
Ġ Z
Ġà¤° à¤Ł
à¤Ī à¤ķà¤¨
Ġà¤ĸ à¤²à¤²
à¤¶à¤¨ à¤¸
Ġà¤¹à¤° à¤«
Ġà¥©à¥« à¥¦
à¤ı à¤¨à¤ķ
Ġà¤¦ à¤²à¤¬à¤¹
à¤¸à¤ķ à¤¸
Ġà¤ľà¤¨ à¤ĺ
Ġà¤Ł à¤Ł
à¥Įà¤Ĥ à¤ģ
Ġà¤Ĩà¤µ à¤°à¤£
à¤ł à¤¦
Ġà¤ıà¤ķ à¤®à¤¤
à¥« à¥¦à¥¦
à¤·à¤¦ à¤¬
Ġà¥¨à¥ª à¥¦
Ġà¤¨ à¤ĺà¤Ł
Ġà¤¤à¤° à¤ªà¤¨
Ġà¤ĵ à¤ĸ
Ġà¤ħà¤¬ à¤²à¤®
Ġà¥¨à¥¦à¥¨ à¥«
ĠU n
à¤¨ à¤µà¤®
Ġà¤ī à¤µ
à¤°à¤® à¤°
on d
Ġà¥¦à¥¬ à¥ª
1 6
p e
à¤¶ à¤µà¤°
à¤¤à¤® à¤¨
an ce
ep t
Ġà¤¡à¤Ł à¤ķà¤®à¤ķ
Ġ us
à¤¯ à¤ªà¤ķ
Ġà¥¤ (
Ġà¤ı à¤Ĩà¤ĩà¤ľ
Ġ2 4
Ġà¤°à¤Ĺà¤¤ à¤²
à¤Ĺ à¤ıà¤ķ
Ġà¤Ĩ à¤ĩà¤ıà¤ķ
à¤Ī à¤®à¤¤
Ġà¤« à¤²à¤¤
à¤Łà¤¬ à¤ľ
Ð¾Ð ¹
Ø ¯
à¤ķ à¤·
à¤¹ à¤²à¤ķ
à¤¤à¤® à¤¸
Ġà¥¨à¥¦à¥ª à¥¨
Ġà¤ĸà¤¬ à¤°à¤¹à¤°
Ġà¤°à¤¨à¤° à¤ħà¤ª
7 4
à¤¶ à¤¸à¤¹
Ġà¤¦à¤² à¤Ĺà¤¤
Ġ Q
à¤ķ à¤¨à¤ķà¤°
à¤¸ à¤ļà¤¨
à¤£ à¤¸à¤¹
à¤« à¤²à¤ķ
à¤¸à¤® à¤°
à¥Įà¤ģ âĢĿ,
à¤§à¤ķ à¤¹à¤°
à¤¤à¤¸ à¤ŀ
à¤¤ à¤²à¤¨
à¤¤ à¤Ĺà¤¤à¤ķ
à¤ļ à¤°à¤®
Ġà¤ı à¤ıà¤«à¤ª
Ġà¤« à¤ľ
Ġà¥¨à¥¦à¥Ń à¥¬
à¤°à¤ª à¤ŀ
à¤° à¤ľà¤¨à¤²
à¤¯ à¤ªà¤Ľ
Ġà¤¨ à¤¯à¤¨
à¤ī à¤¦à¤Ľ
Ġà¤Ĩà¤ĩ à¤ĵ
à¤Ł à¤¸à¤ķ
à¤¸à¤¨ à¤¹à¤°
Ġà¤Ĳ à¤¸
à¤Ĺà¤²à¤® à¤¯
Ġ à¨
à¤£ à¤ªà¤ķ
à¤ĸ à¤Ń
ic le
Ġà¤ľà¤²à¤® à¤Ĺ
à¤¦ à¤¤à¤²
à¥Ĥ à¤Ĥ
à¤Ń à¤ıà¤ªà¤Ľ
Ġà¤ħà¤¨ à¤¶à¤¨à¤ķ
ĠA d
Ġà¤ħà¤®à¤° à¤Ĺà¤¢
Ġà¤ī à¤ĺ
Ġà¤¨à¤ľà¤° à¤ħà¤¨
e op
Ã ¼
Ġà¤¤ à¤µ
Ġà¤¦ à¤®à¤¦
à¤ģ à¥ĩ
à¤¶ à¤Ļ
à¤Ĩ à¤ī
Ġp r
ĠV i
Ġà¤Ľ à¤¹à¤°
Ġà¤Ĩ à¤¬à¤¸
Ġà¤Ĺà¤ľ à¤¬à¤ķ
n e
Ġà¤Ľ à¤¨à¤ķ
à¤¡ à¤·
à¤ĩ à¤ªà¤Ľ
à¥įà¥¤ '
Ġà¤ķà¤² à¤Ļ
Ġà¥¦ à¥Ń
Ġà¤¶à¤¹à¤° à¤²
à¥į ]
à¤ı à¤Łà¤°à¤®
à¤ľ à¤¬à¤ķ
Ġn ews
à¤Ĺ à¤Ĺ
à¤Ł à¤Ĺ
à¤£ à¤µà¤¤
à¤Ĩ à¤ł
à¤ıà¤¨ à¤¡
à¤¤à¤°à¤£ à¤²
à¤īà¤ª à¤ª
. ,
u k
à¥ĩ Ã·
Ġà¤®à¤¹ à¤²à¤ķ
Ġà¤®à¤¨ à¤¬à¤¹
à¥¯ à¥¬
A L
à¥ĩ âĢĻ,
Ġà¤® à¤Ľ
Ġà¤² à¤ŀ
Ġà¤ķà¤® à¤®
ĠP l
O R
Ġ %
Ġà¤Ĩ à¤°à¤¸
Ġà¤Ĩ à¤¶à¤®
so ft
zw j
: -
à¤¾ à¥ĩ,
à¤¹ à¤¸à¤ļ
Ġà¤¶ à¤¸
Ġà¤®à¤¹ à¤¤à¤ķ
Ġà¤§ à¤ľ
à¤ĵ à¤¤
Ġà¤Ńà¤° à¤ĸà¤°
à¤Łà¤¬à¤² à¤°
ÐµÐ ¼
) .
\ '
s h
à¤¦ à¤¯à¤²
à¤ľ à¤ľ
à¤§ à¤ªà¤¤
Ġà¤Ĩ à¤Ł
à¤ĩ à¤ķà¤®
à¤ĩ à¤ľà¤®
à¤ķà¤°à¤£ à¤¸à¤®
Ġà¤§à¤¨ à¤§
Ġà¤¡à¤Ł à¤ķà¤®à¤²
Ġà¤ħà¤¨à¤¸à¤¨ à¤°à¤¤
Ġ <
à¤ľ à¤¸à¤ķ
à¤¶ à¤ľà¤ķ
Ġà¤Ĩ à¤ĵà¤¸
at ed
ou nt
Ġà¥§à¥§à¥© à¥®
Ä ±
Ġ ad
à¤¸ à¤§
à¤ª à¤ļà¤¨
Ġà¤¬ à¤°à¤¦
à¤§ à¤ķà¤²
Ġà¤ļ à¤¶
Ġà¤Ĩà¤ĩ à¤Łà¤®
à¤¯à¤¯à¤¨ à¤ªà¤Ľ
à¤ĩà¤° à¤¸à¤ķ
Ġà¤Ĺà¤ł à¤¨à¤®
ic ro
à¤°à¤£ à¤¤à¤¯
à¤Ĺà¤¤ à¤¤à¤°
à¤ıà¤¸ à¤Ĩà¤Ī
à¤·à¤¯ à¤¬
........ ........
Ġà¤®à¤¹Ã¬ à¤µ
Ġ ;
à¤¬ à¤¤à¤®
Ġà¤ıà¤ķ à¤Ńà¤¨
à¤·à¤£ à¤¸
Ġà¤Ĩà¤ĩ à¤°
à¤Łà¤¨à¤Ĺà¤° à¤¸
ĠE x
Ġà¤ľà¤¨ à¤Ń
Ġà¤¸à¤¤ à¤¹à¤¦
Ġà¤ĭ à¤Ĺ
à¤ķà¤Ł à¤¸
à¤¤à¤² à¤¹à¤°
à¤¨à¤¯ à¤¨à¤ķ
ĠT op
ion s
à¤® à¤Ļ
à¤ļ à¤ªà¤¦
à¤µà¤ķ à¤¸
à¥¯ à¥ª
Ġà¥§à¥¦ à¥©
in ess
à¤Łà¤µ à¤²à¤²
Ġà¤ľà¤¯ à¤¬à¤¹
Ġà¤¨à¤¹à¤° à¤®
à¤¨ à¤¯à¤²
à¤ī à¤ľà¤°
Ġà¤ı à¤ªà¤®
Ġà¤ıà¤ķ à¤ıà¤ķ
Ġà¤¹à¤² à¤¹à¤°
Ð½ Ð¸
à¤² à¤Ĺà¤ķ
à¤¯ à¤Ĺà¤°
Ġà¤ĵ à¤¤
in t
ĠD e
2 4
à¤¨ à¤°à¤¸
Ġà¤¸ à¤ªà¤°
à¤§ à¤ļ
à¥¤ ...
à¤Ĩ à¤µà¤¶
à¤ĵ à¤¯
à¤·à¤¯ à¤¬à¤¸
à¤¨ à¤Ĺà¤¢
à¥ĩ à¤ĥ
Ġà¤Ĺ à¤§
à¤Ł à¤°à¤¦
à¤Ļ à¤ķà¤¨
Ġà¤¨à¤® à¤°
à¤ľà¤² à¤¸
Ġà¤¨à¤ľ à¤°à¤²
Ġà¤Ĩà¤Ī à¤«
à¤ªà¤¸ à¤Ļ
Ġà¥¦à¥¬ à¥¯
à¥ĩ- âĢĺ
Ġà¤®à¤¤à¤² à¤µ
O N
Ġà¤Ń à¤ĩà¤¯
à¤°à¤® à¤®à¤¨
à¤°à¤¹ à¤¤
à¤ļà¤¨ à¤°
Ġà¤Ķ à¤·à¤¤
Ġà¤Ńà¤µ à¤¨à¤²
Ġs h
Ġ à¥į
à¤¿ à¥Ģ
Ġà¤¨ à¤°à¤ķ
à¤°à¤¤ à¤¬à¤¨
Ġà¤ıà¤ķ à¤µà¤°
à¥§ à¥¦à¥¦
à¥¯ à¥¨
à¤¯à¤µ à¤¦
ÐµÐ ´
I S
m er
à¤µ à¤¬à¤¹
Ġà¤Ľ à¤µà¤Ł
Ġà¤Ĩ à¤²à¤¸
à¥ĥ à¥ĥ
Ġà¤²à¤Ĺ à¤¨à¤ĸ
à¤µà¤¨ à¤°à¤ķ
à¤·à¤£ à¤µ
Ġà¤§à¤¨ à¤ľà¤¨à¤ķ
à¤Łà¤¬ à¤²à¤²
Ġà¤¯à¤¸ à¤ªà¤²
Ġà¤ħà¤µà¤¸ à¤°à¤¬
à¤ĩà¤² à¤Łà¤²
Ġhttp s
à¥Ī à¥ĩ
Ġà¤µ à¤·
à¤Ĺà¤° à¤ª
Ġà¤¬à¤¹ à¤¸à¤²
al o
Ġ201 5
1 3
à¤° à¤°à¤¹
à¤Ĺ à¤Ńà¤¨
à¤¡ à¤¸à¤¹
Ġà¤ĸ à¤°à¤¬
à¤¯à¤¨ à¤°à¤¤
Ġà¤¬à¤¸ à¤¬
à¤¯à¤¯à¤¨ à¤¹à¤°
Ġà¤Ĩà¤Ī à¤¸à¤ķ
Ġà¤¹ à¤¸à¤¨
à¤ļ à¤ķà¤²
Ġà¥§à¥§ à¥«
à¤¤à¤¹ à¤Łà¤®
Ġà¤¨à¤¹à¤° à¤ķ
A T
Ġ art
ĠâĢ ĭ
à¤¡à¤¯ à¤¨à¤®à¤¨
eop le
a w
v el
Ġà¤¸ à¤Ī
Ġà¤ª à¤°à¤ķà¤®
Ġà¤° à¤¯
Ġà¤¤ à¤¡
Ġà¤¦ à¤§
Ġà¤« à¤²à¤ķ
à¤¸à¤® à¤²
à¤µà¤¨ à¤¦
Ġ? ,
i en
Ġà¤Ĺ à¤£à¤ķ
Ġà¤® à¤¬
Ġà¤¯ à¤®à¤²
à¤°à¤¹ à¤¬
à¤¸à¤¨à¤² à¤ķ
Ñ ī
Ġà¤¤ à¤Ļ
à¤¶ à¤¯à¤®
Ġà¤« à¤·
Ġà¤ħà¤ª à¤Ń
ĠT e
ĠB l
Ġà¥§à¥¯à¥® à¥¯
à¤· à¤¯à¤¸
à¤²à¤¯ à¤Ń
Ġà¤Ĩà¤īà¤Ł à¤²
Ġà¤Ĺà¤ľà¤² à¤¹à¤°
à¤ª à¤§
Ġà¤µ à¤¶
à¤¬ à¤°à¤¦
à¤®à¤ķ à¤¹
à¤¯à¤¦ à¤²à¤®
ĠIn tern
Ġà¤Ĺà¤¢ à¤µ
à¤ļà¤ªà¤¦ à¤¸
à¤¹ à¤¨à¤²
à¤°à¤£ à¤¸
à¤¯à¤® à¤µà¤°
Ġà¤ĵ à¤®à¤¨
Ġà¤ħà¤² à¤°
Ġà¤Ĩà¤Ī à¤¡
à¤° m
à¤ª à¤ħà¤¨
à¤Ĺ à¤¸à¤¬
à¤¬ à¤ª
à¤£ à¤¯à¤µ
âĢĻ âĢĵ
à¤ķà¤° à¤¶
à¤Ĺà¤® à¤§
Ġà¥¦ à¥®
à¤Ĩà¤Ī à¤¡
ĠS p
oc k
à¤ıà¤¨à¤Ĩà¤° à¤ıà¤¨
j ya
à¤ķ à¤Ļ
à¤¯ à¤²à¤¯à¤²
à¤ľà¤¨ à¤¸à¤¹
à¤Ĩ à¤ª
Ġà¤ªà¤¦ à¤ķà¤ķ
à¤ľà¤¦ à¤°à¤ķ
à¤¯ à¤ŀ
Ġà¤¸ à¤¶à¤°
à¤Ń à¤µà¤®
à¥¤ -
à¤ªà¤Łà¤ķ à¤ķ
à¤ªm à¤¤
ĠNov ember
à¤¸ à¤¹à¤ķ
Ġà¤ľ à¤¯à¤ķ
à¤ķà¤² à¤¬
Ġà¤Ńà¤ı à¤ªà¤¶
Ġà¥Ńà¥« à¥©
is s
un d
Ø ª
Ù ħ
Ġà¤® à¤ľà¤¸
Ġà¤ı à¤Ļ
Ġà¤ħà¤¸ à¤°à¤ķ
à¤¨à¤¸ à¤ªà¤Ł
Ġà¥¦ à¥§
ou nd
us iness
Ð°Ð ¼
Ø§Ù Ħ
à¤² à¤¯à¤¤
à¤® à¤Ńà¤ķ
à¤§ à¤Ń
à¤ĺ à¤¡
à¥ĭ ;
à¤¸ à¤ªà¤¨
à¤µ à¤¥
à¤µ à¤µà¤¤
Ġà¤¹ à¤°à¤£
Ġà¤µ à¤ļà¤¤
à¤ħ à¤¶
Ġà¤Ĩà¤ĩ à¤ıà¤¸
Ġà¤Ĩà¤ł à¤°
à¤«à¤¸ à¤²à¤ķ
ĠÌ §
0 5
Ġ Ñĥ
à¤ľà¤¨ à¤°
à¤®à¤¤ à¤¦
Ġà¤Ńà¤¯ à¤°à¤¹
à¤¿à¤ģ à¤Ĥ
à¤ļà¤² à¤°
in a
Ġà¥¨à¥¦à¥ª à¥©
Ġà¤ľà¤¨à¤ĺ à¤¨à¤¤
o x
à¤¬ à¤¦à¤¨
Ġà¤¤ à¤Ĺ
à¤Łà¤¨à¤Ĺà¤° à¤¬
c k
Ã Ń
à¤ı à¤£
à¤¤à¤° à¤ľ
à¤ĩà¤¨ à¤Ń
à¤ľà¤¸ à¤¹
er m
Ġ1 00
Ġà¤¤à¤²à¤¬ à¤®
Ġà¤īà¤¥à¤² à¤ª
jya alo
g ov
à¥Ī âĢĮ
à¤¡ à¤°à¤ª
à¤®à¤¤ à¤¬
à¤¸à¤¨à¤² à¤²
ĠM ar
Ġà¤ıà¤¨à¤Ĩà¤°à¤ı à¤¨à¤²
Ġ im
à¤¸ à¤¬à¤°
à¤ª à¤Ĺ
Ġà¤Ń à¤Ĺà¤¤
à¤Ī à¤Łà¤®
Ġà¤ıà¤ķ à¤ªà¤ķ
Ġà¤īà¤® à¤Ļ
Ġà¤¸à¤¹à¤° à¤²
ĠC ontinue
à¤¡ à¤¬à¤²
Ġà¤Ł à¤ļ
Ġà¤ħà¤Ń à¤¦
à¤¡à¤² à¤¸
Ġ2 2
Ġà¤Ĺà¤ı à¤ªà¤¨
ac ha
Ġ Ġ
à¤ķ à¤ĺ
Ġà¤µ à¤Ĺ
à¤¬ à¤ĸ
Ġà¤ĸ à¤²à¤¬à¤²
Ġ? '
à¤ĩà¤ľ à¤¹
à¤Łà¤µ à¤²à¤¬
Ã ¶
à¤¸à¤² à¤Ł
à¤Łà¤¨ à¤¹
à¤Ĩà¤« à¤¨
à¤Łà¤Ĩà¤īà¤Ł à¤®
à¤Ł à¤®à¤²
à¤¬ à¤²à¤²
à¤¥ à¤°à¤ķ
Ġà¤Ĩ à¤Īà¤ķ
Ġà¤ľà¤¨ à¤¸à¤Ń
Ġà¤¶à¤¹à¤° à¤¬
à¤® à¤ľà¤¸
Ġà¤Ĺ à¤ıà¤¨
Ġà¤ľà¤¨ à¤°
à¤ħ à¤µà¤§
à¤¶à¤® à¤§
Ġt r
Ð°Ð ·
à¤īà¤ªà¤® à¤¹
à¤¸ à¤°à¤¹à¤°
à¤Ŀ à¤ªà¤ĸ
à¤°à¤µ à¤¶
à¤¸à¤¨ à¤¸à¤®
à¤¤à¤¨ à¤µ
Ġà¤Ī à¤·
à¤ķ à¤°à¤¦
à¤¸ à¤ħà¤¨
à¤¦ à¤¤à¤°
à¤ł à¤¨à¤ķ
à¥Įà¤Ĥ, âĢĿ
ĠU jyaalo
ĠSam acha
ĠSamacha ar
0 2
à¤® à¤¨à¤®
à¤µ à¤ķà¤®
à¤µ à¤£à¤ķ
Ġà¤Ĺ à¤Ĺà¤¨à¤ķ
à¤¡ à¤®à¤ķ
Ġà¤ĸ à¤²à¤¨
à¤·à¤£ à¤¯
à¤¶à¤¨ à¤°
à¥¯ à¥§
Ġà¤ıà¤® à¤ª
Ð° Ðº
ct ion
w e
à¤ľ à¤²à¤Ĺ
à¤¨à¤ķ à¤²
à¤ªà¤¨ à¤¸à¤®
à¤ķà¤°à¤£ à¤ªà¤Ľ
Ġà¤ĺà¤Ł à¤¬à¤¢
ar a
Ġà¥¦à¥¬ à¥®
à¥į ;
à¤¬ à¤°à¤¬à¤¹
à¤Ī à¤²à¤Ĺ
à¤¡ à¤¶
à¤« à¤ķà¤¨
Ġà¤ĵ à¤¹à¤¦
Ġà¤¦à¤² à¤Ń
Ġà¤¨à¤µ à¤Ĺà¤ł
as e
Ġà¤ļà¤°à¤£ à¤¬à¤¦
1 8
y st
Ù Ħ
Ġà¤ħ à¤ªà¤¤
à¤ĩ à¤Łà¤¨
Ġà¤« à¤Ĺ
à¤Ĺà¤¤ à¤¯
Ġ: :
Ġà¤¸à¤² à¤¹
à¤Ĺà¤łà¤¨ à¤Ń
Ġà¥ªà¥« à¥¦
Ġà¤¤à¤²à¤¬ à¤Ńà¤¤
Ġà¥Ńà¥« à¥¦
Ġà¤ķà¤¦à¤® à¤¹à¤°
0 9
Ġà¥ Ĥ
à¤Ł à¤ľà¤¸
à¤ľ à¤°à¤Ń
Ġà¤¯à¤¸ à¤Ń
à¤ĩà¤¡ à¤¬à¤¡
Ġs e
Ġs u
s c
Ù ĩ
à¤¿ à¥ģ
à¤² à¤ļà¤ķ
à¤Ī à¤¨à¤ķ
âĢ ķ
Ġà¤®à¤¹ à¤®
Ġà¤¸à¤¹ à¤µ
à¤ħ à¤¬à¤ķ
à¤Ńà¤¨ à¤°
à¥¯ à¥©
Ġà¤Ĭ à¤¨
à¤°à¤ĸ à¤ª
Ġà¥¨à¥¦à¥© à¥¯
Ġà¤¸ à¤Łà¤°
à¤ı à¤¦
à¤ħ à¤Ł
à¤ļà¤¨ à¤ľ
Ġà¤¨à¤Ĺà¤° à¤Ń
à¤Łà¤² à¤°
Ġà¥¦ à¥¯
à¤Ĩà¤ĩ à¤¤à¤¬
0 4
Ġ áĥ
à¥Įà¤ģ à¥¤âĢĻ
Ġà¤§à¤°à¤ªà¤ķ à¤¡
à¤® à¤¸à¤¨
Ġà¤¬ à¤¥
Ġà¤¡ à¤Ĺ
Ġà¤¸à¤°à¤¸ à¤²
Ð¸ Ðµ
ĠÂ ·
Ġà¥¨à¥¦à¥© à¥¨
à¤ľà¤Ĺà¤¢ à¤®
lo g
ĠAr t
icro soft
à¤¸ à¤¨à¤®à¤¨
à¤Ĺ à¤°à¤£à¤ķ
Ġà¤Ĩ à¤Ĺà¤®à¤¨à¤²
à¤« à¤°à¤²
Ġà¤§ à¤°à¤¤
à¤¤à¤° à¤ĺ
à¤¬à¤¦ à¤¬
Ġà¥¦ à¥¨
er n
at ing
ĠÐ ·
es e
Ġa g
Ġd is
Ġ Ã·
à¤¾ &
à¤¿ à¥ĭ
à¤Ī à¤°à¤¹à¤¨
Ġà¤¯ à¤®à¤¦
à¤¤à¤° à¤Ĺ
Ġà¤ľà¤¨à¤® à¤¤à¤¸
p er
r it
à¤¯ à¤ļà¤ķ
Ġà¤¹ à¤°à¤ķ
Ġà¤¹ à¤¡à¤ª
à¤¬ à¤¶
Ġà¤¦ à¤¬à¤¦à¤¬
à¤ļ à¤°à¤¹à¤°
à¤¤à¤° à¤Ĩà¤§
Ġ? "
à¤ĵ à¤Ńà¤°
à¤Ĺà¤£ à¤¤à¤¨
Ñ Ħ
Ġ ent
à¤¯ à¤·
Ġà¤ħà¤¨ à¤¸à¤¨à¤®
Ġà¤ĺ à¤¸
à¤°à¤¹ à¤¹à¤°
Ġà¤¸à¤¹ à¤¦
Ġà¤¤à¤²à¤¬ à¤ķ
Ġà¤ħà¤¸à¤¹ à¤ľà¤¤
0 1
A S
Ð ¶
à §
à¤µ à¤Łà¤²
à¤ĸ à¤¸à¤¹
à¥¤ .
Ġà¤ĸ à¤¬à¤°à¤ķ
Ġà¤¬à¤¨ à¤¸
Ġà¤Ł à¤Ļ
à¤ªà¤¨ à¤¸
Ġà¤®à¤¨ à¤¤
Ġà¥©à¥© à¥¦
ip ur
1 7
à¤ķ à¤ķà¤®
à¤ģ à¤ģ
Ġà¤Ĩà¤Ĺà¤®à¤¨ à¤¸
Ġà¤°à¤¥ à¤¯
ĠÐ½ Ð°
Ġà¤ıà¤¯à¤°à¤¬ à¤¸
ä »
à¤° à¤Ĺà¤°
à¤ķ à¤Łà¤¨
à¥ģ /
Ġà¤¨ à¤ĩ
Ġà¤Ń à¤°à¤ķ
Ġà¤µ à¤¨à¤¬
à¤¬ à¤Ł
à¤ī à¤ªà¤¨
Ġà¤ı à¤Łà¤²
à¥® à¥©
Ġà¥§à¥§ à¥ª
Ð¾ Ñģ
ĠP ortal
Ú ©
Ġà¤Ĩ à¤¥
Ġà¤ĵ à¤ĸà¤¤
ĠÐ ³
ĠY ou
å ħ
à¥ĩ (
à¤¹ à¤ħà¤¨
à¤ı à¤µ
Ġà¤¤à¤° à¤¬
Ġà¤ħà¤¸ à¤°à¤¬
à¥® à¥§
à¤¥à¤² à¤¸à¤®
Ġà¥¨à¥¦à¥ª à¥ª
Ġp eople
à¤¨à¤¸à¤ªà¤Ł à¤²à¤®
I T
Ġ up
à¤ķ à¤¯
à¤ķ à¤·à¤£
Ġà¤ľ à¤²à¤ķ
Ġà¤¸à¤¹ à¤ħà¤¸
Ġà¤ķà¤° à¤¨
à¤ļà¤¨ à¤¸
ol og
à¤¯ à¤¯à¤ķ
à¤£ à¤¯à¤¸
à¤ł à¤¯
à¤¨à¤¨ à¤°à¤¸
re n
à¤¯à¤£ à¤ĺ
à¤¦ à¤µà¤¸
Ġà¤¬ à¤¨à¤ķ
à¤· à¤°à¤¹à¤°
à¤¥ à¤¹
à¤¡ à¤²à¤Ĺ
à¤µà¤¸ à¤ļ
à¤¯à¤¨ à¤¬
à¤Łà¤¨ à¤¸
à¥¨à¥¦ à¥§à¥Ń
ar th
Ð¸ Ð½
Ġà¥¦à¥¬ à¥«
Ġà¥¨à¥¦à¥© à¥®
. )
0 6
à¤ı à¤¤à¤²
à¤Ń à¤°à¤£
à¤Ļ à¤¸à¤¹
Ġà¤¤à¤° à¤ĸà¤°à¤®
Ġd o
à¤¼ à¤¿
Ġà¥¨à¥¦à¥© à¥Ń
ub e
à¤ĭ à¤·
/ -
g mail
à¤µ à¤ļà¤¨
à¤· à¤°à¤²
Ġà¤¤ à¤¡à¤ķ
Ġà¤ļ à¤ŀ
Ġà¤Ńà¤¨ à¤¸
Ġà¤ĺ à¤°à¤¤
à¤¦à¤¨ à¤ª
Ġà¤Ī à¤Ń
ĠU S
à¤¤à¤¨à¤Ĺà¤° à¤ª
à¤ı à¤Ńà¤¨
Ġà¤ıà¤¸ à¤¡
Ġà¤¨à¤Ĩ à¤ĵà¤¸
à¤Īà¤ĵ à¤Ł
) )
à ©
Ġà¤ħ à¤¦à¤ķ
Ġà¤ľ à¤®à¤²
à¤ĸ à¤¨à¤²
à¤ĩ à¤ªà¤°
à¤ĩ à¤ªà¤ķ
à¤¸à¤¹ à¤®à¤¤
à¤Ńà¤µ à¤¬
Ġ2 6
à¤¶à¤Ń à¤°à¤¬
Ġà¥§à¥¯à¥® à¥¨
ģ Ħ
à¤¾ ....
à¤¤ à¤£
à¥ģ à¥ĥ
à¤¦ à¤®à¤¨
Ġà¤Ĺ à¤ĩ
Ġà¤¨ à¤ł
à¤Łà¤¨ à¤¬
Ġà¤ķà¤² à¤¹
à¤¯à¤¯ à¤Ń
Ġ20 75
Ġà¥¨à¥¦à¥¨ à¥ª
ol l
Ġn ot
à¤¬ à¤Ĺ
à¤ļ à¤Ńà¤¨
à¤Ī à¤®à¤§
à¤ªà¤¨ à¤¹à¤°
Ġà¤ªà¤¦ à¤²
Ġà¥§à¥¦ à¥¬
Ġà¤ħà¤« à¤¸
or s
å ı
à¤¡ à¤²à¤¬
à¤ī à¤ªà¤ļ
à¤ł à¤¸à¤®
à¤¯à¤¸ à¤¨à¤ķ
à¤ħ à¤°à¤ķ
Ġà¤ĵ à¤®à¤ķ
Ġà¥§à¥¦ à¥Ń
Ġà¤Ĩà¤¶ à¤¯à¤ķ
ĠH e
Ġha ve
å ¹
Ġ @
à¤ª à¤¸à¤¬
Ġà¤ķ à¤ķà¤¨
à¤ı à¤®à¤²
à¤· à¤¤à¤µ
Ġà¤Ľ à¤¹
Ġà¤ħà¤ª à¤¦à¤¸
à¤ĩà¤Ł à¤¬
Ġà¤¹à¤ķ à¤ħà¤§
à¤¼ à¥į
Ð°Ð ²
Ġà¤ļà¤² à¤¨à¤²
Ġà¤®à¤² à¤ĸ
à¤µà¤°à¤£ à¤®à¤¨
Ġà¤ıà¤¨ à¤ıà¤¸
on s
à¤īà¤ª à¤Ń
Ġà¥¨à¥¦à¥© à¥§
à¤® à¤°à¤£à¤®
Ġà¤µ à¤¨à¤µ
à¤· à¤Ĺ
Ġà¤Ĩ à¤¯à¤¤
Ġà¤¥ à¤ªà¤ķ
à¤°à¤¸ à¤¬
à¤·à¤® à¤£
Ġà¤Ĩà¤Ī à¤ıà¤¸
Ġà¥§à¥¯à¥® à¥ª
Ġà¥§à¥¯à¥¬ à¥¨
à¤® à¤®à¤¨
à¤µ à¤Ī
à¤¥ à¤ķà¤ķ
à¤¥ à¤¸à¤ļ
Ġà¤¡ à¤ķà¤°
Ġà¤Ŀ à¤®à¤ķ
à¤µà¤¯à¤¨ à¤¸
Ġà¤¦à¤¶à¤ķ à¤¯à¤¤
ĠN E
Ñģ Ñı
à¤Ĺà¤µ à¤£
a x
à¥ĩ :
Ġà¤ª à¤Ĺà¤°
Ġà¤®à¤¹ à¤ķ
à¥į, '
Ġà¤ªà¤¦ à¤ļ
em ent
ĠCom p
à¤¾ à¥ģ
à¤ı à¤ĩ
à¤Ī à¤Ńà¤¨
Ġà¤ħà¤« à¤µ
Ġà¤Ń à¤ľ
à¤¶ à¤¹
à¥ĥ âĢĻ
à¤ŀ à¤¸
Ġà¤²à¤Ĺ à¤¨
à¤¸à¤¨ à¤ª
à¤¹à¤¨ à¤¤à¤ķ
ad ing
ic s
le t
con om
c o
à¤¯ à¤µà¤¤
Ġà¤ª à¤¥à¤®
Ġà¤¨à¤Ĺà¤° à¤ªà¤°
à¤Ĺà¤łà¤¨ à¤¬
Ġà¤ļà¤°à¤£ à¤ħà¤¨
Ġà¥¦à¥¬ à¥§
Ġun d
Ġà¤ıà¤ħ à¤°à¤²
å ®
à¤® à¤®à¤¤
à¥Ģ âĢĶ
Ġà¤¸ à¤µà¤¸
Ġà¤¡ à¤Ļ
at i
à¤²à¤ļ à¤²à¤¨
Ġà¤Ĩà¤²à¤® à¤²
nepal news
à¤ļ à¤¤à¤°
à¤ĩ à¤Ńà¤¨
à¤¯à¤² à¤¸
Ġà¤¸à¤¯ à¤¸à¤®
à¤ıà¤¨ à¤ıà¤¨
2 3
I C
à¥ĭ (
à¤® à¤¯à¤ķ
à¤Ł à¤ľà¤°à¤²
Ġà¤µ à¤¹à¤¸
Ġà¤Ľ à¤¥à¤°
à¤¡ à¤ªà¤Ľ
à¤¸à¤ķ à¤°
Ġà¤ľà¤¨ à¤¬
à¥¯ à¥Ń
Ġà¥¨à¥¦à¥¨ à¥¬
Ġà¥§à¥¯à¥® à¥®
ÑģÑĤ Ð²
Ġà¤Ŀà¤¡ à¤ªà¤ķ
Ġà¤²à¤« à¤¡
à¤° à¤µà¤¸
à¤¨ à¤ĺ
à¤ķ à¤¢
à¥ĩ ..
Ġà¤Ń à¤®
âĢĻ -
à¤¯à¤¸ à¤ŀ
à¤Ĩ à¤¹
Ġà¤ķà¤² à¤¸
Ġà¤ªà¤¦ à¤®à¤ª
à¤¤à¤¬ à¤®
Ġt e
ĠA ug
Ġd es
0 8
Ġà¤§ à¤¸
à¤ľà¤² à¤µ
Ġà¤§à¤¨ à¤ª
Ġà¥¨à¥« à¥¬
ĠTop nepalnews
à¤ķ à¤¸à¤°
à¤¯ à¤ĸ
à¤Ł à¤Ĺà¤¤
Ġà¤ĵ à¤ķà¤²
à¥® à¥¨
Ġà¤ħà¤ķ à¤¬à¤°
Ġà¤Ńà¤µà¤¨ à¤¬
Ġà¥¦à¥¬ à¥Ń
ay s
à¤® à¤ķà¤²
Ġà¤ħ à¤¨à¤ķ
Ġà¤² à¤Ľ
à¤ĸ à¤¬à¤¹
Ġà¤¦à¤° à¤µà¤¨
Ġà¤Ĩà¤ī à¤Ľà¤¨
ĠM icrosoft
is m
il d
à¤¡ à¤ªà¤ķ
à¤ĸ à¤µ
Ġà¤ķà¤® à¤¨
Ġà¤ħà¤Ń à¤¯
à¥Īà¤Ĥ à¤ģ
Ġà¥§à¥¬ à¥¯
en g
I V
á »
à¤¨ à¤ĵà¤Ł
à¤¹ à¤¤à¤®
à¤¹ à¤²à¤Ĺ
Ġà¤Ł à¤£
Ġà¥§à¥¯ à¥Ńà¥«
Ġà¤ªà¤¸ à¤²à¤²
Ġà¥§à¥¯à¥« à¥®
Ġà¤¦à¤¶à¤°à¤¥ à¤ļà¤¨
** **
5 0
à¤µ à¤ªà¤°
à¤ľà¤¨ à¤¸à¤®
à¤¹à¤¨ à¤¬à¤¹
à¥Įà¤ģ, âĢĿ
ad io
Ġà¤®à¤Ĺà¤° à¤¹à¤°
à¥ģà¥¤ âĢĿ
Ġà¤¸à¤°à¤² à¤¤
Ð¾Ð ±
à¤¤ à¤¥à¤²
Ġà¤¬ à¤¹à¤ķ
à¤£ à¤Ńà¤ķ
à¤ĩ à¤ķà¤ķ
à¤« à¤¸à¤²à¤®
Ġà¤Ł à¤ªà¤°
à¤¯à¤¸ à¤¸à¤®
à¤¾, âĢĻ
à¤ĵ à¤¨
à¤°à¤®à¤£ à¤¹à¤°
it ion
ha re
à¤¦ à¤ªà¤Ľ
à¤µ à¤ľà¤¸
à¤¡ à¤ļ
à¤ĩ à¤¤à¤²
à¤Łà¤ķ à¤¹à¤°
à¤Ĩ à¤ĸ
à¤£à¤¯ à¤ª
Ġà¥§à¥§ à¥®
à¤ĸà¤® à¤¯
ed ia
áĥ Ĳ
Ġà¤ıà¤ķà¤Ľ à¤¤
à¤¨ à¤¬à¤°
à¤¤ à¤Ľ
à¤¯ à¤ªà¤¨
Ġà¤° à¤¬à¤°
Ġà¤¨ à¤°à¤¦
Ġà¤ļ à¤¤à¤°
Ġà¤īà¤ª à¤¬
à¤µà¤° à¤¸à¤®
Ġ2 8
à¤¶à¤¨à¤² à¤ķ
à¤ļà¤¸ à¤¯
m à¤¯
à¤¹ à¤µà¤°à¤®
Ġà¤Ĺà¤° à¤®
à¤· à¤ĺ
Ġà¤ķà¤° à¤µ
al e
ĠN ew
ro w
t r
à¤Ľ à¤¯
à¤ĸ à¤Ĺà¤ŀ
à¥® à¥ª
à¤¬à¤² à¤Ł
à¤ıà¤« à¤ıà¤ķ
Ġ.... ..
à¤¹ à¤ļ
à¤¹ à¤¬à¤°à¤®
à¤¥ à¤¸à¤®
à¤« à¤°à¤®
Ġà¤Ĩà¤ĩ à¤¦
er y
Ġà¤ľà¤¨à¤ķ à¤°
Ġà¤Ńà¤°à¤¤ à¤°
ĠA ll
Ð¸ Ð¹
Ġà¤ħà¤²à¤Ĺ à¤ħà¤²à¤Ĺ
ĠJ ul
l i
Ġ à¦
à¥ Ĭ
à¤² à¤ªà¤ķ
à¤Ł à¤ªà¤¤
Ġà¤¬ à¤²à¤¬
à¤Ī à¤¨à¤¨
à¤£ à¤²à¤Ĺ
à¤ĸ à¤ªà¤¢
à¥¤ &
âĢĻ âĢĻ
Ġà¤ķà¤® à¤²à¤ķ
à¤¸à¤¦ à¤µ
Ġà¤ıà¤¸ à¤¬
Ġà¤µà¤¨ à¤ľ
à¤Ńà¤Ĺ à¤µ
Ġà¤ıà¤« à¤ıà¤®à¤ķ
ĠÌ ģ
à¤§ à¤°à¤£à¤²
à¤Ī à¤µà¤¸
à¤ĺ à¤·
à¥Įà¤Ĥ âĢĿ
Ġà¤Ĩà¤¯ à¤µ
à¤®à¤¨ à¤°
Ġf in
Ġà¤¨à¤Ĺ à¤Ī
à¤¥à¤ª à¤°à¤ķ
à¤ķ à¤¸à¤ķ
à¤µ à¤ıà¤®
Ġà¤¤à¤¹ à¤Ĺà¤¤
Ġà¤Ĩà¤ł à¤ľà¤¨
Ġà¤¶à¤ªà¤¥ à¤Ĺ
Ð¾Ð³ Ð¾
à¤° à¤ł
à¤° à¤ªà¤²
à¤¿ à¤¿
Ġà¤¸à¤® à¤¶
à¤Ĩ à¤°à¤²
à¤µà¤² à¤Ĺ
Ġ2 3
ĠO ct
à¥ģ (
à¤¦ à¤¤à¤®
à¤°à¤® à¤Ń
à¤¯à¤¨ à¤¶
Ġà¤¬à¤ļ à¤¤à¤ķà¤°
Ġïģ ¶
â ģĦ
à¤§ à¤§à¤°
à¤ªà¤¨ à¤¦
Ġà¤ĩ à¤µ
Ġà¤ħà¤¸ à¤Ī
à¤Ĩ à¤ĩà¤ı
Ġà¤ĵ à¤ĩà¤²
à¥ĭâĢĵ âĢĺ
Ġà¤īà¤ªà¤ķà¤°à¤£ à¤®
o ol
à¥ĩ "
à¤² à¤ľà¤¯
à¤µ à¤°à¤¹
Ġà¤® à¤¤à¤®
à¤¯à¤¤ à¤µ
Ġà¤ĵ à¤łà¤®
à¤«à¤² à¤¤
à¤Ĩà¤° à¤ıà¤¸
ĠF or
ĠL e
Ġà¥§à¥¯à¥® à¥Ń
Ġà¥¦à¥ª à¥®
,, ,
ĠâĨ Ĳ
à¤¨ à¤¸à¤²
à¤¦ à¤¸à¤¤
Ġà¤Ĺà¤° à¤¯
Ġà¤Ĩ à¤µà¤°
Ġà¤Ŀ à¤¯
at a
à¥ģ "
à¤£ à¤ľ
à¤ł à¤²à¤Ĺ
à¤·à¤ķ à¤¸
Ġà¥¦ à¥©
à¤Ĩà¤Ī à¤ı
à¤ĩà¤Ń à¤°à¤²
p ort
å ¤
à¤ĩ à¤¤à¤¬
à¥Įà¤ģ âĢĻ,
à¤°à¤ª à¤¥à¤®
Ġà¤ıà¤¨ à¤Ł
à¤¸à¤¬ à¤ķ
à¤Ĩà¤° à¤Ł
à¤Ĩà¤Ī à¤Ł
Ġà¥©à¥¬ à¥«
Ġ201 3
Ġà¥§à¥¯à¥ª à¥Ń
å Ĳ
à¤² à¤µà¤®
à¤ª à¤²à¤®
à¤§ à¤ĺ
Ġà¤īà¤ª à¤ľà¤ķ
Ġà¤ħà¤¬ à¤²
à¥Įà¤Ĥà¥¤ âĢĿ
un ic
3 9
N A
Ġ ï¿½...
à¤Ĺ à¤«à¤²
à¤ı à¤¶à¤¨à¤ķ
Ġà¤ħ à¤ľà¤®
Ġà¤Ľ à¤ªà¤ķ
à¤Ī à¤°à¤²
à¤Ļ à¤«
à¤ľà¤¨ à¤µ
ĠâĢ į
Ġà¤ĵ à¤¨
Ġ2 9
ç Ķ
à¤° à¤²à¤ķ
à¤ķ à¤·à¤ķ
à¤¦ à¤¶à¤¨à¤®
à¤µ à¤Ļ
Ġà¤Ĺ à¤µ
Ġà¤¨ à¤¡à¤°
Ġà¤ļ à¤Łà¤ªà¤Ł
à¤µà¤° à¤°
Ġà¤ĵ à¤¤à¤ª
à¤¦à¤¨ à¤¸à¤®
Ġà¤Ĩà¤¶ à¤¯à¤ªà¤¤
Ġà¥§à¥© à¥¬
at s
Ġà¤Łà¤¨à¤ķ à¤ª
à¤ª à¤¸à¤¹
Ġà¤° à¤£à¤¬
à¤¶ à¤Ńà¤¨
Ġà¤ı à¤²à¤¸
à¤ħ à¤µà¤°
à¤£à¤¯ à¤¸à¤®
à¤¿. ,
à¤°à¤ĸ à¤¨
Ġà¤ªà¤¦à¤® à¤¬à¤¹
ĠÙ ħ
m e
à¤°à¤® à¤¶à¤ķ
Ġà¤¶ à¤ª
Ġà¤®à¤¹ à¤²à¤®
à¤¸à¤¨ à¤¦
Ġà¤¨à¤Ĺà¤° à¤¸
Ġà¥§à¥« à¥¦à¥¦
à¤·à¤§ à¤°à¤¹à¤°
at er
Ġà¥§à¥¯à¥® à¥«
Ġà¤ĵà¤Ńà¤° à¤Ł
l and
à¤ª à¤Łà¤¨
Ġà¤® à¤ª
Ġà¤Ĩ à¤Ĺà¤®à¤¨à¤ķ
à¤Ŀ à¤£
Ġà¤ķà¤® à¤¬
à¤Łà¤¨ à¤°à¤ķ
Ġà¤¸à¤¡à¤ķ à¤ª
Ġà¤Ĺà¤£ à¤°
ĠÐ °
ĠP r
Ð° Ñı
Ġb usiness
am e
à¤ª à¤ķà¤®
Ġà¤ı à¤ªà¤ķ
à¤Łà¤¨ à¤°à¤¸
à¥® à¥¯
à¤¯à¤° à¤¡
à¤µà¤¤ à¤¸
Ġà¥§à¥§ à¥¬
Ġ2 1
Ġà¥«à¥« à¥¦
ĠÐ¾ Ð±
l es
p t
Ġ all
à¤° à¤ľà¤ķ
à¤§ à¤¦
à¤ĩ à¤²à¤Ĺ
Ġà¤Ŀ à¤²à¤ķà¤¹à¤°
Ġà¤Ĳ à¤¨à¤¹à¤°
Ġà¤ĸà¤Ł à¤ªà¤Ł
ĠS c
à¤ªà¤Ł à¤ķà¤®
Ġà¥¦à¥« à¥®
2 5
à¤µ à¤¹à¤¨
à¤ľ à¤ķà¤°
Ġà¤ı à¤²à¤¬
à¤°à¤£ à¤µà¤¶
à¤ķà¤® à¤¨
Ġà¤ªà¤¤ à¤ŀ
at t
ĠÐ Ĵ
) -
Ù Ĭ
à¤¸ à¤²à¤ķ
Ġà¥¤ âĢľ
à¤§ à¤ķà¤®
Ġà¤¤ à¤µà¤°à¤®
à¤¥ à¤¨à¤Ĺà¤°
à¤°à¤® à¤¸à¤¹
Ġà¤ļ à¤¯à¤¨à¤®
à¤¶à¤ķ à¤¸
Ġà¥§à¥© à¥«
re st
Ġ2 7
ĠM an
ãģ Ĺ
à¤¦à¤°à¤¬ à¤ľ
à¤¸ à¤¥
à¤Ī à¤¤à¤°
Ġà¤ĸ à¤Ľ
à¤ªà¤° à¤ľ
à¥Įà¤Ĥ à¤Ĥ
à¤°à¤µ à¤ª
à¤Ĺà¤® à¤Ĺ
Ġà¤¬à¤² à¤µ
Ġà¤°à¤ķà¤® à¤®à¤§
= =
à¤° à¤ľà¤²
Ġà¤Ń à¤¯à¤²
à¤¶ à¤¯à¤ķ
à¤Ń à¤ª
à¤¨à¤ķ à¤¤
à¤Ļ à¤¨
à¤²à¤¨ à¤ļ
Ġà¤Ŀ à¤ª
à¤§à¤¨ à¤¸à¤®
ol d
à¤¸ à¤ľà¤¨
à¤ĸ à¤°à¤²
à¤°à¤¤ à¤²à¤Ĺ
Ġà¤ħà¤§ à¤ķ
Ġà¤¬à¤¸ à¤¸
Ġà¤Ĺà¤¤ à¤¸
Ġà¥§à¥¯ à¥Ńà¥§
à¤¶à¤¨à¤² à¤²
Ġà¥¨à¥¦à¥¨ à¥©
Ġà¤ľà¤Ĺà¤¤ à¤¬à¤¹
ĠK oh
Ġ5 0
à¤µ à¤ħà¤°
à¥Ī :
Ġà¤ľà¤¨ à¤¸à¤°
à¥® à¥Ń
Ġà¤¬à¤² à¤¦
ar g
ing s
Ġà¥¨à¥¦à¥¨ à¥Ń
conom ic
? '
à¤² à¤ħà¤ĺ
Ġà¤ª à¤¥à¤ª
Ġà¤¦ à¤¹à¤¨
à¤ĩ à¤°à¤¨
à¤¾à¤ģ -
à¤¾à¤ģ ...
Ġà¤ªà¤° à¤ľ
à¤¤à¤° à¤µà¤¸
à¤ıà¤® à¤ľ
à¤ķà¤Ł à¤ª
Ġa cc
Ġw ill
, âĢĺ
Ã ³
Ġà¤ķ à¤µà¤°
à¤¬ à¤¸à¤ķ
à¤·à¤£ à¤ķà¤°
Ġà¥§à¥§ à¥¨
Ġm e
Ð¸ Ð¼
o y
à¤¾ ï¿½
à¥į à¥Ī
à¤²à¤ķ à¤¸à¤¹
à¤ķà¤² à¤¸
Ġà¤¸à¤¬ à¤¥
à¤ķà¤Ł à¤¹à¤°
Ġà¤ĭà¤£ à¤¬
Ġà¤Ĩà¤ı à¤ľà¤¸
à¤µà¤¯à¤® à¤¸
ak e
à¤² à¤¸à¤ķ
Ġà¤Ń à¤°à¤¤à¤ķ
Ġà¤µ à¤«
Ġà¤¤ à¤Łà¤®
à¤®à¤® à¤§
Ġà¤Ĩà¤ĩ à¤ıà¤¨à¤ľ
Ġà¤¸à¤ľ à¤Ĺà¤¤
ĠÐ Ł
à¥Ģ. ,
à¤ķ à¤ŀ
à¤® à¤¢
Ġà¤§ à¤¨à¤µ
à¤°à¤¹ à¤¸à¤®
Ġà¤®à¤¨ à¤Ńà¤°
à¤ªà¤® à¤¤à¤®
à¤ķà¤° à¤Ń
Ġà¤¸à¤¯ à¤µà¤Ł
Ġà¥§à¥Ń à¥¦
à¤¬à¤Ī à¤¬
Ġà¤¨à¤ħ à¤ªà¤¨
c l
à¤ķ à¤°à¤¬à¤°
à¤® à¤ł
à¤¦ à¤°à¤¹
à¤µ à¤Ńà¤¨
à¤Ł à¤¤à¤°
Ġà¤ı à¤ªà¤²
Ġà¤ħà¤µ à¤¯à¤µ
Ġ201 4
à¤¨ à¤µà¤¸
à¤µ à¤¬à¤ľ
à¥Ĥ '
à¤« à¤²à¤®
à¤Ļ à¤ĸà¤²
Ġà¤§ à¤®à¤¨
à¥ĭà¥¤ [
à¥Įà¤ģ à¤Ĥ
à¤¹à¤¨ à¤µ
Ġà¤Ĩà¤ķ à¤·
à¤¯à¤¸à¤¬ à¤ĸà¤¤
Ġà¤ıà¤² à¤Īà¤¡
Ð¸ Ð¸
n a
à¤ķ à¤°à¤¸
Ġà¤ªà¤° à¤ª
Ġà¤¯à¤¸ à¤¬à¤°
à¤ĵ à¤ıà¤¸
à¸ ²
Ġart icle
r ou
å Ĩ
à¤® à¤°à¤¸
à¤¤ à¤²à¤¬
à¤ı à¤Īà¤¸
Ġà¤ħ à¤²à¤ķ
à¤· à¤ªà¤¹
Ġà¤² à¤ļà¤ķ
à¤¡ à¤¨à¤¬
à¤ħ à¤¯
à¤§à¤¨ à¤Ĺà¤°
Ġà¤ªà¤¦ à¤µ
à¤¸à¤¸ à¤¸
à¤ĩà¤¨à¤² à¤¬
à¤Ĩà¤Ī à¤ıà¤¸
Ġw e
Ġà¤¹à¤¦ à¤¬à¤¨
2 1
R C
Ġ ........
à¤¹ à¤£à¤®
à¤¨à¤® à¤°
Ġà¤ıà¤ķ à¤¦à¤²
à¤·à¤£ à¤ªà¤¤
Ġà¤Ĳ à¤ļ
Ġà¤¬à¤ļ à¤¤à¤®
al ity
Ġà¤¨à¤µ à¤īà¤¦
le ct
Ġc ont
________ ________
à¥Ī .
Ġà¤ļ à¤¹à¤²
à¤¾à¤ģ âĢĻ
à¤¤à¤ķ à¤¬
à¤µà¤¨ à¤°
à¤¨à¤¨ à¤¸à¤ķ
Ġà¤ĺà¤° à¤ĺà¤°
Ġà¤ħà¤ª à¤ļ
Ġà¥§à¥§ à¥Ń
Ġ- --
Ġà¤¸à¤°à¤¸ à¤°
ĠF S
im al
à¤Ĺà¤ļ à¤²à¤¨
od e
à¤° à¤ıà¤ķ
à¤¿ (
à¥ĭ ',
à¤¤ à¤ªà¤°
à¤¯ à¤¯à¤®
à¤ª à¤¦à¤ķ
à¤ļ à¤Ń
Ġà¤ļ à¤ĸ
à¤¯à¤ķ à¤¸
Ġà¤ı à¤ħà¤°
à¥Įà¤Ĥ ||
à¤ĥ âĢĵ
à¤¯à¤£ à¤¸
Ġà¤Ĩà¤ı à¤Ľ
ãģ Ł
Ġon line
ation s
Ġà¤¶à¤°à¤¦ à¤ķ
eb ook
à¤² à¤Ī
à¤² à¤°à¤¹à¤°
à¤¯ à¤²à¤¬
à¥Ģ !
Ġà¤° à¤¸à¤®
à¤ļ à¤²à¤¬
Ġà¤ī à¤łà¤¨
à¥Į ?
ĠB e
Ġw eb
ĠD ec
Ð» Ñı
à¤ļà¤¥ à¤°à¤®
à¤¦ à¤¬à¤²
Ġà¤® à¤Ń
à¤ľ à¤Ńà¤¤
à¤£à¤¯ à¤ªà¤Ľ
à¥Įà¤Ĥà¥¤ '
it t
Ġc an
Ġà¤ļà¤°à¤£ à¤¹à¤°
iv ers
0 3
à¤¨ à¤°à¤¤
à¤¤ à¤ĸà¤¤
à¤µ à¤°à¤¦
à¤ħ à¤ĸ
à¤¹à¤ķ à¤¸
Ġà¤¥à¤ª à¤ĺà¤Ł
à¤µà¤°à¤£ à¤¬
ĠâĢĵ âĢľ
Ġà¤Ĩà¤ī à¤¥
Ġà¤Ĺà¤® à¤Ĺà¤¢
à¤Īà¤¸ à¤¯
ãģ §
ĠIn d
ide o
ä ½
Ġ >>
à¤² à¤µà¤°
à¤£ à¤¨à¤Ĺà¤°
à¥Ĥ à¥į
à¤« à¤¸à¤²
Ġà¤ı à¤¨à¤¬
à¤µà¤° à¤µ
à¤Ĩ à¤°à¤®
Ð¸ ÑĢ
ik news
à¤Ĺà¤Ń à¤Ļ
lic k
yst em
à¤ķ à¤Ĺà¤¢
Ġà¤¨ à¤µà¤¸
à¤§ à¤Ńà¤°
Ġà¤ĺ à¤¨à¤®
à¤¤à¤ķ à¤¤
Ġà¤Ĺà¤¤ à¤¬à¤°
Ġà¤¸à¤®à¤¯ à¤¬
an a
ĠC l
Ġà¤¨à¤Ĩ à¤ıà¤¸à¤®
ha m
Ġà¤Ĺà¤ĩà¤°à¤¹ à¤¨
Ġà¤ĸà¤² à¤Ļ
Ġà¥¦à¥¬ à¥¬
ow er
à¤® à¤¡
à¤¹ à¤Ĺ
Ġà¤¯ à¤²
à¤²à¤¯ à¤µ
Ġà¥§à¥¨ à¥©
à¤¦à¤² à¤¹à¤°
Ġà¥§à¥Ń à¥«
à¤¸à¤¨ à¤¹
Ġà¥§à¥¨ à¥¬
à¤®à¤¬ à¤ľ
ad e
ãģ «
un e
à¤²à¤¡ à¤®à¤¨
à¤µà¤¸à¤¹ à¤®à¤¤
Ġà¤¬à¤¬à¤°à¤® à¤¹à¤²
à¤® à¤£à¤ķ
Ġà¤¨ à¤¤à¤®à¤¸
à¤ı à¤¨à¤²
à¤· à¤¬à¤¹
à¤ļ à¤Ļ
à¤ĩ à¤ĸ
à¤ĩ à¤®à¤²
à¤¤à¤° à¤ªà¤¶
à¤°à¤ª à¤¥à¤ķ
ĠN ot
Ġà¤®à¤¹à¤° à¤²
Ġà¥§à¥¯à¥® à¥§
à¤Ńà¤ªà¤¤ à¤¨à¤ķ
2 6
à¤® à¤·
à¤Ĺ à¤ľà¤²
Ġà¤ľ à¤ľ
à¤ł à¤¤à¤®
Ġà¤ł à¤£
à¤ħ à¤ªà¤®
Ġà¥© à¥¨à¥¦
à¤¹à¤¨ à¤ª
Ġà¤Ī à¤ŀ
ĠC ent
Ġp re
Ġc l
ÐµÐ ¹
ub lic
à¤¬ à¤¤à¤¬
à¤£ à¤ĸ
à¤« à¤¹à¤°
à¤ŀ à¤¬à¤¹
Ġà¤īà¤ª à¤ķà¤ª
à¤ħ à¤ľ
Ġà¤Ŀ à¤Ŀà¤²
à¤Łà¤° à¤Ń
Ġà¤ĺà¤° à¤ľà¤®
Ġà¤ıà¤® à¤ıà¤¸
à¤Īà¤ķ à¤²à¤®
Ġà¥§à¥© à¥§
in s
ept ember
Ø ³
à¤µ à¤ħà¤ĺ
Ġà¤® à¤Ńà¤¨
Ġà¤Ń à¤°à¤£
Ġà¤Ĩ à¤¸à¤®
Ġà¤Ĩ à¤Ĺà¤®à¤¨à¤®
à¥Ĥ ...
Ġà¤« à¤°à¤®
Ġà¤ĺà¤° à¤ĸà¤°
Ġà¤¬à¤² à¤ľà¤«
Ġà¥§à¥¯ à¥Ńà¥ª
à¤¨à¤Ĺà¤° à¤¬
ĠM ay
à¤²à¤ĸ à¤¬à¤°
à¤¼ à¥ĭ
ac ebook
Ġà¥¨à¥¦à¥¨ à¥¯
ĠW h
áĥ ĺ
Ġle ading
anc ial
d e
à¤¨ à¤¸à¤¨
Ġà¤Ĺ à¤ľà¤®
à¤ī à¤¦à¤ķ
à¤°à¤® à¤ªà¤Ľ
à¤Ļ à¤Ń
à¤¢ à¤Ĺ
Ġà¤§ à¤¬
Ġà¤¤à¤° à¤µ
à¤°à¤¸ à¤¯
à¥Įà¤Ĥ /
Ġà¥¨à¥Ń à¥«
Ð¾ ÑģÑĤ
ĠA pp
ch n
Ġà¤ıà¤ħ à¤°à¤ª
k habar
å Ī
à¤¸ à¤Ĺà¤°à¤®
à¥® à¥¬
à¤ľà¤® à¤¸
à¤ĩà¤² à¤Łà¤ķ
à¥ĩà¥¤ âĢĻ
ĠP h
Ġà¤ľà¤¨à¤® à¤¤à¤²
ãģ Ħ
Ġà¤¹à¤Ļà¤ķà¤Ļ à¤¸
à¤ĺà¤Ł à¤¨à¤ķ
æ Ĺ
à¤² à¤¯à¤¸à¤¹
à¤® à¤²à¤®
à¤® à¤µà¤¤
à¤ª à¤²à¤Ĺ
Ġà¤° à¤Ĺ
à¤ľ à¤µà¤²
Ġà¤¤ à¤²à¤¤
Ġà¤ľ à¤¯à¤¶
Ġà¤īà¤ª à¤ķà¤°à¤£à¤²
Ġà¤®à¤¨ à¤¬
à¤°à¤ļ à¤²à¤¨à¤²
à¤®à¤¬ à¤¦
Ġ- "
ĠA pr
b e
à¤¨ à¤Łà¤®
Ġà¤¸ à¤¨à¤ķ
à¤ļà¤¨ à¤¹à¤°
Ġà¥§à¥¯ à¥Ńà¥®
à¤¼ à¥ĩ
ov e
U TC
Ġ out
à¤¦ à¤īà¤¨
Ġà¤µ à¤¨à¤ª
Ġà¤¦ à¤¸à¤ķ
Ġà¤² à¤¹à¤²
à¤¡ à¤¤à¤°
Ġà¤ĺ à¤¨à¤¤
à¤ªà¤® à¤¤à¤ķ
à¥Įà¤ģ âĢĿ
Ġà¤¢ à¤ķà¤®à¤ķ
es h
ĠA arth
Ġà¤· à¤·
à¤¯à¤ľà¤¨ à¤¬
,, ,,
ib le
s ite
Ġ Ñĩ
à¤° à¤ªà¤ķ
à¥Ģ &
à¤ª à¤Ń
Ġà¤ľ à¤ļ
âĢĻ à¥¤
à¤²à¤¯ à¤ª
Ġà¤¦à¤² à¤¦à¤²à¤®
à¤°à¤ª à¤Łà¤ķ
Ġà¤Ĺà¤ľ à¤²à¤²
Ð¾Ð º
O S
à¤¸ à¤¤à¤ķ
Ġà¤Ĺ à¤ľà¤¬
à¤Ī à¤¶
à¤ĩ à¤ħà¤ķ
Ġà¤ļ à¤ķà¤¨
Ġà¤ħà¤¨ à¤¸
à¤¯à¤¸ à¤ªà¤¶
Ġà¥§à¥¨ à¥¨
Ġà¤«à¤°à¤ķ à¤®
Ġà¤¸à¤¹à¤° à¤¬
ĠR adio
ul l
Ġà¥§à¥¯à¥ª à¥®
! âĢĿ
r ic
r ip
Ġà¤ ŀ
à¤¿ Ã·
à¥ĭ ),
à¤ª à¤¦à¤®
à¤¦ à¤¶à¤¨à¤ķ
à¤Ł à¤°à¤µ
à¤ı à¤ļà¤ķ
Ġà¤¹ à¤Ĺ
Ġà¤¹ à¤Łà¤²
Ġà¤ĸ à¤°à¤¸
Ġà¤ħà¤¨ à¤µ
Ġà¤ħà¤ª à¤Ĺ
Ġà¥§à¥¯ à¥§à¥¦
ĠS eptember
or n
à¤Łà¤°à¤¸ à¤¹
ĠP age
Ðµ Ðº
ĠI m
ĠE d
ĠJ an
ĠIntern ational
ĠAarth iknews
à¥ģ âĢĿ,
Ġà¤ª à¤§
à¤Ĺ à¤ĸ
à¤Ĺ à¤ªà¤Ľ
à¤¹à¤° à¤ª
Ð° Ñģ
Ġc he
å¹ ´
E N
k y
à¤ı à¤Ĩà¤°
à¥ĥ à¥į
à¤°à¤¦ à¤ķ
Ġà¤Ĩà¤ĩ à¤ķà¤¨
Ġà¤°à¤ķà¤® à¤¸à¤¹
Ġà¥§à¥¨ à¥¦à¥¦
Ġm an
à¤µà¤Ń à¤°à¤¬
Ġà¥§à¥¯à¥« à¥©
Ø ¨
à¤¿ à¥ĥ
à¤¿ ),
à¤² à¤¸à¤²
à¤¸ à¤ħà¤«
Ġà¤ľ à¤ķà¤¡
Ġà¤ıà¤ķ à¤¹à¤ľ
Ġà¤ľà¤¨ à¤ªà¤°
à¥ĭ, âĢĺ
à¤¶à¤¨ à¤¦
Ġà¤¸à¤¯ à¤ľà¤¨
Ġà¤Ĩà¤īà¤¨ à¤ķ
.... ...
Ġà¥©à¥¨ à¥«
ĠE t
áĥĲ áĥ
2 2
\ \
à¤² à¤ªà¤®
à¤¥ à¤Ńà¤¨
à¤ĩ à¤¤à¤ķ
Ġà¤ľà¤¨ à¤¤à¤¨
à¤²à¤ķ à¤¸
à¤Ĩ à¤ĩà¤Ł
à¤¤à¤² à¤¤
Ġà¤®à¤¤ à¤¸à¤¹
Ġà¥§à¥¨ à¥§
at ch
ĠÐ ¡
ĠN o
, "
A C
Ġ >
à¤ª à¤¸à¤¹à¤°
Ġà¤Ľ à¤°à¤ªà¤¸
Ġà¤Ĩ à¤¶à¤ķ
Ġà¤¸à¤® à¤§
à¤ĺ à¤¸à¤¸
Ġà¤®à¤¨ à¤°
à¤ĵ à¤¹à¤°
à¤²à¤Ĺ à¤¹à¤°
at es
Ġà¤ķà¤ł à¤ª
à¥ĭâĢĵ âĢľ
et o
Ġ3 1
Ġà¤¤à¤¡à¤ķ à¤Ń
m in
o ber
Ã ¥
Ġ {
à¤Ĺ à¤µà¤¨
à¤ħ à¤ļ
Ġà¤Ńà¤ı à¤Ŀ
à¤°à¤ļ à¤¨à¤ķ
à¤°à¤ļ à¤²à¤¨à¤ķ
Ġà¤¤à¤² à¤¸à¤®
à¤Ĭ à¤®
Ġà¤¸à¤®à¤¯à¤¸à¤® à¤¯à¤®
áĥ Ķ
à¤¸à¤¡ à¤ķà¤®
æ ĸ
à¤® à¤ªà¤°
à¤ľ à¤ħà¤¨
Ġà¤¤ à¤®à¤¸
à¤ĩ à¤®à¤®
Ġà¤Ńà¤ı à¤¬
à¤Ĺà¤² à¤¤
Ġà¥§à¥¯ à¥Ńà¥¬
à¤²à¤µ à¤¹
Ġà¥§à¥© à¥®
Ġ! "
à¤¡à¤° à¤Ĺ
Ġe conomic
à¤Ĩà¤ĩ à¤ıà¤¸
Ġà¥¦à¥« à¥¬
Ġha s
; ,
Ġ et
à¥ģ à¥ģà¤ģ
Ġà¤¨ à¤¸à¤ļ
Ġà¤¬ à¤µ
Ġà¤¡ à¤°à¤ķ
Ġà¤ħà¤¸ à¤°à¤¹à¤°
à¤Łà¤¨ à¤°à¤²
à¤®à¤¨ à¤Ĺà¤°à¤®
Ġà¤¹à¤° à¤¸à¤®
Ġà¤Ńà¤¯ à¤Ń
Ġà¤ħà¤Ĺ à¤®
ĠS e
à¤°à¤¥ à¤®à¤¤
Ġà¤¹à¤Ļà¤ķ à¤Ļà¤¬
Ġs o
Ġà¤¬à¤§ à¤¶
ik e
IV E
à¤® à¤§à¤¨
Ġà¤Ĺ à¤ıà¤¨à¤¨
Ġà¤° à¤®à¤¨
à¥Ī à¤¾
Ġà¤ıà¤ķ à¤¢
Ġà¤¬à¤¨ à¤Ń
à¤¸à¤² à¤°
à¤¨à¤¸ à¤¯
Ġà¤ıà¤² à¤ĩà¤¡
ĠA l
00 00
Ġà¤²à¤¹à¤² à¤¹
n y
Ġ Ø§ÙĦ
à¤¶ à¤²à¤ķ
à¤Ī à¤²à¤®
à¤¡ à¤Ł
à¤« à¤¯
à¥Į âĢľ
à¤Ļ à¤¡
Ġà¤¸à¤ķ à¤²
à¤²à¤¨ à¤¦
Ġà¤¢ à¤°
Ġà¤°à¤ķà¤® à¤¸à¤®
à¤Ĭ à¤¦
Ġà¤ĸà¤ªà¤¤ à¤ķ
à¤ĩà¤¨à¤ĸà¤¬ à¤°à¤¸
I D
Ġà¤® à¤°à¤®
Ġà¤Ĩ à¤¹à¤¤
à¤Ń à¤£
à¤ĸ à¤ªà¤¤
Ġà¤ĺ à¤¤
Ġà¤§ à¤¤
à¤Ĩ à¤¤à¤®
Ġà¤ĺà¤° à¤Ĩ
Ġà¥§à¥§ à¥¯
or ld
ĠR ong
Ð°Ð ±
Ġà¤¨à¤Ńà¤ĩ à¤ķà¤¨
d u
Ġ Î
à¤° à¤ħà¤ĺ
à¤¯ à¤¶à¤¨
à¤¦ à¤ľ
à¤¦ à¤¯à¤¦
à¤µ à¤ĸ
Ġà¤¹ à¤°à¤¦à¤®
à¥ĭà¥¤ "
Ġà¥§à¥« à¥§
à¤°à¤ľ à¤¨à¤ķ
Ġà¤īà¤¡ à¤¡
Ġà¥¦à¥« à¥§
Ġcom p
à µ
à¥į ï¿½
Ġà¤Ĺ à¤ıà¤¸
Ġà¤¹ à¤¤à¤ķ
à¤· à¤ľà¤¸
à¤ī à¤ŀ
à¤ĩ à¤ħà¤¨
Ġà¤ıà¤ķ à¤¡
à¥ģà¤ģ âĢĻ
Ġà¤ħà¤¸ à¤Ń
à¤®à¤® à¤£
Ġà¥¦à¥« à¥¯
ĠØ ¨
M S
Ġà¤ª à¤¯
à¤µ à¤¶à¤¤
à¤Ł à¤Ľ
à¤ı à¤®à¤®
à¤¬ à¤°à¤¹à¤°
à¤¡ à¤ľà¤¸
à¤ĩ à¤¤à¤°
à¤¸à¤¨ à¤¸à¤¤
à¤¤à¤¨ à¤§
Ġà¤¢ à¤²à¤ķ
Ġà¤Ķ à¤ķ
Ġà¤ĺà¤° à¤Ńà¤¨
Ġà¥§à¥¨ à¥¯
Ġà¥¨à¥© à¥¦
ãĥ ¼
07 4
à¤ķ à¤µà¤°
à¤¬ à¤ĩ
Ġà¤ľ à¤¯à¤¸
à¤¡ à¤°à¤¬
à¤¾à¤ģ à¥¤
à¤ĺ à¤¤
à¤ļà¤¨ à¤ħà¤ĺ
à¤Ĩ à¤ĩà¤ķ
à¤¦à¤° à¤ª
Ġà¤§à¤¨ à¤¸à¤®
à¤ªà¤£ à¤²
Ġw as
aj akhabar
à¤®à¤Ľ à¤®
ĠEt ajakhabar
i er
Ġà¤¸ à¤¯à¤²
à¤µ à¤Łà¤®
Ġà¤¹ à¤¬à¤²
à¤ļ à¤¯à¤¨
à¤Ń à¤°à¤²
Ġà¤¸à¤¹ à¤Ĩà¤¯
Ġà¤¤à¤ª à¤¶
Ġà¥§à¥¯ à¥Ńà¥¨
Ġà¥§à¥¯ à¥Ńà¥¯
Ġà¥§à¥¬ à¥§
Ġà¥§à¥¬ à¥¬
à¤Ĩà¤° à¤Ĩà¤°
Ġà¤Ĩà¤Ī à¤ıà¤¨à¤ľ
Ġà¤ªà¤² à¤¹à¤°
Ġà¤²à¤ĸà¤¨ à¤ī
Ð°ÑĤ ÑĮ
E C
a us
t ion
à¥ĩ Â¥
Ġà¤¹ à¤¦à¤®
Ġà¤ķà¤® à¤²à¤®à¤£
à¤¶à¤ķ à¤¬
Ġà¤Ĳ à¤°à¤²
Ġà¤¡à¤²à¤° à¤¸à¤®
ĠI t
Ð¾Ð ¶
ap os
Ġ em
à¤¾ âĢĺ
à¤¹ à¤¨à¤®
Ġà¤Ĺ à¤¨à¤°
Ġà¤µ à¤¦
à¤¬ à¤¨à¤²
à¤¶ à¤µà¤ª
à¤Ī à¤ı
ĠâĢ Į
à¤¨à¤® à¤²
à¤ŀ à¤¨
à¤¹à¤¨ à¤¤à¤²
Ġà¤ļà¤° à¤¨
à¤®à¤¸ à¤Ļ
à¥¨à¥¦ à¥§à¥¬
Ġà¤ľà¤¨à¤¸ à¤¤
qu e
à¤Ĺà¤ª à¤ŀ
âĢį .
2 8
2 9
h an
à¥ģ !
à¤¶ à¤¬à¤¨
à¤Ī à¤¤à¤²
Ġà¤Ńà¤¯ à¤µ
Ġà¤¸à¤¤ à¤ª
Ġà¤¬à¤ļ à¤¤à¤ķ
ĠÐ »
à¤µà¤ķà¤ª à¤¬
Ġà¥¨à¥¦à¥ª à¥§
à¤ĩà¤« à¤¸
ÅĴ à¤µ
Ġà¤ľà¤®à¤ĺ à¤Łà¤®
Ġà¤ ģ
Ġà¤Ń à¤¸
Ġà¤µ à¤·à¤°
à¤§ à¤Ĺà¤¯
à¤Ī à¤¹
à¤¸à¤® à¤§
Ġà¤ħà¤° à¤¬à¤²
à¤¸à¤¦ à¤¦
à¤ıà¤¨ à¤ıà¤ķ
Ġà¤ıà¤® à¤Ł
Ġà¥§à¥¯ à¥ªà¥«
Ġà¥§à¥¯ à¥Ńà¥Ń
ãģ ª
à¥įâĢĮ ,
ig h
Ġà¤ıà¤«à¤ı à¤®à¤²
7 7
i x
à¤¾ ;
Ġà¤Ĺ à¤¹à¤ķ
à¤Ł à¤§
à¤ľ à¤¯à¤°
Ġà¤Ľ à¤®
à¤¶ à¤¤à¤°
à¤Ĥ à¤Ĥ.
à¤ļ à¤¢
à¤°à¤¸ à¤µ
Ġà¤Ńà¤ı à¤Ľà¤¨
à¤¸à¤² à¤§
à¤²à¤¬ à¤¦
Ġà¤ĵ à¤ļ
Ġà¤¸à¤¡à¤ķ à¤¸à¤®
à¤ªà¤£ à¤®
à¤®à¤ª à¤¹
à¤¾... âĢĻ
Ġà¤¡à¤²à¤° à¤Ńà¤¨
Ġà¤¨à¤ļ à¤¢
ãĤ Ĵ
a ve
w it
à¤® à¤¹à¤²
à¤® à¤¦à¤²
à¤® à¤ĺà¤°
à¤¸ à¤°à¤Ń
à¤¹ à¤¸à¤ķ
à¤ĺ à¤¬à¤¹
Ġà¤¯à¤¸ à¤ĸ
à¤°à¤¹ à¤¯
à¤¶à¤ķ à¤¦
Ġà¤īà¤¦ à¤¯à¤°
à¤µà¤® à¤§
Ġà¤¨à¤Ń à¤ĩà¤¸à¤ķ
Ġà¤Ī à¤Ļ
Ġà¤¨à¤¬ à¤¤
ãģ ¦
Ġfin ancial
à¤ļ à¤ĺà¤°à¤®
à¤£ à¤ķà¤°
à¤¾à¤ģ à¥Ī,
Ġà¤īà¤¨ à¤¬
Ġà¤Ńà¤ı à¤Ńà¤°à¤ķ
à¤®à¤¨ à¤ª
à¥Įà¤ģ à¤ĥ
à¤§à¤¨ à¤Ĺ
Ġà¥¨à¥¨ à¥«
ĠN R
Ġp ortal
Ġà¥¦à¥« à¥¨
à¸² à¸
t o
Ġà¤Ĩ à¤łà¤®
Ġà¤ľ à¤²à¤¨
Ġà¤ıà¤® à¤Ĩà¤°à¤ª
Ġà¤¨à¤ľ à¤°à¤¬à¤¨
Ġà¥§à¥© à¥ª
re d
Ġà¤°à¤® à¤Ŀà¤®
Ġà¤®à¤¹ÅĴ à¤µà¤ķ
U S
à¤¨ à¤¨à¤²
à¤¤ à¤ħà¤²
à¥Ģ ..
à¤¹ à¤¨à¤¸
Ġà¤¹ à¤¦à¤ķ
Ġà¤Ľ à¤¯
Ġà¤ī à¤¸à¤¬
Ġà¤ĸ à¤¬à¤°à¤®
à¥¦ à¥Ńà¥§
Ġà¤®à¤¨ à¤¶
à¤ķà¤¨ à¤¹à¤°
Ġà¥§à¥« à¥«
à¤ıà¤® à¤Ł
à¤ļà¤² à¤¨à¤ķ
Ġà¤®à¤¦ à¤°à¤¸
Ġà¤ħà¤ľ à¤¯à¤ķ
Ġn o
!! !
à¥į- âĢĺ
if ic
vi ew
olog y
Ġ ðŁ
à¤¾ .....
Ġà¤¸ à¤¯à¤°
à¥Ī '
à¤ľ à¤Ńà¤¨
à¤¬ à¤Ĺà¤°à¤®
Ġà¤¸à¤® à¤ļ
à¤²à¤® à¤ķ
à¥Īà¤Ĥ âĢĵ
Ġà¤¸à¤¨ à¤¸
Ġà¤¸à¤° à¤ª
Ġà¤Ĩà¤® à¤°
Ġà¤ıà¤¸ à¤¯
Ġà¤Ī à¤¬
Ġà¥§à¥ª à¥«
Ġà¤¬à¤® à¤¬à¤¹
Ġà¤¨à¤Ĩ à¤¤
à¤µà¤¯à¤® à¤²
à¤ĩà¤¨à¤ĸà¤¬ à¤°à¤²
a f
æ ĺ
Ġ Ñį
à¥į à¥ĭ
Ġà¤® à¤°à¤¹
à¤Ī à¤ĸ
âĢ ļ
à¤ĩ à¤¶
Ġà¤¶ à¤µà¤¯
Ġà¤ħà¤ª à¤ļà¤²à¤¨
Ġà¤Ĩà¤¦ à¤¤
à¤ľà¤Ĺ à¤¦
à¤¨à¤Ĺà¤° à¤¸
à¤¯à¤Łà¤¨ à¤¸
Ð¸ Ð»
le te
ha k
ĠAug ust
T A
n et
à¤µ à¤£à¤²
Ġà¤¸à¤® à¤¦
à¤ĩ à¤ľà¤²
Ġà¤¥ à¤®à¤®
Ġà¤ı à¤¸à¤ķ
Ġà¤ħà¤ª à¤ľà¤¸
à¤ķà¤¨ à¤¬
à¤µà¤ª à¤Ł
en er
ĠA nd
le d
Ġà¤¯à¤® à¤¨à¤®
ant ipur
ÐµÐ» ÑĮ
ĠJul y
à¤¨ à¤°à¤µà¤²
à¤¸ à¤¢
Ġà¤¸ à¤ľà¤ķ
à¤ı à¤Ń
Ġà¤¹ à¤¥
Ġà¤¦ à¤ĸà¤²
Ġà¤ī à¤¤à¤°
Ġà¤°à¤¹ à¤¨à¤ķ
à¤²à¤¯ à¤²à¤Ĺ
à¤ıà¤¨ à¤Ł
à¤¸à¤µ à¤¹à¤°
à¥ģà¥¤ '
ag es
ĠÐ¿ Ð¾
Ġà¥§à¥¯à¥ª à¥¯
Ġent ry
à¤° à¤Ŀ
à¤¬ à¤°à¤¸
à¤§ à¤¨à¤¸à¤¹
à¤Ī à¤²à¤ķ
à¤ĩ à¤«à¤ķ
à¥Į -
à¤ĺ à¤¸à¤®
Ġà¤¯à¤¸ à¤¦
à¤²à¤® à¤®
à¤ħ à¤ªà¤ķ
ĠÐ ļ
ĠS hare
Ġs ur
Ġà¥¦à¥¬ à¥¦
Ġà¤ĵà¤Ńà¤° à¤¡
Ø§Ù Ĩ
c y
i um
à¤° à¤ħà¤°
à¤¨ à¤¬à¤¨
Ġà¤ª à¤¥à¤²
Ġà¤ķ à¤ªà¤¨
Ġà¤¨ à¤Ĩà¤Ī
à¤¬ à¤¤à¤¸
Ġà¤Ĩà¤Ī à¤ıà¤®
Ġà¤¨à¤Ĩ à¤īà¤²
ĠE n
à¤ľà¤¯à¤¨ à¤Ĺà¤°
» ¿
Ġà¤Ĺ à¤±
Ġà¤° à¤Ļà¤®
Ġà¤¬ à¤ķà¤°
à¤ľ à¤¯à¤®
Ġà¤Ľ à¤®à¤Ľà¤®
à¤Ī à¤Łà¤²
à¤Ĺà¤¤ à¤¬
Ġà¤¸à¤¦ à¤¶
à¤²à¤¤ à¤¸à¤®
Ġà¥§à¥¨ à¥Ń
Ġà¥¦ à¥¦à¥Ń
Ġà¥¨à¥® à¥¦
Ġà¥¨à¥Ń à¥¦
.... .....
Ðµ Ñģ
Ġa m
ĠApr il
% )
a u
e ed
f o
à¤¤ à¤²à¤²
à¤¹ à¤¤à¤°
à¤Ī à¤Ī
à¤£ à¤Ń
à¤ĩ à¤®à¤ķ
Ġà¤ªà¤° à¤²
Ġà¤¡ à¤®à¤°
à¤²à¤® à¤¤
à¥¨à¥¦ à¥Ńà¥¦
at ure
Ġà¥§à¥¯à¥® à¥©
Ġ19 9
Ġï ĥ
h y
à¤® à¤¬à¤°
Ġà¤® à¤Ĺà¤¨
à¤ľ à¤²à¤ķ
à¤ĩ à¤ªà¤®
Ġà¤ħà¤¨ à¤¸à¤¨à¤ķ
à¤Ļ à¤ľà¤¸
à¤°à¤£ à¤¦
Ġà¤ĵ à¤ıà¤¸
Ġà¤¬à¤² à¤ª
Ð¸ Ð²
Ġs c
is e
Ġà¥¦à¥ª à¥Ń
à¤²à¤Ĺà¤° à¤¹à¤°
à¤° à¤¯à¤¸
à¤Ŀ à¤°
à¥ĩ, '
Ġà¤Ĩà¤° à¤ª
à¤Ĩ à¤ļ
à¤Ĩ à¤ĵ
à¤Ĺà¤² à¤ª
Ġà¤ķà¤¸ à¤°à¤¤à¤®
Ġà¤¹à¤° à¤ªà¤²
Ġà¤ıà¤® à¤ıà¤®
Ġà¤ıà¤® à¤ĵà¤¯
Ġà¤Ĩà¤ĩ à¤¡à¤²à¤®
à¤ĩà¤² à¤°
Ġà¤Ĩà¤ļ à¤°à¤£à¤ķ
Ġà¤ħà¤ªà¤¹à¤°à¤£ à¤ªà¤Ľ
ĠÐ¾ ÑĤ
áĥĶ áĥ
S S
à¤ķ à¤¥à¤°
à¥ĩ ;
Ġà¤ª à¤ľ
à¤ľ à¤¤à¤ķ
à¤Ī à¤Łà¤¹à¤°
à¤¡ à¤ķà¤ķ
à¤« à¤°à¤ª
Ġà¤¡ à¤ļ
à¤°à¤¦ à¤¶
à¤µà¤¨ à¤µ
à¤ĵ à¤Ĩà¤°
Ġà¤®à¤² à¤¦
à¤ıà¤¸ à¤¡
Ġà¤Ī à¤£
à¤ķà¤¸ à¤ª
à¤Łà¤°à¤ķ à¤¨
Ġà¤Ĩà¤ı à¤¦
Ġà¤Ĩà¤¸ à¤¨à¤®
he d
à¤ľà¤Ĺà¤¢ à¤ķ
C om
å ľ
à¤¾ à¥ĭ
à¤¸ à¤¡à¤°
à¤Ĥ âĢĵ
à¤¡ à¤µà¤¹à¤°
à¤Ń à¤Ī
Ġà¤¶ à¤¤à¤µ
Ġà¤ĸ à¤Łà¤¨
à¤ŀ à¤¬
Ġà¤Ĩà¤¯ à¤¶
à¤·à¤£ à¤ħà¤¨
Ġà¤Ĩà¤° à¤ıà¤¸à¤Ĩà¤Ī
à¤¦à¤¨ à¤¸à¤¹
Ġà¤Ĩà¤® à¤ļ
Ġà¤ıà¤® à¤ľ
Ġà¤Ĩà¤ł à¤µ
it ed
ãģ Ļ
Ġà¥¦à¥« à¥ª
2 7
e y
m a
Ġ our
à¤¯ à¤¬à¤°
Ġà¤Ĺ à¤«à¤®
à¤ľ à¤®à¤ķ
à¤ģ à¥¤âĢĻ
à¤ī à¤ªà¤ķ
Ġà¤ĸ à¤¦
à¤ĺ à¤Ń
à¤·à¤£ à¤Ńà¤°à¤®
à¤®à¤ļ à¤°
Ġà¥§à¥« à¥¬
à¤¸à¤¬ à¤®
à¥¨à¥¦ à¥Ńà¥§
Ð° ÑģÑĤ
Ġà¤ıà¤« à¤¡
ent s
ãģ Į
ĠW e
à¤Ķà¤·à¤§ à¤¸à¤¹
ap p
à¤¡à¤¹ à¤²à¤®
à¤¦à¤ķà¤ª à¤¦
b o
Ġà¤ª à¤µà¤¨à¤ķ
à¤Ī à¤¸à¤¹
à¤ĩ à¤Ńà¤®
à¥Įà¤Ĥ '
Ġà¤ļà¤ķ à¤ļà¤ķ
Ġà¤¨à¤Ĺ à¤¦à¤®
Ġà¥§à¥¯à¥¬ à¥§
Ġ4 0
à¦ ¾
à¤Ĳ à¤¨
à¥į à¥Į
à¤¨ à¤°à¤¹à¤°
à¥ĩ |
à¤® à¤°à¤²
Ġà¤ķ à¤ļà¤¨à¤ķ
Ġà¤¨ à¤Ĺà¤£
Ġà¤¨ à¤¥à¤ª
Ġà¤¹ à¤£
à¤°à¤® à¤¯
à¤ľà¤¨ à¤¦
Ġà¤ħà¤§ à¤°
à¤ħ à¤°à¤®
Ġà¤¸à¤° à¤°
Ġà¤ħà¤¬ à¤¶
Ġà¤īà¤ł à¤¬à¤¸
à¤²à¤¯à¤® à¤§
Ġà¤®à¤¨à¤® à¤¸
Ġà¤ıà¤¨à¤Ĩà¤°à¤ıà¤¨ à¤ıà¤²
Ġ201 1
ay a
Ġà¥Ńà¥ª à¥ª
ĠFS X
g h
à¤ı à¤Łà¤°à¤ķ
Ġà¤® à¤ľà¤µ
à¤¬ à¤ľà¤¸
à¤§ à¤Ĺ
Ġà¤Ľ à¤²à¤ķ
à¤Ī à¤Łà¤ķ
Ġà¤ĸ à¤°à¤ķ
Ġà¤ķà¤° à¤¸à¤®
Ġà¤ł à¤¨
à¤ħ à¤ļà¤²
Ġà¤Ĩà¤ĩ à¤¤
Ġà¥§à¥¬ à¥®
Ġà¤¨à¤¬ à¤ľ
Ġà¥©à¥¬ à¥¦
et t
Ðº Ð¸
ĠOct ober
A M
d ay
o int
Â Ń
Ġ ro
à¤ķ à¤¸à¤¨
à¤ª à¤ľà¤¸
à¤µ à¤ªà¤¤
Ġà¤¨ à¤°à¤¨
à¤Ī à¤¬à¤¸
à¤µà¤ķ à¤ªà¤²
Ġà¤ķà¤² à¤µ
à¤łà¤ķ à¤¸
Ġà¥§à¥© à¥©
Ġà¤¸à¤ª à¤¥à¤Ĺ
Ġà¤²à¤¹à¤° à¤®
bout à¤®
æľ Ī
7 3
U R
e k
Ñ ĸ
á Ł
à¤¨ à¤ľà¤°
à¥ĩ âĢľ
à¤¤ à¤ĭà¤·
à¤¹ à¤²à¤¯
à¤§ à¤µà¤²
à¤¡ à¤ķà¤°
Ġà¤ıà¤ķ à¤ĸ
à¤°à¤¬ à¤ľ
Ġà¥§à¥© à¥Ń
Ġà¥§à¥¬ à¥Ń
Ġà¤Ĩà¤Ī à¤ªà¤°
à¤ıà¤² à¤ıà¤¨
à¤¾à¥¤ âĢĻ
Ġà¥ªà¥« à¥¬
à¤Ńà¤² à¤ªà¤°
Ġp er
ĠF eb
) âĢĻ
v en
Ġ ì
à¤ķ à¤¤à¤²
à¤¸ à¤ıà¤ķ
à¤¹ à¤Ń
à¤ĸ à¤µà¤°
à¤ĩ à¤ıà¤ªà¤¨
à¥Įà¤Ĥ âĢĶ
à¥Įà¤Ĥ âĢĿ,
à¤µà¤ķ à¤¬
à¤²à¤¨ à¤¤
à¥ĩ, âĢľ
à¤ĵ à¤¨à¤²
Ġà¥§à¥¯ à¥¦
Ġà¥§à¥ª à¥ª
Ġà¤ľà¤¨à¤¸ à¤°à¤ķ
Ġà¤ĭà¤£ à¤¦
à¤Ńà¤Ĺ à¤µà¤¤
à¤Ĺà¤¸ à¤Ļ
form ation
Â °
à¤® à¤ľà¤¦
Ġà¤¸ à¤¤à¤²
à¤ı à¤°à¤®
à¤· à¤¤à¤®
à¤ıà¤ķ à¤²
Ġà¤Ĩ à¤ıà¤²à¤Ĺà¤¤
à¤ĸ à¤®à¤§
à¤¹à¤° à¤¸
Ġà¤¸à¤® à¤¬à¤¨
à¤°à¤® à¤µ
à¤°à¤¤ à¤ª
à¤ľà¤¨ à¤ªà¤Ľ
Ġà¤ıà¤ķ à¤¬
à¤µà¤°à¤£ à¤¸à¤¹
à¥Īà¤ģ à¤Ĥ
Ġà¤ıà¤¨ à¤ıà¤®
ĠM in
Ġà¤Ľà¤ł à¤ªà¤°
Ġà¥§à¥¯à¥¬ à¥«
if e
Ġcom m
à¤ķà¤ħ à¤ªà¤ķ
E L
Ġ \
à¤¾ à¥ĥ
à¤¿ "
à¤¸ à¤ł
à¤¸ à¤¸à¤¹à¤°
à¤Ĺ à¤µà¤¶
Ġà¤° à¤¶à¤®
à¤ľ à¤ľà¤¸
à¤· à¤°à¤¶
à¤¥ à¤¨à¤²
Ġà¤¸à¤® à¤¯à¤¤
Ġà¤ľà¤¨ à¤Ĩà¤ķ
Ġà¥§à¥« à¥Ń
Ġà¥§à¥« à¥©
Ġà¤Ĩà¤¶ à¤²
Ġà¥©à¥¦ à¥¦à¥¦
Ġà¥¨à¥§ à¥¦
it al
à¤®à¤°à¤£ à¤¶à¤ķ
ĠB I
Ġà¥§à¥¯à¥¬ à¥Ń
áĥĺ áĥ
D P
p h
à¤ķ à¤ªà¤Ľ
Ġà¤¨ à¤Ńà¤°
Ġà¤¹ à¤ķà¤µ
Ġà¤µ à¤¦à¤²
à¤ĩ à¤¸à¤°
Ġà¤ľà¤¨ à¤īà¤¤
à¤²à¤ķ à¤¦
à¤Ŀ à¤ª
Ġà¤ªà¤¹ à¤²à¤²
à¤¹à¤¨ à¤°
âĢĶ âĢĶ
Ġof f
ers e
gr am
) ;
Â ¬
æ Ī
à¤Ĺ à¤ı
Ġà¤¬ à¤Ĺà¤¨
à¤ľ à¤¯à¤¸
à¤¶ à¤¶
Ġà¤ĵ à¤¯
Ġà¤ĵ à¤®à¤¬à¤¹
Ġà¤Ĩà¤ľ à¤ªà¤¨
Ġà¥§à¥¯ à¥Ńà¥©
Ġà¤Ĩà¤Ī à¤¡à¤²
ĠC on
à¤ĩà¤ª à¤¬
Ġ201 2
Ġà¤ħà¤µà¤¶ à¤°à¤®
Ġn ew
us s
Nepal i
? "
k a
Ġà¤¬ à¤£
Ġà¤Ń à¤ľà¤¨à¤ķ
à¤· à¤²à¤Ĺ
à¥Į âĢĿ
Ġà¤ªà¤° à¤¬
à¤¨à¤® à¤£
à¤ħ à¤¸à¤²
à¤Ĺà¤¤ à¤Ńà¤¨
à¤¶à¤¨ à¤¶
Ġà¥§à¥¯ à¥ªà¥¦
it s
à¥ĭ à¥į
à¤ª à¤¯à¤®
à¤µ à¤īà¤ª
Ġà¤Ĺ à¤ĩà¤¹
Ġà¤¬ à¤Ĺà¤²
Ġà¤® à¤Ī
à¥Į :
Ġà¤ħà¤§ à¤¬
à¤¯à¤¤ à¤µà¤¶
à¤¦à¤¨ à¤¹
Ġà¤¬à¤° à¤«
à¤ĵ à¤ıà¤®
à¤¡à¤® à¤Ľ
Ġà¥«à¥¦ à¥¦à¥¦
à¤·à¤§ à¤°à¤²
Ġà¥§à¥Ń à¥¨
ar n
ic a
à¤§à¤¨à¤² à¤Ĺ
ĠB o
ow s
Ġà¤¯à¤® à¤¨à¤ķ
Ð°Ð ¹
Ġà¥§à¥¯à¥« à¥«
o f
v is
à¤¹ à¤ľà¤¸
à¤¹ à¤¡à¤¤
à¤ļ à¤Ł
Ġà¤®à¤¨ à¤ª
Ġà¤°à¤® à¤ľ
Ġà¥¨à¥§ à¥Ń
ar s
ad a
il ity
ãģ ¨
ul s
ĠCom m
à¤ħà¤µà¤¸ à¤°
e g
Ã §
à¤¸ à¤£
Ġà¤° à¤¸à¤²
Ġà¤¶ à¤¶à¤ķ
à¤ĺ à¤°à¤²
Ġà¤ıà¤ķ à¤¹à¤ª
Ġà¤Ł à¤ªà¤ķ
à¤ķà¤® à¤®
à¤Ĩ à¤°à¤¬
Ġà¤¸à¤° à¤Ĺà¤°
Ġà¤ĵ à¤µ
à¤łà¤ķ à¤¸à¤®
ĠN ational
à¤¨à¤Ń à¤°à¤ķ
ur n
ÐµÐ ²
Ġà¤°à¤£ à¤ľ
ĠÙ Ī
unic ip
I n
Ġà¤¸ à¤Ĺà¤°
à¤ı à¤ļà¤¸
Ġà¤® à¤ĸà¤¨
à¤· à¤ªà¤¨
à¥Įà¤Ĥ ?
à¤°à¤¦ à¤¹
à¤¶à¤ķ à¤°
à¤¨à¤¨ à¤Ĺà¤°à¤®
Ġà¤ķà¤² à¤°à¤ķ
Ġà¤Ĩà¤ĩ à¤¯
Ġà¥§à¥¯ à¥©à¥¦
à¤¨à¤Ĺà¤° à¤Ń
à¤ıà¤® à¤¡
Ġà¥§à¥® à¥¯
Ġà¤Ĺà¤łà¤¨ à¤ªà¤Ľ
Ġà¤Ĩà¤ļ à¤°à¤£à¤®
à¤Łà¤¬ à¤²à¤¬
ĠA m
le ase
ÑĤ Ð¾
à¤¶à¤Ń à¤°à¤®
Ġà¤ĺà¤Łà¤ķ à¤¹à¤°
å °
à¤² à¤īà¤ªà¤°
à¤Ĺ à¤Ĺà¤°
à¤Ł à¤Ńà¤°
Ġà¤Ĩ à¤Ļà¤¦
à¤Ī à¤ªà¤²
Ġà¤¸à¤® à¤¤à¤²
Ġà¤ı à¤Ĩà¤Ī
à¤°à¤£ à¤¸à¤¹
Ġà¤ĺ à¤°à¤¸
Ġà¤ıà¤ķ à¤¸à¤°
à¤®à¤¨ à¤¦
Ġà¤Ńà¤° à¤¸à¤ķ
à¤¥à¤² à¤¤à¤°
Ġà¤«à¤°à¤ķ à¤ªà¤¨
à¤īà¤¸ à¤«
ãģ ¾
et s
out ube
c es
j ect
u ch
è ¿
ï Ģ
à¤¿ âĢĻ,
à¤¦ à¤Ńà¤®
à¤Ł à¤ĸ
à¤Ī à¤Łà¤°
Ġà¤¯ à¤®à¤¬à¤¹
à¤īà¤¨ à¤¤
à¤²à¤® à¤ĸ
à¤µà¤° à¤¨
à¤¨à¤ª à¤ŀ
Ġà¤Ĺà¤łà¤¨ à¤¸à¤®
à¤°à¤ĸ à¤£
it ies
à¤ĩà¤¬ à¤²à¤®
ĠJ une
à¤ĩà¤°à¤¸ à¤²
Ð½Ñĭ Ñħ
Ġà¤ıà¤¸à¤ĩ à¤Ī
ĠNot ice
C C
Ã ł
à¤¸ à¤ħà¤°
Ġà¤¸ à¤¸à¤®
à¤µ à¤Īà¤®
Ġà¤¬ à¤¥à¤¨
à¤£ à¤ªà¤¶
à¤¸à¤® à¤¤
à¤¨à¤® à¤ķ
Ġà¤ıà¤ķ à¤ł
à¤¤à¤® à¤¯
à¤¡à¤ķ à¤ªà¤®
à¤·à¤® à¤§
Ġà¤¦à¤² à¤¸à¤®
Ġà¤ıà¤¸ à¤ıà¤®
Ġà¤¦à¤¶ à¤µà¤Ł
Ġà¥§à¥ª à¥®
Ġà¥§à¥Ń à¥©
Ð¾Ð ·
ĠG u
th er
ate g
Ñĩ Ðµ
ÐµÐ½ Ð¸Ñı
Ġqu e
Ġà¤¤à¤¡à¤ķà¤Ń à¤¡à¤ķ
) âĢĵ
l ig
u f
Ġ à¥Ģ
Ġ es
à¥į /
à¤ķ à¤Ĺà¤£
à¥ĭ à¥ĩ,
à¤¤ à¤µà¤²
Ġà¤° à¤°
à¤¬ à¤°à¤¤
à¤£ à¤¯à¤¨
à¤ħ à¤°à¤¬
à¤ļà¤¨ à¤ľà¤Ļ
Ġ? ??
Ġà¥§à¥¬ à¥¨
al i
Ġm in
à¥ģà¥ģ à¥ģ
el y
Ðº Ð°
Ð°Ð ´
à¨ ¾
à¥įà¥Ģ à¥Ģ
E D
P S
T M
à¤¹ à¤Łà¤®
à¤§ à¤¡
à¤ĩ à¤¸à¤²
à¥Į à¥Īà¤Ĥ
Ġà¤ı à¤ŀ
Ġà¤« à¤¯
Ġà¤ıà¤ķ à¤®à¤¹
à¥ģà¤ģ ,âĢĻ
à¥ĩà¤ģ âĢĵ
at ive
Ġà¥¬à¥¦ à¥§
à¤¾' ,
B S
E T
O M
à¤¨ à¤ħ
à¤¤ m
à¤Ł à¤¤à¤¨
Ġà¤¬ à¤ª
Ġà¤¹ à¤²à¤¬
à¤§ à¤µà¤°
à¤£ à¤ķà¤²
à¤Ļ à¤µà¤°à¤ķ
Ġà¤« à¤®
Ġà¤ħà¤¹ à¤Ļ
à¤Łà¤® à¤¬
Ġà¥§à¥« à¥®
à¤ıà¤® à¤¡à¤¬
ĠS ch
à¤°à¤¨à¤Ĺà¤° à¤¬
ĠW eb
Ġà¥§à¥¯à¥« à¥¯
Ġà¤ħà¤¹à¤® à¤¦à¤²
S t
i et
à¤° à¤¡à¤®
à¤¦ à¤ļ
Ġà¤¨ à¤°à¤ª
Ġà¤¤ à¤ľà¤¬
à¤Ľ à¤®
à¤Ń à¤¡
à¤ł à¤¸à¤¹
à¤¤à¤° à¤¯
à¤²à¤¨ à¤Ĺà¤°
à¤·à¤ķ à¤¦
Ġà¤ļà¤² à¤¨à¤ķ
Ġà¥§à¥® à¥§à¥¬
Ġà¤¨à¤² à¤¡
ha p
à¤ĩà¤¬ à¤²à¤ķ
ers ion
Ġà¤²à¤Ń à¤¸
à¤° à¤Ĩ
à¤¦ à¤¯à¤°
à¤ı à¤²à¤¬
Ġà¤¬ à¤°à¤¬
à¤ľ à¤²à¤®
à¤§ à¤°à¤£à¤ķ
à¤ļ à¤ķà¤¤
Ġà¤¯ à¤²à¤®
Ġà¤Ķ à¤·à¤§à¤ķ
Ġà¤¬à¤² à¤Ńà¤¦
Ġà¤¸à¤Ļ à¤ĸ
Ġà¤¨à¤Ń à¤¤
à¤¯à¤ª à¤°à¤ķ
à¤Ĺà¤¬ à¤¤
à¤ıà¤² à¤ĵ
Ð¾Ð ¿
im es
Ġà¥§à¥¯à¥¬ à¥®
ra in
à¹ Ī
ES E
" à¥¤
Ġ Ú©
à¥ģ à¥Ĥ
Ġà¤¬ à¤¯à¤¸
Ġà¤Ń à¤°à¤¤à¤®
à¤ľ à¤ªà¤Ľ
Ġà¤¤ à¤£
à¤¥ à¤¦
à¤Ī à¤ıà¤¨
à¤°à¤¤ à¤¸à¤®
à¤ªà¤¤ à¤®
Ġà¤ħà¤ª à¤¶à¤¬
à¤¬à¤² à¤¤
à¤µà¤°à¤£ à¤¸à¤®
Ġà¤¸à¤¡à¤ķ à¤¸
à¤ıà¤¸ à¤ıà¤¸à¤ª
ĠÐ Ŀ
Ġm y
ou n
ĠO r
pp ort
ĠÌ Ī
Ð½Ñĭ Ð¹
vel op
P h
á º
Ġ ÑģÑĤ
Ġ 0000
Ġà¤Ĩ à¤¯à¤¤à¤¨
à¤®à¤¤ à¤ª
Ġà¤ķà¤¸ à¤ľ
à¤°à¤ľ à¤ª
à¤²à¤µ à¤¹à¤°
à¥Įà¤Ĥ, '
Ġà¥§à¥¬ à¥©
à¥¨à¥¦ à¥¬à¥©
Ġà¤ĭà¤£ à¤²
à¤¶à¤¬ à¤£
Ġp art
Ġw ork
Ġà¤¬à¤ļà¤¤ à¤ªà¤¤
ãģ ¯
ĠF r
ĠE ng
ers on
Ġ0 9
8 8
i ed
t s
t on
Ġ ar
à¥ °
à¥ Ĳ
à¥ĭ Ã·
à¤¸ à¤¹à¤¨
à¤ı à¤¬à¤®
Ġà¤¹ à¤¬à¤ķ
à¥Į âĢĮ
à¤¤à¤° à¤¹à¤°
Ġà¤ł à¤¹
à¤°à¤µ à¤£à¤ķ
à¤ķà¤ķ à¤¥
à¤Łà¤² à¤¸à¤®
à¤ķà¤Ł à¤Ĺ
à¤µà¤¯à¤¨ à¤¬
Ġà¤īà¤ªà¤° à¤¥
à¤¶à¤¹à¤° à¤®
ou ld
Ġà¤¤à¤²à¤¬ à¤¬
Ġ20 74
Ġà¥¬à¥« à¥¦
ĠD r
Ġre st
ot h
ee k
Ġà¤ħà¤Ĺà¤® à¤µà¤ķ
Ġà¤° à¤¥à¤ķ
Ġà¤¨ à¤§
à¤ı à¤ĩà¤ķ
à¤· à¤ªà¤¤
à¤¥ à¤¡
Ġà¤ľ à¤£
Ġà¤ĩ à¤¨à¤²
Ġà¤Ńà¤ı à¤¬à¤®
à¤ĩà¤² à¤¨à¤®
à¤¡à¤® à¤§
à¥ģ, âĢĿ
Ġà¥§à¥¬ à¥ª
à¥¨à¥¦ à¥¬à¥®
Ġà¥¨à¥¬ à¥«
Ġà¤¨à¤Ńà¤Ī à¤ķà¤¨
2 00
à¥ģ ),
Ġà¤ķ à¤Łà¤ķ
à¤ı à¤¯à¤°
à¤Ĥ ...
Ġà¤ı à¤®à¤ķ
à¤ĺ à¤°à¤¤
à¤ĺ à¤²à¤Ĺ
à¤®à¤¤ à¤¸à¤¹
à¤Ĩ à¤¨à¤¨
à¤µà¤°à¤£ à¤µ
à¤¸à¤¹ à¤ľ
à¸ Ļ
Ġà¤ķà¤²à¤® à¤ķ
out h
ãĤ ĭ
our ce
à¤¸à¤¡ à¤ķà¤ķ
Ġà¤Ĩà¤²à¤® à¤ķ
3 5
9 9
b le
p x
r al
Ġà¤ķ à¤£à¤¹à¤°
à¤ıà¤ķ à¤ľà¤¨
à¤ĩ à¤ŀ
à¤¸à¤ķ à¤µà¤°
à¤ķà¤® à¤£
à¥ģà¤ģ à¤Ĥ
Ġà¥§à¥® à¥§
à¤ļà¤° à¤Ļ
ĠS ur
à¤Ĭ à¤°
Ð° ÑĨ
ÑĢ Ñĥ
ĠÐ½ Ðµ
Ġan y
uc k
Ġà¤ĺà¤ļ à¤ĺà¤ļ
Ġà¤¹à¤°à¤« à¤¹à¤°
' '
E M
à¤° à¤ĵà¤Ł
à¤ķ à¤ªà¤¨
à¤§ à¤¸à¤Ń
Ġà¤Ľ à¤¸
Ġà¤Ĩ à¤°à¤¬
à¥Į à¥Ī
à¤¸à¤ķ à¤®
à¤ĩà¤¨ à¤ĸà¤¬à¤°
à¤µà¤² à¤ª
Ġà¤Ĳ à¤ľ
Ġà¤¢à¤ķ à¤¢à¤ķ
am b
Ġà¤Ĩà¤ĩà¤ıà¤® à¤ĩ
i j
à¤° à¤ĸà¤ķ
à¤¨ à¤¤à¤ķ
à¥ĩ à¥Ī
à¤¯ à¤°à¤µ
à¤¯ à¤¬à¤²
à¤ı à¤Ńà¤°
à¤ı à¤Īà¤¬
à¤ģ âĢĻ,
à¤°à¤¤ à¤¦
à¤°à¤¹ à¤¸à¤¨
Ġà¤¦à¤¶ à¤µà¤°
à¤¸à¤µ à¤Ł
Ġin d
à¤Ĳ à¤¤
Ð¾Ð» ÑĮ
? )
m and
à¤¨ à¤Ī
à¤¿ ..
à¥ĭ ....
à¤ĸ à¤¨à¤µ
à¤ĺ à¤¢
à¤ħ à¤«à¤®
à¤°à¤µ à¤®à¤¯
à¤ĵ à¤¡
à¤ķà¤°à¤£ à¤¹à¤°
à¤¤à¤°à¤£ à¤¸à¤®
à¤¥à¤² à¤¦
Ġà¥§à¥® à¥«
er ing
al k
à¥Ĥà¤ģ ,
ĠC he
ĠVi ews
P ost
r on
Ġà¤Ń à¤¡à¤ķ
à¤ļ à¤°à¤£à¤ķ
à¤ĩ à¤Ńà¤²
à¤ĩ à¤ıà¤«à¤ı
à¤īà¤¨ à¤¸
à¤¸à¤® à¤¸à¤ķ
à¤Ĺà¤° à¤¨
à¥Įà¤Ĥ )
à¤ĩà¤¨ à¤¸à¤ķ
Ġà¤ĩ à¤¨à¤ķ
à¤¾à¤Ĥ à¥Ī,
à¤¤à¤¨ à¤¦
à¤ķà¤° à¤°
Ġà¤ĺà¤° à¤Ĺ
à¤Łà¤² à¤°à¤ķ
Ġà¤ªà¤¢ à¤¦
à¤¸à¤¹à¤° à¤ķ
en ce
à¤®à¤£ à¤¹à¤°
Ġd i
Ġd er
Ġon e
Ġà¤²à¤¹ à¤¡
ÐµÐ ³
Ð½Ñĭ Ðµ
T he
ä ¼
Ġ ~
Ġà¤¸ à¤°à¤¹à¤°
à¤¦ à¤ħà¤¨
à¤Ł à¤Ĺà¤¢
à¤¬ à¤¤à¤²
à¤¥ à¤²à¤¸
Ġà¤ī à¤Ł
Ġà¤ľà¤¨ à¤Ĺà¤£à¤¤à¤¨
à¤ħ à¤µà¤¤
à¤¬à¤¨ à¤¡
Ġà¤¬à¤¸ à¤Ń
à¤¸à¤¨ à¤ªà¤Ľ
Ġà¤¸à¤¦ à¤¨à¤¬
Ġà¤ıà¤¸ à¤ıà¤¸
à¤ľà¤¦ à¤°à¤²
an y
an ch
Ġp h
ro p
Ġà¥¯à¥® à¥«
Ġe st
Ġg r
à¤ªm à¤¬
AN D
Å Ł
Ġà¤Ĺ à¤Ĺ
Ġà¤µ à¤¶à¤®
à¤· à¤ľà¤¤
à¤¶ à¤Ĺà¤°
Ġà¤Ĩ à¤Īà¤²
à¤ĩ à¤¥
à¤°à¤² à¤¯
à¥įà¥¤ ...
Ġà¤Ŀ à¤ªà¤Ł
Ġà¤ªà¤¤ à¤¨à¤ķ
Ġà¤Ĩà¤ĩ à¤¬
Ġà¥¨à¥« à¥¦à¥¦
ĠS eto
erv ice
ĠMar ch
6 0
a ut
w ork
à¤¤ à¤ļà¤¨
à¥ģ à¥ĩ
à¤¦ à¤¸à¤¹
Ġà¤ħ à¤¥à¤°
Ġà¤¹ à¤«
Ġà¤¹ à¤µà¤¨
Ġà¤¸à¤® à¤ªà¤¨
à¥¤ )
Ġà¤¥ à¤¬
à¤¸à¤ķ à¤¬
Ġà¤ħà¤® à¤°à¤ª
Ġà¤¸à¤¡à¤ķ à¤¦
Ġà¤ħà¤¦ à¤Ń
Ġn epal
Ġà¥§à¥¯à¥« à¥ª
ä¸ Ģ
åĨ Ĩ
Ġweb site
unicip ality
t en
w are
à¤® à¤¸à¤ķ
Ġà¤¬ à¤¨à¤®
Ġà¤ĸ à¤µà¤°à¤ķ
Ġà¤ħà¤¸ à¤Ļ
à¤®à¤¨ à¤µà¤®
Ġà¤Ĩà¤Ĺ à¤¨à¤®
Ġà¤°à¤® à¤Ŀ
Ġà¤ĸà¤¬à¤° à¤ªà¤¤
Ġà¤Ĩà¤¸ à¤¯
Ġd ie
ĠÂ £
Ġre s
à¤¯à¤ľà¤¨ à¤¹à¤°
ĠPost ed
A P
l er
l ish
Ġ ),
à¤° à¤ľà¤¨à¤®
à¤¬ à¤ªà¤Ľ
à¤¡ à¤°à¤¶
à¤¹à¤° à¤¬
à¤°à¤® à¤¬à¤¦
Ġà¤¶ à¤µà¤¦
à¤ĺ à¤µ
à¤²à¤ķ à¤¥
à¤ªà¤® à¤¤
à¤¤à¤ķ à¤¸à¤®
à¤ļà¤¨ à¤¤
à¤®à¤¨ à¤¹à¤°
Ġà¤¨à¤ľ à¤°à¤¬
à¤ıà¤® à¤ª
à¤¹à¤¤ à¤¸
at or
ĠÐ ľ
ĠN ESE
Ñĥ ÑĢ
Ġà¤Ĩà¤¸à¤¨ à¤¬
Ġà¥§à¥¯à¥« à¥Ń
ight s
Ġ200 9
ĠTh is
ĠComp lete
3 3
a ir
à¤ķ à¤ªà¤ķ
Ġà¤ķ à¤°à¤£à¤²
à¤¬ à¤µ
à¤§ à¤¶à¤®à¤¶
à¥Ĥ :
à¥Ĥ âĢĿ
à¤ĸ à¤¨à¤¬
à¤¹à¤° à¤¹à¤°
à¤¨à¤ķ à¤ķ
Ġà¤« à¤Ļ
Ġà¤ıà¤ķ à¤ªà¤Łà¤ķà¤®
Ġà¤Ĩà¤° à¤¨
à¤¶à¤¨ à¤µ
Ġà¤ªà¤¦ à¤¬à¤¹
Ġà¤µà¤¨ à¤ľà¤Ļ
à¥ĩà¤Ĥ ,âĢĻ
ĠA s
le y
ha s
Ġà¤¡à¤² à¤°à¤²
Ġà¤ļà¤°à¤® à¤¸
ĠR es
à¤ıà¤¨à¤ı à¤¨à¤²
Ġà¥¦à¥« à¥«
Ġà¤Ĩà¤ĩà¤¨ à¤¸à¤ķ
Ð½Ð¾ ÑģÑĤ
Ġà¤¨à¤¯à¤¨ à¤°
ĠVi ew
m à¤¹à¤°
r ist
à¥ĩ à¤¿
à¤¶ à¤£
à¤Ī à¤Ńà¤°
à¤Ń à¤ľ
à¤ĩ à¤¬à¤°à¤ķ
à¤¨à¤® à¤Ĺà¤°
Ġà¤®à¤¹ à¤Ĺ
à¤¸à¤² à¤µ
à¤·à¤ķ à¤¤
à¥© à¥¦à¥¦
Ġà¤ĵ à¤Ĺ
à¤°à¤Ń à¤²
à¤¯à¤Łà¤ķ à¤¬
à¥¨à¥¦ à¥§à¥«
à¤¤à¤°à¤ķ à¤²
Ġà¥¨à¥¯ à¥«
à¤Łà¤°à¤² à¤Ĺ
Ġ201 0
am a
ĠR ock
à¤ıà¤¨à¤ı à¤ļà¤¸
ien ce
8 5
p en
Ġ if
Ġ ________
à¤ķ à¤ľà¤¨
à¤² à¤°à¤¸
à¤¯ à¤¦à¤ķ
à¤¸ à¤²à¤²
Ġà¤¸ à¤°à¤®
Ġà¤¨ à¤¢
à¤§ à¤ľà¤¸
à¥Į ,âĢĻ
Ġà¤ĩ à¤¤à¤°
à¤·à¤ķ à¤¸à¤®
à¥Īà¤Ĥ à¤Ĥ
Ġà¤ħà¤® à¤°à¤ķ
à¤ĵ à¤¹
à¤ķà¤°à¤£ à¤¤à¤°
à¤ıà¤¨ à¤ıà¤®
ĠM ed
Ġs ub
à¥Ģ... âĢĻ
ot e
Ġà¤¦à¤®à¤ķ à¤²à¤ķ
Ġà¥§à¥¯à¥¬ à¥¯
Ġïģ ®
we et
Ġà¤¹à¤¤à¤ķ à¤¡
Ġà¤ķà¤ļà¤¨à¤ķ à¤µà¤²
b s
Ġà¤ ĳ
à¤¨ à¤Ŀ
à¤² à¤µà¤¨
à¤® à¤¸à¤°
Ġà¤¸ à¤²à¤²
à¤¦ à¤ľà¤¸
Ġà¤ķ à¤µà¤¯
Ġà¤¨ à¤ĺ
à¤· à¤¯à¤ª
Ġà¤¤ à¤¬à¤²
à¤¯à¤¸ à¤¨à¤²
à¤¯à¤¤ à¤¹à¤ķ
à¤¤à¤¨ à¤¸à¤®
Ġà¤®à¤¤ à¤¬
Ġà¥§à¥« à¥¨
à¤ıà¤¸ à¤ıà¤¸à¤¬
Ġà¤Ĺà¤£ à¤²
à¥ģà¤Ĥ à¤ģ
al th
à¤ĩà¤ķà¤² à¤¬
à¤£à¤ª à¤¦à¤ķ
ĠR o
ä¸ ĩ
-------- --------
Ġà¤¬à¤¬à¤°à¤® à¤¹à¤²à¤®
à§ ĩ
ĠCent er
h ar
m an
s on
à¤¨ à¤¥à¤²
Ġà¤¸ à¤ľà¤¨
à¤ĸ à¤²à¤Ĺ
à¤Ĺà¤° à¤¬
Ġà¤ķà¤® à¤²à¤²
Ġà¤¹à¤ľ à¤°
à¤§à¤¨ à¤¦
Ġà¥§à¥© à¥¯
Ġà¥§à¥ª à¥§
à¤¹à¤°à¤£ à¤²
Ġc ap
ac y
Ġà¤¨à¤Ĺ à¤ı
Ġà¤ĵà¤® à¤¨à¤ķ
oc u
à¥įà¤ģ à¥ĩ
Ġà¤Ńà¤°à¤£ à¤ª
z e
å Ľ
Ġ \'
à¥ĭ &
à¤¦ à¤ĸ
Ġà¤¹ à¤°à¤¹
à¤¶ à¤ľà¤¸
Ġà¤ľ à¤¯à¤¦
à¤Ī à¤ªà¤Ľ
à¤¡ à¤ĸ
Ġà¤ľà¤¨ à¤Ĩà¤¸
à¤¤à¤° à¤īà¤¨
à¤¤à¤° à¤Ĺà¤¯
Ġà¤Ŀ à¤²à¤®à¤²
à¤¯à¤° à¤¸à¤®
à¤°à¤¨ à¤ľ
à¤¨à¤¦ à¤¹
à¤®à¤£ à¤ª
à¥ĭ? âĢĻ
à¸ Ń
ãĥ ³
à¤ħà¤µà¤¸ à¤°à¤®
4 0
c ent
f ere
à¤¦ à¤°à¤µ
à¥Ī âĢĿ
à¤ľ à¤²à¤²
Ġà¤µ à¤°à¤£
à¤¥ à¤²à¤Ĺ
à¤ļ à¤°à¤¨
Ġà¤ĸ à¤¤à¤®
à¤ħ à¤®à¤°
à¤ļà¤¨ à¤ħà¤¨
à¥Įà¤ģ :
à¤¶à¤¨ à¤ª
à¤®à¤² à¤¤
Ġà¤Ńà¤° à¤¥
Ġb r
Ġà¤ªà¤ļ à¤¹à¤¤
à¤īà¤¥ à¤¹
Ġà¤Ŀà¤® à¤Ŀà¤®
à¤½à¤½ à¤½à¤½
Ġ>> >
Ġïĥ ĺ
erse ys
8 6
j a
o à¤¨
Ġ u
Ġà¤ħ à¤«à¤²
Ġà¤¹ à¤²à¤²
Ġà¤¹ à¤ķà¤¹à¤°
à¤ļ à¤¸à¤¹
à¤ĸ à¤¬à¤°à¤ķ
à¤°à¤® à¤¤
à¥¤ âĢĺ
à¤²à¤® à¤¸
Ġà¤¸à¤¨ à¤«
Ġà¤¹à¤° à¤°
à¤Łà¤® à¤¸
à¤¸à¤¦ à¤¸à¤®
à¤ıà¤¨ à¤¬
à¤·à¤¦ à¤¹à¤°
à¤ĩà¤Ł à¤¸
à¥¨à¥¦ à¥§à¥¯
à¤ĸà¤¨ à¤¨à¤ķ
à¤Ķ à¤ªà¤¨
à¤ıà¤² à¤ľ
ic es
ĠA RC
Ġà¤ıà¤¨à¤Ĩà¤°à¤ıà¤¨ à¤¹à¤°
Ġà¤°à¤ľ à¤¤à¤ª
Ġv i
Ġy ear
à¤ĭ à¤¤
Ġà¤ıà¤¸à¤Ī à¤Īà¤ķ
Ð°Ð» ÑĮ
H IVE
à¥ģ à¤¿
à¤Ł à¤ľ
Ġà¤¨ à¤¡
Ġà¤¬ à¤°à¤¹
Ġà¤µ à¤¨à¤¹à¤°
à¤ģ /
à¤¡ à¤Ńà¤°
à¤°à¤ķ à¤°à¤£à¤¬
Ġà¤¡ à¤Ĺà¤®à¤Ĺ
Ġà¤²à¤Ĺ à¤ĩà¤¨
à¤µà¤ķ à¤°à¤£
Ġà¤ıà¤¨ à¤ıà¤«
Ġà¥¦ à¥¦
Ġà¥¦ à¥©à¥¬
Ġà¤Ĩà¤Ī à¤¡à¤²à¤ķ
à¤ıà¤² à¤ı
Ġs k
Ġà¤ıà¤ļ à¤ª
Ġà¤ķà¤²à¤® à¤²
Ġà¤²à¤ĸà¤¨ à¤īà¤®
ah il
Ġà¤ħà¤µà¤¯à¤µ à¤¹à¤°
ĠARC HIVE
A D
v ent
à¤¾ à¥Ī,
à¤¨ à¤°à¤¬
à¤ª à¤Ńà¤¨
Ġà¤ĸ à¤¸à¤¹à¤°
Ġà¤ĺ à¤°à¤¤à¤°
Ġà¤§ à¤¨à¤¸
Ġà¤Ł à¤¹à¤²
à¤Ĺà¤® à¤¨à¤ķà¤°
Ġà¤ħà¤Ŀ à¤¸à¤®
à¤ľà¤² à¤¸à¤®
Ġà¤ľà¤® à¤°à¤ķà¤Ł
Ġà¤¦à¤¶ à¤°
à¤ıà¤¸ à¤ĩ
à¤¨à¤Ĺà¤° à¤µ
à¤¯à¤¯à¤¨ à¤¶
Ġà¤Ľà¤²à¤«à¤² à¤¹à¤°
Ġà¥§à¥ª à¥©
Ġà¥¨à¥Ń à¥ª
Ġà¤°à¤¨ à¤Ń
Ġà¤Ńà¤°à¤¤ à¤¬à¤¹
ĠM unicipality
ĠI s
Ġà¤ľà¤¨à¤¸à¤® à¤°
âĢį à¥ĭ
Ġà¥§à¥¯à¥ª à¥¨
Ġï »¿
ĠÐ² Ñĭ
Ġà¤ıà¤«à¤ı à¤®à¤®
ä¸ĩ åĨĨ
Ã ŀ
à¤¸ à¤«à¤°à¤ķ
Ġà¤° à¤ļà¤¯
Ġà¤ħ à¤Ĺà¤°
Ġà¤µ à¤ļà¤¨à¤²
à¤¬ à¤¦à¤²
Ġà¤¤ Ã¬
à¤¥ à¤ħà¤¨
à¤¶ à¤²à¤Ĺ
à¤°à¤µ à¤¹à¤¨à¤ķ
à¤¿, âĢĻ
à¤¨à¤µ à¤¹
à¤²à¤¤ à¤¹à¤°
à¤ľà¤¨à¤ķ à¤°
Ġà¤īà¤¡ à¤¨
Ġà¤Ńà¤µà¤¨ à¤Ń
Ġà¥¨à¥¬ à¥¦
à¤Ĺà¤¬ à¤®
à¤Łà¤°à¤® à¤§
ĠN et
Ð° Ñħ
ĠA ss
Ġd el
Ð½ Ð¾Ð¹
ion al
Ġà¤¡à¤² à¤°à¤¸
ĠH D
ĠG r
Ġà¥¯à¥¯ à¥¯
à¤¯à¤£à¤Ĺà¤¢ à¤¬
ist r
Ġà¤®à¤¹Ã¬ à¤µà¤ķ
ord er
à¤Ľà¤² à¤«à¤²
ĠUn ivers
4 5
Ġ _
à¤® à¤µà¤¹
à¥ģ âĢĶ
à¤¦ à¤²à¤Ĺ
Ġà¤¨ à¤¬à¤°
à¤ı à¤ĩà¤®
Ġà¤ħ à¤ªà¤ķ
Ġà¤µ à¤£
Ġà¤¤ à¤Ľ
à¤¶ à¤Ĺ
Ġà¤Ĩ à¤Ļà¤¬
Ġà¤ı à¤«à¤¬
à¤īà¤¨ à¤¤à¤°
à¤Łà¤° à¤ªà¤¨
Ġà¤īà¤¦ à¤¯à¤²
Ġà¤Ńà¤¯ à¤Ļ
à¤¹à¤ķ à¤µà¤°
à¤¨à¤µ à¤¹à¤°
Ġà¥§à¥¯ à¥§à¥Ń
à¤ľà¤¯ à¤ªà¤Ľ
Ġà¥§à¥Ń à¥¬
à¥ĩà¤ģ ,âĢĻ
ĠA P
ĠB r
aus e
4 8
m l
Ġ Ï
à¤² à¤Ĺà¤²
Ġà¤° à¤Ļà¤²
à¤¡ à¤¨à¤µ
Ġà¤ļ à¤ªà¤²
à¤ĺ à¤ľ
... à¥¤
à¤¨à¤¸ à¤ĸà¤£
à¤ıà¤¨ à¤ıà¤²
à¤µà¤¤ à¤¨à¤ķ
Ġà¥§à¥¯ à¥©
Ġà¤ħà¤¦ à¤®
Ġà¥§à¥¨ à¥ª
Ġà¥§à¥® à¥¨
Ġà¥§à¥Ń à¥ª
Ġà¤Ĩà¤Ī à¤¬
à¥¨à¥¦ à¥¬à¥ª
al a
ĠÐ ł
ĠC ont
Ġà¤¬à¤¹à¤¸ à¤ªà¤Ľ
ĠD ar
Ġà¥«à¥§ à¥¨
à¤¾à¥Ī âĢĮ
Ġà¥§à¥¯à¥¬ à¥ª
lo ck
Ġ4 5
I A
I P
l a
s er
à¥į "
Ġà¤° à¤¥à¤²
Ġà¤Ĺà¤° à¤°
Ġà¤Ľ à¤°à¤ª
Ġà¤² à¤Łà¤°à¤®
Ġà¤°à¤¹ à¤¨à¤¸à¤¹
à¤µà¤¸ à¤°
à¤Ĺà¤° à¤¸
à¤ĩà¤¨ à¤«
Ġà¤Ŀ à¤µ
à¤¸à¤¦ à¤Ń
à¤¹à¤¨ à¤Ĺà¤°
Ġà¤¨à¤ª à¤¸
Ġà¥§à¥ª à¥¨
Ġà¥§à¥® à¥©
Ġ! '
à¤¯à¤Łà¤ķ à¤¸
Ġà¤¹à¤² à¤¸à¤®
Ð° ÐµÑĤ
Ġà¤µà¤¢ à¤¨
em b
d o
u x
à¤² à¤ĸà¤°
à¥ģ |
à¤¸ à¤ı
à¤¸ à¤µà¤¸
Ġà¤¸ à¤²à¤¬à¤²
à¤Ī à¤¸à¤°
à¤£ à¤®à¤¨
à¤®à¤ķ à¤¨
Ġà¤¬à¤¸ à¤°
à¥ª à¥¦à¥¦
à¤ķà¤ķ à¤ķ
Ġà¤¨à¤Ĺà¤°à¤ª à¤²
Ġà¤¦à¤² à¤µ
à¤·à¤¯ à¤¸à¤®
Ġà¥§à¥Ń à¥Ń
Ġà¤²à¤¡ à¤¨
Ġà¤®à¤¦ à¤¨à¤²
à¤Ĺà¤®à¤¨ à¤¬
Ġà¤¨à¤Ńà¤ı à¤¤
à¤¤à¤¸ à¤Ļ
à¤ªà¤Ł à¤ªà¤ķ
Ð¸ Ñħ
Ð¸ Ð·
Ġc ol
ĠD ur
ĠH imal
Â« à¥ĩ
ap er
Ġv ar
Ġà¥¦à¥« à¥Ń
Ø§ Ø±
Ġà¥§à¥¯à¥« à¥¬
à¹ ī
K habar
h i
l in
à¤¦ à¤Ńà¤¨
Ġà¤° à¤¸à¤ķ
à¤ľ à¤Ĺà¤¤
à¤Ń à¤²à¤ª
Ġà¤ıà¤ķ à¤¹
à¤ŀ à¤¸à¤¹
Ġà¤īà¤¦ à¤¯à¤®
Ġà¥® à¥«à¥¦
à¤²à¤Ĺ à¤ĩà¤¨
Ġà¤¸à¤Ļ à¤Ĺ
Ġà¤¸à¤¤ à¤¹à¤ķ
Ġà¤¸à¤¡à¤ķ à¤ħà¤¨
à¤ľà¤¦ à¤£
Ġà¤ıà¤² à¤¡
Ġà¤¬à¤ķ à¤ªà¤¤
ãģ ĭ
Ġà¤°à¤¹à¤° à¤ķ
ul ar
Ġà¤ıà¤®à¤ı à¤¡à¤¬
rip t
C T
c i
d ate
à¥į ',
à¤° à¤Ĺà¤®à¤¨à¤ķ
à¤¨ à¤ħà¤Ĺ
à¤² à¤·
à¤® à¤¸à¤²
Ġà¥ ł
Ġà¤¨ à¤µà¤µ
à¤ľ à¤°à¤¹à¤°
à¤¥ à¤ķà¤®
Ġà¤Ĩ oà¤¨
Ġà¤¸à¤® à¤¬
à¤ľà¤¨ à¤¨
Ġà¤ľà¤¨ à¤¹à¤°
à¤¤à¤° à¤¸à¤°à¤ķ
à¥Įà¤Ĥ à¤ģ,
à¤ħ à¤Ľ
à¥įà¥¤ "
Ġà¤ħà¤µ à¤Ĺ
à¤¸à¤° à¤¸à¤®
Ġà¥©à¥¦ à¥¨
à¥ĩà¤Ĥ à¤ģ
Ġà¥¨à¥¨ à¥¨
à¤°à¤ĸ à¤¬à¤°
ĠS E
ĠP ol
à¥ĭ... âĢĻ
ang e
ire ct
wit ter
ĠFeb ru
3 1
C ontinue
O L
æ Ŀ
à¤ķ à¤¡à¤®
à¥ģ ;
Ġà¤¤ à¤¬à¤®
Ġà¤Ĩ à¤¦à¤¨à¤ª
Ġà¤ľ à¤¯à¤¸à¤µ
à¤Ĥ âĢĻ
à¤Ī à¤ľà¤¸
à¤¡ à¤°à¤µ
à¤¡ à¤®à¤²
Ġà¤ªà¤° à¤¸à¤®
à¤ħ à¤£
à¤¾à¤Ĥ à¤Ĥ
à¥įà¥¤ &
à¤Ĩ à¤ı
à¤Ĩ à¤¦à¤°
à¤ļà¤® à¤§
Ġà¤Ńà¤Ī à¤¦
Ġà¤Ĺà¤ł à¤¨à¤¸
Ġà¤Ĩà¤Ī à¤®
an i
ĠS u
Ð½ Ð¾Ð³Ð¾
ĠI S
el s
Ñĥ Ð´
Ġ6 0
Ġcom ment
oh n
Ġà¤ħà¤¨à¤ķ à¤¨
' à¥¤
Î ¿
à¤ķ à¤¤à¤ķ
à¤ķ à¤«à¤°
Ġà¤ķ à¤Ń
Ġà¤Ľ à¤¤à¤¬
à¤¶ à¤²à¤²
à¤Ĥ -
à¤ļ à¤ħà¤¨
à¤ļ à¤ĺà¤°
à¤Ļ à¤Ľ
Ġà¤ľà¤¨ à¤¸à¤®à¤ķ
à¤Ĺà¤¤ à¤°à¤¤
Ġà¤ĸà¤° à¤ĸà¤ľ
à¤ķà¤¨ à¤¸à¤®
Ġà¤ĺà¤Ł à¤¦
Ġà¤Ľà¤²à¤«à¤² à¤¸à¤®
in n
à¤Ĺà¤ł à¤¨à¤¸
ĠÐ ŀ
Ġt ime
à¤Ĭ à¤ķ
Ġà¤Ĺà¤ı à¤Ľ
un ity
Ġà¤ľà¤Ĺà¤¤ à¤ª
ec ial
", "
) âĢĶ
à¤¤ à¤Ĺà¤¢
à¤¯ à¤Ńà¤°
Ġà¤ķ à¤²à¤ķà¤²
Ġà¤Ĩ à¤¶à¤¨
à¤Ī à¤¥à¤°
Ġà¤ħà¤¨ à¤¶à¤¨à¤²
à¥įà¥¤ [
Ġà¤Ĩà¤° à¤§à¤¨
à¤Łà¤² à¤°à¤²
Ġà¤ķà¤ª à¤Ł
à¤ıà¤® à¤ĵà¤¯
à¤ĩà¤Ł à¤¹
Ġà¥¨à¥§ à¥«
Ġà¥¨à¥§ à¥®
à¤Ĺà¤²à¤¬ à¤ľ
à¤ıà¤² à¤Ł
Ġm on
Ð¾ Ñĩ
à¤ĩà¤¬ à¤²à¤²
à¤ĩà¤Ń à¤°à¤ķ
Ġà¤¨à¤Ĺ à¤¦à¤ķ
Ġà¤ķà¤¦ à¤®à¤¬
à¤ĭ à¤£
äº Ĩ
p or
p ro
Ġ x
à¤¨ à¤ı
à¤ķ à¤ķà¤°
Ġà¤ª à¤²à¤ķ
à¤¦ à¤¶à¤ķ
à¤µ à¤Ĺà¤¤
Ġà¤® à¤²à¤²
à¤ľ à¤¤à¤°
Ġà¤µ à¤¡à¤²
à¤Ī à¤¨à¤¬
Ġà¤ı à¤¸à¤°
Ġà¤īà¤ª à¤®à¤¨
à¤ĩà¤¨ à¤¸à¤®
à¤²à¤¯ à¤Ĺà¤¤
Ġà¤¹à¤° à¤ª
à¤ĵ à¤Ń
Ġà¤«à¤° à¤µà¤°
Ġà¥§à¥¯ à¥¨à¥¦
à¤ıà¤¸ à¤ıà¤ķ
Ġà¥¦ à¥§à¥Ń
Ġà¤¤à¤² à¤¦
ĠS ystem
Ġà¤ĺà¤¨ à¤ĺ
Ġd r
Ġà¤®à¤ķ à¤¹
Ġre g
Ġà¤Ńà¤°à¤® à¤Ĺ
à¸ ĩ
Ġ0 8
mand u
G O
g an
k t
u ro
é Ģ
Ġà¤ª à¤²à¤²
à¤¹ à¤¬à¤¹
à¤¹ à¤¸à¤¹
à¤ª à¤²à¤¬
à¤Ł à¤Ļ
à¤ģ ...
Ġà¤ľ à¤¯à¤ľ
à¤« à¤¸à¤®
Ġà¤ı à¤¨à¤ķ
à¤ªà¤° à¤¦
Ġà¤²à¤Ĺ à¤¨à¤Ĺ
à¤¬à¤° à¤ª
Ġà¤ħà¤® à¤°à¤¬à¤¹
Ġà¤®à¤¤ à¤ħà¤¨
Ġà¤ħà¤« à¤°à¤¹à¤°
Ġà¥§à¥ª à¥¯
à¤·à¤§ à¤°à¤¤
ĠC ol
Ġà¥«à¥« à¥«
Ġà¤¤à¤¬ à¤°à¤²
Ġb ut
Ġà¥®à¥® à¥¦
Ø§ ÛĮ
ht tp
Ã© s
ĠFebru ary
Å Ĥ
Ø ©
à¤¨ à¤ĩ
à¤¨ à¤¯à¤¬
à¤¤ à¤¸à¤°
à¤¸ à¤°à¤ª
Ġà¤ķ à¤¹à¤°
Ġà¤¬ à¤°à¤¬à¤°
à¤§ à¤ľà¤¯à¤¨
à¤ģ )
Ġà¤Ĩ à¤Īà¤¨
Ġà¤ľ à¤²à¤¸à¤®
à¤ļ à¤ķà¤°
Ġà¤ī à¤§à¤®
à¤ĩ à¤«à¤®
Ġà¤ı à¤®à¤¨
à¤°à¤¤ à¤µà¤°
Ġà¤ıà¤ķ à¤¥
à¤°à¤² à¤²
à¤°à¤² à¤¯à¤ķ
à¤µà¤ķ à¤°à¤²
Ġà¤ħà¤® à¤°à¤¤
à¤Ĺà¤® à¤¬
Ġà¤Ĩà¤® à¤¹à¤¡
Ġà¤Ĺà¤£ à¤®
Ġà¤Ĺà¤ł à¤ľ
Ġà¤«à¤² à¤¹à¤°
Ġà¥¨à¥¯ à¥®
Ġl es
Ġà¤Ĺà¤Ī à¤¸à¤ķ
Ġthe ir
Ġà¤ľà¤¯à¤¨ à¤¨
os e
ist s
ant s
Ġà¤ıà¤ħ à¤°à¤ķ
à¹ Ģ
Ġà¤ľà¤¨à¤Ĺ à¤£à¤¤
æĹ ¥
æĺ ¯
c ess
d ing
Ë Ī
Î ±
Ð Ĳ
å Ĭ
Ġ el
à¥į (
à¤¨ à¤¨à¤ķ
à¤¸ à¤°à¤¹à¤ķ
à¥Ī !
Ġà¤¬ à¤Łà¤®
Ġà¤¤ à¤ķà¤¸
à¤ļ à¤²à¤¸
à¤¸à¤® à¤Ĺ
à¤²à¤® à¤Ł
Ġà¤®à¤¨ à¤¦
Ġà¤ķà¤® à¤²à¤¸
à¤²à¤¨ à¤Ń
Ġà¤Ĩà¤° à¤Ĩà¤°
Ġà¤ħà¤µ à¤ļ
à¥ĩà¥¤ âĢĿ
à¤°à¤£à¤® à¤§
re en
Ġà¥¨à¥© à¥¨
Ġà¤¬à¤Ĺ à¤°à¤ķ
Ġà¤Ĺà¤¹ à¤Ńà¤°
Ġs ec
ĠB ible
Ġf l
Ġf r
Ġà¤ħà¤ľ à¤¯à¤®
il y
à¤¾à¥Īà¤Ĥ à¥¤
Ġà¥§à¥¯à¥¬ à¥©
ous e
Ġà¤¬à¤ĸ à¤¤à¤®
ach ar
Ġacc ess
Ġche ap
àµ į
T E
u res
Ã ¨
à¥ĭ .....
à¤¤ à¤µà¤°
à¤¸ à¤¶à¤¸
Ġà¤¸ à¤īà¤²
à¤¹ à¤Ńà¤¨
Ġà¤ķ à¤ªà¤²
à¤¬ à¤¸à¤²
Ġà¤Ľ à¤ļà¤²
à¤ī à¤¸à¤¬
à¥ĥ à¤¿
à¤°à¤£ à¤¨
Ġà¤§ à¤Ļ
à¤°à¤¹ à¤£à¤®
à¤¤à¤ķ à¤£
Ġà¤ĺà¤° à¤¨à¤ľ
Ġà¤«à¤° à¤«
Ġà¤Ĩà¤¦ à¤®
Ġà¤¨à¤¹ à¤¸
Ġà¥§à¥¯ à¥¨
à¤µà¤ª à¤¦
Ġà¥¨à¥ª à¥§
à¤ıà¤² à¤ª
en e
Ġà¥©à¥© à¥ª
Ġà¤ĵà¤Ń à¤°à¤²
Ġà¤ļà¤°à¤£ à¤¸à¤®
Ġà¤Ńà¤ĩ à¤ķà¤¨
à¥ĩ- âĢĻ
à¤ªà¤¨à¤² à¤Ĺ
os s
Ġà¤Ĺà¤Ĺà¤¨ à¤ļ
iz e
Ġà¤¨à¤ħ à¤Ł
à¤¹à¤¹ à¤¹à¤¹
rou p
h o
t a
w ard
y r
É Ļ
Ġ Ø§Ø
à¤¸ à¤ĸà¤°
à¤¹ à¤Ļà¤ķ
à¤ı à¤¥
Ġà¤µ à¤§à¤¶
Ġà¤Ĩ à¤¸à¤ķ
à¤Ń à¤ľà¤¨
à¤ĸ à¤Ĺà¤¨
à¤ī à¤ªà¤Ľ
à¥Į ...
à¤ªà¤° à¤°
Ġà¤ıà¤ķ à¤¤à¤¨
Ġà¤ķà¤° à¤¹à¤°
à¤ħ à¤®à¤²
Ġà¤Ŀ à¤¸à¤Ļ
Ġà¤ĵ à¤ĸà¤°à¤ķ
à¤¨à¤¨ à¤Ĺà¤°à¤ķ
Ġà¤¨à¤® à¤ľ
à¤¤à¤¬ à¤¦
ĠP ahil
ĠM H
id ent
Ġ.... ...
Ġà¤ľà¤¯à¤ľ à¤¯à¤ķ
3 6
4 9
A B
n ess
è Ģ
é ĩ
Ġ Ñħ
à¤¨ à¤§à¤¨
à¤ķ à¤ĸ
à¤¹ à¤£à¤²
Ġà¤ķ à¤ªà¤°
Ġà¤° à¤«à¤¤
Ġà¤° à¤Ĺà¤¡
à¤Ł à¤ļà¤¨
Ġà¤¨ à¤ķà¤®
à¤¶ à¤®à¤²
à¤£ à¤ĺ
à¤£ à¤Ńà¤¨
Ġà¤ļ à¤¹à¤ķ
Ġà¤ı à¤¡à¤²
Ġà¤ı à¤ıà¤¨à¤ı
à¥¦ à¥Ńà¥¦
à¤ħ à¤¨à¤®
à¤®à¤ķ à¤ķ
Ġà¤®à¤² à¤Ļ
à¤ıà¤¸ à¤Īà¤Ī
Ġà¥§à¥¬ à¥¦à¥¦
à¤ĸà¤ķ à¤·
à¥¨à¥¦ à¥¬à¥¯
Ð¸ Ñģ
ay an
Ġà¤ķà¤¦à¤° à¤ªà¤¤
Ġ0 7
201 7
Ġà¤Ŀà¤ķ à¤Ŀà¤ķ
ob ile
ĠJan u
o Post
p ublic
à¤¤ à¤ĺ
à¤¸ à¤¯à¤®
à¤¹ à¤Łà¤ķ
à¤¦ à¤Ļ
à¤¬ à¤ķà¤°
à¤¶ à¤ªà¤¤
Ġà¤ľ à¤Ĺà¤²
à¤Ī à¤ıà¤«à¤ı
à¤ĸ à¤¤à¤ķ
Ġà¤ªà¤° à¤«
à¤ªà¤° à¤¹à¤°
à¤°à¤¹ à¤ªà¤Ľ
à¤¾, ...
à¤µà¤¨ à¤¬à¤¹
à¤Ĩ à¤°à¤ľ
Ġà¤°à¤¹à¤¨ à¤¸à¤ķ
à¤¹à¤® à¤§
Ġ- &
Ġà¤ĸà¤¨ à¤ľ
à¤Ĺà¤¢ à¤ķ
al ly
à¤ªà¤Ł à¤ªà¤®
Ġs ch
Ġs ex
ĠH ack
ĠF l
Ġà¤Ĩà¤īà¤Ł à¤¸
à¤ıà¤ļ à¤ĵ
à¤¯à¤£à¤Ĺà¤¢ à¤ķ
ut e
ĠPahil oPost
n ow
å º
Ġ ed
à¤® à¤¦à¤ķ
à¤® à¤°à¤£à¤ķ
à¤µ à¤īà¤ªà¤ª
à¤Ł à¤ĩà¤¨
à¤¬ à¤Ļ
à¤§ à¤¨à¤®à¤¨
Ġà¤Ľ à¤ľà¤¨
à¤¶ à¤¯à¤²
Ġà¤² à¤¦
à¤¹à¤° à¤£à¤®
âĢ ²
Ġà¤¥ à¤¸
Ġà¤ĺ à¤°à¤¬à¤¹
Ġà¤ĩ à¤¦à¤ķ
à¤ļà¤¨ à¤µ
Ġà¤ªà¤ķ à¤µ
Ġà¤ħà¤µ à¤¦
Ġà¤¬à¤¹ à¤¸à¤¹à¤°
Ġà¤ıà¤® à¤Ĩà¤Ī
Ġà¥§à¥¯ à¥§
Ġà¤ıà¤¨ à¤Ĩà¤Īà¤¬
Ġà¤Ńà¤Ī à¤°à¤¹à¤¨
à¤°à¤¸à¤® à¤£
ĠC o
Ð¸ Ðº
à¤¼ à¥ģ
Ġb u
am ent
ĠâĢĻ âĢĻ
Ġà¤²à¤¹ à¤¡à¤®
ĠJ ohn
à¤Ńà¤ªà¤¤ à¤¨à¤²
Ġà¤Ĩà¤Ļ à¤Ľ
ĠRe g
ĠDec ember
= "
G C
S c
f in
m en
Ø ¹
å Ń
à¤¿ Â¥
à¤¸ à¤¬à¤²
Ġà¤¬ à¤¶
à¤· à¤Ŀ
à¤Ń à¤ıà¤°
à¥Į .
Ġà¤ªà¤° à¤¯
Ġà¤§ à¤¨à¤¨
à¤Ŀ à¤Łà¤¬
à¤°à¤¸ à¤¤
à¤ķà¤² à¤¨à¤²
Ġà¤ĩ à¤²à¤®
Ġà¤ĵ à¤Ńà¤²
Ġà¤¢ à¤²à¤®
Ġà¤ıà¤® à¤µ
Ġà¤«à¤° à¤«à¤°
Ġà¤Ĳ à¤¡
Ġà¥§à¥« à¥ª
à¤°à¤ľ à¤Ļ
in i
Ġà¥¨à¥© à¥©
Ġà¤Ĺà¤¨ à¤Ĺà¤¨
Ġa ct
Ġf e
Ġo ver
Ġà¤ķà¤ļ à¤¹à¤°
Ġà¤°à¤¹à¤° à¤®
Ñĥ Ñİ
ĠU p
Ġà¤«à¤¨ à¤«à¤¨
ov er
Ġà¤¡à¤Łà¤ķà¤® à¤®
à¦ °
Ġag o
à¹Ģ à¸
l s
Ø ´
à¤° à¤Ĺà¤®à¤¨
à¤° à¤Ĩà¤²
à¤¦ à¤¯à¤µ
Ġà¤ķ à¤Łà¤°
à¤Ľ à¤Ł
à¤ĸ à¤Ĺ
à¤°à¤¤ à¤ªà¤°à¤¸
à¤Ļ à¤ĺ
à¤ªà¤® à¤§
à¥ĩ, âĢĿ
à¤ķà¤° à¤¨
à¥Įà¤ģ )
âĢĿ à¥¤
Ġà¤Ńà¤ĩà¤°à¤¹ à¤ķ
Ġà¤§à¤¨ à¤¤
à¤¸à¤µ à¤¬
Ġà¤ĸà¤¸ à¤ĸà¤¸
Ġl ink
Ġà¤Ĩà¤¹ à¤µ
it er
à¤µà¤°à¤² à¤Ĺ
ĠD is
il m
Ġà¤ķà¤¦ à¤®à¤®
ĠW ord
ĠV ersion
à¥¦à¥¬ à¥¯
Ð°Ð ³
Ġà¤µà¤ļà¤¨ à¤¬à¤¦
oc ial
ĠÐ¸ Ð½
ear ch
3 4
3 7
8 0
B C
å Į
Ġ er
à¤¾ âĢį
à¤¿ Â«
à¤µ à¤§à¤¨
à¤§ à¤²à¤Ĺ
Ġà¤Ľ à¤łà¤²
Ġà¤ľ à¤¶
à¤ĩ à¤ıà¤°
à¤Ļ à¤ªà¤Ľ
Ġà¤ķà¤° à¤ª
à¤Łà¤¨ à¤ªà¤Ľ
Ġà¤ªà¤¦ à¤®à¤°
Ġà¤ĩà¤¨ à¤ª
Ġà¤ªà¤Łà¤ķ à¤Ńà¤¨
à¤µà¤°à¤£ à¤¸
à¤¤à¤°à¤£ à¤¬
à¤ıà¤¸ à¤ıà¤¸
Ġà¤ıà¤¨ à¤Ĩà¤ĩà¤¬
Ġà¥¨à¥« à¥«
à¤¯à¤Łà¤¨ à¤¬
Ġà¤¤à¤® à¤ĺ
ĠW ind
à¤Īà¤¨à¤² à¤ķ
Ġà¤ķà¤¨à¤ķ à¤®à¤£
Ġat t
Ġà¤ıà¤¸à¤ĩ à¤ĩ
velop ment
I M
R L
à¤° à¤¯à¤ķ
à¥Ģ âĢľ
Ġà¤ķ à¤¦à¤ķ
Ġà¤Ĺ à¤Ĺà¤¨à¤²
Ġà¤¬ à¤°à¤®
Ġà¤¬ à¤ĺ
Ġà¤µ à¤¨à¤®à¤¨
Ġà¤µ à¤ļà¤¨à¤ķ
à¤§ à¤µà¤¨
Ġà¤ľ à¤¨à¤²
Ġà¤¸à¤® à¤Ń
à¤°à¤® à¤ĸ
Ġà¤ĸ à¤²à¤ķ
Ġà¤¯à¤¸ à¤ħà¤°
à¤ªà¤¨ à¤ªà¤Ľ
Ġà¤ĩ à¤°à¤«
à¤Ĩ à¤ķà¤°
à¤¤à¤µ à¤°à¤£
Ġà¤¨à¤ª à¤ļ
on es
à¤Łà¤¬à¤² à¤ª
à¤ķà¤¬ à¤¡
Ġà¤ıà¤ª à¤¬
Ġà¤ıà¤ª à¤¹à¤°
à¤¯à¤Ł à¤ķà¤®
ĠH ot
à¤¤à¤ķà¤® à¤§
Ġà¤ªà¤Łà¤ķà¤ªà¤Łà¤ķ à¤ķ
à¤Ńà¤°à¤¤ à¤ª
ÐµÐ½ Ð¸Ðµ
ĠØ ¯
Ġà¤Ľà¤°à¤ª à¤·
d er
ä ¹
å ¸
æ ī
à¤¤ à¤¶à¤¤
Ġà¤ķ à¤ļà¤ķ
à¤ı à¤Ĩà¤Īà¤ľ
Ġà¤Ń à¤Łà¤°
Ġà¤¦ à¤ľ
à¤ī à¤ĺà¤°à¤®
âĢ ¢
à¤« à¤£
Ġà¤ı à¤²à¤¨
à¤°à¤¤ à¤Ńà¤°
Ġà¤ľà¤¨ à¤ªà¤¦
à¤²à¤ķ à¤ª
à¤ļà¤¨ à¤¦
à¥¬ à¥¦à¥¦
Ġà¤ĸà¤° à¤¨
Ġà¤ĺà¤° à¤Łà¤¹à¤°
Ġà¤ħà¤ª à¤¸
à¤°à¤®à¤£ à¤¸
Ġà¤§à¤¨ à¤ŀ
Ġà¤ıà¤¸ à¤¸
Ġà¥§à¥ª à¥¬
re at
à¤Ĺà¤®à¤¨ à¤ªà¤Ľ
à¤¤à¤¹ à¤Łà¤²
Ġà¤°à¤£ à¤Ń
à¤®à¤¨à¤Ĺà¤° à¤¸
ann el
ĠQ u
Ġà¤Ľà¤²à¤ķ à¤ªà¤Ł
f l
i ous
l ung
t d
Ġ `
Ġ Ä
à¤° à¤¶à¤ķ
à¤® à¤¶à¤®à¤¶
à¤¹ à¤²à¤²
à¤¬ à¤Ń
à¤§ à¤Ļ
à¤¶ à¤Ĺà¤¤
à¤ļ à¤£
à¤¡ à¤Ľ
à¤ĸ à¤ķà¤¸
à¥Į )
Ġà¤¥ à¤®à¤¨
Ġà¤ĸ à¤²à¤ª
à¤¯à¤ķ à¤¦
Ġà¤ĺ à¤¤à¤²
Ġà¤¬à¤¨ à¤¬
à¤¯à¤¸ à¤ªà¤Łà¤ķ
à¤ĩà¤¨ à¤¦
Ġà¤ªà¤ķ à¤¡à¤®
à¤®à¤² à¤ª
Ġà¤ĺà¤° à¤ĸ
Ġà¤Ĩà¤ĩ à¤ĵà¤¸
à¤°à¤ª à¤Ļ
à¤ıà¤¸ à¤ĵ
ĠM y
Ġà¤ħà¤ľ à¤¯à¤²
ed er
Ġà¤²à¤¨ à¤Ł
ur al
Ġà¤ıà¤ļ à¤Ĩà¤°
à¸ ±
Ġà¤¦à¤®à¤¨ à¤¨
Ġà¥§à¥¯à¥« à¥§
ãĥ »
uc ation
äº º
iss ion
ÑĩÐµ ÑģÐº
I ON
M AND
w o
Ġà¤Ń à¤¯à¤®
Ġà¤Ĩ à¤ªà¤¨
Ġà¤Ĩ à¤¦à¤¨
à¤ĩ à¤¬à¤ķ
Ġà¤« à¤¸à¤²
Ġà¤ıà¤ķ à¤¤à¤²
à¤¯à¤¤ à¤¹à¤®
... )
Ġà¥ª à¥¦à¥¦à¥¦
à¤¤à¤² à¤ª
à¤·à¤® à¤¯
Ġà¥¯ à¥«à¥¦
à¤ķà¤ª à¤Łà¤ķ
Ġà¤¸à¤¤ à¤¬
Ġà¥§à¥Ń à¥§
ĠÐ µ
ĠÐ Ķ
st ru
Ġb l
Ġà¤®à¤¦à¤¨ à¤ª
à¸ ¡
Ġà¤²à¤ĸ à¤¤à¤°
à¤°à¤ĺ à¤£
Ġpro v
Ġpro te
Ġà¤ľà¤®à¤ĺ à¤Łà¤ķ
ĠJanu ary
C S
b log
c ol
g en
n ect
å ·
à¤¾ |
à¤° à¤¢
à¥ĩ &
à¤¯ à¤«
Ġà¤¸ à¤Ŀ
à¤¬ à¤ĩà¤®
Ġà¤Ĩ Ã
à¤£ à¤¶à¤®à¤¶
à¤Ľ à¤°à¤®
à¤īà¤¨ à¤Ń
à¤īà¤¨ à¤ªà¤°
à¤°à¤¤ à¤ľà¤¸
à¤Ļ à¤®à¤¤
à¤ŀ à¤µà¤²
Ġà¤ķà¤® à¤²à¤¬à¤¹
à¤®à¤¤ à¤¸
à¤Ĺà¤² à¤¹à¤°
Ġà¤¦à¤² à¤¦à¤²
Ġà¤¹à¤¸ à¤¨à¤²
à¤Ńà¤µ à¤¨à¤®
Ġà¥§à¥ª à¥Ń
Ġà¥§à¥Ń à¥®
à¥¨à¥¦ à¥Ńà¥¬
Ġà¤¨à¤µ à¤Ĺ
ic t
à¤²à¤¨à¤² à¤Ĺ
Ġd et
ÐµÐ ·
Ġâ Ļ
iz ation
ĠÐ´ Ð»Ñı
Ġà¤ĸà¤µ à¤°à¤¦
Ġund er
Ġà¤¬à¤¬à¤°à¤®à¤¹à¤² à¤¸
MAND U
5 5
R O
a ur
l p
Ù Ĥ
å į
Ĥ ¬
à¤Ĺ à¤Ńà¤°
Ġà¤¬ à¤°à¤ķ
Ġà¤Ĺà¤° à¤¨
Ġà¤ľ à¤¯à¤®
à¤ĩ à¤·
Ġà¤ļ à¤ļ
à¤¯à¤ķ à¤¸à¤®
à¤ªà¤° à¤¯
à¤°à¤¹ à¤ª
à¤Ŀ à¤¨à¤²
Ġà¤¬à¤¢ à¤µ
à¤ķà¤² à¤¹à¤°
à¤·à¤£ à¤¸à¤¹
... âĢĿ
à¤Ĩ à¤Ļ
à¤¯à¤² à¤¹à¤°
Ġà¤Ĩà¤ľ à¤ªà¤°
à¤ķà¤°à¤£ à¤¦
à¤¡à¤² à¤°
Ġà¥§à¥¯ à¥Ń
à¤¦à¤® à¤¯
Ġà¥¨à¥¨ à¥Ń
à¤Ĺà¤¢ à¤®
Ġà¥¨à¥¬ à¥¯
à¤¸à¤¨à¤² à¤Ĺ
ĠÐ ¶
à¤ªà¤¸ à¤²à¤®
ĠI N
Ġà¥ªà¥© à¥«
Ġthe y
Ġwh ich
ĠTe chn
ĠIm age
à¥ĩ âĢĺ
à¤² à¤Ľ
Ġà¥ ĥ
à¤Ĺ à¤Ľ
Ġà¤° à¤¤à¤¨à¤ª
à¥Ī à¥Īà¤Ĥ
à¤Ł à¤ľà¤¤
Ġà¤¬ à¤ķà¤¸
à¤ľ à¤ĺ
à¤§ à¤ľ
à¤ļ à¤ªà¤Ľ
à¤Ī à¤ľà¤°
à¤¡ à¤¹à¤²
Ġà¤ĸ à¤°à¤²
à¤¨à¤® à¤¹
à¤µà¤° à¤«
à¤²à¤¨ à¤¤à¤°
à¤·à¤£ à¤¦
à¤Ĩ à¤¨à¤ķ
à¤°à¤¶ à¤®
à¤ĥ ,
Ġà¤¦à¤² à¤¹à¤¨
à¤ķà¤¨ à¤ªà¤Ľ
à¤µà¤¦ à¤¤
in o
à¤ľà¤ª à¤¥
à¤ĩà¤ķà¤² à¤¯
à¤ªà¤Ł à¤¨à¤®
à¤¯à¤ľà¤¨ à¤¸
Ġà¤ĸà¤¬ à¤°à¤¬
Ð¸ÑĤ ÑĮ
ath mandu
3 2
W S
m ore
t y
à¤° à¤°à¤£
à¤¤ à¤·
à¤¸ à¤ıà¤¸
Ġà¤¸ à¤¸à¤ķ
Ġà¤¸ à¤ĺà¤°
Ġà¤® à¤°à¤£à¤ķ
à¤ļ à¤ļ
à¤Ī à¤ªà¤¨
à¥Ĥ (
à¤Ń à¤¹
à¤ī à¤«
à¥Į à¥¤âĢĻ
Ġà¤ı à¤ļà¤¬
Ġà¤ħà¤¨ à¤ªà¤¢
à¤°à¤£ à¤¬à¤¸
à¤°à¤¹ à¤¸
à¤¯à¤¤ à¤¹à¤°
à¤°à¤¦ à¤¶à¤¨
Ġà¤ł à¤Ĺà¤¹à¤°
à¤µà¤° à¤Ń
Ġà¤Ĺà¤¤ à¤¹à¤ª
à¤¶à¤ķ à¤¸à¤®
Ġà¤¬à¤² à¤¶
Ġà¤¬à¤² à¤°à¤²
Ġà¤¦à¤² à¤ľ
à¤Īà¤ķ à¤²à¤ķ
Ġà¤ıà¤¨ à¤¡
à¤ķà¤¸ à¤¤
Ġà¤Ĩà¤ł à¤ªà¤¹à¤°
Ġà¥¨à¥¯ à¥¬
om en
Ġà¤ĩà¤® à¤°à¤ľ
ĠP art
ĠT O
Ðµ ÑģÑĤ
à¤¨à¤Ń à¤°à¤®
el d
à¤°à¤ľà¤¨ à¤¸
Ġà¤¨à¤Ĺ à¤ıà¤°
Ġà¤Ĩà¤īà¤Ł à¤¡
à¥Ģ' ,
Ñĥ ÑĤ
ct ed
Ġà¤¶à¤°à¤¦ à¤²
ãĤ Ĭ
oc al
ÐµÐ½ ÑĤ
Ġà¤ħà¤®à¤² à¤¦
à¤Ĳ à¤¶
Ġbe en
à¤ķà¤ħ à¤ªà¤®
à¤¨à¤ħ à¤Łà¤°
( "
4 4
C h
b al
p ress
Ò ¯
Ú ¯
à¤¨ à¤°à¤ķà¤°
à¥ĭ à¤¾
Ġà¤¸ à¤ĸà¤°
à¤ª à¤Łà¤®
à¤µ à¤ļà¤°
Ġà¤Ĺ à¤ĩà¤¯
Ġà¤Ń à¤¬à¤¨
à¤· à¤ħà¤¨
Ġà¤ľ à¤«
Ġà¤¯à¤¸ à¤ħà¤Ĺ
Ġà¤®à¤¨ à¤µ
à¤µà¤¨ à¤ªà¤¦
Ġà¤ĵ à¤łà¤ķ
à¤Ĺà¤² à¤Ń
à¤¤à¤² à¤¹à¤°à¤ķ
Ġà¤Ĳ à¤¯
Ġà¤¹à¤¤ à¤ªà¤¤
Ġ| --
Ġà¤ľà¤® à¤²à¤®
à¥¨à¥¦ à¥§à¥¨
à¥¨à¥¦ à¥§à¥ª
ĠT uls
à¤Łà¤µà¤² à¤¸
Ġa ut
Ġà¤ıà¤« à¤Ł
Ġà¤ıà¤ķà¤ªà¤Łà¤ķ à¤ķ
Ġà¤°à¤¹à¤° à¤¹à¤°
à¤¯à¤£à¤Ĺà¤¢ à¤®
IN G
åĲ į
4 7
y m
} }
è ¡
à¤ķ à¤¨à¤¸
à¤¿ Â·
à¤¸ à¤¤à¤²
à¤ª à¤¥à¤®
Ġà¤Ĺ à¤«à¤ķ
Ġà¤® à¤µ
Ġà¤ħ à¤¡à¤ķ
à¤· à¤ļà¤¨
à¤¥ à¤°à¤®
à¤¡ à¤µà¤°
Ġà¤¡ à¤¯
à¤Ŀ à¤īà¤¨
Ġà¤ķà¤® à¤²à¤µ
à¤ħ à¤ªà¤²
à¤²à¤² à¤²
à¤Łà¤° à¤ľà¤¸
à¤¦à¤¨ à¤ªà¤¤
Ġà¤¸à¤®à¤¯ à¤ħà¤Ĺ
Ġà¤Ĩà¤® à¤¹à¤¡à¤¤
à¤ĩà¤² à¤Łà¤¹à¤°
Ġà¤ľà¤Ĺ à¤ľà¤Ĺ
Ġà¤ıà¤¨ à¤ĵà¤¸
à¤ľà¤¯ à¤¬
in ation
à¥Ģ) âĢĵ
Ġà¤ħà¤ĸ à¤µ
Ġà¤ľà¤¨à¤ķ à¤ķ
ĠC r
Ġa v
à¤°à¤Ļ à¤¬
Ġà¤ĵà¤Ń à¤²à¤®
Ġo ther
à¤ıà¤ļ à¤ª
ãĤ Ĥ
Ġà¤Łà¤® à¤Ł
ĠâĨ ĳ
iz ed
T ube
à¤¨ à¤Ĺà¤łà¤¨
à¤¦ à¤µà¤¸à¤¹
Ġà¤ķ à¤¡à¤°
Ġà¤° à¤¬à¤°à¤ķ
à¤Ł à¤ªà¤°
Ġà¤® à¤°à¤ķ
à¤¶ à¤°à¤®
à¤ĸ à¤°à¤¬
à¤ī à¤Łà¤ķ
à¤ĩ à¤Ńà¤ķ
à¤¯à¤ķ à¤Ĺ
à¤µà¤¸ à¤§
Ġà¤®à¤¹ à¤®à¤¦
Ġà¤ıà¤ķ à¤²à¤ķ
Ġà¤§ à¤°à¤®à¤ª
Ġà¤¤à¤° à¤¹à¤°
à¤¯à¤¤ à¤¤
à¤²à¤¨ à¤ľ
à¤Ĺà¤² à¤ªà¤¨
à¤§à¤¨ à¤Ĺà¤¢
Ġà¤¢ à¤¡
Ġà¤Ĩà¤ľ à¤®
Ġà¥¨à¥¦à¥Ń à¥Ń
Ġà¥§à¥¯ à¥©à¥¯
Ġà¥§à¥« à¥¯
à¤°à¤¤à¤ķ à¤¥
Ġà¥§à¥® à¥¦à¥¦
à¤·à¤§ à¤°à¤ķ
er o
Ġà¤ªà¤² à¤Ļ
ĠM edia
Ġd en
ĠB ank
ĠD es
Ġà¥ªà¥ª à¥§
Ġe b
ãĥ Ī
Ġà¥§à¥§à¥© à¥Ń
ĠRe d
à¤¡à¤°à¤¸ à¤Ł
I L
l ing
Ä Ļ
å ½
ì Ŀ
à¤¸ à¤ıà¤ª
à¤¦ à¤¯à¤¸
à¤µ à¤§à¤°
Ġà¤¨ à¤«à¤¸
à¤ı à¤°à¤ķ
à¤ı à¤¶à¤¨à¤²
à¤· à¤¸à¤ķ
Ġà¤¦ à¤°à¤¹à¤°
à¤ī à¤¡à¤²
à¤ĩ à¤Ĩà¤ıà¤ķ
à¤« à¤ª
Ġà¤ĸ à¤°à¤¦
Ġà¤« à¤²à¤®
à¤ªà¤¨ à¤¹
à¤²à¤¯ à¤¤à¤°
Ġà¤ªà¤Ľ à¤¯
à¤Ĺà¤ķ à¤µ
à¥® à¥¦à¥¦
à¤¹à¤ķ à¤¬
Ġà¤ªà¤¦ à¤§
Ġà¥¯ à¥¨à¥¦
Ġà¤ıà¤® à¤Ĩà¤°à¤Ĩà¤Ī
à¤²à¤¤ à¤¸à¤®à¤ķ
Ġà¤Ľà¤² à¤Ľ
à¤¯à¤£ à¤¬à¤¹
Ġà¥¨à¥® à¥©
à¤¡à¤¬ à¤¡
à¤Ĭ à¤²
à¤Ĭ à¤¦à¤²
ĠA ut
Ġà¤ıà¤¨à¤Ĩà¤° à¤Ł
ÑĢ Ð°Ð½
ĠF M
Ð°Ð ¶
our s
Ġ200 8
d iv
f e
f ul
k e
m à¤¦
y akhabar
à¤² à¤¸à¤°
à¤ª à¤Ļ
à¤¦ à¤®à¤ķ
à¤ı à¤ı
à¤ı à¤°à¤²
Ġà¤¦ à¤¹à¤®
à¤ļ à¤¯à¤²
à¤£ à¤ıà¤¶
à¤Ń à¤Ń
à¤ī à¤·
à¤°à¤® à¤¹
Ġà¤¶ à¤¦
Ġà¤¶ à¤®à¤¸
à¤¯à¤ķ à¤¥
à¤¢ à¤¨
à¤ĺ à¤°à¤¸
à¤¯à¤® à¤¨à¤®
à¤ĩà¤¨ à¤ª
à¤łà¤® à¤¡
Ġà¥¨à¥¦ à¥®
à¥ĭà¥¤ ...
Ġà¤īà¤¦ à¤¯à¤ķ
à¤®à¤¤ à¤µ
Ġà¥ª à¥§à¥¦
à¤ľà¤ķ à¤¸à¤®
Ġ? âĢĻ,
à¤¦à¤µ à¤¬
à¤ıà¤¸ à¤ıà¤²à¤¸
à¤ıà¤® à¤Ĩà¤°
Ġà¤Ī à¤¦
Ġà¤Ī à¤ľà¤°
an e
Ġà¤«à¤² à¤ª
al y
Ġà¤Ĩà¤ł à¤¦
Ġà¥¨à¥© à¥ª
à¤ĩà¤¡ à¤¬
à¤¤à¤°à¤® à¤¹
Ġà¥©à¥§ à¥¦
ĠC y
Ġà¤¨à¤Ĩ à¤ıà¤°
Ġp ol
Ġc o
Ġà¤Ľà¤ł à¤²à¤Ĺ
à¸ ¢
ãĤ ¹
ãĤ ī
ĠÃ Ĺ
Ġà¤ľà¤®à¤² à¤¸
ĠDur ation
! âĢĻ
% ,
h r
m it
p s
t ain
t ime
é ģ
à¥Ģ à¤¾
à¤ı à¤ªà¤¶
Ġà¤ħ à¤ıà¤ķ
Ġà¤¹ à¤ķà¤¬
à¤¬ à¤²à¤¬
à¤¡ à¤µà¤ķ
à¥¤ ,
Ġà¤ı à¤Ĩà¤°à¤Ł
à¥ĥ à¥ģ
à¤ħ à¤ŀ
à¤¦à¤¨ à¤ªà¤Ľ
à¤ıà¤¨ à¤ıà¤«
à¤ªà¤² à¤Ĺà¤¤
Ġà¤Ĳ à¤¨à¤¬
à¤°à¤ľ à¤¤
er a
âĢľ ,
ar b
Ġà¤¦à¤¸ à¤Ĺà¤ľ
ĠS ub
Ð° Ð»Ð¸
Ġà¤ļà¤°à¤£ à¤µà¤¦
ĠF acebook
Ġin fo
Ġà¤²à¤¸ à¤ıà¤¨
ut ion
ik a
Ġ0 6
ail y
ĠAd d
ĠIntern et
I I
T S
c ha
å ¥
ģ à¸
à¤ķ à¤ªà¤¤
à¤¸ à¤¯à¤¤
Ġà¤Ĺ à¤ķ
Ġà¤Ĺ à¤ŀ
à¤ľ à¤®à¤²
à¤· à¤°à¤¸
à¤§ à¤¸à¤¹
Ġà¤¤ à¤¶
à¤Ľ à¤²à¤Ĺ
Ġà¤ı à¤¨à¤°
à¤¸à¤® à¤ħà¤¨
Ġà¤Ł à¤²à¤ķ
Ġà¤¸à¤¹ à¤ĩà¤¨
Ġà¤Ĩà¤µ à¤¹
Ġà¤Ĩà¤ĩ à¤Ń
à¤¡à¤® à¤°
Ġà¥¨à¥« à¥§
al s
Ġà¥¨à¥¯ à¥¦
à¤Ĺà¤ł à¤¬à¤¨
ar ch
Ġà¤¸à¤¹à¤° à¤¬à¤ľ
it es
Ð° Ñİ
Ġà¤ıà¤¡ à¤µ
à¤µà¤ľ à¤¹à¤°
ur nt
à¥ĭ? âĢĿ
ãĤ Į
ÐµÐ ¿
Ġ9 0
ĠÐ¸ Ð·
ä¸ Ń
ĠBl ack
à¤°à¤Ĩ à¤µà¤¸
Ph one
P r
o e
~ ~
ç ľ
à¤¾ ......
à¥ĩ ....
à¤¦ à¤²à¤¬
Ġà¤¬ à¤·
Ġà¤Ń à¤°à¤¤à¤²
à¤· à¤°à¤ķà¤°
à¤¥ à¤ľ
Ġà¤² à¤¤à¤®
Ġà¤² à¤¯à¤²
à¤¡ à¤µà¤²
à¤Ń à¤µà¤ª
à¥Į /
à¤¢ à¤¯
Ġà¤¸à¤ķ à¤¨
Ġà¤¤à¤° à¤ĸà¤°
à¤Ŀ à¤¯
à¤ķà¤® à¤¬
Ġà¤īà¤¨ à¤¸
à¤µà¤¨ à¤Ĺà¤°
Ġà¤Ķ à¤ł
à¤Ĺà¤® à¤¯
à¤µà¤¤ à¤¬
à¤ĩà¤² à¤¸
Ġà¤ľà¤² à¤ļà¤°
ĠÐ ¢
à¤ıà¤« à¤Ł
à¤ıà¤« à¤ıà¤²
Ġà¤ħà¤µà¤¶ à¤°
Ġà¤¨à¤Ĺ à¤ª
!! !!
um i
Ġà¥¦à¥ª à¥¯
Ġà¤ıà¤¸à¤Ī à¤Īà¤®
ĠÑĢ Ð°Ð·
à¤°m à¤®
ĠUnivers ity
m à¤ķ
Ù ģ
à ª
å ¼
Ġ ÑĦ
à¤² à¤ĺà¤°
à¤® à¤¯à¤®
à¤¯ à¤µà¤²
à¤¯ à¤¦à¤°
à¤¯ à¤²à¤¯à¤¹à¤°
Ġà¤¬ à¤¨à¤²
Ġà¤µ à¤°à¤ķ
Ġà¤µ à¤¤à¤¨
à¤ıà¤ķ à¤ķ
à¤¶ à¤®à¤ķ
Ġà¤ľ à¤¯à¤¬
à¤ī à¤Łà¤°
à¤¯à¤ķ à¤®à¤¨
Ġà¤« à¤²à¤²
à¤²à¤ķ à¤¨
Ġà¤¸à¤ķ à¤¸à¤ª
Ġà¤¡ à¤¨à¤¹à¤°
Ġà¤ĩ à¤¡à¤²
à¤ªà¤ķ à¤¸
Ġà¤ĺà¤° à¤Ľ
à¤ķà¤ª à¤Ł
à¤ľà¤® à¤¹à¤²
à¤²à¤¤ à¤ª
Ġà¤Ĺà¤ł à¤¨à¤²
Ġà¤¹à¤² à¤Ń
Ġà¤¤à¤² à¤¤à¤²
à¤¡à¤° à¤°
à¥¨à¥¦ à¥§à¥©
Ġà¤Ĺà¤ı à¤Ľà¤¨
à¤Ĺà¤¸ à¤Ĺ
Ġà¤°à¤Ļ à¤¹à¤°
à¤°à¤¨à¤Ĺà¤° à¤¸
à¥ĩ? âĢĻ
Ġit s
**** ****
Ġà¤®à¤°à¤® à¤¸à¤²
ĠNR N
ĠTuls ipur
O C
b ack
y outube
ç Ľ
è ¯
Ġ }
Ġà¤ ½
à¤° à¤°à¤ķ
à¤¨ à¤·
à¤® à¤¯à¤²
à¤® à¤µà¤²
à¤Ł à¤Ĺà¤°
à¤Ł à¤¬à¤¹
à¤¬ à¤Īà¤¸
à¤§ à¤Ńà¤¨
à¤¥ à¤¸à¤¹
Ġà¤Ĩ à¤Ļà¤ķ
Ġà¤ľ à¤²à¤²
à¤ļ à¤¤à¤²
à¤ļ à¤²à¤Ĺ
à¤Ī à¤ıà¤®
à¤£ à¤¶
Ġà¤¯ à¤ļ
à¤¯à¤ķ à¤°à¤£à¤ķ
à¤Ļ à¤¥
Ġà¤ĺ à¤®à¤¨
Ġà¤¸à¤¹ à¤ħà¤Ń
à¤°à¤¸ à¤Ĺ
à¤®à¤ķ à¤µ
à¤·à¤£ à¤ª
Ġ? )
à¤ĵ à¤ıà¤¨à¤ıà¤¸
à¤°à¤¨ à¤¹à¤°
à¤²à¤¤ à¤¦
à¤Īà¤² à¤Ł
Ġà¥§à¥® à¥¬
à¥¨à¥¦ à¥§à¥§
ad i
ĠÐ Ĳ
ĠN e
ĠA cc
am es
Ġà¤Ĺà¤¹à¤¨ à¤¤
ud io
ĠCh ina
à¥¤à¥¤ à¥¤
Ð¾ÑĢ Ð¼
Ġà¤ľà¤¯à¤¨à¤Ĺà¤° à¤¦
ĠTr ans
Ã¼ r
Ġad d
ĠâĢĭ âĢĭ
ĠYou Tube
a is
c he
Ã ª
Ä ħ
Ð ŀ
Ġ um
à¥ĭ ]
Ġà¤¸ à¤ĩ
Ġà¤ª à¤¡à¤ķ
à¤µ à¤Ńà¤ķ
à¤µ à¤¶à¤®à¤¶
à¤Ł à¤ļà¤¨à¤²
Ġà¤¬ à¤°à¤£
à¤¥ à¤ªà¤¨
Ġà¤ľ à¤µà¤ķ
Ġà¤ľ à¤Ĺà¤ķ
Ġà¤² à¤ķà¤°
à¤ļ à¤°à¤£à¤®
à¤Ń à¤¶
à¤ĩ à¤¬à¤°à¤®
ĠâĢĺ ...
à¤°à¤¹à¤° à¤£
à¤ħ à¤«à¤°
à¤°à¤¬ à¤¸
Ġà¤Ĩà¤° à¤Ł
à¤Ĩ à¤¨à¤²
à¤°à¤§ à¤°
Ġà¤ĵ à¤°à¤²
Ġà¤¢ à¤ķà¤¨
Ġà¤Ĩà¤ĩ à¤ıà¤¸à¤ķ
à¤¤à¤°à¤£ à¤ªà¤Ľ
Ġà¥§à¥¯ à¥©à¥®
Ġà¤¦à¤¶ à¤¹à¤°
Ġà¤Ĺà¤£ à¤ª
à¤ıà¤® à¤Ĩà¤°à¤²
à¤µà¤¶ à¤°
Ġm od
Ġà¤ļà¤¢ à¤¨
ĠA mer
ĠM o
Ġa ss
Ġo ak
et ter
à¤ĩà¤ı à¤ħà¤¨
à¤¨à¤¯à¤¨ à¤ªà¤¤
Ġv ideo
ip s
== ==
l ess
t t
Ġ à¸
à¤¾ à¥ħ
à¤¨ à¤µà¤¨
à¤¨ à¤°à¤ª
Ġà¤¸ à¤¥
Ġà¤ķ à¤²à¤¬
Ġà¤² à¤ľà¤®
à¤ļ à¤Ĺà¤µ
à¤£ à¤ľà¤¸
à¤£ à¤ħà¤¨
à¤ĸ à¤¯
à¤ī à¤ªà¤¦
à¤ĩ à¤§
à¥¤ (
à¤Ļ à¤ķà¤°
à¤²à¤ķ à¤¸à¤®
Ġà¤¸à¤¹ à¤²
à¥ĭà¥¤ &
à¤¸à¤¨ à¤¸à¤¹
Ġà¤¬à¤ľ à¤°
à¤¤à¤® à¤°
Ġà¤ĵ à¤ªà¤¨à¤ķ
à¤¬à¤° à¤Ńà¤¨
à¤®à¤® à¤¯
Ġ, âĢĻ
Ġà¤¸à¤µ à¤Ńà¤¨
Ġà¤§à¤¨ à¤ªà¤¤
Ġà¥¨à¥§ à¥¬
Ġà¤Ĩà¤Ī à¤ĵà¤¸
Ġà¥¨à¥¨ à¥§
Ġà¥¨à¥ª à¥¯
à¤Ĺà¤¢ à¤¨
à¥¨à¥¦ à¥¨à¥¦
à¤Ķ à¤¦
à¤Łà¤¬à¤² à¤ħà¤¨
à¤ļà¤¨à¤ª à¤¶
à¤¶à¤¹à¤° à¤ķ
à¤²à¤Ń à¤²
ĠC lick
Ġf ree
as on
ot o
ir m
Ġ3 6
à¤¤à¤Ń à¤£
rou gh
åľ ¨
ateg ory
ĠWind ows
Ġà¤ķà¤ļà¤ķ à¤ļ
è ¦
à¤¨ à¤Ĺà¤¨
à¤¨ à¤ıà¤ľ
à¤¿ ï¿½
à¤¸ à¤Ńà¤°
à¤¹ à¤¤à¤²
à¤µ à¤ľà¤ķ
Ġà¤Ĺ à¤Ł
à¤ı à¤¹à¤°
Ġà¤¹ à¤ķà¤¸
à¤· à¤¯à¤µ
Ġà¤Ĩ à¤Ŀ
à¤« à¤²à¤²
Ġà¤¸à¤¹ à¤¬
Ġ( âĢĺ
Ġ( ?)
Ġà¤¨à¤Ĺà¤° à¤¹à¤°
à¥ĭ, âĢľ
à¤ĵ à¤ªà¤¨
à¤¸à¤¦ à¤®à¤§
à¤ıà¤¨ à¤Ĩà¤Ī
Ġà¤°à¤ķà¤® à¤¹à¤°
à¤īà¤¦ à¤¯à¤ª
Ġà¥¨à¥¨ à¥ª
Ġà¥¨à¥ª à¥ª
Ġà¤®à¤¦ à¤¤à¤®
à¤¯à¤¯ à¤°à¤¤
Ġt Ã©
Ġp res
ir d
Ġ3 5
à¤ĩà¤ı à¤Ľ
ĠW orld
à¤¨à¤Ĺ à¤ıà¤ķ
à¥¦à¥¬ à¥®
Ġà¥§à¥¯à¥« à¥¨
ĠÃ ł
ïĢ ł
Ġà¤¬à¤°à¤¹ à¤¥à¤µ
T weet
e le
g y
y l
à¤¤ à¤§
Ġà¤¸ à¤¤à¤ķ
Ġà¤ª à¤²à¤®
Ġà¤Ĺ à¤ĩà¤°
Ġà¤¹ à¤°à¤¤
à¤§ à¤°à¤¤
Ġà¤² à¤µà¤ľ
à¤ļ à¤¤à¤¤
à¤ĸ à¤¶
à¤ī à¤§
à¤ī à¤¸à¤¹à¤°
âĢ º
Ġà¤§ à¤°à¤®
à¤²à¤ķ à¤µ
à¤ŀ à¤¦
à¤Ŀ à¤¤
à¤Łà¤ķ à¤¬
à¤µà¤¨ à¤ľà¤²
à¤®à¤¤ à¤¨
à¤®à¤¨ à¤Ĺà¤°à¤ķ
Ġà¤ĵ à¤ĸà¤²
à¤ĵ à¤ĸà¤²à¤¢
Ġ- '
Ġà¤ľà¤¨à¤¸ à¤ĸ
Ġà¤ĸà¤¸ à¤Ĩà¤°
Ġà¤¨à¤¬ à¤¦à¤²
à¤µà¤Ń à¤°à¤®
à¥Ģ. )
à¥ĭà¤Ĥ ,
ag lung
à¤Ĩà¤ĩ à¤ıà¤®à¤Ī
Ġà¥¯à¥© à¥Ń
os h
ä¸ į
à¤¨à¤µà¤² à¤ªà¤°
Ġwh o
" )
) ?
b y
g et
k s
l ink
à¤ķ à¤ªà¤®
à¤² à¤°à¤¬
à¤¤ à¤¤à¤²
à¤ª à¤Łà¤²
Ġà¤ķ à¤łà¤®
Ġà¤ķ à¤¬à¤°
à¥Ī ..
Ġà¤ľ à¤¦
Ġà¤ľ à¤ŀ
Ġà¤² à¤¹à¤¸
à¤Ī à¤°à¤¸
à¤Ń à¤¸à¤®
à¤ī à¤§à¤¨à¤ķ
à¤ł à¤µ
à¤ĺ à¤ĸ
Ġà¤ĩ à¤ĸ
à¤ħ à¤¸à¤®
à¤¤à¤ķ à¤¸
à¤µà¤¨ à¤¨
à¤Łà¤¨ à¤¦
Ġà¤ĵ à¤®à¤°
à¤ĥ -
à¤°à¤Ń à¤¦
à¤µà¤® à¤£
à¤ķà¤ª à¤²
Ġà¤¸à¤¡à¤ķ à¤Ľ
Ġà¤Ĩà¤¤ à¤¤
à¤ıà¤® à¤ıà¤²
Ġà¥©à¥¦ à¥«
Ġà¤¹à¤² à¤ļ
Ġà¤µà¤¸ à¤ª
à¤ªà¤£ à¤µ
à¤®à¤ª à¤Ł
Ġà¤Ńà¤µà¤¨ à¤¸
à¤Ĺà¤®à¤¨ à¤¸à¤®
at o
à¤Ĩà¤Ī à¤ıà¤ķ
Ġà¤¸à¤¸ à¤«
Ġà¤ıà¤² à¤ıà¤²à¤¬
à¤¤à¤¸ à¤¯
à¤īà¤ª à¤²à¤¬
ĠT imes
ãģ £
ĠL a
Ġà¤²à¤¹à¤° à¤²
Ġe ver
ĠÐ¿ Ð¾Ð´
Ġà¤Ĺà¤¡à¤¬ à¤¢
Ġj ust
ast er
ĠÐ¿ÑĢ Ð¸
Ġus e
Ġà¤®à¤°à¤¹ à¤ł
L C
O W
f ter
g o
m s
m à¤®
r ap
Î ¹
Ð ł
à¤° à¤°à¤²
à¤¿ âĢĶ
Ġà¤ķ à¤ķà¤ª
Ġà¤° à¤ª
Ġà¤° à¤Ľ
Ġà¤° à¤¡à¤²
Ġà¤° à¤ľà¤¹à¤°
à¤Ł à¤®à¤¨
à¤ľ à¤¬à¤²
à¤¬ à¤¸à¤¨
Ġà¤¤ ÅĴ
Ġà¤¤ ÅĴà¤µ
à¤Ī à¤Ľ
à¤ĩ à¤ľà¤¸
Ġà¤ı à¤¨à¤²
Ġà¤ı à¤Ĩà¤°
à¤¾à¤ģ à¥Īà¤Ĥ
à¤¨à¤ķ à¤®
à¤°à¤£ à¤Ńà¤¨
à¤ľà¤¨ à¤ľà¤¤
à¤ĺ à¤ħà¤¨
Ġà¤ħà¤° à¤°
à¤µà¤¨ à¤¤
à¤·à¤£ à¤²à¤Ĺ
à¤¤à¤¨ à¤¹
à¤®à¤¨ à¤¨
Ġà¤ĵ à¤¦
à¤§à¤¨ à¤Ń
Ġà¤ıà¤® à¤Ń
Ġà¤®à¤¤ à¤µ
Ġà¤¦à¤² à¤ª
Ġà¥¦ à¥Ńà¥¬
Ġà¤ľà¤¬ à¤ľà¤ķ
à¥¨à¥¦ à¥§à¥¦
ĠS o
Ġà¤ľà¤¨à¤ª à¤¥
à¤¹à¤¦ à¤¸à¤®
à¤®à¤¯ à¤¦à¤°
Ġà¤°à¤Ĺà¤¤ à¤¬
Ġà¤ıà¤¡ à¤µà¤°
as y
Ġà¤®à¤¦à¤¨ à¤¸
Ġin ter
à¸ µ
Ġe in
Ġg u
Ñı ÑĤ
ist ry
oc i
ht ml
à¥¨à¥¦à¥¦ à¥Ń
Ġ8 0
Ġà¤ľà¤¨à¤®à¤¤à¤¸ à¤Ļ
4 6
P ro
U N
a id
w ay
è ¨
à¤¨ à¤°à¤¹
à¤¿ à¥¤âĢĻ
à¥ĩ âĢĿ,
à¤¦ à¤ķà¤®
à¤¦ à¤¤à¤ķ
Ġà¥¤ à¥ģ
à¤ľ à¤¬à¤°
Ġà¤ľ à¤¨à¤²à¤¹à¤°
à¤ļ à¤¯à¤®
à¤ĸ à¤²à¤¤
à¤ĸ à¤²à¤¨à¤ķ
à¤ĩ à¤®à¤¤
à¤ł à¤ľ
Ġà¤ľà¤¨ à¤¦à¤¬
Ġà¤¡ à¤«
à¥Įà¤Ĥ ',
à¤²à¤¨ à¤µ
à¤Łà¤° à¤¨à¤²
Ġà¤¸à¤° à¤Ĺà¤®
Ġà¤Ĩà¤µ à¤ľ
Ġà¤ĺà¤° à¤ĺà¤¡
Ġà¤Ĩà¤® à¤¦
Ġà¥§à¥® à¥Ńà¥§
re ak
Ġà¥¨à¥¨ à¥®
on line
Ġà¥¨à¥¬ à¥ª
or th
Ġà¤ľà¤¡ à¤¤
à¥ĩâĢĵ âĢľ
he l
Ġà¤¡à¤² à¤°à¤¬à¤°
âĢĮ âĢĮ
Ġb el
ag ement
à¥§à¥« à¥¦
ur s
Ġn e
ut es
Ġ0 1
Ġà¥§à¥¯à¥ª à¥¬
ĠÑģ Ð²
ĠØ ª
ĠØ ³
ĠCh rist
à¤¡à¤°à¤¸ à¤Łà¤¸
ĠPro f
ĠHe ad
arg in
D S
l ass
m m
p ost
å ĩ
Ġ ra
Ġ ................
à¥į ..
à¤¿ ;
à¥Ģ à¥į
à¤ª à¤ªà¤¤
à¤¦ à¤¹à¤ķ
à¤µ à¤¯à¤ķà¤°
à¤ı à¤¬à¤²
à¤ľ à¤°à¤¬
à¤Ĥ à¥į
Ġà¤ı à¤Łà¤®
à¤°à¤¤ à¤¨
à¤°à¤¤ à¤Ń
à¤Ļ à¤Ĺà¤¤
Ġà¤¯à¤¸ à¤¤
à¤¯à¤® à¤¸à¤®
à¤Ĺà¤° à¤¨à¤²
à¥Įà¤Ĥ .
à¥§ à¥¦à¥¦à¥¦
à¤°à¤¬ à¤®
à¤°à¤¯ à¤¶à¤ķ
Ġà¤ļà¤² à¤¨à¤®
à¤¯à¤° à¤«
à¤ĸà¤° à¤¨
Ġà¤ªà¤¦ à¤ķà¤µ
à¤²à¤Ĺ à¤¡
Ġà¤ħà¤² à¤Ļ
Ġà¥§à¥¯ à¥¨à¥©
Ġà¥§à¥§ à¥¦à¥¦
Ġ: )
Ġà¥§à¥® à¥ª
Ġà¤ķà¤µ à¤ļ
in al
Ġà¥¨à¥§ à¥¯
à¤Ĩà¤Ī à¤ıà¤²
om b
ĠP M
ĠP er
Ġb est
am s
and ard
à¤¯à¤¯à¤¨à¤ķ à¤°
ĠV ideo
ĠÐ¿ ÐµÑĢ
ik i
Ġà¤Ĺà¤£à¤ªà¤¤ à¤¯
ri end
ĠĠ ĠĠ
ĠApp le
ky pe
Ġà¤°à¤ľà¤¤à¤ª à¤Łà¤®
Ġmon th
GC DP
ç »
Ġ **
à¤¾ âĢĿ,
à¤® à¤°à¤¨
Ġà¤¸ à¤¸à¤°
à¤ª à¤ł
à¤¦ à¤¹à¤®
à¤¦ à¤¯à¤¬
à¤µ à¤Īà¤ķ
Ġà¤¨ à¤īà¤¡
Ġà¤µ à¤µ
à¤ļ à¤ªà¤Łà¤ķ
à¤¡ à¤¨à¤¦
Ġà¤ī à¤¸à¤¸
à¤ī à¤ķà¤²
à¤ĩ à¤²à¤¨
Ġà¤¶ à¤µà¤¹à¤°
Ġà¤ĸ à¤µà¤°à¤²
Ġà¤ħà¤§ à¤µ
Ġà¤¡ à¤¨à¤ķ
Ġà¤®à¤¨ à¤Ĺà¤¢à¤¨
à¤¸à¤¨ à¤Ń
à¤ľà¤ķ à¤¸
Ġà¤ħà¤® à¤°à¤²
Ġà¤ªà¤¦ à¤¤
à¤²à¤Ĺ à¤Ńà¤Ĺ
Ġà¤ıà¤® à¤ıà¤²
Ġà¤Ĩà¤ĩ à¤ıà¤¸à¤²
à¥Īà¤ģ âĢĵ
à¤¨à¤ª à¤¶
Ġ: âĢĵ
à¤¸à¤¹à¤° à¤®
à¥ĩà¤Ĥ âĢĵ
Ġà¤ľà¤¬ à¤ľ
Ġà¤¶à¤¹à¤° à¤¸
ad y
Ġl ike
Ġt urnt
Ġà¤¸à¤¡à¤ķà¤® à¤§
à¤¯à¤Ł à¤ķà¤®à¤§
à¤ıà¤« à¤¡
à¸ ´
à¤ıà¤¨à¤ı à¤¨à¤ķ
iv er
ĠU N
Ġ5 00
Ġ0 2
ãĢ Į
Ð¼ Ð¸
à¤¡à¤°à¤¸ à¤Łà¤®
à¤¬à¤ĸ à¤¤à¤®
Ã¶ r
oll ow
Ġeb aglung
i ent
w n
Û ģ
ĥ ½
à¤° Tags
à¤² à¤ľà¤¨
à¥Ģ ;
à¤ª à¤¤à¤°
Ġà¤ķ à¤Łà¤¨
à¥Ī âĢĶ
à¤Ł à¤ħà¤ĺ
à¤ı à¤¯à¤¤
Ġà¤® à¤°à¤¨
Ġà¤Ń à¤®à¤°
à¤¡ à¤ªà¤¸
Ġà¤¶ à¤ĸ
Ġà¤¶ à¤°à¤¦à¤°
à¤ł à¤¸à¤²
à¤Ļ à¤Ńà¤¨
à¤¸à¤ķ à¤¸à¤¹
à¤ĺ à¤¨à¤®
à¤²à¤ķ à¤¬à¤¸
Ġà¤¡ à¤°à¤®
à¤ħ à¤°à¤²
à¤µà¤¨ à¤¹à¤°
à¤¸à¤¨ à¤ħà¤¨
Ġà¤Ŀ à¤¨à¤ķ
à¤ķà¤ķ à¤¸
Ġà¤ļà¤² à¤ħà¤ļà¤²
à¤µà¤² à¤¡
à¤Łà¤® à¤£
à¤ľà¤¸ à¤ľ
Ġà¥§à¥¯ à¥¨à¥ª
Ġà¥«à¥¦ à¥ª
Ġà¤Ī à¤Ļà¤²
Ġà¥§à¥® à¥Ń
à¤ļà¤² à¤¨à¤²
Ġà¥¦ à¥§à¥«
Ġà¤µà¤¨ à¤ľà¤¨
à¤Ĩà¤° à¤¡
Ġà¥¨à¥ª à¥«
Ġà¥¨à¥© à¥«
à¤®à¤£ à¤µ
ĠS ec
is p
Ġd u
ĠI P
Ġre l
un n
Ġà¤Ŀà¤² à¤Ŀà¤²
ot t
,âĢĿ âĢĵ
à¥ĭ- âĢĻ
ĠK athmandu
iv es
iv ing
ap an
Ġv is
ie f
Ġ0 4
ãĢ į
à¤®à¤Ĺà¤ł à¤µà¤¨
ĠFor um
du ct
lig umi
ĠtÃ© ligumi
M A
P ress
m y
v est
â Ī
Ħ à¸
à¤¨ à¤Ńà¤¯
à¤¯ à¤°à¤¹
Ġà¤ª à¤¯à¤°
à¤µ à¤Ĺà¤°
Ġà¤Ĺ à¤Īà¤¨
Ġà¤¬ à¤¯à¤°
à¤ľ à¤Ł
à¤§ à¤¸à¤°à¤ķ
à¤Ī à¤Ĺà¤°
à¤¡ à¤¸à¤ķ
à¤Ń à¤¨à¤ķ
à¤Ń à¤°à¤¸
Ġà¤Ńà¤¨ à¤¨
à¤¯à¤ķ à¤Ńà¤¨
à¤īà¤¨ à¤¯à¤¤
à¤¯à¤® à¤ª
à¤°à¤¹ à¤Ń
à¤°à¤¹ à¤£à¤²
à¤¤à¤° à¤ªà¤Ł
à¤¤à¤ķ à¤¹
à¤²à¤¯ à¤Ńà¤¨
à¤·à¤ķ à¤¸à¤¹
à¤ĩà¤°à¤¹ à¤¦
à¤Ĺà¤® à¤£
à¤ľà¤Ĺ à¤ľ
Ġà¥§à¥¯ à¥©à¥ª
Ġà¤Ĩà¤¶ à¤¯à¤²
Ġà¤¨à¤Ń à¤ĩà¤¦
Ġà¤ıà¤¸ à¤ľ
à¤¦à¤² à¤¸
à¥ĩà¥¤ [
à¤Īà¤² à¤¹à¤°
Ġà¤ħà¤« à¤°à¤ķ
à¤īà¤¦ à¤Ľà¤¨
Ġà¥§à¥® à¥§à¥ª
à¤²à¤¨à¤ķ à¤°
Ġà¤Ĩà¤Ī à¤°à¤¹à¤¨
Ġà¤ħà¤µà¤¸à¤° à¤¸à¤®
à¥¨à¥¦ à¥¬à¥¨
Ġà¥¨à¥¯ à¥©
à¤¨à¤¸à¤® à¤ķ
à¤¤à¤°à¤® à¤¨
à¤¤à¤µà¤¨ à¤¸
ĠS l
Ġà¤¨à¤Ńà¤ı à¤ľà¤¸
Ġà¤Ĺà¤ı à¤ľà¤¸
à¤²à¤Ń à¤°à¤ķ
ĠC ar
Ġà¤¨à¤ĸ à¤¸
ĠB h
Ġà¤°à¤Ļ à¤°
à¥Įà¤ģà¥¤ '
Ġà¤¦à¤®à¤ķ à¤¸
Ġh ow
ak h
lo bal
art ha
Ġà¤¸à¤¯à¤ķ à¤¡
Ð¾Ð² Ñĭ
Ġà¤²à¤ĸà¤¨ à¤Ĭ
ud e
ĠÙ Ĩ
ans ar
Ġal so
Ġpl ay
à¤Ĩà¤ī à¤Łà¤ķ
ount ry
ĠShare Tweet
v a
å ¯
å Ŀ
Ġ ë
à¤® à¤ªà¤Łà¤ķ
à¤¯ à¤µà¤¨
à¤¯ à¤¶à¤¨à¤ķ
à¤¸ à¤ħà¤ª
à¤ª à¤ħà¤ĺ
à¤µ à¤£à¤®
Ġà¤Ĺ à¤ľà¤°
Ġà¤Ń à¤ĩà¤¸
à¤ģ '
Ġà¤ľ à¤¯à¤µ
à¤ļ à¤²à¤¤
à¤ī à¤°à¤®
à¤ī à¤ĺ
à¤ī à¤¥à¤Ĺ
à¤ĩ à¤¸à¤¨
Ġà¤¶ à¤°à¤¤à¤¸
Ġà¤ıà¤ķ à¤¤à¤®
à¤²à¤® à¤ľ
Ġà¤ķà¤® à¤²à¤¨
Ġà¤ªà¤¹ à¤²à¤¬
à¤°à¤µ à¤§
Ġà¤ľà¤¸ à¤¦
Ġà¤Ĩà¤ľ à¤²
Ġà¤ıà¤® à¤«
à¤£à¤ķ à¤¦à¤ķ
Ġà¤®à¤¤ à¤¹à¤°
à¤£à¤¯ à¤Ĺà¤°
Ġ- âĢĺ
à¤ıà¤® à¤Ĩà¤Ī
Ġà¤Ī à¤ľà¤²
Ġà¥§à¥ª à¥¦à¥¦
Ġà¤ľà¤¹ à¤¦
Ġà¤ĭ à¤¦
Ġà¥§à¥Ń à¥¯
en ing
Ġl ife
st it
Ġ/ /
à¤¥à¤²à¤® à¤§
ĠS m
ĠS ep
à¥ĭâĢĻ âĢĵ
Ġp ar
Ġs ite
Ð½ Ð°
ĠB el
Ġà¤¤à¤¬ à¤°à¤¬
el f
ãģ Ĭ
Ġà¤ļà¤°à¤® à¤ªà¤¨
ĠK ang
Ġ3 2
Ġà¥Ńà¥© à¥Ń
Ġï Ģ
Ġwh en
ere d
ĠMH z
Ġprote cted
7 2
c ont
s k
å ¾
ç ī
Ġ à´
à¤² à¤¹à¤¨
à¤² à¤ļà¤®
à¤² à¤¡à¤ª
à¤® à¤¶à¤ķ
à¤® à¤ľà¤¨à¤®
à¤¸ à¤¤à¤¬
à¤¹ à¤¸à¤²
Ġà¤° à¤¥à¤®
à¤ľ à¤²à¤¬
à¤ľ à¤°à¤¨
Ġà¤µ à¤¦à¤¨
à¤¥ à¤°à¤²
Ġà¤ľ à¤¤à¤¨
Ġà¤ľ à¤¯à¤²
à¤ļ à¤¬à¤°
à¤Ľ à¤ł
à¥Ĥ à¤ĥ
à¤ĩ à¤ªà¤°à¤¬
à¥Į |
Ġà¤ĸ à¤¨à¤¨
à¤ªà¤¨ à¤°à¤¤
Ġà¤ķà¤® à¤Ńà¤¨
à¥įà¥¤ .
à¤¦à¤¨ à¤Ĺà¤°
à¤°à¤®à¤® à¤®
Ġà¤Ĳ à¤¨à¤¬à¤®
Ġà¥§à¥¯ à¥¦à¥¦
Ġà¤ıà¤¸ à¤Ł
à¤łà¤ķ à¤¦
à¤¥à¤² à¤Ń
à¤¯à¤¯à¤¨ à¤¸à¤®
à¤¯à¤¬ à¤®
à¥ĩà¤Ĥ âĢĻ
Ġà¤Ĩà¤Ī à¤ĵ
al t
à¤µà¤¨à¤ķ à¤¥
Ġà¤ľà¤¡ à¤¸
à¤¯à¤Ł à¤¨à¤²à¤Ĺ
ĠM ag
Ð¸ ÑĩÐµÑģÐº
ĠD ocu
Ġà¥©à¥® à¥¦
âĢĮ à¤¾
Ġb ack
ro id
ot s
Ġin t
em ail
us h
ĠW ith
Ġà¤Ķà¤¸à¤¤ à¤Ńà¤¨
ĠU RL
à¤¸à¤« à¤°à¤®
Ġà¤¦à¤²à¤® à¤§
Ġà¤¬à¤ĸ à¤¤à¤ķ
Ġex p
Ġà¤ħà¤®à¤¨ à¤ļà¤¯à¤¨
å¤ §
à¤¹à¤Ļà¤ķ à¤Ļ
9 8
P AL
m à¤¸
y n
à¤® à¤Ĺà¤¤
à¤¤ à¤¹à¤ķ
à¤µ à¤¬à¤¨
Ġà¤ķ à¤ĸà¤°
Ġà¤° à¤²
à¤Ł à¤°à¤¤
Ġà¤¬ à¤¯à¤²
à¤¬ à¤°à¤£à¤®
à¤· à¤¸à¤¹à¤°
Ġà¤Ľ à¤łà¤®
Ġà¤¦ à¤²à¤¬à¤²
à¤ģ âĢĿ
à¤°à¤ķ à¤¤
à¤ĩ à¤ıà¤¸
à¤°à¤® à¤²à¤Ĺ
Ġà¤ļ à¤¸à¤ķ
à¤ł à¤¨à¤²
à¤°à¤£ à¤¤à¤°
à¤ľà¤¨ à¤²à¤Ĺ
Ġà¤Ł à¤ªà¤¨
à¤ķà¤® à¤Ĺ
... âĢĻ,
Ġà¤ħà¤¹ à¤®à¤¤
Ġà¤Ķ à¤·à¤¤à¤®
Ġà¤Ĩà¤® à¤¸
Ġà¤ħà¤ª à¤¬
à¤ļà¤ķ à¤¸à¤®
à¤łà¤ķ à¤µ
Ġà¥¦ à¥ªà¥«
à¤ĩà¤® à¤¸à¤²
Ġà¤Ĩà¤ļ à¤°à¤£à¤²
Ġs er
Ġd ay
Ġd ownload
ĠB it
ÑĢ Ð°
Ġà¥©à¥ª à¥¦
Ġà¥«à¥¬ à¥«
ĠL ight
ĠG ener
iv a
ct or
ut er
Ġg o
âĢį âĢį
if t
Ð¾Ð² Ð°Ð½
à¤ħà¤« à¤Ĺ
Ġà¤Ĩà¤ĩà¤¡ à¤²à¤¬
Ġj erseys
Ġhe lp
æľ ī
ĠPro gram
14 0
Ð¾ÑĤ Ð¾ÑĢ
à¤ıà¤¸à¤ĩ à¤Ī
5 6
M P
Z MANDU
p ar
s ha
w ood
} .
æ Ķ
è §
Ġ Ã©
à¤¾ ï¿½...
à¤® à¤ªà¤ķ
à¤¸ à¤«à¤²
à¤¹ à¤ľà¤¨
Ġà¤¦ à¤¦
Ġà¤Ĩ à¤łà¤ķ
à¤ĸ à¤Ł
Ġà¤ĸ à¤ªà¤Ł
Ġà¤ħà¤¨ à¤ľ
Ġà¤ıà¤ķ à¤µà¤Ł
Ġà¤¸à¤¹ à¤®
Ġà¤īà¤ª à¤ľà¤²
à¤ķà¤® à¤¸
Ġà¥© à¥Ńà¥«
à¤¦à¤¨ à¤¦
à¤ķà¤°à¤£ à¤ħà¤¨
à¤¡à¤² à¤¦
à¤¤à¤°à¤£ à¤¸
à¤°à¤®à¤£ à¤ª
à¤°à¤®à¤£ à¤¸à¤®
à¥ĩà¥¤ '
Ġà¤Ĺà¤£ à¤¹à¤°
à¤µà¤¦ à¤¹à¤ķ
Ġà¥¦ à¥¦à¥¦
Ġà¤Ŀà¤¨ à¤Ŀà¤¨
à¥¨à¥¦ à¥¬à¥¬
Ġà¤¨à¤µ à¤²à¤ķ
à¤Ķ à¤ªà¤ļ
ĠS at
Ġà¤ıà¤« à¤µ
ĠB ar
à¥Įà¤ģà¥¤ "
as c
ig ital
Ġg et
à¦ ¨
ĠRe view
à¤£à¤Ĺ à¤Ļ
ĠÐ¾Ð± Ð»
ĠBI ZMANDU
T h
U L
Â ®
å ĵ
é Ŀ
à¤° à¤ĺà¤°
à¤® à¤¹à¤ķ
à¤¯ à¤°à¤¸à¤¹
à¤¹ à¤§
à¤¦ à¤¯à¤¤
à¤Ĺ à¤¥
à¥Ī ?
à¤ľ à¤Ĺà¤°
Ġà¤Ľ à¤Ńà¤¨
à¤ģ Ã·
Ġà¤ħà¤¨ à¤¦
Ġà¤®à¤¹ à¤ľ
Ġà¤ıà¤ķ à¤®à¤¨
Ġà¤¬à¤¨ à¤Ĺ
à¤²à¤ķ à¤¬à¤¹
à¤¯à¤® à¤Ń
à¤Ĺà¤° à¤¹à¤°
à¥Įà¤Ĥ ...
à¤ħ à¤¨à¤¨
à¤µà¤¨ à¤ªà¤Ľ
à¤µà¤¨ à¤ļà¤°
Ġà¤Ŀ à¤ŀ
à¤¤à¤® à¤®
Ġà¤īà¤¦ à¤¹
à¤®à¤² à¤¸
Ġ? !
Ġ? ,âĢĻ
Ġà¤īà¤² à¤Ļ
Ġà¤ıà¤¨ à¤ı
Ġà¤ıà¤¨ à¤ıà¤ļà¤ķ
à¤Ĩà¤° à¤ıà¤²
ĠÐ ĳ
it i
Ġà¤¦à¤® à¤¨à¤®
Ðµ Ñĩ
Ġc lick
Ġà¥©à¥Ń à¥¦
ĠL ove
us ic
Ġà¤²à¤¤ à¤ªà¤¤
à¤Ĩà¤ĩ à¤ĵà¤ıà¤®
ãĤ ¤
Ġ.... .....
ud d
à¤²à¤Ŀ à¤£
Ġwh at
Ġà¤ĵà¤ĸà¤° à¤ª
à¤Łà¤ªà¤Łà¤ķ à¤ķ
ĠDe velopment
R P
r ib
y d
å ¿
Ġ Ċ
à¤° à¤¯à¤®
à¤¿ âĢĮ
à¥ĩ à¥ģ
à¤² à¤£
à¥ģ Ã·
Ġà¤¸ à¤¨à¤²
à¤µ à¤Ĺà¤£
Ġà¤Ĺ à¤²à¤Ĺ
à¤¬ à¤¬à¤Ī
à¤§ à¤§
à¤ıà¤ķ à¤µà¤Ł
Ġà¤ľ à¤®à¤¨
à¤Ĥ )
à¤¡ à¤£
à¤Ń à¤²à¤²
Ġà¤ĸ à¤¯à¤°
Ġà¤ľà¤¨ à¤ħà¤¨
à¤¯à¤® à¤°
Ġà¤¹à¤ľ à¤°à¤¤
à¤ĵ à¤²à¤®
à¤ĸà¤° à¤ª
à¤µà¤® à¤¯
Ġà¤Ĩà¤ĩ à¤°à¤¨à¤ķ
à¤Łà¤² à¤µ
Ġà¤Ńà¤ĩà¤°à¤¹ à¤¦
Ġà¤ĩà¤¤ à¤°à¤ķ
Ġà¥¨à¥¨ à¥¬
à¤®à¤Ĺ à¤¨
âĢľ à¥ģ
à¤Ĩà¤Ī à¤ıà¤¨à¤ľ
Ġà¤¸à¤¹à¤° à¤¸
Ġm ay
Ġà¤ħà¤Ļ à¤Ĺ
ĠP ower
à¤¦à¤µà¤² à¤Ĺ
ic an
Ġs l
Ġw orld
Ġà¤¥à¤° à¤¥à¤°
à¤°à¤¨à¤Ĺà¤° à¤²
um b
ÐµÐ ¶
Ġâ ĸ
Ġà¤¡à¤Łà¤ķà¤® à¤¸
Ġï Ĥ
ĠOff ice
Ø§Ø ª
ĠPl an
ĠArt icle
à© Ģ
hak o
ĠHimal ayan
b ox
à¤° à¤Ĩà¤¨
à¤ķ à¤Ĩà¤īà¤Ł
à¤¯ à¤¨à¤®à¤¨
à¤¹ à¤¶
à¤µ à¤¯à¤¤
à¤Ł à¤ħà¤Ł
Ġà¤¬ à¤®à¤¬
à¤¬ à¤Īà¤²
Ġà¤¤ à¤®à¤¨
à¤¥ à¤¨à¤¬
à¤ļ à¤ĵà¤Ł
à¤Ń à¤ıà¤®
à¤ī à¤ī
à¤ĩ à¤ĵà¤ķ
Ġà¤ļ à¤Łà¤¨
à¤¯à¤ķ à¤ªà¤°
à¤°à¤£ à¤¤
à¤ĺ à¤°à¤¹à¤°
Ġà¤§ à¤°à¤£
Ġà¤§ à¤µà¤¨
Ġà¤Ł à¤¨à¤¸à¤®
à¤¯à¤¸ à¤¨à¤®
à¤Ŀ à¤µ
à¤Ŀ à¤«
à¥Įà¤Ĥ |
à¤ķà¤² à¤Ļ
à¤Łà¤ķ à¤¹
Ġà¤Ńà¤ı à¤ľà¤¤
à¤¡à¤ķ à¤¹à¤°
à¤ªà¤ķ à¤ª
Ġà¤¬à¤° à¤¨
à¤¯à¤° à¤«à¤ķ
Ġà¥§à¥¯ à¥©à¥©
à¤Ĺà¤¦ à¤°à¤¬
à¥ĩà¤ģ -
Ġà¤¶à¤¹à¤° à¤¬à¤ľ
ad er
Ġà¤¹à¤ķ à¤ħà¤¨
it a
ĠD ep
à¤ĩà¤« à¤Ł
à¥ĩ- '
Ð» Ñĥ
Ġh and
Ġà¥¯à¥® à¥ª
à¤§à¤¸ à¤¤à¤ķ
Ġà¤¸à¤¤à¤¹ à¤Ńà¤¨
Ġà¤¸à¤¡à¤ķà¤² à¤Ĺ
ill s
Ø§Ù ħ
à¤½à¤½ à¤½
Ġhe re
à§ į
Ġsur yakhabar
4 1
7 1
7 8
B A
f er
x t
Ð ĺ
à¤° à¤ľà¤®
à¥ĩ à¥ĥ
à¤® à¤Ńà¤°
Ġà¤¸ à¤¯à¤¨
Ġà¥ ¥
Ġà¤ķ à¤°à¤¤
à¤Ĺ à¤¸à¤®à¤ķ
Ġà¤¨ à¤ķà¤Ł
à¤· à¤¸à¤²
à¤¥ à¤¬à¤¹
à¤¶ à¤°à¤¬à¤¹
Ġà¤² à¤¯à¤ķ
à¤ī à¤Ńà¤°
Ġà¤ļ à¤°à¤£à¤²
à¤¨à¤® à¤¤
Ġà¤ĩ à¤¨à¤¸
à¤¯à¤¨ à¤¤
à¤²à¤¨ à¤¶
à¤Ĩ à¤Ĺà¤¨
à¤¨à¤¸ à¤¨à¤²
Ġà¤ªà¤¦ à¤°
Ġà¤ħà¤ª à¤°à¤®
Ġà¥§à¥¯ à¥§à¥ª
à¤ĺà¤Łà¤¨ à¤ªà¤Ľ
Ġà¥¦ à¥«à¥¦
à¤¿. )
à¤Ĥ. -
Ġà¥¨à¥® à¥¨
à¥¨à¥¦ à¥¬à¥«
Ġà¥¨à¥© à¥§
Ġà¥¨à¥© à¥®
Ġà¤ľà¤¨à¤ķ à¤µ
ĠS er
ĠP ay
he re
à¤ģ, âĢĿ
Ġa b
Ġà¤ħà¤°à¤¬ à¤¬
Ġà¤ħà¤°à¤¬ à¤ªà¤¤
Ġà¤ľà¤¯ à¤²à¤²
Ġà¤¶à¤°à¤¦ à¤¸
ab ility
Ġde c
ĠØ ´
Ġà¤²à¤µ à¤ľà¤®
aj a
Ġsu ite
ĠEd ucation
ĠEng lish
Ġà¤§à¤Ļ à¤§à¤Ļ
H E
I R
O T
S P
h or
o ot
w a
y le
Ġ à¥ĭ
à¥ Ĩ
à¤® à¤°à¤¬à¤¹
à¤¯ à¤²à¤¯à¤¬
à¤¦ à¤°à¤®à¤£
à¤Ĺ à¤¨à¤¬
Ġà¤® à¤łà¤ķ
à¤¬ à¤®à¤²
à¤¥ à¤«
à¤£ à¤ľà¤¨
à¤ĸ à¤Ńà¤°
à¤ī à¤ªà¤²
Ġà¤¸à¤® à¤®
à¤ĩ à¤ĺ
à¤¸à¤® à¤¯à¤ķ
à¤²à¤ķ à¤¦à¤²à¤ķ
à¤°à¤² à¤Ĺà¤¤
Ġà¤¡ à¤µà¤²
à¤®à¤ķ à¤°à¤£à¤ķ
à¥Ń à¥¦à¥¦
à¤°à¤¬ à¤¹à¤¨
Ġà¥« à¥¨à¥¦
à¤®à¤² à¤°
à¤®à¤² à¤ļ
Ġà¤ķà¤² à¤¹à¤ķ
Ġà¤®à¤² à¤¹
Ġà¤¬à¤¹ à¤²
Ġà¤Ĩà¤® à¤ľà¤¨à¤®
à¤Łà¤² à¤¸
Ġà¥¤âĢĻ ,
à¤¦à¤ķ à¤¬
à¤¨à¤µ à¤¬
à¤¨à¤µ à¤¬à¤¸
Ġà¥§à¥¯ à¥§à¥§
Ġà¤ıà¤¸ à¤ıà¤²
Ġà¤ħà¤« à¤®
Ġà¤ľà¤Ĺ à¤¬
Ġ... à¥¤
re m
à¤£à¤¨ à¤Ĺà¤°à¤®
à¤ĩà¤ľ à¤°à¤ķ
en n
Ġà¤ħà¤¡ à¤ķà¤²
Ġm ost
à¥ģà¥¤ "
ĠN ay
Ġà¤®à¤Ļ à¤¸
ÑĤ Ð¾Ð¼
Ġc ategory
is hed
Ġà¤ıà¤¡ à¤®à¤¨
ag ar
Ġo b
Ġre m
à¤ĩà¤« à¤¸à¤ķ
ĠL am
ĠE m
ĠE ve
Ġà¤¹à¤Ļà¤ķà¤Ļ à¤µ
Ġ3 3
ĠV al
ãĤ ĵ
à¤Īà¤ķà¤² à¤²
ian p
äº ĭ
ĠAd min
sh ip
ĠArt hako
à¤µà¤ªà¤° à¤°
fere n
Ġà¤ħà¤Ĺà¤° à¤¬à¤¤
ĠArthako artha
. ),
1 00
6 6
A d
S T
S p
a ult
f r
y ch
Ä į
Å ¾
Ġ ________________
à¥į ï¿½...
à¤® à¤ĺà¤°à¤®
à¤¯ à¤°à¤¦
à¤¸ à¤Łà¤°
Ġà¤¸ à¤Łà¤°à¤ķ
Ġà¤ª à¤±
à¤¦ à¤«
Ġà¤¨ à¤ľà¤®
Ġà¤® à¤¤à¤®à¤§
Ġà¤µ à¤ĸà¤¤
à¤ļ à¤°à¤¸
à¤£ à¤¯à¤ķà¤°
à¤ī à¤Ĩà¤®
à¤« à¤°à¤¹à¤°
Ġà¤ı à¤ı
à¤°à¤¤ à¤Ĺà¤¤
à¤¸à¤ķ à¤ķà¤¹
Ġà¤¬à¤¢ à¤¯
à¤ĩà¤¨ à¤ħà¤¨
Ġà¤ł à¤°à¤ķ
à¥ģà¤ģ à¥¤âĢĻ
à¤¸à¤¨ à¤¤à¤¨
à¤ĸà¤° à¤ļà¤¨
Ġà¤¦à¤° à¤Ńà¤¨
à¤²à¤Ĺ à¤Ļ
Ġà¥¯ à¥§à¥¦
à¤¹à¤¨ à¤¬
Ġà¥§à¥© à¥¦à¥¦
à¤¸à¤¹à¤° à¤²
Ġà¤Ĺà¤łà¤¨ à¤¬
in es
Ġà¥¨à¥§ à¥ª
Ġà¤Ĭ à¤¹
à¤µà¤¯à¤¨ à¤¤à¤°
an sp
at us
à¤ĩà¤¡ à¤¸
Ġl ook
st e
à¤Ĺà¤ľ à¤¹à¤°
ic ht
Ġà¥Ńà¥« à¥Ń
Ġs ystem
ĠD ay
ãģ Ĩ
ĠF ree
Ġà¥ªà¥¬ à¥¦
à¤¡à¤µ à¤ĸ
à¤·à¤¸ à¤°à¤¹
ĠW eek
Ġh is
áĥ Ŀ
ĠU K
à¥¦à¥¬ à¥Ń
Ġà¥¦à¥« à¥©
Ġ9 8
à¤µà¤²à¤¨ à¤¶
ĠCh annel
Ġag ain
iet y
Ġsch ool
C P
N ews
f or
r s
v ol
w ord
Ã £
æ °
í ķ
à¤¨ à¤ļà¤¨
à¤ķ à¤Ŀ
à¥ĭ ......
à¤² à¤Ĺà¤°à¤²
à¥ģ ..
Ġà¤¸ à¤µà¤°
Ġà¤¨ à¤²à¤¸
à¤¬ à¤ķà¤ķ
à¤· à¤°à¤¸à¤¹
à¤¶ à¤¤à¤¨
Ġà¤ľ à¤ľà¤®
Ġà¤² à¤®à¤¤à¤¨
à¤¡ à¤¸à¤²
à¤¡ à¤¬à¤°
à¤¡ à¤¹à¤µ
à¥Ĥ à¥ģ
Ġà¤ī à¤Ńà¤¯
à¤ī à¤¦à¤°
à¤°à¤ķ à¤¸
à¤¯à¤ķ à¤ħà¤¨
à¤°à¤¤ à¤Ńà¤¨
à¥ĥ à¤¾
à¤ĺ à¤µà¤¦
Ġà¤§ à¤ªà¤ķ
Ġà¤Ł à¤¨à¤Ńà¤¨
à¤°à¤¹ à¤ľ
à¤°à¤¦ à¤¸
Ġà¤ĩ à¤¸à¤¹
Ġà¤¸à¤¬ à¤²à¤¤
Ġà¤īà¤¤ m
à¤Ĩ à¤ĩà¤²
à¤Ĺà¤ķ à¤Ļ
Ġà¤ķà¤² à¤¶à¤ķ
Ġà¤Ķ à¤¤
Ġà¤ªà¤¦ à¤ķà¤®
à¤¨à¤µ à¤¦
Ġà¤ħà¤² à¤ª
Ġà¥§à¥® à¥¬à¥¦
Ġà¤Ńà¤Ī à¤¹
Ġà¥¦ à¥©à¥«
à¤Ĩà¤Ī à¤ıà¤®
à¤ĩà¤¡ à¤¹à¤°
Ġà¤¦à¤¶à¤ķ à¤Ń
à¤°à¤¥ à¤®à¤²
ĠP e
ĠT ra
Ð½ Ð°Ñı
Ġf am
il le
ĠâĢĻ ,
ro om
ur k
Ġin tern
à¥ĭ? '
à¤ĺà¤Ł à¤¨à¤®
Ġv er
à¤ĩà¤ļ à¤¢
if ied
Ġ7 0
à¥¨à¥¦à¥¦ à¥«
Ġà¤¦à¤®à¤ķà¤² à¤²
ok h
ĠMed ianp
Ġà¤ıà¤¨à¤ıà¤« à¤Ĩà¤°à¤ıà¤¸
5 4
5 8
7 0
7 6
c ed
Ð ¡
å ±
à¤¾ <
à¥ĭ à¥ĩà¥¤
à¤¤ à¤¡à¤ķ
à¤µ à¤Ĺà¤¨
à¤ľ à¤®à¤¨
à¤¬ à¤¯
à¤§ à¤¬à¤¹
Ġà¤¤ à¤Ĺà¤¡
à¤ļ à¤¹à¤ľ
Ġà¤ī à¤¸à¤°
Ġà¤ļ à¤ķà¤®à¤¨
Ġà¤ĸ à¤ŀ
à¤¢ à¤µ
à¤¢ à¤¸à¤¯
Ġà¤ĺ à¤Łà¤ķà¤ķ
Ġà¤¸à¤¹ à¤¸à¤®
à¤¯à¤¸ à¤Ļ
à¤ĩà¤¨ à¤°à¤¹à¤°
âĢĵ âĢľ
à¤¤à¤ķ à¤ª
à¤®à¤¤ à¤ªà¤Ľ
à¤¤à¤¨ à¤Ĺà¤°à¤®
Ġà¤Ĩà¤µ à¤°à¤®
à¤Ĺà¤² à¤¦
Ġà¤¸à¤®à¤¯ à¤¹à¤°
Ġà¤Ķ à¤¸
Ġà¤Ķ à¤¡
Ġà¤ĺà¤° à¤ľ
Ġà¥©à¥¦ à¥®
à¥¨à¥¦ à¥ªà¥®
Ġà¤¨à¤°à¤¹ à¤²
Ġ20 07
Ð¸ Ñİ
Ġs om
ĠÂ ¤
ĠB y
ĠB row
à¤¨à¤Ń à¤µà¤¨à¤¸
Ñģ Ð¿
Ġà¤ĵà¤Ń à¤°à¤¹
Ġà¤ıà¤ķà¤¦ à¤¶à¤ķ
ĠR ating
Ñĥ Ð¿
Ð°Ð ¿
oc us
áŀ ¶
ĠAnd roid
Ġturnt able
R I
i ber
à¤¨ à¤ĺà¤°
à¤¤ à¤ĵà¤Ł
à¤¯ à¤ħà¤Ń
à¤¹ à¤¥
à¤ı à¤«à¤¬
à¤ı à¤ıà¤«à¤¸
Ġà¤® à¤ľà¤Ĺ
Ġà¤ľ à¤ľà¤¹à¤°
à¤ī à¤ĺà¤°
Ġà¤¶ à¤¤à¤¬
Ġà¤ı à¤ıà¤¸
Ġà¤ı à¤¯à¤°à¤®
à¤īà¤¨ à¤ª
Ġà¤ªà¤° à¤ªà¤°
à¤Ļ à¤¬à¤ľ
à¤µà¤¸ à¤¦à¤¸
Ġà¤Ł à¤¸à¤®à¤¸
à¤²à¤® à¤ł
Ġà¤Ĩà¤¯ à¤°
à¤µà¤¨ à¤ļà¤ķ
... ,
à¤Łà¤° à¤°
à¤¶à¤¨ à¤¸à¤¹
à¤§à¤¨ à¤Ĺà¤°à¤®
à¤ĵ à¤ľ
Ġà¤¦à¤° à¤ª
à¤¹à¤¨ à¤ļà¤¨
Ġà¤®à¤¤ à¤¸
à¤ļà¤ķ à¤¬à¤§
à¥ģ, '
Ġà¤ıà¤¨ à¤Ń
Ġà¤ıà¤¨ à¤Ĩà¤Ī
à¤¶à¤² à¤Ł
à¤ľà¤¦ à¤°à¤µ
à¥¨à¥¦ à¥¬à¥¦
à¥¨à¥¦ à¥¬à¥Ń
Ġà¥¨à¥Ń à¥¬
Ġl ist
Ġà¤¸à¤¹à¤° à¤¤
st r
ĠS ervice
Ġà¤®à¤Ĺà¤° à¤¸
Ġà¤¬à¤¡ à¤¹à¤°
à¤¤à¤¹ à¤Łà¤¬
à¤¦à¤¨à¤ķ à¤°
Ð¸ Ð´
Ġd a
Ġd if
and a
à¤°à¤ľà¤¨ à¤¹à¤°
ur a
sp ot
Ġthe m
Ġthe re
Ġà¤ıà¤¯à¤° à¤«
ĠJ av
Ġà¤ħà¤«à¤° à¤ħà¤¨
ĠÑģ Ð¿
Ġà¤¸à¤¨à¤® à¤ķ
Ġcon s
ult ure
Ġà¤¨à¤Ŀ à¤°
ĠPl ay
Ġdis c
Ġà¤Ĩà¤Īà¤ıà¤¸ à¤ĵ
Ġà¤ıà¤¸à¤ıà¤® à¤ıà¤¸à¤®
Ġà¥ł à¤·
ĠIS O
U T
i i
Ķ Ĥ
à¥į )à¥¤
à¤° à¤īà¤¨
à¤¿ à¥Ī
à¥ĩ .....
à¤² à¤ªà¤¨
à¤² à¤ħà¤Ń
à¤¤ à¤µà¤ķ
à¥Ģ .....
à¤µ à¤¯à¤¸
Ġà¤Ĺ à¤¦à¤°
à¤Ĺ à¤§
à¤Ĺ à¤£à¤ķ
Ġà¤¦ à¤¹à¤ķ
Ġà¤Ĩ à¤Ĭà¤¨
Ġà¤ļ à¤¬
à¤ľà¤¨ à¤µà¤°
à¤°à¤² à¤®
Ġà¤īà¤ª à¤ľà¤®
à¤ħ à¤¸à¤¨
à¤µà¤¨ à¤ªà¤°
Ġà¤ľà¤¸ à¤ª
à¤¶à¤¨ à¤Ĺà¤°
Ġà¤ĺà¤° à¤ħà¤Ĺ
Ġà¤ıà¤® à¤ıà¤®à¤ķ
Ġà¤¨à¤Ń à¤ĩà¤°à¤¹
à¤ļà¤® à¤Ĺ
Ġà¥¨à¥« à¥¨
à¤ĩà¤ķ à¤Ł
re nt
Ġà¥¨à¥§ à¥¨
Ġà¤Ĭ à¤¬
à¤ļà¤° à¤°
Ġà¥¨à¥ª à¥¨
à¤¡à¤° à¤¸à¤®
Ġà¥¨à¥® à¥«
Ġà¥¨à¥® à¥Ń
al d
Ġà¤®à¤¦ à¤¨à¤®à¤£
à¤¾à¥¤ âĢĿ
Ġ/ >
à¤Ĭ à¤¦à¤ķ
Ġà¤¦à¤® à¤¨à¤²
ĠM e
ĠM on
Ġa c
Ġs m
Ġf ull
ĠH er
__ _
Ġà¤· à¤£
com e
am ro
ãģ Ĥ
ĠK h
ess age
art ment
à¤¾à¥Īà¤ģ ,
Ġ19 8
up er
Ġà¤¬à¤Ĺà¤° à¤«
rest ha
ific ation
Ġà¤®à¤°à¤¹ à¤Ł
Ġà¤ĸà¤Łà¤¨ à¤ªà¤Łà¤¨
Ġmin utes
8 00
C L
H ome
L ire
R E
i que
s ch
z y
à ®
Ġ ×
Ġà¥ Ī
Ġà¤Ĺ à¤¯à¤°
Ġà¤¨ à¤¢à¤²
Ġà¤ħ à¤²à¤ķà¤¤
Ġà¤¹ à¤µà¤¸
à¤ģ âĢĿ,
à¤Ī à¤ĵà¤ķ
à¤¡ à¤ķà¤®
à¤īà¤¨ à¤°
à¤īà¤¨ à¤Ńà¤¨
à¤¨à¤² à¤¤
Ġà¤ıà¤ķ à¤ĺà¤£
âĢĻ ...
à¤ķà¤² à¤°
à¤Ĩ à¤¤à¤ķ
Ġà¥¬ à¥Ńà¥«
Ġà¤«à¤° à¤°
à¤µà¤°à¤£ à¤ªà¤¤
Ġà¤Ĳ à¤¨à¤¸
à¤¸à¤° à¤ľà¤¸
à¤ıà¤¸ à¤¨à¤®
Ġà¤ĺà¤°à¤® à¤§
à¤µà¤¯à¤¨ à¤¸à¤®
Ġà¥¨à¥ª à¥¬
Ġà¤ľà¤µ à¤¸à¤®
Ġà¤¶à¤¹à¤° à¤¦
ĠÐ ĺ
Ġd ays
Ġd ata
ĠÂ ©
Ġf ile
Ġà¤Ńà¤ĩ à¤Ĩà¤ıà¤ķ
ãģ ı
à¤¾à¥Īà¤Ĥ âĢĵ
ĠL td
ĠO f
Ġin cl
em s
à¤Ĩà¤¤ à¤Ļ
Ñĥ Ð»
iv ity
à¤ļà¤¥ à¤°à¤²
od y
à¥¨à¥¦à¥¦ à¥¬
Ġi Phone
Ð°Ð¼ Ð¸
ĠNE WS
land s
ä¼ ļ
ĠWord Press
O n
] .
c ell
k l
k an
m i
Î ½
à¥ ¥
à¤¨ à¤¥à¤°
à¤¿ |
à¤® à¤²à¤¨
à¤® à¤²à¤¬
à¤¤ à¤ªà¤¨
à¤¹ à¤Łà¤²
à¤¦ à¤°à¤¦
à¤Ĺ à¤¨à¤ª
à¤Ł à¤ªà¤¨
Ġà¤¨ à¤°à¤ķà¤ķ
Ġà¤¬ à¤ł
Ġà¤ħ à¤Ĺà¤²
à¤Ń à¤°à¤£à¤ķ
à¤ĸ à¤¤à¤°
Ġà¤¯ à¤µ
Ġà¤¯ à¤¶à¤ķ
à¤°à¤ķ à¤¬
à¤¨à¤ķ à¤¹à¤°
à¤¢ à¤¦
Ġà¤ķà¤® à¤²à¤¬à¤ľ
à¥Ģ, ...
à¤°à¤µ à¤®
à¤®à¤¨ à¤¬
à¤ķà¤°à¤£ à¤²à¤Ĺ
Ġà¤ħà¤¬ à¤ļ
à¤¶à¤® à¤¬à¤¹
Ġà¤¬à¤² à¤°à¤ķ
à¤¨à¤¬ à¤ľ
Ġà¤Ĩà¤¶ à¤¬à¤¹
à¤®à¤¸ à¤Ļà¤²
Ġà¤ĭ à¤£à¤¸
à¥¨à¥¦ à¥«à¥®
Ġà¤®à¤¦ à¤°à¤²
Ġà¤ľà¤² à¤Ńà¤£
at her
Ġà¥©à¥§ à¥«
ĠC or
ĠA b
Ġ20 00
Ġs ol
Ġà¤ªà¤¸à¤² à¤¦
ĠB u
ĠD i
Ġà¥©à¥ª à¥ª
as ed
ĠH ol
à¤Ĩà¤ľ à¤Ń
ãģ ķ
Ġre c
à¤īà¤ľ à¤°à¤®
Ġin formation
Ġ3 9
Ñĥ Ð±
ĠIn formation
ov ern
Ġà¥¦à¥ª à¥¨
Ġ7 5
ark et
ert ain
Ġz u
Ġà¤Ĩà¤ĩà¤ĵ à¤ıà¤®à¤ķ
Ġà¤Ńà¤Ĺà¤¤ à¤¸
\\ \'
Ġcap tion
blog spot
div ide
ĠReview ed
3 8
j e
r d
Î µ
è ®
ĩ à¤¨
à¤° à¤ı
à¤ķ à¤¨à¤¸à¤¹
à¤² à¤²à¤ķ
à¤¯ à¤µà¤ķ
à¥Ģ ....
Ġà¤¸ à¤²à¤ķ
à¤ª à¤ªà¤¶
Ġà¤¨ à¤¬à¤²
Ġà¤Ń à¤¯à¤°
Ġà¤Ń à¤Ĺà¤¤à¤²
Ġà¤¹ à¤°à¤®
à¤¶ à¤¯à¤¤
Ġà¤² à¤¯à¤°
à¤ļ à¤Łà¤®
à¤Ī à¤¨à¤°
à¤¡ à¤ĺà¤Ł
à¥Ĥ âĢľ
à¤ī à¤ľà¤¸
à¤« à¤¡
Ġà¤¶ à¤Ł
Ġà¤¶ à¤Ń
Ġà¤¥ à¤ļà¤ķ
à¤ľà¤¨ à¤°à¤²
Ġà¤ıà¤ķ à¤²à¤µ
Ġà¤§ à¤°à¤®à¤°
à¤ŀ à¤¸à¤®
à¤°à¤¸ à¤ļ
Ġà¤īà¤ª à¤ľà¤¹à¤°
Ġà¤¸à¤°à¤ķ à¤°
à¤ªà¤¤ à¤²
Ġà¤Ĩà¤¯ à¤¬
à¤ļà¤¨ à¤¤à¤°
à¤¸à¤² à¤¬
à¤°à¤µ à¤ļà¤¨à¤ķ
Ġà¤Ĩà¤° à¤ıà¤¸
à¤Ĩ à¤¯à¤®
Ġà¤ĵ à¤łà¤²
à¤¶à¤¨ à¤°à¤¤
Ġà¤¬à¤² à¤°à¤¹à¤°
à¤¶à¤¤ à¤µ
à¤ĩà¤² à¤¸à¤®
Ġà¥§à¥¯ à¥§à¥®
à¤µà¤ª à¤ŀ
Ġà¤§à¤¨ à¤Ĺà¤¡
Ġà¤ħà¤« à¤°à¤®
Ġà¥©à¥¦ à¥¯
à¤ľà¤¯ à¤¶
Ġà¤Ī à¤Ĩà¤Īà¤ı
Ġà¥§à¥® à¥§à¥«
re t
à¤¯à¤¬ à¤¤
à¤ĩà¤¨à¤² à¤Ĺ
Ġà¤¤à¤¹ à¤ħà¤¨
Ġà¥¨à¥© à¥¬
Ġà¥¨à¥¬ à¥®
Ġà¤ľà¤¨à¤ķ à¤¬à¤¹
ĠS and
Ġà¤ªà¤¹à¤² à¤¹à¤°
à¤ľà¤¬ à¤¸à¤®
à¤īà¤ª à¤¶
ĠT ags
à¤ıà¤« à¤Ĩà¤°
Ġp ara
Ġp lease
le ge
Ġà¥©à¥¬ à¥ª
Ġà¤īà¤ªà¤ķà¤°à¤£ à¤¬
Ġà¥©à¥Ń à¥Ń
com m
un ction
à¤¾à¥Īà¤Ĥ -
Ġà¤ĥ âĢĵ
ĠL ist
Ġà¤Ĩà¤ĩà¤¸ à¤«à¤²
à¸ Ķ
à¤ıà¤ļ à¤ıà¤¸
ĠIn ter
ĠV is
Ġth an
Ġth rough
à¤¯à¤¦à¤² à¤¹à¤°
um an
um ber
à¤ĩà¤°à¤¸ à¤¬
Ġà¤ıà¤¨à¤Ĩà¤°à¤ı à¤¨à¤®
ĠRe port
Ġà¤Ĺà¤¡ à¤Ĺà¤¡
à¥¨à¥¦à¥¦ à¥®
201 6
ĠSt ate
Ġj e
ĠÐº Ð¾Ð¼
ĠÑĤ Ð°Ðº
Ã³ n
ĠÐŁ ÑĢ
Ð°Ð± Ð¾ÑĤ
Ġà¤¸à¤¤à¤² à¤ľ
ĠSur g
ĠÏ Ģ
åĿ ª
] ;
d en
u es
Ä Ł
Û Ĵ
æ ķ
è ĩ
à¤¾ âĢį.
à¤¿ ....
à¥ĩ ï¿½
à¤¯ à¤¯à¤®à¤¬
Ġà¤ª à¤ļà¤²
à¤¦ à¤µà¤¨
Ġà¤ķ à¤Ĺ
à¥Ī âĢľ
Ġà¤¨ à¤ħà¤²
Ġà¤ħ à¤ľà¤°
à¤¬ à¤¸à¤ª
à¤· à¤°à¤¬
à¤§ à¤ħà¤¨
Ġà¤Ĩ à¤Ĺà¤°
Ġà¤ľ à¤¯à¤¤
à¤Ī à¤®à¤¨
à¤¡ à¤ªà¤¥
à¤Ľ à¤ª
à¤Ń à¤°à¤¬
à¥Į à¥¤âĢĿ
Ġà¤ħà¤¨ à¤Ł
Ġà¤« à¤¨à¤ª
à¤ĺ à¤°à¤Ń
Ġà¤®à¤¹ à¤¤à¤°
Ġà¤¸à¤¹ à¤¶
à¤ªà¤¤ à¤¬
à¤¯à¤¨ à¤µ
Ġà¤īà¤¦ à¤¯à¤¬à¤¹
à¤¦à¤ķ à¤¸
Ġ, âĢĺ
Ġà¤¸à¤¡à¤ķ à¤Ńà¤¨
Ġà¤§à¤¨ à¤¬
Ġà¤ıà¤¸ à¤ĵà¤ıà¤¸
Ġà¥§à¥® à¥¯à¥¦
à¤ĺà¤° à¤¸à¤®
Ġà¥¨à¥¨ à¥¯
at ic
Ġà¤Ńà¤Ĺ à¤µà¤¦
ĠÐ ĵ
ĠS k
ĠS kype
Ġà¤¦à¤¶à¤ķ à¤¬
Ġà¤¨à¤Ĩ à¤īà¤¦
Ġd ep
ĠI f
Ġ& #
id s
Ġà¤²à¤ĸ à¤¨à¤ª
à¨ ¿
ä¸ Ĭ
ry pt
çĶ Ł
ĠInd ia
ĠMin istry
- âĢĺ
4 2
L O
O D
S A
o le
y e
Å Ľ
Ñ ĳ
ī Ī
à¤¯ à¤¥à¤²
Ġà¤¸ à¤ī
à¤¹ à¤²à¤¯à¤ķ
à¤µ à¤®à¤®
à¤µ à¤ľà¤²
Ġà¤° à¤ľà¤ķ
Ġà¤¨ à¤ķà¤²
Ġà¤¨ à¤ªà¤ķ
Ġà¤¬ à¤Łà¤°à¤«
Ġà¤ħ à¤²à¤¬
Ġà¤ħ à¤ķà¤®à¤ķ
Ġà¤¹ à¤łà¤ķ
Ġà¤¤ à¤µà¤¸à¤®
Ġà¤ī à¤¢
à¤ī à¤¸à¤°
à¤ĩ à¤¸à¤¹
Ġà¤ĺ à¤°à¤¯
Ġà¤ıà¤ķ à¤«
Ġà¤¬à¤¨ à¤°
Ġà¤§ à¤µà¤¨à¤²
Ġà¤ĩ à¤¹
à¤ķà¤® à¤µ
Ġà¤ħà¤¸ à¤²à¤®
à¤µà¤° à¤ªà¤°
à¤µà¤¨ à¤Ńà¤°à¤ķ
à¤·à¤ķ à¤°
à¤Ĩ à¤ĩà¤¨
Ġà¥ª à¥¨à¥¦
Ġà¤ĵ à¤ľà¤¸
Ġà¤ĵ à¤®à¤¸à¤¤
à¤§à¤¨ à¤¤à¤°
à¤ĵ à¤ı
Ġà¥Ń à¥©à¥¦
Ġà¤ħà¤µ à¤¤à¤°
à¤²à¤¤ à¤¸
à¤¨à¤ª à¤¦à¤µ
à¤¯à¤¯à¤¨ à¤¸
Ġ! ,
à¤ķà¤¸ à¤Ļ
à¤ĸà¤ķ à¤¦
à¤¯à¤Łà¤¨ à¤¨
à¥¨à¥¦ à¥ªà¥¬
Ġà¥¨à¥¯ à¥¨
Ġà¤Ĺà¤² à¤¹à¤¤
Ġm et
Ġà¥©à¥« à¥¦à¥¦
ĠC op
Ġs ome
à¤®à¤°à¤£ à¤¹à¤°
Ġà¤¡à¤² à¤°à¤¬
Ġb log
à¸ £
Ġà¤ĸà¤¬ à¤°à¤¸
à¥ĩ? âĢĿ
à¤ľà¤Ĺà¤¢ à¤¸à¤®
Ġv e
Ġâ Ĥ¬
ant e
ĠÐ² Ñģ
Ġpro gram
Ġà¤ıà¤¯à¤°à¤¬ à¤¸à¤ķ
Ġà¤Ĩà¤¡ à¤Ńà¤°
ĠAn n
ĠUS B
Ġà¤ļà¤¹à¤² à¤ªà¤¹
ĠBe ach
áŁ Ĵ
âĢĶâĢĶ âĢĶâĢĶ
æĪ ĳ
ĠCy ber
F A
N C
R A
a a
h ot
i or
l ar
m as
Å ¼
é Ļ
Ļ Ĥ
à¤ķ à¤§à¤®
à¤² à¤°à¤¤
à¤¦ à¤Ĺà¤°
Ġà¤Ĺ à¤¹à¤¤
Ġà¥¤ ..
à¤Ł à¤ľà¤¨
Ġà¤¨ à¤¤à¤°
Ġà¤Ń à¤ĩà¤¨à¤¨
Ġà¤µ à¤²à¤ķ
à¤¬ à¤Ŀ
à¤ī à¤Ńà¤¨
à¤°à¤® à¤¬à¤ľ
à¥Į âĢĮà¤Ĥ
Ġà¤¶ à¤¯à¤¨
à¤¸à¤ķ à¤¦
à¤¢ à¤¸
Ġà¤ıà¤ķ à¤¬à¤°
à¤ªà¤¨ à¤ĩà¤¤à¤°
Ġà¤ķà¤° à¤Ľà¤²
à¤ķà¤² à¤¨à¤ķà¤°
Ġà¥¨à¥¦ à¥¯
Ġà¤īà¤¦ à¤£
à¤ķà¤° à¤µà¤°
à¤¡à¤ķ à¤¨
à¤¦à¤¨ à¤°
à¤Łà¤® à¤°
Ġà¤Ĩà¤® à¤¸à¤°
Ġà¤Ĳ à¤¨à¤µ
à¤²à¤¸ à¤ĸ
Ġà¥¨à¥« à¥©
Ġà¤ķà¤ª à¤¨à¤®
à¤ľà¤¯ à¤¬à¤¹
Ġà¤Ī à¤µ
Ġà¥§à¥¬ à¥§à¥¦
à¤Īà¤¨ à¤Ń
à¤¾) à¥¤
Ġà¥¨à¥¯ à¥¯
Ġà¥¨à¥¬ à¥Ń
Ġà¤ľà¤² à¤ªà¤°
ĠÐ £
Ġà¥©à¥© à¥«
ĠA ct
ĠD o
00 1
nb s
à¥§à¥© à¥¨
Ġfor m
ĠÑģ Ð¾
ff ect
ĠâĢł âĢĻ
Ġà¤ıà¤®à¤ı à¤ıà¤ļà¤ķ
erv ices
Ġà¤Ĩà¤ĩà¤ĵ à¤ıà¤¸
Ġà¤Ĩà¤ĩà¤ĵ à¤ıà¤®à¤²
Ġim p
Ġtr ans
Ġdes ign
A r
P A
] ]
g er
z a
à¤² à¤Ńà¤ķ
à¤® à¤¥à¤¨
à¤¸ à¤Ŀ
à¤µ à¤Ľ
Ġà¤ķ à¤°à¤¸à¤¹
à¤Ł à¤ĩà¤£
Ġà¤¨ à¤īà¤¤
Ġà¤¨ à¤łà¤¹à¤°
à¤¬ à¤¥
à¤¬ à¤ķà¤²
à¤§ à¤Ńà¤ķ
à¤¶ à¤ļ
à¤¶ à¤¦à¤¤
à¤¡ à¤ªà¤¬
à¤ĸ à¤¤à¤®
Ġà¤¯ à¤®à¤ķ
à¤°à¤ķ à¤¤à¤¤
Ġà¤¶ à¤°à¤®
Ġà¤ı à¤«à¤ķ
Ġà¤ªà¤° à¤ĸ
à¤°à¤£ à¤ª
à¤°à¤£ à¤µà¤¸
à¤¨à¤® à¤Ĺà¤°à¤²
Ġà¤®à¤¹ à¤«
Ġà¤ıà¤ķ à¤µ
Ġà¤ıà¤ķ à¤¬à¤¦
Ġà¤¸à¤ķ à¤¤
à¤ķà¤² à¤Ŀ
à¤ķà¤² à¤¨à¤¬
à¤ħ à¤¥à¤µ
à¤ħ à¤ĸà¤£
Ġà¤Ĺà¤¤ à¤²
à¥ĭà¥¤ âĢĺ
Ġà¤Ĩà¤° à¤ıà¤²
à¤¡à¤ķ à¤¬
à¤¬à¤° à¤Ĺ
à¤¿à¤ģ ,
à¥¯ à¥¦à¥¦
Ġà¤ħà¤¬ à¤¤
Ġà¤ĺà¤° à¤¨
Ġà¥§à¥¯ à¥¦à¥©
Ġà¤§à¤¨ à¤µà¤¨
à¤¨à¤¤ à¤¸
à¤¨à¤ª à¤¸
à¤¦à¤® à¤£
à¤Ńà¤µ à¤¶
Ġà¥¦ à¥¨à¥®
Ġà¤¤à¤¹ à¤Ńà¤¨
Ġà¥¨à¥Ń à¥§
à¤¬à¤¸ à¤¤
à¤¯à¤°à¤¤ à¤°
ĠS P
à¤¡à¤¬ à¤²à¤®
ĠP aper
Ðµ Ñħ
Ġp erson
à¤²à¤ĸ à¤¬à¤¨
com p
am achar
un t
ĠF e
ur ity
sp ect
à¤ļà¤¨à¤² à¤Ĺà¤¤
Ġà¥«à¥ª à¥©
ĠL im
Ð» ÐµÐ½
à¤ıà¤ļ à¤ıà¤®
Ġh er
iv al
Ġâ Ī
à¥ĭâĢĿ âĢĵ
ĠRe public
Ġst ud
à¥¨à¥¦à¥¦ à¥ª
lic h
?? ??
Ġà¤Ĩà¤ĩà¤ıà¤® à¤Īà¤²
ne y
ĠTe le
app y
Ġà¤°à¤®à¤Ŀ à¤®à¤®
ĠAss oci
ĠDar az
Ġà¤ĨÃ ĩà¤¨
ĠÐ¾Ð±Ð» Ð°ÑģÑĤ
D ownload
T V
m à¤°
t he
v ing
à¤ ³
à¤ķ à¤Łà¤°
à¤¿ à¥Ĥ
à¤¯ à¤¶à¤¨à¤²
à¤¦ à¤¯à¤¹à¤°
à¤¦ à¤¬à¤ķ
à¤µ à¤īà¤ªà¤ķ
Ġà¤Ĺ à¤Ń
à¤Ĺ à¤ªà¤¨
Ġà¤° à¤¸à¤ª
Ġà¥¤ _
à¤Ł à¤ħà¤ªà¤®
à¤ı à¤ľà¤¤
à¤¶ à¤¯à¤¨
à¤Ī à¤ľà¤ķ
à¤Ī à¤ıà¤ªà¤Ľ
à¤£ à¤µà¤¹
Ġà¤ļ à¤²à¤®à¤²
Ġà¤ı à¤¦
Ġà¤ı à¤®à¤²
Ġà¤« à¤ķà¤°
Ġà¤®à¤¹ à¤¦
à¤¯à¤¸ à¤ĸ
à¤·à¤£ à¤°à¤¹
à¤¸à¤¨ à¤¤à¤°
Ġà¤Ĩà¤µ à¤Ń
à¤¸à¤¦ à¤ľ
Ġà¤ĩà¤¨ à¤¬
à¤ıà¤¨ à¤ıà¤«à¤ª
Ġ, ,
Ġ, âĢĿ
à¤ľà¤² à¤ª
Ġà¤ľà¤® à¤¦à¤Ĺ
à¤µà¤¯ à¤¬
Ġà¥¨à¥« à¥Ń
à¤¯à¤¬ à¤¶
Ġà¤ĸà¤¡ à¤Ĺ
à¤¯à¤£ à¤¬
à¥ĩà¤ģ à¥¤âĢĻ
à¤ĩà¤¡ à¤°à¤²
à¤·à¤° à¤ªà¤Ľ
Ġm ed
ĠS an
à¤ľà¤¬ à¤ľ
it or
ĠC an
ĠT rain
Ġà¥©à¥© à¥®
ĠA g
ĠM et
Ð¸ ÑģÑĤ
Ġd as
à¤¨à¤¹ à¤ľ
Ġà¥«à¥¬ à¥¦
ĠF rom
ĠF eder
Ġà¤ıà¤ļ à¤Ł
Ġà¤Ĺà¤¦ à¤Ĺà¤¦
ĠO F
ĠK ing
oc r
Ġst art
ĠSt ud
ĠÐº Ð¾ÑĤÐ¾ÑĢ
Ġà¤ıà¤¯ à¤°à¤¹
Ġà¤ĺà¤°à¤ª à¤Ŀ
ĠUS A
Ġcl ass
ĠÑĩ ÑĤÐ¾
! '
B L
i h
Ë Ĳ
à¤¨ à¤ħà¤§
à¤ķ à¤²à¤ķà¤¹à¤°
à¤² à¤ªà¤°
à¥ģ ....
à¤¹ à¤Ļ
à¤ª à¤¦à¤¨
à¤µ à¤Ĩà¤°
Ġà¤° à¤Ń
à¤ı à¤¨à¤®
Ġà¤ħ à¤¡à¤°
à¤§ à¤¯à¤²
à¤§ à¤¦à¤ķ
Ġà¤¤ à¤¨à¤®
à¤ģ à¥į
à¤¶ à¤µà¤²
à¤ļ à¤²à¤µ
à¤Ī à¤§
à¤Ī à¤¥
Ġà¤ī à¤¥
à¤ĸ à¤ĺ
à¤ĩ à¤ĩ
à¤ĩ à¤®à¤§
Ġà¤ļ à¤¦
Ġà¤ļ à¤īà¤°
à¤ľà¤¨ à¤¬à¤¢
Ġà¤Ĩà¤« à¤¸
Ġà¤¡ à¤¸à¤¨
Ġà¤ĩ à¤¹à¤²
à¤Łà¤ķ à¤ĺà¤°à¤®
à¤µà¤ķ à¤µ
à¤µà¤ķ à¤§
à¤¸à¤¨ à¤ľà¤¸
à¤ķà¤ķ à¤¬
à¤µà¤² à¤¤
à¤¨à¤®à¤¨ à¤¤
Ġà¤Ķ à¤ª
à¤ķà¤¤ à¤¹à¤°
Ġà¥¯ à¥§à¥§
Ġà¤Ĩà¤® à¤īà¤ªà¤Ń
Ġà¤īà¤® à¤°
Ġà¤Ĩà¤ĩ à¤ı
Ġà¤ļà¤° à¤¨à¤ķ
à¤°à¤®à¤£ à¤ħà¤ĺ
Ġà¤°à¤® à¤ªà¤®
à¤ĩà¤ľ à¤°à¤²
Ġà¤¨à¤¬ à¤Ĺ
Ġà¤ªà¤² à¤ªà¤²
ad h
Ġà¤°à¤¨ à¤Ĩà¤īà¤Ł
ĠS te
à¤µà¤¨à¤ķ à¤°
or a
Ġà¥©à¥¨ à¥§
ĠC S
ou p
ĠM B
à¤¯à¤°à¤² à¤Ĺ
Ġà¤ħà¤ľ à¤Ļ
à¤ģà¥¤ '
Ġà¤ıà¤ļ à¤µ
Ġà¤¥à¤ķ à¤¥à¤ķ
ĠNepal ese
áĥ ł
à¤¯à¤£à¤Ĺà¤¢ à¤¤à¤°
Ġà¤¸à¤ĸ à¤¡
ist er
Ġà¤°à¤¨à¤° à¤ħà¤ªà¤ķ
ang u
à¤°à¤ķà¤°à¤£ à¤ªà¤Ľ
ĠOn e
Ġpro f
ft ware
à¤¡à¤°à¤¸ à¤Łà¤ķ
ĠÐ¿ÑĢ Ð¾
ĠâĻ ¦
Ġà¤¸à¤ĸà¤° à¤ĸà¤£
5 3
I G
O V
P oint
o ff
p o
Ã ¸
Î º
Ó ©
Ø Ń
æ Ģ
æ Ħ
æ Ń
à¤¦ à¤µà¤°
à¤¦ à¤µà¤®
à¤µ à¤°à¤¤à¤°
Ġà¤Ĺ à¤¬
à¤Ł à¤¤à¤®
Ġà¤¨ à¤¹à¤ķ
à¤ı à¤Ļ
Ġà¤® à¤²à¤¯
Ġà¤¹ à¤°à¤¦
à¤¬ à¤ĩà¤ķ
à¤§ à¤°à¤ª
à¤§ à¤¹à¤¸
Ġà¤¦ à¤²à¤¨
à¤¶ à¤·
à¤¶ à¤¬à¤®
à¤ļ à¤¯à¤¤
à¤Ī à¤¹à¤ľ
à¤£ à¤Ĺà¤°
à¤ī à¤¸à¤Ń
à¥Į âĢĻ,
Ġà¤¶ à¤¶à¤¸
à¤¯à¤ķ à¤ª
à¤°à¤£ à¤²à¤Ĺ
à¤°à¤¹ à¤¦à¤ķ
à¤¤à¤° à¤ŀ
à¤ĩà¤¨ à¤°à¤ķ
Ġ( "
à¤°à¤¯ à¤£
à¤¯à¤² à¤¦
Ġà¤ĵ à¤ľà¤¨
à¤ľà¤ķ à¤¬
à¤Ĺà¤² à¤ľà¤¸
à¤¶à¤¨ à¤¬à¤®
Ġà¤¸à¤®à¤¯ à¤¬à¤¦
Ġà¤ħà¤® à¤¨à¤²
Ġà¥Ń à¥¨à¥¦
à¤¹à¤¨ à¤ľ
à¤¹à¤¨ à¤¶à¤®à¤¶
Ġà¤¦à¤² à¤¦
à¤ªà¤² à¤ļ
Ġà¤ħà¤² à¤ľà¤ľ
Ġà¤¸à¤¡à¤ķ à¤¬à¤¤
Ġà¤Ĩà¤ī à¤Łà¤°
à¤·à¤¯ à¤Ńà¤¨
Ġà¤ķà¤ª à¤¨à¤ķ
Ġà¥©à¥¦ à¥©
à¤¯à¤Łà¤¨ à¤¸à¤®
à¥¨à¥¦ à¥«à¥§
Ġà¤¨à¤µ à¤µà¤°
Ġà¤®à¤¦ à¤¦
Ġà¥¨à¥© à¥¯
à¤ľà¤ª à¤¥à¤ķ
Ġt ra
ĠS w
ĠT est
Ġà¤¤à¤²à¤¬ à¤²
à¤ıà¤« à¤Ĩà¤ĩà¤¡
ĠA N
ĠA c
ĠM al
ĠM obile
Ġs ee
le ys
le ction
Ġc r
Ġc re
Ġd em
Ġà¤¨à¤ĸ à¤Ł
Ġw ater
il i
à¤°à¤ľà¤¨ à¤ª
ĠL o
ĠE uro
ĠG roup
Ġà¤¬à¤¦ à¤°à¤ķ
ĠR oy
Ġn eed
Ġ3 4
Ðº Ð¾
Â« à¥ĭ
Ġg ood
op ati
ra ft
if y
Ġà¤ħà¤®à¤² à¤Ł
Ð¿ ÑĢ
Ġà¤µà¤¯ à¤·
ÑĨ Ð¸
Ð¸ÑĤ ÐµÐ»ÑĮ
ĠNR NA
ãģ¾ ãģĻ
ĠNay akhabar
7 9
i qu
t witter
Ø ²
ä ¿
æ ³
à¤ ©
à¤¨ à¤Łà¤ķ
à¤² à¤¸à¤¨
à¤¯ à¤¡à¤ķ
à¤¯ à¤ľà¤¨à¤²
à¥ģ à¥Ī
à¤¸ à¤¯à¤ķ
à¤¸ à¤¦à¤¨
Ġà¤¬ à¤Ľ
Ġà¤¬ à¤ķà¤®
à¤ľ à¤ľà¤¨
Ġà¤¹ à¤²à¤µ
Ġà¤Ľ à¤īà¤¨
Ġà¤¤ à¤Łà¤ķ
à¤ıà¤ķ à¤¦
à¤ļ à¤ªà¤²
à¤Ľ à¤¹à¤°
à¤ĸ à¤ľà¤¨
à¤°à¤® à¤¤à¤°
Ġà¤¶ à¤µà¤°
Ġà¤¶ à¤°à¤£à¤ķ
à¤°à¤¤ à¤µà¤¨
à¤°à¤¤ à¤¸à¤¹
à¤Ļ à¤Ĺà¤²
Ġà¤§ à¤®à¤ķ
Ġà¤¸à¤ķ à¤¸à¤®
à¤¯à¤¸ à¤ħà¤µà¤¸à¤°à¤®
à¤¤à¤° à¤Ńà¤¨
Ġà¤®à¤¨ à¤¨à¤¯
à¤°à¤¦ à¤°à¤¹
à¤ĩà¤¨ à¤°à¤²
à¤µà¤¨ à¤¦à¤°
à¤²à¤¯ à¤ľ
à¥įà¥¤ )
à¤¸à¤¨ à¤¯
à¤ªà¤ķ à¤ľ
à¤¯à¤° à¤ª
Ġà¤Ńà¤¯ à¤¬
Ġà¤Ĩà¤ĩ à¤ıà¤¸à¤¸
à¤¶à¤¤ à¤¦
Ġà¤¸à¤Ļ à¤ĺ
à¤¨à¤µ à¤µ
à¤¹à¤² à¤¯à¤®
Ġà¤¦à¤¶ à¤¦
Ġà¥©à¥¦ à¥ª
à¤µà¤¦ à¤¹à¤®
à¤Ĥ. âĢĵ
à¤ªà¤£ à¤ªà¤Ľ
Ġà¤ħà¤ķ à¤¬à¤°à¤²
ar oo
at ors
Ġà¤¸à¤« à¤°
à¤¬à¤® à¤¹à¤°
à¤¹à¤°à¤£ à¤¬
ĠS MS
Ġà¤¨à¤Ĩ à¤ıà¤®
ĠA L
à¤°à¤¹à¤£ à¤ªà¤Ľ
le x
à¤µà¤¯à¤® à¤ķ
ĠI T
ĠB iz
Ġf ind
Ġw ant
Ġw ould
Ġo wn
Ġà¥ªà¥ª à¥¦
Ġà¤Ľà¤ł à¤¸à¤®
à¤Ĩà¤ĩ à¤ĵà¤¸
ĠÐ¿ Ð¾Ð»
Ġk e
te rest
ail s
Ġà¤¤à¤¦ à¤ħà¤¨
âĢĭ âĢĭ
ĠÐº Ð¾Ð½
ĠÐ¿ÑĢ ÐµÐ´
ld quo
co in
çĶ ¨
Ġ{ {
ĠViews à¤¨
Ġ________ ____
ĠNet work
ĠSu pport
Ġà¤¹à¤°à¤¤ à¤°à¤¹à¤²
5 1
6 4
6 8
c ept
u a
v al
Ã Ĺ
æ ²
à¤¾ !!
à¤¨ à¤ªà¤ķ
à¤¨ à¤Ĺà¤¦
à¥ĩ ',
à¥ĭ âĢķ
à¤² à¤īà¤¦
à¥ģ &
Ġà¤¸ à¤²à¤Ĺ
Ġà¤ª à¤Łà¤°
à¤¦ à¤ľà¤¨à¤ķ
à¤µ à¤ªà¤¨
Ġà¤Ĺ à¤«à¤²
à¤Ĺ à¤°à¤£à¤®
Ġà¤¨ à¤ĵ
à¤ı à¤ŀ
à¤ı à¤Ĩà¤Ī
à¤ľ à¤ĸ
à¤ľ à¤¤à¤®
à¤§ à¤Ķà¤ªà¤¨
à¤¥ à¤ļ
Ġà¤Ĩ à¤Ľ
à¤ļ à¤®à¤¤
à¤Ī à¤Łà¤¨
à¤£ à¤¹à¤¤
Ġà¤ļ à¤īà¤°à¤®
à¤« à¤¸à¤¹
Ġà¤¥ à¤°à¤¹à¤°
Ġà¤ªà¤° à¤¹
à¤Ļ à¤¶
à¤°à¤£ à¤ļ
à¤ĺ à¤ª
Ġà¤ıà¤ķ à¤¬à¤¹
à¤¯à¤® à¤Ńà¤¨
à¤Ŀ à¤Łà¤®
Ġà¤īà¤ª à¤°à¤ķ
à¤ĩà¤¨ à¤ĸà¤¬à¤°à¤ķ
à¤Łà¤¨ à¤¹à¤°
à¤«à¤² à¤¸
Ġà¤Ķ à¤¸à¤§
à¤ıà¤¨ à¤¯
à¤¹à¤¨ à¤¦
Ġà¤¸à¤¹à¤Ń à¤Ĺ
à¤¾. )
à¤§à¤ķ à¤Ł
à¤łà¤ķ à¤ħà¤ĺ
Ġà¥¨à¥« à¥¯
re am
à¤¯à¤ķà¤° à¤¥
à¤Ńà¤ķ à¤°à¤ķ
à¤¥à¤ķ à¤¬
Ġà¥¨à¥® à¥§
Ġà¥¨à¥Ń à¥¨
Ġà¥¨à¥© à¥Ń
Ġà¥¨à¥¯ à¥§
à¤Łà¤¬à¤² à¤¸
en se
ĠS un
ĠC ity
Ðµ Ð»Ð¸
Ġs et
ÑĤ ÐµÑĢ
à¤ĩà¤¬ à¤°à¤²
Ġà¤ħà¤¸à¤® à¤ķ
à¤¨à¤Ń à¤µà¤¨
à¥Įà¤ģà¥¤ âĢĿ
il ly
à¤ģà¥¤ âĢĿ
Ġà¤ªà¤ļ à¤ªà¤¨
à¤¬à¤¤ à¤·
ur y
ĠK B
ir t
Ðº Ñĥ
ĠJ e
ak a
ap e
um p
ÐµÐ ±
à¤¾? âĢĻ
Ġ0 5
ust ral
aj ha
à¤¡à¤°à¤¸ à¤¨à¤²
Ġà¤ļà¤®à¤ķ à¤¦
pl ay
Ġte chn
ãģĹ ãģŁ
Com ments
Ġsec ond
Ġà¤¬à¤ķà¤¸ à¤ªà¤¤
ĠEve rest
) (
C E
S E
b b
c le
f acebook
j ung
k i
m ed
o sp
Ä Ľ
Ð ļ
Ð Ŀ
ç §
à¤¿ ï¿½...
à¤® à¤ľà¤¨
à¤® à¤¥à¤°
à¤¤ à¤¡à¤®
à¤¸ à¤ĩà¤¬
Ġà¤¸ à¤°à¤£
à¤µ à¤®à¤ķ
à¤Ĺ à¤¡à¤®
à¤ľ à¤¶à¤¬
Ġà¤¹ à¤¡à¤¬à¤¡
à¤¬ à¤°à¤¸à¤¹
à¤ıà¤ķ à¤¦à¤®
Ġà¤Ĩ à¤¨à¤ķ
Ġà¤Ĩ à¤ĵ
Ġà¤² à¤ľà¤ķ
à¤ļ à¤ľà¤¸
à¤ļ à¤Ķ
à¤Ī à¤¡à¤ķ
à¤£ à¤ªà¤Ł
à¤Ľ à¤Ńà¤¨
à¤ī à¤Ŀ
à¤°à¤® à¤Ńà¤¨
à¤¸à¤ķ à¤¨
à¤ľà¤¨ à¤¶à¤ķ
à¤¤à¤° à¤ħà¤¨
Ġà¤¨à¤Ĺà¤° à¤¸à¤®
à¤Łà¤° à¤Ĺ
à¤Łà¤° à¤¡
à¤Ĩ à¤¬à¤¦
Ġà¤ĵ à¤®à¤µ
à¤µà¤² à¤¸
à¤ĥ âĢĻ
Ġà¤ķà¤² à¤°à¤®
Ġà¤ĺà¤° à¤ĺà¤°à¤¬
Ġà¤®à¤² à¤Ĺ
à¤°à¤®à¤£ à¤µ
à¤²à¤¤ à¤Ń
à¤¸à¤¹ à¤¸à¤ļ
Ġà¥«à¥¦ à¥«
Ġà¤ıà¤¨ à¤Ĩà¤Īà¤¡
Ġà¥¦ à¥©à¥Ń
Ġà¤Ńà¤µà¤¨ à¤¸à¤®
ĠS ource
à¤µà¤¨à¤® à¤°à¤£à¤ķ
Ġà¤ľà¤¨à¤® à¤¤à¤®
ĠT o
ou d
Ð° ÑĪ
Ġp or
Ġp ass
Ġs ervice
Ġc ent
Ġc ook
Ġà¤¨à¤¸ à¤¹à¤¨
Ġà¤ıà¤« à¤ľ
Ġà¤ħà¤ľ à¤°à¤¬
à¤ĩà¤Ń à¤¸
Ġà¥ªà¥® à¥¦
à¤·à¤ķà¤® à¤§
à¸ ļ
Ġh igh
Ġà¤²à¤¹à¤° à¤ķ
à¤¤à¤ľà¤¨ à¤¸
Ġ4 8
Ġk now
ust om
à¥¤à¥¤ à¥¤à¥¤
Ġïģ ¬
ĠSh restha
ical ly
Ġà¤ħà¤®à¤¨ à¤ļ
ĠJohn ny
Ġever y
ĠKang aroo
ĠWeek ly
/ âĢĵ
P in
c ause
i eld
k o
n er
Å ¡
Ġ Ñı
Ġ ÑĨ
Ġ order
à¤ķ à¤¶à¤ª
à¤¯ à¤¯à¤²
à¤¯ à¤Ļà¤Ĺ
Ġà¤¸ à¤¯à¤®à¤®
à¤Ĺ à¤ıà¤°
Ġà¤¨ à¤«à¤²
Ġà¤¬ à¤Łà¤°
Ġà¤Ń à¤ľà¤¨à¤®
Ġà¤¹ à¤Łà¤¨
Ġà¤µ à¤ļà¤¨à¤®
à¤· à¤ļ
à¤¶ à¤ĸ
Ġà¤ľ à¤¹à¤°
à¤£ à¤¯à¤¸à¤¹
à¤Ń à¤µà¤¸
à¤ī à¤ľà¤°à¤ķ
Ġà¤ĸ à¤²à¤ķà¤ķ
à¤¢ à¤®
Ġà¤®à¤¹ à¤²à¤¹à¤°
Ġà¤¸à¤¹ à¤¯à¤¤
Ġà¤¡ à¤¨à¤²
à¤°à¤¦ à¤¹à¤®
à¤ķà¤² à¤°à¤¸
à¤ļà¤¨ à¤Ńà¤¨
à¤Ĺà¤¤ à¤¸
à¤²à¤¯ à¤ľà¤¸
Ġà¤ĵ à¤¥
Ġà¤¸à¤¦ à¤°à¤²
à¤Ĺà¤² à¤Ł
Ġà¤ªà¤¦ à¤®à¤²
Ġà¤Ĩà¤¦ à¤°à¤Ń
à¤¾. (
Ġà¥§à¥¯ à¥§à¥¯
Ġà¤§à¤¨ à¤¦
à¤¯à¤ª à¤¦à¤ķ
à¤ľà¤¯ à¤ĸà¤°
Ġà¤ķà¤¥ à¤¨à¤²
Ġà¥¨à¥§ à¥©
à¤Ĺà¤¬ à¤¸
à¤Ĺà¤®à¤¨ à¤¸
ad d
ad em
à¥Įà¤Ĥà¥¤ "
Ġl ove
Ġm ake
Ġà¥©à¥§ à¥¨
Ġà¥©à¥§ à¥®
ĠN AB
ĠN orth
ĠN isp
it ation
à¤ªà¤Ł à¤¨à¤²
à¤ıà¤« à¤ĵ
le ment
Ġà¤ªà¤¸à¤² à¤¸à¤®
ĠB ut
ĠB usiness
Ġw ere
ĠH el
Ġà¥ªà¥ª à¥«
ro s
ĠF orm
Ġà¤Ľà¤ł à¤ªà¤Ľ
ĠE lect
Ġà¤ĵà¤® à¤¨à¤®
-- -
lo em
th ers
à¤ĸà¤¨à¤¨ à¤¬
Ġà¥¦à¥ª à¥©
à¤ļà¤¥ à¤°à¤¬
âĢį à¥ĩ
ÐµÐ½ ÑĮ
ĠØ ¬
07 3
Ġen g
Ġ= >
à¥ħ à¤Ĥ
Ġad min
ĠNE PAL
ãģĹ ãģ¦
Ġà¤Ŀà¤ªà¤Ł à¤¬à¤¹
Ġyear s
Ã º
é ĸ
Ĵ Į
à¤¨ à¤īà¤¨
à¤ķ à¤°à¤¤
à¥ĭ âĢľ
à¤® à¤°à¤¹à¤°
à¤¯ à¤Ĺà¤¢
Ġà¤¸ à¤īà¤¦
Ġà¤ª à¤ķà¤²
à¤¹ à¤ħà¤ĺ
à¤¦ à¤°à¤¸
Ġà¤Ĺ à¤¯à¤²
Ġà¤° à¤ľà¤Ĺà¤ľ
à¤Ł à¤¶
à¤Ł à¤¸à¤¬
Ġà¤¨ à¤µà¤ķ
à¤ľ à¤°à¤¤
Ġà¤¹ à¤µà¤ķ
Ġà¤µ à¤²à¤²
à¤· à¤¹
à¤· à¤®à¤²
à¤§ à¤°à¤¹à¤°
Ġà¤Ľ à¤¡à¤ķ
à¤ıà¤ķ à¤Ľ
Ġà¤ľ à¤ķà¤°
à¤ļ à¤°à¤¬
à¤Ī à¤Ļ
à¤¡ à¤°à¤¸à¤¨
à¤Ń à¤¨à¤²
à¤ĸ à¤¨à¤¦
à¤¹à¤° à¤¦
Ġà¤¥ à¤ļ
à¤¯à¤ķ à¤®à¤§
Ġà¤ı à¤ıà¤¨à¤ıà¤ķ
Ġà¤ªà¤¨ à¤¡
à¤°à¤£ à¤®à¤¨
Ġà¤®à¤¹ à¤Ń
Ġà¤¬à¤¨ à¤µ
Ġà¤¸à¤¹ à¤¤
à¥Įà¤Ĥ !
à¤°à¤¹à¤° à¤®
à¤ħ à¤Ĺà¤¸
Ġà¥¨à¥¦ à¥®à¥¦
à¤µà¤¨ à¤¸à¤®
Ġà¥« à¥©à¥¦
Ġà¤¹à¤ľ à¤®
à¤Ĩ à¤¤à¤¦
Ġà¥ª à¥©à¥¦
Ġà¤Ĩà¤µ à¤°à¤£à¤ķ
à¤°à¤Ń à¤°à¤¬
à¤¾à¥ĩ à¤Ĥ
Ġà¤°à¤ķà¤® à¤Ńà¤¨
Ġà¤Ī à¤¨à¤°
Ġà¤¨à¤ķ à¤Ĩà¤īà¤Łà¤ķ
Ġà¤¤à¤² à¤µà¤®
Ġà¥¨à¥¨ à¥©
à¤®à¤ª à¤°à¤ķ
Ġà¤¶à¤¹à¤° à¤¤
à¤²à¤¸à¤® à¤ķ
Ġà¥¨à¥¬ à¥§
Ġà¥¨à¥¬ à¥¬
at ra
Ġl o
à¤¾à¥¤ '
à¤¾... )
Ġà¤¸à¤°à¤¸ à¤¹à¤¯
Ġà¤¬à¤¡ à¤ĺà¤°
ĠP ages
ĠA nt
à¤ªà¤¹ à¤ª
à¥§à¥§ à¥§
Ġre qu
à¥ĭ- '
Ġn a
à¤ıà¤ļ à¤ĵà¤²
ir a
Ġ3 8
id er
Ñĭ Ð²
........ ..
à¤ªà¤°à¤® à¤ª
ust r
ib ra
Ġpro p
og rap
ver t
ĠÃ Ľ
ĠÐ´ Ð¸
Ġcon f
æľ ¬
pl ore
ĠBl ue
Ġsu pport
à¤°à¤®à¤Ń à¤Ļ
ÐµÐº ÑĤ
è¿ Ļ
Ð½Ð¾ÑģÑĤ Ð¸
ĠTechn ology
ĠBit coin
ĠAssoci ation
? ,
F L
G B
c a
h up
Ã ´
Ã ½
Ð ¢
æ Ĭ
à¤ķ à¤ıà¤ķ
à¥ĭ âĢĺ
à¤² à¤ĸà¤¨
à¤¸ à¤Łà¤¨
à¤¸ à¤¸à¤Ń
à¤ª à¤«
à¤ª à¤¸à¤¨
à¤ª à¤¹à¤²
à¤Ĺ à¤°à¤¤à¤°
Ġà¤° à¤¸à¤¦
à¥Ī âĢĻ,
à¤Ł à¤ķà¤®à¤²
à¤ľ à¤¥
à¤ľ à¤®à¤®
Ġà¤¹ à¤°à¤¬
à¤· à¤®à¤ķ
Ġà¤¦ à¤¥
Ġà¤¦ à¤¶à¤¨
à¤ıà¤ķ à¤ªà¤Łà¤ķ
Ġà¤² à¤Łà¤®
à¤Ī à¤®à¤¹
Ġà¤ī à¤¤à¤°à¤¦
à¤ĸ à¤ªà¤Ľ
Ġà¤¯ à¤Ļ
à¥Į à¤ĥ
Ġà¤¶ à¤°à¤¤
à¤ĺ à¤ĺ
Ġà¤µà¤° à¤ª
âĢĻ (
à¤¯à¤¤ à¤¸à¤®
Ġà¥¨à¥¦ à¥®à¥«
Ġà¤ħà¤¸ à¤¨à¤ķ
à¥¨ à¥¦à¥¦à¥¦
Ġà¤¨à¤¯ à¤°
à¤¨à¤¸ à¤ªà¤Ľ
Ġà¤ħà¤® à¤°à¤ľ
à¤ĵ à¤Ī
à¤ķà¤°à¤£ à¤ľà¤¸
Ġà¤ªà¤¦ à¤ķà¤¬
à¤²à¤Ĺ à¤°à¤ķ
Ġà¤¦à¤² à¤¸à¤¹
à¤¤à¤µ à¤¹
à¤²à¤¸ à¤ľ
à¥¦à¥¦ à¥¦à¥¦
Ġà¤Ĩà¤Ī à¤ıà¤²
Ġà¥¨à¥ª à¥©
Ġà¤Ĩà¤ľà¤ķ à¤²à¤ķ
à¤®à¤ª à¤¶
Ġà¤¨à¤µ à¤§à¤¨
Ġà¤¨à¤µ à¤Ĩà¤Ĺà¤¨
Ġà¥¨à¥¬ à¥¨
Ġà¤ľà¤² à¤¦
ar r
Ġà¥¬à¥¦ à¥«
Ġt wo
ĠS ol
Ġà¤Ĩà¤ı à¤¤
or ies
à¤ıà¤« à¤®
Ġs i
Ð½ Ð¾Ð¼
à¤ħà¤¸ à¤«à¤²à¤¤
Ġà¤ļà¤°à¤£ à¤¦
ag n
Ġo pt
ĠF in
ĠF ire
Ġà¥ªà¥¬ à¥«
à¤ĸà¤¬ à¤°à¤²
à¤Łà¤°à¤¬ à¤°
im p
à¤ıà¤Ī à¤µ
à¤¨à¤Ĺ à¤¯
ĠV in
Ġ4 00
Ġst ress
ä¸ ª
one y
à¤Ĩà¤°à¤Ĩà¤Ī à¤®
Ġà¥§à¥®à¥® à¥§
áĥĺáĥ ¡
Ð½Ð¾ÑģÑĤ ÑĮ
akh ya
ĠNisp akhya
5 2
A Y
a im
f ect
h al
o or
Î »
Ø ¬
æ İ
è ´
à¤¨ à¤ľà¤¤
à¥ĭ à¥Ī
à¤¦ à¤¤à¤¬
Ġà¤ķ à¤Ńà¤°à¤®
à¤Ĺ à¤¨à¤¦
à¤Ĺ à¤£à¤¤
Ġà¥¤ âĢĵ
à¤Ł à¤ªà¤®
à¤Ł à¤īà¤ªà¤Ĺ
Ġà¤¨ à¤°à¤Ńà¤ķ
à¤ı à¤Łà¤°à¤²
Ġà¤® à¤Ĺà¤®à¤Ĺ
à¤ľ à¤°à¤¸
Ġà¤ħ à¤°à¤¹
Ġà¤µ à¤¨à¤ķà¤°
à¤¬ à¤¸à¤¹
à¤· à¤Ľ
à¤Ĥ (
Ġà¤² à¤ªà¤ķ
à¤Ī à¤¡à¤®
à¤ī à¤¡à¤¸
à¤¹à¤° à¤°
à¤ĩ à¤Ļà¤²
à¤Ļ à¤ķà¤²
Ġà¤« à¤°à¤¹
Ġà¤« à¤¡à¤ķ
Ġà¤ľà¤¨ à¤ħà¤¦
à¤ŀ à¤¶
Ġà¤ħà¤§ à¤ķà¤²
Ġà¤¡ à¤°à¤¤
à¤¤à¤° à¤Ĩà¤¤
à¤¯à¤¤ à¤Ńà¤¨
Ġà¤ł à¤¯
à¤¬à¤¨ à¤¸
à¤Łà¤¨ à¤ľ
Ġà¤¸à¤¨ à¤¤
à¤ľà¤ķ à¤¦
à¤¸à¤¦ à¤°à¤®
Ġà¤®à¤² à¤¹à¤°
à¤²à¤Ĺ à¤¬
Ġà¤ıà¤® à¤Ĩà¤°
Ġà¤Ĩà¤ĩ à¤ıà¤²
Ġà¤¥à¤ª à¤¡
Ġà¤ªà¤Łà¤ķ à¤¦
à¤¨à¤µ à¤°à¤¹
à¤¨à¤¬ à¤ķ
Ġà¥«à¥¦ à¥§
à¤¨à¤ª à¤ĸ
Ġà¤Ĺà¤£ à¤¬
Ġà¥¨à¥« à¥ª
re et
à¤§à¤¨à¤ķ à¤°
Ġà¤¤à¤² à¤ªà¤Ł
Ġà¤ľà¤¬ à¤ľà¤¬
on y
à¤Ĺà¤łà¤¨ à¤¦
Ġà¥¨à¥Ń à¥¯
à¤¤à¤°à¤ķ à¤ķ
Ġà¤°à¤¸ à¤Ĺ
ĠS ie
Ġà¤Ĩà¤ı à¤Ľà¤¨
Ġ1 000
à¤ĩà¤ķà¤² à¤¸à¤¹
ĠM a
Ġa uf
Ġc or
Ð½ Ñı
Ġw r
Ġw rit
Ġà¤¡à¤² à¤°à¤¸à¤¹
Ġà¤ķà¤¦à¤® à¤ª
à¥ĩ... âĢĻ
ĠH igh
ãģ ĵ
Ġà¥ªà¥¬ à¥§
ĠR at
Ġà¤µà¤¢ à¤¦
ĠO ut
Ġà¤Ĺà¤ľà¤² à¤¸
Ġin c
Ġin st
ir th
op p
à¥¦à¥¬ à¥¬
ip p
Ġà¤²à¤ĸ à¤ªà¤¤
à¤®à¤Ń à¤ŀ
ãĥ «
à¨ °
áŀ ļ
Ġà¤ıà¤®à¤ı à¤ıà¤ļ
Ð½Ð¸ Ðº
ĠRo ad
9 6
A n
H A
L e
R S
m d
å ĳ
Ġ ist
à¥į à¥į,
à¤¨ à¤ĩà¤ļ
à¤ķ à¤īà¤¤
à¤¿ &
à¥ĩ à¥ĭ
à¤® à¤¬à¤¨
à¤® à¤Ĩ
Ġà¤¸ à¤¸à¤¦
Ġà¤ª à¤Ń
Ġà¤ª à¤µà¤°
à¤µ à¤²à¤¬
Ġà¤Ĺ à¤ľà¤ķ
Ġà¤¨ à¤°à¤ķà¤®
Ġà¤Ń à¤īà¤ķ
Ġà¤ħ à¤°à¤¸
à¤¶ à¤¯à¤¬
à¤Ī à¤ķà¤°
à¤¡ à¤°à¤µà¤²
à¤Ľ à¤ľà¤¸
à¥Ĥ "
à¤ĸ à¤ħà¤¨
à¤ĩ à¤Ľà¤¨
Ġà¤ļ à¤®à¤ļ
à¥Į à¥Īà¤ģ
à¤²à¤ķ à¤®à¤§
à¤Ĺà¤° à¤¸à¤®
à¤ĩà¤¨ à¤¸à¤¹
à¤ħ à¤¥
à¤¯à¤¨ à¤¯
à¤¬à¤¨ à¤¬
à¥§ à¥©à¥¦
à¥įà¥¤ âĢĺ
à¤°à¤µ à¤¬à¤¹
à¤¸à¤¨ à¤§
Ġà¤Ĩà¤° à¤¡
Ġà¤īà¤¦ à¤¯à¤¸
Ġà¤¬à¤° à¤Ĺ
à¤¬à¤° à¤ľà¤¸
à¤ĵ à¤¸à¤ķ
à¥į, "
Ġà¤ĩà¤¨ à¤«
Ġà¤ħà¤ª à¤ł
à¥įâĢ º
à¤²à¤µ à¤¦
à¤¨à¤ª à¤Ł
à¤ıà¤® à¤ıà¤ķ
Ġà¥¨à¥§ à¥§
à¤µà¤¯à¤¨ à¤ªà¤Ľ
Ġà¤Ĩà¤Ī à¤ı
à¥ĩà¤ģ âĢĻ
Ġà¤ľà¤¬ à¤ľà¤²
à¤°à¤ĸ à¤¬à¤¹
Ġà¤ľà¤² à¤īà¤¤
Ġà¤Ĺà¤² à¤¬à¤¨
Ġt er
Ġà¤ħà¤¶ à¤°
à¤²à¤Ń à¤¤
ĠP a
ĠA ng
ĠM od
Ġc as
Ġà¤īà¤ªà¤ķà¤°à¤£ à¤¸à¤¹
à¥Ģà¤Ĥ ,
Ġà¤Ńà¤ĩ à¤Ľ
am er
Ġà¤¹à¤¨ à¤¨à¤ķ
Ġà¥ªà¥® à¥§
à¤°à¤ľà¤¨ à¤¨à¤ķ
Ġà¤¨à¤Ĺ à¤ıà¤ªà¤Ľ
ur ren
à¤Ļà¤Ĺ à¤£à¤®
ĠK antipur
Ġà¤²à¤¹à¤° à¤¹à¤°
à¤Ĩà¤ĩ à¤ıà¤®
ak er
Ġv ari
ĠU nd
ort s
Ġà¤®à¤¸à¤² à¤¨
ra w
Ġà¤Ńà¤ľà¤¨ à¤¹à¤°
ub l
à¤°à¤¬à¤¦ à¤²à¤ķ
Ð½Ñĭ Ð¼
Ġex t
Ġà¤ľà¤®à¤ĺ à¤Łà¤²
à¥ĩâĢĶ âĢĺ
à¤¨à¤Ĺà¤¢ à¤ķ
Ġáĥ Ľ
Ġcont ent
åĽ ½
ĠAcc ount
ĠGener al
sha res
ĠïĤ §
ĠDep artment
feren ce
Ã£ o
, à¥¤
I nd
b l
c il
l it
m à¤Ń
r ation
t op
v ers
y pe
Ê »
æ Į
æ ł
Ġ id
à¤ķ à¤Ļà¤ķ
à¥ģ ',
à¤¸ à¤ľà¤¨à¤ķ
à¤ª à¤¥à¤²
à¤µ à¤¢
à¤µ à¤ĩà¤ļ
Ġà¤Ĺ à¤ĩà¤¦
Ġà¤¬ à¤ķà¤µ
Ġà¤¹ à¤°à¤¸
à¤· à¤§à¤®
à¤§ à¤®à¤¤
Ġà¤¤ à¤¹à¤°
Ġà¤Ĩ à¤ľà¤¨
Ġà¤Ĩ à¤¡à¤µ
Ġà¤ľ à¤Ĺà¤°à¤¨
Ġà¤² à¤Ńà¤°
à¤Ī à¤¬à¤¹
à¤¡ à¤¸à¤¨
à¤£ à¤¦à¤²
à¥Ĥ âĢĻ,
Ġà¤¯ à¤ľà¤®
Ġà¤ħà¤¨ à¤²à¤ķ
à¤ªà¤¨ à¤¤à¤°
à¤²à¤® à¤¯
ĠâĢĺ âĢĻ
Ġà¤®à¤¨ à¤Ľ
à¤°à¤¦ à¤ªà¤Ľ
à¤·à¤£ à¤¤
à¤¤à¤® à¤ª
à¥ĭ, "
Ġà¤ħà¤¹ à¤²
à¤Ĩ à¤°à¤Ń
Ġà¤ĵ à¤łà¤¹à¤°
Ġà¤¸à¤¦ à¤Ĺà¤¤
à¤°à¤¶ à¤Ļ
à¤¬à¤° à¤Ń
à¤µà¤¤ à¤µ
à¤ĩà¤² à¤¨à¤ķ
Ġà¤¸à¤¤ à¤¤
à¤¬à¤² à¤¹à¤°
à¤¾. ),
à¤ľà¤Ĺ à¤¤à¤ķ
à¤¹à¤® à¤£
Ġ- âĢĿ
à¤Ńà¤µ à¤¹
Ġà¥¨à¥® à¥®
à¥¨à¥¦ à¥«à¥¯
à¥¨à¥¦ à¥«à¥Ń
Ġm it
st er
ĠS T
Ġà¤¹à¤ķ à¤Ń
Ġà¤Ĺà¤ı à¤¦
à¤ĩà¤ķà¤² à¤¹à¤°
ĠC ha
Ġà¥©à¥© à¥§
he ll
ic o
ĠM er
Ġp age
Ð¸ Ñĩ
Ġà¤Ĺà¤ľ à¤²à¤¬
Ġc al
à¤®à¤¶ à¤°
Ġw ord
ãģ į
ãģ ł
Ġà¤Ĩà¤īà¤Ł à¤ª
Ġn ow
ir l
ĠJ ack
à¤¹à¤ª à¤ŀ
áĥ ķ
à¤ĩà¤²à¤® à¤ķ
lo s
Ñĭ Ð¹
ly wood
à¦ ¿
te xt
à¤ıà¤¨à¤Ĩà¤° à¤Ł
Ġà¤¹à¤µà¤² à¤¦
ĠÌ Ĭ
Ġbe ing
ĠÙ ¾
Ġà¤¬à¤ļà¤¨ à¤¬à¤¦
ÑģÐº Ð¸Ð¹
ðŁ Ĵ
Ä± n
è¡ Į
Ġà¤īà¤Ńà¤¯ à¤ļà¤°
) /
) ...
4 3
5 7
M E
N S
P L
j i
o ice
p a
w atch
z i
Ã Ł
Ê ¼
Ï ģ
ç ´
à¤¾ âĢĮ
à¤¨ à¤¤à¤°à¤£
à¤¨ à¤Ĺà¤ª
à¤ķ à¤°à¤¹
à¤² à¤ļà¤¸
à¤¯ à¤ļà¤¨
à¤¸ à¤Ī
à¤¸ à¤Łà¤²
Ġà¤¸ à¤¶à¤¤
à¤µ à¤«
à¤µ à¤īà¤ªà¤°
Ġà¤° à¤ľà¤µ
Ġà¤° à¤ħà¤ķ
Ġà¤¨ à¤®à¤ķ
Ġà¤ħ à¤Łà¤µ
Ġà¤¹ à¤²à¤Ĺ
à¤¬ à¤ķà¤¹à¤°
à¤§ à¤¯à¤ķ
à¤§ à¤°à¤£à¤¹à¤°
Ġà¤¤ à¤ĸ
Ġà¤¤ à¤ķà¤¨
à¤ģ ?
à¤¶ à¤²à¤®
Ġà¤² à¤Łà¤°
à¤Ī à¤ıà¤²
à¤¡ à¤Łà¤ķà¤®
à¤ī à¤¥à¤µ
à¤°à¤ķ à¤¹
Ġà¤ļ à¤°à¤ķ
Ġà¤ı à¤¸à¤²
Ġà¤ı à¤¨à¤µ
Ġà¤ı à¤²à¤¬à¤®
à¤Ļ à¤®à¤§
à¤ľà¤¨ à¤ħà¤¨
à¤¸à¤® à¤¸à¤®
à¤¯à¤¨ à¤ľ
à¤µà¤° à¤¬à¤¦
à¤µà¤¨ à¤ľ
à¤°à¤µ à¤¹à¤°
à¥¨ à¥¨à¥¦
Ġà¥« à¥§à¥¦
à¤·à¤ķ à¤ħà¤¨
à¥Īà¤Ĥ à¥¤
à¥Įà¤ģ ?
à¤Ĺà¤² à¤¸à¤®
Ġà¤¹à¤° à¤«à¤®
Ġà¤ķà¤² à¤¶à¤®
Ġà¤ĺà¤° à¤«
Ġà¤ªà¤¦ à¤®à¤ķ
Ġà¥® à¥©à¥¦
Ġà¤¬à¤¹ à¤¤
Ġà¤¬à¤¹ à¤¶
Ġà¥¯ à¥Ńà¥¦
Ġà¤¦à¤² à¤Ńà¤¨
à¤¬à¤² à¤¦
à¤¾. ,
Ġà¤ħà¤² à¤¸
à¤²à¤µ à¤ľ
Ġà¤Ĩà¤Ī à¤ıà¤ķ
Ġà¤¸à¤¡ à¤¨
à¤ļà¤¨à¤® à¤¯
à¤¤à¤°à¤ķ à¤¹à¤°
Ġà¥ªà¥¦ à¥«
ad o
à¤ķà¤µ à¤¹
à¤µà¤¶ à¤°à¤£
at al
à¤Ĩà¤Ī à¤ĵà¤¸
Ġm en
Ġà¤ıà¤² à¤ıà¤²à¤¸
à¥Ĥà¤ģ à¥¤
ĠN aya
ĠP u
à¤īà¤ª à¤ľ
ou g
Ġp e
Ġp rom
Ġc op
Ġd ur
ĠÂ °
ĠB ay
ÑĢ Ð¾Ð²
ĠD el
ĠD et
ĠE p
Ġà¤¦à¤¹ à¤ļ
Ġin to
à¸ ¸
Ġà¥Ńà¥¬ à¥«
us e
ĠW ork
à¤¨à¤Ľ à¤¹à¤°
ĠJ un
à¤Ĩà¤ĩ à¤ıà¤¨à¤ľ
Ġà¤Ĩà¤Ĺà¤®à¤¨ à¤ªà¤Ľ
oc iety
ãĢ Ĭ
Ġà¥§à¥¯à¥ª à¥§
ail able
Ġ!!! !
Ġcon nect
ĠSam loem
Ñį Ñį
Ġà¤²à¤ļà¤ķ à¤¦
ĠEn ter
ĠEng ine
à¤ħà¤µà¤¤ à¤°à¤£
èĢ ħ
ĠÄ ĳ
5 9
D A
D C
U n
v ar
x x
y an
Ã Ī
å İ
å ĴĮ
ç İ
Ġ il
à¤° à¤°à¤®
à¤ķ à¤°à¤µ
à¤ķ à¤Ļà¤®
à¤® à¤°à¤¹
Ġà¤ķ à¤¸à¤®à¤¸
Ġà¤Ĺ à¤¤à¤ķ
à¤Ĺ à¤ľà¤¬
à¥Ī "
à¤Ł à¤¸à¤¨
à¤Ł à¤µà¤¯
Ġà¤¨ à¤Ī
Ġà¤® à¤ĺ
Ġà¤® à¤Ĺà¤°à¤®
Ġà¤ħ à¤°à¤®
Ġà¤ħ à¤¶à¤²
à¤¬ à¤ļà¤¤
Ġà¤¦ à¤¹à¤¬
Ġà¤Ĩ à¤Ĺà¤¤
Ġà¤ľ à¤ĸ
à¤ļ à¤°à¤£à¤²
à¤Ī à¤¨à¤¹à¤°
à¤¡ à¤®à¤®
à¤¡ à¤¦à¤°
à¤£ à¤¨à¤®
à¤ī à¤¤à¤¸
à¤Ļ à¤Ŀ
à¤¢ à¤¹à¤°
à¤ĺ à¤¶
Ġà¤ľà¤¨ à¤ľà¤¨à¤®
à¤¤à¤° à¤ªà¤Ľ
Ġà¤ħà¤° à¤¬à¤¸
à¤µà¤° à¤ľà¤¸
à¤²à¤¯ à¤¸à¤®à¤ķ
à¥ĩ, ...
à¤²à¤¬ à¤¡
à¤·à¤£ à¤ľà¤¸
à¥ĭà¥¤ )
à¤¤à¤¨ à¤¤
Ġà¥ª à¥Ńà¥«
à¤«à¤² à¤«
à¤¿à¤Ĥ ,
à¤¤à¤² à¤¹à¤°à¤²
Ġà¤¸à¤¯ à¤¬
Ġà¤¸à¤¯ à¤ľà¤¤
Ġà¤ħà¤® à¤°à¤°
Ġà¤Ĩà¤ľ à¤µ
à¤ĵ à¤Ĩà¤Īà¤ª
Ġà¤ħà¤¬ à¤®
Ġà¤ĸà¤° à¤ĸà¤°
à¤ľà¤® à¤§
à¤°à¤¨ à¤¬
à¤ļà¤ķ à¤¸
Ġà¤¬à¤ļ à¤¤à¤²
à¤²à¤µ à¤¬
à¤¨à¤ª à¤¹
à¤®à¤¸ à¤Ļà¤ķ
Ġà¥¦ à¥ªà¥¦
Ġà¥¨à¥§ à¥¦à¥¦
à¥ĩà¤Ĥ -
à¤°à¤ĸ à¤®
Ġà¥¨à¥® à¥¬
Ġà¥¨à¥® à¥¯
à¥¨à¥¦ à¥«à¥«
Ġà¤¨à¤µ à¤°à¤¤
Ġà¥¨à¥¬ à¥©
à¤ĩà¤¸ à¤¯
Ġà¤¸à¤¹à¤° à¤Ń
Ġà¥©à¥§ à¥©
à¥ģà¥ģ à¥ģà¥ģ
ĠP lease
Ġà¥ªà¥« à¥Ń
ĠC L
ĠC ard
Ġà¤¨à¤Ĩ à¤ĩà¤ª
ĠT em
ou gh
he m
à¤ıà¤« à¤ıà¤¸
ĠM S
Ġp our
Ġp df
Ġa fter
le ar
is ion
il s
Ġà¤Ńà¤ĩ à¤ıà¤²
Ġà¥©à¥¯ à¥§
ĠL GCDP
ĠE l
Ġà¥ªà¥Ń à¥¦
ĠR am
ĠO b
Ġon ly
Ġin s
Ġh ome
ãĢ ĭ
ill a
ve y
ast e
Ġ200 6
à¤ıà¤¸à¤ıà¤² à¤Ĩà¤°
Ġà¥§à¥®à¥® à¥¬
à¤ķà¤ħ à¤ªà¤²
TC O
Ġà¤ĵà¤ĸ à¤°à¤¬
ĠHe alth
ĠMan ang
itt le
ĠShare Point
Ð°Ð¹ ÑĤ
vis ion
à¸ĩ à¸
ĠAmer ican
ĠHead line
ĠLam jung
ĠEuro pe
B l
O P
S h
U M
b it
c ip
d a
f ore
m à¤¤
w ar
Ð ľ
à ½
à¥į ),
à¤° à¤ĸà¤²
à¤¨ à¤°à¤¸à¤¹
à¤¤ à¤Ł
à¤¤ à¤Ŀ
à¥Ģ âĢĺ
Ġà¤¸ à¤¸à¤¸
Ġà¤ª à¤¶à¤¨
à¤¦ à¤µà¤ª
à¤Ĺ à¤£à¤²
Ġà¤¨ à¤ľà¤²
Ġà¤¹ à¤¬à¤®
Ġà¤Ľ à¤¤à¤ķ
Ġà¤Ĩ à¤ŀ
Ġà¤Ĩ à¤®à¤ķ
à¤¡ à¤¬à¤ķ
à¤Ń à¤°à¤¹à¤°
à¤ĸ à¤ľà¤¸
à¤ĸ à¤®à¤¦
Ġà¤¯ à¤¶à¤°
Ġà¤¸à¤® à¤°à¤ķ
Ġà¤ļ à¤¯
à¤ł à¤¯à¤ķ
Ġà¤ħà¤¨ à¤¸à¤¨à¤²
Ġà¤« à¤Ľà¤°
Ġà¤®à¤¹ à¤¬
Ġà¤ľà¤¨ à¤Ĩà¤µ
à¤¯à¤¤ à¤¹
Ġà¤²à¤Ĺ à¤¨à¤ķ
à¤ħ à¤²à¤ķ
Ġà¤īà¤¨ à¤¨
à¤µà¤° à¤§
à¥Ģ, âĢĻ
Ġà¤Ŀ à¤Łà¤ªà¤Ł
à¤¤à¤® à¤¨à¤¸
à¥© à¥©à¥¦
Ġà¤ĵ à¤ıà¤¸à¤¸
à¤Ĺà¤² à¤«
Ġà¥¬ à¥©à¥¦
à¤¯à¤° à¤¨
Ġà¤¢ à¤ªà¤ķ
à¤ĵ à¤Ĺ
Ġà¤ħà¤¬ à¤Ĺà¤¤
Ġà¤Ĩà¤īà¤¨ à¤¬
Ġà¤Ĩà¤® à¤ª
Ġà¤Ĩà¤® à¤µ
Ġà¤ıà¤® à¤Ĩà¤Īà¤Ł
à¤°à¤¨ à¤¦
à¤¤à¤°à¤£ à¤²à¤Ĺ
à¤®à¤¦ à¤¯
à¤¨à¤Ĺà¤° à¤ªà¤²
à¤®à¤¬ à¤°à¤£
Ġà¥¨à¥« à¥®
Ġà¥©à¥¦ à¥§
à¤¯à¤£ à¤¦à¤¤
à¤ķà¤¸ à¤ªà¤®
à¤ªà¤£ à¤¬
à¤Ĺà¤¢ à¤²
Ġà¤Ńà¤¤ à¤Ńà¤¤
à¥¨à¥¦ à¥«à¥©
à¥¨à¥¦ à¥¬à¥§
ĠÐ Ľ
om s
Ġà¥©à¥« à¥ª
ĠS ER
Ġà¤ıà¤² à¤ıà¤²
Ġà¤¨à¤Ĺà¤¦ à¤°à¤¹
it ive
ĠP at
ĠP ati
à¤µà¤ķà¤ª à¤ªà¤Ľ
ĠC al
Ġà¥©à¥© à¥©
Ġà¤¶à¤µ à¤Ĺ
Ġp ic
Ġp ay
Ġs he
à¤¯à¤°à¤ķ à¤ª
ĠB as
Ġw ell
ĠH ow
Ġre p
à¤¦à¤¨à¤² à¤Ĺ
Ġà¥¬à¥ª à¥¦
ĠR aj
ĠR ights
Ġà¤Ĩà¤īà¤Ł à¤®
à¥įâĢĻ âĢĵ
Ñĥ Ñģ
à¤ľà¤Ĺà¤¢ à¤²
à¤°à¤¸à¤ķ à¤¨
our n
Ġà¤ªà¤¥ à¤Ń
arm a
ãĥ ĥ
à¤ıà¤ľà¤¸ à¤°
ĠRe l
Ġà¤ıà¤¸à¤ıà¤®à¤ıà¤¸ à¤¬
à¥¨à¥¦à¥¦ à¥©
ĠSt andard
Ġr ight
ain t
Ð°Ð½ Ð¸Ñı
Ġà¤µà¤ľà¤¨ à¤¦
Ð³ Ð¾
ick et
Ġà¤°à¤ĸ à¤µ
Ġà¤Ĩà¤ĩà¤ĵ à¤ıà¤®
Ġman y
ĠSch ool
istr ation
Ġà¤°à¤¹à¤¨à¤¸à¤¹ à¤¨à¤ķ
Ġoak leys
Ġà¤¦à¤²à¤¬à¤² à¤¸à¤¹
Ġà¤ıà¤¸à¤ıà¤² à¤Ĩà¤°
, (
A pp
M e
Q L
U K
c el
h ip
m p
o j
r as
ç «
ç Ĳ
à¥į Ã·
à¤° à¤Ĩà¤ĸ
à¤ķ à¤ĵà¤Ńà¤°
à¥ĭ Â»
à¤² à¤Łà¤®
à¤¯ à¤Ľ
à¤¦ à¤ľà¤¨
Ġà¤° à¤£à¤¸
à¤Ł à¤Ĺà¤¦
à¤ı à¤ıà¤®à¤¸
Ġà¤¬ à¤¬à¤¨
Ġà¤® à¤°à¤Ń
à¤¬ à¤°à¤¹
à¤§ à¤°à¤¸
à¤¥ à¤Ń
à¤¶ à¤Ł
Ġà¤Ĩ à¤¸à¤¨à¤ķ
à¤¡ à¤¸à¤°
à¥Ĥ âĢĶ
à¤ĸ à¤ķà¤®
à¤ĸ à¤ľà¤¤
Ġà¤¯ à¤®à¤¬
âĢ ¨
Ġà¤ļ à¤¯à¤¨à¤²
Ġà¤Ńà¤¨ à¤ķ
à¤īà¤¨ à¤¨
à¤ĺ à¤°à¤¦
Ġà¤ľà¤¨ à¤¦
à¤¯à¤® à¤ĸ
Ġà¤Ł à¤µ
à¤ªà¤¨ à¤¤
Ġà¤ĩ à¤Ĺà¤²
à¤¯à¤¨ à¤Ĺà¤°
à¤¯à¤¨ à¤¤à¤°
à¥§ à¥¨à¥¦
Ġà¤Ńà¤ı à¤¥
à¤²à¤¨ à¤ľà¤¸
à¥¨ à¥«à¥¦
à¤µà¤² à¤¦
à¤ıà¤¨ à¤Ľ
à¤£à¤¯ à¤¬à¤®
Ġ| âĢĿ
Ġà¥§à¥¯ à¥¦à¥ª
Ġà¥§à¥¯ à¥©à¥Ń
à¤ıà¤¸ à¤Ĩà¤°
à¤·à¤¦ à¤¦
Ġà¤ıà¤¨ à¤ıà¤®à¤¸
à¤ľà¤¯ à¤¦à¤¶à¤®
re l
Ġà¥¦ à¥©à¥¯
Ġà¤µà¤¨ à¤¸à¤®
à¥¨à¥¦ à¥ªà¥Ń
Ġà¤¬à¤® à¤ľà¤¨
ar ge
Ġà¥©à¥§ à¥§
it le
Ġà¥©à¥¨ à¥©
ĠT aja
Ðµ Ðµ
à¤ıà¤« à¤¡à¤¬
ĠA v
Ġp op
Ġc ur
Ġà¤ıà¤¡ à¤ª
Ġb et
Ġà¥©à¥¯ à¥¦
Ġà¥©à¥¯ à¥¨
Ġà¥«à¥® à¥¦
ĠâĢĿ ,
ĠL ong
ĠG e
Ġà¤ľà¤Ĺà¤¤ à¤¸
Ġà¤ĸà¤ªà¤¤ à¤®
Ġà¥Ńà¥¬ à¥§
Ġ3 7
à¥ĩ? '
ak ing
à¤¨à¤Ĺ à¤Ī
Ġv an
os ition
Ġà¤Ĺà¤Ĺà¤¨ à¤Ĺ
ab in
Ġth ese
Ġà¤¦à¤°à¤® à¤ĸ
Ġà¥§à¥¯à¥ª à¥ª
à¤¾à¥Īà¤ģ à¥¤
Ġà¤®à¤²à¤® à¤ªà¤Ł
Ġà¤²à¤ĸà¤¨ à¤īà¤¸
à¥¨à¥¦à¥¦ à¥¯
ĠÐ¸ Ð»Ð¸
à¹ ģà¸
az ine
ĠÐ± Ñĭ
ÙĨ Ø¯
ĠBl u
à¤°m à¤®à¤®
Ġà¤Ŀà¤®à¤ķ à¤ķ
à¤¡à¤ļ à¤¢
ĠÐ° Ð²
Ð°ÑĨ Ð¸Ð¸
à¤¸à¤ı à¤ªà¤®
' t
/ >
G A
I E
V i
h re
u z
v t
v ir
Ã ±
Ä ģ
Ï Ħ
Ð Ĵ
Ù ĥ
æ ĥ
ç Ļ
è µ
ë ĭ
ô Ģ
Ġ Ê»
Ġà¤ ±
à¤° à¤ħà¤²
à¤ķ à¤°à¤¸à¤¹
à¤¸ à¤¸à¤®à¤ķ
Ġà¤¸ à¤Łà¤°à¤®
Ġà¤ķ à¤ķà¤Ł
Ġà¤¨ à¤ĩà¤²
Ġà¤¨ à¤ªà¤²
Ġà¤¨ à¤īà¤®
à¤ı à¤¸à¤Ń
Ġà¤Ń à¤°à¤¦
Ġà¤µ à¤¸à¤²
Ġà¤Ľ à¤Ļ
Ġà¤¤ à¤¹à¤¤
à¤ļ à¤«
à¤Ī à¤¹à¤ª
à¤¡ à¤µà¤¤
à¤Ľ à¤²à¤«
à¤ĸ à¤°à¤¹à¤°
à¤ī à¤¥à¤ķ
Ġà¤¸à¤® à¤ªà¤°
à¤°à¤® à¤¬à¤¹
à¤« à¤¤à¤ķ
Ġà¤¥ à¤¯
Ġà¤ı à¤·
Ġà¤ı à¤ıà¤«
à¥ĥ à¥ĩ
à¤Ļ à¤Ĺà¤°
Ġà¤ĺ à¤°à¤¸à¤¹
Ġà¤ıà¤ķ à¤¦à¤°
à¤²à¤® à¤ª
à¤¤à¤° à¤ĸ
à¥ģà¤ģ à¤ģ
Ġà¤ħà¤¸ à¤¨à¤®
à¤®à¤ķ à¤Ł
à¤°à¤µ à¤ļà¤¨à¤®
à¤Ĩ à¤ĩà¤®
à¥© à¥¨à¥¦
Ġà¤¨à¤¯ à¤ª
Ġà¤ľà¤¸ à¤¸
Ġ? ...
Ġà¤¸à¤®à¤¯ à¤ªà¤¶
à¤ķà¤°à¤£ à¤¸à¤¹
Ġà¤ªà¤¦ à¤¸à¤®
Ġà¥® à¥¦à¥¦à¥¦
Ġà¤¬à¤¹ à¤¸à¤¬
Ġà¥¯ à¥©à¥¦
à¤¹à¤¨ à¤¹à¤°
à¤ķà¤ª à¤ª
à¤ķà¤ª à¤¥
Ġà¥¤âĢĻ âĢĵ
à¤°à¤ª à¤¹à¤°
à¤¨à¤¬ à¤¸
à¤¦à¤µ à¤¦
Ġà¤¹à¤¸ à¤¨à¤ķ
à¤ıà¤® à¤Ĩà¤°à¤ª
Ġà¥©à¥¦ à¥¬
Ġà¤Ńà¤Ł à¤Ńà¤Ł
Ġà¤Ńà¤µ à¤¨à¤²à¤Ĺ
Ġà¥§à¥ª à¥§à¥«
Ġà¥§à¥® à¥©à¥§
Ġà¥§à¥® à¥«à¥Ń
Ġà¤ªà¤°à¤® à¤ªà¤°
Ġà¤ķà¤µ à¤¯à¤¤
Ġà¥¦ à¥©à¥®
à¤¯à¤Łà¤¨ à¤¦
à¤Ĩà¤° à¤ı
à¤Ĩà¤° à¤Ĩà¤Īà¤ķ
Ġà¤Ĩà¤Ī à¤Łà¤®
an ia
Ġà¤¶à¤¹à¤° à¤µ
Ġà¤Ńà¤ıà¤¨ à¤Ľ
à¤Łà¤°à¤ķ à¤¹
ĠS a
ĠS ing
Ġà¤Ńà¤°à¤¤ à¤®à¤£
ĠC ap
ĠT ime
ou l
ic les
Ġà¤¶à¤µ à¤ªà¤°
ĠM c
à¤ģ, '
à¤·à¤¬ à¤¢
Ġà¥©à¥Ń à¥¨
à¤ħà¤ª à¤¡
ĠH ong
Ġà¥ªà¥¨ à¥«
Ġà¤· à¤¤
ag g
à¤°à¤ľà¤¨ à¤¬
ro ss
Ġà¤¨à¤Ĺà¤°à¤ķ à¤®
ĠG lobal
ch en
à¸ ¥
Ġh ad
Ġh ours
à¤Ĩà¤ĩ à¤ıà¤²
ak es
Ġà¤ĺà¤°à¤Ń à¤Ī
Ġà¤Ĩà¤Ĩà¤« à¤¨
à¤¾: -
à¤°à¤ķà¤°à¤£ à¤¸
ĠØ ±
Ġpro duct
ain ik
ÐµÑĤ ÑģÑı
Ø± ÛĮ
ĠÐº Ð°Ðº
Ð½Ð¾ Ðµ
ÑģÑĤÐ² ÐµÐ½
Ġà¤¶à¤ª à¤¥à¤ķ
ĠðŁ ĳ
anch ar
Pr ab
cont ent
ĠDocu ments
áĥĿ áĥ
okh ara
9 0
I F
P l
T r
c ap
m à¤Ł
m à¤²à¤ķ
n ic
Ġ ãĤ
Ġà¤ İ
à¤° à¤«à¤¤
à¤ķ à¤·à¤£à¤ķ
à¤® à¤ªà¤£
à¥Ģ âĢĿ,
à¤¹ à¤ªà¤¶
à¤ª à¤ľà¤¨
Ġà¤ķ à¤°à¤£à¤ķ
à¤Ł à¤°à¤¹
Ġà¤¨ à¤īà¤Ń
Ġà¤¬ à¤¨à¤ķà¤°
Ġà¤® à¤Ĺà¤ľ
à¤¬ à¤®à¤§
à¥Ĥ /
à¤Ń à¤·
à¤ī à¤§à¤¨
à¤ī à¤²à¤Ĺ
âĢ İ
à¤ĩ à¤¬à¤¸
à¤¯à¤ķ à¤¶
Ġà¤« à¤¨à¤ķ
à¤¨à¤® à¤¯
Ġà¤¸à¤ķ à¤¸à¤ķ
à¤ªà¤¨ à¤¨
Ġà¤ħà¤§ à¤¯à¤ķ
Ġà¤ķà¤° à¤Ļ
Ġà¥¨à¥¦ à¥®à¥¨
à¤·à¤£ à¤Ńà¤¨
... ]
à¤Ĩ à¤µà¤¦
à¤ķà¤° à¤¨à¤Ĺà¤°
à¤Ĺà¤² à¤¤à¤°
à¤¿à¤Ĥ à¤Ĥ
à¤§à¤¨ à¤Ńà¤¨
Ġà¥Ń à¥§à¥¦
Ġà¥Ń à¥¦à¥¦à¥¦
ĠâĢľ ...
Ġà¤Ĩà¤ĩ à¤¡à¤²à¤²
à¤ķà¤¨ à¤ľ
à¤¬à¤² à¤¸
Ġà¥§à¥¯ à¥¦à¥«
à¤¦à¤µ à¤¹à¤°
Ġ... âĢĿ
Ġà¤ıà¤¨ à¤ħ
Ġà¤Ī à¤¦à¤ķ
à¤ªà¤¦ à¤¬
Ġà¥§à¥® à¥ªà¥®
à¤¯à¤£ à¤¥
à¥Ī, âĢĻ
Ġà¤µà¤¨ à¤Ĺ
Ġà¤Ĩà¤Ī à¤ĵà¤ıà¤¸
al ax
Ġà¤¦à¤¸ à¤µà¤°
ĠÐ Ĺ
Ġt est
ĠS ar
ĠS outh
Ġà¤¦à¤¶à¤ķ à¤¤
à¥Ĥà¤ģ à¤Ĥ
ore a
ĠC re
à¤īà¤ª à¤¹
Ġà¤¨à¤Ĩ à¤ıà¤ªà¤¨
à¤ıà¤« à¤ľ
à¤µà¤¹ à¤¨à¤ķ
Ġd on
Ġ) à¥¤
ĠI D
ÑĢ ÐµÐ¼
Ġw eek
il es
à¤¼ à¥Ī
Ġà¥§à¥¦à¥¦ à¥®
à¤Ĩà¤ľ à¤¸à¤®
à¥§à¥¯ à¥¯à¥®
Ġà¤īà¤ĸ à¤°à¤®
Ġà¥ªà¥¯ à¥¦
Ġà¥«à¥Ń à¥¦
à¸ ģ
à¤ıà¤ļ à¤ıà¤²
id th
Ġà¥¯à¥® à¥¦
Ñĥ Ñĩ
à¤Ĩà¤ĩ à¤µ
à¥į- '
Ġâ Ĺ
Ġà¤ĵà¤Ľ à¤¯
à¤ªm à¤ķ
ong s
à¤°à¤ªà¤¥ à¤Ń
ĠÐ¾ Ñģ
Ġà¤Ĩà¤¯à¤ķ à¤°à¤®
Ġà¤ıà¤¯ à¤°à¤¸
à´ ¿
ĠâĢĵâĢĺ âĢĺ
ES S
Ġà¤¯à¤®à¤¨ à¤¸
ÙĪ Ø¯
ĠQ ual
à¤¤à¤²à¤¹à¤° à¤¬
åĪ °
Ġà¤¸à¤¤à¤² à¤ľà¤²
ansp osh
& #
C A
a it
g in
j p
s ych
Ã ¢
å ł
æ µ
à¥į à¥Īà¤Ĥ
à¤° à¤ľà¤Ĺ
à¤¨ à¤¦à¤°
à¤ķ à¤¬à¤¨
à¤ķ à¤²à¤ķà¤²
à¤² à¤¤à¤µ
à¤² à¤ľà¤µ
à¤® à¤¸à¤Ń
à¤¤ à¤¹à¤®
à¥ģ à¥ģÂ¥
à¤¸ à¤°à¤¦
Ġà¤¸ à¤«à¤¤
Ġà¤ª à¤īà¤²
à¤¹ à¤ľà¤¨à¤²
Ġà¤ķ à¤£à¤ķ
Ġà¤ķ à¤ļà¤²
Ġà¤¬ à¤ķà¤¬
Ġà¤® à¤²à¤¬
à¤ľ à¤ĸà¤¬à¤°
Ġà¤ħ à¤²à¤¨
à¤¥ à¤²à¤¤
Ġà¤Ĩ à¤¸à¤²
Ġà¤ľ à¤ľà¤¸à¤²
à¤Ī à¤ħà¤¨
à¥Ĥ ?
à¤ī à¤°à¤ķ
Ġà¤ļ à¤µ
Ġà¤Ńà¤¨ à¤ª
à¥Į !
Ġà¤ı à¤ıà¤¨
à¤ł à¤ľà¤¸
à¤ĺ à¤ľà¤¸
Ġà¤ıà¤ķ à¤²à¤®
Ġà¤Ł à¤«
à¤Ŀ à¤¨à¤ķ
à¤¯à¤¤ à¤ħà¤¨
Ġà¤ķà¤® à¤²à¤¦
Ġà¤ł à¤°
Ġà¤¸à¤¬ à¤°
Ġà¤¸à¤¬ à¤¨
à¤µà¤° à¤ļà¤¨
à¤°à¤µ à¤¬
Ġà¥« à¥Ńà¥«
Ġà¤Ŀ à¤Ļ
Ġà¤Ŀ à¤ªà¤ķ
à¥ĭ, ...
Ġà¤ħà¤¹ à¤¸
à¤ķà¤° à¤¸à¤®
Ġà¤¸à¤° à¤¸à¤®
Ġà¤ĵ à¤Īà¤°
Ġà¥¬ à¥¦à¥¦à¥¦
à¤¶à¤¨ à¤Ń
à¤¨à¤¸ à¤°à¤¹
à¤¯à¤° à¤Ĺ
à¤ĵ à¤¢
à¤ķà¤°à¤£ à¤µ
à¤¹à¤¨ à¤¤à¤®
à¤µà¤¤ à¤¤
Ġà¥§à¥¯ à¥©à¥«
Ġà¥§à¥¯ à¥©à¥¬
à¤¸à¤¹ à¤µ
à¤ıà¤¸ à¤°à¤¹
à¤°à¤ľ à¤Ĺà¤¤
à¤ıà¤® à¤¹à¤°
Ġà¤Ī à¤Ĺ
Ġà¤Ńà¤Ī à¤¯
in ce
Ġà¤Ĭ à¤®
Ġà¤Ĭ à¤ª
Ġà¥¨à¥ª à¥®
Ġà¥¨à¥® à¥ª
à¥¨à¥¦ à¥«à¥ª
à¤ıà¤² à¤¡
Ġà¤ĸà¤¬à¤° à¤ħà¤¨
à¤Ĩà¤Ī à¤®
Ġà¥©à¥§ à¥Ń
Ġà¥©à¥« à¥¬
à¥¤âĢĻ âĢĻ
ĠM AR
Ġ20 73
Ð¸ Ð»Ð¸
Ġs ource
Ġc ode
à¤§à¤¨à¤® à¤§
ĠB ig
ĠB est
Ġw ay
Ġà¤ıà¤¡ à¤ľà¤¸
Ġà¥©à¥Ń à¥¯
Ġà¥©à¥® à¥«
ĠH appy
à¥§à¥¯ à¥¯à¥«
Ġà¤¬à¤Ł à¤¨à¤®
un a
à¤°à¤ļà¤²à¤¨ à¤ħà¤¨
Ġà¤¥à¤² à¤Ļ
Ð» Ñİ
Ġ3 00
ĠJ erseys
Ġà¥¯à¥ª à¥¦
à¤ĩà¤°à¤¸ à¤¹à¤°
Ġà¤Ĩà¤ĩà¤¨ à¤ª
Ñħ Ð¾Ð´
ĠØ ®
ĠY ork
Ð´ Ð°
lic ation
Ġà¤Ĩà¤¯à¤ķ à¤°à¤ķ
ook s
Ġor gan
ÑģÐº Ð°Ñı
anc er
Ġex per
Ã¡ n
à¥ĥ. )
ĠSp ecial
ĠÐ· Ð°
ĠMan agement
Ġcont act
EN T
æĸ °
Ġem ail
Ġcomm unity
ĠWeb site
à¤ıà¤¯à¤° à¤ª
åĩ º
åĵ ģ
Ġagain st
ĠTrain ing
) '
N E
W e
h u
t i
Î ·
ç µ
à¤° à¤·à¤£
à¤° à¤ħà¤¸
à¤° à¤ĩà¤Ļ
à¤¨ à¤Ĩà¤īà¤¨
à¤ķ à¤¨à¤²à¤Ĺ
à¤¯ à¤Ŀ
à¥ģ âĢį
à¤¸ à¤«à¤²à¤¤
à¤¹ à¤¯à¤¤
à¤Ł à¤µà¤ķ
Ġà¤¨ à¤Ńà¤¯
Ġà¤¨ à¤ħà¤¸
Ġà¤ħ à¤Łà¤®
Ġà¤ħ à¤µà¤¨à¤¤
Ġà¤Ĺà¤° à¤ı
Ġà¤µ à¤¸à¤®
Ġà¤µ à¤®à¤¨
à¤§ à¤¹
Ġà¤¤ à¤¡à¤ª
à¤¥ à¤®à¤ķ
à¤ģ âĢĺ
à¤¶ à¤¯à¤¹à¤°
Ġà¤² à¤ªà¤¤à¤¬
à¤ļ à¤¹
à¤ļ à¤§
à¥Ĥ à¤¿
à¤ĸ à¤°à¤¸
à¤ī à¤¡à¤¬
à¤ĩ à¤¸à¤¹à¤°
Ġà¤ļ à¤ķà¤Ł
à¤« à¤ľ
à¥¤ âĢľ
Ġà¤ªà¤° à¤¤
Ġà¤ªà¤° à¤«à¤°à¤®
Ġà¤Ł à¤®à¤²
à¤ªà¤¨ à¤ľà¤¸
à¤¯à¤¤ à¤²à¤Ĺ
Ġà¤ħà¤¸ à¤¦à¤ķ
à¤Łà¤ķ à¤ĺà¤°
à¤Łà¤¨ à¤°à¤®
Ġà¥« à¥Ńà¥¬
à¤Ĩ à¤¸à¤ª
à¤Ĩ à¤¤à¤¸
à¤¦à¤¨ à¤¤à¤°
à¤µà¤² à¤¹à¤°
à¤ķà¤°à¤£ à¤¤
à¤ıà¤¨ à¤µ
Ġà¥¨à¥¦à¥Ń à¥¯
Ġà¥¤âĢĻ âĢĺ
Ġà¤¸à¤¤ à¤µ
à¤°à¤ª à¤¦
Ġà¤Ńà¤ıà¤° à¤ªà¤¨
Ġà¥§à¥¯ à¥¨à¥Ń
Ġà¤ļà¤²à¤ļ à¤¤
à¤°à¤ľ à¤¬
à¤ĩà¤ķ à¤°à¤ķ
Ġà¤ĺà¤Ł à¤ķà¤²
Ġà¤¸à¤¹à¤ľ à¤ª
Ġà¥§à¥® à¥¨à¥«
à¤ĩà¤° à¤²à¤ķ
à¤ĩà¤¤ à¤°à¤ķ
Ġà¥¦ à¥¨à¥¯
Ġà¤¹à¤² à¤ĸ
à¥Įà¤ģ, '
Ġà¤Ĩà¤ł à¤ĵà¤Ł
Ġà¤®à¤¦ à¤¤à¤²
Ġà¥¨à¥¯ à¥ª
à¤ĩà¤ľ à¤¤
à¤ķà¤µ à¤ļ
à¤Ĩà¤Ī à¤ĵà¤ıà¤®
Ġl og
Ġm essage
Ġà¥©à¥« à¥«
à¤°à¤« à¤°
Ġà¤¦à¤¶à¤ķ à¤¹à¤°
it te
ĠP ar
Ġà¤Ĩà¤¸ à¤«
ĠC oun
Ġà¤ıà¤ķà¤² à¤¤à¤°
ĠT od
à¤ªà¤Ł à¤ªà¤²
ĠA S
ĠA ustral
à¤°à¤Ļ à¤Ĺ
Ġà¤ħà¤¸à¤® à¤ŀ
ĠD ie
Ġà¤Ĩà¤ªà¤¤ à¤µ
à¤¼ ,
Ġà¥«à¥§ à¥Ń
Ġà¤Ĩà¤¦à¤° à¤ª
Ġo p
Ġo pen
à¤¾à¥Ī âĢĮà¤Ĥ
ĠF ocus
Ġà¥«à¥ª à¥¦
Ġà¤ıà¤ļ à¤ıà¤ļà¤¸
ĠE r
ĠO pen
ol es
à¤Ĺà¤µ à¤¤à¤®
à¸ §
Ġà¤ľà¤¯ à¤Ĺ
Ġà¥¯à¥¬ à¥¦
Ġv on
ĠV ol
Ġ5 5
ãĥ ª
Ġ0 3
à¦ ²
ĠÑģ ÑĢ
Ġst r
ĠSt ar
ack age
Ġà¤Ŀà¤¡ à¤ªà¤²
able d
ĠZ one
ĠUn ited
ĠSc ience
eto oth
ĠBo ys
Ġar ound
fere nt
Ġà¤¦à¤¶à¤° à¤¥à¤²
ĠCol lege
Ð°Ñİ ÑĤ
ĠShareTweet Pin
ĠÐºÐ¾Ð¼ Ð¿
ĠSupport ing
md ash
ĠBlu etooth
9 5
A G
D e
E x
I AL
P C
W h
p an
y out
z er
Å Ļ
å ĭ
ç ¤
é «
à¤¾ à¥Ĥ
à¤° à¤ī
à¤¨ à¤¶à¤ķ
à¤® à¤ĸà¤°
à¤¦ à¤°à¤Ń
Ġà¤ķ à¤£à¤²
à¤Ĺ à¤¯à¤¤à¤ķ
Ġà¤° à¤¸à¤¸
à¤ľ à¤ļ
Ġà¤µ à¤¦à¤°
à¤¬ à¤¬à¤¹
à¤ļ à¤ľ
à¤Ī à¤¡à¤°
à¤Ī à¤«à¤ķ
Ġà¤ı à¤¸à¤®
Ġà¤ªà¤¨ à¤ķ
Ġà¤ħà¤¨ à¤¬
Ġà¤ħà¤¨ à¤Ļ
à¥ĥ ,
à¤¸à¤ķ à¤µ
à¤ĺ à¤Łà¤ķ
Ġà¤ĺ à¤°à¤Ńà¤°
Ġà¤¡ à¤°à¤¬
Ġà¤ķà¤® à¤¨à¤µ
à¤¾, à¥ĩ
Ġà¤ĩ à¤¯à¤°à¤ķ
Ġà¤Ńà¤ı à¤ª
Ġà¤Ńà¤ı à¤Ńà¤¨
à¤¾à¤Ĥ à¥Īà¥¤
à¤Ĺà¤¤ à¤µ
à¤²à¤¯ à¤²à¤²
Ġà¤ĵ à¤¸à¤¨
Ġà¤ĵ à¤Ĩà¤°à¤ľ
à¤§à¤¨ à¤ªà¤¤
à¤§à¤¨ à¤ªà¤¶
Ġà¤ħà¤Ĺ à¤®à¤µ
Ġà¤ħà¤® à¤°à¤¨
à¤ĵ à¤Ĩà¤°à¤ķ
à¤°à¤Ń à¤ŀ
Ġà¤ĸà¤° à¤ĸà¤ľà¤¨
Ġà¤ĩà¤¨ à¤¬à¤ķ
Ġà¥® à¥§à¥¯
âĢĿ -
Ġà¥¯ à¥§à¥¯
à¤µà¤¤ à¤¹à¤°
Ġà¤Ĩà¤¨ à¤¦
Ġà¤¦à¤¶ à¤²
à¤·à¤¯ à¤¤à¤°
Ġ: &
Ġà¥¨à¥« à¥¬à¥¨
Ġà¥§à¥Ń à¥¦à¥¦
à¥Ģ) à¥¤
Ġà¥ªà¥¦ à¥Ń
à¤ĸà¤¨ à¤¨à¤®
Ġà¤Ĺà¤² à¤«à¤¤
à¤®à¤£ à¤°
Ġm ov
Ġà¤°à¤¨ à¤¬à¤¹
à¤¦à¤¨à¤® à¤§
à¤¶à¤¨à¤² à¤Ĺ
ĠC O
ic y
ĠA M
ĠM P
Ġp ublic
Ð¸ ÑĨ
Ġa ir
ĠB ro
ĠD em
ĠD irect
âĢĮ à¥ĩâĢĮ
à¤¥à¤Ĺ à¤¨à¤ķ
el a
Ġà¤¬à¤Ł à¤®à¤²
Ġà¥ªà¥¯ à¥«
Ġà¤ıà¤ļ à¤ıà¤ļ
ot a
Ġà¤ħà¤¨à¤¶à¤¨ à¤¸
Ġin form
à¤ıà¤ļ à¤ĵà¤ķ
ig en
Ġà¥®à¥ª à¥«
Ðº ÑĤ
à¤¨à¤Ľ à¤ķ
à¤¤à¤ľà¤¨ à¤¬
ĠV ir
Ñĭ Ðµ
Ġ4 2
ate st
à¦ ¯
ĠØ ¢
à¥¨à¥¦à¥¦ à¥¨
à¤Ĳ à¤¯
ĠSt r
iz er
ĠÐ¼ Ð¾Ð¶
Ġà¤Ĩà¤ĩà¤ıà¤® à¤Īà¤ķ
Ġà¤Ńà¤Ĺà¤¤ à¤ª
Ð¾Ñģ Ð»
à© ĩ
eng th
cl us
ric t
æĸ ¹
ĠBI TCO
à¤¡à¤°à¤¶ à¤Ł
Ġà¤¦à¤¶à¤° à¤¥à¤ķ
ĠAP K
yr ight
çľ Į
ĠProf ile
èĩ ª
rypt oc
plore r
yout u
ĠBITCO IN
N R
P R
X X
c ul
d aily
g u
r am
Ä ĩ
â ľ
â ĶĤ
é ķ
Ġ ê
Ġ ess
à¤¾ ]
à¤¾ âĢĮà¤Ĥ
à¤¾ Â·
à¥į à¥ĥ
à¤° à¤¨à¤¸
à¤° à¤¥à¤²
à¤ķ à¤¥à¤¨
à¥ĭ à¥ģ
à¤² à¤Ĩ
Ġà¤ª à¤¤à¤°
Ġà¤ª à¤Łà¤®
à¤µ à¤ľà¤¨à¤ķ
Ġà¤ķ à¤¥à¤®
Ġà¤Ĺ à¤®à¤¨
à¤Ĺ à¤Ŀ
à¤Ł à¤¬à¤°
à¤ı à¤Ĩà¤ĩà¤ľ
Ġà¤Ń à¤ĸà¤°
Ġà¤¹ à¤²à¤¨
Ġà¤Ĩ à¤ªà¤ķ
Ġà¤² à¤Łà¤ķ
à¤Ī à¤²à¤²
à¤Ī à¤²à¤¬
à¤¡ à¤ªà¤¨
à¤£ à¤ļ
à¤Ľ à¤¬
à¥Ĥ à¥ĥ
à¤Ń à¤ıà¤¸
Ġà¤ī à¤Łà¤ªà¤Ł
à¤ī à¤¦à¤®
Ġà¤ı à¤ªà¤°
à¤°à¤£ à¤°
Ġà¤ıà¤ķ à¤°à¤¤
Ġà¤ľà¤¨ à¤§
à¤¯à¤® à¤¬à¤®
à¤ªà¤¨ à¤Ĺà¤°
Ġà¤¸à¤¹ à¤Ĺ
à¤¯à¤¤ à¤ľà¤¸
Ġà¤¬à¤¢ à¤Ľ
à¤°à¤¦ à¤¯
à¤°à¤¬ à¤Ł
à¤¶à¤ķ à¤¶
Ġà¤Ĩà¤° à¤§
à¤¤à¤® à¤Ńà¤ķ
à¤·à¤ķ à¤¤à¤¤
à¤Ĩ à¤ĩà¤ıà¤ķ
à¤Ĩ ËĨà¤¨
Ġà¥ª à¥§à¥«
Ġà¥ª à¥§à¥¨
à¤ĥ à¥ģ
Ġà¤ĺà¤° à¤ĺà¤°à¤ķ
à¤²à¤Ĺ à¤¸
à¤¶à¤® à¤°
Ġà¤Ĩà¤® à¤®à¤¤à¤¦
Ġà¥¨à¥¦à¥Ń à¥®
Ġà¤²à¤ķ à¤°à¤®
à¤ªà¤² à¤¡
Ġà¤ħà¤² à¤Ł
Ġà¥§à¥¯ à¥©à¥¨
à¤ıà¤¸ à¤¯
à¤ĩà¤ķ à¤¬
Ġà¤ĭ à¤ĸ
Ġà¤Ĳà¤¨ à¤¦
à¤ĩà¤¨à¤² à¤Ńà¤¨
an o
à¥¨à¥¦ à¥ªà¥¯
Ġà¥¨à¥Ń à¥®
Ġà¤®à¤¦ à¤¹
à¤Łà¤¬à¤² à¤°à¤ķ
à¤Łà¤¬à¤² à¤¤à¤°
à¤Ĩà¤Ī à¤µ
à¤°à¤¥à¤® à¤ªà¤Łà¤ķ
Ġm ult
st and
à¤¤à¤µà¤¨ à¤µ
ĠS em
à¤¹à¤¦ à¤¤
à¤²à¤¦ à¤°à¤¬
Ġà¤ĺà¤¨ à¤ļà¤ķ
ĠP R
Ġà¤Ĩà¤¸ à¤¯à¤ķ
Ġà¥©à¥¨ à¥¨
Ġà¥©à¥¨ à¥¬
à¤Łà¤¸ à¤²à¤ķ
Ðµ ÑĪ
ĠA ward
ĠA udio
ĠM ach
Ġp oint
Ġc ar
Ġà¥©à¥¬ à¥®
Ġà¤ıà¤« à¤«
ĠD am
Ġà¤ıà¤¡ à¤Ńà¤°
Ġà¥ªà¥¨ à¥Ń
âĢĮ à¥Ģ
à¤¯à¤°à¤® à¤§
Ġre al
ro l
ĠF irst
à¤°à¤ļà¤²à¤¨ à¤¸à¤®
ĠG o
ĠR E
Ġn h
ĠW omen
Ġà¤¯à¤® à¤¨à¤²
Ġà¤¨à¤¹à¤° à¤¬
à¤¨à¤Ĺ à¤ĩà¤°à¤¹
Ġg roup
........ ...
Ġ19 6
end er
Ð¾Ð» Ð¾Ð³
Ġà¤ĩà¤¯à¤° à¤«
ĠX box
Ġà¥§à¥®à¥® à¥¯
AT ION
Ð¾ÑģÑĤ Ð¾
que en
antipur daily
col or
ĠÑģÐ² Ð¾
ĠSurg ery
hup ada
Prab hupada
alax y
ryptoc urren
! )
. âĢĿ
A l
N L
T H
a e
c m
k u
n es
n ie
t ics
y p
y en
Ð ķ
â īĪ
è ĥ½
é Ĺ
Ġ ant
Ļ ×
à¥į à¤¾à¤ģ
à¤ķ à¤¬à¤°
à¥ĩ ......
à¥ĭ à¥ĥ
à¤¤ à¤ľà¤¨à¤®
à¥Ģ à¥ģ
à¥Ģ ......
à¤¸ à¤ľà¤¨à¤²
à¤¹ à¤²à¤¬
à¤µ à¤·
Ġà¤Ĺ à¤®à¤ķ
Ġà¤° à¤ľà¤¶
à¤Ł à¤£
à¤ı à¤ıà¤ķ
Ġà¤Ń à¤²à¤¬
à¤ľ à¤¬à¤¨
Ġà¤¹ à¤°à¤¹à¤®
à¤· à¤°à¤¸à¤®
Ġà¤¤ à¤°à¤¹à¤²
à¤¥ à¤°à¤¨
à¤¥ à¤Łà¤¬
à¤ģ à¤¾
à¤¶ à¤°à¤ľ
Ġà¤² à¤°à¤¬à¤°
à¤Ī à¤ķà¤®
à¤Ī à¤ľà¤²
à¤Ń à¤¯à¤ķ
Ġà¤ī à¤²à¤¨
à¤ĸ à¤¸à¤®à¤ķ
à¤ī à¤²à¤²
Ġà¤¸à¤® à¤¦à¤°
Ġà¤ļ à¤ªà¤°
à¤« à¤¨à¤ķ
Ġà¤¶ à¤¡
Ġà¤¶ à¤¯à¤°
Ġà¤¶ à¤µà¤®
Ġà¤ĸ à¤¯
Ġà¤ı à¤¹
à¤°à¤£ à¤ľà¤¸
à¤ľà¤¨ à¤®à¤¤
à¤ĺ à¤·à¤ķ
Ġà¤®à¤¹ à¤Ļà¤Ĺ
Ġà¤ľà¤¨ à¤¤à¤²
à¤¯à¤¸ à¤µà¤°
à¤¯à¤¤ à¤¦
à¤ķà¤² à¤¯
Ġà¤ĩ à¤ķà¤®à¤°
à¤ħ à¤µà¤²
à¤ħ à¤«à¤ķ
Ġà¤ªà¤¹ à¤²à¤µ
à¤Ĺà¤¤ à¤¸à¤®
à¥ĭà¥¤ .
à¤¸à¤¨ à¤Ńà¤¨
à¤Ĩ à¤Ł
Ġà¤¸à¤° à¤«
Ġà¤ĵ à¤®à¤¨à¤¸
à¤ªà¤ķ à¤¦
Ġà¥¬ à¥¨à¥¦
Ġà¤¬à¤° à¤ª
Ġà¤¹à¤° à¤¨
Ġà¥® à¥§à¥¬
Ġà¤Ĩà¤ĩ à¤ķà¤¨à¤ķ
à¤ľà¤® à¤¨à¤²
Ġà¤Ĩà¤¦ à¤°à¤ķ
à¤¬à¤² à¤ª
Ġà¤§à¤¨ à¤¶
à¤¯à¤¯à¤¨ à¤ªà¤¶
à¤Ńà¤µ à¤¨à¤ķ
Ġà¥¦ à¥¦à¥¦à¥¦
à¥¦à¥¦ à¥§
er ve
à¥¨à¥¦ à¥«à¥¨
ad esh
at ures
Ġà¤ĸà¤¬à¤° à¤ªà¤Ľ
Ġà¤ħà¤¸à¤° à¤«
Ġt erm
ĠS ocial
à¥Ģà¤ģ âĢĵ
it o
ĠP res
à¤īà¤ª à¤¸à¤Ń
à¤ªà¤Ł à¤¨à¤ķ
he ad
ĠA ir
Ġp o
Ġp as
Ġp ur
à¤²à¤ĸ à¤¬à¤°à¤¸
Ġa p
Ġf Ã¼r
Ġà¤°à¤Ļ à¤Ĺ
ĠD igital
Ġà¤Ĩà¤ªà¤¤ à¤®
as es
ĠH all
Ġà¥ªà¥¨ à¥¬
Ġà¤®à¤¦à¤¨ à¤¬à¤¹
ãģ ĳ
ãģ Ľ
et h
Ġre port
ĠF und
ĠL ee
Ġà¥¬à¥ª à¥«
Ġà¤ķà¤¦ à¤°à¤¸
à¸ Ĺ
ĠW ill
im a
Ġà¤²à¤¹ à¤¡à¤ķ
Ñĥ Ð½
Ġà¤ħà¤²à¤® à¤²à¤²
Ġà¥Ńà¥¯ à¥¦
Ġg e
à¥¦à¥¬ à¥«
à¥¦à¥¬ à¥ª
à¤¾à¥į à¥ĩ
à¦ ¤
ä¸ º
nt c
Ġà¤ªà¤¤à¤¨ à¤ªà¤Ľ
201 3
ard s
Ð°Ð½ Ð¸Ðµ
Ġà¤¸à¤°à¤¦ à¤°à¤®
à¤°à¤µà¤¹ à¤¨à¤®
Ø§Ø ¯
Ġà¤ıà¤¡à¤® à¤£
à¤ĩà¤¨à¤ĸà¤¬ à¤°à¤¬
ĠTr io
Ġà¨ ¦
................ ................
ĠDe v
à¤ĵà¤Ńà¤° à¤Ł
ÑĦ Ð¾ÑĢÐ¼
ä» ¥
ÑģÑĤÐ² Ð°
Ġacc ount
ĠÑį ÑĤ
of queen
Ġï»¿ (
OW ER
argin ia
asc ript
ĠLove ofqueen
On line
, âĢľ
H O
I t
N T
f ault
k h
n n
o on
s u
v ed
Ø ·
à¤¾ !!!
à¤¨ à¤ªà¤²
à¥ĭ ï¿½
à¤² à¤ŀ
à¤¤ à¤Ńà¤ıà¤ķ
à¤¯ à¤Łà¤°à¤®
à¤¯ Tags
à¥ģ ï¿½
à¤¸ à¤Ĩà¤°
à¤¹ à¤®à¤²
à¤ª à¤īà¤¨
à¤ª à¤Ńà¤°
à¤µ à¤Ĩà¤Īà¤ľ
Ġà¤Ĺ à¤¯à¤ķ
à¤Ĺ à¤°à¤¹
à¤Ĺ à¤łà¤ķ
Ġà¥¤ ....
Ġà¤¬ à¤¬à¤°
à¤¬ à¤²à¤Ĺ
à¤§ à¤¤à¤°
Ġà¤¦ à¤¸à¤µà¤Ł
Ġà¤Ĩ à¤ªà¤¦
Ġà¤ľ à¤Ĺà¤°
Ġà¤² à¤ĸà¤°
à¤Ī à¤«à¤²
à¤Ń à¤¸à¤²
à¤Ń à¤¬à¤¤
à¤Ń à¤ıà¤ªà¤¨
Ġà¤ī à¤¸à¤ª
Ġà¤¸à¤® à¤¹
âĢ ł
à¤ĩ à¤ĵà¤²
Ġà¤ªà¤¨ à¤°
à¤¨à¤ķ à¤¹
Ġà¤« à¤ļ
à¤¢ à¤µà¤°
à¤ªà¤¨ à¤°
Ġà¤¸à¤¹ à¤ĩà¤ŀ
Ġà¤¡ à¤µ
à¤Ŀ à¤Łà¤ķ
Ġà¤ĩ à¤°à¤ķ
Ġà¤ĩ à¤¬à¤°
à¤ħ à¤ł
à¤ħ à¤¨à¤¸
à¤¯à¤¨ à¤¦
Ġà¤Ńà¤ı à¤Ĺà¤°
à¤²à¤¬ à¤µ
à¤°à¤µ à¤¦à¤²
à¤¸à¤¨ à¤ĸ
à¤Ĩ à¤ªà¤¸
à¤ªà¤ķ à¤¬
à¤īà¤Ł à¤°à¤ķ
à¤¶à¤¨ à¤Ńà¤¨
à¤Łà¤® à¤¯
Ġà¥¯ à¥§à¥¨
Ġà¤Ĩà¤® à¤¬
à¤¡à¤² à¤¸à¤¹
Ġà¤īà¤ł à¤¦
à¤łà¤ķ à¤¸à¤®à¤ķ
à¤®à¤¦ à¤¨à¤ķ
Ġà¤¨à¤ª à¤¡
à¤¯à¤¸à¤® à¤ķ
à¤ĩà¤ķ à¤¹à¤°
Ġà¤Ī à¤®à¤°
Ġ! ?
Ġà¤ķà¤¥ à¤¨à¤ķ
Ġà¤ķà¤¥ à¤¨à¤ħà¤¨
à¤ķà¤¸ à¤°à¤¹
Ġà¤Ĩà¤ª à¤¸à¤ķ
Ġà¤Ĩà¤Ī à¤ķà¤¨
à¤Ļà¤® à¤¯
à¤¡à¤° à¤ħà¤¨
à¥¨à¥¦ à¥«à¥¬
Ġà¥¨à¥Ń à¥©
al ign
,âĢĻ âĢĻ
Ġà¤Ĩà¤ł à¤¸à¤¯
à¤¨à¤¯ à¤¨à¤²
Ġ[ &
à¤ĸà¤¨ à¤¶
à¤ĩà¤ľ à¤¤à¤°
Ġà¤ĭà¤£ à¤¹à¤°
ad es
Ġà¤ħà¤¡ à¤ļà¤¨
à¤¾... âĢĻ,
à¤¹à¤¦ à¤¬
à¤°à¤¥ à¤®à¤ķ
Ġà¤ħà¤Ļ à¤¸
ĠP et
Ġà¤Ńà¤°à¤¤ à¤µ
à¤Ńà¤Ĺ à¤µà¤¦
Ġà¤¨à¤Ĩ à¤ĩà¤¸à¤ķ
Ġà¥©à¥© à¥Ń
à¤ıà¤« à¤Ĩà¤Īà¤¡
ĠM en
Ġà¤łà¤¹à¤° à¤¸à¤¹
Ð½ ÑĥÑİ
à¤¦à¤¯ à¤Ļ
ĠI CT
ĠB log
à¤Ĺà¤£ à¤¹à¤°
Ġà¤¸à¤Ł à¤°à¤¹à¤°
Ġà¥©à¥ª à¥«
Ġo ld
Ġà¤ªà¤µ à¤¨à¤²
Ġre t
Ġà¥«à¥¬ à¥©
Ġà¤¨à¤Ĺ à¤µ
ĠF ilm
ĠK ong
Ġà¥Ńà¥Ń à¥Ń
iv ate
iv ery
Ġà¤¶à¤°à¤¦ à¤ļà¤¨
Ġv arginia
Ġà¥®à¥Ń à¥¯
Ġà¤Ĳà¤¨à¤² à¤Ĺ
Ġ5 2
ia f
Ġ9 2
ĠY our
Ġpro ble
ĠCh ar
Ġr ay
ĠÙ ģ
áŀ ĵ
à¤ļà¤ĸ à¤ªà¤¨
Ġà¤Ĩà¤Īà¤ıà¤®à¤Ī à¤Ĩà¤Ī
Ġqu est
Ã¡ s
Ã¤ r
Ġla w
ĠAn aly
Ġsh ow
ild ren
ÙĬ Ø©
Ġ--- -
Ġà¤ľà¤¯à¤¶ à¤Ļ
ãĥ¼ ãĥ
ĠðŁ ĺ
åľ °
Ġà¤ıà¤¨à¤ıà¤® à¤ıà¤²
Ġà¤¤Ã¬ à¤µ
ĠSE O
æĿ ¥
à¤¨à¤ı à¤ľà¤°
Ġà¤¬à¤°à¤® à¤Ŀ
angu age
hell ip
9 4
= âĢĿ
B R
S D
T e
a o
b u
d is
j al
l ight
v es
w er
Â ¤
Â ħ
É ª
Ø Į
ç ķ
é ļ
Ġ ut
Ġ hab
à¥į ....
à¤° à¤¥à¤ķ
à¤° à¤ħà¤Ĺ
à¤¨ à¤¯à¤°
à¤¨ à¤Ĩà¤ıà¤ķ
à¤² à¤ħà¤Ĺ
à¤¤ à¤Ľà¤¨
à¤¯ à¤¯à¤¤
à¤¸ à¤µà¤ª
Ġà¤ª à¤¥à¤ķ
Ġà¤ķ à¤²à¤²
à¤Ĺ à¤¡à¤²
à¥Ī ;
Ġà¤¨ à¤¨à¤¸
Ġà¤¨ à¤łà¤Ĺ
à¤ı à¤¯
à¤ı à¤ĩà¤²
à¤ı à¤ıà¤«
Ġà¤® à¤Łà¤¨
Ġà¤® à¤¸à¤¹
à¤§ à¤¬à¤¨
à¤ģ à¥ģà¤Ĥ
à¤¶ à¤°à¤¦
Ġà¤Ĩ à¤Ļà¤¸
Ġà¤ľ à¤ľà¤ķ
Ġà¤ľ à¤²à¤°
à¤ĸ à¤ıà¤ķ
à¤ī à¤¥à¤²
Ġà¤¯ à¤£
Ġà¤¯ à¤§à¤ª
à¤ĩ à¤ªà¤Łà¤ķ
Ġà¤ı à¤°à¤ª
à¤īà¤¨ à¤Ł
à¤¢ à¤Ļ
Ġà¤¯à¤¸ à¤ħà¤µà¤§
Ġà¤§ à¤¨à¤²à¤ķ
à¤°à¤¹ à¤¦à¤¶
âĢĻ )
à¤¤à¤° à¤¦à¤ķ
Ġà¤īà¤ª à¤¸à¤°
Ġà¤®à¤¨ à¤ļ
à¤¾, âĢĿ
à¤ĩà¤¨ à¤Ńà¤¨
à¥ģà¤ģ âĢĻ,
à¤¯à¤¨ à¤¸à¤®
à¤µà¤¨ à¤Ń
Ġà¤Ŀ à¤ķà¤¬à¤¹
à¤Ĩ à¤Ĺà¤²
Ġà¤¸à¤¨ à¤ª
Ġà¥¬ à¥§à¥¦
Ġà¤¬à¤° à¤«à¤ķ
à¤µà¤² à¤Ĺà¤¤
à¥į, âĢľ
Ġà¤ħà¤¬ à¤¹
Ġà¤®à¤² à¤¹à¤®
Ġà¥® à¥§à¥¦
à¤¶à¤® à¤¸
âĢĿ .
Ġà¤¬à¤² à¤ľ
à¤ķà¤¨ à¤¦
à¤ķà¤¨ à¤Ĺ
à¤°à¤ļ à¤°
à¤ļà¤ķ à¤¬
Ġà¤¸à¤¡à¤ķ à¤Ńà¤°
Ġà¤ľà¤® à¤¦
Ġà¤¨à¤Ń à¤ĩà¤¨
Ġà¤ıà¤¨ à¤Ĩ
à¤®à¤° à¤¸à¤®
Ġà¤Ī à¤¯à¤°
re nd
à¤¸à¤¹à¤° à¤¬
à¤ķà¤Ł à¤µà¤°
Ġà¤«à¤°à¤ķ à¤²
Ġà¥¦ à¥©à¥©
in st
à¤¯à¤Łà¤¨ à¤µ
Ġà¤Ĭ à¤¤
à¤¾) -
ad u
à¤ĩà¤¡ à¤°à¤ķ
Ġl ight
Ġm ind
ĠS il
à¤¶à¤¹à¤° à¤¬
à¤¡à¤¸ à¤ľ
Ġà¤®à¤¹à¤° à¤ķ
ĠT om
ĠT HE
à¤¶à¤µ à¤£
Ġs am
Ġc our
à¤ĩà¤¬ à¤°à¤¯
Ġà¤µà¤¹ à¤¸à¤ķ
Ġw ar
ãģ ©
ãģ Ŀ
à¥§à¥§ à¥ª
Ġà¥«à¥¨ à¥«
ĠG od
Ġà¤ľà¤Ĺà¤¤ à¤ħà¤®
ol lywood
Ġà¤Ĺà¤ľà¤² à¤¸à¤Ļ
à¥ĭ? "
à¸ ª
à¤ıà¤ļ à¤Ĩà¤°
à¤ĩà¤ı à¤¤
id d
Ġà¥®à¥ª à¥¦
Ġà¥¤' '
à¤¹à¤ľ à¤¹
Ġà¤°à¤ľà¤¤ à¤ľà¤¯à¤¨
à¤µà¤Ĺ à¤£à¤²
Ġà¤®à¤Ĺ à¤ľà¤®
ĠCom ment
Ġà¤µà¤ļà¤¨ à¤¹à¤°
à¤ĸà¤¸ à¤¯à¤²
Ġà¤¡à¤Łà¤ķà¤® à¤¬
ĠRe c
Ġà¤Ļ à¤µ
aj has
ya h
áŀ ĺ
Ġsp ins
Ġ= =
ĠÑĤ ÑĢ
ĠEx plorer
ĠArt ists
ä» ¬
å® ¶
ÑģÑĤÐ² Ð¾
Ġà¤®à¤¤à¤® à¤¤
à¤«à¤¸à¤² à¤¬
ĠCl ub
Ø¨ Ø±
ãĥ¼ ãĤ
à¤īà¤ªà¤ķ à¤°à¤£
Ð¾Ð»ÑĮ Ð·
ãĥ³ ãĤ
Ġvi ews
do ctor
Ġincl ud
overn ment
ĠLim ited
% ),
, âĢĵ
5 00
M B
P T
S amachar
d d
m b
n ing
p ad
Ø ®
æ ±
ç ²
é ħ
ï »¿
à¥į *
à¤¨ à¤¦à¤ķ
à¤ķ à¤ħà¤«
à¥ĩ :-
à¤² à¤ī
à¤® à¤°à¤¬
à¤¸ à¤ĩà¤µ
Ġà¤ª à¤ļà¤°
à¤µ à¤īà¤¦
à¤Ĺ à¤īà¤¨
à¤Ĺ à¤ľà¤¨
à¤Ł à¤ħà¤ªà¤ķ
Ġà¤¨ à¤Ĺà¤¤
Ġà¤¨ à¤°à¤Ń
à¤ı à¤ıà¤¸
à¤ı à¤Ĩà¤°à¤ķ
Ġà¤¬ à¤°à¤¸
Ġà¤ħ à¤°à¤£
Ġà¤¦ à¤ľà¤¨
à¤¥ à¤ľà¤¸
à¤¶ à¤¸à¤ļ
à¤ļ à¤¡à¤ķ
à¤Ī à¤Ĩà¤Īà¤ı
à¤¡ à¤¸à¤®à¤ķ
à¤£ à¤¹
à¥Ĥ !
à¥Ĥ à¤¾
à¤Ń à¤²à¤°
à¤ĩ à¤Ļà¤ķ
à¥Į ?âĢĿ
Ġà¤¶ à¤µà¤¸
Ġà¤¥ à¤ªà¤¨
Ġà¤ĸ à¤¸à¤ķ
Ġà¤ı à¤²à¤ķ
à¤īà¤¨ à¤¯
Ġà¤ħà¤¨ à¤¯
à¥ĥ à¤ģ
à¤¸à¤ķ à¤¤
à¤¸à¤® à¤Ŀà¤¦
à¤²à¤ķ à¤ļ
à¤ªà¤¨ à¤µ
à¤¯à¤¸ à¤ħà¤Ĺ
à¤¤à¤° à¤Ĺà¤°
à¤¯à¤¤ à¤¹à¤²
Ġà¤ķà¤° à¤«
Ġà¤ĩ à¤ķà¤¬
à¥§ à¥§à¥¦
Ġà¥© à¥Ńà¥©
à¤²à¤¯ à¤²à¤ķ
à¤²à¤¨ à¤ªà¤¶
à¤¤à¤® à¤²à¤Ĺ
Ġà¥ª à¥§à¥§
à¤¦à¤¨ à¤µ
Ġà¥¬ à¥Ńà¥¦
à¤§à¤¨ à¤ľà¤¸
Ġà¤¹à¤° à¤«à¤²
Ġà¤ħà¤Ĺ à¤®à¤¸
Ġà¤¸à¤®à¤¯ à¤ªà¤¹
à¤ĥ )
Ġà¥Ń à¥Ńà¥«
Ġà¥Ń à¥§à¥¯
Ġà¥Ń à¥§à¥®
Ġà¤ĺà¤° à¤µà¤°
à¤µà¤¤ à¤§
Ġà¤Ĩà¤ĩ à¤«à¤²
à¤¾. -
Ġà¥§à¥¯ à¥§à¥¨
Ġà¥§à¥¯ à¥¦à¥§
à¤¦à¤² à¤µ
à¤°à¤ľ à¤µ
Ġ- âĢĻ
à¥ģà¤Ĥ ,
Ġà¥§à¥® à¥«à¥¦
à¤¯à¤£ à¤Ł
Ġà¥¦ à¥©à¥¦
à¤ĩà¤® à¤£
à¤ĸà¤² à¤¨à¤²
Ġà¤¤à¤¹ à¤µ
an z
Ġà¤¶à¤¹à¤° à¤Ń
Ġà¤¬à¤® à¤¹à¤°
à¤ıà¤² à¤ıà¤¨à¤²
à¤ĩà¤¡ à¤°à¤¹à¤°
Ġm i
à¤ľà¤¤ à¤¸
Ġ1 20
à¤Łà¤¨à¤Ĺà¤° à¤¸à¤®
ĠP as
Ġà¥©à¥¨ à¥ª
Ġà¥©à¥¨ à¥¯
ic ial
à¤¤à¤¹ à¤¸à¤®
Ġà¥¯à¥¦ à¥©
à¤·à¤ķà¤² à¤Ĺ
Ġà¤ľà¤Ł à¤¹
Ġà¤¸à¤ĺ à¤¨à¤¤
à¤īà¤¡ à¤°à¤²
ĠB B
ĠB en
ĠD on
à¥§à¥¯ à¥¯à¥¯
à¥§à¥¯ à¥¯à¥©
Ġà¤Ńà¤ĩ à¤Ĺà¤¯
ag on
el le
Ġre sp
Ġà¥ªà¥§ à¥ª
ĠF ore
ĠF ull
ur l
ĠL ife
ĠG ood
ĠR om
à¤¿... âĢĻ
Ġà¥Ńà¥ª à¥¦
à¤¸à¤µà¤® à¤¯
Ġà¥Ńà¥¬ à¥¦
Ġà¥Ńà¥Ń à¥¦
ĠW est
Ġe ven
áĥ ļ
à¤¨à¤Ĺ à¤ŀ
ĠIn c
Ġv al
Ġ4 3
ab il
um m
à¤°à¤«à¤²à¤® à¤§
Ġà¤¬à¤¬ à¤Īà¤®
ãĥ ©
ant a
Ġà¤°à¤¨à¤° à¤ħà¤ªà¤²
Ġ10 1
Ð¾Ð² Ð°ÑĤÑĮ
Ġà¤°à¤£ à¤§
à¤²à¤Ŀ à¤°à¤¨
ord in
Ġà¤¸à¤¯à¤® à¤§
à¹ Ħà¸
Ð¾ÑĢ Ð¾Ð´
Ġle g
Ġan n
|| ~
sc rib
ĠÐ³ Ð¾Ð´
Ġup load
à¤ĩà¤ªà¤° à¤Ł
unic ation
ĠÙħ ÛĮ
æĸ ĩ
ĠØ¨ Ùĩ
ĠÐ» Ñİ
wit ch
Ġ~ ||~
Ġres ult
åŃ ¦
è¨ ĺ
Ġ** *
Ġwr ite
. /
H S
L E
P I
S L
f ox
k m
l or
l ers
m o
n ÃŃ
p ut
r ome
ç ®
ç Ħ
è Ĥ
ı à¤¨
à¥į à¥ģà¥ģ
à¤¨ à¤Ńà¤µà¤¨à¤®
à¤¸ à¤ªà¤¤
Ġà¤¸ à¤ľà¤²
à¤¹ à¤¬à¤®
à¤ª à¤łà¤¨
Ġà¤Ĺ à¤ľà¤¨
Ġà¤¨ à¤ĸà¤¨
Ġà¤ħ à¤¦à¤¨
Ġà¤µ à¤²à¤°
à¤¬ à¤ķà¤®
à¤§ à¤Ĺà¤®
à¤¥ à¤²à¤²à¤Ĺ
à¤¶ à¤µà¤¨
Ġà¤² à¤µà¤¶
Ġà¤² à¤Łà¤ªà¤Ł
à¤ĸ à¤Ĺà¤°
à¤ĩ à¤Ĺà¤°à¤ķ
Ġà¤¶ à¤¯à¤¨à¤ķ
Ġà¤ı à¤Ĩà¤ĩ
à¤¸à¤ķ à¤¸à¤®
à¤µà¤¸ à¤¹à¤°
Ġà¤ĺ à¤¨à¤²
Ġà¤¬à¤¨ à¤ľ
à¤ªà¤¨ à¤¸à¤¹
à¤ªà¤¤ à¤¨
à¤ªà¤® à¤¤à¤²
à¤ĩà¤¨ à¤ľà¤¸
Ġà¤ĩ à¤Ńà¤°
Ġà¤ĩ à¤Ĩà¤ĩà¤ı
à¤ķà¤® à¤¤
à¤ħ à¤ľà¤¯
Ġà¤ħà¤¸ à¤¦à¤²
à¤¯à¤¨ à¤ª
à¤²à¤¯ à¤ĸà¤µà¤°
Ġ( âĢľ
Ġà¤ħà¤µà¤¸ à¤°à¤¸
à¤¤à¤® à¤¹
Ġà¤īà¤¦ à¤Ĺà¤®
à¤¤à¤¨ à¤¸à¤¹
à¤®à¤¨ à¤¶
Ġà¤ĵ à¤ĩ
Ġà¤¸à¤¦ à¤®
Ġà¤¸à¤¦ à¤°à¤ĸ
Ġà¤¬à¤° à¤ĸ
à¤ķà¤°à¤£ à¤Ńà¤¨
Ġà¤ķà¤² à¤¹à¤°
Ġà¤®à¤² à¤¸
à¤²à¤Ĺ à¤ª
Ġà¤ħà¤ª à¤¶
Ġà¤®à¤¹à¤¤ à¤¸
Ġà¤¨à¤¹ à¤²
à¤ªà¤² à¤¸
Ġà¤Ĳ à¤¨à¤¨
à¤°à¤®à¤£ à¤¤
Ġà¥§à¥¯ à¥¦à¥Ń
Ġà¤¦à¤¶ à¤ķà¤²
Ġà¤¦à¤¶ à¤¹à¤ľ
Ġà¤¨à¤ľ à¤¦
Ġà¥«à¥¦ à¥¦à¥¦à¥¦
à¤²à¤µ à¤¶
Ġ- (
à¤Ńà¤µ à¤¸à¤®
à¤ıà¤® à¤ĵ
Ġà¥©à¥¦ à¥Ń
re y
à¤ĺà¤° à¤ªà¤°
à¥ĩà¤Ĥ à¥¤âĢĻ
Ġà¥¨à¥ª à¥Ń
à¥Ģ) -
al es
Ġà¤¶à¤¹à¤° à¤¸à¤®
à¤µà¤Ł à¤¯
Ġà¤¬à¤Ĺ à¤¹
at ter
à¤¸à¤¨à¤² à¤®
à¤Ĩà¤Ī à¤ıà¤¨
ĠÐ ķ
Ġm a
Ġm er
Ġà¥©à¥« à¥§
ĠS he
Ġà¤ıà¤² à¤Ł
à¤Ĭ à¤Ľ
Ġà¥Ńà¥¦ à¥®
it ar
Ġà¤ľà¤¨à¤® à¤¤à¤¬
ĠC C
Ġà¤ļà¤²à¤¨ à¤ħà¤¨
ĠT ibra
à¤ĩà¤ª à¤¹à¤°
Ġà¥©à¥© à¥¨
à¤¸à¤¤ à¤¹
ic i
ĠA D
Ġp np
Ġà¥«à¥« à¥¬
Ġà¥«à¥« à¥©
is k
Ġd own
Ġd irect
Ġà¤ıà¤« à¤ıà¤®à¤¬
à¤ªà¤¥ à¤¸
ĠB ack
Ġà¤ªà¤Ł à¤ķà¤²
Ġw here
ĠD E
ent al
Ġà¥©à¥® à¥§
ĠH ouse
Ġb lock
Ġo ch
un k
Ġà¥ªà¥§ à¥Ń
ĠF air
ĠE M
à¥ĭ) à¥¤
ot ion
ĠR SS
Ð» Ð¾
id ge
ĠW ild
Ġh ard
Ñĥ Ð¼
Ġto p
ul ation
à¥įà¤¾ à¤¿
Ġv ot
Ġv ery
ãĤ ģ
Ġth ink
ist rict
Ġà¥§à¥¯à¥ª à¥©
Ġà¤¬à¤¹à¤° à¤®
Ġà¤®à¤²à¤® à¤²
ust ry
Ġà¤¸à¤¶ à¤Ļ
end e
Ġà¤¸à¤¯à¤® à¤¦
act ion
Ġhe alth
Ð°ÑĢ ÑĤ
erv ed
Ġsu ch
ĠUS D
å® ī
ater ial
åĪ Ĩ
Ð°Ð± ÐµÑĤ
æĪ Ĳ
TM L
ãģĭ ãĤī
ĠHot el
è¦ ģ
ubl ished
Ġà¤¶à¤¯à¤¨à¤ķ à¤ķ
ĠTibra Khabar
Ġpnp khabar
" :
: ,
d om
g i
w an
Ñ Ĭ
å Ģ
æ ¸
è ī
à¤ķ à¤°à¤¬à¤¹
à¤® à¤ķà¤®
à¤¯ à¤ıà¤ķ
à¥Ģ à¥ĥ
à¤¸ à¤¯à¤²
Ġà¤¸ à¤ĩà¤¦
à¤¹ à¤¸à¤ª
à¤µ à¤°à¤¸à¤¹
à¤Ĺ à¤ķà¤®
à¤Ĺ à¤ľà¤µ
à¤Ł à¤¸à¤¸
Ġà¤¨ à¤Ļà¤®
Ġà¤¹ à¤Łà¤ķ
à¤¬ à¤Ĺà¤°à¤ķ
à¤· à¤¡
à¤ģ âĢĶ
à¤ļ à¤ħà¤§
à¤Ī à¤£
à¤Ī à¤¤à¤®
à¤Ī à¤ıà¤¸
à¤£ à¤¢
Ġà¤ī à¤¶
à¤ī à¤ĺà¤°à¤ķ
Ġà¤¯ à¤Ī
à¤ĩ à¤ľà¤¨à¤ķ
à¤« à¤®à¤®
à¤Ļ à¤Łà¤¨à¤®
à¤ľà¤¨ à¤¤à¤°
à¤ľà¤¨ à¤Ĩà¤¨
à¤¢ à¤°
à¤¸à¤® à¤¯à¤¦
à¤¨à¤² à¤¸à¤¹
Ġà¤ľà¤¨ à¤Ĩà¤§
à¤¯à¤® à¤Ĺà¤°
à¤¯à¤® à¤²à¤Ĺ
à¤°à¤¹ à¤Ĺ
.. âĢĻ
à¤°à¤² à¤°
Ġà¤¡ à¤¹à¤°
à¤Ŀ à¤°à¤¨
à¤°à¤¦ à¤ľ
à¤®à¤ķ à¤Ńà¤¨
à¤Łà¤ķ à¤¸
à¤¾à¤Ĥ ,
Ġà¤īà¤¦ à¤¯à¤¦
à¤ķà¤° à¤ľ
Ġà¤¸à¤° à¤ªà¤²
à¥© à¥«à¥¦
à¥Įà¤ģ /
à¤Ĺà¤² à¤ªà¤¨à¤ķ
à¤¶à¤¨ à¤¤
à¤¶à¤¨ à¤ħà¤ĺ
à¤«à¤² à¤¡
à¤Łà¤® à¤ªà¤Ľ
Ġà¤Ķ à¤¶
Ġà¥® à¥§à¥¨
Ġà¤Ĩà¤® à¤§
Ġà¤¸à¤Ļ à¤ķ
à¤¡à¤® à¤¹à¤°
à¤§à¤ķ à¤¦à¤ķ
à¤¦à¤µ à¤ľ
Ġà¤¦à¤¶ à¤²à¤®
à¤²à¤¸ à¤Ł
à¤ĩà¤Ł à¤¸à¤®
re ad
Ġà¤Ńà¤Ī à¤°
à¤¸à¤¹à¤° à¤¹à¤°
à¤¯à¤£ à¤¹à¤°
Ġà¤Ĩà¤ª mà¤¨
Ġà¥¦ à¥§à¥¬
in ese
Ġà¤Ĩà¤Ī à¤¯
Ġà¤Ĩà¤Ī à¤¸à¤²
à¤Ĺà¤łà¤¨ à¤ª
Ġà¥¨à¥Ń à¥¦à¥¦
Ġà¥ªà¥¦ à¥§
à¤ıà¤² à¤ıà¤¨à¤ķ
at r
à¤ĩà¤¡ à¤°à¤®
Ġl ady
Ġm uch
ĠN ing
à¤¤à¤¸ à¤°à¤®
Ġà¤ľà¤¨à¤® à¤ŀ
Ġà¤¤à¤²à¤¬ à¤¸à¤¹
he t
ĠA t
Ġp ower
Ġa u
Ġs ign
Ġà¤¦à¤²à¤² à¤Ĺ
Ġc ountry
Ġd ies
Ġà¥©à¥¬ à¥¬
Ġà¥©à¥¬ à¥©
Ġf ace
à¤ħà¤¸ à¤«à¤²
Ġà¥©à¥ª à¥®
Ġ?âĢĻ âĢĻ
ac es
Ġà¥ªà¥© à¥ª
un ch
à¤¾à¥Ī à¥¤
ur g
Ġà¥®à¥« à¥¬
Ġà¤ıà¤ļ à¤ı
Ġà¤ħà¤¨à¤¶à¤¨ à¤ª
à¤¹à¤£ à¤¹à¤°
Ġà¤ľà¤Ĺà¤¤ à¤Ĺ
à¥§à¥¬ à¥¦
Ġn on
à¸ «
Ġà¥¬à¥¬ à¥«
Ġà¤ªà¤ª à¤Ĺ
Ġà¤ĸà¤ªà¤¤ à¤²
Ġh ar
Ġe v
op e
Ġà¤¦à¤®à¤¨ à¤¬
ist ory
à¤¨à¤µà¤¤ à¤¸
Ð² ÐµÑĤ
Ġà¤ħà¤¹à¤® à¤¦à¤ķ
Ð¼ ÐµÐ½
Ġst ate
Ġr ights
end ing
Ġwith out
Ġal ong
Ġqu ality
Ġà¤ľà¤¯à¤¨à¤Ĺà¤° à¤¬
ual ly
ĠUn ion
Ġus ed
ĠEx p
Ñī Ðµ
per ation
Ġà¤¹à¤°à¤ķ à¤¤
ä» ¶
Ð¸Ð½ Ð°
Ġà¤ħà¤¬à¤¶ à¤°à¤®
ĠComm unity
ron ic
ĠCont act
Ġmonth s
ĠBiz Khabar
ĠPu ja
çĲ Ĩ
ĠâĹ ı
; à¥¤
] à¥¤
b a
c s
n h
t v
u i
Ï ĥ
è ª
Ġ ÑĪ
à¤° à¤ªà¤®
à¤¨ à¤¯à¤¸
à¤¨ à¤¤à¤¨
à¤¨ à¤īà¤¤
à¥ĩ ï¿½...
à¤² à¤Ļà¤ķ
à¥Ģ à¥¤âĢĻ
Ġà¤ª à¤¡à¤¨
Ġà¤Ĺ à¤²à¤²
Ġà¤° à¤¨à¤¤
Ġà¤Ń à¤ĩà¤ķ
à¤¬ à¤°à¤£à¤ķ
à¤ıà¤ķ à¤®
Ġà¤ľ à¤¤à¤¨à¤¸
Ġà¤² à¤¶
Ġà¤² à¤µà¤°
Ġà¤² à¤²à¤¨
Ġà¤² à¤ľà¤¹à¤°
à¤ļ à¤°à¤¸à¤¹
à¤Ī à¤¨à¤¸
à¤Ī à¤¡à¤²
à¤Ī à¤Łà¤¬
à¤£ à¤¨à¤²
à¤Ľ à¤°à¤ķ
à¤Ń à¤²à¤¤
à¤ĸ à¤¤à¤°à¤¨
à¤ī à¤¶
Ġà¤¸à¤® à¤¯à¤¨
à¥¤ âĢĶ
à¤īà¤¨ à¤¹
Ġà¤ªà¤° à¤ļà¤ķ
Ġà¤ħà¤¨ à¤¤
Ġà¤ħà¤¨ à¤«
à¥ĥ à¥¤
à¤Ļ à¤ķà¤®
à¤ľà¤¨ à¤ļ
à¤ªà¤° à¤Ļ
Ġà¤Ł à¤¨à¤®
à¤°à¤¹ à¤¸à¤¹
à¤²à¤® à¤°
à¤²à¤® à¤¹
à¤Ŀ à¤¹à¤°
à¤¯à¤¤ m
à¤¯à¤¤ à¤¬à¤¸
à¤ªà¤¤ à¤ª
à¤°à¤¹à¤° à¤²
Ġà¤ĩ à¤¡à¤¨
à¤®à¤ķ à¤¹à¤°
à¤µà¤ķ à¤¯
à¤Łà¤¨ à¤°à¤¹à¤°
à¤·à¤£ à¤Ń
à¥ĭà¥¤ à¥¤
à¤¸à¤¨ à¤¯à¤¨
Ġà¤Ĩà¤° à¤ıà¤®à¤¸
à¤Ĩ à¤Ń
à¤Ĩ à¤ĩà¤«
à¤¨à¤¨ à¤ľ
à¤¦à¤¨ à¤Ńà¤¨
Ġ? à¥¤
Ġà¤¢ à¤²à¤¨
à¤ĵ à¤ªà¤Ľ
à¤ĵ à¤Ĩà¤°à¤®
Ġà¤ķà¤² à¤¹à¤²
à¤¶à¤® à¤¯
Ġà¥¤âĢĻ -
à¤¬à¤² à¤¤à¤°
à¤·à¤¯à¤® à¤§
Ġà¥§à¥¯ à¥¦à¥®
à¤¤à¤ª à¤¸
à¤¥à¤² à¤Ńà¤¨
Ġ- ----
Ġà¤Ńà¤Ł à¤Ł
Ġà¤Ī à¤¡
Ġà¥§à¥® à¥¯à¥¬
re ed
à¤¯à¤Łà¤ķ à¤¸à¤®
Ġà¤°à¤ķ à¤¡
à¤¯à¤£ à¤¦
Ġà¥¦ à¥¨à¥«
Ġà¥¦ à¥¨à¥¬
à¥ĩà¤ģ âĢĶ
à¤£à¤® à¤£
à¥¨à¥¦ à¥¨à¥«
à¤µà¤Ł à¤¸
Ġà¤ªà¤² à¤ªà¤²à¤®
à¤¤à¤°à¤® à¤§
Ġm o
à¤²à¤ª à¤Ł
Ġt em
ĠS ha
Ġà¤Ĩà¤ı à¤Ŀ
Ġà¤Ĩà¤ı à¤ħà¤¨
Ġà¤®à¤¨à¤® à¤¨à¤®
ĠP erson
ĠP OWER
Ġà¤Ĺà¤¹ à¤µ
Ġà¥©à¥© à¥¯
Ġà¥Ńà¥« à¥§
ĠM ov
à¤Łà¤µà¤² à¤¸à¤®
le an
Ġc ome
Ġc ele
Ġc ryptocurren
ÑĢ Ð¾
ĠD a
ĠD h
ĠD ainik
à¤ħà¤ª à¤µ
as i
ãģ Ķ
à¥§à¥§ à¥©
ac i
à¥§à¥¨ à¥©
ĠE asy
ĠR T
à¥§à¥¬ à¥«
Ġà¥¬à¥¬ à¥©
ĠW A
ĠJ im
áĥ ĵ
Ġà¤ķà¤¸à¤ķ à¤¸à¤²
Ġà¥¯à¥ª à¥«
Ġg ener
Ġth en
Ã¬ à¤µ
ie ve
are nt
Ġ7 8
à¨ ²
ĠØ ¹
Ġà¤¦à¤¶à¤°à¤¥ à¤ª
Ġà¤²à¤ĸà¤¨ à¤īà¤ķ
Â» ,
Â» .
ĠY ear
Ġà¤ıà¤ħ à¤°à¤¬à¤¸
à¤°à¤¡ à¤®à¤ķ
ure d
Ø± Ø¯
Ð³ ÑĢ
Ø§Ø ¨
ĠTr ade
Ġà¤¤à¤Ļ à¤¨
ĠTe am
ound ation
Ġse ems
Ġte am
arg et
ĠPh il
ocu ment
Ð°ÐµÑĤ ÑģÑı
ÐĲ Ð
time à¤ķ
éģ ĵ
Ġâĸ ª
, à¥ĩ
H e
N ew
O K
l ot
m à¤¸à¤²
m ark
m argin
n i
n ov
r ight
Ø µ
Ġ à¥įà¥¤
Ġ ãĥ
Ġ ide
à¤® à¤ıà¤ķ
à¤¤ à¤Ĺà¤£
à¥ģ à¥Ģ
à¥ģ Â·
à¤¸ à¤°à¤µ
à¤¹ à¤µà¤°
à¤¦ à¤ªà¤¤
à¤¦ à¤Ńà¤°
à¤¦ à¤¶à¤¤
à¤µ à¤Łà¤¬
Ġà¤Ĺ à¤¹à¤°
à¤Ĺ à¤Ĺà¤¤
à¥Ī ),
à¥Ī à¥¤âĢĻ
Ġà¤¨ à¤Łà¤°
Ġà¤¨ à¤ļà¤°
à¤ı à¤¸à¤°
Ġà¤¬ à¤¡à¤²
Ġà¤Ń à¤¯à¤¨
à¤ľ à¤ªà¤ķ
Ġà¤¹ à¤¡à¤°
Ġà¤µ à¤²à¤®
à¤¬ à¤®à¤¬
à¤· à¤®à¤®
à¤§ à¤¦à¤°
à¤¶ à¤°à¤ķ
à¤Ī à¤ķà¤ķ
à¤Ī à¤®à¤°
à¤¡ à¤°à¤¦
à¤¡ à¤¤à¤¨
à¤£ à¤¡
à¤£ à¤¨à¤ķ
à¤£ à¤µà¤°
à¤Ľ à¤¹
à¥Ĥ ;
à¤Ń à¤«à¤²
Ġà¤ī à¤ĸà¤²
à¤°à¤ķ à¤¥
à¤ĩ à¤ªà¤¨
à¤ĩ à¤Ĺà¤°à¤²
Ġà¤ļ à¤Łà¤°
à¤« à¤¨à¤²
Ġà¤ı à¤ľà¤ķ
Ġà¤ªà¤¨ à¤²
à¤¾à¤ģ '
à¤Ļ à¤ħà¤¨
à¤ĺ à¤łà¤¨
Ġà¤¬à¤¨ à¤¬à¤¸
à¤²à¤ķ à¤Ł
à¤ªà¤¨ à¤ª
à¤Ĺà¤° à¤¸à¤¹
Ġà¤¸à¤¹ à¤²à¤Ĺ
Ġà¤²à¤Ĺ à¤¨à¤Ł
à¤ħ à¤¬à¤¦
Ġà¤ħà¤¸ à¤°à¤¦
à¤°à¤¬ à¤¤
à¥ĭà¥¤ âĢľ
à¥Īà¤Ĥ âĢĻ
à¤Ĩ à¤ķà¤¸
à¥Įà¤ģ âĢĿâĢĵ
Ġà¥¬ à¥Ńà¥¬
à¤°à¤¶ à¤¯
Ġ? &
Ġà¤ĺà¤° à¤ľà¤¸
Ġà¤Ĩà¤Ĺ à¤¡
à¤¾à¥ĩ ...
Ġà¤ħà¤¤ à¤¹à¤°
à¤¬à¤¹ à¤¸
à¤°à¤ª à¤¥à¤¸
Ġà¤ħà¤² à¤ļ
Ġà¥§à¥¯ à¥¨à¥¨
Ġà¥§à¥¯ à¥¨à¥®
Ġà¥§à¥¯ à¥¨à¥¯
Ġà¥§à¥« à¥¦à¥¦à¥¦
Ġ' ...
Ġà¤¨à¤Ń à¤¯à¤ķ
Ġà¤¨à¤ľ à¤°à¤ķ
Ġà¤¨à¤° à¤Ĺ
Ġ- --------
à¤¯à¤¬ à¤§
Ġà¤Ĺà¤łà¤¨ à¤¬à¤¨
Ġà¤¹à¤Ł à¤¸
Ġà¤Ĩà¤Ī à¤ıà¤¸à¤Ĩà¤Ī
à¤¨à¤¦ à¤£
à¤Ĩà¤Ī à¤ıà¤¸à¤²
Ġl ine
Ġl ong
Ġà¤¸à¤¹à¤° à¤¦
Ġm il
à¤¤à¤µà¤¨ à¤¸à¤®
ĠS ee
or p
à¤¤à¤¸ à¤°à¤¹
Ġà¥©à¥¨ à¥Ń
Ġà¤ļà¤²à¤¨ à¤¹à¤°
ĠT our
Ġp erm
le g
à¤®à¤°à¤£ à¤¯
is ions
Ġd an
Ġà¤°à¤Ļ à¤¬
Ġà¥©à¥ª à¥Ń
à¤ħà¤ª à¤¹à¤°à¤£
à¥§à¥¯ à¥¯à¥¬
Ġb row
à¤µà¤¸à¤® à¤ķ
ag er
à¥§à¥« à¥¦à¥¦
et y
ĠF ile
Ġà¥ªà¥¯ à¥¯
ĠL ink
Ġà¤¥à¤² à¤¹
ĠE arth
Ġà¤ľà¤Ĺà¤¤ à¤¬
ol it
Ġà¤¦à¤µ à¤¦à¤µ
Ġà¥«à¥¯ à¥©
Ġà¥Ńà¥© à¥©
ers hip
Ġà¤ħà¤²à¤® à¤²à¤ķ
Ġà¤¨à¤¹à¤° à¤²
Ġ4 4
Ġ4 9
Ġy ang
ra v
Ġk b
Ġà¤ľà¤¨à¤°à¤² à¤²
ess ional
à¤Ļà¤Ł à¤¨à¤²
à¤°à¤¬à¤¦ à¤²à¤²
ash ion
ĠÑģ Ð°Ð¹ÑĤ
ec ause
all en
201 5
Ġà¤ķà¤¸à¤°à¤¤ à¤ªà¤Ľ
à¤¸à¤°à¤¸ à¤«
ide os
Ġ15 0
ĠÃ ¤
ug u
à¤ľà¤¡ à¤Łà¤ķà¤®à¤²
Ð°ÑĤ ÐµÐ»ÑĮ
se arch
Ġ200 5
Ġwh ile
à¤²à¤ł à¤Ł
ÐµÐ» Ñı
ens ion
Ġà¥§à¥®à¥® à¥¨
ĠPl us
Ġà¤ľà¤¨à¤° à¤²à¤ķ
Ð¶ Ðµ
çĶ »
ãģ§ ãģĻ
ä½ ł
han al
Ġïĥ ¼
Â¬ âĢĵ
Ġoak ley
âĪ Ļ
stit ute
éĿ ¢
ĠâĪ ķ
ĠSER P
yah oo
C O
C on
M O
b ut
b all
l t
l ation
l ength
s ub
ä ¾
å ģ
æ ĭ
é ĥ½
à¤° à¤ıà¤°
à¤° à¤Ĺà¤®
à¤¨ à¤ıà¤ķ
à¤ķ à¤Ĺà¤°
à¤ķ à¤Ĩà¤¸
à¤¿ .....
à¤¹ à¤¯à¤ķ
à¤µ à¤¹à¤°à¤£
à¤Ĺ à¤°à¤¤
à¤Ĺ à¤µà¤¸
Ġà¤° à¤¨à¤¬
Ġà¤® à¤ªà¤¨
Ġà¤Ĺà¤° à¤ıà¤ķ
à¤¬ à¤£
à¤· à¤ªà¤¶
à¤§ à¤¤à¤²
à¤§ à¤ľà¤²
Ġà¤¤ à¤¸à¤²
Ġà¤¦ à¤ª
Ġà¤¦ à¤Ī
à¤¥ à¤²à¤¨
Ġà¤Ĩ à¤ļà¤°
Ġà¤² à¤µà¤¦
à¤ļ à¤®à¤ķ
à¤Ī à¤ĵà¤²
à¤¡ à¤¥
à¤¡ à¤¢
à¤ĸ à¤°à¤µ
à¤ī à¤¯
à¤ī à¤ªà¤¸
à¤ĩ à¤Ĺà¤®
à¤« à¤ªà¤Ľ
Ġà¤ı à¤ıà¤¨à¤¸
à¤īà¤¨ à¤¡
à¥ĥ ...
à¤Ļ à¤ĵà¤Ńà¤°
Ġà¤« à¤²à¤¬
à¤¸à¤® à¤¯à¤¸à¤®
Ġà¤ĺ à¤¨à¤ª
Ġà¤ľà¤¨ à¤¬à¤°
Ġà¤Ĩà¤« à¤¤
à¤¯à¤¸ à¤ªà¤Łà¤ķà¤ķ
à¤¤à¤° à¤¸à¤¹
à¤Ŀ à¤¨à¤®
Ġà¤īà¤ª à¤ķà¤¥
à¤ªà¤® à¤®
Ġà¤²à¤Ĺ à¤¨à¤²
à¤ķà¤² à¤¯à¤®
à¤ĩà¤¨ à¤ĸ
Ġà¤ĩ à¤¨à¤®
Ġà¤ĩ à¤¸à¤°
à¤ħ à¤ļà¤®
à¥ģà¤ģ âĢĵ
Ġà¤ħà¤¸ à¤°à¤®
à¤®à¤ķ à¤£
Ġà¤Ĩà¤¯ à¤¤à¤°
à¤µà¤° à¤ľ
à¤µà¤¨ à¤Ĺ
à¤Ĺà¤¤ à¤¹à¤°
à¥ĩ, âĢĵâĢĺ
à¤Łà¤¨ à¤¢
à¤Łà¤¨ à¤¸à¤¤
à¤¤à¤¨ à¤Ĺà¤°à¤ķ
à¤ķà¤ķ à¤°à¤£
à¤°à¤¯ à¤²
Ġà¤ĵ à¤®à¤®
Ġà¤ĵ à¤ľà¤ª
à¤ªà¤ķ à¤¸à¤®
Ġà¤ľà¤¸ à¤µ
à¤¨à¤¸ à¤¬
à¤¯à¤° à¤ªà¤Ľ
à¤ķà¤°à¤£ à¤ª
à¤ķà¤°à¤£ à¤Ń
Ġà¤ħà¤¬ à¤¸à¤°à¤ķ
Ġà¥® à¥¨à¥¦
Ġà¥® à¥Ńà¥¦
à¤Łà¤² à¤Ń
à¤ķà¤¨ à¤ª
à¤®à¤ļ à¤°à¤£à¤®
Ġà¥§à¥¯ à¥§à¥©
Ġà¥§à¥¯ à¥¦à¥¬
à¤¹à¤® à¤¦à¤²
à¤·à¤¯ à¤ħà¤¨
à¤§à¤® à¤§
Ġà¥«à¥¦ à¥¨
à¤¤à¤ª à¤Łà¤ķ
à¤¦à¤® à¤§
Ġà¤ķà¤ª à¤Łà¤ª
Ġà¤ħà¤ªà¤° à¤¹à¤£
Ġà¤Ľà¤²à¤«à¤² à¤ªà¤¶
Ġ! )
Ġà¥¦ à¥©à¥ª
à¤Īà¤¨ à¤ĸà¤¬à¤°
Ġà¤Ĩà¤Ī à¤ıà¤®à¤ı
Ġà¤¸à¤ª à¤¥à¤ķ
ad os
à¤®à¤£ à¤¬à¤¹
Ġà¤ħà¤¡ à¤ķà¤²à¤¬
Ġl oc
ĠÐ Ń
Ġm ul
st ate
Ġà¤īà¤ªà¤° à¤ĸ
Ġà¥©à¥« à¥¨
ĠS pe
or i
.... âĢĻ
à¤Ĭ à¤ª
à¥Ģà¤ģ ,
Ġà¤Ĺà¤ı à¤Ĺ
ĠP ark
Ġà¤Ńà¤°à¤¤ à¤¶à¤®à¤¶
ĠC ode
ĠC ham
à¥ĭâĢĻ âĢĻ
Ġp Ã¥
Ġs a
Ġd ating
ĠÂ ķ
à¤°à¤Ļ à¤¦
à¤ĩà¤Ń à¤°à¤¹à¤°
ĠD ate
ent ry
Ġà¥©à¥ª à¥¬
Ġà¥©à¥ª à¥©
Ġà¥©à¥ª à¥¯
Ġà¥©à¥Ń à¥¬
am i
à¤¤à¤°à¤² à¤¤
Ġà¥ªà¥© à¥¨
Ġà¥«à¥® à¥¬
Ġà¥«à¥ª à¥¯
Ġà¤¦à¤®à¤ķ à¤¬
Ġn umber
à¸ Ī
Ġà¥¬à¥¬ à¥¬
ĠK ey
iv en
ak ar
Ġg en
ĠU s
Ġà¤ĩà¤Ļ à¤¨
ab les
ash ing
ä¸ ĭ
ĠSt ates
Ġun t
ug g
à¥įà¥Ģ à¥Ģà¥ĩ
Ġïģ Ń
ĠSh iva
ĠSam achar
ES T
Ð°ÑĢ Ð°ÑĤ
Ġà¤ħà¤®à¤¨ à¤ļà¤¯
ari us
Ġà¤Ĩà¤ĩà¤ĵ à¤ıà¤®à¤®
Ġsh ort
ä» ĸ
Ð¾Ñģ Ñģ
Ġà¦ ¬
Ø³ Øª
ature d
ĠWeb soft
ĠChe ap
Ġnepal i
Ġà¤ĳ à¤«
---------------- ----------------
http s
ĠØ¯ Ø±
stru ction
Ġà¤ĨÃ ıà¤¨
Ð°Ñİ Ñī
ĠBrow ser
Ġà¤¹à¤°à¤¬ à¤ĸà¤¤
ĠFire fox
oug ht
ĠQual ity
é« ĺ
ĠNing bo
B O
T T
h h
h en
n s
r or
u j
u er
Ï Ĥ
Ð Ł
å ī
ç Ł
Ġ ir
Ġ Ø§Ù
à¤¾ à¤¾à¤ģ
à¤° à¤¯à¤¨
à¤¨ à¤¨à¤®
à¤¿ âĢĺ
à¥ĩ à¥ĩ,
à¥ĭ âĢį
à¤² à¤¤à¤¨
à¤® m
à¤® à¤¯à¤¦
à¤¯ à¤Łà¤²
à¤¯ à¤ªà¤²
à¥ģ âĢĺ
Ġà¤¸ à¤£
Ġà¤¸ à¤ĺà¤ķ
Ġà¤ª à¤·
à¤µ à¤ħà¤Ń
à¤µ à¤Ĩà¤ĩà¤ľ
Ġà¤ķ à¤ıà¤²
à¤Ĺ à¤¡à¤ķ
à¤Ł à¤¸à¤¹à¤°
à¤Ł à¤ħà¤Ĺ
Ġà¤® à¤ĵà¤µ
à¤ľ à¤§à¤¨
à¤ľ à¤Ńà¤ķ
Ġà¤ħ à¤ľà¤¨
à¤§ à¤¸à¤¤
Ġà¤¤ à¤ĸà¤²
à¤¶ à¤ľà¤Ļ
Ġà¤Ĩ à¤¤à¤ķ
Ġà¤² à¤²à¤ķ
à¤ļ à¤¬à¤ľ
à¤¡ à¤Ľà¤¨
à¤¡ à¤¸à¤¨à¤²
à¤ĸ à¤¨à¤¸à¤®
à¤ī à¤ıà¤ķ
âĢ ¬
à¤« à¤®à¤°
Ġà¤¥ à¤¹
Ġà¤ĸ à¤Ļ
à¤¯à¤ķ à¤¸à¤¹
à¤¨à¤ķ à¤¨
à¤°à¤¤ à¤ªà¤Ľ
à¤Ļ à¤ķà¤ķ
à¤¸à¤® à¤¬
à¤¨à¤² à¤¸
Ġà¤ľà¤¨ à¤¤à¤ķ
à¤²à¤ķ à¤¹
à¤¤à¤° à¤Ĺà¤Ļ
Ġà¤ķà¤® à¤Ĺà¤°
à¤°à¤¦ à¤¹à¤ķ
à¤ķà¤² à¤ªà¤¹à¤°
à¥ģà¤ģ ...
Ġà¤ªà¤¹ à¤²à¤¸
à¤¯à¤¨ à¤¨
à¤µà¤ķ à¤°à¤ķ
Ġà¤Ńà¤ı à¤°à¤®
à¤¸à¤² à¤Ń
à¤²à¤¨ à¤Ńà¤¨
à¤°à¤¬ à¤²à¤²
Ġà¤Ĩà¤° à¤ıà¤®
à¤¯à¤² à¤°
à¥Įà¤ģ âĢĶ
Ġà¤ĵ à¤ªà¤¨à¤®
Ġà¥¬ à¥§à¥¨
à¤¶à¤¨ à¤ĸ
à¤§à¤¨ à¤¤
à¤ĩà¤°à¤¹ à¤ķ
Ġ? âĢĵ
à¤¯à¤° à¤ªà¤°
à¤ĸà¤° à¤¸à¤®
à¤µà¤® à¤ŀ
Ġà¥§à¥¦ à¥¦à¥¦à¥¦
à¤µà¤¤ à¤¬à¤¹
Ġà¤Ĩà¤ĩ à¤¤à¤°
Ġà¤ħà¤ª à¤ľà¤¸à¤ķ
Ġà¥§à¥¯ à¥¨à¥§
à¤¹à¤² à¤¸
Ġà¥§à¥§ à¥®à¥®
Ġà¥«à¥¦ à¥©
Ġà¤ıà¤¨ à¤«
à¤Ńà¤µ à¤ľà¤¸
à¤ĩà¤ķ à¤°à¤²
Ġà¥¦ à¥¦à¥¯
Ġà¤Ĺà¤ł à¤¨à¤²à¤Ĺ
à¤¯à¤¦ à¤²à¤¬
à¤Ĺà¤¢ à¤µ
Ġà¤ķà¤Ł à¤¨à¤ķ
Ġà¥ªà¥¦ à¥ª
Ġà¥¨à¥© à¥¦à¥¦
Ġà¤Ĺà¤² à¤¤à¤²
Ġà¤ķà¤ł à¤°
à¤Ĩà¤Ī à¤¯
à¤Ĩà¤Ī à¤ıà¤²à¤ĵ
Ġl as
Ġà¤¸à¤¹à¤° à¤¸à¤®
Ġm edia
à¤Ĭ à¤²à¤²
it ing
ĠP ublic
Ġà¤Ĩà¤¸ à¤¯à¤ªà¤¤
à¤Łà¤¸ à¤²à¤®
ĠM ac
ĠM ult
Ġs ocial
Ġà¤ªà¤¸à¤² à¤Ń
Ġc ould
Ġà¥«à¥« à¥¨
ha i
ĠB i
ĠB ob
ĠB ato
Ġf ore
Ġf ix
Ġf Ã¶r
Ġà¤ķà¤¦à¤® à¤µ
à¥§à¥¯ à¥¯à¥ª
Ġà¤ªà¤ļ à¤Ń
ãģ Ī
ro ad
ĠF OR
Ġà¤ĥ -
Ġà¥«à¥© à¥¬
à¤¡à¤¹à¤° à¤®
à¤¤à¤ļ à¤°à¤¹à¤°
ĠG h
Ġn ous
Ġà¥¯à¥« à¥§
Ġà¥¬à¥¬ à¥¦
id ding
Ġà¥¬à¥§ à¥Ń
Ġà¥®à¥® à¥®
Ġà¥¯à¥® à¥¬
iv ely
Ġe qu
Â« à¤¾
à¤Ĩà¤ĩ à¤ıà¤¨
ap ur
op hy
........ ....
à¤¬à¤¢ à¤®
Ġ7 2
te gr
ĠÐ² Ð¾Ð·
est ival
à¤ĭ à¤Ĺ
ĠÐ½ Ð¾
à¤¿? âĢĻ
à¹ ĥ
ĠÃ ¶
Ġle arn
ire d
ĠSh ow
ĠSh ri
Ġà¤²à¤Ļ à¤®à¤¨
ĠTr ansposh
IN E
Ġpl an
ĠEx am
olog ical
à© °
åı ¯
ition al
à¤¹à¤ļ à¤°à¤£à¤ķ
æĹ ¶
ett ing
ĠMin or
In tern
ĠOr gan
ÐµÐ³ Ð¾
à¤¡à¤°à¤¶ à¤Łà¤®
à¤²à¤°à¤¸ à¤¨à¤²
ĠIs lands
Ð°Ñħ Ð°ÑĢ
Ġprov id
ĠDes ign
tain ment
ãģ£ ãģ¦
Ġà¤ķà¤®à¤²à¤¨ à¤¯à¤¨
ĠïĢ ¼
CP M
Ġdif ferent
ĠJav a
ĠÐ´Ð¸ Ð°Ð±ÐµÑĤ
vir on
ĠAnaly tics
Ġà¤¦à¤¶à¤²à¤® à¤µ
" .
A I
N et
U B
U D
d i
n o
o om
t m
Æ °
Î ¼
ç Ń
ì Ĺ
Ġ om
à¤¾ Â»
à¤¨ à¤Īà¤ķ
à¤¨ à¤ĸà¤®
à¤¨ à¤Ĩà¤ķà¤°
à¤ķ à¤Ľà¤¨
à¥ĭ [
à¤¯ à¤īà¤¨
à¤¯ à¤¡à¤®
Ġà¤¸ à¤ªà¤ķ
Ġà¤¸ à¤ľà¤ķà¤¤
à¤¹ à¤¦à¤°
à¤¹ à¤£à¤¸
à¤¦ à¤¬à¤ľ
à¤¦ à¤Ļà¤µ
à¤Ĺ à¤ļà¤¨
à¤Ĺ à¤¨à¤¸
à¤Ĺ à¤°à¤£à¤²
Ġà¤° à¤ħ
Ġà¤° à¤¡à¤ķ
Ġà¤¨ à¤ĸà¤°
Ġà¤¬ à¤¶à¤¨
Ġà¤¬ à¤Ĺà¤¦
à¤ľ à¤·
à¤ľ à¤¤à¤ª
à¤¬ à¤¬à¤°
à¤§ à¤Ĺà¤°
à¤§ à¤¸à¤Ļ
Ġà¤¤ à¤ľà¤µ
Ġà¤¤ à¤Łà¤¹à¤°
à¤ģ à¥Īà¤Ĥ
Ġà¤² à¤¤à¤²
Ġà¤² à¤µà¤£
à¤ļ à¤Ĺà¤°
Ġà¤¯ à¤¯
à¤ĩ à¤µà¤¸
Ġà¤ļ à¤¹à¤°
Ġà¤ı à¤Ĩà¤Īà¤ķ
à¤ł à¤Ł
Ġà¤ªà¤° à¤ļ
à¤°à¤£ à¤ķà¤°
à¤ªà¤° à¤ª
à¤¨à¤® à¤Ĺ
Ġà¤®à¤¹ à¤·
Ġà¤®à¤¹ à¤²à¤²
Ġà¤ľà¤¨ à¤¦à¤µ
Ġà¤ľà¤¨ à¤¸à¤¹à¤¯
Ġà¤§ à¤¯
à¤°à¤¹ à¤¨à¤ķ
à¤¤à¤° à¤µà¤°
à¤ªà¤® à¤²
Ġà¤²à¤Ĺ à¤¯
à¥ģà¤ģ à¥¤âĢĿ
à¤®à¤ķ à¤¦
à¤²à¤¯ à¤ħà¤Ĺ
à¤²à¤¨ à¤¹
à¥ĩ, âĢĵ
à¤°à¤µ à¤Ĺ
à¤°à¤¬ à¤²à¤ķ
Ġà¤¹à¤ľ à¤¯
à¤¤à¤® à¤¦
à¤·à¤ķ à¤Ń
à¤Ĩ à¤·
à¤Ĩ à¤Ĭ
à¤®à¤¨ à¤¹
Ġà¤¸à¤¨ à¤¤à¤ķ
à¥Įà¤ģ à¤ģ
à¥Įà¤ģ ...
à¤ľà¤ķ à¤ª
à¤Łà¤® à¤¹à¤°
Ġà¤ĺà¤° à¤ªà¤Ľ
ĠâĢľ âĢĺ
Ġà¥¯ à¥§à¥¬
à¤ıà¤¨ à¤Ľà¤¨
à¤µà¤¤ à¤¨à¤²
Ġà¤¸à¤Ļ à¤ĺà¤°
à¥įâĢ ĺ
à¤¤à¤µ à¤¨à¤²à¤Ĺ
à¤ªà¤² à¤¹à¤°
Ġà¤ħà¤² à¤ĸ
à¤ľà¤² à¤¸à¤ķ
Ġà¥§à¥¯ à¥¨à¥«
Ġà¤ıà¤¸ à¤µ
Ġ... !
Ġà¤ıà¤¨ à¤ıà¤²à¤ľ
à¤ľà¤¯ à¤Ń
Ġà¥§à¥® à¥¯à¥«
à¤ľà¤§ à¤°
à¤ķà¤Ł à¤¸à¤®
Ġà¥¦ à¥©à¥¨
in fo
Ġà¥§à¥Ń à¥¨à¥Ń
à¤Ĩà¤° à¤ıà¤«
Ġà¥¨à¥ª à¥¦à¥¦
Ġà¤Ĩà¤² à¤Ļ
à¤Ĺà¤¢ à¤¹à¤°
à¤Ĺà¤łà¤¨ à¤¸à¤®
à¥¨à¥¦ à¥ªà¥¦
à¥¨à¥¦ à¥¨à¥®
Ġà¥¨à¥Ń à¥Ń
à¤°à¤° à¤°
Ġà¤Ńà¤ıà¤¨ à¤Ńà¤ıà¤ķ
à¤ıà¤² à¤ıà¤¸
à¤µà¤¶ à¤Ļ
à¤ķà¤¬ à¤ľ
Ġm ain
à¤Łà¤µ à¤¯à¤°
Ġà¥©à¥« à¥®
Ġà¥Ńà¥¦ à¥«
Ġà¥ªà¥« à¥§
ĠC H
ou ch
ic er
ĠM A
ĠM r
Ð¸ Ð¿
Ġs aid
le ft
à¤®à¤°à¤£ à¤°à¤¹
Ġà¥«à¥« à¥®
à¤·à¤Ń à¤°à¤®
à¥§à¥¦ à¥¨
Ġà¥©à¥¬ à¥Ń
ĠI C
ĠI I
ĠB a
ĠB ik
à¤ħà¤¸ à¤Ī
ĠD ata
Ġà¤ķà¤¦à¤® à¤ªà¤Ľ
Ġà¥©à¥Ń à¥§
à¥§à¥¯ à¥¯à¥¨
à¥§à¥¯ à¥¯à¥§
am m
el ing
ãģ ¡
Ġà¥«à¥¨ à¥ª
Ġà¥©à¥¯ à¥¯
à¤¿à¥¤ '
Ġà¥«à¥® à¥ª
Ġà¥ªà¥¯ à¥§
ĠL in
ĠL os
à¤¤à¤ļ à¤°à¤ķ
ĠE nepal
ĠE mail
à¤īà¤ľ à¤°à¤²
ĠG l
ĠG reen
Ð» Ð°Ð´
à¤ıà¤ļ à¤ıà¤«
Ġà¥¬à¥® à¥¦
à¤¾à¤ĥ ,
Ðº Ð¾Ð²
ĠJ ob
Ġg reat
ĠV er
à¥¦à¥¬ à¥§
ãĤ ·
Ñĭ Ñħ
ist a
20 74
à¤Łà¤¦ à¤¹
âĢį -
Ġà¤Ńà¤ľà¤¨ à¤¸
Ġde v
Ġ6 5
à¤¤à¤¨à¤Ĺà¤° à¤¸
Ġà¤ıà¤ħ à¤°à¤¬
Ġbe fore
ĠPost à¤ķ
ĠPre m
áŀ Ħ
Ġen c
ER V
ĠÑĢ Ð°Ð±Ð¾ÑĤ
à¤Łà¤Ĩà¤īà¤Ł à¤¬
gr ound
AT E
AT H
we en
å¤ ļ
ĠWh ite
Ġout let
Ð°Ñģ Ñģ
du ce
Ġà¤¹à¤¤à¤ķ à¤£
ĠBo ard
ĠGu ide
Ð¾Ð»ÑĮ ÐºÐ¾
ĠØ§Ø ²
Ġprov ide
==== ====
ĠÐ¾Ð±Ð»Ð°ÑģÑĤ ÑĮ
Vi ew
ĠAustral ia
viron ment
A nd
N ET
R V
d r
g ium
l ist
p ackage
r ay
y t
× Ļ×
æ ŀ
é ¡
Ġ ãģ®
à¤¨ à¤ĸà¤°
à¤¨ à¤ĵà¤ķ
à¤¿ --
à¥ĭ !!
à¤¤ ÅĴà¤µ
à¤¸ à¤¸à¤¬
Ġà¤¸ à¤Īà¤ķ
Ġà¤¸ à¤²à¤ķà¤ª
Ġà¤ª à¤ľà¤¨
à¤¹ à¤µà¤¸
à¤¹ à¤ħà¤µà¤°
à¤¦ à¤ķà¤®à¤§
à¤Ĺ à¤¶à¤¤
à¤ı à¤ĺ
Ġà¤Ń à¤ļ
Ġà¤Ń à¤°à¤²
Ġà¤ħ à¤¦à¤°
Ġà¤¹ à¤¦à¤²
Ġà¤¹ à¤®à¤¦
Ġà¤¹ à¤łà¤²
à¤¬ à¤°à¤§
Ġà¤¤ à¤µà¤°à¤ķ
à¤¥ à¤Ĺà¤¤
à¤¶ à¤µà¤®
Ġà¤Ĩ à¤Ļà¤®
à¤Ĥ à¤ĥ
Ġà¤² à¤¸à¤ª
à¤Ī à¤ľà¤®
à¤ĸ à¤§
Ġà¤¸à¤® à¤¨à¤ª
à¤°à¤ķ à¤£
Ġà¤¶ à¤µà¤µ
Ġà¤ı à¤ıà¤Ĩà¤°
Ġà¤ħà¤¨ à¤°à¤¸
à¤ľà¤¨ à¤Ĺà¤°
à¤¨à¤® à¤®
Ġà¤ıà¤ķ à¤¹à¤¦à¤¸à¤®
Ġà¤ľà¤¨ à¤ľà¤¨à¤ķ
à¤¯à¤® à¤ľà¤¸
Ġà¤¸à¤ķ à¤°à¤ª
à¤¤à¤° à¤§
à¤¤à¤° à¤Ń
à¤°à¤¸ à¤«
Ġà¤ķà¤® à¤¦
à¤¾, '
Ġà¤²à¤Ĺ à¤¤à¤®
âĢĵ âĢĵ
à¤°à¤¹à¤° à¤ķ
Ġà¤ĩ à¤¦à¤®
à¤ħ à¤¨à¤ķ
à¤ħ à¤¢
à¤µà¤¨ à¤Ńà¤¨
à¤·à¤£ à¤¤à¤°
à¤°à¤µ à¤ľ
à¤Ĩ à¤ľà¤¦
Ġà¤ĵ à¤«
Ġà¤ĵ à¤¬à¤°
à¤īà¤Ł à¤®
à¤§à¤¨ à¤Ĺà¤°à¤ķ
Ġ? âĢĿ,
Ġà¤¢ à¤Ĺ
Ġà¤ħà¤® à¤°à¤¦
Ġà¥Ń à¥§à¥«
Ġà¥¯ à¥Ńà¥©
Ġà¤Ĩà¤ĩ à¤ıà¤¸à¤ª
Ġà¤Ĩà¤ĩ à¤ķà¤¨à¤®
à¤°à¤¨ à¤µ
à¤¬à¤² à¤°
Ġà¤¸à¤¡à¤ķ à¤µ
Ġà¥§à¥¯ à¥¨à¥¬
Ġà¤¨à¤Ń à¤ķ
à¤¦à¤² à¤Ń
à¤¤à¤¬ à¤ľ
Ġà¥«à¥¦ à¥¬
Ġà¥§à¥® à¥ªà¥¬
Ġà¤ķà¤¥ à¤ķ
Ġà¤Ĺà¤łà¤¨ à¤ħà¤ĺ
Ġà¤Ĭ à¤Ń
à¤Ĩà¤° à¤ıà¤®à¤¸
on om
an es
à¥¨à¥¦ à¥«à¥¦
Ġà¤¬à¤® à¤µà¤°
ar ly
à¤ıà¤² à¤Īà¤¡
Ġl and
Ġl os
ĠÐ §
Ġm ill
Ġm ass
st a
ĠS al
ĠS LC
ĠâĢĶ âĢĺ
ĠN GO
it iz
ĠP H
ĠC A
à¤īà¤ª à¤¸à¤ļ
ĠT er
ĠT erm
Ġà¥Ńà¥« à¥«
ĠM ot
Ġp ress
Ġc e
is ode
Ġd om
ĠH TML
Ġb ig
Ġà¤¹à¤® à¤°à¤ľ
Ġre d
Ġà¥ªà¥ª à¥ª
à¤ļà¤¨à¤² à¤Ĺ
Ġà¥«à¥© à¥¨
ĠG ork
ĠR ai
Ġà¥¬à¥© à¥©
em por
ig er
ĠW atch
im ate
Ġà¥¯à¥¯ à¥¬
ul a
ct ure
Ġà¤ħà¤µà¤¤à¤°à¤£ à¤®
Ġv ol
th m
Ġà¤®à¤Ĺ à¤§
Ġà¤²à¤¯ à¤¬à¤¦
Ġà¤¨à¤°à¤® à¤ªà¤¨
ess ion
à¦ ¼
if f
Ġ7 4
ĠÑģ Ð»
Ġà¤Ŀà¤® à¤ķà¤²
ec k
à¥¨à¥¦à¥¦ à¥§
ä¸ İ
201 1
Ġun a
Ġà¤°à¤£ à¤¦
ĠÙ Ħ
end ed
ĠÐ´ Ð°Ð½
Ġle ad
áŀ Ł
ung en
ĠÐ¿ÑĢ Ð¾Ð´
ÑĨ Ð¸Ð¸
Ġare a
Ġsp ir
anc y
ert y
ĠÐ± ÑĥÐ´
Ġdis e
Ġà¤ıà¤¨à¤ıà¤¸ à¤¡à¤¬
li ent
port ant
ĠÐ¾Ð± ÑĢ
Ġ........ ...
ĠÑį ÑĤÐ¾
Ð¸Ð» ÑĮ
bo ard
Ġà¤ķà¤Łà¤ķ à¤Ł
Ð°ÑĨ Ð¸Ñı
Ġà¤Ĺà¤Ĺ à¤¨à¤¸
ĠDar pan
åĮ ĸ
Ġpres ent
ĠPe ace
ĠAN D
Ġbet ween
! "
( (
) âĢĿ
3 00
C H
P H
f g
g ar
o z
ç º
à¤° à¤ıà¤¨
à¤¨ à¤§à¤°
à¤¨ à¤¶à¤®à¤¶
à¤ķ à¤ªà¤°
à¤² à¤ıà¤ķ
à¤² à¤Ĩà¤¯
à¤® à¤°à¤£à¤²
à¤® à¤£à¤¸
à¤® à¤²à¤²à¤Ĺ
à¤¯ à¤Łà¤°à¤ķ
à¤¯ à¤ħà¤µà¤§
à¥ģ à¥ģ,
à¤¸ à¤ħà¤ĺ
à¤ª à¤¦à¤²
à¤¦ à¤ªà¤¨
Ġà¤ķ à¤°à¤¸
Ġà¤ķ à¤ľà¤µ
Ġà¤ķ à¤°à¤²à¤Ĺ
Ġà¤Ĺ à¤Ĺà¤°
Ġà¤° à¤¸à¤°
à¥Ī (
Ġà¤¨ à¤Ĺà¤²
Ġà¤® à¤Łà¤°
Ġà¤® à¤Ĺà¤²à¤¬
Ġà¤µ à¤ľà¤¨à¤ķ
à¤¬ à¤ļà¤¨
à¤¬ à¤¶à¤ķ
à¤· à¤¸à¤¤
à¤§ à¤ªà¤¨
Ġà¤¤ à¤ľ
Ġà¤¤ à¤°à¤¹
Ġà¤¤ à¤µà¤²
Ġà¤¦ à¤°à¤¸à¤¨
à¤¶ à¤®à¤®
à¤Ĥ à¤¾
à¥Ĥ ),
à¤ĸ à¤¤à¤²
Ġà¤¯ à¤«
Ġà¤¸à¤® à¤¥
à¤°à¤® à¤¶à¤¸
à¤« à¤²à¤¬
à¥¤ à¥ģ
Ġà¤¥ à¤°à¤²
Ġà¤ĸ à¤Łà¤®
à¤¾à¤ģ (
à¤ł à¤Ńà¤¨
Ġà¤ĺ à¤ľ
Ġà¤ıà¤ķ à¤Łà¤ķà¤²
Ġà¤Ł à¤ªà¤²
Ġà¤Ł à¤ļà¤¸
à¤°à¤¹ à¤ħà¤¨
à¤¯à¤¸ à¤°à¤¹
à¤°à¤¸ à¤Ń
à¤°à¤¸ à¤°à¤¹
à¤°à¤¸ à¤µà¤ķ
Ġà¤®à¤¨ à¤ľ
Ġà¤ħà¤¸ à¤¦
à¤µà¤ķ à¤µà¤°
à¤¯à¤µà¤¸ à¤¯
Ġà¤īà¤¤ à¤ª
Ġà¥© à¥Ńà¥ª
à¤¸à¤² à¤¤
à¤¸à¤¨ à¤¤
Ġà¤Ĩà¤° à¤¨à¤²
à¤¤à¤® à¤µ
à¤ķà¤° à¤ļ
à¤¨à¤¸ à¤°à¤ķ
à¤®à¤® à¤®
Ġà¤Ĩà¤ľ à¤¸
à¤ĵ à¤¦
à¤ķà¤°à¤£ à¤ķà¤°
à¤Łà¤® à¤¸à¤ķ
Ġà¤ĩà¤¨ à¤¡
Ġà¤ĩà¤¨ à¤Ń
à¤ıà¤¨ à¤ĵà¤¸
à¤¹à¤¨ à¤¶
Ġà¤īà¤® à¤Ł
à¤¾à¥ĩ à¥ĩ
à¤¶à¤¤ à¤ľà¤¤
à¤°à¤¨ à¤°
à¤ªà¤² à¤§
Ġà¤¸à¤¡à¤ķ à¤¤
Ġà¤¬à¤ļ à¤¨à¤²
à¤¯à¤¯à¤¨ à¤¸à¤¹
Ġà¤ıà¤¨ à¤ıà¤ļ
Ġà¤ķà¤ª à¤¬
Ġà¥§à¥® à¥¬à¥§
Ġà¤¨à¤ķ à¤ļà¤°
à¤¸à¤¨à¤² à¤¸
ĠS ervices
à¤«à¤ķ à¤¦
à¤²à¤¦ à¤Ļ
Ġà¤ķà¤®à¤² à¤ľ
à¤Łà¤¨à¤Ĺà¤° à¤¦
it ening
ĠP ass
ĠC are
ĠT E
à¤ªà¤¨à¤ķ à¤°
Ġà¤¤à¤²à¤¬ à¤¸à¤®
Ġc ha
à¤·à¤Ń à¤¤
à¤¦à¤¶ à¤°à¤£
is ed
ĠB ill
ĠB uck
ĠB udd
Ġf acebook
Ġf ollow
Ñģ ÑĮ
à¥ĩ. ,
à¤ĸà¤¤ à¤Ń
il er
Ġà¥©à¥Ń à¥®
Ġà¥ªà¥® à¥¨
el o
Ġà¤®à¤ľ à¤Ń
Ġà¥ªà¥© à¥§
à¤ĩà¤« à¤²à¤ķ
Ġà¥«à¥¬ à¥ª
à¤¤à¤¸à¤® à¤ķ
Ġà¥ªà¥§ à¥®
Ġà¤¶à¤°à¤£ à¤°
Ġà¥ªà¥¯ à¥¬
ĠL og
ĠE nt
à¥į... )
ol a
Ġn icht
à¸ °
à¥§à¥ª à¥¦
Ġà¥Ńà¥© à¥«
ĠW ater
Ġà¤ķà¤²à¤® à¤ľ
iv ed
lo se
ãĤ ¢
Ġth ree
à¤µà¤Ĺ à¤£à¤ķ
um e
ĠThe re
à¤¾? '
ÑģÑĤ Ð°Ð½
à¥ģ... âĢĻ
Ġde f
Ġà¤°à¤¨à¤° à¤ħà¤ªà¤®
Ġ9 9
ĠÐ² ÑĢÐµÐ¼
Ã© e
Ġà¤¸à¤¨à¤® à¤²
201 2
ĠÐ¾ Ð¿
Ġpro cess
11 0
ĠÐ´ Ð¾
à¤ľà¤¡ à¤Łà¤ķà¤®
ell a
ell ow
ÑģÐº Ð¾Ð³Ð¾
Ġsp ace
ĠPro ject
Ġpl ace
åħ ¨
Ġup date
ild ing
ä½ ĵ
de fault
Ġà¤¸à¤¨à¤ķ à¤ķ
AC T
led ge
ek antipur
ph one
Sc ript
ĠBh att
Ã¸ à¤¯
ĠEngine ering
ĠCoun cil
ĠMinor ities
ĠEnepal ese
A K
C l
C OM
D O
E ng
H amro
g a
h z
i y
Ð £
æ ¥
æ ´
é ĥ
Ġ Ú¯
à¤¨ à¤¬à¤²
à¤¨ à¤¡à¤°
à¤ķ à¤ĩà¤¨
à¤ķ à¤¸à¤®à¤ķ
à¤® à¤«à¤²
à¤¯ à¤Ńà¤ķ
Ġà¤¸ à¤·
Ġà¤¸ à¤ªà¤®
Ġà¤¸ à¤°à¤¯
Ġà¤¸ à¤°à¤¹à¤¨
Ġà¤ª à¤¦à¤¨
à¤ª à¤¥à¤ķ
à¤¦ à¤§
à¤¦ à¤¯à¤¨
à¤µ à¤Ľà¤¨
Ġà¤ķ à¤¹à¤¨
Ġà¤Ĺ à¤µà¤°
Ġà¤Ĺ à¤Ĺà¤²
à¤Ĺ à¤µà¤¤à¤ķ
à¤Ĺ à¤¶à¤®à¤¶
à¤Ł à¤ļà¤¨à¤ķ
Ġà¤¨ à¤²à¤®
à¤ı à¤¹
Ġà¤¬ à¤«à¤°
Ġà¤® à¤¸à¤®
à¤ľ à¤²à¤¨
à¤¬ à¤ľà¤°
à¤§ à¤°à¤£à¤¸à¤Ń
Ġà¤¤ à¤¨à¤ķ
à¤Ĥ à¥ģ
à¤ļ à¤¡à¤²
à¤¡ à¤°à¤¤
à¤Ń à¤¯à¤¤
à¤ĸ à¤¤à¤¹à¤°
à¤ī à¤Ĺà¤°
à¤¹à¤° à¤¨
à¤ĩ à¤¯à¤ķ
à¤ĩ à¤ł
à¤« à¤ªà¤¨
à¥Į "
à¥Į à¥ĩ
Ġà¤¥ à¤Ł
Ġà¤ı à¤¡à¤ķ
à¤°à¤£ à¤ªà¤¨
ĠâĢ İ
ĠâĢ ķ
à¤¨à¤® à¤Ĺà¤°à¤ķ
Ġà¤ıà¤ķ à¤ªà¤Ł
Ġà¤§ à¤µ
Ġà¤§ à¤¨à¤¸à¤°
à¤ªà¤¨ à¤ħà¤¨
à¤Ŀ à¤ıà¤ķ
à¤¯à¤¤ à¤¸à¤¹
à¤ĩà¤¨ à¤µ
à¤ħ à¤¸à¤¹
à¤Łà¤ķ à¤ª
Ġà¤Ĩà¤¯ à¤¨
à¤Ĺà¤¤ à¤¤
à¤Ĺà¤¤ à¤µà¤°
à¤²à¤¯ à¤¨à¤ķ
à¤²à¤¨ à¤ħà¤ĺ
à¤°à¤¬ à¤ļà¤¨
à¤¸à¤¨ à¤¶
à¤¤à¤® à¤ľ
Ġà¤ĵ à¤¯à¤²
Ġà¤¸à¤¦ à¤¨à¤¦
Ġà¤¸à¤¦ à¤¨à¤¸à¤®
à¤°à¤®à¤® à¤§
à¤ĵ à¤¸à¤®
Ġà¤ķà¤² à¤°à¤²
Ġà¤Ķ à¤¶à¤¤
Ġà¤Ĩà¤īà¤¨ à¤²
à¤ľà¤® à¤¹à¤²à¤ķ
à¤ªà¤² à¤¤
Ġà¤Ĳ à¤¨à¤ª
à¤°à¤®à¤£ à¤ªà¤¶
à¤§à¤ķ à¤¬
Ġà¤ħà¤« à¤ķ
à¤®à¤¬ à¤²à¤ķ
Ġà¤ıà¤¨ à¤ıà¤ļà¤ª
Ġà¤Ī à¤«
à¤¸à¤¬ à¤¸
Ġà¥§à¥® à¥¦à¥§
à¤µà¤µ à¤¹
Ġà¥¦ à¥§à¥ª
Ġà¥¦ à¥¨à¥Ń
Ġà¤Ĩà¤Ī à¤ıà¤®à¤ıà¤¸
à¤¨à¤¯ à¤¶
Ġà¤Ĺà¤² à¤ª
at ural
à¤Ĩà¤Ī à¤ıà¤®à¤Ī
à¤¾à¥¤ "
Ġm emb
à¤°à¤Ĺ à¤£
Ġt ype
à¤¤à¤µà¤¨ à¤¦
Ġà¥©à¥« à¥Ń
ĠS ex
Ġà¤¢à¤ķ à¤¬à¤¹
Ð¾ Ðµ
ĠP vt
Ġà¥ªà¥« à¥¦à¥¦
ĠC ons
ou ble
à¥ĭâĢĻ -
à¥ĭâĢĻ à¥¤
Ġp oss
à¤²à¤ĸ à¤¬à¤°à¤²
Ġs on
Ġs ich
Ġà¤Ĺà¤ľ à¤µà¤ķ
Ġd am
Ġd ans
à¤¦à¤¯ à¤¶
ĠB ul
ĠB reak
Ġf act
Ġw inn
Ġw omen
ĠD D
Ġà¥©à¥® à¥¨
Ġà¥©à¥® à¥®
ĠH ar
ĠH and
à¤Ĩà¤ľ à¤ķà¤²
Ġb is
Ġb as
ew a
and o
Ġre ally
Ġà¥ªà¥ª à¥Ń
Ġà¥ªà¥ª à¥¯
Ġà¥«à¥¨ à¥§
Ġà¥ªà¥§ à¥¬
Ġà¥ªà¥§ à¥©
Ġà¤Ńà¤ıà¤¸ à¤Ĺ
à¥§à¥® à¥¦
ĠO ver
Ġà¥¬à¥® à¥®
us a
id ay
Ġà¥¯à¥¯ à¥©
Ñĥ ÐµÑĤ
à¥ªà¥« à¥¬
Ñĭ Ð½
Ġ5 8
Ġà¤¬à¤¬ à¤£
à¤¤à¤Ń à¤°à¤£
à¤Īà¤ĵ à¤®
Ġk n
Ġà¤ħà¤ľà¤¯ à¤¶
Ġà¤Ŀà¤¡à¤ª à¤ªà¤Ľ
à¥ĩÂ« à¥ĩ
à¨ ¹
à¨ Ĥ
ĠÑģ Ð°Ð¼
ĠÑģ Ð°ÑħÐ°ÑĢ
Ġ8 5
ĠY outh
à¤Īà¤ªà¤Łà¤ķ à¤¸à¤®
ĠÐ¾ ÑĢ
ĠCh inese
à¤¸à¤¡à¤ķ à¤¸
à¹ ĩ
ĠÃ §
07 6
Ġsp ec
br ie
anc es
à¤¨à¤ªà¤Łà¤ķ à¤¸à¤®
Ð¾ÑĤ ÑĢ
Ġà¨ ¹
Ð½Ð¸ Ð¼
Ġsh ould
ãģĻ ãĤĭ
Ġes c
Ð¾Ð¿ ÑĢ
Ġà¤°à¤¹à¤¨à¤¸à¤¹ à¤¨à¤®
Ġà¤īà¤§à¤® à¤¶
Ġbu y
ä¹ Ł
ĠÐµ Ð³Ð¾
cha in
Ġadd ress
ĠChrist mas
å¿ ĥ
Ġfam ily
ĠTest ament
adem y
ĠEnter tainment
oles ale
- '
/ )
6 3
C R
N ote
P G
[ [
c z
c ies
f ont
k ar
m es
m et
p re
v o
w ays
Ð Ľ
å ¦
æ ¬
é Ľ
Ġ 00
à¤¾ à¥°
à¥į à¥įà¥¤
à¤° à¤ħà¤ķ
à¤¨ à¤¹à¤¸
à¤ķ à¤¶à¤ķ
à¤ķ à¤¬à¤²
à¤² à¤ĺà¤¨
à¥Ģ à¥Ģ
à¤¸ à¤°à¤²à¤Ĺ
Ġà¤ª à¤«à¤°
à¤¹ à¤®à¤ķ
à¤¹ à¤®à¤¤
à¤ª à¤µà¤°
à¤¦ à¤°à¤£
à¤¦ à¤®à¤²
à¤µ à¤Łà¤°
à¤µ à¤¬à¤®
à¤Ĺ à¤Ī
Ġà¤° à¤£à¤ķ
Ġà¤° à¤£à¤®
à¤Ł à¤ı
à¤Ł à¤µà¤¨
à¤Ł à¤ªà¤²
Ġà¤® à¤ľà¤ķ
Ġà¤® à¤łà¤¹à¤°
Ġà¤Ń à¤ĩà¤ıà¤ķ
Ġà¤ħ à¤Ĺà¤¤
Ġà¤µ à¤Ĺà¤°
à¤· à¤¦à¤µ
Ġà¤¤ à¤¬à¤¦
à¤¥ à¤°à¤¹à¤°
à¤¥ à¤²à¤µ
à¤¥ à¤¸à¤¹à¤¯
Ġà¤² à¤Ńà¤®
Ġà¤² à¤°à¤¤à¤°
à¤ļ à¤ĺà¤°à¤ķ
à¤Ī à¤ķà¤°à¤£
à¤ĸ à¤¯à¤¤
à¤ĸ à¤¦à¤°
à¤ĸ à¤¡à¤²
à¤ī à¤¤à¤°
à¤ī à¤¤à¤¬
Ġà¤¸à¤® à¤ľ
Ġà¤¸à¤® à¤¥à¤²
Ġà¤ļ à¤®à¤°
à¥Į à¤¾,
Ġà¤ı à¤¡à¤¸
à¤¾à¤ģ ?
à¤ł à¤ªà¤Ľ
Ġà¤ªà¤° à¤µà¤°
à¤ľà¤¨ à¤¹
à¤ĺ à¤¯
Ġà¤§ à¤²
Ġà¤§ à¤ķà¤²
à¤ŀ à¤¸à¤Ń
à¤Ĺà¤° à¤¦
Ġà¤µà¤° à¤ªà¤°à¤¬
à¤Ŀ à¤¸
à¤°à¤¸ à¤¦
Ġà¤¬à¤¢ à¤ķ
Ġà¤ķà¤® à¤ª
à¤ķà¤² à¤ª
Ġà¤ĩ à¤¦à¤Ĺ
Ġà¤¸à¤¬ à¤®
à¤²à¤¨ à¤¨
à¤Łà¤¨ à¤¸à¤®
à¤·à¤£ à¤ªà¤¶
... '
à¤¸à¤¨ à¤ªà¤¦
à¤¸à¤¨ à¤ªà¤Ł
Ġà¤ħà¤¹ à¤ľ
à¤Ĩ à¤ľà¤¬
Ġà¤ĵ à¤®à¤¶
à¤ªà¤ķ à¤¬à¤¹
Ġà¤¸à¤¦ à¤¨à¤¸à¤®à¤ķ
à¤¨à¤¸ à¤Ł
à¤¿à¤Ĥ .
à¤ĵ à¤ĩ
Ġà¤ķà¤² à¤¹à¤®
Ġà¤ķà¤² à¤°à¤«
Ġà¤ĩà¤¨ à¤Łà¤°à¤¨
à¤¶à¤® à¤£
à¤¦à¤° à¤ļà¤¨
Ġà¥¯ à¥¨à¥«
à¤ıà¤¨ à¤Ń
à¤Łà¤² à¤Ĺà¤¤
à¥įâĢ ķ
Ġà¤¸à¤¤ à¤¹à¤²
à¤°à¤¨ à¤°à¤¸
à¤µà¤°à¤£ à¤²à¤Ĺ
à¤ªà¤² à¤ª
Ġà¤Ĳ à¤łà¤¨
à¤¨à¤µ à¤¯
à¤¨à¤µ à¤ª
à¤ľà¤Ĺ à¤¡
à¤¸à¤° à¤ļà¤¨
Ġ... âĢĻ
à¤®à¤¬ à¤¤
Ġà¤Ī à¤Ĺà¤²
à¤ĩà¤Ł à¤°à¤ķ
à¤ĩà¤Ł à¤²à¤ķ
Ġà¤Ńà¤ĩà¤¸à¤ķ à¤ķ
Ġà¥§à¥® à¥§à¥®
Ġà¤°à¤® à¤£à¤ķ
à¤¯à¤£ à¤¤
in y
à¤¿. (
Ġà¥§à¥Ń à¥®à¥¯
Ġà¤Ĺà¤® à¤¬à¤¹
Ġà¤Ĩà¤Ī à¤°
Ġà¤Ĩà¤Ī à¤¡à¤²à¤®
Ġà¤Ĳà¤¨ à¤¸à¤®
à¥ĩà¤ģ âĢĻ,
Ġà¤Ĩà¤ł à¤¸à¤®
Ġà¤¨à¤µ à¤ªà¤¤
Ġà¥¨à¥¯ à¥Ń
à¤¯à¤¯ à¤¨à¤®à¤¨
Ġà¤Ńà¤µà¤¨ à¤¸à¤¹
à¤Ķ à¤·à¤§à¤®
Ġà¤¸à¤¹à¤° à¤®à¤§
Ġà¤Ĩà¤ĩà¤ª à¤¡
Ġt its
à¤§à¤µ à¤¬
ĠS ociety
Ġà¤ıà¤² à¤Ĩà¤Īà¤¸
à¤¶à¤¨à¤² à¤®
ĠN S
ĠN am
ĠN AS
ĠN ame
Ġà¥Ńà¥¦ à¥©
à¤ĩà¤ķà¤² à¤¸à¤®
it ude
ĠP okhara
ĠC our
ĠC OM
Ġà¤¨à¤Ĩ à¤ĩà¤¦
à¤¶à¤µ à¤¬à¤¹
ĠM O
ĠM ax
ĠM usic
Ġs ay
Ġs ind
Ġs hare
Ġc all
Ġc ustom
Ġd iv
Ġf riend
Ġf unction
ĠD as
à¥§à¥¯ à¥¯à¥Ń
Ġà¤· à¤ķ
Ġb ook
Ġà¤Ńà¤ĩ à¤ıà¤¨
Ġà¥ªà¥® à¥«
Ġà¥«à¥¨ à¥¬
à¥§à¥¨ à¥«
Ġà¤¨à¤Ĺ à¤ĩà¤ķà¤¨
sp lit
Ġà¤®à¤¨à¤ķ à¤²
à¤ĸà¤¬ à¤°à¤¸
Ġà¥«à¥ª à¥¬
ĠE N
ĠE th
ĠO ur
Ġà¥¬à¥© à¥¨
Ð» Ð°
Ġin terest
Ġà¤¢à¤Ļ à¤Ĺà¤²
à¥Įà¥¤ '
à¤ıà¤ļ à¤ı
id a
ig e
ig inal
im s
à¤¾à¤ĥ âĢĵ
Ġh ot
ĠJ ust
Ġà¥®à¥¬ à¥¦
à¤ķà¤Ń à¤°à¤¬
à¤ıà¤¸à¤¨ à¤¬
ut ari
à¤¸à¤« à¤°à¤²
Ġà¤®à¤¹ÅĴ à¤µà¤²
Ġ4 6
Ġà¥¯à¥Ń à¥Ń
ist an
ÑģÑĤ Ð°Ð²
à¦ ķ
Ġ9 5
Ġ6 4
ÐµÐ½ Ð´
Ġ8 8
ä¸ »
Ġà¤ľà¤Ĺà¤® à¤Ĺ
Ġpost date
ĠY outube
ib r
amp le
Ø± ÙĪ
ind i
ĠÐ¿ÑĢ Ð¾Ð²
Ġà¤ķà¤¨à¤ķ à¤®
Ġ16 5
Ġch ange
à¤®à¤²à¤² à¤µ
Ġqu i
Ġà¤Ĩà¤Īà¤ķ à¤¨à¤ķ
Ġdis abled
let s
ĠÙħ ÙĪ
Ġà¤¦à¤¸à¤ķ à¤¦
Ġcomp any
æĺ İ
hy thm
ph p
å° ı
Ġvi ew
vent ion
do or
aur us
à¤¶à¤°à¤® à¤¹à¤²
ãģ£ ãģŁ
à¸µ à¹Ī
lass es
Ġintern ational
ÑĥÐ» ÑĮ
ĠCor por
arket ing
Ġà¤¸à¤ī à¤²à¤®
Ġà¤ļà¤¹à¤²à¤ªà¤¹ à¤²à¤²
ĠFeder ation
Le ave
Ġcur rent
cap tion
pad ding
è¨ĺ äºĭ
A V
A g
F E
F X
L GCDP
O G
P ath
R es
\ "
b en
b ol
i el
i od
p m
s l
s ur
z en
Ï ħ
Ñ Ĺ
Ú º
è Ī
é ¢
à¤¨ à¤ıà¤®à¤¡
à¤² à¤²à¤®
à¤² à¤¶à¤¨
à¤® à¤Ĩà¤²
à¤¯ à¤ħà¤µà¤¸
Ġà¤¸ à¤Łà¤ķ
Ġà¤¸ à¤µà¤ķ
Ġà¤¸ à¤¤à¤¨
Ġà¤¸ à¤µà¤¤
Ġà¤ª à¤«
Ġà¤ª à¤¡à¤°
à¤ª à¤ĸà¤²
à¤ª à¤ķà¤®à¤§
Ġà¤ķ à¤£à¤°
à¤Ĺ à¤¸à¤ķ
Ġà¤¨ à¤¹à¤¨
Ġà¤¨ à¤īà¤ķ
à¤ı à¤ļà¤¬
Ġà¤µ à¤¯à¤ķ
Ġà¤µ à¤²à¤¤
à¤¬ à¤¤à¤¤
à¤§ à¤°à¤¹
à¤§ à¤ªà¤¶
à¤ģ à¥ĩ,
Ġà¤ľ à¤¹à¤°à¤¸
à¤Ĥ à¥ĩ
à¤ļ à¤¡à¤®
à¤Ī à¤ł
à¤Ī à¤ĺà¤£
à¤Ń à¤Ĺà¤¤
à¤Ń à¤ħà¤¨
à¤ĸ à¤²à¤¨à¤®
à¤ī à¤Ļ
à¤°à¤ķ à¤°à¤£à¤¹à¤°
Ġà¤Ńà¤¨ à¤Ńà¤¨
à¥Į '
Ġà¤¥ à¤ªà¤®
à¤Ļ à¤«à¤¸
Ġà¤« à¤¹
à¤°à¤£ à¤ªà¤Ľ
à¤ľà¤¨ à¤®à¤§
Ġà¤ıà¤ķ à¤Ń
Ġà¤§ à¤°à¤§à¤°
Ġà¤Ł à¤ķà¤²
Ġà¤Ł à¤ªà¤Ł
Ġà¤Ł à¤ķà¤Łà¤ķ
Ġà¤¸à¤¹ à¤¨à¤²
Ġà¤īà¤ª à¤Ĩà¤¯
à¥Įà¤Ĥ &
Ġà¤ħà¤° à¤Ĺà¤°
Ġà¤ķà¤® à¤£
Ġà¤ĩ à¤®à¤²
à¤ħ à¤²à¤®
à¥ģà¤ģ âĢĿ
à¤®à¤ķ à¤¬
à¤µà¤° à¤ļ
à¤µà¤° à¤¨à¤°à¤¸
à¤Łà¤¨ à¤µ
à¤¸à¤¨ à¤ľ
Ġà¥« à¥Ńà¥¨
Ġà¤Ŀ à¤²à¤ķà¤®
Ġà¤Ĩà¤° à¤ıà¤¸à¤¡
à¤·à¤ķ à¤¶
à¤Ĩ à¤ªà¤°
à¤Ĩ à¤°à¤µ
à¤Ĩ à¤¸à¤¨
à¤¯à¤² à¤µ
Ġà¥ª à¥Ńà¥¬
Ġà¤ªà¤ķ à¤¨
Ġà¤ľà¤¸ à¤Ń
à¤«à¤² à¤Ĺ
à¤§à¤¨ à¤¯
Ġà¥Ń à¥Ńà¥ª
Ġà¤ķà¤² à¤ª
à¤Ĺà¤® à¤°
à¤Ĺà¤® à¤¦
Ġà¥® à¥§à¥«
Ġà¥® à¥¨à¥«
à¤ħà¤¨ à¤°
Ġà¤¬à¤² à¤¸
Ġà¤ħà¤¤ à¤ıà¤µ
à¤µà¤¤ à¤¹
Ġà¤¨à¤® à¤ĸ
à¤Łà¤² à¤¦
à¤Łà¤² à¤Ńà¤¨
à¤ľà¤® à¤ľ
à¤°à¤¨ à¤ª
à¤¦à¤ķ à¤¦
à¤¦à¤ķ à¤¸à¤®
à¤¤à¤°à¤£ à¤¸à¤¹
Ġà¤Ĳ à¤°à¤ķ
à¤¨à¤µ à¤¸à¤®
Ġà¤¸à¤¡à¤ķ à¤ľà¤¸
à¤°à¤®à¤£ à¤Ńà¤¤
Ġà¤īà¤ł à¤Ľ
Ġà¥§à¥¯ à¥§à¥¬
Ġà¥§à¥¯ à¥©à¥§
Ġà¥§à¥¯ à¥¦à¥¯
Ġà¤¦à¤¶ à¤ľà¤¨
Ġà¤ħà¤« à¤¯
à¤ļà¤® à¤¹
Ġà¤ıà¤¨ à¤ıà¤®à¤ı
Ġà¤ĺà¤Ł à¤¯
Ġà¤Ī à¤ıà¤®à¤ı
à¤īà¤¦ à¤¯
Ġà¥§à¥® à¥®à¥¦
re g
Ġà¤Ńà¤Ī à¤ķà¤¨
Ġà¤Ĭ à¤ļ
à¤ªà¤£ à¤¸à¤®
à¤¡à¤° à¤«
à¥¨à¥¦ à¥©à¥¦
à¤Ĺà¤¨ à¤°à¤ª
Ġà¥ªà¥¦ à¥©
Ġà¤ľà¤² à¤ļà¤°à¤ķ
at is
Ġl ive
Ġà¤¸à¤¹à¤° à¤Ńà¤°
ĠÐ ĸ
Ġm ar
Ġt u
ĠS i
à¤Ĭ à¤¹à¤°
Ġ1 10
ĠN ow
it u
ĠC R
ĠC as
ĠC am
ĠC all
à¤īà¤ª à¤µ
Ġà¥Ńà¥« à¥¨
ĠA ud
Ġp en
Ġ20 71
ha g
ĠÂ Ń
à¤ĩà¤¬ à¤°à¤¬
Ġà¤ħà¤¸à¤® à¤¯à¤®
à¤¦à¤¯ à¤ļà¤¨
Ġà¥¬à¥« à¥¬
Ġà¥«à¥§ à¥«
Ġà¥©à¥® à¥Ń
ĠH i
à¤ªà¤¨à¤® à¤§
Ġb o
Ġb ecause
ew el
ag en
ãģ ¤
Ġo d
et te
Ġà¥©à¥¯ à¥«
Ġà¥«à¥¬ à¥®
à¤¡à¤µ à¤¯à¤°
à¤ĸà¤¬ à¤°à¤¬
ĠL ive
ĠL ord
Ġà¤Ľà¤ł à¤ľà¤¸
Ġà¥Ńà¥¨ à¥«
à¤īà¤ľ à¤°à¤¹à¤°
Ġà¥¬à¥ª à¥¬
ĠG old
ol ar
Ġà¥¬à¥® à¥«
Ġà¥Ńà¥¬ à¥¨
Ġà¤ľà¤¯ à¤²à¤ķ
à¤Īà¤°à¤¹ à¤¦
Ġà¥¯à¥¯ à¥¦
Ġà¥®à¥ª à¥®
Ġà¤ķà¤²à¤® à¤®
ul es
Ðº Ðµ
Ġe ffect
ut ure
lo ss
ap s
ap t
Ñı Ð²
Ġà¤ĵà¤Ńà¤° à¤«
Ġ5 1
ip l
ist ic
Ġk o
Ġk al
à¥¨à¥¬ à¥¦
ãĢ Ĳ
ãĢ ĳ
à¤¸à¤Ĺ à¤ŀ
à¥Įà¤ĤâĢĻ âĢĵ
Ġis s
Ġà¤ıà¤ħ à¤°à¤µ
Ġà¤ĺà¤Łà¤ķ à¤¬
à¥įà¤ģ à¤¿
Ġà¤ıà¤¯à¤°à¤¬ à¤¸à¤²
Ð¸ÑĤ Ðµ
Ġsp ecial
à´ ¯
ĠSh ort
Ġpl us
Ġà¤ıà¤¸à¤ĩ à¤Īà¤ķ
Ġà¨ ¸
à¤¨à¤Ĺà¤¢ à¤®
Ð°Ðº ÑĤ
sc ape
Ġdo es
ä½ ľ
\\ \\
à¤Ńà¤²à¤ªà¤° à¤¹à¤°
ars ha
Ġsub mit
Ã¨ re
ĠØ§Ø ³
fin ed
åŃ Ĳ
æī ĭ
çī ©
ĠMag azine
Ġcook ies
atal og
ourn al
ĠMAR K
Ġãģ® è¨ĺäºĭ
empor ary
+ )
9 1
F S
I K
L S
N Y
O r
P M
] ,
e h
o es
p ur
r is
t em
u le
Ã «
Ð ĵ
æ Ľ
Ġ í
Ġ end
Ġ Ø§ÛĮ
Ġ Ûģ
à¥į à¤¿à¤¾
à¤° à¤Ĩà¤¬
à¤¨ à¤°à¤µ
à¤¿ âĢį
à¤® à¤°à¤µ
à¤® à¤ħà¤¶
à¤¤ à¤Ĩà¤¤
à¤¯ à¤°à¤¶
à¤¯ à¤Ĺà¤®à¤¨
à¤¸ à¤ľà¤°
Ġà¤ª à¤²à¤¸
à¤¹ à¤¬à¤¨
à¤¹ à¤µà¤²
à¤Ĺ à¤ĺ
à¤Ĺ à¤¨à¤°
Ġà¤° à¤®à¤²
Ġà¤° à¤¨à¤ª
à¥Ī ....
Ġà¤¨ à¤°à¤µ
Ġà¤® à¤«à¤²
à¤¬ à¤Łà¤°à¤«
Ġà¤¤ à¤¯à¤¸
Ġà¤¤ à¤µà¤°à¤µ
à¤¶ à¤ĺ
à¤ļ à¤ħà¤²
à¤Ń à¤¬à¤ķ
Ġà¤ī à¤®à¤¨
à¤ī à¤¤à¤¹à¤°
âĢ Ĳ
à¤°à¤® à¤®à¤ķ
à¤°à¤® à¤ľà¤¸
Ġà¤ĸ à¤µà¤°à¤¹à¤°
Ġà¤ı à¤ªà¤¸
à¤ł à¤ķà¤ª
à¤ł à¤¯à¤ª
Ġà¤ħà¤¨ à¤Ĺà¤¨
Ġà¤« à¤¤à¤ķ
à¤°à¤£ à¤Ń
à¤°à¤£ à¤¯à¤ķ
à¤ªà¤° à¤¨
ĠâĢ ŀ
Ġà¤ľà¤¨ à¤ıà¤ķà¤¤
à¥Įà¤Ĥ Ã·
Ġà¤²à¤Ĺ à¤²à¤Ĺ
à¤ķà¤² à¤ľ
à¤ķà¤² à¤¬à¤¹
à¤µà¤° à¤µà¤²
à¤²à¤¯ à¤¨à¤²
à¤¸à¤² à¤¦
Ġà¤Ĩà¤° à¤ıà¤ķ
à¤¨à¤¨ à¤¸
à¤¨à¤¨ à¤¦
à¤ľà¤ķ à¤¸à¤¹
Ġà¥¬ à¥§à¥¬
Ġà¥Ń à¥§à¥¬
à¤¸à¤¦ à¤¸à¤¹
à¤ķà¤¤ à¤¬
Ġà¥§à¥¦ à¥®à¥¦
âĢĿ (
à¤¯à¤µ à¤µà¤¸
Ġà¤¥à¤ª à¤¥
à¤°à¤ª à¤¥à¤¬
à¤°à¤®à¤£ à¤¦
à¤°à¤®à¤£ à¤²à¤Ĺà¤¤
Ġà¤Ĩà¤ķ à¤¡
à¤ıà¤¸ à¤µ
à¤ıà¤¸ à¤¡à¤¬
Ġà¤¸à¤ľ à¤°
à¤®à¤§ à¤°
à¤ĩà¤Ł à¤°à¤®
Ġà¤°à¤® à¤¨à¤²
Ġà¤ĭ à¤·à¤Ń
Ġà¥¦ à¥Ńà¥Ń
in ter
Ġà¤Ĭ à¤¨à¤ķ
à¤Ĩà¤° à¤ıà¤¸à¤Ĩà¤Ī
Ġà¤Ĩà¤Ī à¤¹
Ġà¤Ĩà¤Ī à¤ıà¤¸à¤¬
Ġà¤¤à¤² à¤µà¤ķ
Ġà¥¨à¥¨ à¥¦à¥¦
Ġà¥¨à¥¨ à¥§à¥¯
à¥ĩà¤ģ à¥¤'
à¥¨à¥¦ à¥¨à¥¨
Ġà¥ªà¥¦ à¥¨
Ġà¤¨à¤µ à¤ħà¤Ń
Ġà¤®à¤¦ à¤¨à¤¨
at ory
Ġà¤¸à¤« à¤Ł
à¤Ĩà¤Ī à¤Ĩà¤°
Ġl ocal
Ġà¤¸à¤¹à¤° à¤µ
à¤¾... !
à¤¾... à¥¤
Ġm ag
Ġm em
Ġà¥©à¥§ à¥¬
Ġt ext
ĠS H
ĠS et
ĠS uper
Ġà¤¸à¤°à¤¸ à¤°à¤¤
or al
ĠN CS
ore s
Ġà¥®à¥¦ à¥Ń
it en
à¤Ĺà¤ľ à¤°à¤¹
ĠP eople
à¤µà¤ķà¤ª à¤¸à¤®
Ðµ Ñī
Ġà¥©à¥© à¥¬
Ġà¤¤à¤²à¤¬ à¤¸
ĠM art
Ð¸ ÑģÐº
Ġa ff
Ġs w
Ġs ung
Ġs uc
Ġà¤ªà¤¸à¤² à¤¤
Ð½ Ð¾Ð²
Ġà¤ħà¤¸à¤® à¤¨
Ġà¤ħà¤¸à¤® à¤®
Ġà¤ıà¤« à¤ıà¤¨à¤¸
Ġà¤°à¤Ĺà¤¤ à¤¦
Ġà¤°à¤Ĺà¤¤ à¤ªà¤ļ
Ġw ays
Ġà¤¡à¤² à¤°à¤¦
Ġà¥©à¥ª à¥¨
à¤¾à¤¾ à¤¿
ĠH amro
à¥§à¥¯ à¥¦
Ġb ank
Ġà¥ªà¥® à¥Ń
à¤¬à¤¤ à¤¤à¤°
à¥§à¥§ à¥®
Ġà¥«à¥¨ à¥©
ro ll
Ġà¥©à¥¯ à¥¬
Ġà¥«à¥¬ à¥¨
sp ort
Ġà¥«à¥© à¥§
ĠE X
Ġà¤ħà¤¨à¤¶à¤¨ à¤¬
Ġà¤ĵà¤® à¤¨à¤²
à¤¹à¤£ à¤ªà¤Ľ
ĠR a
Ġà¥¬à¥© à¥«
Ð» ÐµÐ½Ð¸Ñı
ch an
à¸ ķ
à¸ ģà¸
Ġà¥Ńà¥ª à¥«
Ġà¥¬à¥¬ à¥®
à¤ķà¤¶ à¤ªà¤®
Ġà¤ľà¤¯ à¤Ĺà¤¢
à¤Ķà¤·à¤§ à¤¸à¤®
Ġà¥Ńà¥® à¥¦
iv id
ul i
Ġe B
à¤Ĩà¤ĩ à¤ıà¤«
à¤ķà¤Ń à¤°à¤®
à¤¸à¤« à¤°à¤¬
Ġà¥¦à¥ª à¥ª
ÑģÑĤ ÑĢ
âĢį à¥Ī
Ġk ey
Ġà¤ħà¤ľà¤¯ à¤¬
Ġà¥Ĳ à¤ķ
à¥¦à¥ª à¥¬
Ġ8 00
à¤Ĳ à¤°
à¤Ĳ à¤ķ
à¤Ĳ à¤¨à¤®
ĠÐ¾ Ð´
ĠCh it
ĠÙ ĩ
Ð¾ÑĢ ÑĤ
ell ing
Ġ200 4
Ġcon c
à´ ¾
Ġex act
Ġà¤¨à¤ħ à¤¡
ert ific
ĠSp orts
ÙĦ ÛĮ
Ġà¤¬à¤¨à¤ķ à¤Ł
ĠComp uter
ä½ ¿
Ø³ Ùħ
ĠWh at
Ġet c
EC IAL
ĠSur vey
air s
Ġdel ivery
ĠSE E
âĢ¢ âĢ¢
gen cy
ÐµÐ¿ Ð°ÑĢÐ°ÑĤ
ĠSo ftware
ĠSec urity
Ġà¤Ĩà¤Īà¤ĵ à¤ıà¤®à¤ķ
è§ £
Ġ________________ ________________
ĠTra vel
hot mail
ĠFe atured
amer ica
ĠÐ°Ð² ÑĤÐ¾Ð¼
jp g
itte e
clus ive
scrib e
Ġà¤ķà¤¥à¤ķ à¤³
4 00
6 2
9 001
< <
E X
K T
M I
M L
M T
O UR
T L
c ast
d uc
e ver
f eed
g oogle
g ress
k er
k en
p art
r ac
z z
Ã ¦
Å Ħ
Î ¯
ç Ŀ
è ¾
é ĺ
ì ŀ
Ġ ang
à¤° à¤Ĺà¤²
à¤¨ à¤°à¤¦
à¤¨ à¤¹à¤¨
à¤¨ à¤°à¤¨
à¤¨ à¤¯à¤ª
à¤ķ à¤¸à¤¬
à¤® à¤ľà¤¤
à¤® à¤ħà¤ª
à¥Ģ ï¿½
à¤¸ à¤¯à¤¯
Ġà¤¸ à¤²à¤µ
à¤¹ à¤£à¤µ
à¤ª à¤¸à¤¦
à¤¦ à¤®à¤®
à¤µ à¤ĩ
à¤µ à¤¦à¤°
Ġà¤ķ à¤¢
Ġà¤ķ à¤ļà¤¨
à¤Ĺ à¤¦à¤²
à¤Ĺ à¤«à¤®
à¥Ī :-
à¤Ł à¤ħà¤ªà¤²
Ġà¤¨ à¤Ļà¤ķ
Ġà¤¨ à¤Łà¤µ
Ġà¤¬ à¤Ĺà¤°à¤²
à¤ľ à¤¯à¤¤
à¤ľ à¤īà¤¡
Ġà¤ħ à¤µà¤¨
à¤· à¤·
Ġà¤¤ à¤°à¤£
à¤¥ à¤°à¤¬
à¤¥ à¤¨à¤ª
à¤ģ à¥ģ,
à¤¶ à¤¯à¤ª
Ġà¤Ĩ à¤¸à¤°
Ġà¤ľ à¤ľà¤²
à¤Ĥ à¥ĭ
Ġà¤² à¤Ńà¤²
à¤ļ à¤¤à¤¨
à¤ļ à¤¬à¤²
à¤ļ à¤°à¤ª
à¤ļ à¤ķà¤®à¤§
à¤Ī à¤ıà¤®à¤ı
à¤Ī à¤ħà¤¡
à¤¡ à¤Ĩà¤°
à¤¡ à¤¯à¤¨à¤ķ
à¤£ à¤µà¤²
à¤Ń à¤ıà¤ľà¤¸
à¤ĸ à¤¡à¤ķ
à¤ĸ à¤¨à¤¸
Ġà¤¸à¤® à¤µà¤¨
à¤°à¤ķ à¤¸à¤®
âĢ °
à¤ĩ à¤Ļà¤®
à¤ĩ à¤ĵà¤¸
Ġà¤¶ à¤¬à¤²
à¤ł à¤ªà¤¨
Ġà¤ªà¤° à¤µà¤²
à¥¦ à¥§à¥¯
à¤ªà¤° à¤«
Ġà¤ľà¤¨ à¤¬à¤²
à¤¯à¤® à¤ļ
à¤¯à¤® à¤ªà¤ŀ
à¤¯à¤¸ à¤Ĺ
à¤¯à¤¸ à¤°à¤ķ
à¤¯à¤¸ à¤¨à¤¬
à¤ķà¤² à¤¶
à¤ĩà¤¨ à¤Ľ
à¤ĩà¤¨ à¤ħà¤ª
à¤ħ à¤ªà¤¨
Ġà¤Ĩà¤¯ à¤²à¤ķ
à¤¯à¤µà¤¸ à¤¥
à¤Ĺà¤¤ à¤ª
Ġà¤Ĺà¤¤ à¤¦
à¤·à¤£ à¤ķà¤²
Ġà¤Ĩà¤° à¤ı
à¥ĭ, ,
à¤Ĩ à¤°à¤§
à¥¬ à¥§à¥¦
à¤ķà¤ķ à¤¨
à¤ķà¤ķ à¤µ
Ġà¤¸à¤° à¤°à¤°
Ġà¤Ĩà¤µ à¤°à¤£à¤²
Ġà¤ļà¤² à¤¤
Ġà¤ĵ à¤Ī
Ġà¤ĵ à¤¹à¤°à¤¦
à¤¦à¤¨ à¤¯
Ġà¤ľà¤¸ à¤¬à¤¹
à¤¨à¤¸ à¤¸
à¥® à¥ªà¥®
Ġà¤¢ à¤²à¤²
à¤ĵ à¤Ľ
à¤ĵ à¤ķà¤°
Ġà¤ĸà¤° à¤°
Ġà¤ªà¤¦ à¤®à¤§
à¤¦à¤° à¤Ńà¤¨
Ġà¥¯ à¥§à¥«
à¤°à¤¨ à¤Ĺà¤°à¤¤à¤°
à¤¤à¤°à¤£ à¤¯
Ġ, âĢľ
Ġà¤īà¤ł à¤¯
Ġà¤°à¤ķà¤® à¤µ
Ġà¥§à¥¯ à¥§à¥«
Ġà¥§à¥¯ à¥¦à¥¨
Ġà¤¸à¤µ à¤¨à¤®
Ġà¤ľà¤® à¤²à¤ķ
Ġà¤ħà¤¦ à¤²
Ġà¤§à¤¨ à¤ľà¤¨
à¤¨à¤¬ à¤ħà¤§
Ġà¤Ĩà¤ķ à¤¶
à¤¦à¤² à¤ª
à¤ıà¤¸ à¤ıà¤®à¤ıà¤¸
Ġà¥§à¥® à¥¨à¥¦
Ġà¥§à¥® à¥©à¥¦
Ġà¥¦ à¥§à¥¦
Ġà¤µà¤¨ à¤¦
Ġà¤ķà¤ķ à¤¸à¤²
Ġà¤Ĩà¤ļ à¤®à¤¨
Ġà¤²à¤¡ à¤¦
al it
à¤Ĺà¤¨ à¤¸à¤®
Ġà¤¸à¤ª à¤¨à¤ķ
Ġà¤ľà¤² à¤¥à¤²
Ġà¤ľà¤² à¤ļà¤°à¤¹à¤°
Ġ" "
Ġà¤ĭà¤£ à¤ª
Ġà¤ĭà¤£ à¤¸à¤®
Ġm ade
st on
à¤µà¤Ń à¤Ļ
Ġà¥©à¥« à¥¯
à¤Łà¤ª à¤¶
ĠS und
Ġà¤ıà¤² à¤ı
Ġà¤®à¤Ĺà¤° à¤ľ
Ð¾ ÑģÐº
ore d
Ġà¥Ńà¥¦ à¥¨
ĠP RO
Ġà¥ªà¥« à¥¨
à¤µà¤ķà¤ª à¤ħà¤¨
à¤µà¤ķà¤ª à¤ħà¤ĺ
Ġà¥©à¥© à¥§à¥¦
Ġp at
à¤Łà¤µà¤² à¤¦
Ġs ing
Ġs earch
ĠB ab
Ġà¤ıà¤¨à¤Ĩà¤°à¤ıà¤¨ à¤ıà¤®
à¤¨à¤Ń à¤ı
à¤Ĺà¤£ à¤¬
ÑĢ Ñĭ
à¥ĩ. )
Ġà¥©à¥® à¥ª
Ġb etter
Ġb reak
Ġà¤®à¤¦à¤¨ à¤°
and e
et work
Ġà¥ªà¥ª à¥©
Ġà¥©à¥¯ à¥ª
Ġà¥«à¥® à¥¨
Ġà¥ªà¥¬ à¥¨
Ġà¥ªà¥¬ à¥ª
Ġà¥«à¥© à¥®
ĠL ou
Ġà¤Ľà¤ł à¤ĺ
Ġà¥Ńà¥¨ à¥¬
ĠG TA
ĠG urk
ĠR hythm
Ġà¥¬à¥© à¥Ń
Ð» Ð¾Ð²
em a
Ġà¥¯à¥« à¥¬
Ġà¥Ńà¥¬ à¥¬
id o
Ġà¥Ńà¥© à¥¨
Ġà¥Ńà¥© à¥¬
à¥įâĢĻ -
ĠW ay
Ñĥ Ñħ
Ñĥ Ð¶
Ġà¥®à¥© à¥«
Ġe lect
ĠJ apan
Ġà¤ľà¤¨à¤¸à¤Ļ à¤ĸ
Ġà¥®à¥¬ à¥§
à¥įà¥į à¤¾
ak i
Ġà¥¯à¥ª à¥¯
ĠIn t
nd a
ter y
Ġâ ľ
ĠÐ¿ Ð¾Ð¼
à¥¨à¥¨ à¥¨
à¤¾? âĢĿ
à¤®à¤ĸ à¤®à¤²
Ġk Ã¶
ik oo
ãĥ ķ
à¤Īà¤Ń à¤°à¤²
Ġà¤®à¤¹Ã¬ à¤µà¤²
à¤¨à¤¨à¤Ĺà¤° à¤¸
à¨ ¤
Ġà¤¬à¤¹à¤° à¤ķ
à¥Įà¤ĤâĢĻ -
Ġst e
Ġst yle
à¤¹à¤ľà¤¨à¤ķ à¤°
Ġà¤¤à¤²à¤µ à¤Ńà¤¤
à¤Īà¤ªà¤Łà¤ķ à¤ķ
iz ing
à¥ĭâĢĶ âĢĺ
à¤ĩà¤ĵ à¤Ńà¤°
âĢĭ ,
à¹ Į
à¥įâĢĿ âĢĵ
Ġle vel
ach ment
Ð¾Ð¼ Ñĥ
Ġan al
ĠAr ch
Ð»Ð¸ Ñĩ
à¥¯à¥¯ à¥¯
ĠÑĤ ÐµÑħ
Ġi OS
à¤Ĺà¤« à¤²à¤®
Ġ25 0
pl ate
Ġpr int
Ġ< /
aw al
åı ĳ
åĲ Ī
áĥĲáĥ ľ
áĥĲáĥ ł
ĠðŁ ĻĤ
ÐµÑģ Ñģ
ÑĢÑĥ Ð³
à¤ĺà¤¢ à¤¸à¤°
ĠChe ats
ìĿ ´
Ġpol it
ĠAdd ress
å¯ ¹
ĠDocu ment
Ġà¤¨à¤ĵ à¤ĩà¤²
ĠRat opati
ðŁĴ ¿
allen ge
ĠJava Script
Ġà¤²à¤¸à¤ª à¤¸
Ġsung lasses
. (
6 1
> <
A W
B T
E O
G H
G u
M ay
N ext
P P
Q u
a Ã§
b i
f ic
j u
n ew
o ch
r ish
u he
w eb
Ø ¶
à ¯
å £
å §
å ķ
Ġ Ø§ÙĨ
ķ ×
à¤¾ Â«
à¤¾ ........
à¤¨ à¤ıà¤¨à¤µ
à¤ķ à¤£à¤ķ
à¥ĩ à¥Ģ
à¤¯ à¤ıà¤¸
à¥ģ à¥ĭ
à¥ģ .....
à¥ģ ?âĢĻ
à¥ģ âĢ°
à¤¸ à¤¯à¤ªà¤¤
Ġà¤¸ à¤Ĺà¤łà¤¨
à¤¹ à¤«
à¤¹ à¤ªà¤¨
à¤ª à¤Ŀ
à¤ª à¤µà¤¤
à¤µ à¤®à¤²
Ġà¤° à¤ªà¤®
à¥Ī âĢĮà¤Ĥ
à¤ı à¤Łà¤²
Ġà¤Ń à¤µà¤¸
Ġà¤Ń à¤Ĺà¤¤à¤ķ
à¤ľ à¤µà¤ķ
Ġà¤ħ à¤¯à¤¨
Ġà¤ħ à¤ľà¤¸
Ġà¤Ĺà¤° à¤¬
à¤¬ à¤ĺ
à¤¬ à¤ªà¤ķ
à¤¬ à¤Ĺà¤¡
à¤· à¤ľà¤¨
à¤· à¤°à¤¯
à¤· à¤µà¤®à¤¨
à¤§ à¤¡à¤ķ
Ġà¤Ľ à¤ªà¤¨
Ġà¤¤ à¤°à¤®
Ġà¤¤ à¤µà¤°
à¤¥ à¤µà¤°
Ġà¤Ĩ à¤ĩà¤¨à¤¨
Ġà¤ľ à¤¬à¤¦
à¤ļ à¤®à¤¨
à¤ļ à¤²à¤¨à¤®
à¤£ à¤Ńà¤¦
à¤Ń à¤Ńà¤¨
Ġà¤ī à¤¤à¤ķ
à¤°à¤ķ à¤®à¤²
à¤ĩ à¤µà¤°à¤ķ
Ġà¤¶ à¤°à¤£à¤²
Ġà¤ı à¤īà¤¤
à¤īà¤¨ à¤ļ
à¤ł à¤ľà¤¨
à¤°à¤¤ à¤¹
Ġà¤ħà¤¨ à¤¤à¤°
Ġà¤« à¤¤à¤µ
à¤ªà¤° à¤Ł
à¤ªà¤° à¤ļ
Ġà¤°à¤¹ à¤¶
à¤¨à¤² à¤Ļ
Ġà¤ľà¤¨ à¤§à¤¨
à¤²à¤ķ à¤®à¤²
Ġà¤Ł à¤¸à¤ķ
Ġà¤ķà¤® à¤ªà¤¨
à¤ķà¤® à¤¯
à¤ħ à¤¸à¤¤
à¥ģà¤ģ ),
à¤¤à¤ķ à¤µ
à¤¯à¤¨ à¤°
à¤¸à¤² à¤¸
à¤°à¤µ à¤¶à¤®à¤¶
Ġà¤Ĩà¤° à¤ıà¤¨
à¤Łà¤° à¤ħà¤¨
à¤Łà¤° à¤ľà¤¤
à¤¤à¤¨ à¤ªà¤¶
à¤®à¤¨ à¤ľ
à¥Įà¤ģ ),
à¥Įà¤ģ ',
à¤¨à¤¨ à¤¨
Ġà¥¬ à¥Ńà¥©
Ġà¥¬ à¥§à¥«
Ġà¤ķà¤¸ à¤¬
à¤ĸà¤° à¤Ńà¤°
Ġà¥Ń à¥Ńà¥¬
Ġà¤ĺà¤° à¤Ŀà¤Ĺà¤¡
Ġà¤ªà¤¦ à¤Ńà¤¨
à¤ľà¤¸ à¤¸
Ġà¥® à¥Ńà¥«
à¤ıà¤¨ à¤Ĩà¤Īà¤¸
à¤¹à¤¨ à¤¤à¤¬
Ġà¤ıà¤® à¤°
à¤ķà¤ª à¤°à¤®
Ġà¤Ńà¤° à¤¨
Ġà¤¹à¤¤ à¤ª
Ġà¤¬à¤ļ à¤¤à¤¬
Ġà¤ıà¤¨ à¤Ĺ
Ġà¤ıà¤¨ à¤Ĩà¤ĩà¤¡
Ġà¥¨à¥« à¥¬à¥¦
à¤ıà¤® à¤Ń
à¤Ĺà¤¦ à¤¹
à¤ªà¤¦ à¤¯
Ġà¥§à¥® à¥¬à¥©
Ġà¥§à¥® à¥¬à¥¬
re r
à¤ĺà¤Łà¤¨ à¤¸
à¤ļà¤² à¤Ńà¤°
à¤ķà¤Ł à¤¤à¤°
Ġà¤¸à¤² à¤ı
Ġà¥¦ à¥§à¥¯
Ġà¥¦ à¥§à¥©
Ġà¥¦ à¥¨à¥§
Ġà¥¦ à¥©à¥§
Ġà¤Ĩà¤Ī à¤¤
Ġà¤Ĩà¤Ī à¤Ń
on a
à¤®à¤¹ à¤²à¤ķ
à¥¨à¥¦ à¥«
al ing
Ã· âĢĵ
Ġà¤ľà¤² à¤§
à¤®à¤£ à¤¦
Ġl ess
ĠÐ ¤
st ha
Ġà¤ªà¤¦à¤® à¤ľ
à¤¤à¤µà¤¨ à¤¤à¤°
à¤§à¤µ à¤¬à¤¹
ĠS QL
Ġà¤ıà¤² à¤ıà¤ķ
à¤¥à¤µ à¤°à¤¸
Ġà¤¦à¤¶à¤ķ à¤ħà¤Ĺ
Ġà¤ĺà¤°à¤ķ à¤°
Ġà¤ĺà¤¨ à¤¬à¤¹
à¤¤à¤¸ à¤¤
Ġà¤®à¤Ļ à¤Ĺà¤²à¤¬
à¤ıà¤« à¤Ĩà¤°à¤®
à¤¤à¤¹ à¤¤à¤²
ĠA ff
ĠM ark
Ġa us
Ġs end
Ġs uper
is ing
is ch
Ġd ist
Ġà¤¨à¤¸ à¤¡
Ġà¤ıà¤« à¤®
à¤¦à¤¯ à¤Ń
ĠB er
ĠB ib
Ġà¤°à¤Ĺà¤¤ à¤¸
Ġà¤µà¤¹ à¤¸à¤®
Ġà¤°à¤Ļ à¤¸
Ġw er
ent ial
Ġb oth
Ġb ased
am ily
el lo
Ġà¥«à¥¨ à¥®
Ġà¥©à¥¯ à¥©
à¤ĩà¤¨à¤® à¤§
Ġà¤ħà¤°à¤¬ à¤²à¤Ĺ
Ġà¤ļà¤°à¤® à¤ļ
Ġà¥ªà¥¯ à¥ª
Ġà¥«à¥ª à¥«
Ġà¤Ńà¤Īà¤°à¤¹ à¤¦
ĠE V
ĠR ay
Ġà¤¦à¤¹ à¤ĸ
Ġin f
Ġà¥«à¥¯ à¥¨
Ġn ame
Ġà¥Ńà¥ª à¥Ń
Ġà¥¬à¥¬ à¥¨
ĠK ings
Ġà¥Ńà¥© à¥®
ĠW rit
Ġà¥¯à¥¯ à¥®
Ġà¥®à¥® à¥§
Ġh ung
iv acy
Ġà¤¡à¤ķ à¤µà¤°
Ġà¥¬à¥¯ à¥¦
Ġe en
à¤Ĩà¤ĩ à¤°à¤¨
Ġà¤Ĩà¤¸à¤¨ à¤¹à¤°
Ġg ame
ap h
ov ers
Ġ4 1
Ġà¤µà¤¨à¤ķ à¤Ł
Ġà¥¦à¥ª à¥§
Ġà¤īà¤¦à¤¯ à¤¶à¤®à¤¶
à¥Īà¥Ī à¥Ī
Ġà¤ıà¤ķà¤° à¤ıà¤ķ
Ð² ÐµÑĢ
are n
à¨ ¸
Ġ6 6
à¥¦à¥Ń à¥Ń
all eng
Ġpro ject
Ġà¤ªà¤¹à¤²à¤ķ à¤°
Ġcom ments
Ġ11 5
?? ?
áŀ Ģ
ĠAr ab
à´ °
à´ ķ
Ġhe t
à¤¸à¤Ĺà¤¢ à¤®
Ð¾Ð½ ÑĤ
Ã¤ n
Ð°Ð» Ð°
ond e
uk t
Ä± ÅŁ
AT A
ĠÑĥ Ñĩ
ĠÐ· Ð°Ðº
IC K
ĠLe g
ĠÙħ ÙĨ
Ġall ow
ĠDec isions
Ð¸ÑĢ Ð¾Ð²Ð°Ð½
ĠCl ass
ham ma
Ð¾ÑģÑĤ Ð¸
Ð¾ÑģÑĤ Ð°Ð²
áĥĲáĥ ¡
Ġà¤¤à¤®à¤¸ à¤ª
EC T
han i
Ġà¤Ĩà¤Īà¤ıà¤® à¤Īà¤²
Ġà¤Ĩà¤Īà¤ıà¤® à¤Īà¤ķ
áĥĶáĥ ĳ
ĠÚ© ÛĮ
áº ¿
Ġà¤ıà¤¸à¤ıà¤¸ à¤µ
Ġà¥¯à¥®à¥« à¥§à¥¨
Ġà¤°à¤®à¤Ŀ à¤®à¤²
à¤ĸà¤¬à¤°à¤ķ à¤°
istr ib
lin es
ĠUp date
iter ature
æī Ģ
Ġav ailable
******** ********
ĠMo on
Ġintern et
ĠJav ascript
ĠSand es
ĠCop yright
ĠMB BS
æ³ ķ
Ġke ep
ograp hy
ĠPa ul
æµ ·
Ġà¤²à¤ĸà¤° à¤ł
iaf america
çŁ ¥
. -
6 9
B I
D I
F M
M ar
h ome
i ante
m à¤ª
m ost
o is
p os
s a
s ide
v ille
Ä ĥ
å ĸ
å Ł
ç Ĥ
Ġ ç
Ġ ich
à¤¾ à¥Į
à¤° à¤¥à¤°
à¤¨ à¤¯à¤µ
à¤¨ à¤Īà¤®
à¤² à¤ļà¤²
à¤® à¤Ĺà¤²
à¤® à¤ļà¤ķ
à¤® à¤µà¤¦
à¤¤ à¤¬à¤¨
à¤¤ à¤ªà¤ķ
à¤¤ à¤¦à¤¨
à¤¯ à¤µà¤®
à¥Ģ à¥°
à¤¸ à¤ľà¤ķ
à¤¸ à¤Ĺà¤¨
Ġà¤¸ à¤ªà¤¤
Ġà¤¸ à¤µà¤¨
Ġà¤ª à¤Ĺà¤²
à¤ª à¤ªà¤ķ
à¤ª à¤Ĺà¤¨
à¤µ à¤µà¤²
Ġà¤ķ à¤¨à¤¸
Ġà¤ķ à¤°à¤ķà¤°
Ġà¤Ĺ à¤¡à¤µ
Ġà¤Ĺ à¤ıà¤²à¤Ĺà¤¤
à¤Ĺ à¤¯à¤¤
Ġà¤° à¤®à¤ķ
Ġà¥¤ --
à¥Ī à¤¾à¤ģ
à¤Ł à¤ıà¤ķ
à¤ı à¤ıà¤¨à¤Ĩà¤Ī
Ġà¤Ń à¤²à¤ª
Ġà¤Ń à¤ľà¤¨à¤²
à¤ľ à¤®à¤¤
Ġà¤¹ à¤·
Ġà¤¹ à¤¥à¤ķ
Ġà¤µ à¤ª
à¤· à¤ĸ
à¤§ à¤¤à¤®
à¤§ à¤®à¤²
Ġà¤Ľ l
à¤¥ à¤°à¤¹
Ġà¤² à¤ľà¤²
à¤Ī à¤®à¤£
à¤Ī à¤ıà¤ªà¤¨
à¤¡ à¤Ļ
à¤¡ à¤¨à¤¸à¤®
à¤Ľ à¤°à¤²
à¤Ľ à¤¡à¤ķ
à¥Ĥ à¥¤âĢĻ
à¤Ń m
à¤ĸ à¤¡à¤®
Ġà¤¸à¤® à¤°à¤²
à¤°à¤® à¤Ĺà¤°
Ġà¤ļ à¤ķà¤®à¤ķ
à¤« à¤¹
Ġà¤¶ à¤¤à¤°
à¤¯à¤ķ à¤®à¤®
Ġà¤ı à¤¬à¤°
Ġà¤ı à¤ĵà¤¸
à¤Ļ à¤Łà¤¨à¤ķ
Ġà¤« à¤µ
à¤ľà¤¨ à¤ľà¤¸
à¤ªà¤° à¤ĸ
ĠâĢ ª
Ġà¤§ à¤¡à¤ķà¤¨
à¤¯à¤® à¤¸à¤¹
Ġà¤¡ à¤·
Ġà¤¡ à¤®à¤¬à¤¹
à¤Ŀ à¤ĩ
à¤¯à¤¤ à¤µà¤¸
Ġà¤®à¤¨ à¤¤à¤µ
à¤ªà¤® à¤¯
Ġà¤ł à¤Ĺà¤²
à¤ħ à¤µà¤¶
Ġà¤¸à¤¬ à¤¬
à¤µà¤° à¤Ĺ
à¤µà¤¨ à¤ļ
à¤µà¤¨ à¤¬à¤¸
à¤²à¤¯ à¤ªà¤Ľ
... !
Ġà¤Ŀ à¤²à¤ķà¤°
à¥Īà¤Ĥ -
Ġà¤Ĩà¤µ à¤Ńà¤¨
Ġà¤ĵ à¤Ńà¤¨
à¤īà¤Ł à¤²
Ġà¥¬ à¥Ńà¥¨
Ġà¤ľà¤¸ à¤¤
à¤¯à¤° à¤Ńà¤¨
Ġà¤Ńà¤¯ à¤ªà¤¨
à¤ĥ ...
à¤ľà¤¸ à¤Ń
à¤¦à¤° à¤¬à¤¨
Ġà¤ıà¤® à¤ıà¤²à¤ķ
à¤¯à¤µ à¤¥
à¤¶à¤¤ à¤¸
Ġà¤¦à¤² à¤¦à¤²à¤¬
Ġà¤ıà¤¸ à¤ı
à¤ıà¤¸ à¤Ĩà¤ĩà¤Ł
à¤łà¤ķ à¤µà¤°
à¤²à¤¸ à¤¬
à¤¤à¤ª à¤¶
à¤¨à¤Ĺà¤° à¤¦
à¤¨à¤ª à¤¢
Ġ: (
Ġà¤ķà¤ª à¤ħà¤¨
Ġà¤Ńà¤Ł à¤Łà¤°
à¤ĩà¤Ł à¤°à¤²
à¤īà¤¦ à¤¥
Ġà¤ĸà¤¡ à¤Ĺà¤¬à¤¹
à¤°à¤ļà¤¨ à¤ľ
Ġà¤Ĺà¤łà¤¨ à¤¦
Ġà¥§à¥Ń à¥Ńà¥¯
Ġà¥¤âĢĿ âĢĵ
à¥ĩà¤Ĥ à¥¤âĢĿ
Ġà¤Ĩà¤Ī à¤ıà¤¸à¤ķ
Ġà¤Ĩà¤Ī à¤ıà¤¸à¤²
Ġà¤ķà¤¨ à¤«
à¤®à¤Ĺ à¤¢à¤µ
Ġà¤Ĩà¤ļ à¤°à¤£à¤¬
à¥¨à¥¦ à¥¨
à¥¨à¥¦ à¥ªà¥¨
Ġà¥ªà¥¦ à¥®
Ġà¤¨à¤µ à¤Ķà¤ªà¤¨
à¤Ĺà¤®à¤¨ à¤¤
à¤ıà¤² à¤ıà¤ķ
en cy
à¤ĩà¤¡ à¤ĩà¤«
à¤¤à¤°à¤® à¤¨à¤ķ
Ġt ake
Ġ/ &
ĠS om
ĠS pr
Ġà¤Ĩà¤ı à¤ªà¤¶
ĠP op
ĠP ort
Ġà¥ªà¥« à¥«
ĠC OR
à¤īà¤ª à¤¸à¤®
Ð° Ñĩ
ĠM iss
Ġp u
Ġs ongs
Ġà¤Ĺà¤ľ à¤°à¤ķ
Ġc am
Ġc amp
à¥§à¥¦ à¥®
Ġd Ã©
Ġd ocument
ion e
à¤īà¤¡ à¤°à¤ķ
ĠI d
Ġà¥¬à¥« à¥®
Ġà¤ªà¤Ł à¤²à¤®
Ġà¤¸à¤Ł à¤¡
Ġà¥©à¥® à¥©
ĠH ay
à¥§à¥¯ à¥¯à¥¦
âĢĮ âĢį
Ġb i
Ġb ed
Ġb irth
Ġà¤¬à¤¯ à¤²à¤ķ
Ġà¥ªà¥© à¥Ń
Ġà¥«à¥¬ à¥¯
Ġà¤§à¤ķ à¤§
Ġà¥ªà¥¯ à¥®
Ġà¥«à¥© à¥«
Ġà¥«à¥© à¥¯
Ġà¥«à¥ª à¥ª
ĠL ab
ĠL ess
ĠL uc
à¥ĭ- âĢĺ
Ġà¤Ĩà¤īà¤Ł à¤«
Ġà¥«à¥Ń à¥§
Ġà¥«à¥¯ à¥¦
Ġn ov
ĠW al
Ġà¤ħà¤¬à¤¸ à¤°à¤¹à¤°
Ġà¥®à¥® à¥ª
Ñĥ Ð²
iv il
à¤ļà¤¤ à¤¹à¤ķ
à¥ĩ? ?
à¤¹à¤¨à¤¤ à¤ªà¤Ľ
à¤ľà¤Ĺà¤¢ à¤¬
Ġg l
Ġà¤®à¤Ŀ à¤§
Ġà¤Ĺà¤¢ à¤¬à¤¢
........ .....
oc c
à¨ ¨
Ġ6 7
à¥¦à¥« à¥¬
ĠÑģ Ð¼
Ġst ory
Ġà¤¦à¤²à¤® à¤°
ĠÐ¸ Ð¼
Ġà¤ıà¤«à¤ıà¤® à¤¹à¤°
à¤Ĳ à¤²
à¤¾" ,
ĠÙ Ĥ
ĠPost à¤®
ver bs
Ġwith in
Ġïģ ±
Ġà¤¸à¤µà¤² à¤¤
Ñİ ÑĤ
ÑģÐº Ð¾Ð¹
AN G
Ġà¤§à¤µà¤² à¤¶à¤®à¤¶
Ñį Ð»
æľ Ģ
Ġà¤ħà¤Łà¤² à¤µ
Ġà¤§à¤°à¤ªà¤ķ à¤¡à¤ķ
16 5
Ġus ing
Ġáĥ ĵ
Ð¾Ñģ Ð¾Ð±
ĠComp any
IC E
Ð¾Ð± ÑĢ
ĠÐĴ Ñĭ
åĨ ħ
Ġ........ ..
ĠInd ian
ĠCl ash
ĠCent re
ĠCent ral
Ġà¤¸à¤¨à¤ķ à¤®
Ġà¤ħà¤¨à¤µ à¤°à¤¤à¤°
Ġem p
ĠComm ittee
ĠAm iante
ïĢ Ģ
ĠRes earch
Ġsk ills
à¤ıà¤¸à¤ĩ à¤ĩ
ĠÏ Ħ
ĠAut hor
çĽ ¸
Pro verbs
æĶ ¾
ÐµÐ¶ Ð´
ĠHol m
ĠSP ECIAL
Ġstud ents
Ġtechn ology
ĠEp isode
Ġbrow ser
ĠïģŃ ïĢł
ĠMARK ET
ertific ate
- ")
B P
C I
D r
F i
F or
L L
L ist
P DF
Y ou
b ul
c r
d oc
d ated
f riend
g es
j an
m on
o in
o ir
r ing
s m
u an
v in
v ideo
w al
Ã ®
è £
è ²
à¤¾ _
à¤¨ à¤Ĩ
à¤ķ à¤¦à¤²
à¤ķ Tags
à¤¿ âĢĿ,
à¤² à¤ªà¤²
à¤® à¤®à¤ķ
à¤® à¤ħà¤ĺ
à¤¤ à¤¯à¤ķ
à¤¤ à¤µà¤¸
à¤¯ à¤Ĩà¤°
à¤¸ à¤Ľ
à¤¸ à¤°à¤¶
à¤¸ à¤Łà¤ª
Ġà¤¸ à¤Łà¤ª
Ġà¤ª à¤Łà¤µ
à¤ª à¤¡à¤ķ
à¤ª à¤Łà¤¬
à¤µ à¤¶à¤²
à¤µ à¤ļà¤¨à¤ķ
à¤Ĺ à¤Ĺà¤¨
à¤Ĺ à¤²à¤²à¤Ĺ
Ġà¥¤ <
Ġà¤¨ à¤°à¤µà¤¹
à¤ı à¤ī
à¤ı à¤°à¤¹
à¤ı à¤Łà¤°à¤¬
Ġà¤¬ à¤Ľà¤²
Ġà¤® à¤¦à¤²à¤¸
à¤ľ à¤µà¤¸
Ġà¤ħ à¤²à¤¬à¤°
à¤· à¤¤à¤ķ
Ġà¤¤ Ãł
à¤¶ à¤°à¤¤
Ġà¤Ĩ à¤°à¤£à¤²
à¤Ĥ âĢĮ
Ġà¤² à¤®à¤¸
Ġà¤² à¤Ńà¤ķ
à¤¡ à¤¨à¤¤
à¤¡ à¤ħà¤ª
à¤£ à¤¦à¤¤
à¤Ń à¤Ļ
à¤Ń à¤°à¤¹
à¤ĸ à¤µà¤ª
à¤ĩ à¤īà¤¡
à¤ĩ à¤²à¤²à¤Ĺ
Ġà¤Ńà¤¨ à¤°
à¤« à¤ħà¤²
Ġà¤ĸ à¤¸à¤µ
à¤¯à¤ķ à¤¨
Ġà¤ı à¤ıà¤¨à¤ª
Ġà¤ı à¤Ĩà¤ĩà¤ı
à¤īà¤¨ à¤Ńà¤¯
à¤¾à¤ģ à¥ĩ
Ġà¤ħà¤¨ à¤µà¤°
ĠâĢ º
à¤µà¤¸ à¤¯
Ġà¤ıà¤ķ à¤Ł
Ġà¤¬à¤¨ à¤ľà¤Ļ
Ġà¤§ à¤ļ
Ġà¤Ł à¤¸à¤²
Ġà¤¸à¤ķ à¤ķ
Ġà¤¸à¤¹ à¤ķà¤®
Ġà¤µà¤° à¤µà¤°
Ġà¤®à¤¨ à¤¸à¤®
Ġà¤ł à¤¸
Ġà¤ĩ à¤Łà¤¨
à¥ģà¤ģ )
Ġà¤¸à¤¬ à¤Ł
Ġà¤ħà¤¸ à¤°à¤ª
à¤µà¤° à¤¥
à¥« à¥¦à¥¦à¥¦
Ġà¤¬à¤¸ à¤¯
à¤Ĺà¤¤ à¤¸à¤¹
Ġ( (
à¤²à¤¬ à¤Ĺ
à¤·à¤ķ à¤¨
à¤Ĩ à¤¯à¤²
à¤Ĩ à¤ĩà¤Łà¤®
à¤°à¤§ à¤®
à¤®à¤¨ à¤¬à¤¹
Ġà¤¸à¤¨ à¤¬
Ġà¤ªà¤¤ à¤²
Ġà¤ªà¤ķ à¤Ł
Ġà¥¬ à¥§à¥®
à¤¶à¤¨ à¤Ĺ
à¤Ĺà¤ķ à¤¨
Ġà¤Ĩà¤§ à¤°
Ġ? ,âĢĿ
Ġà¤¹à¤° à¤¸à¤®à¤¯
Ġà¤ĺà¤° à¤ĺ
Ġà¤ķà¤¤ à¤µ
Ġà¤ªà¤¦ à¤ķà¤²
Ġà¤¨à¤Ĺà¤°à¤ª à¤ŀ
Ġà¥¯ à¥¦à¥¦à¥¦
Ġà¤ıà¤® à¤ıà¤ķ
à¤µà¤ľà¤¨ à¤®
à¤ľà¤® à¤¯
à¤°à¤®à¤£ à¤Ńà¤¨
Ġà¥§à¥§ à¥©à¥¦
à¤¹à¤® à¤ªà¤Ł
Ġà¤¦à¤¶ à¤®à¤²
à¤¯à¤¯à¤¨ à¤¦
Ġà¤Ī à¤ĸ
Ġà¤Ńà¤µ à¤¬à¤¹
Ġà¥§à¥® à¥Ńà¥¬
Ġà¥§à¥® à¥ªà¥¦
Ġà¥§à¥® à¥¯à¥©
re qu
Ġà¤ķà¤¥ à¤¨à¤®
Ġà¤ķà¤¥ à¤¨à¤¹à¤°
à¤ķà¤Ł à¤ªà¤®
à¤ľà¤° à¤¸à¤®
Ġà¥¦ à¥§à¥®
in cip
Ġà¤µà¤¨ à¤°à¤ķ
à¤Ĩà¤° à¤Ĩà¤ĩ
à¥ĩà¤Ĥ âĢĿ,
à¤ķà¤²à¤¨ à¤¸à¤®
à¥¨à¥¦ à¥©à¥«
al u
à¤Ĺà¤¨ à¤¯à¤¨
Ġà¤¶à¤¹à¤° à¤Ńà¤¨
à¤Ķ à¤²
Ġà¤ªà¤² à¤Ł
ar ai
Ġà¤ľà¤¨à¤ķ à¤®
à¤Ĩà¤Ī à¤ıà¤«
Ġl ast
à¤¾à¥¤ à¥¤
Ġm usic
à¤¯à¤¸à¤¬ à¤ĸà¤¤à¤ķ
à¤ļà¤¯ à¤ªà¤¨
Ġt alk
à¤§à¤µ à¤ľ
ĠS um
ĠS ang
ĠS ne
ĠS earch
Ġà¤Ĩà¤ı à¤¯à¤¤
Ġà¤ıà¤² à¤Ĩà¤ĩà¤¸
Ġà¥®à¥¦ à¥ª
ĠP al
ĠP it
ĠP rom
ĠP ress
ĠC ur
ĠC ash
ĠC ount
Re t
ĠM ad
Ð¸ Ð±
Ð¸ Ð¾Ð½
Ġs ervices
ÑĤ ÑĮ
Ġc a
Ġc y
Ġc are
Ġà¥©à¥¬ à¥§
ĠI V
ĠB illy
Ġf ac
Ġà¥¬à¥« à¥§
à¤ĩà¤Ń à¤¤
ĠD av
ĠD istrict
Ġà¤¸à¤°à¤² à¤°
ĠH is
ĠH ill
à¥ĭà¤Ĥ à¥¤
Ġà¤· à¤Ł
Ġà¤· à¤§
Ġb er
Ġb ar
Ġb ox
ag ering
Ġà¤¬à¤Ł à¤¨à¤ķ
et ition
Ġà¥©à¥¯ à¥Ń
Ġà¥ªà¥¯ à¥©
Ġà¥®à¥« à¥©
ĠL A
Ġà¤Ľà¤ł à¤ª
ĠE conomic
Ġà¤¹à¤Ļà¤ķà¤Ļ à¤¦
ĠG a
ĠG i
à¤¹à¤£ à¤¬
ĠR ob
Ġà¥«à¥Ń à¥Ń
à¤¾' '
Ġà¥¬à¥¬ à¥ª
ĠK e
Ġà¥¬à¥® à¥ª
Ġà¤¨à¤Ľ à¤°
à¥§à¥ª à¥®
Ġà¥Ńà¥© à¥§
à¤Łà¤°à¤¬ à¤ķ
im m
im ent
Ġh om
Ġà¤Ĩà¤¬ à¤§
Ġto get
Ġà¥¬à¥¯ à¥Ń
Ġe le
áĥ ¡
Ġà¥®à¥¬ à¥«
à¤¯à¤¨à¤² à¤Ĺ
ut t
ak o
ak t
ak ers
Ġà¥¯à¥¬ à¥ª
ĠIn vest
ĠIn stitute
Ġg ive
ap y
Ġà¤®à¤Ŀ à¤Ĺ
ãĤ Ī
Ġà¥®à¥¯ à¥§
Ġ5 3
Ġth ose
à¥į- âĢĻ
ĠÐ¿ Ð¾ÑģÐ»
Ġk B
Ġk om
Ġk ollywood
Ġ19 50
Ġ9 85
à¥į? âĢĿ
ff ic
Ġst andard
ĠØ £
à¤¦à¤¹ à¤¡à¤¤
Ð´ ÐµÐ»
up t
ain ing
ast ers
end ra
Ġà¤īà¤ªà¤¶ à¤Ļ
Ġà¤Ŀà¤¡ à¤ªà¤¹à¤°
ĠÐ¿ÑĢ ÐµÐ¿Ð°ÑĢÐ°ÑĤ
à¤¾! âĢĿ
ĠÑĤ Ð¾Ð»ÑĮÐºÐ¾
Ġhe ad
Ġal ign
ÑĪ Ðµ
Ð¾Ð½ Ð³
à¤ıà¤¸à¤ı à¤Ĩà¤ĩà¤¡
à¤ıà¤¸à¤ı à¤Ĩà¤Īà¤¡
ðŁ ĳ
ĠZ e
OR Y
ĠSp ace
Ġà¤ıà¤Ļ à¤ķà¤°
erm an
sc ious
à§ ģ
Ã³ w
Ġme et
Ġà¤§à¤¨à¤µ à¤¹
ĠØ§ÙĦ Ùħ
ĠØ§ÙĦ Ø¹
à¸²à¸ £
ÐµÑģ Ð¿
áĥĶáĥ Ĺ
Com p
å° ±
uf act
Ġbr ing
ĠAss ist
à¤¸à¤ı à¤ªà¤²
ĠÐ¸Ð½ ÑĤÐµÑĢ
å· ¥
(" -")
å¼ ı
Ġà¤½ à¤¸
Ġà¤¤ÅĴ à¤µà¤²
Ð¾Ð²Ñĭ Ðµ
ĠSm art
Th is
ĠSer ver
vol ution
à¤Ĩà¤Īà¤ıà¤® à¤ıà¤«
ãģĤ ãĤĭ
doctor S
ĠBB Q
Ġtoget her
("-") [
" ]
- &
G ood
H D
J A
M IS
O B
T ER
U C
f ord
f ric
g ing
l ie
m ar
m other
n one
r adi
Ð ĳ
Ð Ķ
ç ³
ç ģ
è ½
é §
à¤¾ [
à¥į Â¥
à¤¨ à¤Ļ
à¤¨ à¤¯à¤¸à¤®
à¤ķ à¤¸à¤¸
à¤² à¤¦à¤°
à¤² à¤¥à¤²
à¤² à¤Łà¤¹à¤°
à¤² à¤Ļà¤Ĺ
à¤® à¤¹à¤¨
à¤® à¤ªà¤¦
à¤¤ à¤¸à¤¨
à¤¯ à¤¢
à¤¯ à¤ħà¤®
à¥Ģ |
Ġà¤¸ à¤Łà¤®
à¤¹ à¤¦à¤ķ
à¤ª à¤Ĩà¤¯
à¤µ à¤µà¤ª
Ġà¤ķ à¤ķà¤¸
Ġà¤° à¤·
Ġà¤° à¤®à¤¦
Ġà¥¤ .....
Ġà¤¨ à¤²à¤ķà¤Ł
à¤ı à¤Łà¤ķ
à¤ı à¤ıà¤¨à¤ı
Ġà¤¬ à¤®à¤¨
Ġà¤® à¤ĸà¤®
à¤ľ à¤°à¤¸à¤¹
Ġà¤¹ à¤²à¤¸
Ġà¤µ à¤Ļ
Ġà¤µ à¤¸à¤ķ
à¤¬ à¤·
à¤· à¤°à¤¹
à¤· à¤®à¤¨
à¤§ à¤¯à¤®
à¤§ à¤µà¤¦
Ġà¤¤ à¤µà¤®
Ġà¤¦ à¤Ń
à¤¥ à¤¨à¤¸à¤¹
à¤¶ à¤¸à¤²
à¤¶ à¤ªà¤¶
Ġà¤Ĩ à¤°à¤£
Ġà¤ľ à¤ªà¤¨
à¤Ĥ '
à¤Ĥ à¤¿
Ġà¤² à¤¤à¤¬
à¤ļ à¤Ĺà¤¤
à¤Ī à¤Łà¤¸
à¤Ī à¤ħà¤ķ
à¤¡ à¤°à¤¸à¤¹
à¤¡ à¤¨à¤¸à¤¹
à¤£ à¤£
à¤Ń à¤Ĺà¤¤à¤®
Ġà¤ī à¤¡à¤²
Ġà¤ī à¤°à¤¨
à¤ĸ à¤²à¤²
à¤ĸ à¤®à¤¨
Ġà¤¯ à¤¶à¤¸
à¤°à¤ķ à¤¶
à¤ĩ à¤ħ
à¤ĩ à¤īà¤ķ
à¤« à¤Ļ
Ġà¤ı à¤Łà¤ķ
Ġà¤ı à¤Ĩà¤°à¤Ń
à¤¾à¤ģ .
à¤Ļ à¤Ĺà¤ķ
Ġà¤« à¤ĸà¤°
à¤ĺ à¤¸à¤¹
Ġà¤°à¤¹ à¤²à¤ª
à¤¨à¤² à¤¨
Ġà¤ĺ à¤°à¤²à¤Ĺ
Ġà¤¯à¤¸ à¤Ĩà¤§
à¤°à¤¹ à¤Ńà¤¨
à¤Ĺà¤° à¤ĸ
à¤Ŀ à¤¡
à¥Įà¤Ĥ ),
Ġà¤®à¤¨ à¤¸à¤°
Ġà¤ķà¤® à¤²à¤®
à¤ªà¤® à¤ķ
Ġà¤ĩ à¤µà¤¨
à¤¤à¤ķ à¤Ń
Ġà¤¸à¤¬ à¤¡
à¤µà¤° à¤Ńà¤¨
à¤µà¤° à¤¬à¤²
Ġà¤īà¤¤ à¤®
à¤µà¤¨ à¤¤à¤°
à¤µà¤¨ à¤Ĺà¤°à¤®
à¤Ĺà¤¤ à¤ľà¤¸
à¤²à¤¨ à¤¸à¤¹
à¥įà¥¤ à¥¤
à¤°à¤¬ à¤¶
à¤¸à¤¨ à¤¨
Ġà¤¨à¤Ĺà¤° à¤īà¤ªà¤ª
Ġà¤Ŀ à¤Łà¤ķ
Ġà¤Ĩà¤° à¤¨à¤®
à¤·à¤ķ à¤µ
à¤Ĩ à¤ªà¤¤
à¤°à¤§ à¤¨à¤®à¤¨
Ġà¤¸à¤¨ à¤¦
à¤¯à¤² à¤Ł
Ġà¥ª à¥Ńà¥©
Ġà¤ĵ à¤·à¤§
à¤ªà¤ķ à¤µ
à¤°à¤¶ à¤°
à¤®à¤² à¤ĸà¤¨
à¤ĵ à¤Ĩà¤ĩà¤ª
à¤ĸà¤° à¤ĸ
à¤Ĺà¤® à¤Ń
à¤ķà¤¤ à¤¤
Ġà¥¯ à¥Ńà¥«
à¤ħà¤¨ à¤¶à¤¨
à¤ıà¤¨ à¤ıà¤®à¤ı
à¤¾à¥ĩ )
à¤£à¤ķ à¤Ł
Ġà¤Ĩà¤ĩ à¤ıà¤²à¤ĵ
Ġà¤ļà¤° à¤¨à¤®
Ġà¤ħà¤ª à¤¶à¤ķ
Ġà¤īà¤² à¤Łà¤ª
à¥įâĢ ľ
Ġà¤¸à¤¡à¤ķ à¤ĸà¤¨
à¤ľà¤² à¤¦
Ġà¤ľà¤® à¤²à¤¬
Ġà¤Ĩà¤ķ à¤·à¤°
à¤ıà¤¸ à¤ıà¤²à¤ķ
Ġà¥«à¥¦ à¥¯
à¤¦à¤® à¤ķà¤²
Ġ- âĢľ
à¤ªà¤Łà¤ķ à¤¥
à¤ľà¤¯ à¤ļà¤¨
Ġà¤Ī à¤¯à¤°à¤«
Ġà¥§à¥® à¥Ńà¥©
Ġà¥§à¥® à¥Ńà¥¯
Ġà¥§à¥® à¥«à¥¬
Ġà¥§à¥¬ à¥§à¥¬
à¤¹à¤¤ à¤¸à¤®
à¤·à¤§ à¤°à¤¬
à¤ĸà¤ķ à¤¸à¤®
à¤ĺà¤° à¤ľà¤Ĺ
à¤ľà¤° à¤ªà¤Ľ
Ġà¥¦ à¥¨à¥ª
Ġà¤Ĭ à¤ķ
à¤ªà¤£ à¤Ľ
à¤ļà¤° à¤¨à¤®
à¤¾) :
à¤Łà¤¬ à¤ķ
à¥¨à¥¦ à¥ªà¥«
Ġà¤¨à¤µ à¤īà¤ªà¤¨
Ġà¤ľà¤² à¤ļà¤ķ
Ġà¤ªà¤² à¤Ļà¤®
ad or
Ġl i
ĠÐ ¥
Ġà¥©à¥§ à¥ª
Ġà¥©à¥§ à¥¦à¥¦
Ġt re
à¤¤à¤µà¤¨ à¤¸à¤¹
Ġà¥©à¥« à¥©
or ing
or ial
ĠN umber
à¤īà¤¸ à¤¸à¤®
Ġà¤ĺà¤¨ à¤«
Ġà¥®à¥¦ à¥«
Ġà¤Ĩà¤ĩà¤°à¤¹ à¤¦
ĠC D
ĠC oo
ĠT ex
ĠT witter
à¥Ģ. /
ĠA re
ĠA CC
ĠM ill
Ġp ick
à¤Łà¤µà¤² à¤¤à¤°
Ġs ites
à¥§à¥¦ à¥§
à¥§à¥¦ à¥¬
ĠB ang
Ġf ilm
Ġà¤µà¤¹ à¤¶
Ġà¥¬à¥« à¥Ń
à¥©à¥¦ à¥®
à¤ĩà¤Ń à¤°à¤¸
ÑĢ Ð°Ñģ
Ġw atch
Ġà¤¡à¤² à¤°à¤µ
il t
as ha
ĠH y
Ġà¥ªà¥¨ à¥©
à¤¤à¤ľ à¤Ļ
ĠâĢĻ à¥¤
el come
Ġà¤®à¤¦à¤¨ à¤¦
Ġre ce
à¥įâĢĵ âĢľ
à¥§à¥¨ à¥§
Ġà¥ªà¥© à¥®
ĠF ort
ĠF oot
ĠF oundation
sp y
Ġà¥ªà¥¯ à¥¨
ĠL es
ĠL ittle
Ġà¤ıà¤¯à¤° à¤°
ĠE nd
ot os
Ġà¥ªà¥Ń à¥®
ĠG alaxy
ĠO EM
Ġà¤Ĺà¤« à¤¹à¤°
Ġà¥«à¥¯ à¥Ń
Ġn g
à¸ Ľ
Ġà¤²à¤¸ à¤ıà¤ŀ
Ġh uman
Ñĥ ÑĪ
Ġe ine
oo se
à¥ĩà¤ģ, '
Ġà¥®à¥¬ à¥¨
à¥įà¤¾ à¥ĭ
Ġà¥¯à¥ª à¥¬
Ġà¥¤à¥¤ à¥¤à¥¤à¥¤à¥¤
os ophy
Ñĭ Ð¼
Ġà¥®à¥¯ à¥¯
à¤µà¤Ĺ à¤Ńà¤°
Ġâ ģĦ
à¤¤à¤Ń à¤°à¤ķ
à¤¾? "
âĢį à¥į
Ġk a
ik ip
ãĥ ¬
ly ing
res h
à¨ ¬
ÐµÐ½ Ð°
Ã© r
ĠØ Ń
ĠSt ore
Ġun it
Ġà¤«à¤¤ à¤«à¤¤
à¹ į
à¤Ĩà¤¦ à¤°à¤£
Ġ11 4
ind ex
Ð¾Ð» Ð½
Ġ200 3
Ġwh itening
Ġcon d
Ð¸ÑĤ ÑģÑı
à´ ¨
Ñį Ð½
à¤¸à¤Ĺà¤¢ à¤ķ
à¤¿! âĢĿ
ĠTh ank
Ġà¤ıà¤ķà¤ıà¤ķ à¤µà¤Ł
mer ce
Ġart icles
Ġà¤Ĺà¤£à¤ķ à¤¹à¤°
Ġà¤Ĩà¤ĩà¤ıà¤¸ à¤ĵ
sc he
AS H
å® ļ
Ġdes c
à¤¯à¤ĸ à¤¬à¤°à¤ķ
Ð¸Ð¼ Ð¸
ĠSe lect
ãĥ¼ ãĥĪ
ĠÙĪ Ø§ÙĦ
è¿ ĩ
Ġ??? ?
hap a
ĠHimal aya
Ġà¥ł à¤£
à¤ĵà¤Ń à¤°à¤¸
æĹ¥ æľ¬
éĩ ĳ
åº ¦
âĢ² âĢ²
ĠAdd ed
å¼ Ģ
Ġrel ated
Ġvis it
Ġà¤¬à¤¯à¤° à¤ĺ
ãģķ ãĤĮ
ĠCop y
ä¿ ¡
osp ital
Ġrequ est
Ġdur ing
çİ °
ĠCL ICK
ĠÑģÑĢ ÐµÐ´
Ġà¤ıà¤¡à¤Ńà¤° à¤Ł
Ð¾ÑģÑĤÐ¾ Ñı
idd le
Ġinclud ing
ĠÐ°Ð²ÑĤÐ¾Ð¼ Ð¾Ð±
ĠGurk ha
, &
6 7
A s
E E
N I
P OR
S M
T P
T R
V C
V I
b ar
c al
e fined
l an
l as
p ers
s et
t re
t ra
u y
x y
z ie
Î ¬
Ï Ģ
Ù ī
à «
æ ı
ç ĸ
è Ħ
é ľ
Ġ ËĨ
Ġ 000
Į ¹
à¤¨ à¤Īà¤²
à¤² à¤ĺà¤°à¤®
à¤² à¤ļà¤²à¤¨à¤ķ
à¤® à¤£à¤®
à¤¯ à¤«à¤²
à¤¸ à¤Łà¤®
à¤¸ à¤ªà¤²
à¤¸ à¤ľà¤¨à¤®
Ġà¤¸ à¤Ľ
Ġà¤¸ à¤ł
à¤ª à¤¯à¤¤
à¤ª à¤±
à¤¦ à¤ĸà¤²
Ġà¤ķ à¤«à¤²
à¤Ĺ à¤§à¤°
Ġà¤° à¤µà¤°
Ġà¤° à¤¤à¤¨à¤ķ
à¥Ī à¥ĥ
Ġà¤¨ à¤°à¤ľ
à¤ı à¤·
Ġà¤® à¤Łà¤ķ
Ġà¤Ń à¤®à¤°à¤ķ
à¤ľ à¤²à¤¯
Ġà¤µ à¤¯à¤µà¤¸
à¤§ à¤µà¤¸
Ġà¤¤ à¤Ĺà¤°
à¤¥ à¤µà¤¶
à¤¥ à¤²à¤¨à¤ľ
à¤¶ à¤§
à¤¶ à¤°à¤²
à¤¶ à¤¦à¤°
Ġà¤Ĩ à¤¨à¤²
Ġà¤ľ à¤®à¤ķà¤Ł
Ġà¤² à¤¤à¤ķ
à¤¡ à¤¸à¤µ
à¤£ à¤®à¤§
à¤Ń à¤ĩ
à¤Ń à¤ĩà¤°à¤¹
Ġà¤ī à¤ļà¤¨
à¤ī à¤¸à¤¸
à¤ĩ à¤¯à¤°
à¤ĩ à¤®à¤¸
à¤« à¤ļ
à¤¯à¤ķ à¤²à¤Ĺ
Ġà¤ı à¤Ī
Ġà¤« à¤«à¤²
à¤¸à¤® à¤¯à¤²
à¤ĺ à¤¨à¤²
à¤µà¤¸ à¤ŀ
Ġà¤¯à¤¸ à¤ªà¤¶
Ġà¤§ à¤µà¤²à¤²
Ġà¤¸à¤ķ à¤¡à¤®
à¤ŀ à¤ķà¤¹
à¤°à¤¸ à¤¨à¤²
à¤°à¤¸ à¤²à¤Ĺ
à¥Įà¤Ĥ "
Ġà¤ħà¤° à¤µà¤ķ
Ġà¤¸à¤°à¤ķ à¤°à¤²
à¤ªà¤¤ à¤¯
Ġà¤ķà¤° à¤¯
à¤ķà¤² à¤µ
Ġà¤ĩ à¤Ľ
à¤łà¤® à¤¨
à¤ħ à¤µà¤ķ
à¥ģà¤ģ '
Ġà¤¸à¤¬ à¤ĩà¤¨
Ġà¤ħà¤¸ à¤ĩ
à¤µà¤ķ à¤¸à¤®
à¤µà¤¨ à¤ľà¤¸
à¤ļà¤¨ à¤ľà¤¸
à¤²à¤¨ à¤Ĺà¤°à¤ķ
à¤·à¤£ à¤¶
Ġà¤¨à¤Ĺà¤° à¤Ńà¤°
Ġà¥« à¥Ńà¥ª
Ġà¤Ĩà¤° à¤ıà¤¸à¤ıà¤¸
à¤®à¤¤ à¤Ĺà¤£à¤¨
à¤¤à¤¨ à¤°
à¤®à¤¨ à¤ªà¤°
Ġà¥ª à¥§à¥¯
Ġà¥ª à¥Ńà¥¨
Ġà¤Ĩà¤µ à¤Ł
Ġà¤ĵ à¤ĸà¤°à¤®
à¤¡à¤ķ à¤°à¤²
Ġà¥¬ à¥Ńà¥ª
Ġà¤ľà¤¸ à¤µà¤¨
à¤°à¤¶ à¤²
à¤°à¤¶ à¤µ
Ġà¤ķà¤¸ à¤°à¤¤à¤ķ
Ġà¤Ĩà¤§ à¤°à¤®
à¤¯à¤° à¤ľà¤¸
Ġà¤¹à¤° à¤«à¤ķ
Ġà¤ħà¤® à¤°à¤µ
Ġà¥Ń à¥Ńà¥¨
Ġà¥Ń à¥§à¥ª
Ġà¤®à¤§ à¤µ
Ġà¤Ķ à¤¸à¤°
à¤¸à¤¦ à¤ª
Ġà¤ªà¤¦ à¤®à¤¸
Ġà¤ªà¤¦ à¤µà¤¹
Ġà¤īà¤² à¤Łà¤«
Ġà¤¸à¤«à¤² à¤¤à¤®
à¤Ļà¤ķ à¤¨à¤ķ
à¤ľà¤² à¤ľà¤²
Ġà¥§à¥¨ à¥¨à¥Ń
à¤¸à¤Ń à¤ķ
à¤Īà¤² à¤°
Ġà¤ħà¤« à¤°à¤²
à¤·à¤¯ à¤Ń
Ġà¥¨à¥« à¥¬à¥§
à¤ıà¤® à¤ıà¤®
à¤ĩà¤ķ à¤°à¤®
Ġà¤ľà¤¤ à¤¨à¤²
Ġà¥§à¥® à¥Ńà¥¦
Ġà¥§à¥® à¥¨à¥ª
Ġà¤°à¤ķ à¤¸
Ġà¤ķà¤¥ à¤®à¤ķà¤¦
Ġà¥§à¥Ń à¥¨à¥©
Ġà¤Ĭ à¤ĸ
à¤¤à¤¤ à¤¤
à¤ļà¤° à¤¨à¤ķ
Ġà¤Ĩà¤Ī à¤Ī
Ġà¤Ĩà¤Ī à¤ıà¤¸à¤¸
Ġà¥¨à¥® à¥«à¥ª
à¥¨à¥¦ à¥¨à¥§
Ġà¥ªà¥¦ à¥¯
Ġà¤¬à¤® à¤ľà¤¨à¤²
à¤ĸà¤¨ à¤¨à¤²
Ġà¤¬à¤Ĺ à¤¡
ar ing
Ġà¤ĭà¤£ à¤Ń
ad ies
at ement
à¤Ĩà¤Ī à¤ıà¤¸à¤®
Ġm om
Ġm aterial
à¤²à¤ª à¤¶
Ġà¥©à¥§ à¥¯
Ġà¥©à¥§ à¥¨à¥«
Ġt ot
Ġt imes
ĠS ag
ĠS ave
ĠS af
ĠS ajha
à¤¡à¤¬ à¤²à¤ķ
à¤Ĭ à¤¬
à¤°à¤« à¤²à¤²
à¤¾- -
ĠN Y
ĠC ulture
ĠT en
Ð° ÐµÐ¼
ĠM em
ĠM aster
ĠM CPM
Ġp orn
Ġa uch
Ġa ward
Ġs qu
Ġs im
Ġs imp
à¤®à¤°à¤£ à¤¸
Ġà¤Ĺà¤ľ à¤¬à¤²
âĢĶ âĢĺ
Ġc ash
à¥§à¥¦ à¥«
à¥§à¥¦ à¥ª
ĠÂ §
Ġ201 9
ed ic
ĠH ere
Ġb ath
Ġà¤Ńà¤ĩ à¤Ĺ
ag u
ac ter
Ġre f
Ġà¥«à¥¨ à¥¨
Ġà¥«à¥¨ à¥¯
à¥§à¥¨ à¥¬
ĠF it
Ġà¥«à¥® à¥®
ur as
Ġà¥«à¥© à¥Ń
Ġà¤Ĩà¤īà¤Ł à¤¬
Ġin vest
Ġà¥¬à¥¨ à¥«
Ġà¥«à¥¯ à¥«
à¤ħà¤Ĺ à¤·
us ion
ĠW ed
Ġà¥®à¥® à¥¬
ĠJ oe
Ġà¥¯à¥ª à¥Ń
Ġà¥¯à¥¬ à¥¬
ĠU r
ãĤ µ
Ġ4 7
Ġà¤Ĺà¤Ĺà¤¨ à¤Ń
Ġà¤īà¤¦à¤¯ à¤ªà¤Ľ
ĠÐ¿ Ð¾Ðº
Ġà¤¦à¤¨ à¤¦à¤¨
à¥Ī... âĢĻ
oc he
ãĥ Ĩ
if ul
Ġ10 6
ĠRe st
---- -
vi ews
ĠÐ¸ ÑģÐ¿
à¤Ĳ à¤¨à¤ķ
à¤¿? âĢĿ
Ġà¤ľà¤ķ à¤°à¤¬à¤°
Ġun e
à¤¨à¤µà¤² à¤ª
à¹ Ĥ
Ġïģ Ĩ
Ð°ÑĤ Ð¾ÑĢ
Ġ* [[
ass y
à¤¬à¤Ĺà¤° à¤¬
ĠÑĢ Ð°Ñģ
Ġà¥¯à¥¦à¥¦ à¥§
ÙĪ Ø±
Ġà¤ľà¤¯à¤¨à¤Ĺà¤° à¤¸à¤®
TC H
16 0
Ã¼ n
Ġpr act
Ġáĥ ¡
á» ĳ
Ġà¦ ®
ĠWh iter
à¤®à¤µà¤¤ à¤ĸà¤£
Ġà¤¦à¤¸à¤ķ à¤®
rip tion
Ġman agement
æĸ Ļ
[...]
