{"<s>":0,"<pad>":1,"</s>":2,"<unk>":3,"<mask>":4,"!":5,"\"":6,"#":7,"$":8,"%":9,"&":10,"'":11,"(":12,")":13,"*":14,"+":15,",":16,"-":17,".":18,"/":19,"0":20,"1":21,"2":22,"3":23,"4":24,"5":25,"6":26,"7":27,"8":28,"9":29,":":30,";":31,"<":32,"=":33,">":34,"?":35,"@":36,"A":37,"B":38,"C":39,"D":40,"E":41,"F":42,"G":43,"H":44,"I":45,"J":46,"K":47,"L":48,"M":49,"N":50,"O":51,"P":52,"Q":53,"R":54,"S":55,"T":56,"U":57,"V":58,"W":59,"X":60,"Y":61,"Z":62,"[":63,"\\":64,"]":65,"^":66,"_":67,"`":68,"a":69,"b":70,"c":71,"d":72,"e":73,"f":74,"g":75,"h":76,"i":77,"j":78,"k":79,"l":80,"m":81,"n":82,"o":83,"p":84,"q":85,"r":86,"s":87,"t":88,"u":89,"v":90,"w":91,"x":92,"y":93,"z":94,"{":95,"|":96,"}":97,"~":98,"¡":99,"¢":100,"£":101,"¤":102,"¥":103,"¦":104,"§":105,"¨":106,"©":107,"ª":108,"«":109,"¬":110,"®":111,"¯":112,"°":113,"±":114,"²":115,"³":116,"´":117,"µ":118,"¶":119,"·":120,"¸":121,"¹":122,"º":123,"»":124,"¼":125,"½":126,"¾":127,"¿":128,"Â":129,"Ã":130,"Ä":131,"Å":132,"Æ":133,"Ç":134,"È":135,"É":136,"Ê":137,"Ë":138,"Ì":139,"Í":140,"Î":141,"Ï":142,"Ð":143,"Ñ":144,"Ò":145,"Ó":146,"Ô":147,"Õ":148,"Ö":149,"×":150,"Ø":151,"Ù":152,"Ú":153,"Û":154,"Ü":155,"ß":156,"à":157,"á":158,"â":159,"ã":160,"ä":161,"å":162,"æ":163,"ç":164,"è":165,"é":166,"ê":167,"ë":168,"ì":169,"í":170,"î":171,"ï":172,"ð":173,"ó":174,"ô":175,"Ă":176,"ă":177,"ą":178,"Ć":179,"ć":180,"Ĉ":181,"ĉ":182,"Ċ":183,"ė":184,"ğ":185,"Ġ":186,"ġ":187,"Ģ":188,"ģ":189,"Ĥ":190,"ĥ":191,"Ħ":192,"ħ":193,"Ĩ":194,"ĩ":195,"Ī":196,"ī":197,"Ĭ":198,"ĭ":199,"Į":200,"į":201,"İ":202,"ı":203,"Ĳ":204,"ĳ":205,"Ĵ":206,"ĵ":207,"Ķ":208,"ķ":209,"ĸ":210,"Ĺ":211,"ĺ":212,"Ļ":213,"ļ":214,"Ľ":215,"ľ":216,"Ŀ":217,"ŀ":218,"Ł":219,"ł":220,"Ń":221,"à¤":222,"à¥":223,"Ġà¤":224,"à¤¾":225,"à¥į":226,"à¤°":227,"à¤¨":228,"à¤ķ":229,"à¤¿":230,"à¥ĩ":231,"à¥ĭ":232,"à¤²":233,"à¤®":234,"à¤¤":235,"à¤¯":236,"à¥ģ":237,"à¥Ģ":238,"à¤¸":239,"Ġà¤¸":240,"Ġà¤ª":241,"à¤¹":242,"Ġà¥":243,"à¤ª":244,"à¤¦":245,"à¤µ":246,"Ġà¤ķ":247,"Ġà¤Ĺ":248,"à¤Ĺ":249,"Ġà¤°":250,"Ġà¥¤":251,"à¥Ī":252,"à¤Ł":253,"Ġà¤¨":254,"à¤ı":255,"Ġà¤¬":256,"Ġà¤®":257,"Ġà¤Ń":258,"à¤ľ":259,"Ġà¤ħ":260,"Ġà¤¹":261,"Ġà¤Ĺà¤°":262,"Ġà¤µ":263,"à¤¬":264,"à¤·":265,"à¤§":266,"Ġà¤Ľ":267,"Ġà¤¤":268,"Ġà¤¦":269,"à¤ıà¤ķ":270,"à¤¥":271,"à¤ģ":272,"à¤¶":273,"Ġà¤Ĩ":274,"Ġà¤ľ":275,"à¤Ĥ":276,"Ġà¤²":277,"à¤ļ":278,"à¤Ī":279,"à¤¡":280,"à¤£":281,"à¤Ľ":282,"à¥Ĥ":283,"à¤Ń":284,"Ġà¤ī":285,"à¤ĸ":286,"à¤ī":287,"Ġà¤¯":288,"à¤¹à¤°":289,"Ġà¤¸à¤®":290,"à¤°à¤ķ":291,"âĢ":292,"à¤ĩ":293,"à¤°à¤®":294,"Ġà¤ļ":295,"Ġà¤Ńà¤¨":296,"à¤«":297,"à¥¤":298,"à¥Į":299,"Ġà¤¶":300,"Ġà¤¥":301,"Ġà¤ĸ":302,"à¤¯à¤ķ":303,"Ġà¤ı":304,"à¤īà¤¨":305,"Ġà¤ªà¤¨":306,"à¤¾à¤ģ":307,"à¤ł":308,"à¤¨à¤ķ":309,"Ġà¤Ńà¤ıà¤ķ":310,"Ġà¤ªà¤°":311,"à¤°à¤¤":312,"Ġà¤ħà¤¨":313,"à¥ĥ":314,"à¤Ļ":315,"à¥¦":316,"Ġà¤«":317,"à¤°à¤£":318,"à¤¸à¤ķ":319,"à¤ľà¤¨":320,"Ġà¤Ľà¤¨":321,"Ġà¥§":322,"Ġà¥¨":323,"à¤¢":324,"à¤¸à¤®":325,"à¤ªà¤°":326,"à¤ĺ":327,"Ġà¤°à¤¹":328,"ĠâĢ":329,"à¤¨à¤®":330,"à¤µà¤¸":331,"à¤¨à¤²":332,"Ġà¤®à¤¹":333,"Ġà¤ĺ":334,"Ġà¤ıà¤ķ":335,"Ġà¤¬à¤¨":336,"Ġà¤¯à¤¸":337,"Ġà¤ľà¤¨":338,"Ġà¤§":339,"à¤²à¤ķ":340,"à¤¯à¤®":341,"Ġà¤Ł":342,"Ġà¤¸à¤ķ":343,"à¤ªà¤¨":344,"à¤°à¤¹":345,"à¤ŀ":346,"à¤Ĺà¤°":347,"Ġà¤¤à¤¥":348,"Ġà¤Ĩà¤«":349,"..":350,"Ġà¤ħà¤§":351,"à¤°à¤²":352,"Ġà¤¸à¤¹":353,"Ġà¤µà¤°":354,"Ġà¤¡":355,"âĢĻ":356,"Ġà¥§à¥":357,"à¤¯à¤¸":358,"à¤²à¤®":359,"ĠâĢĺ":360,"Ġà¤¤à¤°":361,"à¤¤à¤°":362,"à¤ªà¤Ľ":363,"à¤Ŀ":364,"à¤¯à¤¤":365,"à¤°à¤¸":366,"Ġà¤īà¤ª":367,"Ġà¤¬à¤¤":368,"à¥Įà¤Ĥ":369,"Ġà¤ħà¤°":370,"à¤ıà¤°":371,"Ġà¤®à¤¨":372,"Ġà¤¬à¤¢":373,"Ġà¤¸à¤°à¤ķ":374,"Ġà¤ķà¤®":375,"à¤°à¤¦":376,"à¤ªà¤¤":377,"à¤Ľà¤¨":378,"à¤¾,":379,"Ġà¤ķà¤°":380,"à¤ªà¤®":381,"Ġà¤²à¤Ĺ":382,"à¤ķà¤²":383,"à¤ĩà¤¨":384,"Ġà¤ł":385,"âĢĵ":386,"à¤°à¤¹à¤°":387,"Ġà¤ĩ":388,"à¤ķà¤®":389,"à¤łà¤®":390,"à¤ħ":391,"à¥ģà¤ģ":392,"Ġà¤ªà¤¹":393,"à¤¤à¤ķ":394,"Ġà¤¸à¤¬":395,"Ġà¥¨à¥¦":396,"Ġà¤ħà¤¸":397,"à¤®à¤ķ":398,"à¤Łà¤ķ":399,"Ġà¤Ĩà¤¯":400,"à¤¯à¤¨":401,"Ġà¤īà¤¨":402,"à¤µà¤°":403,"à¤¬à¤¨":404,"à¤µà¤ķ":405,"à¤¯à¤µà¤¸":406,"à¥§":407,"Ġà¤īà¤¤":408,"Ġà¤īà¤¨à¤²":409,"à¥«":410,"Ġà¤Ńà¤ı":411,"à¥Ń":412,"à¤µà¤¨":413,"à¤ļà¤¨":414,"à¤²à¤²":415,"Ġà¤¬à¤¸":416,"Ġà¥©":417,"à¤¾à¤Ĥ":418,"à¤Ĺà¤¤":419,"à¤²à¤¯":420,"Ġ(":421,"à¤¸à¤²":422,"à¤²à¤¨":423,"à¥ĩ,":424,"à¤²à¤¬":425,"à¥įà¥¤":426,"Ġà¤Ĺà¤¤":427,"à¥Ģ,":428,"à¤Łà¤¨":429,"à¤·à¤£":430,"à¤°à¤µ":431,"à¤°à¤¬":432,"à¥ĭà¥¤":433,"à¤¶à¤ķ":434,"Ġà¤ħà¤µà¤¸":435,"...":436,"à¥¨":437,"à¤¸à¤¨":438,"Ġà¤ħà¤Ń":439,"Ġà¤¨à¤Ĺà¤°":440,"Ġà¤Ĩà¤ıà¤ķ":441,"Ġà¥«":442,"Ġà¤Ŀ":443,"Ġà¤¬à¤ľ":444,"Ġà¤Ĩà¤°":445,"Ġà¤¹à¤ľ":446,"à¤¤à¤®":447,"à¤·à¤ķ":448,"à¥ĭ,":449,"à¤Łà¤°":450,"Ġà¤ħà¤¹":451,"à¥Īà¤Ĥ":452,"Ġà¤īà¤¦":453,"à¤®à¤¤":454,"à¥ª":455,"à¤¤à¤¨":456,"à¤Ĩ":457,"à¤Ńà¤¨":458,"à¤°à¤§":459,"à¤ķà¤°":460,"à¥¬":461,"à¤®à¤¨":462,"à¤ķà¤ķ":463,"à¤°à¤¯":464,"Ġà¤¸à¤¨":465,"Ġà¤¸à¤°":466,"à¤¯à¤²":467,"à¥©":468,"Ġà¥ª":469,"Ġà¤Ĩà¤µ":470,"Ġà¤¸à¤ŀ":471,"à¤Ńà¤¯":472,"à¥Įà¤ģ":473,"Ġà¤ļà¤²":474,"Ġà¤ĵ":475,"à¤¡à¤ķ":476,"à¤ªà¤ķ":477,"à¤¨à¤¨":478,"à¤ľà¤ķ":479,"Ġà¤¸à¤¦":480,"à¤Ńà¤ıà¤ķ":481,"à¤¦à¤¨":482,"à¤Ĺà¤²":483,"à¤°à¤®à¤®":484,"à¤īà¤Ł":485,"Ġà¤ªà¤¤":486,"Ġà¤¨à¤¯":487,"Ġà¤ªà¤ķ":488,"Ġà¥¬":489,"Ġà¤ľà¤¸":490,"à¤ĩà¤ıà¤ķ":491,"Ġà¤¬à¤°":492,"à¤°à¤¶":493,"à¤µà¤²":494,"Ġà¤ªà¤Ľ":495,"à¤¶à¤¨":496,"à¤«à¤²":497,"Ġà¤ķà¤¸":498,"à¤¨à¤¸":499,"à¤¿à¤Ĥ":500,"à¤Ĺà¤ķ":501,"à¤®à¤²":502,"à¥®":503,"Ġà¤Ĩà¤§":504,"à¤¤à¤²":505,"Ġà¤īà¤¨à¤ķ":506,"à¤§à¤¨":507,"Ġà¤ıà¤īà¤Ł":508,"à¤ĩà¤°à¤¹":509,"Ġ?":510,"à¤¬à¤°":511,"à¤¯à¤°":512,"Ġà¤¹à¤°":513,"à¤¨à¤®à¤¨":514,"Ġà¤¸à¤¯":515,"Ġà¤¢":516,"Ġà¤īà¤¹":517,"Ġà¤¯à¤¹":518,"Ġà¤Ńà¤¯":519,"à¤®à¤®":520,"Ġà¤ħà¤Ĺ":521,"Ġà¤¸à¤®à¤¯":522,"à¤ĥ":523,"Ġà¤ħà¤®":524,"Ġà¤Ĩà¤ľ":525,"à¤¿à¤ģ":526,"à¤ĵ":527,"à¤ķà¤°à¤£":528,"à¥¯":529,"à¥į,":530,"à¤ĸà¤°":531,"Ġà¥Ń":532,"Ġà¤¤à¤¯":533,"à¤°à¤Ń":534,"Ġà¤ħà¤¬":535,"à¤¯à¤¹":536,"Ġà¤ĸà¤°":537,"Ġà¤¸à¤¹à¤¯":538,"Ġà¤¸à¤®à¤¸":539,"Ġà¤®à¤§":540,"à¤µà¤®":541,"Ġà¤¦à¤°":542,"à¤Łà¤®":543,"Ġà¤ķà¤²":544,"Ġà¤ľà¤¨à¤¤":545,"Ġà¤Ķ":546,"Ġà¤ĺà¤°":547,"Ġà¤īà¤ķ":548,"à¤¸à¤¦":549,"Ġà¤ķà¤¤":550,"à¤¹à¤ķ":551,"à¤Ĺà¤®":552,"Ġà¤¤à¤ª":553,"Ġà¤¸à¤¦à¤¸":554,"Ġà¤ªà¤¦":555,"à¤ľà¤¸":556,"Ġà¤Ĩà¤īà¤¨":557,"Ġà¤ħà¤µ":558,"Ġà¤®à¤²":559,"à¤ķà¤¤":560,"Ġà¤ĩà¤¨":561,"Ġà¥§à¥¦":562,"Ġà¤¨à¤Ĺà¤°à¤ª":563,"Ġà¥®":564,"ĠâĢľ":565,"à¤²à¤Ĺ":566,"à¤·à¤®":567,"Ġà¤ħà¤ĺ":568,"à¤¶à¤®":569,"à¤¦à¤°":570,"âĢĿ":571,"Ġà¤Ĩà¤µà¤¶":572,"Ġà¤¬à¤¹":573,"Ġà¥¯":574,"à¤ħà¤¨":575,"à¤ıà¤¨":576,"Ġà¤Ĩà¤®":577,"à¤¹à¤¨":578,"Ġà¤¬à¤²":579,"Ġà¤Ĩà¤Ĺ":580,"Ġà¤īà¤®":581,"Ġà¤¯à¤¸à¤ķ":582,"à¤¾à¥ĩ":583,"Ġà¤¸à¤Ń":584,"Ġà¤ıà¤®":585,"à¤£à¤ķ":586,"Ġà¤¶à¤°":587,"Ġà¤ħà¤¤":588,"à¤µà¤¤":589,"Ġà¤Ĩà¤¨":590,"Ġà¤Ĩà¤ĩ":591,"à¤Ńà¤°":592,"Ġà¤¨à¤®":593,"Ġà¤®à¤¤":594,"Ġà¤¨à¤¸à¤ķ":595,"à¤¯à¤µ":596,"Ġà¤ļà¤°":597,"à¤Łà¤²":598,"Ġà¥¨à¥¦à¥Ń":599,"à¤¿,":600,"à¤µà¤ľà¤¨":601,"Ġà¤ħà¤ª":602,"Ġà¤Ĺà¤ıà¤ķ":603,"à¤¶à¤¤":604,"Ġà¤īà¤²":605,"à¤ıà¤ªà¤Ľ":606,"Ġà¤«à¤°":607,"Ġà¤¥à¤ª":608,"Ġà¤īà¤ļ":609,"Ġà¤¦à¤²":610,"à¤ķà¤ª":611,"à¤ķà¤¨":612,"à¤ľà¤®":613,"à¤ĩà¤²":614,"Ġà¤ªà¤¢":615,"Ġà¥¤âĢĻ":616,"Ġà¤¸à¤Ļ":617,"Ġà¤ķà¤¹":618,"à¤ĵà¤µ":619,"Ġà¤Ĩà¤¦":620,"Ġà¤Ńà¤°":621,"Ġà¤ªà¤Łà¤ķ":622,"à¥įâĢ":623,"à¤°à¤ļ":624,"à¤ħà¤ĺ":625,"Ġà¤¸à¤¤":626,"à¤¡à¤²":627,"à¤²à¤¯à¤ķ":628,"à¤¦à¤Ľ":629,"Ġà¤°à¤¹à¤¨":630,"Ġà¤µà¤Ł":631,"Ġà¤ĺà¤Łà¤¨":632,"à¤£à¤¯":633,"Ġà¤®à¤¹à¤¤":634,"Ġà¤¨à¤¹":635,"Ġà¤¸à¤¹à¤Ń":636,"Ġà¤¯à¤¸à¤²":637,"à¤°à¤¨":638,"Ġà¤²à¤ķ":639,"Ġà¤¸à¤ļ":640,"à¤¬à¤²":641,"Ġà¤¸à¤«à¤²":642,"à¤ļà¤ķ":643,"à¤®à¤ļ":644,"à¤¥à¤®":645,"à¤¦à¤ķ":646,"à¤¯à¤¸à¤ķ":647,"à¤¬à¤¹":648,"Ġà¤µà¤¡":649,"à¤Ļà¤ķ":650,"à¤¤à¤µ":651,"Ġà¤ĵà¤²":652,"à¤µà¤°à¤£":653,"à¥įâĢį":654,"à¤¾.":655,"Ġà¤¨à¤¦":656,"à¤ªà¤²":657,"à¤łà¤¨":658,"à¤¤à¤°à¤£":659,"à¤·à¤¯à¤®":660,"Ġà¤Ĳ":661,"Ġà¤¤à¤¤":662,"Ġà¤Ńà¤ĩà¤°à¤¹":663,"à¤°à¤ª":664,"Ġ,":665,"à¤¨à¤µ":666,"Ġà¤ħà¤²":667,"à¤ľà¤Ĺ":668,"Ġà¤¯à¤¤":669,"à¤·à¤¤":670,"à¤¯à¤¤à¤ķ":671,"Ġà¤§à¤°":672,"Ġà¤¹à¤¤":673,"Ġà¤¸à¤®à¤¯à¤®":674,"Ġà¤ħà¤Ŀ":675,"à¤ĩà¤¸à¤ķ":676,"à¤¡à¤®":677,"Ġà¤¸à¤¡à¤ķ":678,"à¤°à¤®à¤£":679,"Ġà¤Ńà¤ıà¤°":680,"Ġà¤īà¤ł":681,"Ġà¤°à¤ķà¤®":682,"à¤ľà¤²":683,"Ġ|":684,"à¤«à¤¤":685,"Ġà¥§à¥¯":686,"Ġà¤¸à¤µ":687,"Ġà¤ªà¤¶":688,"à¤²à¤¤":689,"à¤µà¤ª":690,"Ġà¥§à¥«":691,"Ġà¤ľà¤®":692,"à¥ģ,":693,"Ġ'":694,"à¤¹à¤²":695,"à¤¸à¤¹":696,"Ġà¤ħà¤¦":697,"à¤°à¤ªà¤¤":698,"Ġà¥§à¥¨":699,"à¤²à¤¯à¤²":700,"Ġà¤§à¤¨":701,"à¤¸à¤Ń":702,"à¤¾âĢĵ":703,"à¤¨à¤¬":704,"ĠâĢĵ":705,"Ġà¤īà¤ªà¤ļ":706,"Ġà¤Ĩà¤¶":707,"à¤§à¤ķ":708,"Ġà¤Ľà¤²":709,"Ġà¤Ĩà¤ķ":710,"à¤¸à¤°":711,"à¤µà¤¯":712,"Ġà¤¨à¤Ń":713,"Ġà¤ıà¤¸":714,"à¤¦à¤²":715,"Ġà¤ļà¤²à¤ļ":716,"Ġà¤¶à¤ķ":717,"Ġà¤Ĩà¤ī":718,"à¤¦à¤µ":719,"Ġà¥§à¥§":720,"Ġà¤Ĩà¤¤":721,"à¤¹à¤®":722,"à¥ĩà¥¤":723,"à¤Īà¤²":724,"Ġà¤ľà¤°":725,"Ġà¤¨à¤Ńà¤ıà¤ķ":726,"Ġà¤®à¤°":727,"Ġà¤¦à¤¶":728,"à¤ĺà¤ķ":729,"à¤¤à¤¬":730,"à¤ıà¤¸":731,"à¤¯à¤ª":732,"Ġà¤īà¤ªà¤²à¤¬":733,"à¤ĩà¤¦":734,"Ġà¥¨à¥¦à¥§":735,"à¤·à¤¦":736,"Ġà¤Ńà¤ıà¤ªà¤Ľ":737,"Ġà¤ħà¤«":738,"Ġà¤ªà¤ł":739,"à¤·à¤¯":740,"à¤°à¤ľ":741,"à¤łà¤ķ":742,"à¤²à¤¸":743,"à¤§à¤®":744,"à¤²à¤¨à¤®":745,"Ġà¤¨à¤ľ":746,"Ġà¤¬à¤ļ":747,"Ġà¤ľà¤Ĺ":748,"à¥Īà¤ģ":749,"à¤®à¤¦":750,"à¤°à¤¦à¤°":751,"Ġà¤¨à¤ª":752,"Ġà¤¸à¤¹à¤®à¤¤":753,"à¤¨à¤°":754,"à¤ļà¤®":755,"Ġà¥«à¥¦":756,"à¤¤à¤ª":757,"à¤ªà¤¯":758,"à¤²à¤¯à¤®":759,"à¤¨à¤Ĺà¤°":760,"Ġ...":761,"à¤®à¤¬":762,"à¤²à¤µ":763,"Ġà¤ķà¤¸à¤°":764,"à¤¥à¤²":765,"à¤¨à¤¤":766,"Ġà¤¨à¤°":767,"à¤¨à¤ª":768,"à¤¯à¤¸à¤®":769,"à¥Įà¤Ĥ,":770,"Ġà¤Ĺà¤£":771,"à¤Īà¤ķ":772,"Ġ:":773,"Ġà¤¹à¤¸":774,"à¤¦à¤®":775,"à¤¯à¤¯à¤¨":776,"Ġà¤ıà¤¨":777,"Ġà¥¨à¥«":778,"Ġà¤¸à¤¹à¤ķ":779,"Ġà¤ıà¤µ":780,"Ġ-":781,"Ġà¤ķà¤ª":782,"Ġà¤ħà¤ªà¤°":783,"à¤°à¤£à¤®":784,"à¤Ńà¤µ":785,"à¤ıà¤®":786,"à¤¯à¤¹à¤°":787,"à¤ĩà¤ķ":788,"à¤ªà¤Łà¤ķ":789,"Ġà¤¦à¤ķ":790,"Ġà¤¸à¤ľ":791,"Ġà¤ĺà¤Ł":792,"à¤Ļà¤²":793,"à¤¯à¤¸à¤²":794,"à¥ģà¤Ĥ":795,"à¤Ĺà¤¦":796,"à¤¶à¤²":797,"Ġà¥©à¥¦":798,"à¤°à¤®à¤ķ":799,"Ġà¤Ľà¤²à¤«à¤²":800,"à¤§à¤¤":801,"à¤ľà¤¯":802,"Ġà¤Ńà¤Ł":803,"à¤®à¤§":804,"Â¥":805,"à¤®à¤°":806,"à¤°à¤¤à¤ķ":807,"Ġà¤Ī":808,"à¤ĩà¤Ł":809,"à¤īà¤¦":810,"à¤¸à¤¬":811,"à¤ªà¤¦":812,"Ġà¤Ńà¤ĩà¤¸à¤ķ":813,"Ġà¥§à¥©":814,"Ġà¤¯à¤¦":815,"Ġà¤¸à¤¹à¤ľ":816,"Ġà¤Ńà¤¦":817,"à¤®à¤¸":818,"Ġà¤ıà¤ķà¤¤":819,"Ġà¤ĺà¤°à¤®":820,"Ġà¤Ńà¤µ":821,"Ġà¥§à¥ª":822,"Ġà¤ľà¤¤":823,"Ġà¥§à¥®":824,"à¤¬à¤¦":825,"à¤ľà¤¦":826,"à¤°à¤·":827,"à¤¨à¤¸à¤ķ":828,"Ġ!":829,"re":830,"Ġà¤®à¤¸":831,"Ġà¤ªà¤°à¤®":832,"à¤ĺà¤Łà¤¨":833,"Ġà¤Ńà¤Ī":834,"Ġà¤°à¤®":835,"à¤ľà¤§":836,"à¤¯à¤Łà¤ķ":837,"Ġà¥§à¥¬":838,"Ġà¤°à¤ķ":839,"à¤¹à¤¤":840,"à¤¯à¤¬":841,"Ġà¤¯à¤¸à¤°":842,"à¤ļà¤²":843,"à¤¸à¤¹à¤°":844,"Ġà¤ľà¤¸à¤²":845,"à¤ķà¤¹à¤°":846,"Ġà¤Ńà¤£":847,"Ġà¤ħà¤µà¤§":848,"à¤·à¤®à¤¤":849,"à¤ĩà¤°":850,"à¤µà¤¦":851,"Ġà¤ķà¤µ":852,"Ġà¤ķà¤¥":853,"Ġà¤ľà¤¹":854,"à¤¨à¤¹à¤°":855,"à¤¯à¤¸à¤ªà¤Ľ":856,"Ġà¤ĸà¤¡":857,"à¤¸à¤¸":858,"Ġà¤ĭ":859,"à¤²à¤¨à¤ķ":860,"Ġà¤īà¤¸à¤²":861,"à¤ķà¤Ł":862,"à¤·à¤§":863,"Ġà¤īà¤ªà¤¸":864,"Ġà¤¸à¤²":865,"à¤ľà¤¨à¤ķ":866,"à¤°à¤ļà¤¨":867,"Ġà¤®à¤¤à¤¦":868,"à¤ĩà¤¤":869,"à¤¯à¤£":870,"à¤ķà¤¸":871,"Ġà¤«à¤°à¤ķ":872,"Ġà¤Ĺà¤łà¤¨":873,"Ġà¤ļà¤¨":874,"Ġà¤¹à¤Ł":875,"à¤°à¤£à¤²":876,"à¤µà¤µ":877,"Ġà¤īà¤ªà¤¯":878,"à¤ĸà¤ķ":879,"à¤ĺà¤°":880,"à¤²à¤°":881,"à¤¯à¤ķà¤°":882,"Ġà¤Ĩà¤ª":883,"Ġà¤¶à¤¨":884,"à¤ľà¤°":885,"à¤§à¤¬":886,"à¥Ī,":887,"Ġà¥¦":888,"Ġà¤Ŀà¤¨":889,"in":890,"Ġà¤µà¤¨":891,"Ġà¤īà¤¡":892,"à¤·à¤²":893,"à¤¿.":894,"à¤Ńà¤ķ":895,"à¤°à¤£à¤ķ":896,"à¤°à¤ļà¤£":897,"Ġà¥§à¥Ń":898,"à¤¯à¤ķà¤¤":899,"Ġà¥¨à¥§":900,"Ġà¤¤à¤¹à¤ķ":901,"Ġà¤Ĺà¤ł":902,"à¤§à¤°":903,"Ġà¤¹à¤²":904,"à¤¯à¤Łà¤¨":905,"à¤Īà¤¨":906,"Ġà¤Ĭ":907,"à¤Ĩà¤°":908,"Ġà¥¤âĢĿ":909,"à¤¤à¤¤":910,"Ġà¤¯à¤¸à¤®":911,"à¥¦à¥¦":912,"Ġà¤Ĺà¤®":913,"Ġà¤¤à¤¸":914,"Ġà¤¯à¤¸à¤ħà¤ĺ":915,"Ġà¤µà¤¸":916,"Ġà¤¶à¤¬":917,"Ġà¤ĩà¤¤":918,"à¤§à¤¨à¤ķ":919,"à¤µà¤¯à¤¨":920,"à¥ĩà¤Ĥ":921,"Ġà¤¨à¤ķ":922,"à¤Ĥ.":923,"Ġà¤ķà¤ķ":924,"à¤¤à¤¹à¤°":925,"à¤ªà¤£":926,"Ġà¤ķà¤®à¤ľ":927,"à¤¯à¤¦":928,"à¤¸à¤ļ":929,"Ġà¤¦à¤²à¤ķ":930,"à¤ļà¤°":931,"à¤Ĺà¤²à¤¬":932,"Ġà¤Ĩà¤Ī":933,"à¤¯à¤µà¤¹":934,"Ġà¤¸à¤¡":935,"Ġà¤ķà¤¨":936,"Ġà¤Ńà¤ķ":937,"Ġà¤¤à¤²":938,"Ġà¥¨à¥¨":939,"à¤Ļà¤®":940,"Ġà¤ħà¤ķ":941,"à¤¨à¤Ĺà¤°à¤ª":942,"er":943,"à¤µà¤¤à¤¨":944,"Ġà¤Ĳà¤¨":945,"Ġà¤ĸà¤¨":946,"à¤ķà¤²à¤¨":947,"à¤¯à¤®à¤¨":948,"Ġà¥¨à¥ª":949,"à¥ĩà¤ģ":950,"Ġà¤Ĩà¤²":951,"à¤ªà¤·":952,"à¤®à¤Ĺ":953,"Ġà¤Ķà¤·à¤§":954,"à¤Ĺà¤¢":955,"Ġà¤ħà¤µà¤¸à¤°à¤®":956,"à¤ĩà¤®":957,"Ġà¤Ĩà¤ľà¤ķ":958,"à¤łà¤ķà¤²":959,"Ġà¤ľà¤¬":960,"Ġà¤ıà¤ľ":961,"à¤ĩà¤¨à¤²":962,"Ġà¤ľà¤µ":963,"à¤ľà¤µ":964,"à¤£à¤®":965,"à¤ĸà¤²":966,"Ġà¤¸à¤®à¤°":967,"Ġà¤Ĩà¤ļ":968,"on":969,"à¤°à¤ĸ":970,"à¤¡à¤°":971,"Ġà¤īà¤ªà¤Ń":972,"Ġà¤²à¤¡":973,"Ġà¥¨à¥¦à¥¬":974,"à¤ķà¤°à¤£à¤ķ":975,"à¤¥à¤ķ":976,"Ġà¤ħà¤µà¤¸à¤°":977,"Ġà¤¤à¤¹":978,"à¤¨à¤¦":979,"à¤łà¤²":980,"an":981,"Ġà¤Ĩà¤ĩà¤¤à¤¬":982,"Ġà¤«à¤²":983,"Ġà¤īà¤ľ":984,"Ġà¤īà¤¸à¤ķ":985,"à¤¾)":986,"à¤īà¤µ":987,"à¤®à¤¹":988,"Ġà¥¨à¥®":989,"Ġà¤Ńà¤¤":990,"à¤ļà¤¨à¤®":991,"à¥Įà¤ģ,":992,"à¤Łà¤¬":993,"à¤Ĺà¤łà¤¨":994,"à¤¾âĢĻ":995,"à¥¨à¥¦":996,"à¤®à¤ª":997,"à¤¬à¤°à¤ķ":998,"Ġà¤ķà¤Ł":999,"Ġà¥¨à¥Ń":1000,"à¥Ģ)":1001,"à¤°à¤¹à¤¨":1002,"al":1003,"Ġà¤ľà¤¨à¤¸":1004,"Ġà¤Ĩà¤ķà¤°":1005,"à¤¸à¤µ":1006,"à¤£à¤¸":1007,"Ġà¤¸à¤®à¤¨":1008,",âĢĻ":1009,"Ġà¤Ĩà¤ł":1010,"à¤Ĺà¤¨":1011,"à¤¨à¤¯":1012,"à¤¤à¤°à¤ķ":1013,"Ġà¤¶à¤¹à¤°":1014,"Ġ[":1015,"Ġà¥ªà¥¦":1016,"à¤ĸà¤®":1017,"Ġà¥¨à¥¦à¥Ńà¥«":1018,"Ġà¤¬à¤®":1019,"à¥ĢâĢĻ":1020,"Ġà¤¸à¤ªà¤¨":1021,"Ġà¤¨à¤µ":1022,"Ġà¤®à¤¦":1023,"Ġà¤ĺà¤£":1024,"Ġà¥¨à¥©":1025,"Ġà¤¦à¤²à¤¹à¤°":1026,"Ġà¥¨à¥¯":1027,"âĢľ":1028,"à¤£à¤¨":1029,"Ġà¤¸à¤ª":1030,"Ġà¤ĩà¤²":1031,"à¤¯à¤¯":1032,"Ġà¤ħà¤ĸ":1033,"à¤¨à¤¸à¤®":1034,"Ġà¤¯à¤¸à¤¬":1035,"à¤°à¤¬à¤¹":1036,"Ã·":1037,"Ġà¤ªà¤¸":1038,"Ġà¤Ńà¤µà¤¨":1039,"à¤²à¤¸à¤®":1040,"à¤°à¤µà¤ķ":1041,"Ġà¥¨à¥¦à¥¦":1042,"Ġà¤¨à¤¤":1043,"à¤°à¤°":1044,"à¤ªà¤ļ":1045,"à¤łà¤ķà¤®":1046,"à¤¸à¤ª":1047,"à¥ĢâĢĵ":1048,"Ġà¥¨à¥¬":1049,"à¤Ĺà¤ł":1050,"à¤ĸà¤¨":1051,"à¤ĩà¤ľ":1052,"Ġà¥¨à¥¦à¥Ńà¥ª":1053,"Ġà¤°à¤¸":1054,"Ġà¤Ńà¤ıà¤¨":1055,"à¤Ĺà¤¬":1056,"Ġà¤ĸà¤¸":1057,"à¤Ķ":1058,"à¤µà¤Ł":1059,"à¤Łà¤¬à¤²":1060,"à¤«à¤¬":1061,"à¤µà¤§":1062,"à¤Ńà¤®":1063,"Ġà¤¬à¤Ĺ":1064,"à¤ľà¤ª":1065,"à¤Ĺà¤®à¤¨":1066,"Ġà¤¨à¤¬":1067,"Ġà¤ľà¤²":1068,"Ġà¤Ĺà¤¨":1069,"Ġ\"":1070,"Ġà¤¤à¤¹à¤®":1071,"Ġà¤¤à¤¨":1072,"Ġà¤Ĺà¤²":1073,"Ġà¤ªà¤²":1074,"ar":1075,"Ġà¤ĭà¤£":1076,"Ġà¤Ĺà¤ıà¤°":1077,"ad":1078,"à¤°à¤¸à¤®":1079,"à¤Ĺà¤¤à¤ķ":1080,"Ġà¤ļà¤°à¤£à¤®":1081,"à¤īà¤ķ":1082,"Ġà¤Ĩà¤«à¤¨":1083,"Ġà¤ªà¤ŀ":1084,"Ġà¤¸à¤§":1085,"à¤ıà¤²":1086,"à¤ķà¤µ":1087,"à¤µà¤¶":1088,"à¤Łà¤°à¤¨":1089,"Ġà¤Ĺà¤łà¤¬à¤¨":1090,"à¤īà¤¨à¤ķ":1091,"at":1092,"à¤ĩà¤¸":1093,"Ġà¤¨à¤²":1094,"à¤ķà¤¬":1095,"à¤ļà¤¨à¤ķ":1096,"à¤¶à¤¸":1097,"Ġà¤¸à¤«":1098,"Ġà¤ĸà¤¬à¤°":1099,"Ġà¤īà¤ªà¤¤":1100,"Ġà¤ķà¤ł":1101,"en":1102,"à¤¸à¤¨à¤²":1103,"Ġà¤¸à¤«à¤²à¤¤":1104,"à¤Łà¤¹à¤°":1105,"à¤°à¤Ĺà¤¤":1106,"à¤°à¤¤à¤²":1107,"à¤®à¤£":1108,"Ġà¤ľà¤¨à¤ķ":1109,"à¥ģÂ¥":1110,"Ġà¤Ńà¤Ĺ":1111,"à¥Įà¤Ĥà¥¤":1112,"Ġà¤¦à¤¸":1113,"à¤¡à¤¨":1114,"à¤¸à¤¨à¤ķ":1115,"Ġà¤ħà¤¡":1116,"à¤Ĩà¤Ī":1117,"Ġà¤ķà¤¡":1118,"à¥ģà¤ĥ":1119,"à¤ĩà¤¡":1120,"à¤·à¤°":1121,"Ġà¥¬à¥¦":1122,"à¤¬à¤®":1123,"Ġà¤ħà¤¸à¤°":1124,"Ġl":1125,"à¤°à¤¥à¤®":1126,"à¤Ĺà¤¤à¤®":1127,"Ġà¤ĸà¤Ł":1128,"Ġà¤¸à¤¹à¤°":1129,"à¤¾à¥¤":1130,"à¤°à¤®à¤£à¤ķ":1131,"à¤¦à¤Ľà¤¨":1132,"à¤¥à¤¨":1133,"à¤¾...":1134,"âĢĻ,":1135,"à¤¤à¤°à¤®":1136,"âĢĺ":1137,"ĠÐ":1138,"Ġà¤¯à¤¥":1139,"à¤¬à¤¸":1140,"à¤Ĺà¤°à¤ķ":1141,"om":1142,"Ġm":1143,"à¤Ĺà¤°à¤®":1144,"Ġ[...":1145,"à¤Īà¤®":1146,"Ġà¤ļà¤¢":1147,"à¤Łà¤µ":1148,"Ġà¤ľà¤¸à¤ķ":1149,"Ġà¤ħà¤¨à¤²":1150,"à¤·à¤£à¤ķ":1151,"st":1152,"Ġà¤¸à¤¸":1153,"Ġà¤ľà¤²à¤µ":1154,"à¤¶à¤¬":1155,"Ġà¤²à¤®":1156,"à¤²à¤ª":1157,"Ġà¤Ĺà¤²à¤¤":1158,"Ġà¤°à¤¨":1159,"à¤µà¤Ń":1160,"Ġ[...]":1161,"Ġà¤Ĩà¤ĩà¤ª":1162,"à¤ħà¤°":1163,"à¤ªà¤¸":1164,"à¤ķà¤¤à¤¨":1165,"Ġà¤¦à¤¬":1166,"à¤ĺà¤²":1167,"Ġà¤Ŀà¤£":1168,"Ġ2":1169,"Ġà¤Ńà¤ıà¤ªà¤¨":1170,"à¤°à¤Ĺ":1171,"Ġà¥©à¥§":1172,"à¤¨à¤¸à¤Ń":1173,"Ġà¤ªà¤¦à¤®":1174,"à¤¯à¤¸à¤¬":1175,"Ġà¤ĸà¤¤":1176,"à¤ļà¤¯":1177,"à¤ĩà¤¯":1178,"à¤Ĩà¤«":1179,"à¤¬à¤ķ":1180,"à¤Ŀà¤¨":1181,"à¤¶à¤¨à¤®":1182,"Ġà¤²à¤²":1183,"Ġà¤īà¤°":1184,"Ġà¤ĸà¤£":1185,"à¤¶à¤¨à¤ķ":1186,"à¤īà¤®":1187,"Ġà¤īà¤ªà¤°":1188,"à¤¹à¤°à¤£":1189,"à¥ģà¥ģ":1190,"Ġà¤ĩà¤®":1191,"Ġà¤¹à¤ª":1192,"Ġà¤ķà¤ŀ":1193,"à¤Łà¤°à¤ķ":1194,"Ġt":1195,"à¤¶à¤¸à¤Ń":1196,"à¤ıà¤¨à¤¨":1197,"Ġà¤ľà¤¨à¤ľ":1198,"à¤¤à¤µà¤¨":1199,"Ġà¤¤à¤°à¤ķ":1200,"Ġà¥©à¥«":1201,"à¤¯à¤°à¤¤":1202,"à¤§à¤µ":1203,"Ġà¤¸à¤¦à¤°à¤®":1204,"Ġ/":1205,"à¤Łà¤ª":1206,"à¤¦à¤¨à¤®":1207,"à¤¥à¤²à¤®":1208,"ĠS":1209,"à¤µà¤¨à¤ķ":1210,"Ġà¤¸à¤°à¤¸":1211,"à¤ļà¤¨à¤ª":1212,"Ġà¤ħà¤µà¤°":1213,"à¤°à¤¤à¤®":1214,"Ġà¤Ĩà¤ı":1215,"Ġà¤ıà¤²":1216,"Ġà¤ľà¤¸à¤®":1217,"Ġà¤īà¤¸":1218,"à¥Ĥ,":1219,"Ġà¤Ĩà¤ıà¤°":1220,"or":1221,"Ġà¤¨à¤ªà¤°":1222,"à¤¥à¤°":1223,"à¤ķà¤®à¤²":1224,"à¤ľà¤¤":1225,"à¤¡à¤¬":1226,"Ġà¤®à¤Ĺà¤°":1227,"à¤Ĺà¤¹à¤°":1228,"Ġà¤ľà¤¨à¤ª":1229,"....":1230,"Ġà¤Ĳà¤¤":1231,"à¤°à¤®à¤²":1232,"Ġà¤¢à¤ķ":1233,"Ġà¤¨à¤Ńà¤ı":1234,"à¤¨à¤Ńà¤¨":1235,"à¤Ĭ":1236,"Ġà¤¨à¤Ńà¤Ī":1237,"à¤°à¤«":1238,"à¥ģà¥¤":1239,"Ġà¤ľà¤¡":1240,"à¤¹à¤¦":1241,"à¤¾-":1242,"à¤ħà¤§":1243,"à¤¥à¤µ":1244,"à¥ĭà¥ĩ":1245,"Ġ1":1246,"Ġà¤ħà¤¶":1247,"Ġà¤ªà¤¹à¤²":1248,"Ġà¤ĩà¤ļ":1249,"Ð¾":1250,"Ġà¤ľà¤¨à¤ķà¤ª":1251,"Ġà¤®à¤ŀ":1252,"Ġà¤¸à¤¡à¤ķà¤®":1253,"à¤«à¤ķ":1254,"Ġà¤Ĭà¤°":1255,"à¤¶à¤¨à¤²":1256,"Ġà¤ħà¤·":1257,"Ġà¤ıà¤µà¤®":1258,"Ġà¤¨à¤Ĺà¤¦":1259,"à¤Łà¤°à¤®":1260,"Ġà¤¦à¤¶à¤ķ":1261,"à¥Ĥà¤ģ":1262,"ĠâĢĶ":1263,"à¤²à¤¦":1264,"à¤¶à¤¹à¤°":1265,"Ġà¤ıà¤ª":1266,"à¤²à¤¤à¤²":1267,"Ġà¤¸à¤®à¤Ĺ":1268,"à¤®à¤²à¤µ":1269,"Ġà¤®à¤¨à¤®":1270,"à¤²à¤¹à¤°":1271,"à¤µà¤¨à¤®":1272,"Ġà¤¦à¤¶à¤®à¤²à¤µ":1273,"à¤ľà¤¬":1274,"Ġà¤®à¤¹à¤¸":1275,"ĠN":1276,"à¤°à¤¥":1277,"ore":1278,"Ġà¤ħà¤ªà¤¨":1279,"Ġà¤ķà¤®à¤²":1280,"à¤®à¤¹à¤°":1281,"à¥Ģà¤ģ":1282,"Ġà¤ļà¤°à¤£à¤ķ":1283,"à¤§à¤²":1284,"Ġà¤¹à¤ķ":1285,"Ġà¤Ĺà¤ı":1286,"Ġà¤®à¤£":1287,"Ġà¤Ĩà¤¹":1288,"à¤¦à¤¤":1289,"Ġà¥Ńà¥¦":1290,"),":1291,"Ġà¤Ĺà¤£à¤¤à¤¨":1292,"Ġà¤ĺà¤°à¤ķ":1293,"à¥ģ.":1294,"à¤¥à¤¤à¤¨":1295,"à¤īà¤¸":1296,"Ġà¤¬à¤¡":1297,"Ġà¤ļà¤ķ":1298,"Ġà¤Ķà¤ªà¤ļ":1299,"à¤·à¤¹à¤°":1300,"Ġà¤¡à¤²à¤°":1301,"Ġà¤ĺà¤¨":1302,"à¤²à¤¤à¤®":1303,"à¤¡à¤¸":1304,"à¤¬à¤ľ":1305,"à¤²à¤Ń":1306,"Ġà¤ĸà¤¤à¤°":1307,"Ġà¤īà¤Ń":1308,"à¤ĩà¤ķà¤²":1309,"à¤¯à¤Ł":1310,"Ġà¥®à¥¦":1311,"Ġà¥¨à¥¦à¥Ńà¥©":1312,"à¤¤à¤¸":1313,"à¤Łà¤°à¤¸":1314,"à¤Łà¤¨à¤Ĺà¤°":1315,"à¤¹à¤¸":1316,"Ġà¤µà¤ķ":1317,"Ġà¤ħà¤Ļ":1318,"à¤¹à¤®à¤¨":1319,"Ġà¥¨à¥¦à¥«":1320,"à¤µà¤¹à¤°":1321,"à¤Īà¤ıà¤ķ":1322,"it":1323,"à¤·à¤ħà¤ĺ":1324,"à¤£à¤¤":1325,"à¤£à¤²":1326,"à¤°à¤ķà¤°":1327,"à¤¯à¤¤à¤²":1328,"Ġà¤¤à¤®":1329,"Ġà¤®à¤ľà¤¦":1330,"à¤Ĺà¤ľ":1331,"ĠP":1332,"Ġà¤§à¤®":1333,"Ġà¤Ĺà¤¹":1334,"à¤¤à¤°à¤¤":1335,"Ġà¥ªà¥«":1336,"à¤°à¤®à¤£à¤®":1337,"Ġà¤ľà¤¨à¤®":1338,"à¤¦à¤µà¤²":1339,"à¤µà¤ķà¤ª":1340,"Ġà¤¸à¤¶à¤¸":1341,"Ġà¤¦à¤®":1342,"à¥Ńà¥«":1343,"à¤ªà¤¦à¤£":1344,"Ġà¤®à¤Ļ":1345,"Ġà¤Ĩà¤ĩà¤°à¤¹":1346,"es":1347,"Ġà¤®à¤¹à¤°":1348,"Ġà¤Ĩà¤¸":1349,"à¥ĩâĢĵ":1350,"Ġà¤Ńà¤°à¤¤":1351,"à¤·à¤¸à¤®":1352,"à¤ŀà¤ª":1353,"Ġà¤ªà¤¦à¤ķ":1354,"Ġà¥©à¥¨":1355,"Ġà¤ħà¤¸à¤¨":1356,"ĉĊ":1357,"ĠC":1358,"à¤Ńà¤Ĺ":1359,"Ġà¤īà¤ªà¤®à¤¹":1360,"à¤«à¤°":1361,"à¤īà¤ª":1362,"Ġà¤ļà¤²à¤¨":1363,"Ġà¤Ĺà¤¯":1364,"Ġà¤ıà¤ķà¤²":1365,"Ġà¤¬à¤¦à¤²":1366,"Ġà¥¨à¥¦à¥Ńà¥¨":1367,"Ġà¤¨à¤Ĩ":1368,"Re":1369,"à¤Łà¤¸":1370,"ĠT":1371,"Ġà¤ıà¤¶":1372,"à¤ĩà¤¨à¤²à¤®":1373,"à¥ĭ...":1374,"Ġà¤īà¤ªà¤ª":1375,"à¤¿à¤ĥ":1376,"ou":1377,"Ġà¤ľà¤¸à¤°":1378,"à¥¤âĢĻ":1379,"Ġà¤°à¤£à¤¨":1380,"Ðµ":1381,"à¤ªà¤¨à¤ķ":1382,"Ð°":1383,"à¤Ńà¤²":1384,"Ġà¤Ńà¤Ĺà¤µ":1385,"Ġà¤°à¤µ":1386,"Ġà¤ıà¤ķà¤ľà¤¨":1387,"à¤ĩà¤ª":1388,"à¤¯à¤®à¤¬":1389,"à¤īà¤²":1390,"Ġà¤īà¤ªà¤¨":1391,"à¤ªà¤Ł":1392,"Ġà¥©à¥©":1393,"à¥ĭâĢĻ":1394,"Ġà¤¤à¤²à¤¬":1395,"Ġà¤ħà¤¥à¤µ":1396,"he":1397,"Ġà¤¶à¤¤":1398,"à¤µà¤°à¤ķ":1399,"Ġà¤¹à¤µ":1400,"à¤®à¤¬à¤¹":1401,"Ġà¤Ŀà¤°":1402,"à¤¶à¤µ":1403,"à¤¸à¤¤":1404,"ic":1405,"Ġà¤«à¤¸":1406,"Ġà¤Ńà¤ıà¤®":1407,"à¤ķà¤°à¤£à¤²":1408,"Ġà¤¶à¤µ":1409,"à¤Ĺà¤¸":1410,"à¥ĭâĢĵ":1411,"Ġà¤¡à¤°":1412,"Ġmore":1413,"à¤īà¤°":1414,"à¤·à¤¯à¤²":1415,"à¤ıà¤«":1416,"à¤°à¤¬à¤¨":1417,"Ġà¥Ńà¥«":1418,"Ġà¤ļà¤¯à¤¨":1419,"à¤¤à¤¹":1420,"à¥Ģ.":1421,"Ġà¤¨à¤Ńà¤ıà¤°":1422,"à¤°à¤µà¤¦":1423,"Ġà¤Ĩà¤ıà¤ªà¤Ľ":1424,"à¤¦à¤¨à¤ķ":1425,"à¤ªà¤ķà¤®à¤²":1426,"Ġà¤¨à¤°à¤¹":1427,"Ġà¤ľà¤¨à¤¶à¤ķ":1428,"ĠA":1429,"Ġà¤ĩà¤¸":1430,"Ġà¥¨à¥¦à¥ª":1431,"Ġà¤¹à¤Ļà¤ķ":1432,"à¥Ńà¥ª":1433,"à¤¨à¤¤à¤®":1434,"à¤Ŀà¤¦":1435,"ĠM":1436,"Ġp":1437,"à¤Ĩà¤®":1438,"à¤°à¤®à¤¹à¤°":1439,"Ġà¤Ľà¤°":1440,"Ġà¤ħà¤ļ":1441,"à¤²à¤ĸ":1442,"à¤ĸà¤¦":1443,"Ġà¤Ľà¤²à¤«":1444,"Ġ20":1445,"à¤µà¤¹":1446,"à¤¸à¤°à¤ķ":1447,"à¤ģ,":1448,"à¤²à¤¯à¤¹à¤°":1449,"Ġà¤§à¤¨à¤Ĺà¤¢":1450,"à¤·à¤¬":1451,"Ġà¤¸à¤®à¤¯à¤ķ":1452,"Ġà¥¯à¥¦":1453,"à¤²à¤¤à¤ķ":1454,"Ð¸":1455,"Ġà¤ıà¤¨à¤Ĩà¤°":1456,"à¤Łà¤µà¤²":1457,"à¤·à¤ķà¤ķ":1458,"à¤·à¤£à¤®":1459,"à¥ĩ)":1460,"Ġà¤ħà¤¸à¤«à¤²":1461,"Ġà¤ªà¤°à¤°":1462,"Ġà¥§à¥¯à¥¯":1463,"à¤¤à¤¨à¤ķ":1464,"Ġa":1465,"Ġà¤¸à¤®à¤¯à¤¦":1466,"Ġs":1467,"Ġà¤Ĩà¤¨à¤¨":1468,"à¤°à¤¹à¤£":1469,"à¤²à¤¯à¤¬":1470,"à¤£à¤ªà¤¤":1471,"à¤µà¤°à¤²":1472,"Ġà¤¦à¤²à¤²":1473,"Ġà¤Ńà¤²":1474,"Ġà¤łà¤Ĺ":1475,"le":1476,"Ġà¤°à¤ļà¤¨":1477,"Ġà¤ħà¤Ł":1478,"à¤Ĺà¤¶":1479,"Read":1480,"Ġà¤ħà¤²à¤Ĺ":1481,"à¤¨à¤¸à¤°":1482,"à¤īà¤£":1483,"à¤ľà¤¨à¤®":1484,"à¤®à¤°à¤£":1485,"à¤ªà¤¶":1486,"Ġà¥¨à¥¦à¥§à¥®":1487,"à¤·à¤¯à¤ķ":1488,"à¤§à¤¨à¤²":1489,"à¤®à¤µ":1490,"Ġà¤ªà¤¸à¤²":1491,"à¤¯à¤°à¤ķ":1492,"Ġà¤Ĺà¤ľ":1493,"Ġà¤ķà¤¸à¤²":1494,"Ġà¤łà¤¹à¤°":1495,"à¤ªà¤¬":1496,"Ġà¤ķà¤¬":1497,"âĢĶ":1498,"à¤°à¤®à¤¶":1499,"ing":1500,"à¤·à¤ķà¤²":1501,"Ġà¤¦à¤°à¤¬":1502,"ÑĤ":1503,"à¤¸à¤¨à¤®":1504,"Ġà¤¨à¤µà¤²":1505,"à¤®à¤¯":1506,"à¤·à¤ªà¤Ľ":1507,"Ġc":1508,"à¤īà¤¤":1509,"Ġà¤ķà¤ªà¤¡":1510,"Ġà¥«à¥«":1511,"Ġà¤¬à¤¹à¤¸":1512,"à¤¨à¤ļ":1513,"à¤°à¤¤à¤¬":1514,"à¥Į,":1515,"à¤²à¤¨à¤²":1516,"Ġà¤¸à¤¡à¤ķà¤ķ":1517,"à¤¡à¤«":1518,"à¤µà¤ļ":1519,"Ġà¤ıà¤£":1520,"à¤Ĺà¤ķà¤°":1521,"à¤·à¤Ń":1522,"à¤µà¤¡":1523,"ha":1524,"à¤¶à¤¤à¤²":1525,"Ġà¤ħà¤ŀ":1526,"Ġà¤ıà¤ķà¤¦à¤®":1527,"à¤·à¤ķà¤¹à¤°":1528,"Ġà¤¸à¤°à¤¸à¤«":1529,"Ġà¤ħà¤¸à¤¹":1530,"à¤§à¤¨à¤®":1531,"à¤¦à¤¶":1532,"à¤¥à¤®à¤¨":1533,"à¥§à¥¦":1534,"à¤¨à¤¥":1535,"âĢĿ,":1536,"à¤µà¤¯à¤¨à¤®":1537,"à¤¬à¤°à¤®":1538,"Ġà¤ľà¤Ł":1539,"à¤¯à¤§":1540,"à¤µà¤¯à¤®":1541,"Ġà¤°à¤¤":1542,"Ġà¤Ķà¤¦":1543,"is":1544,"à¤®à¤¶":1545,"à¤¸à¤Ļ":1546,"à¤µà¤°à¤®":1547,"Ġd":1548,"Ġà¤¸à¤ĺ":1549,"à¤ªà¤¹":1550,"Ġà¤¨à¤¸":1551,"à¤µà¤¸à¤ķ":1552,"Ġà¤¬à¤ķ":1553,"à¥ĩâĢĻ":1554,"à¤¥à¤²à¤ķ":1555,"Ġà¥©à¥¬":1556,"Ð½":1557,"ĠÂ":1558,"Ġà¤¢à¤²":1559,"à¤Łà¤ĺ":1560,"à¤ľà¤¨à¤²":1561,"à¤°à¤Ļ":1562,"à¤ıà¤¸à¤ª":1563,"Ġà¤ĺà¤°à¤¬":1564,"Ġà¤ħà¤¬à¤ķ":1565,"ion":1566,"à¤¯à¤¤à¤®":1567,"à¤¦à¤¨à¤¶":1568,"à¤īà¤¡":1569,"à¤Łà¤°à¤²":1570,"à¤ĩà¤¬":1571,"à¤¸à¤¦à¤®":1572,"ep":1573,"à¤²à¤ķà¤²":1574,"Ġà¤¡à¤Ł":1575,"à¤¯à¤¸à¤°":1576,"Ġà¤¨à¤ĸ":1577,"Ġà¤²à¤Ĺà¤Ńà¤Ĺ":1578,"Ġ)":1579,"à¤µà¤¯à¤¨à¤ķ":1580,"Ġà¤Ńà¤°à¤¤à¤ª":1581,"Ġà¤ħà¤¸à¤®":1582,"Ġà¤²à¤ĺ":1583,"Ġà¤ıà¤«":1584,"à¤ªà¤¥":1585,"à¤¦à¤¯":1586,"à¤£à¤ª":1587,"ĠI":1588,"à¤¦à¤Ĺ":1589,"à¤¤à¤µà¤®":1590,"à¤Ĺà¤¡":1591,"à¤°à¤ķà¤Ł":1592,"à¤¯à¤°à¤²":1593,"ĠB":1594,"à¤Ĺà¤łà¤¨à¤ķ":1595,"Ġf":1596,"Ġà¤ħà¤µà¤²":1597,"Ġà¤°à¤Ĺà¤¤":1598,"Ġà¤ıà¤¨à¤Ĩà¤°à¤ıà¤¨":1599,"Ġà¤¨à¤ļ":1600,"à¤¨à¤Ń":1601,"à¤ĸà¤£":1602,"Ġà¤ħà¤ľ":1603,"à¤µà¤¬":1604,"Ġà¤µà¤¹":1605,"Ġà¥¬à¥«":1606,"à¤°à¤ŀ":1607,"Ġà¤°à¤Ļ":1608,"à¤ļà¤¸":1609,"à¥©à¥¦":1610,"à¤²à¤ªà¤¤":1611,"à¥Ĥ.":1612,"à¤ĩà¤Ń":1613,"à¤·à¤ľ":1614,"à¤Ĺà¤£":1615,"Ġà¤¸à¤®à¤Ŀà¤¦":1616,"Ġà¤ªà¤Ł":1617,"à¤ľà¤ķà¤¤":1618,"Ñģ":1619,"Ġà¤¸à¤Ĺà¤°à¤®":1620,"à¤Ńà¤µà¤¤":1621,"à¤°à¤¶à¤¸":1622,"Ġà¤¯à¤¸à¤ªà¤Łà¤ķ":1623,"Ġà¤ĩà¤ķ":1624,"Ġà¤ĵà¤°":1625,"ÑĢ":1626,"Ġà¤¸à¤Ł":1627,"à¥ĩ.":1628,"à¤¶à¤Ń":1629,"Ġw":1630,"Ġà¤ĵà¤Ń":1631,"Ġà¤Īà¤¨":1632,"à¤ħà¤¸":1633,"à¤ĺà¤°à¤®":1634,"à¤¯à¤®à¤ķ":1635,"à¥Ńà¥©":1636,"à¤Īà¤¦":1637,"à¤¸à¤¦à¤¹à¤°":1638,"ĠD":1639,"Ġà¤īà¤ªà¤ķà¤°à¤£":1640,"à¤¶à¤Ńà¤°":1641,"Ġà¤ıà¤¡":1642,"Ġà¤ĩà¤ľ":1643,"Ġà¤¤à¤¹à¤²":1644,"à¤ķà¤¦":1645,"à¤ļà¤¬":1646,"ent":1647,"à¤ŀà¤µ":1648,"Ġà¤Ĩà¤ĸ":1649,"Ġà¤łà¤ķ":1650,"Ġà¤¨à¤µà¤²à¤ªà¤°":1651,"à¤¤à¤¦":1652,"Ġà¥¨à¥¦à¥§à¥Ń":1653,"à¤µà¤ľ":1654,"à¥ĭ,âĢĻ":1655,"Ġà¤¸à¤°à¤²":1656,"à¤¸à¤¦à¤ķ":1657,"Ġà¤īà¤ªà¤¹":1658,"Ġà¤¥à¤°":1659,"Ġà¤Ĩà¤ªà¤¤":1660,"Ġà¤®à¤ķ":1661,"Ð¾Ð":1662,"Ġà¤¤à¤¬":1663,"à¤ĩà¤¨à¤¨":1664,"Ġà¤¡à¤²":1665,"à¤īà¤Ľ":1666,"Ġà¤²à¤Ĺà¤¤":1667,"à¤ĸà¤¤":1668,"Ġ201":1669,"à¤¤à¤®à¤²":1670,"ed":1671,"Ġà¤¯à¤¸à¤ª":1672,"Ġà¤ĩà¤°":1673,"Ġà¤ķà¤¦à¤®":1674,"à¥Įà¤ģà¥¤":1675,"il":1676,"Ġà¤ļà¤®":1677,"Ġà¥©à¥ª":1678,"à¤¯à¤®à¤²":1679,"à¤ľà¤¹à¤°":1680,"à¤¨à¤¹":1681,"à¤¼":1682,"Ġà¥©à¥Ń":1683,"Ġà¥«à¥§":1684,"à¤¾âĢľ":1685,"à¤¾à¤¾":1686,"à¤ħà¤ª":1687,"Ġ.":1688,"Ġà¤¦à¤«":1689,"à¥Ģà¤Ĥ":1690,"Ġà¥©à¥®":1691,"à¤īà¤¨à¤²":1692,"à¤ģà¥ģ":1693,"à¤¯à¤¶":1694,"as":1695,"à¤ŀà¤¹à¤°":1696,"à¥ĩ...":1697,"à¤ķà¤¹":1698,"Ġà¤ļà¤°à¤£":1699,"Ġà¤Łà¤°":1700,"Ġà¤Ĺà¤ĩà¤°à¤¹":1701,"ĠH":1702,"Ġà¥§à¥¦à¥¦":1703,"à¤¤à¤µà¤¨à¤ķ":1704,"Ġà¤¬à¤ļà¤¤":1705,"à¥ĭà¤Ĥ":1706,"Ġà¤¨à¤¬à¤¨":1707,"à¤Ĩà¤ľ":1708,"à¤ªà¤¨à¤®":1709,"Ġà¥ªà¥¨":1710,"__":1711,"à¥§à¥¯":1712,"à¤°à¤¯à¤¤":1713,"Ġà¤¸à¤®à¤¯à¤¸à¤®":1714,"Ġà¤Łà¤¨":1715,"Ġà¤·":1716,"à¤ģà¥¤":1717,"Ġà¤¸à¤¶à¤ķ":1718,"à¤Łà¤²à¤®":1719,"Ġà¤µà¤²":1720,"à¤ĺà¤¨":1721,"Ġà¤®à¤ķà¤µ":1722,"Ġà¤ħà¤¸à¤²":1723,"Ġ?âĢĻ":1724,"Ġà¤ľà¤¨à¤¯":1725,"âĢĮ":1726,"à¤¯à¤°à¤®":1727,"à¤«à¤®":1728,"Ġà¤¨à¤¨":1729,"Ġb":1730,"com":1731,"à¤¤à¤ķà¤ķ":1732,"à¤¤à¤ľ":1733,"à¤µà¤ķà¤°":1734,"à¤¦à¤¹à¤°":1735,"Ġà¤Īà¤¶":1736,"à¤Īà¤µà¤Ł":1737,"qu":1738,"Ġà¤Ńà¤ĩ":1739,"à¤Īà¤¹à¤°":1740,"Ġà¤ľà¤¬à¤°":1741,"à¤Ĺà¤£à¤¨":1742,"am":1743,"à¤Īà¤¸":1744,"à¤µà¤¸à¤®":1745,"Ġà¤ªà¤ļ":1746,"à¤¯à¤¬à¤¸":1747,"Ġà¤Ĩà¤Ĺà¤²":1748,"ew":1749,"Ġà¤¨à¤·":1750,"epal":1751,"ag":1752,"Ġà¤Ĩà¤¦à¤°":1753,"Ġà¤¹à¤¨":1754,"à¤Īà¤¤":1755,"à¤ĵà¤¸":1756,"Ġà¤ıà¤ķà¤¦":1757,"Ġà¥ªà¥®":1758,"Ġà¥¨à¥¦à¥§à¥¬":1759,"ĠâĢĻ":1760,"à¤¥à¤Ĺ":1761,"el":1762,"Ġà¤¬à¤Ł":1763,"à¤¬à¤¤":1764,"à¤¯à¤ľ":1765,"à¤¸à¤Ĺà¤°":1766,"à¤°à¤ªà¤Ľ":1767,"à¤ľà¤¶":1768,"à¤ħà¤¹":1769,"Ġà¤«à¤²à¤«":1770,"à¤ĺà¤¸":1771,"Ġà¤¹à¤®":1772,"à¤£à¤°":1773,"à¥§à¥«":1774,"à¤¤à¤¡":1775,"à¤°à¤ªà¤¶":1776,"à¥Ģ-":1777,"Ġà¤¦à¤°à¤²":1778,"ï¿":1779,"à¤²à¤ķà¤ķ":1780,"Ġà¤®à¤¦à¤¨":1781,"ï¿½":1782,"à¤°à¤µà¤°":1783,"ãģ":1784,"à¤Ļà¤¬":1785,"Ġo":1786,"à¥Ńà¥¬":1787,"à¤²à¤¬à¤²":1788,"à¤¯à¤ķà¤ķ":1789,"à¥§à¥§":1790,"Ġà¤ªà¤µ":1791,"à¤¹à¤¬":1792,"and":1793,"Ġà¤®à¤ľ":1794,"Ġà¤ħà¤«à¤Ĺ":1795,"à¤®à¤ľ":1796,"à¤®à¤ļà¤¨":1797,"à¤¤à¤°à¤²":1798,"à¤Ĩà¤µ":1799,"Ġà¤¹à¤¦":1800,"à¤¨à¤µà¤Ł":1801,"à¤Łà¤«":1802,"à¤Ĩà¤¨":1803,"ac":1804,"à¤¸à¤ķà¤¹à¤°":1805,"ĠÂ»":1806,"Ġà¤§à¤¨à¤ķ":1807,"Ġà¤°à¤¨à¤ķ":1808,"Ġà¤®à¤ļ":1809,"à¤ķà¤°à¤£à¤®":1810,"Ġà¤ħà¤µà¤¶":1811,"à¤¯à¤®à¤®":1812,"et":1813,"à¤®à¤¹à¤¤":1814,"à¤Ĺà¤Ł":1815,"Ġà¤ıà¤ķà¤ªà¤Łà¤ķ":1816,"Ġà¤¬à¤¯":1817,"à¤¤à¤°à¤¦":1818,"Ġre":1819,"à¤łà¤ķà¤ķ":1820,"à¤¡à¤²à¤ķ":1821,"Ġà¤ªà¤£":1822,"Ġà¥ªà¥ª":1823,"à¥įâĢĵ":1824,"à¤¹à¤¦à¤°à¤¬":1825,"Ġà¥«à¥¨":1826,"à¤°à¤ľà¤¨":1827,"à¤¶à¤ķà¤²":1828,"à¤¯à¤¯à¤¨à¤ķ":1829,"Ġà¤Ĩà¤¸à¤ª":1830,"Ġà¤īà¤ĸ":1831,"Ġà¤Ńà¤°à¤®":1832,"à¤°à¤Ńà¤¨":1833,"à¤ħà¤²":1834,"à¤¯à¤¨à¤ķ":1835,"Ġà¤¹à¤ķà¤®":1836,"à¥§à¥¨":1837,"Ġà¥ªà¥©":1838,"Ġà¤¬à¤Ļ":1839,"Ġà¤ĩà¤Łà¤¹à¤°":1840,"à¤ªà¤¹à¤°":1841,"à¤¨à¤ªà¤Ľ":1842,"ro":1843,"Ġà¤ľà¤¨à¤µ":1844,"Ġà¥©à¥¯":1845,"à¤®à¤ªà¤¨":1846,"à¤¯à¤ľà¤¨":1847,"à¤Īà¤Ł":1848,"à¤¡à¤ªà¤°":1849,"à¤¯à¤¥":1850,"à¤¦à¤¥":1851,"à¤°à¤¸à¤¹":1852,"Ġà¤Ĩà¤ĩà¤¸à¤ķ":1853,"à¤¶à¤°":1854,"Ġà¤Ĩà¤¬à¤¦":1855,"à¤ĩà¤«":1856,"Ġà¥«à¥¬":1857,"à¥ģâĢĻ":1858,"Ġà¤°à¤ľ":1859,"à¤¤à¤¸à¤®":1860,"à¤ıà¤ªà¤¨":1861,"à¤¤à¤°à¤£à¤ķ":1862,"Ġ&":1863,"à¤¸à¤µà¤ķ":1864,"Ġà¤Ńà¤ĩà¤¨":1865,"à¤¿à¥į":1866,"à¤°à¤¤à¤¸":1867,"à¤¯à¤Łà¤ķà¤ķ":1868,"00":1869,"Ġà¤Ĺà¤ıà¤ªà¤Ľ":1870,"à¤ľà¤ķà¤²":1871,"Ġà¤µà¤¤":1872,"un":1873,"Ġà¤¨à¤Ĺ":1874,"à¥Ģà¥¤":1875,"à¤Ĺà¤²à¤®":1876,"à¤¾à¥Ī":1877,"Ġà¤¸à¤¹à¤¸à¤ļ":1878,"Ġà¤¤à¤¸à¤°":1879,"à¤ĩà¤¨à¤®":1880,"Ġà¥ªà¥§":1881,"à¤¯à¤¸à¤Ń":1882,"Ġà¤²à¤¨":1883,"Ġà¤Ŀà¤²":1884,"Ġà¤ħà¤ļà¤®":1885,"à¤¸à¤¦à¤²":1886,"à¥ģ:":1887,"à¤¨à¤ľ":1888,"à¤ĸà¤¹à¤°":1889,"à¤Ĺà¤®à¤²":1890,"à¤µà¤ķà¤²":1891,"Ġà¤Ľà¤²à¤«à¤²à¤®":1892,"ĠF":1893,"à¤ªà¤ª":1894,"Ġà¤Ĩà¤Ń":1895,"Ġà¤ĸà¤²":1896,"Ġà¤§à¤ķ":1897,"à¤¿à¥¤":1898,"Ġà¤ħà¤µà¤ķ":1899,"à¤²à¤¬à¤¹":1900,"à¤²à¤Ĺà¤ŀ":1901,"à¤¸à¤°à¤®":1902,"Ġà¤Ľà¤µ":1903,"Ġà¤ķà¤ļ":1904,"à¤¯à¤¨à¤¸":1905,"Ġà¤Ńà¤ıà¤¸":1906,"à¤¾à¥Īà¤Ĥ":1907,"Ġà¤®à¤¨à¤¸":1908,"Ġà¤¶à¤°à¤£":1909,"à¤®à¤¸à¤®":1910,"Ġà¤ĭà¤·":1911,"Ġà¤¸à¤®à¤ķ":1912,"Ġà¥«à¥®":1913,"ur":1914,"Ġà¤ĵà¤¸":1915,"ĠâĢĿ":1916,"sp":1917,"Ġà¤¤à¤¨à¤¹":1918,"Ġà¥ªà¥¬":1919,"à¥Ńà¥¨":1920,"Ġà¤¬à¤²à¤®":1921,"Ġà¤¨à¤Ĺà¤°à¤ķ":1922,"Ġà¤ĥ":1923,"Ġà¤ķà¤«":1924,"Ġà¤ĵà¤Ŀ":1925,"Ġà¤ĵà¤Ł":1926,"à¤ļà¤¨à¤²":1927,"à¤°à¤ļà¤²à¤¨":1928,"à¤¿âĢĵ":1929,"Ġà¤¬à¤§":1930,"à¤¦à¤¬":1931,"Ġà¤®à¤¨à¤ķ":1932,"à¤¡à¤ª":1933,"à¤£à¤¬à¤¹":1934,"à¥«à¥¦":1935,"Ġà¤¶à¤¹":1936,"à¤ħà¤¬":1937,"Ġà¤ħà¤°à¤¬":1938,"Ġà¤Ĺà¤Ī":1939,"Ġà¥¦à¥¬":1940,"Ġà¤°à¤¹à¤°":1941,"à¤ľà¤°à¤ķ":1942,"à¤¡à¤µ":1943,"Ġà¤ķà¤®à¤°":1944,"à¤£à¤µ":1945,"à¥ĩà¥į":1946,"Ġà¤ļà¤°à¤®":1947,"Ġà¥ªà¥¯":1948,"à¤¨à¤ķà¤°":1949,"Ġà¤Ĺà¤¹à¤¨":1950,"à¤¸à¤®à¤ķ":1951,"à¤·à¤ķà¤®":1952,"à¤Ļà¤Ĺ":1953,"Ġà¤ıà¤ķà¤®":1954,"à¥Ģ...":1955,"Ġà¤ĩà¤ľà¤²":1956,"à¤µà¤¨à¤²":1957,"Ġà¤Ĩà¤ªà¤¸":1958,"à¤¦à¤¨à¤²":1959,"à¤µà¤Ńà¤°":1960,"Ġà¤ĵà¤Ńà¤°à¤®":1961,"à¤ĸà¤¬":1962,"à¤Łà¤µà¤°":1963,"Ġà¤Ľà¤ķ":1964,"Ġà¥«à¥©":1965,"à¤¡à¤¹à¤°":1966,"Ġthe":1967,"à¥ĥà¤Ĥ":1968,"à¤¬à¤Ī":1969,"Ġà¥«à¥ª":1970,"à¤°à¤®à¤¨":1971,"Ġà¥¨à¥¦à¥¨":1972,"à¤·à¤¸":1973,"Ġà¤¦à¤£":1974,"à¥§à¥®":1975,"Ġà¤ĺà¤¡":1976,"à¤²à¤¬à¤ķ":1977,"à¥Įà¤ĤâĢĵ":1978,"Ġà¥®à¥«":1979,"ĠL":1980,"à¤łà¤Ń":1981,"Ġà¤²à¤®à¤ľ":1982,"Ġà¤ıà¤¯à¤°":1983,"à¤ľà¤¤à¤¨":1984,"à¥ĩ-":1985,"Ġà¤Ńà¤Īà¤°à¤¹":1986,"à¤¤à¤ļ":1987,"à¤¥à¤ª":1988,"à¤ķà¤¥":1989,"Ġà¤ķà¤°à¤ķ":1990,"Ġà¤¥à¤²":1991,"Ġà¤Ĺà¤£à¤¨":1992,"à¤°à¤Ĩà¤µ":1993,"Ġà¤Ľà¤ł":1994,"Ġà¤®à¤¤à¤Ĺà¤£à¤¨":1995,"à¤¨à¤¡":1996,"Ġà¤ıà¤¸à¤ª":1997,"à¤Łà¤¬à¤²à¤ķ":1998,"Ġà¤Ĩà¤®à¤¨":1999,"à¤Ĩà¤ıà¤ķ":2000,"à¤¨à¤Ńà¤°":2001,"Ġà¤ıà¤ļ":2002,"Ġà¥¨à¥¦à¥©":2003,"ĠE":2004,"à¥ĭ)":2005,"Ġà¥Ńà¥¨":2006,"à¤°à¤§à¤¨":2007,"à¤ķà¤¡":2008,"à¤īà¤ľ":2009,"Ġà¤¹à¤Ļà¤ķà¤Ļ":2010,"Ġà¥¨à¥¦à¥§à¥«":2011,"à¤ķà¤¤à¤®":2012,"à¤µà¤°à¤£à¤®":2013,"Ġà¤ĩà¤ľà¤°":2014,"Ġà¤ľà¤¯à¤¨":2015,"à¤Ĺà¤®à¤ķ":2016,"à¤°à¤Ĺà¤ŀ":2017,"Ġà¥¨à¥¦à¥Ńà¥§":2018,"ot":2019,"à¤ĩà¤°à¤¹à¤¨":2020,"à¤ªà¤¸à¤®":2021,"à¥įâĢĮ":2022,"Ġà¤Ĺà¤¦":2023,"Ġà¥¬à¥ª":2024,"Ġà¥ªà¥Ń":2025,"Ġà¤ħà¤¨à¤¶à¤¨":2026,"Ġà¥§à¥¯à¥®":2027,"Ġà¤ĵà¤®":2028,"ĠG":2029,"à¤µà¤ķà¤ªà¤®":2030,"à¤¹à¤£":2031,"à¤¡à¤¯à¤¨":2032,"Ġà¤µà¤ľ":2033,"à¥¤âĢĿ":2034,"à¤¨à¤µà¤ħà¤§":2035,"à¤¿âĢĻ":2036,"à¤¶à¤ķà¤ķ":2037,"Ġà¤¬à¤¦":2038,"Ġà¤¦à¤°à¤¬à¤¨":2039,"Ġà¤¨à¤µà¤°":2040,"à¤®à¤Ĺà¤°":2041,"ĠR":2042,"à¥į...":2043,",âĢĿ":2044,"à¥ĭ-":2045,"Ġà¤¹à¤¡":2046,"Ġà¤µà¤¢":2047,"à¤¿...":2048,"à¤ĺà¤®":2049,"Ġà¤¦à¤¹":2050,"ews":2051,"à¤ħà¤Ń":2052,"ĠO":2053,"Ġà¤ĩà¤ŀ":2054,"quo":2055,"Ġà¤ħà¤Ľ":2056,"Ġà¤ľà¤Ĺà¤¤":2057,"Ġà¤®à¤¨à¤ªà¤°":2058,"Ġà¤¸à¤¹à¤¨":2059,"Ġà¤°à¤¹à¤¸":2060,"Ġà¤ıà¤°":2061,"ol":2062,"Ġà¥¬à¥©":2063,"Ġon":2064,"à¤¯à¤ķà¤®":2065,"à¤¦à¤°à¤²":2066,"Ġà¤Ĩà¤īà¤Ł":2067,"Ġà¤īà¤¦à¤¯à¤ª":2068,"à¤Łà¤¸à¤®":2069,"Ġà¤²à¤£":2070,"à¤¯à¤Łà¤ķà¤²":2071,"à¤¹à¤°à¤£à¤ķ":2072,"Ġà¤¦à¤µ":2073,"à¤µà¤ķà¤ªà¤ķ":2074,"Ġà¥«à¥Ń":2075,"à¤²à¤µà¤¸":2076,"Ġà¤Ĺà¤ľà¤²":2077,"Ġà¤¶à¤²":2078,"Ġà¤ĩà¤Ł":2079,"Ð»":2080,"à¤Ńà¤¦":2081,"Ġà¤Ĩà¤µà¤¦":2082,"à¤¹à¤ķà¤²":2083,"à¤°à¤¹à¤µ":2084,"à¤°à¤¸à¤°":2085,"à¤¾'":2086,"squo":2087,"Ġà¤ıà¤¨à¤¸":2088,"à¤²à¤Ļ":2089,"à¤ĩà¤¨à¤ķ":2090,"Ġin":2091,"Ġà¤ķà¤°à¤£":2092,"à¤¾/":2093,"Ġà¤Ĺà¤«":2094,"à¤·à¤Ĺà¤°":2095,"à¥¦à¥¦à¥¦":2096,"Ġà¥¨à¥¦à¥§à¥ª":2097,"Ġà¤¦à¤®à¤ķ":2098,"à¤¶à¤¤à¤ķ":2099,"em":2100,"à¤¶à¤¦":2101,"nb":2102,"à¥ģà¥į":2103,"Ġà¤¸à¤Ĺ":2104,"Ġà¤ħà¤¯":2105,"--":2106,"ch":2107,"à¤¯à¤ķà¤²":2108,"Ġà¥¬à¥¨":2109,"Ġà¤¹à¤ķà¤ª":2110,"à¤¸à¤ķà¤²":2111,"à¤¦à¤¸":2112,"Ġà¤¢à¤Ļ":2113,"à¥ĤâĢĵ":2114,"à¥ģâĢĵ":2115,"Ġà¤ħà¤²à¤ªà¤¤":2116,"à¤µà¤¤à¤ķ":2117,"à¥ĭ?":2118,"à¤·à¤¦à¤ķ":2119,"Ġà¤¡à¤°à¤²":2120,"à¤¶à¤ª":2121,"à¤·à¤¯à¤¹à¤°":2122,"Ġà¥«à¥¯":2123,"Ġà¤ĩà¤£":2124,"à¤°à¤¸à¤°à¤ķ":2125,"à¥į,âĢĻ":2126,"Ġà¤µà¤¸à¤¨":2127,"à¤ļà¤¯à¤ªà¤¤":2128,"à¤Ļà¤¸":2129,"Ġà¤ķà¤¦":2130,"Ġà¤¹à¤²à¤®":2131,"à¥§à¥¬":2132,"Ġà¤ľà¤Ļ":2133,"Ġà¤¨à¤µà¤¨":2134,"Ġà¤¶à¤¹à¤°à¤®":2135,"Ġof":2136,"Ġà¤ĺà¤²":2137,"Ġà¤¸à¤¬à¤Ńà¤¨":2138,"Ġà¤ħà¤£":2139,"ay":2140,"Ġà¤īà¤ªà¤ķ":2141,"à¤¶à¤ķà¤¹à¤°":2142,"Ġà¤Ĩà¤ĩà¤¸":2143,"à¤µà¤¸à¤¨":2144,"ww":2145,"Ġà¤ıà¤Ł":2146,"à¤¯à¤¤à¤¯":2147,"à¤£à¤¬":2148,"Ġà¤ľà¤¨à¤ļ":2149,"Ġà¤¡à¤¡":2150,"à¤Ĺà¤µ":2151,"Ġn":2152,"à¤ķà¤¨à¤ķ":2153,"à¤°à¤Ĺà¤¨":2154,"Ġà¥¨à¥¦à¥Ńà¥¦":2155,"à¤²à¤ķà¤¹à¤°":2156,"ation":2157,"à¤ĸà¤²à¤¢":2158,"à¸":2159,"à¤®à¤¤à¤ķ":2160,"nbsp":2161,"à¤¯à¤Ń":2162,"Ġà¤ķà¤·":2163,"Ġà¤ıà¤ķà¤¸":2164,"Ġà¤ľà¤¨à¤µà¤°":2165,"Ġà¥¯à¥«":2166,"Ġà¥Ńà¥ª":2167,"Ġà¤ħà¤µà¤²à¤®":2168,"à¤¹à¤ķà¤¹à¤°":2169,"Ġà¤Ĳà¤¨à¤ķ":2170,"à¤Ĺà¤łà¤¨à¤²":2171,"Ġà¤ıà¤¯à¤°à¤²":2172,"à¤°à¤¹à¤ķ":2173,"à¤¨à¤ħà¤ĺ":2174,"à¤¦à¤£":2175,"à¥Įà¥¤":2176,"à¤ħà¤Ĺ":2177,"à¤Ĩà¤¤":2178,"Ġà¤ļà¤Ł":2179,"à¤ķà¤Łà¤ķ":2180,"Ġà¥«à¥¦à¥¦":2181,"Ġà¤¸à¤²à¤®":2182,"à¤¯à¤®à¤¹à¤°":2183,"à¤Ĺà¤®à¤¨à¤ķ":2184,"à¤īà¤Ľà¤¨":2185,"à¤¥à¤¸":2186,"Ġà¥¬à¥¬":2187,"Ġà¤ªà¤ª":2188,"Ġà¤ªà¤¹à¤²à¤®":2189,"à¤ķà¤¶":2190,"Ġà¤¨à¤Ńà¤ıà¤ªà¤Ľ":2191,"Ġà¤Ŀà¤Ĺà¤¡":2192,"à¤Ĩà¤īà¤Ł":2193,"ĠK":2194,"Ġà¤ħà¤®à¤°":2195,"à¤¨à¤ħà¤¨":2196,"à¤Īà¤ľ":2197,"Ġà¤ĺà¤°à¤ªà¤°":2198,"Ġà¤¨à¤Ńà¤¨":2199,"à¤°à¤ļà¤²":2200,"à¤µà¤¨à¤¸":2201,"Ġà¤¥à¤ķ":2202,"à¤ıà¤ļ":2203,"à¤Ĺà¤²à¤ķ":2204,"à¤ªà¤ªà¤Ľ":2205,"Ġà¤°à¤¦":2206,"à¤īà¤¨à¤®":2207,"Ġà¤ĵà¤ĸà¤²à¤¢":2208,"Ġà¥¬à¥®":2209,"à¤¸à¤µà¤®":2210,"à¥¨à¥«":2211,"ir":2212,"Ġà¤¬à¤¸à¤¨":2213,"à¤¯à¤¯à¤¨à¤°à¤¤":2214,"Ġà¤ĸà¤ªà¤¤":2215,"Ġà¥Ńà¥¬":2216,"Ġà¤¨à¤Ľ":2217,"à¤ıà¤¨à¤ı":2218,"à¤ªà¤¯à¤²":2219,"Ġà¤Ĩà¤°à¤ķ":2220,"Ġà¤¦à¤¶à¤®":2221,"à¤°à¤£à¤¸à¤Ń":2222,"us":2223,"Ġà¤¯à¤ľ":2224,"Ġ3":2225,"à¤°à¤¸à¤Ļ":2226,"Ġà¤ħà¤ªà¤®":2227,"à¤¦à¤ª":2228,"à¤°à¤®à¤¬":2229,"à¤¤à¤ķà¤²":2230,"Ġà¤ħà¤ªà¤¹à¤°à¤£":2231,"à¥§à¥ª":2232,"à¤Łà¤°à¤¹à¤°":2233,"à¤ĩà¤ı":2234,"Ġà¥Ńà¥Ń":2235,"id":2236,"Ġà¥Ńà¥©":2237,"Ġà¤ªà¤łà¤¨":2238,"à¤¸à¤ķà¤ķ":2239,"à¥įâĢĻ":2240,"à¤²à¤ļ":2241,"à¤®à¤¦à¤¤":2242,"Ġà¤®à¤¨à¤²":2243,"Ġà¤²à¤¤":2244,"Ġà¤Ĺà¤ļ":2245,"à¤Łà¤°à¤«":2246,"Ġà¤ľà¤¨à¤Ĩà¤¨":2247,"ig":2248,"à¤¨à¤¬à¤¹":2249,"à¤°à¤¨à¤Ĺà¤°":2250,"à¤¦à¤Ń":2251,"Ġà¤ľà¤¯":2252,"à¤īà¤¥":2253,"ĠW":2254,"à¤¨à¤ľà¤¨":2255,"à¤Łà¤°à¤¬":2256,"à¤ĺà¤Ł":2257,"à¤°à¤Ńà¤°":2258,"à¤ĵà¤¬":2259,"à¥Ńà¥¦":2260,"à¤ķà¤®à¤ķ":2261,"à¤§à¤ª":2262,"im":2263,"Ġà¤®à¤¹à¤¶":2264,"Ġà¤ħà¤¬à¤¸":2265,"Ġà¤Ńà¤¬":2266,"à¤Łà¤²à¤ķ":2267,"à¤¸à¤¤à¤®":2268,"Ġà¥¬à¥§":2269,"Ġà¤ĵà¤²à¤®":2270,"à¤Īà¤°à¤¹":2271,"Ġà¥¯à¥¯":2272,"Ġà¤Ķà¤¸à¤¤":2273,"Ġà¥®à¥®":2274,"à¤Ķà¤·à¤§":2275,"à¤·à¤£à¤²":2276,"ĠNepal":2277,"à¤ľà¤°à¤²":2278,"Ġà¤²à¤¸":2279,"Ġà¤Ķà¤ļ":2280,"Ġà¤ľà¤¨à¤¸à¤®":2281,"Ġà¤®à¤Ĺà¤°à¤²":2282,"Ġà¤łà¤®":2283,"à¤ıà¤²à¤¸":2284,"à¤Īà¤¬":2285,"Ġà¤ıà¤Ńà¤°":2286,"Ġà¤Ĩà¤ķà¤¸":2287,"à¤¾à¤ĥ":2288,"à¤²à¤Ĺà¤¨":2289,"Ġà¤ıà¤®à¤¬":2290,"Ġà¤Ĩà¤ľà¤¸à¤®":2291,"Ġh":2292,"Ġà¤ľà¤¥":2293,"Ġà¤īà¤ªà¤¸à¤Ń":2294,"à¥Įà¤Ĥ,âĢĻ":2295,"à¤°à¤Ļà¤ķ":2296,"Ġà¥¨à¥¦à¥¦à¥Ń":2297,"à¤¨à¤Ĺà¤°à¤ķ":2298,"Ġand":2299,"à¤¿)":2300,"Ġà¥®à¥ª":2301,"à¥Ģ'":2302,"Ġà¥¤'":2303,"Ġà¥Ńà¥®":2304,"ow":2305,"à¤£à¤¯à¤²":2306,"à¤²à¤Ĺà¤¤":2307,"Ġà¤īà¤ªà¤¸à¤®":2308,"Ġà¤ªà¤¸à¤²à¤®":2309,"Ġà¥¯à¥®":2310,"à¤µà¤¨à¤¶":2311,"à¤µà¤²à¤®":2312,"Ġà¤ķà¤²à¤®":2313,"Ġà¤Ĩà¤¯à¤²":2314,"Ġà¤īà¤ªà¤®":2315,"à¥ĩ,âĢĺ":2316,"Ġà¤²à¤¹":2317,"Ġà¤Ĩà¤¬":2318,"à¤¯à¤Łà¤ķà¤¹à¤°":2319,"Ġà¥¬à¥Ń":2320,"à¤¤à¤ķà¤®":2321,"à¥§à¥Ń":2322,"à¤Ĺà¤ª":2323,"Ġà¤ľà¤¬à¤ķ":2324,"Ġà¤ªà¤Łà¤ķà¤ķ":2325,"Ġà¤īà¤ªà¤µ":2326,"ost":2327,"à¤µà¤ķà¤ķ":2328,"à¤¯à¤¯à¤¨à¤²":2329,"Ġà¤¦à¤¯":2330,"Ġà¤¹à¤¦à¤¸à¤®":2331,"à¤ĩà¤¹à¤°":2332,"Ġà¥¤...":2333,"Ġà¤¤à¤°à¤²":2334,"Ġà¤Ńà¤µà¤¨à¤ķ":2335,"à¤¨à¤¸à¤¹":2336,"à¤ľà¤¯à¤ķ":2337,"Ġà¤Ńà¤µà¤¨à¤®":2338,"à¤¯à¤¸à¤¹":2339,"à¤¦à¤µà¤ķ":2340,"Ġà¤ĸà¤¬":2341,"Ġà¤¯à¤®":2342,"Ñĥ":2343,"à¥§à¥©":2344,"iv":2345,"à¤¯à¤²à¤ķ":2346,"à¤¹à¤µ":2347,"Ġà¤°à¤ķà¤®à¤ķ":2348,"à¤¤à¤¨à¤²":2349,"Ġà¥¨à¥¦à¥§à¥©":2350,"Ġto":2351,"ul":2352,"Ġà¤Ĩà¤ľà¤¦":2353,"Ġà¥§à¥¯à¥¬":2354,"Ġà¤®à¤ľà¤¬":2355,"à¤ļà¤¤":2356,"à¤£à¤¯à¤ķ":2357,"Ðº":2358,"ĠRead":2359,"à¤¹à¤²à¤ª":2360,"ers":2361,"à¤ĩà¤Łà¤®":2362,"Ġà¤ªà¤®":2363,"Ġà¤Ńà¤Ĺà¤µà¤¤":2364,"Ġà¤¡à¤ķ":2365,"à¤ľà¤¦à¤°":2366,"Ġà¤Ĳà¤¨à¤®":2367,"Ġà¤Ĩà¤°à¤®":2368,"Ġà¤ªà¤Łà¤ķà¤ªà¤Łà¤ķ":2369,"à¤·à¤¯à¤µà¤¸":2370,"Ġà¤ļà¤ª":2371,"à¤«à¤°à¤ķ":2372,"Ġà¤ªà¤¬":2373,"Ġà¤²à¤¹à¤°":2374,"Ġà¥¬à¥¯":2375,"Ġà¤Ĩà¤ªà¤¸à¤®":2376,"Ġà¥®à¥©":2377,"Ġà¤¨à¤Ĩà¤ıà¤ķ":2378,"à¤¾à¤ģ,":2379,"ĠâĢ¢":2380,"à¤¶à¤Ńà¤°à¤ķ":2381,"Ġà¤¹à¤®à¤²":2382,"Ġà¤ĩà¤¶":2383,"Ġà¤ļà¤²à¤ĸ":2384,"Ġà¤Ĩà¤Īà¤ª":2385,"à¤¯à¤Łà¤¨à¤ķ":2386,"à¤¤à¤Ĺà¤¤":2387,"Ġà¥®à¥¨":2388,"Ġà¥¨à¥¦à¥¬à¥ª":2389,"à¤Łà¤¤":2390,"Ġà¥¨à¥¦à¥¬à¥®":2391,"Ġà¤ľà¤®à¤°":2392,"à¥ĩ?":2393,"Ġà¤Ńà¤°à¤ªà¤°":2394,"Ġà¤ľà¤²à¤¸":2395,"à¤°à¤µà¤Ł":2396,"ct":2397,"à¤ķà¤°à¤²":2398,"Ġà¤ľà¤¨à¤®à¤¤":2399,"à¤¦à¤¦":2400,"à¤¨à¤Ľ":2401,"à¤£à¤¹à¤°":2402,"à¤Ľà¤¦":2403,"à¤Ĩà¤¯":2404,"à¤¨à¤¯à¤¨":2405,"Ġe":2406,"à¤°à¤®à¤£à¤²":2407,"à¤ķà¤Łà¤®":2408,"Ġà¤¶à¤Ļ":2409,"oo":2410,"ĠJ":2411,"à¤Ńà¤¤":2412,"Ġà¤ķà¤¯":2413,"à¤¯à¤Ļ":2414,"à¥ģ-":2415,"à¤¹à¤ª":2416,"Ġà¤ľà¤¨à¤¸à¤Ļ":2417,"à¤°à¤£à¤¹à¤°":2418,"Ġà¤Ĩà¤µà¤ķ":2419,"à¤ħà¤®":2420,"Ġà¤¶à¤®":2421,"Ġà¥Ńà¥§":2422,"Ġread":2423,"à¤ıà¤Ī":2424,"Ġà¤¸à¤¡à¤ķà¤ĸà¤£":2425,"Ġà¤ĸà¤Ĺ":2426,"à¤¦à¤°à¤¤":2427,"à¤Ĺà¤¬à¤¹":2428,"à¤¤à¤¹à¤¤":2429,"à¤¤à¤°à¤¬":2430,"Ġà¤ıà¤¸à¤ıà¤²à¤¸":2431,"ÅĴ":2432,"Ġà¤¡à¤²à¤°à¤ķ":2433,"à¤Łà¤¨à¤ķ":2434,"Ġà¤®à¤¤à¤ªà¤¤":2435,"Ġà¥¨à¥¦à¥§à¥¨":2436,"áĥ":2437,".....":2438,"à¤¤à¤°à¤µ":2439,"à¤²à¤Ł":2440,"ment":2441,"Ġà¤¸à¤¹à¤°à¤®":2442,"à¤¿à¤¾":2443,"à¥ĩà¤ģ,":2444,"à¤ĩà¤²à¤®":2445,"à¤ĵà¤²":2446,"Ġà¤²à¤ľ":2447,"Ġà¤¸à¤¬à¤²":2448,"à¤Īà¤ľà¤¨":2449,"Ġà¤¸à¤¤à¤°":2450,"à¤ĸà¤¸à¤®":2451,"à¤¤à¤°à¤°":2452,"à¤ıà¤¸à¤®":2453,"à¤·à¤Ńà¤¨":2454,"à¤¤à¤°à¤Ĺà¤¤":2455,"à¤¹à¤¨à¤¤":2456,"Ġà¤Ĩà¤Īà¤¸":2457,"Ġà¤ıà¤ķà¤ħà¤°":2458,"à¤ĩà¤¬à¤°":2459,"Ġà¥®à¥¬":2460,"à¤¦à¤°à¤Ĺ":2461,"Ġà¤¬à¤¸à¤ª":2462,"Ġà¤Ľà¤²à¤«à¤²à¤ķ":2463,"Ġà¤«à¤¡":2464,"à¥įà¥į":2465,"à¤²à¤¡":2466,"à¤ķà¤¬à¤¹":2467,"à¤Ĩà¤Īà¤ľ":2468,"Â«":2469,"à¤¤à¤ķà¤¹à¤°":2470,"à¤ªà¤¨à¤²":2471,"à¤¬à¤ľà¤¨":2472,"à¤¹à¤ľ":2473,"à¤Ĺà¤²à¤µ":2474,"Ġà¥¨à¥¦à¥¬à¥©":2475,"Ġà¤·à¤¡":2476,"Ġà¤īà¤ªà¤¦":2477,"à¤µà¤£":2478,"à¤Ĩà¤¬":2479,"à¤¶à¤¤à¤®":2480,"à¤°à¤²à¤Ĺ":2481,"à¤¡à¤¤":2482,"à¤¸à¤¸à¤®":2483,"Ġà¤łà¤ª":2484,"Ġà¤ĺà¤°à¤¹à¤°":2485,"à¤°à¤ķà¤²":2486,"Ġà¤ĩà¤Ń":2487,"Ġà¤Ľà¤¤":2488,"à¤°à¤¤à¤°":2489,"Ġà¤¬à¤Ŀ":2490,"à¤¤à¤ķà¤°":2491,"à¤ķà¤¸à¤®":2492,"Ġà¤¨à¤Ńà¤ıà¤¸à¤®":2493,"à¤Ńà¤ıà¤¨":2494,"____":2495,"Ġà¤¤à¤Ł":2496,"à¤¥à¤²à¤¬":2497,"à¤Ĩà¤ĩ":2498,"à¤¯à¤£à¤Ĺà¤¢":2499,"Ġà¤Ĩà¤īà¤¦":2500,"Ġà¤µà¤¨à¤¸":2501,"Ġà¤°à¤¬":2502,"Ġà¤īà¤¬":2503,"à¤¶à¤¤à¤Ńà¤¨":2504,"à¤Īà¤ª":2505,"à¤¡à¤¦":2506,"Ġà¤ħà¤Ĺà¤¸":2507,"à¤ķà¤Ń":2508,"à¤¯à¤¨à¤²":2509,"à¥įà¤¾":2510,"out":2511,"à¤¯à¤£à¤ķ":2512,"à¤¸à¤Ł":2513,"Ġà¤ħà¤²à¤®":2514,"Ġà¤¨à¤Ĩà¤īà¤¨":2515,"Ġà¤Ĺà¤Ńà¤°":2516,"à¤ĩà¤°à¤²":2517,"Ġà¤ĺà¤°à¤¦":2518,"à¤§à¤¹à¤°":2519,"à¤ľà¤¨à¤¤":2520,"Ġà¤¶à¤¹à¤°à¤ķ":2521,"Ġà¤®à¤¡":2522,"Ġà¥¨à¥¦à¥§à¥§":2523,"à¤¹à¤¹à¤°":2524,"à¤¨à¤¶":2525,"Ġà¤¨à¤¹à¤°":2526,"à¤¯à¤¸à¤ħà¤ĺ":2527,"à¤ıà¤¸à¤¨":2528,"Ġà¤ķà¤¸à¤ķ":2529,"Ġà¤¶à¤°à¤¦":2530,"ine":2531,"à¤ļà¤²à¤ķ":2532,"à¤īà¤¤à¤²":2533,"ut":2534,"Ġà¤ĸà¤ª":2535,"à¤ľà¤Ĺà¤¢":2536,"à¤²à¤§":2537,"à¤ľà¤Ń":2538,"Ġà¥Ńà¥¯":2539,"à¤¤à¤ľà¤¨":2540,"à¤ªà¤°à¤¬":2541,"Ġà¥¯à¥©":2542,"à¤¡à¤²à¤®":2543,"à¤ĩà¤µ":2544,"Ġà¤°à¤¨à¤®":2545,"à¤¿:":2546,"Ġà¤¯à¤ķ":2547,"à¤ĵà¤ķ":2548,"à¤²à¤¶":2549,"Ġà¤Ĩà¤¸à¤¨":2550,"ak":2551,"Ġà¥¨à¥¦à¥§à¥¦":2552,"à¤ªà¤ķà¤°":2553,"à¤ªà¤°à¤ķ":2554,"Ġà¤Ĩà¤ĩà¤¤à¤µ":2555,"à¤Īà¤°":2556,"Ġà¤ĺà¤°à¤§":2557,"Ġà¤ķà¤£":2558,"Ġ2018":2559,"lo":2560,"Ġà¤ħà¤ł":2561,"à¤¡à¤¨à¤ķ":2562,"Ġà¤¶à¤¶":2563,"à¤¶à¤¤à¤¸à¤®":2564,"Ġà¥¯à¥ª":2565,"Ġà¥¯à¥¬":2566,"à¥Ńà¥§":2567,"à¤²à¤¯à¤¨":2568,"à¤°à¤£à¤¬":2569,"Ġà¤ħà¤¸à¤¹à¤®à¤¤":2570,"Ġà¤ħà¤µà¤¤à¤°à¤£":2571,"à¤ªà¤¡":2572,"Ġà¤ħà¤¨à¤®":2573,"à¤¨à¤Ĺ":2574,"Ġà¤®à¤®":2575,"Ġà¤ĺà¤°à¤Ń":2576,"ĠIn":2577,"Ġg":2578,"à¥Ģ/":2579,"Ġà¥¯à¥¨":2580,"à¤·à¤ª":2581,"Ġà¤ıà¤¸à¤ıà¤¸à¤ª":2582,"à¤²à¤²à¤Ĺ":2583,"à¤°à¤¹à¤®":2584,"à¤¤à¤®à¤ķ":2585,"Ġà¤¸à¤®à¤¯à¤¸":2586,"ap":2587,"Ġv":2588,"à¤¡à¤²à¤²":2589,"Ġà¤ıà¤ķà¤Ľ":2590,"ĠU":2591,"Ġà¤ĩà¤Ļ":2592,"à¥ĭà¥¤âĢĻ":2593,"à¤¯à¤¨à¤ľà¤°":2594,"à¤Łà¤¬à¤²à¤®":2595,"Ġà¤«à¤¨":2596,"à¤ıà¤Ľ":2597,"Ġà¤¶à¤ªà¤¥":2598,"ĠV":2599,"op":2600,"à¤·à¤°à¤¤":2601,"Ġà¤®à¤Ŀ":2602,"Ġà¤ħà¤«à¤°":2603,"Ñı":2604,"Ġà¥®à¥§":2605,"à¤Ĺà¤łà¤¨à¤¹à¤°":2606,"Ġà¥¨à¥¦à¥¨à¥¦":2607,"à¤®à¤ĺ":2608,"à¤¯à¤ķà¤µ":2609,"à¤°à¤ķà¤°à¤£à¤®":2610,"Ġà¥®à¥Ń":2611,"à¥ĩà¤Ĥ,":2612,"Ġà¤¸à¤ĸ":2613,"Ġà¥¨à¥¦à¥¬à¥¯":2614,"Ġà¤°à¤ĺ":2615,"à¤Ļà¤¦":2616,"Ġà¤¡à¤®":2617,"à¤·à¤¯à¤¤":2618,"Ġà¤¸à¤®à¤¯à¤ªà¤Ľ":2619,"à¥¦à¥¬":2620,"Ġà¤Ńà¤ıà¤¤":2621,"Ġà¤Ĳà¤¨à¤²":2622,"Ġà¤¨à¤ľà¤°":2623,"à¤²à¤¯à¤¸":2624,"à¤¾âĢĿ":2625,"Ġà¤ĵà¤Ńà¤°":2626,"Ġà¥¨à¥¦à¥¬à¥¨":2627,"à¤¦à¤¶à¤¨":2628,"à¥¤'":2629,"Ġà¥¦à¥«":2630,"Ġà¥¨à¥¦à¥ªà¥¬":2631,"à¤¸à¤«":2632,"à¤īà¤¹":2633,"à¤ĸà¤Ńà¤¨":2634,"Ġà¤ħà¤¨à¤¸à¤¨":2635,"Ġà¥¤à¥¤":2636,"à¤«à¤¦":2637,"Ġà¤ľà¤¸à¤®à¤§":2638,"à¤°à¤®à¤£à¤¬":2639,"Ġà¤¸à¤°à¤¹":2640,"Ġà¤§à¤°à¤¹à¤°":2641,"Ġà¥¯à¥§":2642,"Ġà¤¥à¤¨":2643,"à¤¿-":2644,"os":2645,"',":2646,"Ġ?âĢĿ":2647,"à¤°à¤¬à¤°":2648,"à¤ıà¤®à¤Ī":2649,"Ġà¤Łà¤¸":2650,"à¤°à¤¸à¤ŀ":2651,"à¤¥à¤¤":2652,"Ġà¤®à¤¹ÅĴ":2653,"à¤Īà¤¨à¤²":2654,"à¤¯à¤¬à¤¹":2655,"Ġà¤ķà¤¦à¤°":2656,"Ġà¤Ńà¤ĩà¤°à¤¹à¤¨":2657,"à¤ķà¤°à¤ķ":2658,"Ġà¤°à¤ľà¤¤":2659,"Ġà¤µà¤ŀ":2660,"ãĤ":2661,"à¤¹à¤ķà¤ķ":2662,"Ġà¤Ĩà¤µà¤®":2663,"à¥ĭ.":2664,"Ġà¤Ĩà¤Ĩà¤«":2665,"à¤£à¤¯à¤®":2666,"à¤¥à¤²à¤Ĺà¤¤":2667,"à¥ªà¥«":2668,"à¤¾(":2669,"Ġà¤«à¤ķ":2670,"Ð°Ð":2671,"à¤°à¤«à¤²":2672,"à¤Ńà¤ªà¤¤":2673,"à¥ĩà¤ģà¥¤":2674,"Ġà¤Ķà¤²":2675,"Ġà¥¨à¥¦à¥¦à¥®":2676,"Ġà¤¸à¤®à¤¯à¤²":2677,"à¤²à¤ľ":2678,"ov":2679,"Ġà¤ªà¤łà¤¨à¤ª":2680,"à¤ķà¤ľ":2681,"Ñĭ":2682,"Ġà¤ĵà¤Ĺà¤Ł":2683,"Ġà¤īà¤Ĺ":2684,"Ġà¤¨à¤²à¤Ĺ":2685,"Ġà¤Ńà¤Īà¤¸à¤ķ":2686,"à¤²à¤¹":2687,"!!":2688,"Ġà¤°à¤ļ":2689,"à¤Ńà¤°à¤¤":2690,"Ġà¤ħà¤µà¤¸à¤°à¤ķ":2691,"Ġà¤ĵà¤ªà¤¨":2692,"Ġà¤īà¤§":2693,"à¤ĺà¤°à¤ķ":2694,"à¤¥à¤¶":2695,"Ġà¤ħà¤¨à¤¨":2696,"Ġà¥®à¥¯":2697,"Ġà¤ľà¤¬à¤°à¤ľà¤¸":2698,"à¤¥à¤¹à¤°":2699,"Ġ4":2700,"à¤§à¤¨à¤¬":2701,"à¤°à¤®à¤¸":2702,"à¤µà¤°à¤£à¤ķ":2703,"ĠNews":2704,"Ġà¤®à¤¤à¤²":2705,"Ġà¤ĩà¤¨à¤°":2706,"Ġà¤Ĺà¤Ĺà¤¨":2707,"à¤Ĺà¤ħà¤¨":2708,"à¤·à¤¯à¤Ĺà¤¤":2709,"à¤ľà¤¹":2710,"à¤¶à¤®à¤¨":2711,"Ġà¤¸à¤¯à¤Ńà¤¨":2712,"Ġ5":2713,"ab":2714,"à¤¯à¤ªà¤¤":2715,"Ġà¤Ĩà¤ªà¤°":2716,"Ġà¤ªà¤¦à¤¯":2717,"Ġth":2718,"à¤Łà¤¨à¤Ĺà¤°à¤®":2719,"à¤¤à¤¯":2720,"à¤µà¤ķà¤¹à¤°":2721,"Ġà¤¬à¤ŀ":2722,"Ġà¤ªà¤ĸ":2723,"Ġà¤Łà¤ķ":2724,"à¤ĩà¤ļ":2725,"à¤Ĺà¤°à¤£":2726,"Ġà¤¨à¤ļà¤²":2727,"à¤¶à¤¨à¤¬":2728,"à¥Īà¥¤":2729,"Ġà¤Ĩà¤Īà¤¤à¤¬":2730,"th":2731,"à¤Ŀà¤ķ":2732,"à¥į-":2733,"Ġà¤Ĺà¤¢":2734,"à¤Ĺà¤¸à¤®":2735,"Ġà¤Ĺà¤łà¤¨à¤ķ":2736,"lsquo":2737,"Ġà¤¨à¤¬à¤¢":2738,"):":2739,"à¤²à¤¨à¤¬":2740,"à¤ªà¤¸à¤ķ":2741,"à¤ŀà¤ķ":2742,"Ø§":2743,"à¤ĸà¤ķà¤²":2744,"Ġà¤¸à¤¹à¤°à¤ķ":2745,"Ġà¤¨à¤Ł":2746,"à¤¤à¤µà¤¨à¤®":2747,"ip":2748,"Ġà¤Łà¤ª":2749,"Ġà¤Ĩà¤Ĺà¤®à¤¨":2750,"........":2751,"Ġà¤īà¤ªà¤¸à¤ļ":2752,"à¤¾:":2753,"à¤¯à¤¦à¤²":2754,"Ġà¤°à¤ŀ":2755,"Ġà¤µà¤¨à¤ķ":2756,"nd":2757,"Ġà¤¦à¤¶à¤ķà¤®":2758,"Ġà¤¦à¤®à¤¨":2759,"Ġà¥¯à¥Ń":2760,"Ġà¤ªà¤¡":2761,"à¤¸à¤®à¤®":2762,"à¥ªà¥¦":2763,"à¤¤à¤¹à¤¤à¤ķ":2764,"ome":2765,"Ġà¤¯à¤¨":2766,"à¤Ńà¤²à¤ªà¤®":2767,"Ġà¤¸à¤¹à¤ľà¤¤":2768,"à¤¯à¤¸à¤®à¤§":2769,"à¥ģ)":2770,"à¤Ĺà¤²à¤²":2771,"à¥ĩà¤Ĥà¥¤":2772,"Ġà¤ĸà¤®":2773,"Ġà¤ıà¤¨à¤Ĩà¤°à¤ıà¤¨à¤ı":2774,"Ġà¤ħà¤ĸà¤£":2775,"à¤ĸà¤¨à¤¨":2776,"Ġà¤¤à¤°à¤²à¤¤":2777,"à¤¤à¤¬à¤¹":2778,"à¤ĩà¤ıà¤¨":2779,"Ġà¤¬à¤¦à¤¨":2780,"à¤Ŀà¤®":2781,"à¤ķà¤ħà¤¨":2782,"à¤¤à¤¹à¤Ł":2783,"à¤µà¤Ĺ":2784,"Ġà¤ªà¤¦à¤¬":2785,"Ġà¤¤à¤¹à¤¬":2786,"à¤ĩà¤¹":2787,"à¤¯à¤¸à¤¤":2788,"mà¤¨":2789,"Ġà¤®à¤Ĺ":2790,"à¤Ľà¤¡":2791,"à¤§à¤°à¤²":2792,"à¤¯à¤°à¤§à¤¨":2793,"Ġà¤¤à¤¹à¤¸à¤®":2794,"à¤Łà¤¯":2795,"à¤¬à¤¢":2796,"Ġà¤ķà¤²à¤ķ":2797,"à¤Łà¤ķà¤ķ":2798,"à¤²à¤¤à¤¬":2799,"à¤ıà¤¤":2800,"Ġà¤Īà¤²":2801,"Ġà¤Ĩà¤Ļ":2802,"Ġà¤ħà¤¥":2803,"à¤ķà¤¤à¤°":2804,"à¤¨à¤²à¤Ĺ":2805,"Ġà¥©à¥¦à¥¦":2806,"à¤ķà¤Ńà¤°":2807,"um":2808,"à¤¤à¤°à¤£à¤®":2809,"Ġà¥§à¥«à¥¦":2810,"ÐµÐ":2811,"Ġà¤¬à¤¸à¤®":2812,"à¤Īà¤¡":2813,"Ġà¤ªà¤°à¤¦":2814,"à¤¬à¤²à¤ķ":2815,"Ġà¤ĭà¤¤":2816,"Ġà¤²à¤ĸ":2817,"à¥įà¥ģ":2818,"à¤¯à¤¯à¤¨à¤®":2819,"à¤²à¤¬à¤¨":2820,"à¤°à¤µà¤¨":2821,"à¤¾à¥į":2822,"à¤¤à¤Ńà¤°":2823,"Ġà¤¨à¤¶":2824,"ter":2825,"Ġà¥§à¥¯à¥«":2826,"à¤ľà¤ķà¤ķ":2827,"à¤¯à¤¦à¤²à¤²":2828,"à¤£à¤¯à¤¹à¤°":2829,"ist":2830,"Ġà¤²à¤¯":2831,"à¤¨à¤ªà¤°":2832,"à¤¾à¤ģà¥Ī":2833,"Ġà¤ļà¤¤":2834,"ĠThe":2835,"Ġà¤ıà¤ķà¤ľ":2836,"Ġà¤Ĩà¤¤à¤Ļ":2837,"Ġà¤Ĩà¤ľà¤Ń":2838,"à¥Įà¤Ĥ-":2839,"Ġy":2840,"à¤¥à¤¬":2841,"20":2842,"à¤°à¤«à¤²à¤®":2843,"Ġà¤īà¤ªà¤²à¤µ":2844,"à¥¨à¥©":2845,"à¤§à¤¸":2846,"à¤īà¤ļ":2847,"Ġà¤²à¤Ń":2848,"à¥¦à¥Ńà¥«":2849,"à¤Łà¤¦":2850,"Ġà¤®à¤¹à¤¤à¤²":2851,"Ġâ":2852,"Ġà¥¦à¥ª":2853,"Ġà¤¬à¤¬":2854,"Ġà¤Ńà¤ıà¤Ľ":2855,"à¥ĭâĢĿ":2856,"Ġà¤īà¤¦à¤¯":2857,"à¤µà¤²à¤²":2858,"à¤Ĺà¤®à¤¤":2859,"ĠÐ¿":2860,"Ġà¤Ńà¤ĩà¤¹":2861,"Ġà¥¨à¥¦à¥§à¥¯":2862,"à¤Ŀà¤Ł":2863,"à¤°à¤ľà¤¨à¤¨":2864,"Ġà¤Ĩà¤µà¤¤à¤ľ":2865,"Ġà¤ıà¤¯à¤°à¤ª":2866,"à¤¤à¤Ń":2867,"à¤īà¤¬":2868,"à¤ĩà¤²à¤ķ":2869,"Ġà¤¦à¤°à¤®":2870,"à¥¨à¥¨":2871,"Ġà¤ľà¤¸à¤¬":2872,"Ġà¥¨à¥¦à¥¦à¥¯":2873,"à¤īà¤¡à¤ķ":2874,"à¤¾?":2875,"à¤Łà¤¨à¤®":2876,"à¤Łà¤µà¤²à¤®":2877,"Ġà¤ĺà¤°à¤ľà¤Ĺ":2878,"Ġà¥¨à¥¦à¥¬à¥«":2879,"à¤¨à¤ĸ":2880,"à¤²à¤ķà¤£":2881,"à¤Łà¤ķà¤°":2882,"ĠCom":2883,"à¤Īà¤ĵ":2884,"à¤°à¤¸à¤ķ":2885,"à¥ģà¤ģ,":2886,"à¥ĭ'":2887,"Ġà¤ĵà¤¬":2888,"à¤²à¤¬à¤®":2889,"Ġà¤¬à¤¦à¤°":2890,"à¥ĭâĢĻ,":2891,"à¤¾à¤Ĥà¥Ī":2892,"Ġà¤¨à¤®à¤¸":2893,"ort":2894,"Ġà¤¸à¤¯à¤ªà¤¤":2895,"Ġà¤ıà¤Ń":2896,"Ġà¤®à¤¨à¤Ĺ":2897,"Ġà¤Ĩà¤ıà¤¨":2898,"à¤ªà¤¨à¤ªà¤¤":2899,"Ġà¤Łà¤¹à¤°":2900,"à¤ļà¤¥à¤°":2901,"à¤¨à¤°à¤®":2902,"à¤¦à¤¨à¤¹à¤°":2903,"à¤Łà¤ªà¤Ł":2904,"à¤ļà¤µ":2905,"Ã¬":2906,"à¤²à¤¸à¤¹":2907,"Ġà¥¦à¥Ńà¥ª":2908,"à¤¡à¤¨à¤®":2909,"Ġà¤ĵà¤¹":2910,"Ġà¤īà¤ªà¤²à¤ķ":2911,"Ġà¤µà¤ļà¤¨":2912,"à¤ıà¤ľ":2913,"ÑģÑĤ":2914,"Ġà¤¬à¤¸à¤ķ":2915,"Ġà¤¡à¤¬":2916,"Ġà¤¦à¤¶à¤®à¤²à¤¬":2917,"Ġà¤¦à¤¨":2918,"à¤¤à¤µà¤Ł":2919,"à¤ĸà¤¸":2920,"à¤Ĩà¤ĩà¤ľ":2921,"à¤ĩà¤¨à¤¬":2922,"à¤§à¤¨à¤¹à¤°":2923,"à¤°à¤®à¤§":2924,"à¥įà¥ĩ":2925,"à¤®à¤Ń":2926,"à¥¦à¥Ńà¥ª":2927,",,":2928,"à¤¸à¤²à¤®":2929,"ÑĮ":2930,"Ġà¤®à¤¸à¤²":2931,"à¤ªà¤¤à¤ķ":2932,"Ġà¤Ŀà¤°à¤¨":2933,"à¤ķà¤ħà¤ª":2934,"Ġà¤®à¤¤à¤²à¤¬":2935,"Ġà¤¸à¤¤à¤¹":2936,"Ġà¤ħà¤¸à¤¹à¤ľ":2937,"à¤ħà¤ķ":2938,"à¤¬à¤¹à¤°":2939,"à¤īà¤¡à¤®":2940,"Ġà¤Ńà¤¡":2941,"à¤¯à¤²à¤¯":2942,"à¤Ĺà¤®à¤¨à¤®":2943,"à¥¨à¥§":2944,"Ġà¤¸à¤¹à¤ķà¤°":2945,"à¥Ī...":2946,"our":2947,"ra":2948,"Ġà¤¬à¤²à¤°":2949,"ia":2950,"pp":2951,"Ġà¤ªà¤¥":2952,"Ġà¤Ĩà¤¡à¤®":2953,"à¤ļà¤¥":2954,"à¥Īà¥Ī":2955,"Ġà¤ıà¤¬":2956,"à¤°à¤ªà¤¸":2957,"Ġà¤¦à¤°à¤ĸ":2958,"Ġà¤ĺà¤°à¤ĺà¤°à¤®":2959,"à¤Łà¤¨à¤Ĺà¤°à¤ķ":2960,"oc":2961,"à¤¯à¤¸à¤¨":2962,"Ġà¤Ĺà¤ľà¤²à¤ķ":2963,"à¤¯à¤¤à¤¨":2964,"Ġà¤¸à¤ªà¤¥":2965,"arm":2966,"à¤·à¤Ńà¤°":2967,"Ġà¤²à¤°":2968,"âĢį":2969,"à¤®à¤ĸ":2970,"à¤¯à¤¨à¤®":2971,"Ġ]":2972,"à¤¡à¤ªà¤®":2973,"ber":2974,"Ġà¤ıà¤ķà¤ķ":2975,"à¤°à¤ħà¤¨":2976,"à¤µà¤°à¤¬":2977,"Ġà¤¨à¤°à¤®":2978,"à¤ıà¤Ł":2979,"Ġà¤īà¤Ľ":2980,"Ġk":2981,"à¤²à¤ªà¤Ľ":2982,"à¤ĩà¤²à¤Ł":2983,"Ġà¥¨à¥¦à¥¦à¥¬":2984,"ik":2985,"Ġà¤¹à¤Ļà¤ķà¤Ļà¤®":2986,"à¤Ľà¤°":2987,"Ġà¤Ŀà¤²à¤¨":2988,"à¤®à¤²à¤ķ":2989,"à¤¡à¤Ń":2990,"à¥ī":2991,"à¤¯à¤®à¤¶":2992,"à¥ģâĢľ":2993,"à¤¹à¤Ł":2994,"à¤§à¤µà¤ķ":2995,"à¥¬à¥©":2996,"Ġà¤ıà¤ķà¤ªà¤Ľ":2997,"ĠÂ¥":2998,"à¤ªà¤µ":2999,"Ġà¤«à¤²à¤¸":3000,"à¤¯à¤°à¤¬":3001,"Ġà¤¬à¤ĸà¤¤":3002,"à¤¤à¤°à¤ª":3003,"à¤Ńà¤¸":3004,"Ġà¤Ĩà¤£à¤µ":3005,"Ġà¤Ńà¤ľà¤¨":3006,"Ġà¤¦à¤¤":3007,"à¤Ĺà¤¬à¤¨":3008,"Ġà¤Ĺà¤¤à¤µà¤°":3009,"à¤ķà¤°à¤®":3010,"à¤ĩà¤°à¤¸":3011,"Ġà¤¨à¤¬à¤¸":3012,"ãĥ":3013,"à¤µà¤²à¤ķ":3014,"Ġà¤®à¤Ĺà¤°à¤ķ":3015,"à¤Īà¤Ń":3016,"Ġà¤ĵà¤ª":3017,"à¤¯à¤ķà¤¹à¤°":3018,"à¤°à¤ĺ":3019,"Ġà¤¦à¤²à¤¬":3020,"Ġà¤¸à¤¡à¤ķà¤²":3021,"Ġà¤ıà¤ķà¤°":3022,"à¥¨à¥¬":3023,"Ġà¤ĵà¤¢":3024,"à¤¶à¤¯":3025,"ie":3026,"à¤°à¤ľà¤¸":3027,"Ġà¤ľà¤¨à¤¹":3028,"Ġà¤®à¤®à¤¤":3029,"à¤ĩà¤ķà¤²à¤®":3030,"Ġà¤®à¤ĸ":3031,"Ġà¤¹à¤Ļà¤ķà¤Ļà¤ķ":3032,"ce":3033,"à¤ķà¤°à¤¹à¤°":3034,"Ġà¤Ńà¤°à¤ª":3035,"à¤ıà¤®à¤ıà¤¸":3036,"à¤¡à¤¸à¤®":3037,"Ġà¤ĩà¤ª":3038,"à¤Łà¤µà¤²à¤ķ":3039,"Ġ0":3040,"à¤ĸà¤¨à¤ķ":3041,"à¤Ĺà¤¨à¤®":3042,"à¤Ĥà¥Ī":3043,"Ġà¤ĸà¤¤à¤°à¤¨":3044,"à¤ļà¤¹à¤°":3045,"Ġà¤®à¤¨à¤¨":3046,"à¤Łà¤Ń":3047,"rsquo":3048,"à¤ªà¤ĸ":3049,"à¤ļà¤ª":3050,"ĠâĢĺâĢĺ":3051,"Ġà¤ľà¤¨à¤°à¤²":3052,"à¥¨à¥ª":3053,"à¤ŀà¤¤":3054,"ess":3055,"à¤łà¤ķà¤¬":3056,"à¥¨à¥®":3057,"à¤Ĩà¤§":3058,"Ġà¤Īà¤®":3059,"à¤ıà¤ľà¤¸":3060,"à¤Ĥ,":3061,"à¥ģ...":3062,"à¤ıà¤¤à¤ķ":3063,"à¤Ńà¤ªà¤¤à¤¨":3064,"à¤¥à¤¨à¤®":3065,"Ġà¤¯à¤¸à¤ªà¤Ľ":3066,"à¤¨à¤Ĺà¤°à¤²":3067,"à¤®à¤«":3068,"Ġà¤ªà¤°à¤¨":3069,"à¤Ĺà¤Ń":3070,"à¤ªà¤°à¤µ":3071,"Ġà¤®à¤¹à¤¨":3072,"à¤¶à¤Ńà¤ķ":3073,"à¤¸à¤ŀ":3074,"ĠTV":3075,"art":3076,"Ġà¤¦à¤¶à¤ķà¤¦":3077,"Ġà¤Ĩà¤ĩà¤¨":3078,"à¥¨à¥¯":3079,"Ġà¤Ŀà¤Ł":3080,"à¤¤à¤µà¤¨à¤²":3081,"ate":3082,"Ġà¤Ĩà¤ĩà¤«":3083,"hab":3084,"à¤ıà¤īà¤Ł":3085,"Ġà¤°à¤¹à¤¦":3086,"Ġà¤Ńà¤ıà¤¨à¤¨":3087,"Ġà¤¸à¤®à¤¯à¤ħà¤ĺ":3088,"à¤ķà¤Ĺ":3089,"Ġà¤ľà¤¨à¤¨":3090,"ly":3091,"Ġà¤¤à¤ªà¤¸":3092,"Ġà¤¹à¤ķà¤ķ":3093,"line":3094,"Ġà¤®à¤Ł":3095,"à¥ĪâĢĵ":3096,"Ġà¤®à¤¤à¤Ń":3097,"à¤ķà¤²à¤¨à¤ķ":3098,"Ġde":3099,"Ġà¤µà¤°à¤ªà¤°":3100,"à¤¾),":3101,"à¤¡à¤Ńà¤¨":3102,"à¤Ļà¤Ł":3103,"Ġà¤°à¤¨à¤²":3104,"Ġà¤°à¤Ĺà¤¤à¤ķ":3105,"à¤·à¤¤à¤°":3106,"à¤ģâĢĵ":3107,"à¤¯à¤¸à¤¤à¤°":3108,"à¤ľà¤Ńà¤£":3109,"Ġà¥§à¥¯à¥¯à¥¦":3110,"à¤²à¤µà¤ķ":3111,"Ġà¤¸à¤ľà¤Ĺ":3112,"ant":3113,"à¤²à¤ĸà¤£":3114,"Ġà¤Ĳà¤¶":3115,"Ġà¤°à¤¥":3116,"à¤Ľà¤ķ":3117,"Ġà¤īà¤·":3118,"Ġà¤¸à¤¦à¤¨à¤®":3119,"Ġà¤¡à¤Łà¤ķà¤®":3120,"à¤¨à¤µà¤¤":3121,"ont":3122,"à¤ľà¤¸à¤®":3123,"Ġà¤Ĩà¤Īà¤°à¤¹":3124,"Ġà¤ľà¤Ĺà¤¦":3125,"à¤ģà¤Ĥ":3126,"à¤·à¤£à¤¹à¤°":3127,"à¤ĸà¤°à¤®":3128,"Ġà¤¯à¤¸à¤µà¤°":3129,"à¤Īà¤ķà¤²":3130,"à¤ĸà¤¨à¤®":3131,"Ġà¤¸à¤¦à¤¨":3132,"ub":3133,"à¥Ĥ-":3134,"à¤°à¤¬à¤¦":3135,"à¤īà¤ł":3136,"à¤°à¤¸à¤¨":3137,"Ð²":3138,"à¤¯à¤ļ":3139,"Ġà¤ħà¤ľà¤¯":3140,"Ġà¤Ĺà¤ĩà¤¸à¤ķ":3141,"Ġà¤Ŀà¤¡à¤ª":3142,"à¤Ĺà¤ļ":3143,"Ġà¤®à¤¤à¤ķ":3144,"à¤Īà¤¸à¤ķ":3145,"à¤¯à¤¸à¤ļ":3146,"Ġà¤Ķà¤ľ":3147,"à¤Ńà¤ļ":3148,"à¤°à¤ķà¤®":3149,"à¥¨à¥Ń":3150,"à¤Łà¤°à¤Ł":3151,"à¥įà¥¤âĢĻ":3152,"Ġà¥¨à¥¦à¥¬à¥Ń":3153,"Ġà¤Ĩà¤ľà¤¬":3154,"ity":3155,"are":3156,"Ġà¤°à¤®à¤£":3157,"à¤ªà¤¢":3158,"à¤¬à¤¡":3159,"à¤°à¤µà¤¹à¤¨":3160,"ï¿½...":3161,"ht":3162,"à¥ĩÂ«":3163,"Ġà¤ĺà¤¨à¤¶":3164,"Ġà¤ħà¤¸à¤«à¤²à¤¤":3165,"à¤¸à¤¨à¤¬":3166,"Ġà¤ħà¤Ĺà¤·":3167,"Ġà¤°à¤¨à¤°":3168,"Ġà¤¸à¤®à¤¤":3169,"Ġà¤§à¤®à¤²":3170,"à¤Ĩà¤Īà¤¸":3171,"à¤¸à¤¯":3172,"à¤®à¤¥":3173,"à¤ļà¤µà¤Ł":3174,"à¤ģà¥Ī":3175,"Ġà¤Ĩà¤ĩà¤ªà¤°":3176,"Ġà¥§à¥§à¥©":3177,"ãĢ":3178,"Ġà¤ĵà¤Ľ":3179,"ĠHome":3180,"Ġà¥Ĳ":3181,"Ġà¤ħà¤ªà¤µ":3182,"Ġà¤¦à¤°à¤ķ":3183,"à¤Ńà¤¬":3184,"Ġà¥¤\"":3185,"à¤°à¤®à¤ħà¤¨":3186,"à¤Ĥà¤Ĥ":3187,"à¤ľà¤¨à¤¶":3188,"à¤ıà¤Īà¤ķ":3189,"Ġà¤®à¤¹Ã¬":3190,"à¥¬à¥¦":3191,"Ġà¥ªà¥¦à¥¦":3192,"à¤łà¤ķà¤¹à¤°":3193,"à¤¦à¤ķà¤¤":3194,"à¤¶à¤°à¤£":3195,"à¤Łà¤ķà¤®":3196,"Ġà¥¨à¥¦à¥¬à¥¬":3197,"à¤ĩà¤Łà¤¹à¤°":3198,"à¦":3199,"à¥¨à¥¦à¥Ńà¥«":3200,"Ġà¥¨à¥¦à¥ªà¥®":3201,"à¤ľà¤ªà¤¤":3202,"à¤Ńà¤°à¤ķ":3203,"Ġà¤ıà¤ĺ":3204,"à¤µà¤¸à¤¹":3205,"à¤¤à¤¨à¤®":3206,"à¤ĩà¤Ļ":3207,"à¤·à¤¦à¤²":3208,"à¤ļà¤¨à¤ªà¤Ľ":3209,"Ġà¤¨à¤Ńà¤ĩ":3210,"à¤ıà¤«à¤¸":3211,"à¤Łà¤°à¤ª":3212,"à¤¯à¤ªà¤¶":3213,"atha":3214,"à¤µà¤¤à¤®":3215,"à¤ıà¤«à¤ª":3216,"Ġà¤¤à¤²à¤ķ":3217,"Ġà¤īà¤ªà¤²":3218,"bout":3219,"Ġà¤¸à¤®à¤ķà¤ķ":3220,"Ġà¥§à¥¯à¥ª":3221,"Ġà¤Ľà¤ª":3222,"if":3223,"à¥ĢâĢĿ":3224,"Ġà¤Ĺà¤¸":3225,"Ġà¤ľà¤¬à¤¸à¤®":3226,"à¥Ģ(":3227,"à¤ĸà¤¬à¤°":3228,"à¤¥à¤²à¤¹à¤°":3229,"Ġà¤ħà¤²à¤®à¤²":3230,"à¤¨à¤¤à¤°":3231,"à¤°à¤¸à¤²":3232,"habar":3233,"Ġà¤ªà¤µà¤¨":3234,"Ġà¤ĩà¤®à¤°":3235,"à¤ļà¤¨à¤¬":3236,"eb":3237,"à¤ªà¤°à¤®":3238,"Ġà¤ħà¤ªà¤¡":3239,"à¤Ĺà¤¦à¤°":3240,"à¤¾à¥Īà¤ģ":3241,"à¥ĩ'":3242,"à¤Łà¤¨à¤²":3243,"Ġ19":3244,"Ġà¤ĭà¤£à¤ķ":3245,"Ġà¤²à¤ļ":3246,"Ġà¤¤à¤µà¤°à¤²":3247,"Ġ||":3248,"Ġfor":3249,"ous":3250,"Ġà¤ħà¤µà¤¤":3251,"agarm":3252,"Ġà¤ıà¤¯à¤°à¤ķ":3253,"Ġà¤¯à¤¸à¤¸":3254,"res":3255,"ments":3256,"à¤Īà¤¯":3257,"agarmatha":3258,"ang":3259,"Ġ7":3260,"Ġï":3261,"à¤¨à¤Ł":3262,"à¤°à¤ķà¤°à¤£":3263,"à¤®à¤¤à¤²":3264,")à¥¤":3265,"à¤¡à¤°à¤ķ":3266,"à¤¨à¤¨à¤Ĺà¤°":3267,"Ġ10":3268,"à¤¸à¤«à¤°":3269,"Ġà¤µà¤¨à¤®":3270,"à¥ĤâĢĻ":3271,"à¤¶à¤®à¤¶":3272,"à¤Ĥà¤ģ":3273,"Ġà¤¡à¤¬à¤²":3274,"Ġ9":3275,"à¥į.":3276,"Ġà¤¥à¤ªà¤²":3277,"à¤°à¤®à¤ľ":3278,"à¨":3279,"Ġà¤¸à¤¡à¤ķà¤¬":3280,"Ġà¥¦à¥Ńà¥©":3281,"à¤ķà¤Łà¤²":3282,"à¥ĭà¤ģ":3283,"à¤²à¤ľà¤¸":3284,"à¤¯à¤Ńà¤¨":3285,"à¥į?":3286,"Ġ6":3287,"Ġà¤¬à¤¹à¤°":3288,"à¤¸à¤Ĺ":3289,"à¤Ńà¤ķà¤°":3290,"à¤ĩà¤Ĺ":3291,"à¤ĩà¤ıà¤ªà¤Ľ":3292,"Ġà¤Ĺà¤¥":3293,"Ñĩ":3294,"à¤¡à¤¹":3295,"Ġà¤ıà¤¨à¤Ĩà¤°à¤ı":3296,"à¤¯à¤²à¤²":3297,"ÐµÐ½":3298,"à¤²à¤°à¤ķ":3299,"Ġà¤¯à¤¶":3300,"à¤Ĭà¤¨":3301,"Ġà¤«à¤£":3302,"ash":3303,"à¤Łà¤²à¤²":3304,"à¤¯à¤®à¤¯":3305,"Ġà¤ħà¤ªà¤²":3306,"à¤µà¤®à¤¨":3307,"Ġà¤¸à¤¯à¤ķ":3308,"à¥¦à¥«":3309,"à¤¨à¤¬à¤®":3310,"ĠÑģ":3311,"à¤µà¤°à¤¸":3312,"Ġà¤ļà¤®à¤¤":3313,"à¤°à¤Ĩà¤®":3314,"à¤ļà¤Ĺ":3315,"à¤ĩà¤Ńà¤°":3316,"Ġà¤Ŀà¤®":3317,"à¥ĩ/":3318,"à¤°à¤ķà¤ķ":3319,"Ġà¤Ĩà¤ļà¤°à¤£":3320,"à¤¯à¤²à¤®":3321,"Ġà¤Ĩà¤µà¤¸":3322,"Ġà¤¨à¤Ĺà¤°à¤¸à¤Ń":3323,"à¤²à¤µà¤²":3324,"Ġà¤¯à¤®à¤ª":3325,"à¤·à¤£à¤¬":3326,"à¤Ĺà¤łà¤¨à¤®":3327,"à¤¯à¤¨à¤¹à¤°":3328,"Ġà¤ħà¤ĸà¤¬":3329,"ĠRe":3330,"à¤¯à¤¸à¤µ":3331,"à¤Ńà¤°à¤ª":3332,"Ġà¤īà¤ªà¤ľ":3333,"à¥¦à¥Ńà¥¬":3334,"à¤ĩà¤ªà¤²":3335,"à¤¯à¤¦à¤²à¤ķ":3336,"Ġà¤Ńà¤ĩà¤¦":3337,"à¤¬à¤°à¤²":3338,"à¤¡à¤ķà¤ª":3339,"te":3340,"Ġà¤ħà¤®à¤²":3341,"Ġà¤Īà¤¸":3342,"à¤¤à¤¹à¤¤à¤®":3343,"Ġà¤Łà¤®":3344,"à¤¤à¤°à¤¸à¤®":3345,"à¤¸à¤µà¤°":3346,"à¤µà¤²à¤¨":3347,"à¥Įà¤ĤâĢĻ":3348,"Ġà¤īà¤¦à¤ĺ":3349,"Ð¾Ð²":3350,",'":3351,"à¤ªà¤°à¤¸":3352,"Ġà¤ĵà¤¡":3353,"à¤ĸà¤ķà¤ķ":3354,"à¥¦à¥Ńà¥©":3355,"Ġà¤¨à¤µà¤ľ":3356,"Ġà¥¨à¥¦à¥«à¥®":3357,"à¥ĩà¥ĩ":3358,"à¤¯à¤°à¤¹à¤°":3359,"à¤²à¤¨à¤°à¤¤":3360,"à¤ĩà¤Łà¤ķ":3361,"à¤Łà¤ªà¤Ľ":3362,"à¤«à¤¸":3363,"Ġà¥¦à¥Ńà¥¨":3364,"Ġà¤Ĳà¤°":3365,"ĠÐ²":3366,"à¤°à¤ħ":3367,"Ġà¤°à¤ķà¤®à¤²":3368,"à¤īà¤¸à¤®":3369,"Ġ....":3370,"Ġà¤¡à¤¢":3371,"Ġà¤Ĩà¤īà¤Ľ":3372,"à¤®à¤¸à¤¤":3373,"Ġà¤¨à¤°à¤¹à¤¨":3374,"à¥©à¥«":3375,"Ġà¤Īà¤¤":3376,"Ġà¤Ĺà¤¡":3377,"Ġà¥§à¥¯à¥«à¥¦":3378,"Ġà¥§à¥¯à¥¯à¥®":3379,"Ġà¤ķà¤°à¤¦":3380,"Ġà¤¡à¤¨":3381,"Ġà¥¨à¥¦à¥¦à¥ª":3382,"à¤¸à¤°à¤²":3383,"à¤·à¤§à¤°":3384,"à¤§à¤°à¤ķ":3385,"Ġà¤ħà¤¹à¤®":3386,"Ġà¤ķà¤Ńà¤°":3387,"od":3388,"ff":3389,"à¤·à¤ľà¤¨à¤ķ":3390,"ĠMore":3391,"Ġà¤¬à¤²à¤ķ":3392,"à¤µà¤°à¤£à¤²":3393,"Ð¼":3394,"à¤ıà¤¸à¤ķ":3395,"à¥Ģ),":3396,"à¤Ńà¤µà¤²":3397,"à¤ıà¤²à¤Ĺà¤¤":3398,"à¤µà¤¯à¤ķ":3399,"à¤Łà¤ļ":3400,"Ġst":3401,"Ġà¤Ĩà¤µà¤§":3402,"Ġà¤¸à¤¹à¤ª":3403,"est":3404,"Ġà¤¯à¤¸à¤ªà¤Łà¤ķà¤ķ":3405,"----":3406,"à¤ıà¤²à¤ķ":3407,"Ġà¤²à¤¬":3408,"à¤ļà¤¦":3409,"Ġà¤Ĩà¤ĩà¤ľ":3410,"Ġà¤Ĩà¤ĩà¤ıà¤®à¤Ī":3411,"Ġà¤¯à¤®à¤ªà¤ŀ":3412,"à¤¥à¤²à¤²":3413,"à¤¤à¤ªà¤¤":3414,"ec":3415,"à¤¬à¤²à¤®":3416,"à¤µà¤°à¤¹à¤°":3417,"Ġà¤Ĺà¤Ļ":3418,"à¤ľà¤¨à¤Ńà¤¨":3419,"à¤¯à¤¸à¤¯à¤¤":3420,"à¤Łà¤²à¤¹à¤°":3421,"ail":3422,"à¤¨à¤ľà¤¸":3423,"à¤®à¤Ĺà¤°à¤²":3424,"mà¤²":3425,"à¤µà¤¤à¤²":3426,"à¤Ļà¤¹à¤°":3427,"Ġà¤ıà¤¸à¤ıà¤®à¤ıà¤¸":3428,"Ġà¤ľà¤ª":3429,"Ġà¤¶à¤®à¤¶":3430,"à¤¹à¤¤à¤ķ":3431,"à¤¥à¤ķà¤¤":3432,"Ġà¤®à¤²à¤®":3433,"à¤¢à¤¤":3434,"à¤ıà¤®à¤¬":3435,"Ġà¤īà¤ªà¤§":3436,"à¥Ģà¥ĩ":3437,"à¤ļà¤²à¤®":3438,"à¤²à¤¬à¤°":3439,"à¤°à¤¬à¤²":3440,"à¤ħà¤«":3441,"Ġà¤·à¤¡à¤¯à¤¨":3442,"Ġà¤Ĩà¤ĩà¤¡":3443,"Ġà¤¦à¤²à¤®":3444,"à¤łà¤¤":3445,"à¥Įà¤Ĥà¥¤âĢĻ":3446,"her":3447,"Ġà¤ħà¤¬à¤°":3448,"à¤®à¤¶à¤°à¤£":3449,"à¤µà¤ħà¤§":3450,"Ġà¤ĩà¤·":3451,"à¤°à¤ļà¤¢":3452,"à¤²à¤¤à¤°":3453,"à¤¹à¤ľà¤¨à¤ķ":3454,"Ġà¤ľà¤¨à¤Ĺà¤£à¤¨":3455,"Ġà¤ªà¤¹à¤°":3456,"Ġà¤¤à¤¹à¤¹à¤°":3457,"à¤ķà¤¨à¤®":3458,"Ġà¤°à¤ķà¤®à¤®":3459,"ex":3460,"à¤ķà¤°à¤¬":3461,"Ġà¤ıà¤ļà¤ķ":3462,"à¥¦à¥ª":3463,"Ġà¤®à¤¹ÅĴà¤µà¤ª":3464,"à¤ıà¤ª":3465,"Ġà¤Ĩà¤Īà¤ľ":3466,"www":3467,"Ġà¤īà¤ªà¤¦à¤«":3468,"à¤łà¤¹à¤°":3469,"Ñħ":3470,"à¤²à¤Ńà¤°":3471,"à¤«à¤¨":3472,"à¥¦à¥Ń":3473,"à¤°à¤µà¤²":3474,"à¤ĵà¤®":3475,"Ġà¤ħà¤¶à¤ķ":3476,"Ġà¤Ĩà¤ĩà¤²":3477,"à¤¬à¤°à¤£":3478,"à¤ıà¤Īà¤®":3479,"Ã©":3480,"à¤Ļà¤ľ":3481,"Ġà¤¨à¤īà¤ł":3482,"à¤ŀà¤²":3483,"Ġà¤Ĩà¤®à¤°à¤£":3484,"à¤ªà¤ŀ":3485,"Ġà¤¸à¤¦à¤°":3486,"Ġis":3487,"à¤ĩà¤ķà¤°":3488,"Ġà¤ľà¤¸à¤ħà¤¨":3489,"à¤ĩà¤Łà¤²":3490,"Ġà¤ľà¤²à¤®":3491,"à¤Łà¤°à¤¸à¤®":3492,"Ġà¤¸à¤¤à¤¹à¤®":3493,"à¤ªà¤²à¤ķ":3494,"à¤Ńà¤µà¤ķ":3495,"à¤¹à¤²à¤ªà¤¹à¤²":3496,"à¥ĪâĢĻ":3497,"à¤¤à¤¹à¤Łà¤ķ":3498,"Ġà¤ıà¤ķà¤¤à¤°":3499,"à¤¯à¤¤à¤¬":3500,"Ġà¤ıà¤¨à¤ľ":3501,"Ġà¤ļà¤¹à¤²à¤ªà¤¹à¤²":3502,"Ġà¤¨à¤µà¤²à¤ª":3503,"ĠØ":3504,"à¤¸à¤ľ":3505,"à¤¸à¤¡":3506,"Ġà¤¤à¤Łà¤¬à¤¨":3507,"Ġà¤¦à¤¶à¤°à¤¥":3508,"Ġà¤¬à¤¹à¤¨":3509,"à¤ĩà¤ķà¤²à¤ķ":3510,"à¤ªà¤ķà¤²":3511,"à¤¥à¤ķà¤¹à¤°":3512,"Ġà¤ĺà¤°à¤²":3513,"Ġà¤Ĩà¤¯à¤Ĩà¤°":3514,"Ġà¤Ĩà¤Ĺà¤ľà¤¨":3515,"à¥ģ,âĢĻ":3516,"à¤¯à¤Ĺ":3517,"Ġà¤¬à¤ĸ":3518,"Ġà¥¨à¥«à¥¦":3519,"Ġà¤²à¤ĸà¤¨":3520,"Ġà¤īà¤¨à¤®":3521,"Ġà¥¨à¥¦à¥¦à¥¦":3522,"à¤¸à¤¸à¤¹":3523,"à¤¹à¤¨à¤ķ":3524,"Nepal":3525,"à¥ģà¤¾":3526,"Ġà¤Ľà¤Łà¤ªà¤Ł":3527,"à¤Īà¤ļ":3528,"Â»":3529,"à¤ľà¤¨à¤¬":3530,"Ġà¤ħà¤µà¤¸à¤°à¤¹à¤°":3531,"à¤µà¤Ńà¤°à¤ķ":3532,"Ġà¤ªà¤ķà¤¡":3533,"à¤¤à¤°à¤¹":3534,"Ġà¤¶à¤¤à¤ª":3535,"Ġà¤¨à¤ľà¤°à¤®":3536,"Ġ2017":3537,"à¥ĭâĢĿ,":3538,"à¤¦à¤ķà¤²":3539,"all":3540,"à¤¬à¤¬":3541,"à¤¨à¤Ĺà¤°à¤®":3542,"à¤¾à¤ģâĢĵ":3543,"Ġà¤łà¤Ł":3544,"à¤ľà¤ķà¤¹à¤°":3545,"Ġà¤¶à¤¹à¤°à¤¹à¤°":3546,"Ġà¤ķà¤ªà¤ķ":3547,"à¤Ĺà¤°à¤²":3548,"à¤®à¤°à¤¤":3549,"Ġà¤Ĩà¤Ĺà¤¨":3550,"à¤ıà¤¨à¤Ĩà¤°":3551,"à¤ľà¤ķà¤®":3552,"Ġà¤ľà¤Ĺà¤¤à¤®":3553,"à¤¬à¤§":3554,"à¤¥à¤¯":3555,"ill":3556,"à¤°à¤¹à¤²":3557,"ĠâĨ":3558,"Ġà¤¿":3559,"à¤¯à¤ľà¤¸":3560,"Ġà¤¸à¤¨à¤®":3561,"à¤¬à¤Īà¤®":3562,"à¤½":3563,"à¤ıà¤¬":3564,"Ġà¥¨à¥¦à¥«à¥¯":3565,"à¤ĵà¤Ł":3566,"à¤¨à¤§":3567,"à¤ªà¤Łà¤ª":3568,"Ġà¤¸à¤¦à¤Ń":3569,"à¤ķà¤¸à¤¹":3570,"à¥¨à¥¦à¥¦":3571,"à¤ļà¤¥à¤°à¤ķ":3572,"Ġà¤¤à¤²à¤µ":3573,"Ġà¤Ĩà¤īà¤²":3574,"à¤¨à¤²à¤®":3575,"Ġà¤¨à¤ķà¤Ĩà¤īà¤Ł":3576,"à¤µà¤¨à¤¯":3577,"Ġà¤¸à¤¡à¤ķà¤¹à¤°":3578,"Ġà¥¨à¥¦à¥ªà¥Ń":3579,"Ġà¤¸à¤®à¤²":3580,"Ġà¤ĸà¤¡à¤ķ":3581,"Ġ8":3582,"Ġà¤°à¤£à¤µ":3583,"Ġà¤ħà¤¢":3584,"Ġà¤¦à¤°à¤µ":3585,"Ġà¤īà¤«":3586,"à¤¨à¤ªà¤¤":3587,"Ġà¤µà¤°à¤ªà¤°à¤ķ":3588,"age":3589,"Ġà¤ľà¤¯à¤ª":3590,"Ġà¤¥à¤®":3591,"//":3592,"vi":3593,"à¤Īà¤«":3594,"à¥¦à¥©":3595,"à¤ªà¤°à¤²":3596,"ĠÐ¸":3597,"ä¸":3598,"Ġà¤¯à¤¸à¤¤à¤°":3599,"Ġà¤¬à¤¢à¤¨":3600,"à¤ıà¤¸à¤¬":3601,"à¤ľà¤®à¤£":3602,"à¤ªm":3603,"ong":3604,"Ġà¤Ńà¤ıà¤¦":3605,"à¤¦à¤¦à¤°":3606,"Ġà¤Ŀà¤¸":3607,"tp":3608,"Ġà¤Ĺà¤°à¤ķ":3609,"Ġà¤¯à¤®à¤°":3610,"Ġà¤Ĺà¤¡à¤¬":3611,"à¥Įà¤ģâĢĵ":3612,"à¤Ĺà¤®à¤¨à¤²":3613,"nt":3614,"ve":3615,"à¤ªà¤ķà¤ķ":3616,"à¤·à¤µ":3617,"Ġà¤®à¤¨à¤¹à¤°":3618,"Ġà¤ľà¤Ĺà¤®":3619,"Ġà¤Ĩà¤ĩà¤°à¤¹à¤¨":3620,"à¤¯à¤ħà¤¨":3621,"Ġà¤®à¤²à¤ķ":3622,"Ġà¥¨à¥¦à¥«à¥¨":3623,"Ġà¤ľà¤ĺà¤¨":3624,"Ġà¤ıà¤«à¤ıà¤®":3625,"à¤¨à¤¢":3626,"à¤°à¤ªà¤¥":3627,"à¥®à¥¦":3628,"Ġpost":3629,"Ġà¤¬à¤²à¤²":3630,"Ġà¤łà¤¡":3631,"à¤µà¤¨à¤Ńà¤°":3632,"Ġà¤īà¤ªà¤ķà¤°à¤£à¤¹à¤°":3633,"à¤¦à¤²à¤²":3634,"Ġà¤Ĩà¤ľà¤ķà¤²":3635,"à¤¶à¤ļà¤¨":3636,"à¤Ĩà¤ĩà¤¸":3637,"à¤°à¤ļà¤²à¤¨à¤®":3638,"Ġà¤¤à¤²à¤®":3639,"à¤¹à¤°à¤ķ":3640,"Ġà¤«à¤Ł":3641,"Ġà¤°à¤Ĺà¤¤à¤®":3642,"ĠY":3643,"à¤¦à¤¶à¤®":3644,"ies":3645,"ue":3646,"à¤Ĺà¤ľà¤ªà¤¤":3647,"ĠComments":3648,"à¤µà¤ªà¤Ľ":3649,"à¤¡à¤°à¤²":3650,"Ġà¥¨à¥¦à¥¬à¥§":3651,"ĠOn":3652,"ud":3653,"à¤ħà¤ªà¤°":3654,"à¤¨à¤¯à¤®":3655,"à¥¨à¥¦à¥§à¥®":3656,"Ġà¤ĵà¤®à¤ª":3657,"à¤ľà¤Ĺà¤ŀ":3658,"Ġà¤°à¤ķà¤®à¤¬":3659,"Ġà¤¹à¤ķà¤¹":3660,"à¤ĭ":3661,"Ġà¤Īà¤ļ":3662,"à¤Ĳ":3663,"à¤Ĺà¤¯":3664,"à¤Ĺà¤ªà¤¤":3665,"à¤ıà¤¡":3666,"own":3667,"Ġà¤ªà¤¤à¤¨":3668,"à¤¦à¤¹":3669,"Ġà¤ıà¤Ĺ":3670,"à¤¦à¤²à¤ķ":3671,"à¤¡à¤°à¤®":3672,"Ġà¥¨à¥¦à¥¬à¥¦":3673,"ry":3674,"à¤Ļà¤µ":3675,"à¥©à¥§":3676,"à¤ķà¤®à¤ľ":3677,"à¥¦à¥§":3678,"à¤°à¤¸à¤¸":3679,"Ġà¤ĸà¤¬à¤°à¤¦":3680,"201":3681,"à¤īà¤¸à¤ķ":3682,"ĠSt":3683,"Ġà¤°à¤ľà¤¨":3684,"à¤§à¤¯":3685,"Ġà¤¬à¤¹à¤¸à¤ķ":3686,"Ġà¤Ĩà¤²à¤®":3687,"à¤µà¤¨à¤¬":3688,"à¤Ĩà¤ľà¤ķ":3689,"Ġà¤®à¤¦à¤¤":3690,"à¤ªà¤¸à¤²":3691,"à¤¹à¤¯":3692,"à¥ĭ,âĢĿ":3693,"ĠÐ½":3694,"://":3695,"à¤¨à¤°à¤²":3696,"à¤ļà¤°à¤£":3697,"Ġà¤®à¤¤à¤ª":3698,"Ð´":3699,"Ġà¤µà¤¯à¤¸":3700,"à¤łà¤¶":3701,"Ġà¤ħà¤µà¤Ĺà¤¤":3702,"à¤ķà¤Łà¤¤":3703,"à¥ĩâĢĵâĢĺ":3704,"à¤¨à¤ľà¤¨à¤ķ":3705,"à¤¦à¤¬à¤¹":3706,"Ġà¤¨à¤Ĺà¤°à¤µ":3707,"Ġà¤¦à¤¶à¤ķà¤ķ":3708,"Ġà¤¹à¤ļ":3709,"ard":3710,"à¤¯à¤¸à¤Ńà¤¨":3711,"à¤¤à¤¨à¤ª":3712,"ial":3713,"à¤ĺà¤£":3714,"à¥¨à¥¦à¥Ńà¥ª":3715,"Ġà¤Ĳà¤ķ":3716,"à¤¯à¤ªà¤¹":3717,"Ġà¤ªà¤¸à¤²à¤¹à¤°":3718,"ust":3719,"à¤ıà¤¶":3720,"à¤īà¤ªà¤°":3721,"à¤Ĩà¤Īà¤¬":3722,"à¤ıà¤®à¤ķ":3723,"à¤ľà¤¦à¤°à¤®":3724,"up":3725,"à¥ĭ|":3726,"à¥ĭÂ¥":3727,"à¤¯à¤¸à¤ª":3728,"à¤¤à¤¥":3729,"à¤¦à¤ķà¤¹à¤°":3730,"à¤¿?":3731,"à¥Ĥ)":3732,"Ġà¤§à¤¨à¤°":3733,"à¤ıà¤¸à¤ľ":3734,"Ġà¤ªà¤¦à¤ª":3735,"Ġà¤¹à¤¡à¤¤":3736,"Ġà¥§à¥§à¥¦":3737,"à¤Īà¤ªà¤Łà¤ķ":3738,"ith":3739,"à¤Ĺà¤ľà¤®":3740,"à¤ļà¤¤à¤®":3741,"à¤°à¤®à¤¦":3742,"à¤²à¤¬à¤ļ":3743,"Ġà¤ªà¤°à¤®à¤ª":3744,"à¤®à¤ķà¤¥":3745,"Ġ!!":3746,"ack":3747,"à¤¾\"":3748,"à¤¯à¤ªà¤°":3749,"à¤²à¤«":3750,"Ġà¤ªà¤¦à¤¸":3751,"Ġ!âĢĿ":3752,"à¤®à¤¨à¤ķ":3753,"à¤¯à¤ľà¤¨à¤ķ":3754,"à¤Łà¤¸à¤²":3755,"Ġà¥¦à¥Ńà¥«":3756,"à¤¾âĢĻ,":3757,"à¤£à¤¯à¤¬":3758,"à¤¯à¤£à¤ª":3759,"Ġà¤¸à¤¹à¤¸":3760,"à¤ķà¤®à¤°":3761,"Ġà¤§à¤¨à¤¬à¤¹":3762,"à¤¦à¤¯à¤ĺ":3763,"à¤ķà¤²à¤®":3764,"à¤ļà¤²à¤¨":3765,"Ġà¤ªà¤Ļ":3766,"Ġà¤¨à¤°à¤¸":3767,"à¤ľà¤¬à¤¹":3768,"à¤ķà¤«":3769,"à¤¹à¤²à¤®":3770,"à¤¹à¤£à¤ķ":3771,"à¤·à¤¨":3772,"Ġà¤¦à¤²à¤¸":3773,"Ġà¤Ĩà¤ıà¤®":3774,"à¤ķà¤Łà¤¤à¤®":3775,"Ġ#":3776,"Ġà¥¨à¥¦à¥¦à¥«":3777,"ĠÐ¾":3778,"à¤²à¤¬à¤¸":3779,"à¤®à¤Ĺà¤ł":3780,"Ġà¤¤à¤¬à¤¸à¤®":3781,"Ġà¤¤à¤¦":3782,"Ġà¤Īà¤ķ":3783,"à¤®à¤ľà¤¯à¤¨":3784,"Ġà¤ļà¤¹":3785,"Ġà¤ĺà¤Łà¤¸":3786,"à¥ĩà¤¾":3787,"Ġà¤¹à¤µà¤²":3788,"Ġ!âĢĻ":3789,"ĠÌ":3790,"à¤ıà¤¸à¤¨à¤ķ":3791,"à¥Ģà¤ĥ":3792,"Ġà¤ļà¤£":3793,"à¤°à¤¸à¤°à¤¤":3794,"à¤Ĺà¤®à¤ŀ":3795,"Ġà¤ªà¤¦à¤¹à¤°":3796,"Ġà¤¹à¤¨à¤¨":3797,"à¤Ĩà¤Īà¤ª":3798,"Ġapp":3799,"Ġà¤Ļ":3800,"à¥įà¥Ĥ":3801,"à¥ĩâĢĮ":3802,"Ġà¤®à¤¦à¤°":3803,"à¤¹à¤°à¤²":3804,"Ġà¤¸à¤ķà¤°":3805,"à¥¬à¥®":3806,"iz":3807,"Ġà¤¬à¤¸à¤²":3808,"Ġà¤Ĩà¤ĩà¤Ł":3809,"Ġà¤ªà¤Łà¤ķà¤¸à¤®":3810,"à¤ħà¤²à¤Ĺ":3811,"Ġà¤ħà¤ªà¤¹à¤°à¤£à¤ķ":3812,"Ġht":3813,"à¤¡à¤ħà¤¨":3814,"Ġà¤Ĩà¤¶à¤Ļ":3815,"Ġà¤Ĺà¤£à¤¤":3816,"ice":3817,"________":3818,"ib":3819,"à¤¸à¤®à¤¸":3820,"Ġà¥¨à¥¦à¥«à¥¬":3821,"à¤®à¤¥à¤²":3822,"Ġà¤ľà¤ķ":3823,"Ġà¤ļà¤ķà¤²":3824,"Ġj":3825,"à¤°à¤µà¤ļà¤¨":3826,"Ġà¤ķà¤¸à¤°à¤¤":3827,"Ġà¤Ĺà¤¡à¤¬à¤¡":3828,"à¥į:":3829,"Ġà¤ĸà¤ļ":3830,"Ġun":3831,"à¤²à¤Ńà¤¨":3832,"à¤ıà¤Ľà¤¨":3833,"à¤°à¤¤à¤¤":3834,"Ġà¤ħà¤°à¤¨":3835,"à¤¸à¤®à¤¯":3836,"load":3837,"à¤ľà¤Ļ":3838,"à¤¸à¤®à¤¨":3839,"Ġà¤«à¤²à¤¦":3840,"Ġà¤¸à¤¶":3841,"à¤®à¤ķà¤°à¤£":3842,"à¤Ĩà¤ĩà¤ª":3843,"à¤ĩà¤¨à¤²à¤ķ":3844,"à¤¦à¤°à¤ķ":3845,"à¤ħà¤¤":3846,"Ġà¥¨à¥¦à¥¦à¥©":3847,"à¤¸à¤°à¤¬":3848,"à¤¶à¤²à¤¤":3849,"Ġpro":3850,"à¤¨à¤®à¤§":3851,"ĠCh":3852,"à¤²à¤¯à¤ħà¤¨":3853,"Ġà¥¨à¥¦à¥¦à¥¨":3854,"à¤ķà¤ľà¤¸":3855,"à¤µà¤°à¤¤":3856,"à¥©à¥¨":3857,"Ġ..":3858,"à¤¤à¤²à¤®":3859,"Ġà¤ªà¤¥à¤°":3860,"à¤µà¤ĺ":3861,"Ġà¤ĺà¤°à¤§à¤¨":3862,"Ġà¤¬à¤¹à¤¸à¤®":3863,"Ġr":3864,"à¤®à¤ķà¤°":3865,"Ġà¥¨à¥¦à¥«à¥§":3866,"à¤ķà¤²à¤ķ":3867,"Ġà¤Ľà¤¦":3868,"Ġà¥¨à¥¦à¥«à¥ª":3869,"Ġà¤ħà¤¸à¤¹à¤¯":3870,"Ġà¤Ľà¤¡":3871,"Ġà¤ªà¤¹à¤²à¤ķ":3872,"à¤īà¤¨à¤¦":3873,"Ġwww":3874,"à¤¤à¤Ĺ":3875,"à¥Ĥà¥¤":3876,"Ġà¤§à¤¨à¤®":3877,"irst":3878,"Ġà¤¸à¤°à¤¦à¤°":3879,"Ġà¤ħà¤¬à¤¸à¤°à¤®":3880,"à¤Ĺà¤¹à¤¨":3881,"à¤¶à¤ķà¤®":3882,"Ġà¤²à¤Ĺà¤¨à¤¶":3883,"à¤²à¤ħà¤¨":3884,"Ġà¤¸à¤®à¤µ":3885,"Ġà¤Ķà¤§":3886,"Ġà¤¨à¤Ĩà¤ī":3887,"à¤ļà¤°à¤²":3888,"à¤ļà¤ķà¤ķ":3889,"Ġà¤¸à¤¹à¤ļ":3890,"Ġà¤ħà¤¸à¤ķ":3891,"Ġà¤Ńà¤ıà¤ľà¤¸":3892,"à¤¤à¤¨à¤Ĺà¤°":3893,"ight":3894,"Ġà¤ĸà¤¬à¤°à¤²":3895,"à¥ĭà¥¤âĢĿ":3896,"à¤¼à¤¾":3897,"à¤¬à¤¤à¤ķ":3898,"......":3899,"Ġà¤¨à¤Ńà¤ıà¤ªà¤¨":3900,"Ġà¤¸à¤ĺà¤¨":3901,"à¤²à¤°à¤®":3902,"Ġà¥¤[":3903,"à¤¡à¤¡":3904,"Ġà¥¬à¥¦à¥¦":3905,"à¥«à¥«":3906,"à¥¦à¥¨":3907,"à¤Īà¤ĺ":3908,"à¤īà¤¤à¤ķ":3909,"ĠNepali":3910,"à¤ļà¤°à¤ķ":3911,"Ġà¤°à¤£":3912,"Ġà¤Ľà¤Ł":3913,"à¤Ĺà¤¤à¤¦":3914,"ite":3915,"à¤ªà¤²à¤²":3916,"Ġà¤²à¤µ":3917,"ain":3918,"à¤Łà¤¡":3919,"Ġà¤Ĺà¤«à¤Ĺ":3920,"à¤ıà¤ħà¤¨":3921,"Ġà¤ķà¤¥à¤¨":3922,"og":3923,"Ġà¤ıà¤ħ":3924,"Ġà¥¨à¥¦à¥ªà¥¯":3925,"à¤ĩà¤ľà¤°":3926,"à¤Ľà¤¤":3927,"Ġà¤¨à¤Ļ":3928,"à¤¨à¤²à¤ķ":3929,"à¤ĩà¤¨à¤°":3930,"à¥ĩ,âĢĻ":3931,"11":3932,"à¤¨à¤°à¤ķ":3933,"à¥ĩâĢĿ":3934,"Ġà¥¤&":3935,"Ġà¤¡à¤£":3936,"Ġà¤ķà¤¹à¤²":3937,"ĠSagarmatha":3938,"Ġà¥¨à¥¦à¥©à¥¦":3939,"Ġà¤Ĩà¤¬à¤¶":3940,"à¥į)":3941,"à¤Ĺà¤¨à¤ķ":3942,"Ġà¤²à¤ł":3943,"Ġà¤ķà¤®à¤¸":3944,"Ġà¤Ńà¤ıà¤²à¤Ĺà¤¤":3945,"Ġà¤¡à¤²à¤°à¤®":3946,"**":3947,"à¤ķà¤ªà¤¡":3948,"à¥įâĢĮà¥¤":3949,"à¤¾à¤¿":3950,"à¤ĸà¤¡":3951,"à¤ľà¤¸à¤²":3952,"à¤¸à¤¸à¤²":3953,"Ġbe":3954,"Ġà¤¦à¤¯à¤¨":3955,"à¥¦à¥¯":3956,"à¤ıà¤®à¤ı":3957,"Ġà¤ħà¤¨à¤Ĺ":3958,"Ġà¤Ĩà¤¯à¤°à¤²":3959,"à¤ıà¤ļà¤¡":3960,"rom":3961,"à¤²à¤Ŀ":3962,"à¤¸à¤ªà¤Ľ":3963,"Ġà¤¯à¤°":3964,"ive":3965,"ĠÙ":3966,"à¤ıà¤®à¤¸":3967,"Ġà¤¸à¤®à¤¯à¤Ń":3968,"à¤ļà¤ķà¤¹à¤°":3969,"Ġà¤Ĩà¤ªà¤¤à¤ķ":3970,"à¤¡à¤ľ":3971,"Ð°Ð½":3972,"Ġhttp":3973,"Ġ12":3974,"Ġà¤ľà¤«à¤¤":3975,"à¥ģà¤ģà¥¤":3976,"à¥¬à¥¯":3977,"Ġà¤¸à¤®à¤¯à¤ħà¤¨":3978,"à¤ıà¤¨à¤ľ":3979,"à¥ĭâĢĶ":3980,"à¤¯à¤¤à¤°":3981,"à¤ľà¤¯à¤¨":3982,"à¤ĸà¤ķà¤¹à¤°":3983,"Ġà¤ıà¤ıà¤«à¤¸":3984,"à¤¾Ã·":3985,"à¤¨à¤«":3986,"à¤¸à¤°à¤¸":3987,"Ġà¤ıà¤¸à¤Ī":3988,"Ġà¥¨à¥¦à¥«à¥¦":3989,"à¥ģâĢĿ":3990,"à¤Łà¤®à¤ķ":3991,"à¤°à¤¡":3992,"à¤²à¤ķà¤®":3993,"à¤ļà¤ľà¤¨":3994,"Ġà¤ªà¤°à¤¸":3995,"à¤µà¤¸à¤¤":3996,"ast":3997,"à¤¯à¤¤à¤¸":3998,"à¤łà¤ķà¤ªà¤Ľ":3999,"ft":4000,"à¤¡à¤¯":4001,"Ġà¤ĸà¤ľ":4002,"à¤¨à¤µà¤²":4003,"Ġà¤ıà¤ķà¤ļ":4004,"à¤Ĺà¤²à¤¸":4005,"Ġà¤Ĩà¤ĩà¤¡à¤²":4006,"à¤¸à¤¡à¤ķ":4007,"à¤²à¤¨à¤ªà¤Ľ":4008,"à¤Ńà¤Ł":4009,"à¥¤\"":4010,"Ġà¤®à¤ĸà¤®à¤²":4011,"end":4012,"Ġà¤Ńà¤µà¤¨à¤¹à¤°":4013,"aj":4014,"à¤¨à¤µà¤°":4015,"Ġà¤¨à¤Ĺà¤°à¤®":4016,"à¤ĩà¤ĵ":4017,"à¥©à¥¬":4018,"à¤¾à¥ĩà¥¤":4019,"amp":4020,"::":4021,"à¤Ĺà¤¤à¤°":4022,"Ġà¤«à¤¤":4023,"ord":4024,"Ġà¤¦à¤¶à¤ķà¤ħà¤ĺ":4025,"ide":4026,"à¤®à¤Ĺà¤łà¤¬à¤¨":4027,"Ġcom":4028,"à¤®à¤¸à¤®à¤°":4029,"Ġà¤ªà¤Łà¤¨":4030,"Ġà¤ĸà¤µà¤°":4031,"à¤¤à¤ľà¤¨à¤¹à¤°":4032,"ya":4033,"à¤ľà¤¨à¤¸":4034,"à¤¯à¤®à¤¨à¤ķ":4035,"à¤²à¤¯à¤¦":4036,"ĠPost":4037,"ĠOnline":4038,"à¤Ĩà¤ĩà¤¬":4039,"Ġà¤ħà¤ªà¤¹à¤°":4040,"Ġà¤¦à¤®à¤ķà¤²":4041,"à¤¦à¤ķà¤ķ":4042,"Ġà¤Ĩà¤®à¤®":4043,"Ġà¤¸à¤¨à¤°":4044,"à¤īà¤¸à¤²":4045,"à¤Łà¤¬à¤¨":4046,"Ġà¤¤à¤ķ":4047,"à¤Ĩà¤ķ":4048,"à¤Ĩà¤ĩà¤Ń":4049,"Ġà¥¤âĢĺ":4050,"Ġà¤®à¤¨à¤®à¤¨":4051,"Ġà¤ľà¤µà¤°":4052,"Ġà¤¬à¤¢à¤¦":4053,"Ġ15":4054,"10":4055,"à¤£à¤Ĺ":4056,"Ġà¤ıà¤ķà¤¥à¤°":4057,"Ġà¤¨à¤Ńà¤ıà¤®":4058,"ÐµÑĤ":4059,"Ø§Ù":4060,"ure":4061,"Ġà¤Ĺà¤°à¤Ĺà¤¹à¤¨":4062,"Ġà¤Ĩà¤ĩà¤¸à¤²":4063,"à¤Ļà¤²à¤Ĺ":4064,"à¥Ńà¥Ń":4065,"Ġfirst":4066,"à¥¬à¥«":4067,"à¥©à¥©":4068,"Ġà¤ľà¤²à¤ľà¤²":4069,"à¤ļà¤¶":4070,"à¤Ńà¤°à¤®":4071,"à¤łà¤®à¤£":4072,"ownload":4073,"à¥Ģ:":4074,"Ġabout":4075,"à¥ĭâĢĮ":4076,"Ġà¤¸à¤¯à¤®":4077,"Ġà¤Ĩà¤¶à¤¯":4078,"Ġà¤ķà¤²à¤°":4079,"à¤¸à¤°à¤¹":4080,"à¤·à¤¯à¤°":4081,"à¤Ľà¤µ":4082,"à¤²à¤¨à¤ª":4083,"à¤£à¤ªà¤¨":4084,"à¤¿'":4085,"à¤¤à¤®à¤§":4086,"lic":4087,"Ø±":4088,"à¤Ŀà¤¬":4089,"âĢĭ":4090,"à¤łà¤Ĺ":4091,"Ġà¤Ĩà¤ıà¤ªà¤¨":4092,"à¤Łà¤¸à¤¹":4093,"Ġà¤¨à¤µà¤¦":4094,"à¤łà¤¸":4095,"à¤²à¤ķà¤°":4096,"à¤ħà¤Ļ":4097,"Ġà¤Ĺà¤ĩà¤¨":4098,"Ġà¤®à¤¹à¤Ļ":4099,"Ġà¤¤à¤°à¤Ļ":4100,"Ġà¤īà¤ªà¤¶":4101,"Ġà¤Ĳà¤¨à¤ħà¤¨":4102,"Ġà¤ħà¤ªà¤¨à¤¤":4103,"Ġà¤¹à¤Ļà¤ķà¤Ļà¤²":4104,"Ġà¤Ńà¤¯à¤ķ":4105,"Ġà¤¨à¤ªà¤ł":4106,"ÐµÑĢ":4107,"Ġà¤¨à¤¸à¤°":4108,"à¤¬à¤Ńà¤¨":4109,"à¤°à¤¤à¤¤à¤°":4110,"ĠPre":4111,"ember":4112,"Ġà¤ªà¤Ĺ":4113,"Ġà¤¨à¤°à¤¬à¤¹":4114,"Ð¿":4115,"ÛĮ":4116,"Ġà¤¬à¤Ĺà¤°":4117,"à¤·à¤¦à¤°":4118,"à¤¯à¤®à¤¸":4119,"à¤¯à¤µà¤¶":4120,"à¤Īà¤¨à¤²à¤®":4121,"à¤°à¤¬à¤¦à¤²":4122,"Ġà¤Ľà¤²à¤«à¤²à¤ªà¤Ľ":4123,"Ġà¤®à¤¦à¤¨à¤ķ":4124,"Ġà¤¤à¤¦à¤°":4125,"ver":4126,"à¥¤à¥¤":4127,"à¤¨à¤²à¤²":4128,"à¤µà¤¦à¤²":4129,"à¤Ŀà¤²":4130,"ËĨ":4131,"Ġà¤°à¤¶":4132,"à¤¶à¤¨à¤ªà¤Ľ":4133,"Ġà¤®à¤¹à¤²":4134,"à¤¹à¤¦à¤°à¤µ":4135,"Ġà¤ħà¤¸à¤®à¤Ŀà¤¦":4136,"à¤Ĺà¤µà¤¤":4137,"à¤¥à¤ķà¤°":4138,"Ġà¤ľà¤®à¤ĺà¤Ł":4139,"Ġà¤°à¤Ļà¤ķ":4140,"Ġà¤ıà¤¨à¤Ĩà¤°à¤ıà¤¨à¤ķ":4141,"à¥Ī-":4142,"à¤Łà¤¹":4143,"Ġà¤ķà¤°à¤¬":4144,"ĠÂ«":4145,"à¤°à¤¹à¤¦":4146,"à¤ªà¤ķà¤¹à¤°":4147,"à¤®à¤ŀ":4148,"à¤¤à¤ľà¤¨à¤ķ":4149,"Ġà¤¡à¤¸":4150,"à¤Ĺà¤¤à¤²":4151,"à¹":4152,"Ġà¤µà¤¯":4153,"à¤ķà¤²à¤¨à¤®":4154,"Ġà¥¨à¥¦à¥¨à¥¨":4155,"à¤ļà¤¯à¤ķ":4156,"à¤¤à¤ļà¤°":4157,"ĠÐº":4158,"ĠÃ":4159,"à¤¤à¤¶":4160,"à¤ĺà¤¬":4161,"Ġà¤Ĩà¤ľà¤Ńà¤¨":4162,"Ġà¤ķà¤²à¤ķà¤¤":4163,"à¤¡à¤§":4164,"à¤®à¤ķà¤¤":4165,"07":4166,"ug":4167,"Ġà¤ªà¤°à¤¶":4168,"Ġà¤ĵà¤ķ":4169,"ans":4170,"à¥įâĢĿ":4171,"Ġà¤ıà¤¨à¤ıà¤®à¤¬":4172,"io":4173,"Ġà¤ħà¤µà¤¸à¤°à¤²":4174,"à¤ĩà¤ķà¤²à¤²":4175,"Ġà¤Ĩà¤·":4176,"ĠÐ´":4177,"Ġà¤®à¤¤à¤ªà¤°":4178,"à¥Īà¤Ĥ,":4179,"ared":4180,"à¤Ńà¤¨à¤®":4181,"à¤Ļà¤¸à¤®":4182,"Ġà¤ıà¤ļà¤Ĩà¤ĩà¤Ń":4183,"Ġappe":4184,"Ġà¤Ĩà¤¦à¤°à¤£":4185,"à¤¡à¤°à¤¸":4186,"à¤¯à¤¤à¤¥":4187,"à¤¸à¤²à¤Ĺ":4188,"à¤·à¤¦à¤®":4189,"à¥įâĢĻ,":4190,"à¤ķà¤Ľ":4191,"à¤¸à¤¦à¤¬":4192,"Ġà¥ģ":4193,"Ġà¤ķà¤ªà¤®":4194,"Ġà¤¨à¤ķà¤°":4195,"à¤Ĥà¥¤":4196,"Ġà¤ªà¤¸à¤²à¤ķ":4197,"Ġà¤¨à¤«à¤°":4198,"ndash":4199,"Ġà¤®à¤¹Ã¬à¤µà¤ª":4200,"à¤¨à¤¯à¤ķ":4201,"à¤µà¤ªà¤¶":4202,"Ġà¤Ĺà¤łà¤µà¤¨":4203,"Ġï¿½":4204,"à¤²à¤¨à¤¸":4205,"nepal":4206,"à¤²à¤Ĺà¤°":4207,"Ġà¤īà¤ªà¤ķà¤°à¤£à¤ķ":4208,"Ġà¤ħà¤µà¤¹":4209,"à¤Ĺà¤¬à¤£":4210,"Ġà¤ļà¤°à¤£à¤¬":4211,"Ġà¤ħà¤¨à¤¶à¤¨à¤°à¤¤":4212,"à¤±":4213,"Ġà¤¨à¤«":4214,"Ġà¤Ŀà¤¡":4215,"Ð¾ÑĢ":4216,"news":4217,"à¤¨à¤¯à¤¤":4218,"Ġà¤ĺà¤Łà¤ķ":4219,"à¤ªà¤£à¤ķ":4220,"à¤Ĺà¤Łà¤¨":4221,"à¥¬à¥¬":4222,"à¤ķà¤°à¤£à¤¬":4223,"à¤ıà¤¸à¤¸":4224,"Ġà¤ıà¤«à¤ª":4225,"Ġà¤ķà¤Ļ":4226,"Ġà¥®à¥¦à¥¦":4227,"Ġà¥¨à¥¦à¥«à¥«":4228,"à¤§à¤¨à¤¸":4229,"Ġà¤ħà¤°à¤¬à¤ķ":4230,"Ġà¤Ŀà¤ķ":4231,"à¤°à¤¨à¤Ĺà¤°à¤®":4232,"à¤°à¤µà¤£":4233,"Ġà¤¸à¤°à¤¦":4234,"à¤īà¤¹à¤°":4235,"à¥¦à¥®":4236,"Ġà¤¨à¤¹à¤Ł":4237,"Ġà¤Ĩà¤¯à¤ķ":4238,"à¤ĩà¤ķà¤¨":4239,"Ġà¥¨à¥¦à¥¦à¥§":4240,"Ġha":4241,"à¤¥à¤Ĺà¤¨":4242,"Ġà¤µà¤°à¤¦":4243,"à¤Ĩà¤ªà¤¸à¤®":4244,"à¤²à¤°à¤²":4245,"à¥©à¥¯":4246,"à¤Łà¤²à¤Ĺ":4247,"Ġà¤ĵà¤¶":4248,"Ġà¤¬à¤¦à¤®":4249,"Ġà¤ħà¤ķà¤¸":4250,"Ġà¤ĵà¤ł":4251,"Ġà¤¸à¤Łà¤¹":4252,"à¤¸à¤®à¤¯à¤®":4253,"à¤¯à¤²à¤Ĺ":4254,"à¤§à¤ªà¤Ľ":4255,"à¤īà¤ªà¤¯":4256,"à¥Ńà¥®":4257,"Ġ+":4258,"à¤¦à¤²à¤¯":4259,"à¤Ĺà¤ŀ":4260,"à¥Īà¥į":4261,"à¤ľà¤¡":4262,"Ġà¤ıà¤¨à¤Ĩà¤Īà¤¸":4263,"à¤Ĩà¤¦":4264,"à¤¯à¤Ĺà¤¤":4265,"Ġà¤Ĩà¤¯à¤¸":4266,"à¤Īà¤µ":4267,"à¥©à¥®":4268,"Ġà¤Ĩà¤īà¤ľ":4269,"Ġà¤Ĺà¤Īà¤°à¤¹":4270,"à¤¸à¤µà¤²":4271,"Ġà¤²à¤®à¤¹":4272,"à¤ľà¤¤à¤²":4273,"à¤¸à¤¨à¤¸":4274,"Ġà¤ĭà¤£à¤®":4275,"Ġà¤ķà¤¦à¤®à¤²":4276,"Ġappeared":4277,"à¤®à¤ħà¤¨":4278,"à¤°à¤ķà¤°à¤£à¤ķ":4279,"Ġà¤ħà¤¬à¤¦":4280,"Ġà¤Ĩà¤®à¤ľà¤¨à¤¤":4281,"ell":4282,"à¤¦à¤ĺ":4283,"Ġà¤ļà¤®à¤ķ":4284,"à¤ķà¤²à¤Ĺ":4285,"Ġà¥§à¥¯à¥¯à¥Ń":4286,"Ġà¤ľà¤Ĺà¤¤à¤ķ":4287,"Ġwith":4288,"à¤ĩà¤¡à¤ķ":4289,"à¤Łà¤Ńà¤¨":4290,"à¥īà¤Ĥ":4291,"à¤ħà¤µà¤¸":4292,"np":4293,"Ġà¤¾":4294,"Ġle":4295,"à¥ģà¥¤âĢĻ":4296,"Ġà¤Ĩà¤ķà¤²à¤¨":4297,"âĢĮà¤Ĥ":4298,"ËĨà¤¨":4299,"Ġà¤ļà¤¯à¤¨à¤ķ":4300,"Ġ11":4301,"Ġà¥¤)":4302,"à¥Ĥà¥Ĥ":4303,"Ġà¤ļà¤¸":4304,"gle":4305,"à¥įà¤¾à¤¾":4306,"à¤®à¤°à¤ķ":4307,"à¤°à¤¶à¤¨":4308,"Ġà¤ıà¤ķà¤¸à¤¯":4309,"Ġà¤®à¤¯":4310,"Ġà¤²à¤¯à¤®":4311,"à¥įà¥Ģ":4312,"Ġà¤Ŀà¤²à¤ķ":4313,"à¤¾Â¥":4314,"à¤Łà¤Ł":4315,"à¤¬à¤¨à¤®":4316,"Ġà¤ľà¤¨à¤ħà¤§":4317,"à¥¯à¥¦":4318,"Ġïģ":4319,"??":4320,"à¤°à¤Ļà¤®":4321,"à¤Ĺà¤¸à¤¹":4322,"à¤§à¤°à¤£":4323,"Ġà¤¬à¤ľà¤Ĺ":4324,"à¤ıà¤Ŀ":4325,"Ġà¥§à¥¨à¥¦":4326,"áŀ":4327,"à¤¾..":4328,"Ġà¤¨à¤ªà¤¢":4329,"à¤®à¤µà¤°à¤£":4330,"à¤¶à¤¨à¤¹à¤°":4331,"75":4332,"Ġà¤ıà¤¥":4333,"à¥Ī)":4334,"à¤£à¤¸à¤®":4335,"à¤°à¤¤à¤µ":4336,"Ġyou":4337,"à¤¦à¤°à¤®":4338,"à¤Ĩà¤°à¤ķ":4339,"à¤ĩà¤¸à¤®":4340,"à¤Ļà¤Łà¤¨":4341,"Ġà¤Ĺà¤²à¤ķ":4342,"à¤Łà¤«à¤°":4343,"Ġà¤¹à¤Ļ":4344,"à¤ģâĢĻ":4345,"à¤Ĩà¤¶":4346,"à¤¯à¤£à¤¹":4347,"Ġà¤ħà¤¨à¤Ń":4348,"Ð°ÑĤ":4349,"ach":4350,"à¤ŀà¤°":4351,"à¤µà¤°à¤ª":4352,"à¤²à¤¯à¤¸à¤®":4353,"à¥©à¥ª":4354,"Ġ*":4355,"à¤¨à¤µà¤ķ":4356,"à¤®à¤µà¤°":4357,"Ġà¤¨à¤¥":4358,"Ġà¤Ńà¤ĩà¤°":4359,"à¤ľà¤¯à¤²":4360,"à¤¯à¤¸à¤ħà¤¨":4361,"à¤¤à¤¨à¤¶":4362,"Ġà¤¸à¤µà¤²":4363,"Ġà¤Ĩà¤ıà¤¸":4364,"ung":4365,"à¤Ļà¤¯":4366,"ary":4367,"Ġà¤¬à¤ļà¤¨":4368,"à¤ıà¤¨à¤¸":4369,"Ġà¤¸à¤¯à¤¦":4370,"à¤¯à¤¬à¤¦":4371,"12":4372,"à¤®à¤ªà¤¤":4373,"Ð±":4374,"à¤°à¤¨à¤®":4375,"se":4376,"à¤¤à¤ĸ":4377,"à¤°à¤°à¤¤":4378,"Ġà¤ħà¤µà¤®":4379,"Ġà¤µà¤ľà¤¨":4380,"Ġà¤µà¤¨à¤²":4381,"Ġà¤Ŀà¤¡à¤ªà¤®":4382,"Ġà¤ĩà¤¬":4383,"à¥ªà¥®":4384,"Ġà¤¤à¤¹à¤¸":4385,"à¤īà¤¨à¤¸à¤ķ":4386,"à¤īà¤¨à¤¸à¤®":4387,"à¤²à¤¬à¤ľ":4388,"à¤ķà¤¡à¤Ń":4389,"à¤¤à¤¸à¤¹":4390,"à¤µà¤Łà¤ķ":4391,"Ġà¥§à¥¦à¥®":4392,"ind":4393,"ian":4394,"à¤¬à¤Īà¤ķ":4395,"à¥įâĢĶ":4396,"Ġ.....":4397,"Ġà¤°à¤«":4398,"à¤īà¤Ĺ":4399,"Ġà¤¸à¤®à¤·":4400,"Ġà¤¸à¤ķà¤¸":4401,"à¤¯à¤¸à¤¸":4402,"à¤°à¤Ł":4403,"Ġà¤ķà¤°à¤®":4404,"Ġà¤¬à¤®à¤ķ":4405,"Ġà¤®à¤ł":4406,"à¥Ńà¥¯":4407,"à¥¬à¥ª":4408,"à¤µà¤¶à¤ķ":4409,"Ġà¤ĵà¤ĩà¤°":4410,"Ð¾Ð¼":4411,"oogle":4412,"à¥Įà¤ģ-":4413,"à¤°à¤ľà¤¹":4414,"à¤®à¤¨à¤²":4415,"à¤¸à¤ĸ":4416,"Ġà¤ķà¤¶":4417,"Ġà¤®à¤·":4418,"Ġà¤¦à¤°à¤Ń":4419,"à¤ħà¤¦":4420,"other":4421,"à¥ĭ!":4422,"Ġà¤ªà¤°à¤ķ":4423,"à¤¦à¤°à¤¬":4424,"Ġà¤Ľà¤łà¤ķ":4425,"à¤¯à¤µà¤°":4426,"à¤ķà¤®à¤§":4427,"à¤¤à¤®à¤¬":4428,"à¤®à¤¨à¤Ĺà¤°":4429,"à¥ģ'":4430,"à¤¤à¤°à¤Ļ":4431,"Ġà¤Ĩà¤®à¤¸à¤ŀ":4432,"à¤īà¤ªà¤¡":4433,"ook":4434,"à¤ªà¤¯à¤ķ":4435,"Ġà¤ħà¤²à¤®à¤²à¤®":4436,"Ġà¤¦à¤Ļ":4437,"Ġà¤ıà¤Ĩà¤Īà¤ľ":4438,"Ð½Ñĭ":4439,"à¤°à¤ĸà¤°":4440,"Ġà¤¸à¤¦à¤¨à¤ķ":4441,"Ð¾Ð»":4442,"à¤®à¤¤à¤°":4443,"Ġà¥Ńà¥¦à¥¦":4444,"Ġà¤ıà¤¤":4445,"Ġà¤ħà¤¨à¤ª":4446,"ah":4447,"ĠÐ¿ÑĢ":4448,"Ġan":4449,"à¤¯à¤ĺ":4450,"à¤łà¤°":4451,"uc":4452,"Ġà¤ľà¤²à¤¬":4453,"à¤īà¤ĸ":4454,"à¤¿à¥ĩ":4455,"à¤Łà¤ħà¤¨":4456,"Ġà¤ĨËĨà¤¨":4457,"à¤¯à¤ķà¤°à¤£":4458,"à¤§à¤¨à¤µ":4459,"à¤¦à¤¯à¤ķ":4460,"à¥įà¥¤âĢĿ":4461,"à¤Ĩà¤¸":4462,"Ġà¤ħà¤ķà¤²":4463,"à¤¶à¤¸à¤®":4464,"à¤Īà¤¸à¤®":4465,"à¤ļà¤¸à¤®":4466,"Ñİ":4467,"à¤µà¤¸à¤²":4468,"à¤¤à¤ªà¤Ľ":4469,"à¤§à¤¶":4470,"Ġà¤Ĩà¤ĺ":4471,"à¤§à¤¨à¤ªà¤Ľ":4472,"à¤Ĺà¤£à¤®":4473,"Ġà¤µà¤®":4474,"à¤°à¤¶à¤®à¤¶":4475,"à¤¨à¤ļà¤°":4476,"à¤²à¤¨à¤¹à¤°":4477,"à¤Ĩà¤Īà¤Ń":4478,"Ġor":4479,"à¤ļà¤ĸ":4480,"Ð¾Ð´":4481,"ĠâĨĴ":4482,"à¤ıà¤«à¤ķ":4483,"Ġà¤¯à¤¸à¤¸à¤®":4484,"ee":4485,"Ġà¤ķà¤¨à¤ķ":4486,"à¤īà¤Ń":4487,"à¤£à¤¯à¤ħà¤¨":4488,"à¤¯à¤ªà¤¦":4489,"à¤Ńà¤ı":4490,"à¤¯à¤²à¤¯à¤®":4491,"à¤¤à¤°à¤¸":4492,"à¥ĢâĢĻ,":4493,"ect":4494,"à¤Łà¤ķà¤²":4495,"ire":4496,"ÑĨ":4497,"à¤¯à¤¡":4498,"à¤¶à¤ľ":4499,"Ġà¥§à¥¦à¥§":4500,"ĠOff":4501,"à¤Ļà¤ª":4502,"à¤ľà¤°à¤®":4503,"Ġà¤«à¤°à¤µ":4504,"à¤®à¤¦à¤°":4505,"vious":4506,"Ġà¤¬à¤²à¤¤":4507,"Ġà¤Ĩà¤Īà¤¤à¤µ":4508,"Ð³":4509,"Ġà¤ıà¤¯":4510,"Ġà¥¦à¥Ńà¥¦":4511,"à¤ķà¤Ńà¤¨":4512,"à¤ĩà¤Ĺà¤°":4513,"Ġà¤Ĩà¤°à¤ľ":4514,"à¤²à¤Ĺà¤¢":4515,"Ġà¤®à¤Ļà¤ª":4516,"ĠAr":4517,"Ð¹":4518,"à¤®à¤Ŀ":4519,"à¤Ĺà¤§à¤¨":4520,"à¤¬à¤¨à¤ķ":4521,"à¤¶à¤ħà¤¨":4522,"à¤ĩà¤ıà¤®":4523,"à¤ĩà¤ıà¤²":4524,"Ġà¤§à¤ª":4525,"Ġà¤Ĥ":4526,"à¥įà¤ģ":4527,"Ġà¤®à¤ķà¤°":4528,"Ġ!!!":4529,"Ġà¥¦à¥ªà¥¬":4530,"à¤¾!":4531,"à¤²à¤¢":4532,"Ġà¤ıà¤¬à¤®":4533,"ĠâĢł":4534,"Ġà¤ĩà¤¯":4535,"à¤¦à¤¨à¤ħà¤¨":4536,"Ġà¤¸à¤¤à¤¹à¤¬":4537,"Ġà¤¹à¤ķà¤¸à¤®":4538,"à¤Īà¤Ĺ":4539,"Ġà¤«à¤Ľ":4540,"à¤°à¤¬à¤ķ":4541,"à¤Ńà¤µà¤¹à¤°":4542,"Ġà¤Ńà¤Ļ":4543,"Ġà¤ıà¤¯à¤°à¤¬":4544,"Ġ16":4545,"ext":4546,"à¥ĭ/":4547,"Ġà¤«à¤°à¤ķà¤«à¤°à¤ķ":4548,"à¤¨à¤Ńà¤ıà¤ķ":4549,"à¤¶à¤ªà¤Ľ":4550,"Ġà¥¨à¥¦à¥«à¥Ń":4551,"à¤°à¤Ľ":4552,"à¤¦à¤¸à¤®":4553,"à¤¸à¤¹à¤Ń":4554,"ÑģÐº":4555,"Ġà¤ĵà¤Ńà¤°à¤ķ":4556,"à¤Ĺà¤®à¤®":4557,"Ġà¤Ĩà¤°à¤¤":4558,"Ġà¤ħà¤µà¤¸à¤°à¤µ":4559,"Ġà¥§à¥¦à¥¦à¥¦":4560,"Ġà¤ħà¤ªà¤¹":4561,"Ġà¤ªà¤Łà¤ķà¤¥":4562,"ags":4563,"Ġà¤Ĺà¤Ľ":4564,"ĠDownload":4565,"ĠPrevious":4566,"Ġà¤ķà¤¸à¤®":4567,"à¤Ļà¤¤à¤°":4568,"à¤¨à¤²à¤¹à¤°":4569,"à¤ıà¤¸à¤ıà¤®":4570,"Ġ200":4571,"à¥ĭ:":4572,"à¤ļà¤²à¤²":4573,"à¤Ńà¤ŀ":4574,"Ġà¤ħà¤¨à¤°":4575,"à¤½à¤½":4576,"Ġà¤ħà¤ªà¤¹à¤°à¤£à¤®":4577,"à¤¦à¤ķà¤°":4578,"à¤Łà¤¨à¤°":4579,"à¥¬à¥Ń":4580,"Ġà¤ĭà¤£à¤ªà¤¤":4581,"à¤¯à¤Łà¤¨à¤²":4582,"ile":4583,"à¤ªà¤¬à¤¹":4584,"à¤£à¤§":4585,"Ġà¤ħà¤¸à¤¤":4586,"à¤ĵà¤°":4587,"Ġà¤ħà¤¬à¤§":4588,"ass":4589,"à¤ıà¤Īà¤²":4590,"à¤«à¤Ł":4591,"à¤¯à¤Łà¤¨à¤®":4592,"Ġà¤ķà¤¦à¤®à¤ķ":4593,"Ġà¤Ĩà¤µà¤°à¤£à¤®":4594,"one":4595,"Ġà¤ħà¤¸à¤®à¤°":4596,"?âĢĻ":4597,"à¤°à¤®à¤ª":4598,"à¥ĭà¥¤'":4599,"à¤Ĩà¤²":4600,"à¤Łà¤¨à¤Ĺà¤°à¤²":4601,"Ġà¤ıà¤ļà¤Ĩà¤Īà¤Ń":4602,"à¤§à¤¸à¤®":4603,"Ġà¤ıà¤ķà¤ªà¤²":4604,"Ġwh":4605,"ld":4606,"à¤ľà¤«":4607,"Ġà¤µà¤¹à¤¨":4608,"Ġà¤ħà¤¸à¤ľ":4609,"à¤µà¤¦à¤¨":4610,"Ġà¤°à¤¡":4611,"à¤ıà¤ıà¤«à¤ª":4612,"Ġà¤²à¤Ł":4613,"Ġà¤ĸà¤ķ":4614,"à¤¤à¤¤à¤°":4615,"Ġà¤¤à¤Łà¤¸":4616,"Ġà¤ĺà¤®à¤£":4617,"Ġà¤¯à¤¸à¤Ńà¤¨":4618,"able":4619,"DF":4620,"à¤ĺà¤¦":4621,"ll":4622,"Ġ13":4623,"Ġà¤¹à¤¬":4624,"à¥į,âĢĿ":4625,"Ð»Ð¸":4626,"Ġthis":4627,"à¤µà¤¤à¤°":4628,"Ġà¤ķà¤®à¤²à¤ª":4629,"à¤·à¤§à¤ķ":4630,"Ġà¤ıà¤ķà¤Ĩà¤ªà¤¸à¤®":4631,"à¤¤à¤¨à¤¸":4632,"Ġ:-":4633,"Ġà¤¨à¤Ĺà¤ıà¤ķ":4634,"Ġà¤Ĩà¤¯à¤ķà¤°":4635,"à¥«à¥§":4636,"à¤®à¤¤à¤¸à¤®":4637,"à¤Ĩà¤°à¤¸":4638,"ok":4639,"à¤¸à¤°à¤¤":4640,"à¤¦à¤²à¤®":4641,"à¤§à¤µà¤ª":4642,"à¤ħà¤µ":4643,"à¤¯à¤£à¤²":4644,"à¤¹à¤°à¤£à¤¹à¤°":4645,"Ġcon":4646,"à¤¥à¤ķà¤²":4647,"à¤Ĺà¤®à¤¸":4648,"Ġà¤¸à¤¹à¤¨à¤¶":4649,"à¥įâĢĿ,":4650,"Ġà¤¯à¤¸à¤®à¤§":4651,"Ġare":4652,"Ġà¥§à¥¨à¥«":4653,"Ġà¤¨à¤Ĩà¤ıà¤ªà¤Ľ":4654,"à¤ĩà¤¨à¤¸":4655,"Ġà¥§à¥¬à¥¦":4656,"à¤¨à¤¤à¤²":4657,"à¥ĭà¤ĥ":4658,"à¤¸à¤°à¤£":4659,"à¤Īà¤¬à¤°":4660,"Ġà¤ıà¤®à¤ı":4661,"à¤Ĩà¤°à¤Ĩà¤Ī":4662,"ress":4663,"à¤·à¤¶":4664,"à¤Ľà¤¸":4665,"Ġà¤ıà¤ķà¤¨":4666,"Ġà¤ĩà¤Łà¤²":4667,"à¤Ĺà¤²à¤Ĺ":4668,"orm":4669,"à¤¹à¤ªà¤Ľ":4670,"à¤Ĩà¤Ĺ":4671,"à¥¯à¥¯":4672,"Ġà¤ľà¤Ĺà¤¨":4673,"Ġà¤ªà¤¹à¤²à¤ķà¤¦à¤®":4674,"\",":4675,"AN":4676,"Ġen":4677,"à¤²à¤®à¤£":4678,"à¤°à¤®à¤£à¤ªà¤Ľ":4679,"Ġà¥§à¥¯à¥¯à¥ª":4680,"à¤ĸà¤°à¤ķ":4681,"à¤¤à¤¨à¤¹à¤°":4682,"ob":4683,"à¤ķà¤£":4684,"à¤ļà¤µà¤°":4685,"Ġà¤ĩà¤¥":4686,"Ġà¤ĵà¤ĸà¤°":4687,"ational":4688,"à¤ıà¤¶à¤¨":4689,"à¤ķà¤°à¤£à¤¸":4690,"Ġà¥¦à¥¬à¥¨":4691,"à¤¸à¤¸à¤ķ":4692,"à¤¸à¤ªà¤°":4693,"à¤ıà¤Łà¤°":4694,"Ġà¥§à¥¯à¥¯à¥¯":4695,"Ġà¤Ľà¤¬":4696,"Ġà¤¤à¤®à¤²":4697,"à¥«à¥ª":4698,"Ġà¤Ńà¤ıà¤ħà¤¨":4699,"à¤ļà¤¨à¤¸à¤®":4700,"Ġà¤Ĩà¤¡":4701,"à¤¸à¤®à¤µ":4702,"à¤¯à¤®à¤£":4703,"à¤ħà¤·":4704,"Ġà¤¸à¤¨à¤¸à¤¨":4705,"à¥¯à¥®":4706,"à¥į,âĢĺ":4707,"Ġ14":4708,"Ġà¤Ĩà¤ĩà¤¡à¤²à¤ķ":4709,"Ġà¤ľà¤¯à¤°":4710,"Ġà¤īà¤ªà¤Ĺ":4711,"Ġà¤ĵà¤¨à¤¸à¤°":4712,"Ġà¤Īà¤ª":4713,"ĠÐ¼":4714,"à¤¼à¥Ģ":4715,"ĠGoogle":4716,"Ġà¤Ńà¤ıà¤¸à¤®":4717,"Ġà¥¦à¥Ńà¥§":4718,"Ð¸ÑĤ":4719,"Ġà¤¨à¤µà¤¯":4720,"à¥Įà¤ĤâĢĻ,":4721,"Ġà¤Ĩà¤µà¤¤":4722,"Ġsp":4723,"ys":4724,"Ġat":4725,"à¤°à¤Ĺà¤¢":4726,"à¤Ĺà¤ľà¤ķ":4727,"à¤£à¤ļà¤¨":4728,"à¤ĩà¤¬à¤²":4729,"à¤ªà¤¨à¤¬":4730,"à¤°à¤¦à¤¤":4731,"à¤¬à¤ļ":4732,"à¤·à¤¸à¤¹":4733,"NepalM":4734,"av":4735,"Ġà¤ĭà¤ļ":4736,"à¥Įà¤ģ,âĢĻ":4737,"à¥¨à¥¦à¥Ńà¥©":4738,"à¤²à¤ĺ":4739,"à¤¤à¤Ĺà¤°":4740,"à¥«à¥®":4741,"Ġà¤ĵà¤ªà¤¨à¤°":4742,"à¤łà¤¬":4743,"à¤¯à¤¤à¤ª":4744,"tern":4745,"19":4746,"à¤Ļà¤ļ":4747,"Ġà¥¨à¥¦à¥«à¥©":4748,"à¥į|":4749,"Ġà¤ĸà¤µ":4750,"Ġà¤§à¤µà¤²":4751,"à¥«à¥©":4752,"Ġà¤®à¤¹ÅĴà¤µ":4753,"Ġà¤¦à¤Ĺ":4754,"à¤ĸà¤²à¤¨":4755,"à¤īà¤¡à¤°":4756,"Ġà¤¶à¤¸à¤¸":4757,"Ġà¤°à¤¹à¤ķ":4758,"Ġà¤ªà¤Łà¤ķà¤®":4759,"000":4760,"Ġà¤ĺà¤°à¤µ":4761,"Ġà¤ļà¤¡":4762,"Ġ=":4763,"ĠÑĤ":4764,"à¤¸à¤Ńà¤¨":4765,"Ġà¤¨à¤¸à¤®":4766,"à¤°à¤ķà¤µ":4767,"à¤²à¤¬à¤¹à¤°":4768,"Ð¾Ð³":4769,"à¤²à¤°à¤¹":4770,"à¤£à¤¦":4771,"à¤¯à¤®à¤µ":4772,"Ġà¤ķà¤Łà¤¹à¤°":4773,"NepalMother":4774,"à¤ıà¤²à¤®":4775,"à¥¨à¥¦à¥Ńà¥¨":4776,"Ġà¤ķà¤łà¤ĺà¤°":4777,"ER":4778,"à¤²à¤Ĺà¤®":4779,"Ġfrom":4780,"à¤¸à¤ľà¤¸":4781,"Ġà¤¬à¤¬à¤Ī":4782,"à¤²à¤ķà¤¬":4783,"Ġà¤ħà¤°à¤µ":4784,"à¤¹à¤¸à¤®":4785,"à¥ªà¥¬":4786,"Ġà¤Ķà¤¸à¤¤à¤®":4787,"Ġà¤ªà¤¦à¤Ń":4788,"à¤®à¤£à¤²":4789,"Ġthat":4790,"à´":4791,"Ġà¤Ĩà¤Īà¤ıà¤®à¤Ī":4792,"ĠSh":4793,"Ġà¥§à¥¯à¥¯à¥¬":4794,"Ġà¤Ĺà¤ıà¤®":4795,"à¤ıà¤²à¤²":4796,"Ġà¤¬à¤²à¤¬à¤¹":4797,"Ġà¤¦à¤¸à¤®":4798,"à¤ĩà¤µà¤Ł":4799,"Ġà¤ĺà¤®":4800,"ontin":4801,"Ġà¤¤à¤µà¤°à¤¬":4802,"Ġà¤Īà¤¯":4803,"à¥įà¤ĥ":4804,"à¤Ĺà¤¹":4805,"à¥Īà¤ĥ":4806,"à¤¸à¤¶":4807,"à¤Łà¤®à¤®":4808,"à¤¶à¤¯à¤¯":4809,"Ġà¤¶à¤¸à¤ķ":4810,"Ġà¤ĩà¤¡":4811,"Ġà¤ħà¤¸à¤°à¤²":4812,"à¤·à¤£à¤¸à¤®":4813,"à¤¶à¤¨à¤¸à¤®":4814,"Ġ18":4815,"Ġch":4816,"à¤¦à¤ķà¤ª":4817,"Ġà¤¨à¤Ĺà¤°à¤²":4818,"Ġà¤Ĳà¤²":4819,"à¥į'":4820,"Ġà¤¨à¤°à¤¹à¤°":4821,"à¤¾à¤ģ)":4822,"Ġà¤Łà¤²":4823,"à¤ľà¤Ĺà¤¨":4824,"Ġà¤ħà¤ĸà¤¡":4825,"ork":4826,"df":4827,"à¤¾âĢĶ":4828,"à¤²à¤ħà¤§":4829,"à¤ıà¤«à¤²":4830,"à¤¬à¤®à¤®":4831,"Ġà¤ıà¤²à¤°":4832,"Ġà¤¨à¤Ĺà¤°à¤¬":4833,"Ġà¤ľà¤²à¤ª":4834,",...":4835,"br":4836,"Ð·":4837,"à¤¬à¤ĸà¤¤":4838,"à¤«à¤µ":4839,"Ġà¤Ĩà¤®à¤¸à¤Ń":4840,"à¤¯à¤µà¤§":4841,"Ġ$":4842,"Ġà¤ľà¤¨à¤Ĺ":4843,"à¥«à¥¬":4844,"à¤¹à¤¡":4845,"à¤¹à¤°à¤®":4846,"Ġà¤ľà¤¨à¤§à¤¨à¤ķ":4847,"Ġà¤ħà¤¬à¤¸à¤°":4848,"à¤īà¤¨à¤¬":4849,"à¤ĺà¤¨à¤ķ":4850,"à¥Įà¤Ĥ:":4851,"à¤§à¤ķà¤ķ":4852,"à¤ĸà¤§à¤°":4853,"à¥¤[":4854,"à¤ľà¤¨à¤¹à¤°":4855,"à¤µà¤°à¤£à¤¹à¤°":4856,"Ġà¤Ĩà¤łà¤µà¤Ł":4857,"Ġà¤ıà¤«à¤ı":4858,"ĠSam":4859,"urb":4860,"à¥į&":4861,"à¤¸à¤¤à¤°":4862,"à¤§à¤ķà¤°":4863,"à¤°à¤µà¤¹":4864,"à¤·à¤ķà¤¬":4865,"so":4866,"Ġà¤ħà¤¹à¤®à¤¦":4867,"à¤¤à¤²à¤Ĺ":4868,"ortal":4869,"à¤Īà¤¨à¤®":4870,"à¤¡à¤Ĺ":4871,"act":4872,"ult":4873,"à¤¤à¤Ńà¤¨":4874,"à¤°à¤Ńà¤ķ":4875,"Ġhe":4876,"à¤ľà¤®à¤°":4877,"Ġà¤¨à¤Ĺà¤¦à¤¸à¤¹":4878,"Ġà¤µà¤ļ":4879,"à¤¸à¤¦à¤¸":4880,"à¤¿/":4881,"Ġà¥¤,":4882,"à¤¬à¤Ĺà¤°":4883,"à¤¥à¤¨à¤ķ":4884,"à¤¤à¤°à¤¨":4885,"à¤µà¤¦à¤¹":4886,"Ñį":4887,"à¤¯à¤²à¤¯à¤ķ":4888,"Ġà¥¤âĢĻâĢĻ":4889,"Ġby":4890,"à¤°à¤¡à¤ķ":4891,"à¤¡à¤¨à¤¸":4892,"à¤¤à¤°à¤¤à¤°":4893,"ĠÑĢ":4894,"à¤ķà¤ļ":4895,"Ġà¤²à¤Ļ":4896,"Ġà¤ĩà¤«":4897,"à¥Įà¤ģâĢĻ":4898,"à¤ĩà¤²à¤¹à¤°":4899,"Ġà¥¨à¥¨à¥¦":4900,"à¤ıà¤¨à¤Ĩà¤°à¤ıà¤¨à¤ı":4901,"à¤Łà¤²à¤¬":4902,"Ġà¤Ńà¤ŀ":4903,"Ġà¤ħà¤¥à¤ķ":4904,"Ġà¤ĺà¤°à¤ª":4905,"ĠâĢĵâĢĺ":4906,"No":4907,"à¤ĩà¤Łà¤°":4908,"Ġà¤ĺà¤ļ":4909,"Ġà¤¸à¤¹à¤ľà¤°":4910,"Ġà¥§à¥§à¥©à¥¯":4911,"ere":4912,"Ġà¤ľà¤²à¤¯":4913,"Ġà¤ĸà¤¶":4914,"à¤Ļà¤¤":4915,"à¤¨à¤²à¤¬":4916,"à¤²à¤®à¤²":4917,"Ġà¥§à¥¬à¥«":4918,"Ð½Ð¾":4919,"Ġà¤¹à¤ł":4920,"Ġà¤Łà¤¯":4921,"à¤°à¤µà¤¤":4922,"à¤¿âĢĿ":4923,"à¤²à¤ł":4924,"à¥©à¥Ń":4925,"à¤ļà¤ķà¤¨":4926,"Ġà¤ħà¤¨à¤¶à¤¨à¤®":4927,"Ġà¤ķà¤®à¤¸à¤²":4928,"à¤¾à¤ģà¤Ĥ":4929,"Ġà¤Īà¤ľ":4930,"eli":4931,"æľ":4932,"à¤®à¤¤à¤®":4933,"à¤¬à¤°à¤¬":4934,"à¤£à¤¤à¤°":4935,"Ġà¤¦à¤¶à¤ķà¤ªà¤Ľ":4936,"Ġà¤¸à¤°à¤¹à¤ķ":4937,"à¤Ļà¤°":4938,"à¤¡à¤²à¤¹à¤°":4939,"anc":4940,"Ġà¥§à¥¯à¥®à¥¦":4941,"Ġex":4942,"Ġà¤Ĩà¤¯à¤®":4943,"Ġà¤ıà¤²à¤ª":4944,"à¥ªà¥ª":4945,"à¤ľà¤¸à¤°":4946,"Ġà¥§à¥®à¥¦":4947,"à¤¨à¤¯à¤¨à¤®":4948,"ear":4949,"à¤§à¤ľà¤¨":4950,"Ġà¤īà¤¸à¤®":4951,"Ġà¤¸à¤®à¤Ŀ":4952,"Ġà¤Ĩà¤ĩà¤°à¤¨":4953,"ÐµÐ»":4954,"ss":4955,"Â·":4956,"à¤¤à¤¨à¤ªà¤Ľ":4957,"Ġà¤Ĺà¤£à¤ªà¤¤":4958,"à¤¯à¤£à¤Ĺ":4959,";&":4960,"à¤¡à¤ªà¤¤":4961,"à¤ĩà¤²à¤¬":4962,"Ġà¥¨à¥¦à¥ªà¥«":4963,"ri":4964,"à¤Łà¤ªà¤Łà¤ķ":4965,"Ġà¤ħà¤Łà¤²":4966,"à¤ģ,âĢĻ":4967,"à¤ĩà¤ľà¤¨":4968,"Ġà¤ħà¤¨à¤µà¤°à¤¤":4969,"à¥¬à¥§":4970,"Ġà¤¸à¤¹à¤°à¤¹à¤°":4971,"à¤¬à¤®à¤ķ":4972,"à¤¨à¤¬à¤¤":4973,"à¤°à¤ľà¤¹à¤°":4974,"Ø§Ø":4975,"äº":4976,"à¤ķà¤§":4977,"à¤ªà¤ľ":4978,"ĠPDF":4979,"Ġà¤Ľà¤²à¤«à¤²à¤²":4980,"Ġal":4981,"à¤ķà¤ķà¤²":4982,"à¤®à¤²à¤²":4983,"Ġà¤¨à¤ħ":4984,"à¤¤à¤«":4985,"à¤ľà¤ªà¤°":4986,"à¤Łà¤®à¤§":4987,"à¤īà¤ªà¤Ĺ":4988,"Ġà¤ªà¤¸à¤²à¤¬":4989,"Ġà¤§à¤¡":4990,"Ġà¤ķà¤®à¤²à¤°":4991,"Ġà¥§à¥¯à¥¯à¥©":4992,"oh":4993,"Ġà¤¹à¤²à¤ķ":4994,"à¤¬à¤ªà¤¤":4995,"à¤īà¤¦à¤²":4996,"à¤µà¤¸à¤Ń":4997,"à¤¦à¤¨à¤¸":4998,"Ġà¤®à¤²à¤ľà¤²":4999,"Ġà¥§à¥¦à¥«":5000,"Ġ17":5001,"ontinue":5002,"30":5003,"Ġqu":5004,"Ġà¤ħà¤µà¤ľ":5005,"Ġà¥§à¥¯à¥Ńà¥¦":5006,"Ġà¤ľà¤µà¤°à¤ľà¤¸":5007,"ng":5008,"à¤·à¤°à¤®":5009,"à¤Ńà¤ıà¤Ľ":5010,"Ġà¤ħà¤°à¤¬à¤®":5011,"à¤¦à¤¨à¤¬":5012,"à¥®à¥«":5013,"à¤ªà¤²à¤Ł":5014,"Ġi":5015,"Ġà¤¨à¤µà¤®":5016,"Ġà¤¬à¤Łà¤¨":5017,"Ġà¤ĸà¤Ĺà¤°":5018,"à¤Ŀà¤Ĺà¤¡":5019,"à¤Łà¤°à¤Ńà¤¨":5020,"à¤¶à¤¤à¤¬":5021,"à¥ĢÃ·":5022,"à¤¶à¤¬à¤¹":5023,"à¤°à¤ķà¤¹à¤°":5024,"Ġà¤¸à¤¬à¤¸":5025,"ÑĪ":5026,"à¤®à¤Ľ":5027,"à¥Ģ\"":5028,"à¤°à¤¹à¤£à¤ķ":5029,"à¤Ŀà¤¸à¤®":5030,"à¥ªà¥Ń":5031,"à¤¬à¤°à¤¸à¤®":5032,"Ġà¤ªà¤¢à¤¨":5033,"Ġà¤Ľà¤°à¤Ľ":5034,"Ġà¥§à¥¯à¥¯à¥«":5035,"Ġà¤¦à¤¸à¤®à¤²à¤µ":5036,"à¥įà¤¿":5037,"à¤¸à¤Ĺà¤¢":5038,"Ġà¤®à¤łà¤®":5039,"à¤¯à¤®à¤§":5040,"Ġà¤ĩà¤¯à¤°":5041,"à¤ħà¤¨à¤²":5042,"à¤Łà¤ħà¤ª":5043,"à¤ªà¤°à¤¹":5044,"à¤·à¤£à¤ªà¤Ľ":5045,"Ġà¥¯à¥¦à¥¦":5046,"Ġà¤ļà¤²à¤¨à¤ļà¤²":5047,"Ġà¤ľà¤¨à¤¸à¤¹à¤Ń":5048,"ens":5049,"ĠPro":5050,"Ġit":5051,"à¤¦à¤¯à¤®":5052,"à¤Ľà¤²":5053,"à¤Ńà¤²à¤ķ":5054,"à¤¢à¤ķ":5055,"Ġà¤ĩà¤Ļà¤²":5056,"Ġà¥§à¥¨à¥®":5057,"Ġà¤ķà¤°à¤²":5058,"à¤łà¤ª":5059,"Ġà¤ıà¤¸à¤ıà¤¸à¤¬":5060,"Ġà¥¨à¥¦à¥¨à¥®":5061,"à¤°à¤Ńà¤°à¤ķ":5062,"à¤ķà¤¨à¤²":5063,"Ġà¤¦à¤ĸ":5064,"Ġà¤ĸà¤¹à¤°":5065,"à¤ļà¤²à¤ļ":5066,"Ġ2016":5067,"ES":5068,"Tags":5069,"à¤®à¤ªà¤Ľ":5070,"à¤¯à¤®à¤¦":5071,"à¥¬à¥¨":5072,"?âĢĿ":5073,"Ġà¤Ĺà¤®à¤²":5074,"à¤¶à¤¶à¤°à¤£":5075,"Ġà¤¯à¤®à¤¨":5076,"à¤²à¤®à¤¨":5077,"cc":5078,"à¤Ĺà¤¨à¤²":5079,"Ġà¤¨à¤ľà¤¨":5080,"à¥ªà¥§":5081,"à¤®à¤²à¤Ł":5082,"Ġà¤Ĩà¤ĩà¤®":5083,"ÙĪ":5084,"Ġà¤Ńà¤Łà¤®":5085,"à¤¡à¤ķà¤ªà¤ķ":5086,"à¥Īà¤ģ,":5087,"Ġà¤¨à¤Ĩà¤ı":5088,"Ġà¤ıà¤¸à¤Īà¤Ī":5089,"Ġà¤¹à¤ķà¤²":5090,"Ġà¤Ĩà¤Īà¤Ł":5091,"à¤°à¤ªà¤¨":5092,"à¤®à¤Ńà¤¨":5093,"à¤ħà¤Ŀ":5094,"Ġà¤¨à¤Ŀ":5095,"à¤ľà¤¯à¤ª":5096,"à¤ĸà¤ļ":5097,"à¤ŀà¤®":5098,"Ġà¤ľà¤Ĺà¤¦à¤®":5099,"ank":5100,"2018":5101,"à¥Ī/":5102,"Ġà¤¬à¤®à¤²":5103,"à¥ªà¥¨":5104,"Ġà¤Ľà¤²à¤«à¤²à¤¬":5105,"Ġà¤ľà¤¯à¤¨à¤Ĺà¤°":5106,"à¤°à¤¨à¤ķ":5107,"à¤µà¤ħà¤¨":5108,"à¤īà¤ªà¤¤":5109,"à¤ĩà¤£":5110,"Ġà¤¶à¤¯":5111,"à¤Ļà¤¹":5112,"Ġ--":5113,"ru":5114,"Ġà¤ıà¤¡à¤®":5115,"à¥ªà¥¯":5116,"à¤Ĩà¤Īà¤ķ":5117,"à¥®à¥®":5118,"Ġà¥§à¥©à¥¨":5119,"Ġreading":5120,"à¤¯à¤Łà¤¨à¤®à¤¨":5121,"ical":5122,"Ġ30":5123,"Ġà¥§à¥¯à¥¬à¥¦":5124,"à¥ħ":5125,"à¤®à¤¦à¤¨":5126,"à¥«à¥¯":5127,"Ġà¤Īà¤Ł":5128,"Ġà¤¸à¤¹à¤ľà¤ķà¤°":5129,"Ġà¤¸à¤®à¤¥à¤°":5130,"à¤²à¤¬à¤¬":5131,"Ġà¤Ĩà¤łà¤¬":5132,"Ġà¤°à¤ľà¤¸":5133,"Ġà¤ļà¤Łà¤ķ":5134,"Ġà¤ªà¤°à¤µ":5135,"ink":5136,">>":5137,"à¤°à¤ªà¤°":5138,"à¤¤à¤ľà¤¨à¤²":5139,"à¤µà¤¯à¤²":5140,"Ġà¤µà¤§":5141,"à¤¡à¤ķà¤²":5142,"à¤ıà¤¸à¤¨à¤²":5143,"à¤£à¤¤à¤¯":5144,"Ġà¤Ĺà¤¹à¤¤à¤°":5145,"à¤¾à¤ģà¤ģ":5146,"Ġà¤¸à¤ķà¤Ńà¤°":5147,"à¤¸à¤¨à¤°":5148,"Ġà¤ıà¤¡à¤Ń":5149,"Ġà¥¤-":5150,"Ġà¤«à¤Ĺà¤¤":5151,"à¤¸à¤¨à¤µ":5152,"ĠNov":5153,"Ġà¥§à¥¯à¥®à¥¬":5154,"à¥¦à¥¬à¥©":5155,"mail":5156,"ge":5157,"à¥Įà¤¾":5158,"Ġà¤¯à¤¸à¤ħà¤¨":5159,"à¤ĩà¤¨à¤ĸà¤¬":5160,"Ġà¤¦à¤®à¤ķà¤®":5161,"à¤¿âĢľ":5162,"à¤ªà¤°à¤¤":5163,"Ġ''":5164,"][":5165,"à¤ļà¤¯à¤ķà¤°":5166,"à¤¡à¤°à¤¹à¤°":5167,"à¤ĩà¤¡à¤²":5168,"Ġà¤¥à¤°à¤ķ":5169,"Ġà¤ħà¤¨à¤§":5170,"à¥¦à¥Ńà¥¨":5171,"Ð°ÑĢ":5172,"à¤¤à¤ľà¤¸":5173,"Ġà¤®à¤¥":5174,"à¤¬à¤¸à¤®":5175,"Ġà¤¯à¤¸à¤µ":5176,"Ġà¤Ĩà¤īà¤¨à¤¸à¤ķ":5177,"Ġà¤¦à¤¶à¤ķà¤¸à¤®":5178,"ĠX":5179,"à¤µà¤¤à¤¯":5180,"Ġà¥¨à¥¦à¥©à¥¬":5181,"à¤Ĺà¤Ļ":5182,"à¤µà¤°à¤£à¤ħà¤¨":5183,"Ã¡":5184,"à¤²à¤¥":5185,"à¤ĸà¤ª":5186,"Ġà¤ĺà¤°à¤¸à¤®":5187,"ĠTr":5188,"à¤®à¤¬à¤²":5189,"à¤ĩà¤¤à¤®":5190,"à¤Ļà¤ĸ":5191,"à¤¨à¤¸à¤¹à¤¨":5192,"à¤ľà¤¤à¤ªà¤¤":5193,"à¤ıà¤¸à¤²":5194,"Ġà¤²à¤ª":5195,"Ġà¤ħà¤²à¤µ":5196,"ĠNext":5197,"Ġà¤£":5198,"à¤Īà¤ªà¤ķ":5199,"à¤ĩà¤«à¤²":5200,"Ð¾Ð½":5201,"Ġà¤ıà¤ķà¤ª":5202,"à¤¨à¤ªà¤Łà¤ķ":5203,"à¤ĩà¤¨à¤²à¤¸à¤®":5204,"à¤¿!":5205,"Ġà¤¬à¤«":5206,"à¤°à¤£à¤µ":5207,"Ġà¥§à¥¦à¥ª":5208,"Ġà¤¹à¤ķà¤¦":5209,"ĠPurb":5210,"Ð¸Ñı":5211,"Ġà¤°à¤¹à¤°à¤²":5212,"Ġà¤ħà¤®à¤¨":5213,"à¤ĩà¤¡à¤®":5214,"à¤ĺà¤ļ":5215,"à¤¯à¤®à¤¤":5216,"à¤®à¤²à¤Ĺ":5217,"Ġà¤Ĩà¤ĩà¤¹":5218,"Ġà¤Īà¤°":5219,"14":5220,"à¤¹à¤Ĺà¤¤":5221,"Ġà¥¤.":5222,"à¤§à¤¶à¤¤à¤ķ":5223,"à¤°à¤¦à¤®":5224,"à¤¯à¤¯à¤¨à¤¬":5225,"ĠPurbeli":5226,"pdf":5227,"Ġà¥ĩ":5228,"à¥ĩ!":5229,"à¤²à¤¨à¤¸à¤®":5230,"à¤®à¤ļà¤²":5231,"à¤Ĺà¤¬à¤ľ":5232,"Ġà¤°à¤£à¤¬à¤¹":5233,"Ġà¤Ńà¤·":5234,"à¤¾à¤Ĥà¤ģ":5235,"à¤¯à¤£à¤®":5236,"ãĢģ":5237,"pr":5238,"çļ":5239,"à¤¡à¤¨à¤²":5240,"Ġà¤¦à¤°à¤°":5241,"à¤¯à¤¸à¤²à¤Ĺà¤¤":5242,"à¤ľà¤¨à¤ķà¤ª":5243,"ark":5244,"à¤Ńà¤ħà¤Ļ":5245,"Ġà¤¶à¤µà¤²":5246,"Ġà¤ıà¤¥à¤²":5247,"...âĢĻ":5248,"Ġà¤ħà¤ļà¤²":5249,"à¤£à¤¸à¤Ń":5250,"à¤¢à¤²":5251,"ãģ®":5252,"Ã¤":5253,"à¤Ĺà¤«":5254,"à¥ĮâĢĻ":5255,"à¥Įà¤Ĥà¤ĥ":5256,"à¤¸à¤¹à¤¯":5257,"à¤¹à¤®à¤¦":5258,"con":5259,"à¤ķà¤¸à¤Ń":5260,"Ġà¤¨à¤µà¤ª":5261,"à¤ıà¤ķà¤¤":5262,"à¤°à¤®à¤¸à¤®":5263,"à¤¸à¤¨à¤¹à¤¸":5264,"à¤ªà¤ķà¤¤":5265,"à¥įâĢĵâĢĺ":5266,"à¤¨à¤ªà¤¨":5267,"à¤łà¤¨à¤®":5268,"Ġà¤ķà¤®à¤ķ":5269,"ath":5270,"Ġà¤¦à¤®à¤¨à¤ķ":5271,"Ġà¤ıà¤¨à¤Ĩà¤°à¤ıà¤¨à¤ıà¤ķ":5272,"à¤¾à¥Īà¤Ĥ,":5273,"Ġà¤ĵà¤ľ":5274,"Ġà¤¦à¤¶à¤ķà¤Ńà¤¨":5275,"à¤°à¤ķà¤°à¤£à¤²":5276,"à¥¤âĢĵ":5277,"ish":5278,"Ġà¤®à¤°à¤£":5279,"Ġà¤°à¤¹à¤¨à¤¸à¤¹à¤¨":5280,"Ġà¤¬à¤¸à¤¹à¤°":5281,"Ġà¤¦à¤®à¤ķà¤ķ":5282,"az":5283,"à¤¤à¤²à¤ķ":5284,"'s":5285,"à¤®à¤¸à¤¹":5286,"à¤·à¤ħà¤Ĺ":5287,"à¤ĩà¤Ľ":5288,"Ġà¤¤à¤¹à¤¸à¤¨à¤¹à¤¸":5289,"à¤ıà¤«à¤ı":5290,"Ġà¥§à¥¯à¥¯à¥¨":5291,"à¤¾à¥Ģ":5292,"Ġà¤«à¤¹à¤°":5293,"Ġà¤ľà¤¨à¤ªà¤ķ":5294,"Ġà¤Łà¤¡":5295,"à¤¤à¤°à¤Ĺà¤¤à¤ķ":5296,"à¤°à¤¨à¤Ĺà¤°à¤ķ":5297,"à¤ıà¤¸à¤ı":5298,"Ġ25":5299,"ick":5300,"à¥ĭ..":5301,"Ġà¤ħà¤ķà¤°":5302,"Ġà¤¸à¤¹à¤ħà¤§":5303,"à¤µà¤ķà¤¤":5304,"Ġà¤Ĭà¤¸":5305,"ign":5306,"ime":5307,"à¤Ńà¤²à¤®":5308,"Ġà¤¶à¤¤à¤ķ":5309,"Ġà¤°à¤¹à¤¯":5310,"Ġà¤ľà¤¨à¤ħà¤ª":5311,"Ġà¤Ńà¤ıà¤¯à¤¤":5312,"Ġà¤ıà¤®à¤¸":5313,"ari":5314,"Ġà¤Ńà¤ĩà¤¨à¤¸à¤ķ":5315,"à¤¯à¤°à¤¸":5316,"Ġà¤Ľà¤¤à¤®":5317,"à¤£à¤ªà¤Ľ":5318,"Ġà¤¸à¤®à¤¯à¤Ńà¤¨":5319,"à¤µà¤®à¤¹":5320,"à¤ıà¤¸à¤Ł":5321,"Ġà¥§à¥¯à¥¯à¥§":5322,"Ġà¤°à¤¨à¤µ":5323,"à¤ıà¤Ĺ":5324,"Ġà¤¶à¤°à¤£à¤®":5325,"à¥«à¥Ń":5326,"15":5327,"à¤¹à¤ķà¤®":5328,"à¤µà¤µà¤°":5329,"Ġà¤ķà¤Ľ":5330,"âĢĵâĢĺ":5331,"Ġà¥¨à¥¦à¥¨à¥§":5332,"çļĦ":5333,"à¤§à¤¨à¤ª":5334,"Ġà¥§à¥©à¥¦":5335,"Ġà¥¤à¥¤à¥¤":5336,"--------":5337,"IN":5338,"à¤°à¤Ļà¤²":5339,"Ġà¤¬à¤¬à¤°à¤®":5340,"Ġà¥§à¥¯à¥¬à¥¬":5341,"à¤¹à¤²à¤¤":5342,"à¤Ńà¤¹à¤°":5343,"à¤ĩà¤ľà¤ķ":5344,"Ġà¤Ĩà¤ĩà¤ıà¤®":5345,"ert":5346,"à¤®à¤Ĺà¤°à¤ķ":5347,"à¤Łà¤Ńà¤Ł":5348,"à¤ĵà¤ª":5349,"Ġà¤Ķà¤°à¤¹":5350,"Ġà¤Ńà¤Īà¤¨":5351,"Ð¾ÑĤ":5352,"à¥ģâĢĻ,":5353,"Ġà¤°à¤¤à¤¨":5354,"Ġà¤¥à¤µ":5355,"à¤°à¤£à¤¯":5356,"Ġà¤ıà¤¸à¤Īà¤ĵ":5357,"Ġà¤¤à¤¹à¤¦":5358,"Ġyour":5359,"à¤µà¤ªà¤ķ":5360,"Ġà¤¸à¤®à¤ª":5361,"Ġà¤Ĩà¤ĩà¤ķ":5362,"Ġla":5363,"à¤°à¤«à¤²à¤ķ":5364,"Ġà¤ĵà¤Ńà¤°à¤¸":5365,"à¤Īà¤ľà¤¹":5366,"à¤¯à¤°à¤¬à¤ľ":5367,"AR":5368,"Ġà¤Ĩà¤Ĺà¤®":5369,"à¤µà¤¯à¤¨à¤²":5370,"à¤ľà¤¨à¤¯":5371,"Ġà¤§à¤¨à¤²":5372,"à¤ķà¤¦à¤°":5373,"Ġà¤¤à¤¦à¤¨":5374,"à¤ĺà¤°à¤¬":5375,"à¤ıà¤¨à¤ª":5376,"à¤Ńà¤°à¤Ļ":5377,"à¤¨à¤µà¤¶":5378,"Ġà¤Ĺà¤ľà¤²à¤®":5379,"à¤ĩà¤µà¤°":5380,"à¤ľà¤¨à¤ª":5381,"à¤°à¤ªà¤Ł":5382,"à¤ľà¤¦à¤°à¤¬":5383,"à¤®à¤Ł":5384,"Ġà¤ıà¤¨à¤ª":5385,"Ġ??":5386,"ace":5387,"Ġà¤ľà¤Ĺà¤¤à¤²":5388,"ood":5389,"Ġà¤®à¤łà¤®à¤¨":5390,"Ġà¤ľà¤Ĺà¤ľ":5391,"Ġà¤¤à¤¹à¤®à¤§":5392,"Ġà¥¨à¥¦à¥©à¥«":5393,"à¤ķà¤Ńà¤°à¤ķ":5394,"à¤Ńà¤µà¤¨":5395,"à¤īà¤ªà¤®":5396,"Ġà¥¨à¥¦à¥©à¥©":5397,"à¤®à¤°à¤®":5398,"à¤¸à¤ĺ":5399,"à¤¨à¤®à¤¸":5400,"à¤ĩà¤¨à¤¹à¤°":5401,"à¥¯à¥«":5402,"à¤°à¤ļà¤¨à¤²":5403,"à¤¨à¤µà¤ľ":5404,"erv":5405,"Ġà¤ıà¤²à¤ľ":5406,"Ġpl":5407,"à¤¦à¤°à¤¹à¤°":5408,"à¤ĩà¤®à¤°":5409,"à¤ĩà¤¡à¤°":5410,"à¤¨à¤Ľà¤¨":5411,"à¤¯à¤Łà¤°":5412,"à¥Ģ?":5413,"à¤ľà¤¨à¤ľ":5414,"à¤Ĩà¤°à¤ª":5415,"à¤ķà¤°à¤ª":5416,"Ġà¤ķà¤²à¤¶":5417,"Ġà¤ıà¤ļà¤¡":5418,"Ġà¤°à¤¹à¤²":5419,"Ġà¤ħà¤®à¤°à¤¸":5420,"Ġà¤ıà¤¨à¤Ĩà¤ĩà¤¸":5421,"Ġà¥§à¥ªà¥¦":5422,"ĠTh":5423,"zw":5424,"à¤¤à¤ħà¤¨":5425,"à¤ļà¤ķà¤®":5426,"à¤¯à¤ķà¤¬":5427,"ãĢĤ":5428,"pl":5429,"à¥ģ?":5430,"Ġà¤°à¤ĸ":5431,"à¤ĩà¤²à¤²":5432,"à¤ĩà¤®à¤¨":5433,"Ġà¤¸à¤®à¤¯à¤¯à¤¤":5434,"Ġà¤¹à¤²à¤ļà¤²":5435,"Ġà¤Ĩà¤²à¤Ł":5436,"||":5437,"Åĵ":5438,"à¥į!":5439,"à¤Īà¤µà¤°":5440,"Ġà¤īà¤¥à¤²":5441,"Ġà¤ļà¤Ļ":5442,"Ġà¤ĩà¤¦":5443,"à¤¶à¤¨à¤ħà¤¨":5444,"ich":5445,"ĠKhabar":5446,"Ġà¤¨à¤Ĺà¤¨":5447,"Ġà¤Ĩà¤ıà¤¨à¤¨":5448,"à¤Ĩà¤ĩà¤¡":5449,"Ġà¤ľà¤¨à¤®à¤¤à¤ķ":5450,"à¥įà¤Ĥ":5451,"à¥ĭ\"":5452,"à¤Ĺà¤ľà¤¸":5453,"Ġà¤Łà¤¨à¤ķ":5454,"Ġà¤¸à¤¹à¤®à¤¹":5455,"à¤¯à¤¸à¤¦":5456,"Ġà¤§à¤°à¤ªà¤ķ":5457,"Ġà¤¬à¤Ĺà¤°à¤®":5458,"Ġà¤¨à¤Łà¤Ĩà¤īà¤Ł":5459,"à¤ķà¤¸à¤²":5460,"à¤Łà¤Ĩà¤īà¤Ł":5461,"à¤§à¤Ńà¤¤":5462,"Ġà¤²à¤¥":5463,"à¥ĭ,'":5464,"à¤¤à¤µà¤¨à¤¬":5465,"ory":5466,"gr":5467,"à¤²à¤ļà¤¨":5468,"Ġà¤®à¤¶":5469,"à¤ĺà¤¹à¤°":5470,"à¥ªà¥©":5471,"Ġà¤ıà¤®à¤¡":5472,"ree":5473,"Ġà¤ķà¤¬à¤¡":5474,"à¤·à¤°à¤ķ":5475,"à¤¤à¤¨à¤¬":5476,"Ġà¤Ķà¤°":5477,"Ġà¤ħà¤µà¤¤à¤°à¤£à¤ķ":5478,"Ġà¥§à¥¦à¥¨":5479,"Ġà¤ľà¤®à¤ĺ":5480,"à¤¿à¤Ĥà¤ģ":5481,"ann":5482,"ĠÐ±":5483,"Ġà¤ľà¤²à¤¶":5484,"Ġà¤ıà¤«à¤¸":5485,"ðŁ":5486,"à¤ķà¤ł":5487,"Ġà¤²à¤«":5488,"Ġà¤¶à¤µà¤ķ":5489,"à¤°à¤£à¤¸à¤®":5490,"à¤¯à¤®à¤ħà¤¨":5491,"à¤ıà¤¸à¤ıà¤²":5492,"Ġà¥§à¥®à¥®":5493,"Ġà¥¦à¥¬à¥©":5494,"à¤²à¤®à¤§":5495,"à¤®à¤¨à¤¸":5496,"Ġà¥¨à¥¦à¥ªà¥¦":5497,"Ġà¤ķà¤ľ":5498,"à¤ªà¤°à¤Ń":5499,"à¤ħà¤¡":5500,"à¤Ķà¤·à¤§à¤ķ":5501,"Ġà¤ıà¤¯à¤°à¤µ":5502,"Ġà¤¨à¤®à¤¨":5503,"Ġà¤Ĩà¤Ĭ":5504,"à¤ĩà¤¬à¤¹":5505,"à¥«à¥¨":5506,"à¤µà¤¨à¤ª":5507,"à¤ıà¤¨à¤ıà¤¸":5508,"à¤ķà¤²à¤²":5509,"Ġà¤ľà¤¨à¤ķà¤²":5510,"Ġà¤²à¤ļà¤ķà¤¤":5511,"form":5512,"à¤Ńà¤§":5513,"à¥ĮâĢĵ":5514,"akhabar":5515,"à¥ĩ),":5516,"Ġà¤ħà¤²à¤Ĩà¤īà¤Ł":5517,"org":5518,"à¤¯à¤¶à¤ķ":5519,"à¤Ĩà¤Īà¤²":5520,"ĠTVS":5521,"Åĵà¤¯":5522,"ual":5523,"ÙĨ":5524,"à¤ģ-":5525,"à¤ĸà¤ľ":5526,"Ġà¤ľà¤¨à¤¶":5527,"Ġà¤®à¤¨à¤Ń":5528,"Ġà¥§à¥§à¥§":5529,"Ġà¤¦à¤¶à¤Ĺà¤ľ":5530,"Ġà¤Īà¤Łà¤¹à¤°":5531,"ai":5532,"Ġz":5533,"à¤ķà¤ħ":5534,"Ġà¤¹à¤¯":5535,"Ġà¤Ķà¤ªà¤¨":5536,"à¤°à¤¸à¤®à¤ķ":5537,"Ð°Ð»":5538,"à¤ļà¤¡":5539,"à¥ĥ.":5540,"Ġà¤Łà¤ķà¤°":5541,"Ġà¤¸à¤¬à¤ķ":5542,"Ġà¤¸à¤¦à¤¨à¤²":5543,"Ġà¥§à¥¦à¥¯":5544,"Ġà¥¨à¥¦à¥©à¥ª":5545,"Ġà¤¨à¤ªà¤¤":5546,"à¤¯à¤¯à¤¨à¤ħà¤¨":5547,"à¤ķà¤Łà¤¬":5548,"ĠAn":5549,"Ġas":5550,"à¥ĩâĢĶ":5551,"Ġà¤°à¤¹à¤®":5552,"Ġà¤ĩà¤Ĺ":5553,"à¤Ĩà¤īà¤¨":5554,"âĢĿâĢĵ":5555,"Ġà¤ıà¤¸à¤ĩ":5556,"Ġà¤µà¤¨à¤Ń":5557,"Ġà¤ķà¤Łà¤µ":5558,"TC":5559,"à¤°à¤¨à¤²":5560,"à¤¹à¤¹":5561,"à¤¦à¤¨à¤¨":5562,"à¤§à¤ĸ":5563,"à¤¶à¤µà¤ķ":5564,"à¤²à¤ķà¤¤":5565,"à¤°à¤¦à¤²":5566,"ĠTVSagarmatha":5567,"ĠZ":5568,"Ġà¤°à¤Ł":5569,"à¤Īà¤ķà¤¨":5570,"Ġà¤ĸà¤²à¤²":5571,"à¤¶à¤¨à¤¸":5572,"Ġà¤¹à¤°à¤«":5573,"Ġà¥©à¥«à¥¦":5574,"à¤ıà¤¨à¤ķ":5575,"Ġà¤¦à¤²à¤¬à¤¹":5576,"à¤¸à¤ķà¤¸":5577,"Ġà¤ľà¤¨à¤ĺ":5578,"Ġà¤Łà¤Ł":5579,"à¥Įà¤Ĥà¤ģ":5580,"Ġà¤Ĩà¤µà¤°à¤£":5581,"à¤łà¤¦":5582,"Ġà¤ıà¤ķà¤®à¤¤":5583,"à¥«à¥¦à¥¦":5584,"à¤·à¤¦à¤¬":5585,"Ġà¥¨à¥ªà¥¦":5586,"Ġà¤¨à¤ĺà¤Ł":5587,"Ġà¤¤à¤°à¤ªà¤¨":5588,"Ġà¤ĵà¤ĸ":5589,"Ġà¤ħà¤¬à¤²à¤®":5590,"Ġà¥¨à¥¦à¥¨à¥«":5591,"ĠUn":5592,"à¤¨à¤µà¤®":5593,"Ġà¤īà¤µ":5594,"à¤°à¤®à¤°":5595,"ond":5596,"Ġà¥¦à¥¬à¥ª":5597,"16":5598,"pe":5599,"à¤¶à¤µà¤°":5600,"à¤¤à¤®à¤¨":5601,"ance":5602,"ept":5603,"Ġà¤¡à¤Łà¤ķà¤®à¤ķ":5604,"Ġus":5605,"à¤¯à¤ªà¤ķ":5606,"Ġà¥¤(":5607,"Ġà¤ıà¤Ĩà¤ĩà¤ľ":5608,"Ġ24":5609,"Ġà¤°à¤Ĺà¤¤à¤²":5610,"à¤Ĺà¤ıà¤ķ":5611,"Ġà¤Ĩà¤ĩà¤ıà¤ķ":5612,"à¤Īà¤®à¤¤":5613,"Ġà¤«à¤²à¤¤":5614,"à¤Łà¤¬à¤ľ":5615,"Ð¾Ð¹":5616,"Ø¯":5617,"à¤ķà¤·":5618,"à¤¹à¤²à¤ķ":5619,"à¤¤à¤®à¤¸":5620,"Ġà¥¨à¥¦à¥ªà¥¨":5621,"Ġà¤ĸà¤¬à¤°à¤¹à¤°":5622,"Ġà¤°à¤¨à¤°à¤ħà¤ª":5623,"74":5624,"à¤¶à¤¸à¤¹":5625,"Ġà¤¦à¤²à¤Ĺà¤¤":5626,"ĠQ":5627,"à¤ķà¤¨à¤ķà¤°":5628,"à¤¸à¤ļà¤¨":5629,"à¤£à¤¸à¤¹":5630,"à¤«à¤²à¤ķ":5631,"à¤¸à¤®à¤°":5632,"à¥Įà¤ģâĢĿ,":5633,"à¤§à¤ķà¤¹à¤°":5634,"à¤¤à¤¸à¤ŀ":5635,"à¤¤à¤²à¤¨":5636,"à¤¤à¤Ĺà¤¤à¤ķ":5637,"à¤ļà¤°à¤®":5638,"Ġà¤ıà¤ıà¤«à¤ª":5639,"Ġà¤«à¤ľ":5640,"Ġà¥¨à¥¦à¥Ńà¥¬":5641,"à¤°à¤ªà¤ŀ":5642,"à¤°à¤ľà¤¨à¤²":5643,"à¤¯à¤ªà¤Ľ":5644,"Ġà¤¨à¤¯à¤¨":5645,"à¤īà¤¦à¤Ľ":5646,"Ġà¤Ĩà¤ĩà¤ĵ":5647,"à¤Łà¤¸à¤ķ":5648,"à¤¸à¤¨à¤¹à¤°":5649,"Ġà¤Ĳà¤¸":5650,"à¤Ĺà¤²à¤®à¤¯":5651,"Ġà¨":5652,"à¤£à¤ªà¤ķ":5653,"à¤ĸà¤Ń":5654,"icle":5655,"Ġà¤ľà¤²à¤®à¤Ĺ":5656,"à¤¦à¤¤à¤²":5657,"à¥Ĥà¤Ĥ":5658,"à¤Ńà¤ıà¤ªà¤Ľ":5659,"Ġà¤ħà¤¨à¤¶à¤¨à¤ķ":5660,"ĠAd":5661,"Ġà¤ħà¤®à¤°à¤Ĺà¤¢":5662,"Ġà¤īà¤ĺ":5663,"Ġà¤¨à¤ľà¤°à¤ħà¤¨":5664,"eop":5665,"Ã¼":5666,"Ġà¤¤à¤µ":5667,"Ġà¤¦à¤®à¤¦":5668,"à¤ģà¥ĩ":5669,"à¤¶à¤Ļ":5670,"à¤Ĩà¤ī":5671,"Ġpr":5672,"ĠVi":5673,"Ġà¤Ľà¤¹à¤°":5674,"Ġà¤Ĩà¤¬à¤¸":5675,"Ġà¤Ĺà¤ľà¤¬à¤ķ":5676,"ne":5677,"Ġà¤Ľà¤¨à¤ķ":5678,"à¤¡à¤·":5679,"à¤ĩà¤ªà¤Ľ":5680,"à¥įà¥¤'":5681,"Ġà¤ķà¤²à¤Ļ":5682,"Ġà¥¦à¥Ń":5683,"Ġà¤¶à¤¹à¤°à¤²":5684,"à¥į]":5685,"à¤ıà¤Łà¤°à¤®":5686,"à¤ľà¤¬à¤ķ":5687,"Ġnews":5688,"à¤Ĺà¤Ĺ":5689,"à¤Łà¤Ĺ":5690,"à¤£à¤µà¤¤":5691,"à¤Ĩà¤ł":5692,"à¤ıà¤¨à¤¡":5693,"à¤¤à¤°à¤£à¤²":5694,"à¤īà¤ªà¤ª":5695,".,":5696,"uk":5697,"à¥ĩÃ·":5698,"Ġà¤®à¤¹à¤²à¤ķ":5699,"Ġà¤®à¤¨à¤¬à¤¹":5700,"à¥¯à¥¬":5701,"AL":5702,"à¥ĩâĢĻ,":5703,"Ġà¤®à¤Ľ":5704,"Ġà¤²à¤ŀ":5705,"Ġà¤ķà¤®à¤®":5706,"ĠPl":5707,"OR":5708,"Ġ%":5709,"Ġà¤Ĩà¤°à¤¸":5710,"Ġà¤Ĩà¤¶à¤®":5711,"soft":5712,"zwj":5713,":-":5714,"à¤¾à¥ĩ,":5715,"à¤¹à¤¸à¤ļ":5716,"Ġà¤¶à¤¸":5717,"Ġà¤®à¤¹à¤¤à¤ķ":5718,"Ġà¤§à¤ľ":5719,"à¤ĵà¤¤":5720,"Ġà¤Ńà¤°à¤ĸà¤°":5721,"à¤Łà¤¬à¤²à¤°":5722,"ÐµÐ¼":5723,").":5724,"\\'":5725,"sh":5726,"à¤¦à¤¯à¤²":5727,"à¤ľà¤ľ":5728,"à¤§à¤ªà¤¤":5729,"Ġà¤Ĩà¤Ł":5730,"à¤ĩà¤ķà¤®":5731,"à¤ĩà¤ľà¤®":5732,"à¤ķà¤°à¤£à¤¸à¤®":5733,"Ġà¤§à¤¨à¤§":5734,"Ġà¤¡à¤Łà¤ķà¤®à¤²":5735,"Ġà¤ħà¤¨à¤¸à¤¨à¤°à¤¤":5736,"Ġ<":5737,"à¤ľà¤¸à¤ķ":5738,"à¤¶à¤ľà¤ķ":5739,"Ġà¤Ĩà¤ĵà¤¸":5740,"ated":5741,"ount":5742,"Ġà¥§à¥§à¥©à¥®":5743,"Ä±":5744,"Ġad":5745,"à¤¸à¤§":5746,"à¤ªà¤ļà¤¨":5747,"Ġà¤¬à¤°à¤¦":5748,"à¤§à¤ķà¤²":5749,"Ġà¤ļà¤¶":5750,"Ġà¤Ĩà¤ĩà¤Łà¤®":5751,"à¤¯à¤¯à¤¨à¤ªà¤Ľ":5752,"à¤ĩà¤°à¤¸à¤ķ":5753,"Ġà¤Ĺà¤łà¤¨à¤®":5754,"icro":5755,"à¤°à¤£à¤¤à¤¯":5756,"à¤Ĺà¤¤à¤¤à¤°":5757,"à¤ıà¤¸à¤Ĩà¤Ī":5758,"à¤·à¤¯à¤¬":5759,"................":5760,"Ġà¤®à¤¹Ã¬à¤µ":5761,"Ġ;":5762,"à¤¬à¤¤à¤®":5763,"Ġà¤ıà¤ķà¤Ńà¤¨":5764,"à¤·à¤£à¤¸":5765,"Ġà¤Ĩà¤ĩà¤°":5766,"à¤Łà¤¨à¤Ĺà¤°à¤¸":5767,"ĠEx":5768,"Ġà¤ľà¤¨à¤Ń":5769,"Ġà¤¸à¤¤à¤¹à¤¦":5770,"Ġà¤ĭà¤Ĺ":5771,"à¤ķà¤Łà¤¸":5772,"à¤¤à¤²à¤¹à¤°":5773,"à¤¨à¤¯à¤¨à¤ķ":5774,"ĠTop":5775,"ions":5776,"à¤®à¤Ļ":5777,"à¤ļà¤ªà¤¦":5778,"à¤µà¤ķà¤¸":5779,"à¥¯à¥ª":5780,"Ġà¥§à¥¦à¥©":5781,"iness":5782,"à¤Łà¤µà¤²à¤²":5783,"Ġà¤ľà¤¯à¤¬à¤¹":5784,"Ġà¤¨à¤¹à¤°à¤®":5785,"à¤¨à¤¯à¤²":5786,"à¤īà¤ľà¤°":5787,"Ġà¤ıà¤ªà¤®":5788,"Ġà¤ıà¤ķà¤ıà¤ķ":5789,"Ġà¤¹à¤²à¤¹à¤°":5790,"Ð½Ð¸":5791,"à¤²à¤Ĺà¤ķ":5792,"à¤¯à¤Ĺà¤°":5793,"Ġà¤ĵà¤¤":5794,"int":5795,"ĠDe":5796,"24":5797,"à¤¨à¤°à¤¸":5798,"Ġà¤¸à¤ªà¤°":5799,"à¤§à¤ļ":5800,"à¥¤...":5801,"à¤Ĩà¤µà¤¶":5802,"à¤ĵà¤¯":5803,"à¤·à¤¯à¤¬à¤¸":5804,"à¤¨à¤Ĺà¤¢":5805,"à¥ĩà¤ĥ":5806,"Ġà¤Ĺà¤§":5807,"à¤Łà¤°à¤¦":5808,"à¤Ļà¤ķà¤¨":5809,"Ġà¤¨à¤®à¤°":5810,"à¤ľà¤²à¤¸":5811,"Ġà¤¨à¤ľà¤°à¤²":5812,"Ġà¤Ĩà¤Īà¤«":5813,"à¤ªà¤¸à¤Ļ":5814,"Ġà¥¦à¥¬à¥¯":5815,"à¥ĩ-âĢĺ":5816,"Ġà¤®à¤¤à¤²à¤µ":5817,"ON":5818,"Ġà¤Ńà¤ĩà¤¯":5819,"à¤°à¤®à¤®à¤¨":5820,"à¤°à¤¹à¤¤":5821,"à¤ļà¤¨à¤°":5822,"Ġà¤Ķà¤·à¤¤":5823,"Ġà¤Ńà¤µà¤¨à¤²":5824,"Ġsh":5825,"Ġà¥į":5826,"à¤¿à¥Ģ":5827,"Ġà¤¨à¤°à¤ķ":5828,"à¤°à¤¤à¤¬à¤¨":5829,"Ġà¤ıà¤ķà¤µà¤°":5830,"à¥§à¥¦à¥¦":5831,"à¥¯à¥¨":5832,"à¤¯à¤µà¤¦":5833,"ÐµÐ´":5834,"IS":5835,"mer":5836,"à¤µà¤¬à¤¹":5837,"Ġà¤Ľà¤µà¤Ł":5838,"Ġà¤Ĩà¤²à¤¸":5839,"à¥ĥà¥ĥ":5840,"Ġà¤²à¤Ĺà¤¨à¤ĸ":5841,"à¤µà¤¨à¤°à¤ķ":5842,"à¤·à¤£à¤µ":5843,"Ġà¤§à¤¨à¤ľà¤¨à¤ķ":5844,"à¤Łà¤¬à¤²à¤²":5845,"Ġà¤¯à¤¸à¤ªà¤²":5846,"Ġà¤ħà¤µà¤¸à¤°à¤¬":5847,"à¤ĩà¤²à¤Łà¤²":5848,"Ġhttps":5849,"à¥Īà¥ĩ":5850,"Ġà¤µà¤·":5851,"à¤Ĺà¤°à¤ª":5852,"Ġà¤¬à¤¹à¤¸à¤²":5853,"alo":5854,"Ġ2015":5855,"13":5856,"à¤°à¤°à¤¹":5857,"à¤Ĺà¤Ńà¤¨":5858,"à¤¡à¤¸à¤¹":5859,"Ġà¤ĸà¤°à¤¬":5860,"à¤¯à¤¨à¤°à¤¤":5861,"Ġà¤¬à¤¸à¤¬":5862,"à¤¯à¤¯à¤¨à¤¹à¤°":5863,"Ġà¤Ĩà¤Īà¤¸à¤ķ":5864,"Ġà¤¹à¤¸à¤¨":5865,"à¤ļà¤ķà¤²":5866,"Ġà¥§à¥§à¥«":5867,"à¤¤à¤¹à¤Łà¤®":5868,"Ġà¤¨à¤¹à¤°à¤ķ":5869,"AT":5870,"Ġart":5871,"ĠâĢĭ":5872,"à¤¡à¤¯à¤¨à¤®à¤¨":5873,"eople":5874,"aw":5875,"vel":5876,"Ġà¤¸à¤Ī":5877,"Ġà¤ªà¤°à¤ķà¤®":5878,"Ġà¤°à¤¯":5879,"Ġà¤¤à¤¡":5880,"Ġà¤¦à¤§":5881,"Ġà¤«à¤²à¤ķ":5882,"à¤¸à¤®à¤²":5883,"à¤µà¤¨à¤¦":5884,"Ġ?,":5885,"ien":5886,"Ġà¤Ĺà¤£à¤ķ":5887,"Ġà¤®à¤¬":5888,"Ġà¤¯à¤®à¤²":5889,"à¤°à¤¹à¤¬":5890,"à¤¸à¤¨à¤²à¤ķ":5891,"Ñī":5892,"Ġà¤¤à¤Ļ":5893,"à¤¶à¤¯à¤®":5894,"Ġà¤«à¤·":5895,"Ġà¤ħà¤ªà¤Ń":5896,"ĠTe":5897,"ĠBl":5898,"Ġà¥§à¥¯à¥®à¥¯":5899,"à¤·à¤¯à¤¸":5900,"à¤²à¤¯à¤Ń":5901,"Ġà¤Ĩà¤īà¤Łà¤²":5902,"Ġà¤Ĺà¤ľà¤²à¤¹à¤°":5903,"à¤ªà¤§":5904,"Ġà¤µà¤¶":5905,"à¤¬à¤°à¤¦":5906,"à¤®à¤ķà¤¹":5907,"à¤¯à¤¦à¤²à¤®":5908,"ĠIntern":5909,"Ġà¤Ĺà¤¢à¤µ":5910,"à¤ļà¤ªà¤¦à¤¸":5911,"à¤¹à¤¨à¤²":5912,"à¤°à¤£à¤¸":5913,"à¤¯à¤®à¤µà¤°":5914,"Ġà¤ĵà¤®à¤¨":5915,"Ġà¤ħà¤²à¤°":5916,"Ġà¤Ĩà¤Īà¤¡":5917,"à¤°m":5918,"à¤ªà¤ħà¤¨":5919,"à¤Ĺà¤¸à¤¬":5920,"à¤¬à¤ª":5921,"à¤£à¤¯à¤µ":5922,"âĢĻâĢĵ":5923,"à¤ķà¤°à¤¶":5924,"à¤Ĺà¤®à¤§":5925,"Ġà¥¦à¥®":5926,"à¤Ĩà¤Īà¤¡":5927,"ĠSp":5928,"ock":5929,"à¤ıà¤¨à¤Ĩà¤°à¤ıà¤¨":5930,"jya":5931,"à¤ķà¤Ļ":5932,"à¤¯à¤²à¤¯à¤²":5933,"à¤ľà¤¨à¤¸à¤¹":5934,"à¤Ĩà¤ª":5935,"Ġà¤ªà¤¦à¤ķà¤ķ":5936,"à¤ľà¤¦à¤°à¤ķ":5937,"à¤¯à¤ŀ":5938,"Ġà¤¸à¤¶à¤°":5939,"à¤Ńà¤µà¤®":5940,"à¥¤-":5941,"à¤ªà¤Łà¤ķà¤ķ":5942,"à¤ªmà¤¤":5943,"ĠNovember":5944,"à¤¸à¤¹à¤ķ":5945,"Ġà¤ľà¤¯à¤ķ":5946,"à¤ķà¤²à¤¬":5947,"Ġà¤Ńà¤ıà¤ªà¤¶":5948,"Ġà¥Ńà¥«à¥©":5949,"iss":5950,"und":5951,"Øª":5952,"Ùħ":5953,"Ġà¤®à¤ľà¤¸":5954,"Ġà¤ıà¤Ļ":5955,"Ġà¤ħà¤¸à¤°à¤ķ":5956,"à¤¨à¤¸à¤ªà¤Ł":5957,"Ġà¥¦à¥§":5958,"ound":5959,"usiness":5960,"Ð°Ð¼":5961,"Ø§ÙĦ":5962,"à¤²à¤¯à¤¤":5963,"à¤®à¤Ńà¤ķ":5964,"à¤§à¤Ń":5965,"à¤ĺà¤¡":5966,"à¥ĭ;":5967,"à¤¸à¤ªà¤¨":5968,"à¤µà¤¥":5969,"à¤µà¤µà¤¤":5970,"Ġà¤¹à¤°à¤£":5971,"Ġà¤µà¤ļà¤¤":5972,"à¤ħà¤¶":5973,"Ġà¤Ĩà¤ĩà¤ıà¤¸":5974,"Ġà¤Ĩà¤łà¤°":5975,"à¤«à¤¸à¤²à¤ķ":5976,"ĠÌ§":5977,"05":5978,"ĠÑĥ":5979,"à¤ľà¤¨à¤°":5980,"à¤®à¤¤à¤¦":5981,"Ġà¤Ńà¤¯à¤°à¤¹":5982,"à¤¿à¤ģà¤Ĥ":5983,"à¤ļà¤²à¤°":5984,"ina":5985,"Ġà¥¨à¥¦à¥ªà¥©":5986,"Ġà¤ľà¤¨à¤ĺà¤¨à¤¤":5987,"ox":5988,"à¤¬à¤¦à¤¨":5989,"Ġà¤¤à¤Ĺ":5990,"à¤Łà¤¨à¤Ĺà¤°à¤¬":5991,"ck":5992,"ÃŃ":5993,"à¤ıà¤£":5994,"à¤¤à¤°à¤ľ":5995,"à¤ĩà¤¨à¤Ń":5996,"à¤ľà¤¸à¤¹":5997,"erm":5998,"Ġ100":5999,"Ġà¤¤à¤²à¤¬à¤®":6000,"Ġà¤īà¤¥à¤²à¤ª":6001,"jyaalo":6002,"gov":6003,"à¥ĪâĢĮ":6004,"à¤¡à¤°à¤ª":6005,"à¤®à¤¤à¤¬":6006,"à¤¸à¤¨à¤²à¤²":6007,"ĠMar":6008,"Ġà¤ıà¤¨à¤Ĩà¤°à¤ıà¤¨à¤²":6009,"Ġim":6010,"à¤¸à¤¬à¤°":6011,"à¤ªà¤Ĺ":6012,"Ġà¤Ńà¤Ĺà¤¤":6013,"à¤Īà¤Łà¤®":6014,"Ġà¤ıà¤ķà¤ªà¤ķ":6015,"Ġà¤īà¤®à¤Ļ":6016,"Ġà¤¸à¤¹à¤°à¤²":6017,"ĠContinue":6018,"à¤¡à¤¬à¤²":6019,"Ġà¤Łà¤ļ":6020,"Ġà¤ħà¤Ńà¤¦":6021,"à¤¡à¤²à¤¸":6022,"Ġ22":6023,"Ġà¤Ĺà¤ıà¤ªà¤¨":6024,"acha":6025,"ĠĠ":6026,"à¤ķà¤ĺ":6027,"Ġà¤µà¤Ĺ":6028,"à¤¬à¤ĸ":6029,"Ġà¤ĸà¤²à¤¬à¤²":6030,"Ġ?'":6031,"à¤ĩà¤ľà¤¹":6032,"à¤Łà¤µà¤²à¤¬":6033,"Ã¶":6034,"à¤¸à¤²à¤Ł":6035,"à¤Łà¤¨à¤¹":6036,"à¤Ĩà¤«à¤¨":6037,"à¤Łà¤Ĩà¤īà¤Łà¤®":6038,"à¤Łà¤®à¤²":6039,"à¤¬à¤²à¤²":6040,"à¤¥à¤°à¤ķ":6041,"Ġà¤Ĩà¤Īà¤ķ":6042,"Ġà¤ľà¤¨à¤¸à¤Ń":6043,"Ġà¤¶à¤¹à¤°à¤¬":6044,"à¤®à¤ľà¤¸":6045,"Ġà¤Ĺà¤ıà¤¨":6046,"Ġà¤ľà¤¨à¤°":6047,"à¤ħà¤µà¤§":6048,"à¤¶à¤®à¤§":6049,"Ġtr":6050,"Ð°Ð·":6051,"à¤īà¤ªà¤®à¤¹":6052,"à¤¸à¤°à¤¹à¤°":6053,"à¤Ŀà¤ªà¤ĸ":6054,"à¤°à¤µà¤¶":6055,"à¤¸à¤¨à¤¸à¤®":6056,"à¤¤à¤¨à¤µ":6057,"Ġà¤Īà¤·":6058,"à¤ķà¤°à¤¦":6059,"à¤¸à¤ħà¤¨":6060,"à¤¦à¤¤à¤°":6061,"à¤łà¤¨à¤ķ":6062,"à¥Įà¤Ĥ,âĢĿ":6063,"ĠUjyaalo":6064,"ĠSamacha":6065,"ĠSamachaar":6066,"02":6067,"à¤®à¤¨à¤®":6068,"à¤µà¤ķà¤®":6069,"à¤µà¤£à¤ķ":6070,"Ġà¤Ĺà¤Ĺà¤¨à¤ķ":6071,"à¤¡à¤®à¤ķ":6072,"Ġà¤ĸà¤²à¤¨":6073,"à¤·à¤£à¤¯":6074,"à¤¶à¤¨à¤°":6075,"à¥¯à¥§":6076,"Ġà¤ıà¤®à¤ª":6077,"Ð°Ðº":6078,"ction":6079,"we":6080,"à¤ľà¤²à¤Ĺ":6081,"à¤¨à¤ķà¤²":6082,"à¤ªà¤¨à¤¸à¤®":6083,"à¤ķà¤°à¤£à¤ªà¤Ľ":6084,"Ġà¤ĺà¤Łà¤¬à¤¢":6085,"ara":6086,"Ġà¥¦à¥¬à¥®":6087,"à¥į;":6088,"à¤¬à¤°à¤¬à¤¹":6089,"à¤Īà¤²à¤Ĺ":6090,"à¤¡à¤¶":6091,"à¤«à¤ķà¤¨":6092,"Ġà¤ĵà¤¹à¤¦":6093,"Ġà¤¦à¤²à¤Ń":6094,"Ġà¤¨à¤µà¤Ĺà¤ł":6095,"ase":6096,"Ġà¤ļà¤°à¤£à¤¬à¤¦":6097,"18":6098,"yst":6099,"ÙĦ":6100,"Ġà¤ħà¤ªà¤¤":6101,"à¤ĩà¤Łà¤¨":6102,"Ġà¤«à¤Ĺ":6103,"à¤Ĺà¤¤à¤¯":6104,"Ġ::":6105,"Ġà¤¸à¤²à¤¹":6106,"à¤Ĺà¤łà¤¨à¤Ń":6107,"Ġà¥ªà¥«à¥¦":6108,"Ġà¤¤à¤²à¤¬à¤Ńà¤¤":6109,"Ġà¥Ńà¥«à¥¦":6110,"Ġà¤ķà¤¦à¤®à¤¹à¤°":6111,"09":6112,"Ġà¥Ĥ":6113,"à¤Łà¤ľà¤¸":6114,"à¤ľà¤°à¤Ń":6115,"Ġà¤¯à¤¸à¤Ń":6116,"à¤ĩà¤¡à¤¬à¤¡":6117,"Ġse":6118,"Ġsu":6119,"sc":6120,"Ùĩ":6121,"à¤¿à¥ģ":6122,"à¤²à¤ļà¤ķ":6123,"à¤Īà¤¨à¤ķ":6124,"âĢķ":6125,"Ġà¤®à¤¹à¤®":6126,"Ġà¤¸à¤¹à¤µ":6127,"à¤ħà¤¬à¤ķ":6128,"à¤Ńà¤¨à¤°":6129,"à¥¯à¥©":6130,"Ġà¤Ĭà¤¨":6131,"à¤°à¤ĸà¤ª":6132,"Ġà¥¨à¥¦à¥©à¥¯":6133,"Ġà¤¸à¤Łà¤°":6134,"à¤ıà¤¦":6135,"à¤ħà¤Ł":6136,"à¤ļà¤¨à¤ľ":6137,"Ġà¤¨à¤Ĺà¤°à¤Ń":6138,"à¤Łà¤²à¤°":6139,"Ġà¥¦à¥¯":6140,"à¤Ĩà¤ĩà¤¤à¤¬":6141,"04":6142,"Ġáĥ":6143,"à¥Įà¤ģà¥¤âĢĻ":6144,"Ġà¤§à¤°à¤ªà¤ķà¤¡":6145,"à¤®à¤¸à¤¨":6146,"Ġà¤¬à¤¥":6147,"Ġà¤¡à¤Ĺ":6148,"Ġà¤¸à¤°à¤¸à¤²":6149,"Ð¸Ðµ":6150,"ĠÂ·":6151,"Ġà¥¨à¥¦à¥©à¥¨":6152,"à¤ľà¤Ĺà¤¢à¤®":6153,"log":6154,"ĠArt":6155,"icrosoft":6156,"à¤¸à¤¨à¤®à¤¨":6157,"à¤Ĺà¤°à¤£à¤ķ":6158,"Ġà¤Ĩà¤Ĺà¤®à¤¨à¤²":6159,"à¤«à¤°à¤²":6160,"Ġà¤§à¤°à¤¤":6161,"à¤¤à¤°à¤ĺ":6162,"à¤¬à¤¦à¤¬":6163,"Ġà¥¦à¥¨":6164,"ern":6165,"ating":6166,"ĠÐ·":6167,"ese":6168,"Ġag":6169,"Ġdis":6170,"ĠÃ·":6171,"à¤¾&":6172,"à¤¿à¥ĭ":6173,"à¤Īà¤°à¤¹à¤¨":6174,"Ġà¤¯à¤®à¤¦":6175,"à¤¤à¤°à¤Ĺ":6176,"Ġà¤ľà¤¨à¤®à¤¤à¤¸":6177,"per":6178,"rit":6179,"à¤¯à¤ļà¤ķ":6180,"Ġà¤¹à¤°à¤ķ":6181,"Ġà¤¹à¤¡à¤ª":6182,"à¤¬à¤¶":6183,"Ġà¤¦à¤¬à¤¦à¤¬":6184,"à¤ļà¤°à¤¹à¤°":6185,"à¤¤à¤°à¤Ĩà¤§":6186,"Ġ?\"":6187,"à¤ĵà¤Ńà¤°":6188,"à¤Ĺà¤£à¤¤à¤¨":6189,"ÑĦ":6190,"Ġent":6191,"à¤¯à¤·":6192,"Ġà¤ħà¤¨à¤¸à¤¨à¤®":6193,"Ġà¤ĺà¤¸":6194,"à¤°à¤¹à¤¹à¤°":6195,"Ġà¤¸à¤¹à¤¦":6196,"Ġà¤¤à¤²à¤¬à¤ķ":6197,"Ġà¤ħà¤¸à¤¹à¤ľà¤¤":6198,"01":6199,"AS":6200,"Ð¶":6201,"à§":6202,"à¤µà¤Łà¤²":6203,"à¤ĸà¤¸à¤¹":6204,"à¥¤.":6205,"Ġà¤ĸà¤¬à¤°à¤ķ":6206,"Ġà¤¬à¤¨à¤¸":6207,"Ġà¤Łà¤Ļ":6208,"à¤ªà¤¨à¤¸":6209,"Ġà¤®à¤¨à¤¤":6210,"Ġà¥©à¥©à¥¦":6211,"ipur":6212,"17":6213,"à¤ķà¤ķà¤®":6214,"à¤ģà¤ģ":6215,"Ġà¤Ĩà¤Ĺà¤®à¤¨à¤¸":6216,"Ġà¤°à¤¥à¤¯":6217,"ĠÐ½Ð°":6218,"Ġà¤ıà¤¯à¤°à¤¬à¤¸":6219,"ä»":6220,"à¤°à¤Ĺà¤°":6221,"à¤ķà¤Łà¤¨":6222,"à¥ģ/":6223,"Ġà¤¨à¤ĩ":6224,"Ġà¤Ńà¤°à¤ķ":6225,"Ġà¤µà¤¨à¤¬":6226,"à¤¬à¤Ł":6227,"à¤īà¤ªà¤¨":6228,"Ġà¤ıà¤Łà¤²":6229,"à¥®à¥©":6230,"Ġà¥§à¥§à¥ª":6231,"Ð¾Ñģ":6232,"ĠPortal":6233,"Ú©":6234,"Ġà¤Ĩà¤¥":6235,"Ġà¤ĵà¤ĸà¤¤":6236,"ĠÐ³":6237,"ĠYou":6238,"åħ":6239,"à¥ĩ(":6240,"à¤¹à¤ħà¤¨":6241,"à¤ıà¤µ":6242,"Ġà¤¤à¤°à¤¬":6243,"Ġà¤ħà¤¸à¤°à¤¬":6244,"à¥®à¥§":6245,"à¤¥à¤²à¤¸à¤®":6246,"Ġà¥¨à¥¦à¥ªà¥ª":6247,"Ġpeople":6248,"à¤¨à¤¸à¤ªà¤Łà¤²à¤®":6249,"IT":6250,"Ġup":6251,"à¤ķà¤¯":6252,"à¤ķà¤·à¤£":6253,"Ġà¤ľà¤²à¤ķ":6254,"Ġà¤¸à¤¹à¤ħà¤¸":6255,"Ġà¤ķà¤°à¤¨":6256,"à¤ļà¤¨à¤¸":6257,"olog":6258,"à¤¯à¤¯à¤ķ":6259,"à¤£à¤¯à¤¸":6260,"à¤łà¤¯":6261,"à¤¨à¤¨à¤°à¤¸":6262,"ren":6263,"à¤¯à¤£à¤ĺ":6264,"à¤¦à¤µà¤¸":6265,"Ġà¤¬à¤¨à¤ķ":6266,"à¤·à¤°à¤¹à¤°":6267,"à¤¥à¤¹":6268,"à¤¡à¤²à¤Ĺ":6269,"à¤µà¤¸à¤ļ":6270,"à¤¯à¤¨à¤¬":6271,"à¤Łà¤¨à¤¸":6272,"à¥¨à¥¦à¥§à¥Ń":6273,"arth":6274,"Ð¸Ð½":6275,"Ġà¥¦à¥¬à¥«":6276,"Ġà¥¨à¥¦à¥©à¥®":6277,".)":6278,"06":6279,"à¤ıà¤¤à¤²":6280,"à¤Ńà¤°à¤£":6281,"à¤Ļà¤¸à¤¹":6282,"Ġà¤¤à¤°à¤ĸà¤°à¤®":6283,"Ġdo":6284,"à¤¼à¤¿":6285,"Ġà¥¨à¥¦à¥©à¥Ń":6286,"ube":6287,"à¤ĭà¤·":6288,"/-":6289,"gmail":6290,"à¤µà¤ļà¤¨":6291,"à¤·à¤°à¤²":6292,"Ġà¤¤à¤¡à¤ķ":6293,"Ġà¤ļà¤ŀ":6294,"Ġà¤Ńà¤¨à¤¸":6295,"Ġà¤ĺà¤°à¤¤":6296,"à¤¦à¤¨à¤ª":6297,"Ġà¤Īà¤Ń":6298,"ĠUS":6299,"à¤¤à¤¨à¤Ĺà¤°à¤ª":6300,"à¤ıà¤Ńà¤¨":6301,"Ġà¤ıà¤¸à¤¡":6302,"Ġà¤¨à¤Ĩà¤ĵà¤¸":6303,"à¤Īà¤ĵà¤Ł":6304,"))":6305,"à©":6306,"Ġà¤ħà¤¦à¤ķ":6307,"Ġà¤ľà¤®à¤²":6308,"à¤ĸà¤¨à¤²":6309,"à¤ĩà¤ªà¤°":6310,"à¤ĩà¤ªà¤ķ":6311,"à¤¸à¤¹à¤®à¤¤":6312,"à¤Ńà¤µà¤¬":6313,"Ġ26":6314,"à¤¶à¤Ńà¤°à¤¬":6315,"Ġà¥§à¥¯à¥®à¥¨":6316,"ģĦ":6317,"à¤¾....":6318,"à¤¤à¤£":6319,"à¥ģà¥ĥ":6320,"à¤¦à¤®à¤¨":6321,"Ġà¤Ĺà¤ĩ":6322,"Ġà¤¨à¤ł":6323,"à¤Łà¤¨à¤¬":6324,"Ġà¤ķà¤²à¤¹":6325,"à¤¯à¤¯à¤Ń":6326,"Ġ2075":6327,"Ġà¥¨à¥¦à¥¨à¥ª":6328,"oll":6329,"Ġnot":6330,"à¤¬à¤Ĺ":6331,"à¤ļà¤Ńà¤¨":6332,"à¤Īà¤®à¤§":6333,"à¤ªà¤¨à¤¹à¤°":6334,"Ġà¤ªà¤¦à¤²":6335,"Ġà¥§à¥¦à¥¬":6336,"Ġà¤ħà¤«à¤¸":6337,"ors":6338,"åı":6339,"à¤¡à¤²à¤¬":6340,"à¤īà¤ªà¤ļ":6341,"à¤łà¤¸à¤®":6342,"à¤¯à¤¸à¤¨à¤ķ":6343,"à¤ħà¤°à¤ķ":6344,"Ġà¤ĵà¤®à¤ķ":6345,"Ġà¥§à¥¦à¥Ń":6346,"Ġà¤Ĩà¤¶à¤¯à¤ķ":6347,"ĠHe":6348,"Ġhave":6349,"å¹":6350,"Ġ@":6351,"à¤ªà¤¸à¤¬":6352,"Ġà¤ķà¤ķà¤¨":6353,"à¤ıà¤®à¤²":6354,"à¤·à¤¤à¤µ":6355,"Ġà¤Ľà¤¹":6356,"Ġà¤ħà¤ªà¤¦à¤¸":6357,"à¤ĩà¤Łà¤¬":6358,"Ġà¤¹à¤ķà¤ħà¤§":6359,"à¤¼à¥į":6360,"Ð°Ð²":6361,"Ġà¤ļà¤²à¤¨à¤²":6362,"Ġà¤®à¤²à¤ĸ":6363,"à¤µà¤°à¤£à¤®à¤¨":6364,"Ġà¤ıà¤¨à¤ıà¤¸":6365,"ons":6366,"à¤īà¤ªà¤Ń":6367,"Ġà¥¨à¥¦à¥©à¥§":6368,"à¤®à¤°à¤£à¤®":6369,"Ġà¤µà¤¨à¤µ":6370,"à¤·à¤Ĺ":6371,"Ġà¤Ĩà¤¯à¤¤":6372,"Ġà¤¥à¤ªà¤ķ":6373,"à¤°à¤¸à¤¬":6374,"à¤·à¤®à¤£":6375,"Ġà¤Ĩà¤Īà¤ıà¤¸":6376,"Ġà¥§à¥¯à¥®à¥ª":6377,"Ġà¥§à¥¯à¥¬à¥¨":6378,"à¤®à¤®à¤¨":6379,"à¤µà¤Ī":6380,"à¤¥à¤ķà¤ķ":6381,"à¤¥à¤¸à¤ļ":6382,"Ġà¤¡à¤ķà¤°":6383,"Ġà¤Ŀà¤®à¤ķ":6384,"à¤µà¤¯à¤¨à¤¸":6385,"Ġà¤¦à¤¶à¤ķà¤¯à¤¤":6386,"ĠNE":6387,"ÑģÑı":6388,"à¤Ĺà¤µà¤£":6389,"ax":6390,"à¥ĩ:":6391,"Ġà¤ªà¤Ĺà¤°":6392,"Ġà¤®à¤¹à¤ķ":6393,"à¥į,'":6394,"Ġà¤ªà¤¦à¤ļ":6395,"ement":6396,"ĠComp":6397,"à¤¾à¥ģ":6398,"à¤ıà¤ĩ":6399,"à¤Īà¤Ńà¤¨":6400,"Ġà¤ħà¤«à¤µ":6401,"Ġà¤Ńà¤ľ":6402,"à¤¶à¤¹":6403,"à¥ĥâĢĻ":6404,"à¤ŀà¤¸":6405,"Ġà¤²à¤Ĺà¤¨":6406,"à¤¸à¤¨à¤ª":6407,"à¤¹à¤¨à¤¤à¤ķ":6408,"ading":6409,"ics":6410,"let":6411,"conom":6412,"co":6413,"à¤¯à¤µà¤¤":6414,"Ġà¤ªà¤¥à¤®":6415,"Ġà¤¨à¤Ĺà¤°à¤ªà¤°":6416,"à¤Ĺà¤łà¤¨à¤¬":6417,"Ġà¤ļà¤°à¤£à¤ħà¤¨":6418,"Ġà¥¦à¥¬à¥§":6419,"Ġund":6420,"Ġà¤ıà¤ħà¤°à¤²":6421,"å®":6422,"à¤®à¤®à¤¤":6423,"à¥ĢâĢĶ":6424,"Ġà¤¸à¤µà¤¸":6425,"Ġà¤¡à¤Ļ":6426,"ati":6427,"à¤²à¤ļà¤²à¤¨":6428,"Ġà¤Ĩà¤²à¤®à¤²":6429,"nepalnews":6430,"à¤ļà¤¤à¤°":6431,"à¤ĩà¤Ńà¤¨":6432,"à¤¯à¤²à¤¸":6433,"Ġà¤¸à¤¯à¤¸à¤®":6434,"à¤ıà¤¨à¤ıà¤¨":6435,"23":6436,"IC":6437,"à¥ĭ(":6438,"à¤®à¤¯à¤ķ":6439,"à¤Łà¤ľà¤°à¤²":6440,"Ġà¤µà¤¹à¤¸":6441,"Ġà¤Ľà¤¥à¤°":6442,"à¤¡à¤ªà¤Ľ":6443,"à¤¸à¤ķà¤°":6444,"Ġà¤ľà¤¨à¤¬":6445,"à¥¯à¥Ń":6446,"Ġà¥¨à¥¦à¥¨à¥¬":6447,"Ġà¥§à¥¯à¥®à¥®":6448,"ÑģÑĤÐ²":6449,"Ġà¤Ŀà¤¡à¤ªà¤ķ":6450,"Ġà¤²à¤«à¤¡":6451,"à¤°à¤µà¤¸":6452,"à¤¨à¤ĺ":6453,"à¤ķà¤¢":6454,"à¥ĩ..":6455,"Ġà¤Ńà¤®":6456,"âĢĻ-":6457,"à¤¯à¤¸à¤ŀ":6458,"à¤Ĩà¤¹":6459,"Ġà¤ķà¤²à¤¸":6460,"Ġà¤ªà¤¦à¤®à¤ª":6461,"à¤¤à¤¬à¤®":6462,"Ġte":6463,"ĠAug":6464,"Ġdes":6465,"08":6466,"Ġà¤§à¤¸":6467,"à¤ľà¤²à¤µ":6468,"Ġà¤§à¤¨à¤ª":6469,"Ġà¥¨à¥«à¥¬":6470,"ĠTopnepalnews":6471,"à¤ķà¤¸à¤°":6472,"à¤¯à¤ĸ":6473,"à¤Łà¤Ĺà¤¤":6474,"Ġà¤ĵà¤ķà¤²":6475,"à¥®à¥¨":6476,"Ġà¤ħà¤ķà¤¬à¤°":6477,"Ġà¤Ńà¤µà¤¨à¤¬":6478,"Ġà¥¦à¥¬à¥Ń":6479,"ays":6480,"à¤®à¤ķà¤²":6481,"Ġà¤ħà¤¨à¤ķ":6482,"Ġà¤²à¤Ľ":6483,"à¤ĸà¤¬à¤¹":6484,"Ġà¤¦à¤°à¤µà¤¨":6485,"Ġà¤Ĩà¤īà¤Ľà¤¨":6486,"ĠMicrosoft":6487,"ism":6488,"ild":6489,"à¤¡à¤ªà¤ķ":6490,"à¤ĸà¤µ":6491,"Ġà¤ķà¤®à¤¨":6492,"Ġà¤ħà¤Ńà¤¯":6493,"à¥Īà¤Ĥà¤ģ":6494,"Ġà¥§à¥¬à¥¯":6495,"eng":6496,"IV":6497,"á»":6498,"à¤¨à¤ĵà¤Ł":6499,"à¤¹à¤¤à¤®":6500,"à¤¹à¤²à¤Ĺ":6501,"Ġà¤Łà¤£":6502,"Ġà¥§à¥¯à¥Ńà¥«":6503,"Ġà¤ªà¤¸à¤²à¤²":6504,"Ġà¥§à¥¯à¥«à¥®":6505,"Ġà¤¦à¤¶à¤°à¤¥à¤ļà¤¨":6506,"****":6507,"50":6508,"à¤µà¤ªà¤°":6509,"à¤ľà¤¨à¤¸à¤®":6510,"à¤¹à¤¨à¤¬à¤¹":6511,"à¥Įà¤ģ,âĢĿ":6512,"adio":6513,"Ġà¤®à¤Ĺà¤°à¤¹à¤°":6514,"à¥ģà¥¤âĢĿ":6515,"Ġà¤¸à¤°à¤²à¤¤":6516,"Ð¾Ð±":6517,"à¤¤à¤¥à¤²":6518,"Ġà¤¬à¤¹à¤ķ":6519,"à¤£à¤Ńà¤ķ":6520,"à¤ĩà¤ķà¤ķ":6521,"à¤«à¤¸à¤²à¤®":6522,"Ġà¤Łà¤ªà¤°":6523,"à¤¯à¤¸à¤¸à¤®":6524,"à¤¾,âĢĻ":6525,"à¤ĵà¤¨":6526,"à¤°à¤®à¤£à¤¹à¤°":6527,"ition":6528,"hare":6529,"à¤¦à¤ªà¤Ľ":6530,"à¤µà¤ľà¤¸":6531,"à¤¡à¤ļ":6532,"à¤ĩà¤¤à¤²":6533,"à¤Łà¤ķà¤¹à¤°":6534,"à¤Ĩà¤ĸ":6535,"à¤£à¤¯à¤ª":6536,"Ġà¥§à¥§à¥®":6537,"à¤ĸà¤®à¤¯":6538,"edia":6539,"áĥĲ":6540,"Ġà¤ıà¤ķà¤Ľà¤¤":6541,"à¤¨à¤¬à¤°":6542,"à¤¤à¤Ľ":6543,"à¤¯à¤ªà¤¨":6544,"Ġà¤°à¤¬à¤°":6545,"Ġà¤¨à¤°à¤¦":6546,"Ġà¤ļà¤¤à¤°":6547,"Ġà¤īà¤ªà¤¬":6548,"à¤µà¤°à¤¸à¤®":6549,"Ġ28":6550,"à¤¶à¤¨à¤²à¤ķ":6551,"à¤ļà¤¸à¤¯":6552,"mà¤¯":6553,"à¤¹à¤µà¤°à¤®":6554,"Ġà¤Ĺà¤°à¤®":6555,"à¤·à¤ĺ":6556,"Ġà¤ķà¤°à¤µ":6557,"ale":6558,"ĠNew":6559,"row":6560,"tr":6561,"à¤Ľà¤¯":6562,"à¤ĸà¤Ĺà¤ŀ":6563,"à¥®à¥ª":6564,"à¤¬à¤²à¤Ł":6565,"à¤ıà¤«à¤ıà¤ķ":6566,"Ġ......":6567,"à¤¹à¤ļ":6568,"à¤¹à¤¬à¤°à¤®":6569,"à¤¥à¤¸à¤®":6570,"à¤«à¤°à¤®":6571,"Ġà¤Ĩà¤ĩà¤¦":6572,"ery":6573,"Ġà¤ľà¤¨à¤ķà¤°":6574,"Ġà¤Ńà¤°à¤¤à¤°":6575,"ĠAll":6576,"Ð¸Ð¹":6577,"Ġà¤ħà¤²à¤Ĺà¤ħà¤²à¤Ĺ":6578,"ĠJul":6579,"li":6580,"Ġà¦":6581,"à¥Ĭ":6582,"à¤²à¤ªà¤ķ":6583,"à¤Łà¤ªà¤¤":6584,"Ġà¤¬à¤²à¤¬":6585,"à¤Īà¤¨à¤¨":6586,"à¤£à¤²à¤Ĺ":6587,"à¤ĸà¤ªà¤¢":6588,"à¥¤&":6589,"âĢĻâĢĻ":6590,"Ġà¤ķà¤®à¤²à¤ķ":6591,"à¤¸à¤¦à¤µ":6592,"Ġà¤ıà¤¸à¤¬":6593,"Ġà¤µà¤¨à¤ľ":6594,"à¤Ńà¤Ĺà¤µ":6595,"Ġà¤ıà¤«à¤ıà¤®à¤ķ":6596,"ĠÌģ":6597,"à¤§à¤°à¤£à¤²":6598,"à¤Īà¤µà¤¸":6599,"à¤ĺà¤·":6600,"à¥Įà¤ĤâĢĿ":6601,"Ġà¤Ĩà¤¯à¤µ":6602,"à¤®à¤¨à¤°":6603,"Ġfin":6604,"Ġà¤¨à¤Ĺà¤Ī":6605,"à¤¥à¤ªà¤°à¤ķ":6606,"à¤ķà¤¸à¤ķ":6607,"à¤µà¤ıà¤®":6608,"Ġà¤¤à¤¹à¤Ĺà¤¤":6609,"Ġà¤Ĩà¤łà¤ľà¤¨":6610,"Ġà¤¶à¤ªà¤¥à¤Ĺ":6611,"Ð¾Ð³Ð¾":6612,"à¤°à¤ł":6613,"à¤°à¤ªà¤²":6614,"à¤¿à¤¿":6615,"Ġà¤¸à¤®à¤¶":6616,"à¤Ĩà¤°à¤²":6617,"à¤µà¤²à¤Ĺ":6618,"Ġ23":6619,"ĠOct":6620,"à¥ģ(":6621,"à¤¦à¤¤à¤®":6622,"à¤°à¤®à¤Ń":6623,"à¤¯à¤¨à¤¶":6624,"Ġà¤¬à¤ļà¤¤à¤ķà¤°":6625,"Ġïģ¶":6626,"âģĦ":6627,"à¤§à¤§à¤°":6628,"à¤ªà¤¨à¤¦":6629,"Ġà¤ĩà¤µ":6630,"Ġà¤ħà¤¸à¤Ī":6631,"à¤Ĩà¤ĩà¤ı":6632,"Ġà¤ĵà¤ĩà¤²":6633,"à¥ĭâĢĵâĢĺ":6634,"Ġà¤īà¤ªà¤ķà¤°à¤£à¤®":6635,"ool":6636,"à¥ĩ\"":6637,"à¤²à¤ľà¤¯":6638,"à¤µà¤°à¤¹":6639,"Ġà¤®à¤¤à¤®":6640,"à¤¯à¤¤à¤µ":6641,"Ġà¤ĵà¤łà¤®":6642,"à¤«à¤²à¤¤":6643,"à¤Ĩà¤°à¤ıà¤¸":6644,"ĠFor":6645,"ĠLe":6646,"Ġà¥§à¥¯à¥®à¥Ń":6647,"Ġà¥¦à¥ªà¥®":6648,",,,":6649,"ĠâĨĲ":6650,"à¤¨à¤¸à¤²":6651,"à¤¦à¤¸à¤¤":6652,"Ġà¤Ĺà¤°à¤¯":6653,"Ġà¤Ĩà¤µà¤°":6654,"Ġà¤Ŀà¤¯":6655,"ata":6656,"à¥ģ\"":6657,"à¤£à¤ľ":6658,"à¤łà¤²à¤Ĺ":6659,"à¤·à¤ķà¤¸":6660,"Ġà¥¦à¥©":6661,"à¤Ĩà¤Īà¤ı":6662,"à¤ĩà¤Ńà¤°à¤²":6663,"port":6664,"å¤":6665,"à¤ĩà¤¤à¤¬":6666,"à¥Įà¤ģâĢĻ,":6667,"à¤°à¤ªà¤¥à¤®":6668,"Ġà¤ıà¤¨à¤Ł":6669,"à¤¸à¤¬à¤ķ":6670,"à¤Ĩà¤°à¤Ł":6671,"à¤Ĩà¤Īà¤Ł":6672,"Ġà¥©à¥¬à¥«":6673,"Ġ2013":6674,"Ġà¥§à¥¯à¥ªà¥Ń":6675,"åĲ":6676,"à¤²à¤µà¤®":6677,"à¤ªà¤²à¤®":6678,"à¤§à¤ĺ":6679,"Ġà¤īà¤ªà¤ľà¤ķ":6680,"Ġà¤ħà¤¬à¤²":6681,"à¥Įà¤Ĥà¥¤âĢĿ":6682,"unic":6683,"39":6684,"NA":6685,"Ġï¿½...":6686,"à¤Ĺà¤«à¤²":6687,"à¤ıà¤¶à¤¨à¤ķ":6688,"Ġà¤ħà¤ľà¤®":6689,"Ġà¤Ľà¤ªà¤ķ":6690,"à¤Īà¤°à¤²":6691,"à¤Ļà¤«":6692,"à¤ľà¤¨à¤µ":6693,"ĠâĢį":6694,"Ġà¤ĵà¤¨":6695,"Ġ29":6696,"çĶ":6697,"à¤°à¤²à¤ķ":6698,"à¤ķà¤·à¤ķ":6699,"à¤¦à¤¶à¤¨à¤®":6700,"à¤µà¤Ļ":6701,"Ġà¤Ĺà¤µ":6702,"Ġà¤¨à¤¡à¤°":6703,"Ġà¤ļà¤Łà¤ªà¤Ł":6704,"à¤µà¤°à¤°":6705,"Ġà¤ĵà¤¤à¤ª":6706,"à¤¦à¤¨à¤¸à¤®":6707,"Ġà¤Ĩà¤¶à¤¯à¤ªà¤¤":6708,"Ġà¥§à¥©à¥¬":6709,"ats":6710,"Ġà¤Łà¤¨à¤ķà¤ª":6711,"à¤ªà¤¸à¤¹":6712,"Ġà¤°à¤£à¤¬":6713,"à¤¶à¤Ńà¤¨":6714,"Ġà¤ıà¤²à¤¸":6715,"à¤ħà¤µà¤°":6716,"à¤£à¤¯à¤¸à¤®":6717,"à¤¿.,":6718,"à¤°à¤ĸà¤¨":6719,"Ġà¤ªà¤¦à¤®à¤¬à¤¹":6720,"ĠÙħ":6721,"me":6722,"à¤°à¤®à¤¶à¤ķ":6723,"Ġà¤¶à¤ª":6724,"Ġà¤®à¤¹à¤²à¤®":6725,"à¤¸à¤¨à¤¦":6726,"Ġà¤¨à¤Ĺà¤°à¤¸":6727,"Ġà¥§à¥«à¥¦à¥¦":6728,"à¤·à¤§à¤°à¤¹à¤°":6729,"ater":6730,"Ġà¥§à¥¯à¥®à¥«":6731,"Ġà¤ĵà¤Ńà¤°à¤Ł":6732,"land":6733,"à¤ªà¤Łà¤¨":6734,"Ġà¤®à¤ª":6735,"Ġà¤Ĩà¤Ĺà¤®à¤¨à¤ķ":6736,"à¤Ŀà¤£":6737,"Ġà¤ķà¤®à¤¬":6738,"à¤Łà¤¨à¤°à¤ķ":6739,"Ġà¤¸à¤¡à¤ķà¤ª":6740,"Ġà¤Ĺà¤£à¤°":6741,"ĠÐ°":6742,"ĠPr":6743,"Ð°Ñı":6744,"Ġbusiness":6745,"ame":6746,"à¤ªà¤ķà¤®":6747,"Ġà¤ıà¤ªà¤ķ":6748,"à¤Łà¤¨à¤°à¤¸":6749,"à¥®à¥¯":6750,"à¤¯à¤°à¤¡":6751,"à¤µà¤¤à¤¸":6752,"Ġà¥§à¥§à¥¬":6753,"Ġ21":6754,"Ġà¥«à¥«à¥¦":6755,"ĠÐ¾Ð±":6756,"les":6757,"pt":6758,"Ġall":6759,"à¤°à¤ľà¤ķ":6760,"à¤§à¤¦":6761,"à¤ĩà¤²à¤Ĺ":6762,"Ġà¤Ŀà¤²à¤ķà¤¹à¤°":6763,"Ġà¤Ĳà¤¨à¤¹à¤°":6764,"Ġà¤ĸà¤Łà¤ªà¤Ł":6765,"ĠSc":6766,"à¤ªà¤Łà¤ķà¤®":6767,"Ġà¥¦à¥«à¥®":6768,"25":6769,"à¤µà¤¹à¤¨":6770,"à¤ľà¤ķà¤°":6771,"Ġà¤ıà¤²à¤¬":6772,"à¤°à¤£à¤µà¤¶":6773,"à¤ķà¤®à¤¨":6774,"Ġà¤ªà¤¤à¤ŀ":6775,"att":6776,"ĠÐĴ":6777,")-":6778,"ÙĬ":6779,"à¤¸à¤²à¤ķ":6780,"Ġà¥¤âĢľ":6781,"à¤§à¤ķà¤®":6782,"Ġà¤¤à¤µà¤°à¤®":6783,"à¤¥à¤¨à¤Ĺà¤°":6784,"à¤°à¤®à¤¸à¤¹":6785,"Ġà¤ļà¤¯à¤¨à¤®":6786,"à¤¶à¤ķà¤¸":6787,"Ġà¥§à¥©à¥«":6788,"rest":6789,"Ġ27":6790,"ĠMan":6791,"ãģĹ":6792,"à¤¦à¤°à¤¬à¤ľ":6793,"à¤¸à¤¥":6794,"à¤Īà¤¤à¤°":6795,"Ġà¤ĸà¤Ľ":6796,"à¤ªà¤°à¤ľ":6797,"à¥Įà¤Ĥà¤Ĥ":6798,"à¤°à¤µà¤ª":6799,"à¤Ĺà¤®à¤Ĺ":6800,"Ġà¤¬à¤²à¤µ":6801,"Ġà¤°à¤ķà¤®à¤®à¤§":6802,"==":6803,"à¤°à¤ľà¤²":6804,"Ġà¤Ńà¤¯à¤²":6805,"à¤¶à¤¯à¤ķ":6806,"à¤Ńà¤ª":6807,"à¤¨à¤ķà¤¤":6808,"à¤Ļà¤¨":6809,"à¤²à¤¨à¤ļ":6810,"Ġà¤Ŀà¤ª":6811,"à¤§à¤¨à¤¸à¤®":6812,"old":6813,"à¤¸à¤ľà¤¨":6814,"à¤ĸà¤°à¤²":6815,"à¤°à¤¤à¤²à¤Ĺ":6816,"Ġà¤ħà¤§à¤ķ":6817,"Ġà¤¬à¤¸à¤¸":6818,"Ġà¤Ĺà¤¤à¤¸":6819,"Ġà¥§à¥¯à¥Ńà¥§":6820,"à¤¶à¤¨à¤²à¤²":6821,"Ġà¥¨à¥¦à¥¨à¥©":6822,"Ġà¤ľà¤Ĺà¤¤à¤¬à¤¹":6823,"ĠKoh":6824,"Ġ50":6825,"à¤µà¤ħà¤°":6826,"à¥Ī:":6827,"Ġà¤ľà¤¨à¤¸à¤°":6828,"à¥®à¥Ń":6829,"Ġà¤¬à¤²à¤¦":6830,"arg":6831,"ings":6832,"Ġà¥¨à¥¦à¥¨à¥Ń":6833,"conomic":6834,"?'":6835,"à¤²à¤ħà¤ĺ":6836,"Ġà¤ªà¤¥à¤ª":6837,"Ġà¤¦à¤¹à¤¨":6838,"à¤ĩà¤°à¤¨":6839,"à¤¾à¤ģ-":6840,"à¤¾à¤ģ...":6841,"Ġà¤ªà¤°à¤ľ":6842,"à¤¤à¤°à¤µà¤¸":6843,"à¤ıà¤®à¤ľ":6844,"à¤ķà¤Łà¤ª":6845,"Ġacc":6846,"Ġwill":6847,",âĢĺ":6848,"Ã³":6849,"Ġà¤ķà¤µà¤°":6850,"à¤¬à¤¸à¤ķ":6851,"à¤·à¤£à¤ķà¤°":6852,"Ġà¥§à¥§à¥¨":6853,"Ġme":6854,"Ð¸Ð¼":6855,"oy":6856,"à¤¾ï¿½":6857,"à¥įà¥Ī":6858,"à¤²à¤ķà¤¸à¤¹":6859,"à¤ķà¤²à¤¸":6860,"Ġà¤¸à¤¬à¤¥":6861,"à¤ķà¤Łà¤¹à¤°":6862,"Ġà¤ĭà¤£à¤¬":6863,"Ġà¤Ĩà¤ıà¤ľà¤¸":6864,"à¤µà¤¯à¤®à¤¸":6865,"ake":6866,"à¤²à¤¸à¤ķ":6867,"Ġà¤Ńà¤°à¤¤à¤ķ":6868,"Ġà¤µà¤«":6869,"Ġà¤¤à¤Łà¤®":6870,"à¤®à¤®à¤§":6871,"Ġà¤Ĩà¤ĩà¤ıà¤¨à¤ľ":6872,"Ġà¤¸à¤ľà¤Ĺà¤¤":6873,"ĠÐŁ":6874,"à¥Ģ.,":6875,"à¤ķà¤ŀ":6876,"à¤®à¤¢":6877,"Ġà¤§à¤¨à¤µ":6878,"à¤°à¤¹à¤¸à¤®":6879,"Ġà¤®à¤¨à¤Ńà¤°":6880,"à¤ªà¤®à¤¤à¤®":6881,"à¤ķà¤°à¤Ń":6882,"Ġà¤¸à¤¯à¤µà¤Ł":6883,"Ġà¥§à¥Ńà¥¦":6884,"à¤¬à¤Īà¤¬":6885,"Ġà¤¨à¤ħà¤ªà¤¨":6886,"cl":6887,"à¤ķà¤°à¤¬à¤°":6888,"à¤®à¤ł":6889,"à¤¦à¤°à¤¹":6890,"à¤µà¤Ńà¤¨":6891,"à¤Łà¤¤à¤°":6892,"Ġà¤ıà¤ªà¤²":6893,"Ġà¤ħà¤µà¤¯à¤µ":6894,"Ġ2014":6895,"à¤¨à¤µà¤¸":6896,"à¤µà¤¬à¤ľ":6897,"à¥Ĥ'":6898,"à¤«à¤²à¤®":6899,"à¤Ļà¤ĸà¤²":6900,"Ġà¤§à¤®à¤¨":6901,"à¥ĭà¥¤[":6902,"à¥Įà¤ģà¤Ĥ":6903,"à¤¹à¤¨à¤µ":6904,"Ġà¤Ĩà¤ķà¤·":6905,"à¤¯à¤¸à¤¬à¤ĸà¤¤":6906,"Ġà¤ıà¤²à¤Īà¤¡":6907,"Ð¸Ð¸":6908,"na":6909,"à¤ķà¤°à¤¸":6910,"Ġà¤ªà¤°à¤ª":6911,"Ġà¤¯à¤¸à¤¬à¤°":6912,"à¤ĵà¤ıà¤¸":6913,"à¸²":6914,"Ġarticle":6915,"rou":6916,"åĨ":6917,"à¤®à¤°à¤¸":6918,"à¤¤à¤²à¤¬":6919,"à¤ıà¤Īà¤¸":6920,"Ġà¤ħà¤²à¤ķ":6921,"à¤·à¤ªà¤¹":6922,"Ġà¤²à¤ļà¤ķ":6923,"à¤¡à¤¨à¤¬":6924,"à¤ħà¤¯":6925,"à¤§à¤¨à¤Ĺà¤°":6926,"Ġà¤ªà¤¦à¤µ":6927,"à¤¸à¤¸à¤¸":6928,"à¤ĩà¤¨à¤²à¤¬":6929,"à¤Ĩà¤Īà¤ıà¤¸":6930,"Ġwe":6931,"Ġà¤¹à¤¦à¤¬à¤¨":6932,"21":6933,"RC":6934,"Ġ........":6935,"à¤¹à¤£à¤®":6936,"à¤¨à¤®à¤°":6937,"Ġà¤ıà¤ķà¤¦à¤²":6938,"à¤·à¤£à¤ªà¤¤":6939,"Ġà¤Ĳà¤ļ":6940,"Ġà¤¬à¤ļà¤¤à¤®":6941,"ality":6942,"Ġà¤¨à¤µà¤īà¤¦":6943,"lect":6944,"Ġcont":6945,"________________":6946,"à¥Ī.":6947,"Ġà¤ļà¤¹à¤²":6948,"à¤¾à¤ģâĢĻ":6949,"à¤¤à¤ķà¤¬":6950,"à¤µà¤¨à¤°":6951,"à¤¨à¤¨à¤¸à¤ķ":6952,"Ġà¤ĺà¤°à¤ĺà¤°":6953,"Ġà¤ħà¤ªà¤ļ":6954,"Ġà¥§à¥§à¥Ń":6955,"Ġ---":6956,"Ġà¤¸à¤°à¤¸à¤°":6957,"ĠFS":6958,"imal":6959,"à¤Ĺà¤ļà¤²à¤¨":6960,"ode":6961,"à¤°à¤ıà¤ķ":6962,"à¤¿(":6963,"à¥ĭ',":6964,"à¤¤à¤ªà¤°":6965,"à¤¯à¤¯à¤®":6966,"à¤ªà¤¦à¤ķ":6967,"à¤ļà¤Ń":6968,"Ġà¤ļà¤ĸ":6969,"à¤¯à¤ķà¤¸":6970,"Ġà¤ıà¤ħà¤°":6971,"à¥Įà¤Ĥ||":6972,"à¤ĥâĢĵ":6973,"à¤¯à¤£à¤¸":6974,"Ġà¤Ĩà¤ıà¤Ľ":6975,"ãģŁ":6976,"Ġonline":6977,"ations":6978,"Ġà¤¶à¤°à¤¦à¤ķ":6979,"ebook":6980,"à¤²à¤Ī":6981,"à¤²à¤°à¤¹à¤°":6982,"à¤¯à¤²à¤¬":6983,"à¥Ģ!":6984,"Ġà¤°à¤¸à¤®":6985,"à¤ļà¤²à¤¬":6986,"Ġà¤īà¤łà¤¨":6987,"à¥Į?":6988,"ĠBe":6989,"Ġweb":6990,"ĠDec":6991,"Ð»Ñı":6992,"à¤ļà¤¥à¤°à¤®":6993,"à¤¦à¤¬à¤²":6994,"Ġà¤®à¤Ń":6995,"à¤ľà¤Ńà¤¤":6996,"à¤£à¤¯à¤ªà¤Ľ":6997,"à¥Įà¤Ĥà¥¤'":6998,"itt":6999,"Ġcan":7000,"Ġà¤ļà¤°à¤£à¤¹à¤°":7001,"ivers":7002,"03":7003,"à¤¨à¤°à¤¤":7004,"à¤¤à¤ĸà¤¤":7005,"à¤µà¤°à¤¦":7006,"à¤ħà¤ĸ":7007,"à¤¹à¤ķà¤¸":7008,"Ġà¤¥à¤ªà¤ĺà¤Ł":7009,"à¤µà¤°à¤£à¤¬":7010,"ĠâĢĵâĢľ":7011,"Ġà¤Ĩà¤īà¤¥":7012,"Ġà¤Ĺà¤®à¤Ĺà¤¢":7013,"à¤Īà¤¸à¤¯":7014,"ãģ§":7015,"ĠInd":7016,"ideo":7017,"ä½":7018,"Ġ>>":7019,"à¤²à¤µà¤°":7020,"à¤£à¤¨à¤Ĺà¤°":7021,"à¥Ĥà¥į":7022,"à¤«à¤¸à¤²":7023,"Ġà¤ıà¤¨à¤¬":7024,"à¤µà¤°à¤µ":7025,"à¤Ĩà¤°à¤®":7026,"Ð¸ÑĢ":7027,"iknews":7028,"à¤Ĺà¤Ńà¤Ļ":7029,"lick":7030,"ystem":7031,"à¤ķà¤Ĺà¤¢":7032,"Ġà¤¨à¤µà¤¸":7033,"à¤§à¤Ńà¤°":7034,"Ġà¤ĺà¤¨à¤®":7035,"à¤¤à¤ķà¤¤":7036,"Ġà¤Ĺà¤¤à¤¬à¤°":7037,"Ġà¤¸à¤®à¤¯à¤¬":7038,"ana":7039,"ĠCl":7040,"Ġà¤¨à¤Ĩà¤ıà¤¸à¤®":7041,"ham":7042,"Ġà¤Ĺà¤ĩà¤°à¤¹à¤¨":7043,"Ġà¤ĸà¤²à¤Ļ":7044,"Ġà¥¦à¥¬à¥¬":7045,"ower":7046,"à¤®à¤¡":7047,"à¤¹à¤Ĺ":7048,"Ġà¤¯à¤²":7049,"à¤²à¤¯à¤µ":7050,"Ġà¥§à¥¨à¥©":7051,"à¤¦à¤²à¤¹à¤°":7052,"Ġà¥§à¥Ńà¥«":7053,"à¤¸à¤¨à¤¹":7054,"Ġà¥§à¥¨à¥¬":7055,"à¤®à¤¬à¤ľ":7056,"ade":7057,"ãģ«":7058,"une":7059,"à¤²à¤¡à¤®à¤¨":7060,"à¤µà¤¸à¤¹à¤®à¤¤":7061,"Ġà¤¬à¤¬à¤°à¤®à¤¹à¤²":7062,"à¤®à¤£à¤ķ":7063,"Ġà¤¨à¤¤à¤®à¤¸":7064,"à¤ıà¤¨à¤²":7065,"à¤·à¤¬à¤¹":7066,"à¤ļà¤Ļ":7067,"à¤ĩà¤ĸ":7068,"à¤ĩà¤®à¤²":7069,"à¤¤à¤°à¤ªà¤¶":7070,"à¤°à¤ªà¤¥à¤ķ":7071,"ĠNot":7072,"Ġà¤®à¤¹à¤°à¤²":7073,"Ġà¥§à¥¯à¥®à¥§":7074,"à¤Ńà¤ªà¤¤à¤¨à¤ķ":7075,"26":7076,"à¤®à¤·":7077,"à¤Ĺà¤ľà¤²":7078,"Ġà¤ľà¤ľ":7079,"à¤łà¤¤à¤®":7080,"Ġà¤łà¤£":7081,"à¤ħà¤ªà¤®":7082,"Ġà¥©à¥¨à¥¦":7083,"à¤¹à¤¨à¤ª":7084,"Ġà¤Īà¤ŀ":7085,"ĠCent":7086,"Ġpre":7087,"Ġcl":7088,"ÐµÐ¹":7089,"ublic":7090,"à¤¬à¤¤à¤¬":7091,"à¤£à¤ĸ":7092,"à¤«à¤¹à¤°":7093,"à¤ŀà¤¬à¤¹":7094,"Ġà¤īà¤ªà¤ķà¤ª":7095,"à¤ħà¤ľ":7096,"Ġà¤Ŀà¤Ŀà¤²":7097,"à¤Łà¤°à¤Ń":7098,"Ġà¤ĺà¤°à¤ľà¤®":7099,"Ġà¤ıà¤®à¤ıà¤¸":7100,"à¤Īà¤ķà¤²à¤®":7101,"Ġà¥§à¥©à¥§":7102,"ins":7103,"eptember":7104,"Ø³":7105,"à¤µà¤ħà¤ĺ":7106,"Ġà¤®à¤Ńà¤¨":7107,"Ġà¤Ńà¤°à¤£":7108,"Ġà¤Ĩà¤¸à¤®":7109,"Ġà¤Ĩà¤Ĺà¤®à¤¨à¤®":7110,"à¥Ĥ...":7111,"Ġà¤«à¤°à¤®":7112,"Ġà¤ĺà¤°à¤ĸà¤°":7113,"Ġà¤¬à¤²à¤ľà¤«":7114,"Ġà¥§à¥¯à¥Ńà¥ª":7115,"à¤¨à¤Ĺà¤°à¤¬":7116,"ĠMay":7117,"à¤²à¤ĸà¤¬à¤°":7118,"à¤¼à¥ĭ":7119,"acebook":7120,"Ġà¥¨à¥¦à¥¨à¥¯":7121,"ĠWh":7122,"áĥĺ":7123,"Ġleading":7124,"ancial":7125,"de":7126,"à¤¨à¤¸à¤¨":7127,"Ġà¤Ĺà¤ľà¤®":7128,"à¤īà¤¦à¤ķ":7129,"à¤°à¤®à¤ªà¤Ľ":7130,"à¤Ļà¤Ń":7131,"à¤¢à¤Ĺ":7132,"Ġà¤§à¤¬":7133,"Ġà¤¤à¤°à¤µ":7134,"à¤°à¤¸à¤¯":7135,"à¥Įà¤Ĥ/":7136,"Ġà¥¨à¥Ńà¥«":7137,"Ð¾ÑģÑĤ":7138,"ĠApp":7139,"chn":7140,"Ġà¤ıà¤ħà¤°à¤ª":7141,"khabar":7142,"åĪ":7143,"à¤¸à¤Ĺà¤°à¤®":7144,"à¥®à¥¬":7145,"à¤ľà¤®à¤¸":7146,"à¤ĩà¤²à¤Łà¤ķ":7147,"à¥ĩà¥¤âĢĻ":7148,"ĠPh":7149,"Ġà¤ľà¤¨à¤®à¤¤à¤²":7150,"ãģĦ":7151,"Ġà¤¹à¤Ļà¤ķà¤Ļà¤¸":7152,"à¤ĺà¤Łà¤¨à¤ķ":7153,"æĹ":7154,"à¤²à¤¯à¤¸à¤¹":7155,"à¤®à¤²à¤®":7156,"à¤®à¤µà¤¤":7157,"à¤ªà¤²à¤Ĺ":7158,"Ġà¤°à¤Ĺ":7159,"à¤ľà¤µà¤²":7160,"Ġà¤¤à¤²à¤¤":7161,"Ġà¤ľà¤¯à¤¶":7162,"Ġà¤īà¤ªà¤ķà¤°à¤£à¤²":7163,"Ġà¤®à¤¨à¤¬":7164,"à¤°à¤ļà¤²à¤¨à¤²":7165,"à¤®à¤¬à¤¦":7166,"Ġ-\"":7167,"ĠApr":7168,"be":7169,"à¤¨à¤Łà¤®":7170,"Ġà¤¸à¤¨à¤ķ":7171,"à¤ļà¤¨à¤¹à¤°":7172,"Ġà¥§à¥¯à¥Ńà¥®":7173,"à¤¼à¥ĩ":7174,"ove":7175,"UTC":7176,"Ġout":7177,"à¤¦à¤īà¤¨":7178,"Ġà¤µà¤¨à¤ª":7179,"Ġà¤¦à¤¸à¤ķ":7180,"Ġà¤²à¤¹à¤²":7181,"à¤¡à¤¤à¤°":7182,"Ġà¤ĺà¤¨à¤¤":7183,"à¤ªà¤®à¤¤à¤ķ":7184,"à¥Įà¤ģâĢĿ":7185,"Ġà¤¢à¤ķà¤®à¤ķ":7186,"esh":7187,"ĠAarth":7188,"Ġà¤·à¤·":7189,"à¤¯à¤ľà¤¨à¤¬":7190,",,,,":7191,"ible":7192,"site":7193,"ĠÑĩ":7194,"à¤°à¤ªà¤ķ":7195,"à¥Ģ&":7196,"à¤ªà¤Ń":7197,"Ġà¤ľà¤ļ":7198,"âĢĻà¥¤":7199,"à¤²à¤¯à¤ª":7200,"Ġà¤¦à¤²à¤¦à¤²à¤®":7201,"à¤°à¤ªà¤Łà¤ķ":7202,"Ġà¤Ĺà¤ľà¤²à¤²":7203,"Ð¾Ðº":7204,"OS":7205,"à¤¸à¤¤à¤ķ":7206,"Ġà¤Ĺà¤ľà¤¬":7207,"à¤Īà¤¶":7208,"à¤ĩà¤ħà¤ķ":7209,"Ġà¤ļà¤ķà¤¨":7210,"Ġà¤ħà¤¨à¤¸":7211,"à¤¯à¤¸à¤ªà¤¶":7212,"Ġà¥§à¥¨à¥¨":7213,"Ġà¤«à¤°à¤ķà¤®":7214,"Ġà¤¸à¤¹à¤°à¤¬":7215,"ĠRadio":7216,"ull":7217,"Ġà¥§à¥¯à¥ªà¥®":7218,"!âĢĿ":7219,"ric":7220,"rip":7221,"Ġà¤ŀ":7222,"à¤¿Ã·":7223,"à¥ĭ),":7224,"à¤ªà¤¦à¤®":7225,"à¤¦à¤¶à¤¨à¤ķ":7226,"à¤Łà¤°à¤µ":7227,"à¤ıà¤ļà¤ķ":7228,"Ġà¤¹à¤Ĺ":7229,"Ġà¤¹à¤Łà¤²":7230,"Ġà¤ĸà¤°à¤¸":7231,"Ġà¤ħà¤¨à¤µ":7232,"Ġà¤ħà¤ªà¤Ĺ":7233,"Ġà¥§à¥¯à¥§à¥¦":7234,"ĠSeptember":7235,"orn":7236,"à¤Łà¤°à¤¸à¤¹":7237,"ĠPage":7238,"ÐµÐº":7239,"ĠIm":7240,"ĠEd":7241,"ĠJan":7242,"ĠInternational":7243,"ĠAarthiknews":7244,"à¥ģâĢĿ,":7245,"Ġà¤ªà¤§":7246,"à¤Ĺà¤ĸ":7247,"à¤Ĺà¤ªà¤Ľ":7248,"à¤¹à¤°à¤ª":7249,"Ð°Ñģ":7250,"Ġche":7251,"å¹´":7252,"EN":7253,"ky":7254,"à¤ıà¤Ĩà¤°":7255,"à¥ĥà¥į":7256,"à¤°à¤¦à¤ķ":7257,"Ġà¤Ĩà¤ĩà¤ķà¤¨":7258,"Ġà¤°à¤ķà¤®à¤¸à¤¹":7259,"Ġà¥§à¥¨à¥¦à¥¦":7260,"Ġman":7261,"à¤µà¤Ńà¤°à¤¬":7262,"Ġà¥§à¥¯à¥«à¥©":7263,"Ø¨":7264,"à¤¿à¥ĥ":7265,"à¤¿),":7266,"à¤²à¤¸à¤²":7267,"à¤¸à¤ħà¤«":7268,"Ġà¤ľà¤ķà¤¡":7269,"Ġà¤ıà¤ķà¤¹à¤ľ":7270,"Ġà¤ľà¤¨à¤ªà¤°":7271,"à¥ĭ,âĢĺ":7272,"à¤¶à¤¨à¤¦":7273,"Ġà¤¸à¤¯à¤ľà¤¨":7274,"Ġà¤Ĩà¤īà¤¨à¤ķ":7275,".......":7276,"Ġà¥©à¥¨à¥«":7277,"ĠEt":7278,"áĥĲáĥ":7279,"22":7280,"\\\\":7281,"à¤²à¤ªà¤®":7282,"à¤¥à¤Ńà¤¨":7283,"à¤ĩà¤¤à¤ķ":7284,"Ġà¤ľà¤¨à¤¤à¤¨":7285,"à¤²à¤ķà¤¸":7286,"à¤Ĩà¤ĩà¤Ł":7287,"à¤¤à¤²à¤¤":7288,"Ġà¤®à¤¤à¤¸à¤¹":7289,"Ġà¥§à¥¨à¥§":7290,"atch":7291,"ĠÐ¡":7292,"ĠNo":7293,",\"":7294,"AC":7295,"Ġ>":7296,"à¤ªà¤¸à¤¹à¤°":7297,"Ġà¤Ľà¤°à¤ªà¤¸":7298,"Ġà¤Ĩà¤¶à¤ķ":7299,"Ġà¤¸à¤®à¤§":7300,"à¤ĺà¤¸à¤¸":7301,"Ġà¤®à¤¨à¤°":7302,"à¤ĵà¤¹à¤°":7303,"à¤²à¤Ĺà¤¹à¤°":7304,"ates":7305,"Ġà¤ķà¤łà¤ª":7306,"à¥ĭâĢĵâĢľ":7307,"eto":7308,"Ġ31":7309,"Ġà¤¤à¤¡à¤ķà¤Ń":7310,"min":7311,"ober":7312,"Ã¥":7313,"Ġ{":7314,"à¤Ĺà¤µà¤¨":7315,"à¤ħà¤ļ":7316,"Ġà¤Ńà¤ıà¤Ŀ":7317,"à¤°à¤ļà¤¨à¤ķ":7318,"à¤°à¤ļà¤²à¤¨à¤ķ":7319,"Ġà¤¤à¤²à¤¸à¤®":7320,"à¤Ĭà¤®":7321,"Ġà¤¸à¤®à¤¯à¤¸à¤®à¤¯à¤®":7322,"áĥĶ":7323,"à¤¸à¤¡à¤ķà¤®":7324,"æĸ":7325,"à¤®à¤ªà¤°":7326,"à¤ľà¤ħà¤¨":7327,"Ġà¤¤à¤®à¤¸":7328,"à¤ĩà¤®à¤®":7329,"Ġà¤Ńà¤ıà¤¬":7330,"à¤Ĺà¤²à¤¤":7331,"Ġà¥§à¥¯à¥Ńà¥¬":7332,"à¤²à¤µà¤¹":7333,"Ġà¥§à¥©à¥®":7334,"Ġ!\"":7335,"à¤¡à¤°à¤Ĺ":7336,"Ġeconomic":7337,"à¤Ĩà¤ĩà¤ıà¤¸":7338,"Ġà¥¦à¥«à¥¬":7339,"Ġhas":7340,";,":7341,"Ġet":7342,"à¥ģà¥ģà¤ģ":7343,"Ġà¤¨à¤¸à¤ļ":7344,"Ġà¤¬à¤µ":7345,"Ġà¤¡à¤°à¤ķ":7346,"Ġà¤ħà¤¸à¤°à¤¹à¤°":7347,"à¤Łà¤¨à¤°à¤²":7348,"à¤®à¤¨à¤Ĺà¤°à¤®":7349,"Ġà¤¹à¤°à¤¸à¤®":7350,"Ġà¤Ńà¤¯à¤Ń":7351,"Ġà¤ħà¤Ĺà¤®":7352,"ĠSe":7353,"à¤°à¤¥à¤®à¤¤":7354,"Ġà¤¹à¤Ļà¤ķà¤Ļà¤¬":7355,"Ġso":7356,"Ġà¤¬à¤§à¤¶":7357,"ike":7358,"IVE":7359,"à¤®à¤§à¤¨":7360,"Ġà¤Ĺà¤ıà¤¨à¤¨":7361,"Ġà¤°à¤®à¤¨":7362,"à¥Īà¤¾":7363,"Ġà¤ıà¤ķà¤¢":7364,"Ġà¤¬à¤¨à¤Ń":7365,"à¤¸à¤²à¤°":7366,"à¤¨à¤¸à¤¯":7367,"Ġà¤ıà¤²à¤ĩà¤¡":7368,"ĠAl":7369,"0000":7370,"Ġà¤²à¤¹à¤²à¤¹":7371,"ny":7372,"ĠØ§ÙĦ":7373,"à¤¶à¤²à¤ķ":7374,"à¤Īà¤²à¤®":7375,"à¤¡à¤Ł":7376,"à¤«à¤¯":7377,"à¥ĮâĢľ":7378,"à¤Ļà¤¡":7379,"Ġà¤¸à¤ķà¤²":7380,"à¤²à¤¨à¤¦":7381,"Ġà¤¢à¤°":7382,"Ġà¤°à¤ķà¤®à¤¸à¤®":7383,"à¤Ĭà¤¦":7384,"Ġà¤ĸà¤ªà¤¤à¤ķ":7385,"à¤ĩà¤¨à¤ĸà¤¬à¤°à¤¸":7386,"ID":7387,"Ġà¤®à¤°à¤®":7388,"Ġà¤Ĩà¤¹à¤¤":7389,"à¤Ńà¤£":7390,"à¤ĸà¤ªà¤¤":7391,"Ġà¤ĺà¤¤":7392,"Ġà¤§à¤¤":7393,"à¤Ĩà¤¤à¤®":7394,"Ġà¤ĺà¤°à¤Ĩ":7395,"Ġà¥§à¥§à¥¯":7396,"orld":7397,"ĠRong":7398,"Ð°Ð±":7399,"Ġà¤¨à¤Ńà¤ĩà¤ķà¤¨":7400,"du":7401,"ĠÎ":7402,"à¤°à¤ħà¤ĺ":7403,"à¤¯à¤¶à¤¨":7404,"à¤¦à¤ľ":7405,"à¤¦à¤¯à¤¦":7406,"à¤µà¤ĸ":7407,"Ġà¤¹à¤°à¤¦à¤®":7408,"à¥ĭà¥¤\"":7409,"Ġà¥§à¥«à¥§":7410,"à¤°à¤ľà¤¨à¤ķ":7411,"Ġà¤īà¤¡à¤¡":7412,"Ġà¥¦à¥«à¥§":7413,"Ġcomp":7414,"àµ":7415,"à¥įï¿½":7416,"Ġà¤Ĺà¤ıà¤¸":7417,"Ġà¤¹à¤¤à¤ķ":7418,"à¤·à¤ľà¤¸":7419,"à¤īà¤ŀ":7420,"à¤ĩà¤ħà¤¨":7421,"Ġà¤ıà¤ķà¤¡":7422,"à¥ģà¤ģâĢĻ":7423,"Ġà¤ħà¤¸à¤Ń":7424,"à¤®à¤®à¤£":7425,"Ġà¥¦à¥«à¥¯":7426,"ĠØ¨":7427,"MS":7428,"Ġà¤ªà¤¯":7429,"à¤µà¤¶à¤¤":7430,"à¤Łà¤Ľ":7431,"à¤ıà¤®à¤®":7432,"à¤¬à¤°à¤¹à¤°":7433,"à¤¡à¤ľà¤¸":7434,"à¤ĩà¤¤à¤°":7435,"à¤¸à¤¨à¤¸à¤¤":7436,"à¤¤à¤¨à¤§":7437,"Ġà¤¢à¤²à¤ķ":7438,"Ġà¤Ķà¤ķ":7439,"Ġà¤ĺà¤°à¤Ńà¤¨":7440,"Ġà¥§à¥¨à¥¯":7441,"Ġà¥¨à¥©à¥¦":7442,"ãĥ¼":7443,"074":7444,"à¤ķà¤µà¤°":7445,"à¤¬à¤ĩ":7446,"Ġà¤ľà¤¯à¤¸":7447,"à¤¡à¤°à¤¬":7448,"à¤¾à¤ģà¥¤":7449,"à¤ĺà¤¤":7450,"à¤ļà¤¨à¤ħà¤ĺ":7451,"à¤Ĩà¤ĩà¤ķ":7452,"à¤¦à¤°à¤ª":7453,"Ġà¤§à¤¨à¤¸à¤®":7454,"à¤ªà¤£à¤²":7455,"Ġwas":7456,"ajakhabar":7457,"à¤®à¤Ľà¤®":7458,"ĠEtajakhabar":7459,"ier":7460,"Ġà¤¸à¤¯à¤²":7461,"à¤µà¤Łà¤®":7462,"Ġà¤¹à¤¬à¤²":7463,"à¤ļà¤¯à¤¨":7464,"à¤Ńà¤°à¤²":7465,"Ġà¤¸à¤¹à¤Ĩà¤¯":7466,"Ġà¤¤à¤ªà¤¶":7467,"Ġà¥§à¥¯à¥Ńà¥¨":7468,"Ġà¥§à¥¯à¥Ńà¥¯":7469,"Ġà¥§à¥¬à¥§":7470,"Ġà¥§à¥¬à¥¬":7471,"à¤Ĩà¤°à¤Ĩà¤°":7472,"Ġà¤Ĩà¤Īà¤ıà¤¨à¤ľ":7473,"Ġà¤ªà¤²à¤¹à¤°":7474,"Ġà¤²à¤ĸà¤¨à¤ī":7475,"Ð°ÑĤÑĮ":7476,"EC":7477,"aus":7478,"tion":7479,"à¥ĩÂ¥":7480,"Ġà¤¹à¤¦à¤®":7481,"Ġà¤ķà¤®à¤²à¤®à¤£":7482,"à¤¶à¤ķà¤¬":7483,"Ġà¤Ĳà¤°à¤²":7484,"Ġà¤¡à¤²à¤°à¤¸à¤®":7485,"ĠIt":7486,"Ð¾Ð¶":7487,"apos":7488,"Ġem":7489,"à¤¾âĢĺ":7490,"à¤¹à¤¨à¤®":7491,"Ġà¤Ĺà¤¨à¤°":7492,"Ġà¤µà¤¦":7493,"à¤¬à¤¨à¤²":7494,"à¤¶à¤µà¤ª":7495,"à¤Īà¤ı":7496,"ĠâĢĮ":7497,"à¤¨à¤®à¤²":7498,"à¤ŀà¤¨":7499,"à¤¹à¤¨à¤¤à¤²":7500,"Ġà¤ļà¤°à¤¨":7501,"à¤®à¤¸à¤Ļ":7502,"à¥¨à¥¦à¥§à¥¬":7503,"Ġà¤ľà¤¨à¤¸à¤¤":7504,"que":7505,"à¤Ĺà¤ªà¤ŀ":7506,"âĢį.":7507,"28":7508,"29":7509,"han":7510,"à¥ģ!":7511,"à¤¶à¤¬à¤¨":7512,"à¤Īà¤¤à¤²":7513,"Ġà¤Ńà¤¯à¤µ":7514,"Ġà¤¸à¤¤à¤ª":7515,"Ġà¤¬à¤ļà¤¤à¤ķ":7516,"ĠÐ»":7517,"à¤µà¤ķà¤ªà¤¬":7518,"Ġà¥¨à¥¦à¥ªà¥§":7519,"à¤ĩà¤«à¤¸":7520,"ÅĴà¤µ":7521,"Ġà¤ľà¤®à¤ĺà¤Łà¤®":7522,"Ġà¤ģ":7523,"Ġà¤Ńà¤¸":7524,"Ġà¤µà¤·à¤°":7525,"à¤§à¤Ĺà¤¯":7526,"à¤Īà¤¹":7527,"à¤¸à¤®à¤§":7528,"Ġà¤ħà¤°à¤¬à¤²":7529,"à¤¸à¤¦à¤¦":7530,"à¤ıà¤¨à¤ıà¤ķ":7531,"Ġà¤ıà¤®à¤Ł":7532,"Ġà¥§à¥¯à¥ªà¥«":7533,"Ġà¥§à¥¯à¥Ńà¥Ń":7534,"ãģª":7535,"à¥įâĢĮ,":7536,"igh":7537,"Ġà¤ıà¤«à¤ıà¤®à¤²":7538,"77":7539,"ix":7540,"à¤¾;":7541,"Ġà¤Ĺà¤¹à¤ķ":7542,"à¤Łà¤§":7543,"à¤ľà¤¯à¤°":7544,"Ġà¤Ľà¤®":7545,"à¤¶à¤¤à¤°":7546,"à¤Ĥà¤Ĥ.":7547,"à¤ļà¤¢":7548,"à¤°à¤¸à¤µ":7549,"Ġà¤Ńà¤ıà¤Ľà¤¨":7550,"à¤¸à¤²à¤§":7551,"à¤²à¤¬à¤¦":7552,"Ġà¤ĵà¤ļ":7553,"Ġà¤¸à¤¡à¤ķà¤¸à¤®":7554,"à¤ªà¤£à¤®":7555,"à¤®à¤ªà¤¹":7556,"à¤¾...âĢĻ":7557,"Ġà¤¡à¤²à¤°à¤Ńà¤¨":7558,"Ġà¤¨à¤ļà¤¢":7559,"ãĤĴ":7560,"ave":7561,"wit":7562,"à¤®à¤¹à¤²":7563,"à¤®à¤¦à¤²":7564,"à¤®à¤ĺà¤°":7565,"à¤¸à¤°à¤Ń":7566,"à¤¹à¤¸à¤ķ":7567,"à¤ĺà¤¬à¤¹":7568,"Ġà¤¯à¤¸à¤ĸ":7569,"à¤°à¤¹à¤¯":7570,"à¤¶à¤ķà¤¦":7571,"Ġà¤īà¤¦à¤¯à¤°":7572,"à¤µà¤®à¤§":7573,"Ġà¤¨à¤Ńà¤ĩà¤¸à¤ķ":7574,"Ġà¤Īà¤Ļ":7575,"Ġà¤¨à¤¬à¤¤":7576,"ãģ¦":7577,"Ġfinancial":7578,"à¤ļà¤ĺà¤°à¤®":7579,"à¤£à¤ķà¤°":7580,"à¤¾à¤ģà¥Ī,":7581,"Ġà¤īà¤¨à¤¬":7582,"Ġà¤Ńà¤ıà¤Ńà¤°à¤ķ":7583,"à¤®à¤¨à¤ª":7584,"à¥Įà¤ģà¤ĥ":7585,"à¤§à¤¨à¤Ĺ":7586,"Ġà¥¨à¥¨à¥«":7587,"ĠNR":7588,"Ġportal":7589,"Ġà¥¦à¥«à¥¨":7590,"à¸²à¸":7591,"to":7592,"Ġà¤Ĩà¤łà¤®":7593,"Ġà¤ľà¤²à¤¨":7594,"Ġà¤ıà¤®à¤Ĩà¤°à¤ª":7595,"Ġà¤¨à¤ľà¤°à¤¬à¤¨":7596,"Ġà¥§à¥©à¥ª":7597,"red":7598,"Ġà¤°à¤®à¤Ŀà¤®":7599,"Ġà¤®à¤¹ÅĴà¤µà¤ķ":7600,"US":7601,"à¤¨à¤¨à¤²":7602,"à¤¤à¤ħà¤²":7603,"à¥Ģ..":7604,"à¤¹à¤¨à¤¸":7605,"Ġà¤¹à¤¦à¤ķ":7606,"Ġà¤Ľà¤¯":7607,"Ġà¤īà¤¸à¤¬":7608,"Ġà¤ĸà¤¬à¤°à¤®":7609,"à¥¦à¥Ńà¥§":7610,"Ġà¤®à¤¨à¤¶":7611,"à¤ķà¤¨à¤¹à¤°":7612,"Ġà¥§à¥«à¥«":7613,"à¤ıà¤®à¤Ł":7614,"à¤ļà¤²à¤¨à¤ķ":7615,"Ġà¤®à¤¦à¤°à¤¸":7616,"Ġà¤ħà¤ľà¤¯à¤ķ":7617,"Ġno":7618,"!!!":7619,"à¥į-âĢĺ":7620,"ific":7621,"view":7622,"ology":7623,"ĠðŁ":7624,"à¤¾.....":7625,"Ġà¤¸à¤¯à¤°":7626,"à¥Ī'":7627,"à¤ľà¤Ńà¤¨":7628,"à¤¬à¤Ĺà¤°à¤®":7629,"Ġà¤¸à¤®à¤ļ":7630,"à¤²à¤®à¤ķ":7631,"à¥Īà¤ĤâĢĵ":7632,"Ġà¤¸à¤¨à¤¸":7633,"Ġà¤¸à¤°à¤ª":7634,"Ġà¤Ĩà¤®à¤°":7635,"Ġà¤ıà¤¸à¤¯":7636,"Ġà¤Īà¤¬":7637,"Ġà¥§à¥ªà¥«":7638,"Ġà¤¬à¤®à¤¬à¤¹":7639,"Ġà¤¨à¤Ĩà¤¤":7640,"à¤µà¤¯à¤®à¤²":7641,"à¤ĩà¤¨à¤ĸà¤¬à¤°à¤²":7642,"af":7643,"æĺ":7644,"ĠÑį":7645,"à¥įà¥ĭ":7646,"Ġà¤®à¤°à¤¹":7647,"à¤Īà¤ĸ":7648,"âĢļ":7649,"à¤ĩà¤¶":7650,"Ġà¤¶à¤µà¤¯":7651,"Ġà¤ħà¤ªà¤ļà¤²à¤¨":7652,"Ġà¤Ĩà¤¦à¤¤":7653,"à¤ľà¤Ĺà¤¦":7654,"à¤¨à¤Ĺà¤°à¤¸":7655,"à¤¯à¤Łà¤¨à¤¸":7656,"Ð¸Ð»":7657,"lete":7658,"hak":7659,"ĠAugust":7660,"TA":7661,"net":7662,"à¤µà¤£à¤²":7663,"Ġà¤¸à¤®à¤¦":7664,"à¤ĩà¤ľà¤²":7665,"Ġà¤¥à¤®à¤®":7666,"Ġà¤ıà¤¸à¤ķ":7667,"Ġà¤ħà¤ªà¤ľà¤¸":7668,"à¤ķà¤¨à¤¬":7669,"à¤µà¤ªà¤Ł":7670,"ener":7671,"ĠAnd":7672,"led":7673,"Ġà¤¯à¤®à¤¨à¤®":7674,"antipur":7675,"ÐµÐ»ÑĮ":7676,"ĠJuly":7677,"à¤¨à¤°à¤µà¤²":7678,"à¤¸à¤¢":7679,"Ġà¤¸à¤ľà¤ķ":7680,"à¤ıà¤Ń":7681,"Ġà¤¹à¤¥":7682,"Ġà¤¦à¤ĸà¤²":7683,"Ġà¤īà¤¤à¤°":7684,"Ġà¤°à¤¹à¤¨à¤ķ":7685,"à¤²à¤¯à¤²à¤Ĺ":7686,"à¤ıà¤¨à¤Ł":7687,"à¤¸à¤µà¤¹à¤°":7688,"à¥ģà¥¤'":7689,"ages":7690,"ĠÐ¿Ð¾":7691,"Ġà¥§à¥¯à¥ªà¥¯":7692,"Ġentry":7693,"à¤°à¤Ŀ":7694,"à¤¬à¤°à¤¸":7695,"à¤§à¤¨à¤¸à¤¹":7696,"à¤Īà¤²à¤ķ":7697,"à¤ĩà¤«à¤ķ":7698,"à¥Į-":7699,"à¤ĺà¤¸à¤®":7700,"Ġà¤¯à¤¸à¤¦":7701,"à¤²à¤®à¤®":7702,"à¤ħà¤ªà¤ķ":7703,"ĠÐļ":7704,"ĠShare":7705,"Ġsur":7706,"Ġà¥¦à¥¬à¥¦":7707,"Ġà¤ĵà¤Ńà¤°à¤¡":7708,"Ø§ÙĨ":7709,"cy":7710,"ium":7711,"à¤°à¤ħà¤°":7712,"à¤¨à¤¬à¤¨":7713,"Ġà¤ªà¤¥à¤²":7714,"Ġà¤ķà¤ªà¤¨":7715,"Ġà¤¨à¤Ĩà¤Ī":7716,"à¤¬à¤¤à¤¸":7717,"Ġà¤Ĩà¤Īà¤ıà¤®":7718,"Ġà¤¨à¤Ĩà¤īà¤²":7719,"ĠEn":7720,"à¤ľà¤¯à¤¨à¤Ĺà¤°":7721,"»¿":7722,"Ġà¤Ĺà¤±":7723,"Ġà¤°à¤Ļà¤®":7724,"Ġà¤¬à¤ķà¤°":7725,"à¤ľà¤¯à¤®":7726,"Ġà¤Ľà¤®à¤Ľà¤®":7727,"à¤Īà¤Łà¤²":7728,"à¤Ĺà¤¤à¤¬":7729,"Ġà¤¸à¤¦à¤¶":7730,"à¤²à¤¤à¤¸à¤®":7731,"Ġà¥§à¥¨à¥Ń":7732,"Ġà¥¦à¥¦à¥Ń":7733,"Ġà¥¨à¥®à¥¦":7734,"Ġà¥¨à¥Ńà¥¦":7735,".........":7736,"ÐµÑģ":7737,"Ġam":7738,"ĠApril":7739,"%)":7740,"au":7741,"eed":7742,"fo":7743,"à¤¤à¤²à¤²":7744,"à¤¹à¤¤à¤°":7745,"à¤Īà¤Ī":7746,"à¤£à¤Ń":7747,"à¤ĩà¤®à¤ķ":7748,"Ġà¤ªà¤°à¤²":7749,"Ġà¤¡à¤®à¤°":7750,"à¤²à¤®à¤¤":7751,"à¥¨à¥¦à¥Ńà¥¦":7752,"ature":7753,"Ġà¥§à¥¯à¥®à¥©":7754,"Ġ199":7755,"Ġïĥ":7756,"hy":7757,"à¤®à¤¬à¤°":7758,"Ġà¤®à¤Ĺà¤¨":7759,"à¤ľà¤²à¤ķ":7760,"à¤ĩà¤ªà¤®":7761,"Ġà¤ħà¤¨à¤¸à¤¨à¤ķ":7762,"à¤Ļà¤ľà¤¸":7763,"à¤°à¤£à¤¦":7764,"Ġà¤ĵà¤ıà¤¸":7765,"Ġà¤¬à¤²à¤ª":7766,"Ð¸Ð²":7767,"Ġsc":7768,"ise":7769,"Ġà¥¦à¥ªà¥Ń":7770,"à¤²à¤Ĺà¤°à¤¹à¤°":7771,"à¤°à¤¯à¤¸":7772,"à¤Ŀà¤°":7773,"à¥ĩ,'":7774,"Ġà¤Ĩà¤°à¤ª":7775,"à¤Ĩà¤ļ":7776,"à¤Ĩà¤ĵ":7777,"à¤Ĺà¤²à¤ª":7778,"Ġà¤ķà¤¸à¤°à¤¤à¤®":7779,"Ġà¤¹à¤°à¤ªà¤²":7780,"Ġà¤ıà¤®à¤ıà¤®":7781,"Ġà¤ıà¤®à¤ĵà¤¯":7782,"Ġà¤Ĩà¤ĩà¤¡à¤²à¤®":7783,"à¤ĩà¤²à¤°":7784,"Ġà¤Ĩà¤ļà¤°à¤£à¤ķ":7785,"Ġà¤ħà¤ªà¤¹à¤°à¤£à¤ªà¤Ľ":7786,"ĠÐ¾ÑĤ":7787,"áĥĶáĥ":7788,"SS":7789,"à¤ķà¤¥à¤°":7790,"à¥ĩ;":7791,"Ġà¤ªà¤ľ":7792,"à¤ľà¤¤à¤ķ":7793,"à¤Īà¤Łà¤¹à¤°":7794,"à¤¡à¤ķà¤ķ":7795,"à¤«à¤°à¤ª":7796,"Ġà¤¡à¤ļ":7797,"à¤°à¤¦à¤¶":7798,"à¤µà¤¨à¤µ":7799,"à¤ĵà¤Ĩà¤°":7800,"Ġà¤®à¤²à¤¦":7801,"à¤ıà¤¸à¤¡":7802,"Ġà¤Īà¤£":7803,"à¤ķà¤¸à¤ª":7804,"à¤Łà¤°à¤ķà¤¨":7805,"Ġà¤Ĩà¤ıà¤¦":7806,"Ġà¤Ĩà¤¸à¤¨à¤®":7807,"hed":7808,"à¤ľà¤Ĺà¤¢à¤ķ":7809,"Com":7810,"åľ":7811,"à¤¾à¥ĭ":7812,"à¤¸à¤¡à¤°":7813,"à¤ĤâĢĵ":7814,"à¤¡à¤µà¤¹à¤°":7815,"à¤Ńà¤Ī":7816,"Ġà¤¶à¤¤à¤µ":7817,"Ġà¤ĸà¤Łà¤¨":7818,"à¤ŀà¤¬":7819,"Ġà¤Ĩà¤¯à¤¶":7820,"à¤·à¤£à¤ħà¤¨":7821,"Ġà¤Ĩà¤°à¤ıà¤¸à¤Ĩà¤Ī":7822,"à¤¦à¤¨à¤¸à¤¹":7823,"Ġà¤Ĩà¤®à¤ļ":7824,"Ġà¤ıà¤®à¤ľ":7825,"Ġà¤Ĩà¤łà¤µ":7826,"ited":7827,"ãģĻ":7828,"Ġà¥¦à¥«à¥ª":7829,"27":7830,"ey":7831,"ma":7832,"Ġour":7833,"à¤¯à¤¬à¤°":7834,"Ġà¤Ĺà¤«à¤®":7835,"à¤ľà¤®à¤ķ":7836,"à¤ģà¥¤âĢĻ":7837,"à¤īà¤ªà¤ķ":7838,"Ġà¤ĸà¤¦":7839,"à¤ĺà¤Ń":7840,"à¤·à¤£à¤Ńà¤°à¤®":7841,"à¤®à¤ļà¤°":7842,"Ġà¥§à¥«à¥¬":7843,"à¤¸à¤¬à¤®":7844,"à¥¨à¥¦à¥Ńà¥§":7845,"Ð°ÑģÑĤ":7846,"Ġà¤ıà¤«à¤¡":7847,"ents":7848,"ãģĮ":7849,"ĠWe":7850,"à¤Ķà¤·à¤§à¤¸à¤¹":7851,"app":7852,"à¤¡à¤¹à¤²à¤®":7853,"à¤¦à¤ķà¤ªà¤¦":7854,"bo":7855,"Ġà¤ªà¤µà¤¨à¤ķ":7856,"à¤Īà¤¸à¤¹":7857,"à¤ĩà¤Ńà¤®":7858,"à¥Įà¤Ĥ'":7859,"Ġà¤ļà¤ķà¤ļà¤ķ":7860,"Ġà¤¨à¤Ĺà¤¦à¤®":7861,"Ġà¥§à¥¯à¥¬à¥§":7862,"Ġ40":7863,"à¦¾":7864,"à¤Ĳà¤¨":7865,"à¥įà¥Į":7866,"à¤¨à¤°à¤¹à¤°":7867,"à¥ĩ|":7868,"à¤®à¤°à¤²":7869,"Ġà¤ķà¤ļà¤¨à¤ķ":7870,"Ġà¤¨à¤Ĺà¤£":7871,"Ġà¤¨à¤¥à¤ª":7872,"Ġà¤¹à¤£":7873,"à¤°à¤®à¤¯":7874,"à¤ľà¤¨à¤¦":7875,"Ġà¤ħà¤§à¤°":7876,"à¤ħà¤°à¤®":7877,"Ġà¤¸à¤°à¤°":7878,"Ġà¤ħà¤¬à¤¶":7879,"Ġà¤īà¤łà¤¬à¤¸":7880,"à¤²à¤¯à¤®à¤§":7881,"Ġà¤®à¤¨à¤®à¤¸":7882,"Ġà¤ıà¤¨à¤Ĩà¤°à¤ıà¤¨à¤ıà¤²":7883,"Ġ2011":7884,"aya":7885,"Ġà¥Ńà¥ªà¥ª":7886,"ĠFSX":7887,"gh":7888,"à¤ıà¤Łà¤°à¤ķ":7889,"Ġà¤®à¤ľà¤µ":7890,"à¤¬à¤ľà¤¸":7891,"à¤§à¤Ĺ":7892,"Ġà¤Ľà¤²à¤ķ":7893,"à¤Īà¤Łà¤ķ":7894,"Ġà¤ĸà¤°à¤ķ":7895,"Ġà¤ķà¤°à¤¸à¤®":7896,"Ġà¤łà¤¨":7897,"à¤ħà¤ļà¤²":7898,"Ġà¤Ĩà¤ĩà¤¤":7899,"Ġà¥§à¥¬à¥®":7900,"Ġà¤¨à¤¬à¤ľ":7901,"Ġà¥©à¥¬à¥¦":7902,"ett":7903,"ÐºÐ¸":7904,"ĠOctober":7905,"AM":7906,"day":7907,"oint":7908,"ÂŃ":7909,"Ġro":7910,"à¤ķà¤¸à¤¨":7911,"à¤ªà¤ľà¤¸":7912,"à¤µà¤ªà¤¤":7913,"Ġà¤¨à¤°à¤¨":7914,"à¤Īà¤¬à¤¸":7915,"à¤µà¤ķà¤ªà¤²":7916,"Ġà¤ķà¤²à¤µ":7917,"à¤łà¤ķà¤¸":7918,"Ġà¥§à¥©à¥©":7919,"Ġà¤¸à¤ªà¤¥à¤Ĺ":7920,"Ġà¤²à¤¹à¤°à¤®":7921,"boutà¤®":7922,"æľĪ":7923,"73":7924,"UR":7925,"ek":7926,"Ñĸ":7927,"áŁ":7928,"à¤¨à¤ľà¤°":7929,"à¥ĩâĢľ":7930,"à¤¤à¤ĭà¤·":7931,"à¤¹à¤²à¤¯":7932,"à¤§à¤µà¤²":7933,"à¤¡à¤ķà¤°":7934,"Ġà¤ıà¤ķà¤ĸ":7935,"à¤°à¤¬à¤ľ":7936,"Ġà¥§à¥©à¥Ń":7937,"Ġà¥§à¥¬à¥Ń":7938,"Ġà¤Ĩà¤Īà¤ªà¤°":7939,"à¤ıà¤²à¤ıà¤¨":7940,"à¤¾à¥¤âĢĻ":7941,"Ġà¥ªà¥«à¥¬":7942,"à¤Ńà¤²à¤ªà¤°":7943,"Ġper":7944,"ĠFeb":7945,")âĢĻ":7946,"ven":7947,"Ġì":7948,"à¤ķà¤¤à¤²":7949,"à¤¸à¤ıà¤ķ":7950,"à¤¹à¤Ń":7951,"à¤ĸà¤µà¤°":7952,"à¤ĩà¤ıà¤ªà¤¨":7953,"à¥Įà¤ĤâĢĶ":7954,"à¥Įà¤ĤâĢĿ,":7955,"à¤µà¤ķà¤¬":7956,"à¤²à¤¨à¤¤":7957,"à¥ĩ,âĢľ":7958,"à¤ĵà¤¨à¤²":7959,"Ġà¥§à¥¯à¥¦":7960,"Ġà¥§à¥ªà¥ª":7961,"Ġà¤ľà¤¨à¤¸à¤°à¤ķ":7962,"Ġà¤ĭà¤£à¤¦":7963,"à¤Ńà¤Ĺà¤µà¤¤":7964,"à¤Ĺà¤¸à¤Ļ":7965,"formation":7966,"Â°":7967,"à¤®à¤ľà¤¦":7968,"Ġà¤¸à¤¤à¤²":7969,"à¤ıà¤°à¤®":7970,"à¤·à¤¤à¤®":7971,"à¤ıà¤ķà¤²":7972,"Ġà¤Ĩà¤ıà¤²à¤Ĺà¤¤":7973,"à¤ĸà¤®à¤§":7974,"à¤¹à¤°à¤¸":7975,"Ġà¤¸à¤®à¤¬à¤¨":7976,"à¤°à¤®à¤µ":7977,"à¤°à¤¤à¤ª":7978,"à¤ľà¤¨à¤ªà¤Ľ":7979,"Ġà¤ıà¤ķà¤¬":7980,"à¤µà¤°à¤£à¤¸à¤¹":7981,"à¥Īà¤ģà¤Ĥ":7982,"Ġà¤ıà¤¨à¤ıà¤®":7983,"ĠMin":7984,"Ġà¤Ľà¤łà¤ªà¤°":7985,"Ġà¥§à¥¯à¥¬à¥«":7986,"ife":7987,"Ġcomm":7988,"à¤ķà¤ħà¤ªà¤ķ":7989,"EL":7990,"Ġ\\":7991,"à¤¾à¥ĥ":7992,"à¤¿\"":7993,"à¤¸à¤ł":7994,"à¤¸à¤¸à¤¹à¤°":7995,"à¤Ĺà¤µà¤¶":7996,"Ġà¤°à¤¶à¤®":7997,"à¤ľà¤ľà¤¸":7998,"à¤·à¤°à¤¶":7999,"à¤¥à¤¨à¤²":8000,"Ġà¤¸à¤®à¤¯à¤¤":8001,"Ġà¤ľà¤¨à¤Ĩà¤ķ":8002,"Ġà¥§à¥«à¥Ń":8003,"Ġà¥§à¥«à¥©":8004,"Ġà¤Ĩà¤¶à¤²":8005,"Ġà¥©à¥¦à¥¦à¥¦":8006,"Ġà¥¨à¥§à¥¦":8007,"ital":8008,"à¤®à¤°à¤£à¤¶à¤ķ":8009,"ĠBI":8010,"Ġà¥§à¥¯à¥¬à¥Ń":8011,"áĥĺáĥ":8012,"DP":8013,"ph":8014,"à¤ķà¤ªà¤Ľ":8015,"Ġà¤¨à¤Ńà¤°":8016,"Ġà¤¹à¤ķà¤µ":8017,"Ġà¤µà¤¦à¤²":8018,"à¤ĩà¤¸à¤°":8019,"Ġà¤ľà¤¨à¤īà¤¤":8020,"à¤²à¤ķà¤¦":8021,"à¤Ŀà¤ª":8022,"Ġà¤ªà¤¹à¤²à¤²":8023,"à¤¹à¤¨à¤°":8024,"âĢĶâĢĶ":8025,"Ġoff":8026,"erse":8027,"gram":8028,");":8029,"Â¬":8030,"æĪ":8031,"à¤Ĺà¤ı":8032,"Ġà¤¬à¤Ĺà¤¨":8033,"à¤ľà¤¯à¤¸":8034,"à¤¶à¤¶":8035,"Ġà¤ĵà¤¯":8036,"Ġà¤ĵà¤®à¤¬à¤¹":8037,"Ġà¤Ĩà¤ľà¤ªà¤¨":8038,"Ġà¥§à¥¯à¥Ńà¥©":8039,"Ġà¤Ĩà¤Īà¤¡à¤²":8040,"ĠCon":8041,"à¤ĩà¤ªà¤¬":8042,"Ġ2012":8043,"Ġà¤ħà¤µà¤¶à¤°à¤®":8044,"Ġnew":8045,"uss":8046,"Nepali":8047,"?\"":8048,"ka":8049,"Ġà¤¬à¤£":8050,"Ġà¤Ńà¤ľà¤¨à¤ķ":8051,"à¤·à¤²à¤Ĺ":8052,"à¥ĮâĢĿ":8053,"Ġà¤ªà¤°à¤¬":8054,"à¤¨à¤®à¤£":8055,"à¤ħà¤¸à¤²":8056,"à¤Ĺà¤¤à¤Ńà¤¨":8057,"à¤¶à¤¨à¤¶":8058,"Ġà¥§à¥¯à¥ªà¥¦":8059,"its":8060,"à¥ĭà¥į":8061,"à¤ªà¤¯à¤®":8062,"à¤µà¤īà¤ª":8063,"Ġà¤Ĺà¤ĩà¤¹":8064,"Ġà¤¬à¤Ĺà¤²":8065,"Ġà¤®à¤Ī":8066,"à¥Į:":8067,"Ġà¤ħà¤§à¤¬":8068,"à¤¯à¤¤à¤µà¤¶":8069,"à¤¦à¤¨à¤¹":8070,"Ġà¤¬à¤°à¤«":8071,"à¤ĵà¤ıà¤®":8072,"à¤¡à¤®à¤Ľ":8073,"Ġà¥«à¥¦à¥¦à¥¦":8074,"à¤·à¤§à¤°à¤²":8075,"Ġà¥§à¥Ńà¥¨":8076,"arn":8077,"ica":8078,"à¤§à¤¨à¤²à¤Ĺ":8079,"ĠBo":8080,"ows":8081,"Ġà¤¯à¤®à¤¨à¤ķ":8082,"Ð°Ð¹":8083,"Ġà¥§à¥¯à¥«à¥«":8084,"of":8085,"vis":8086,"à¤¹à¤ľà¤¸":8087,"à¤¹à¤¡à¤¤":8088,"à¤ļà¤Ł":8089,"Ġà¤®à¤¨à¤ª":8090,"Ġà¤°à¤®à¤ľ":8091,"Ġà¥¨à¥§à¥Ń":8092,"ars":8093,"ada":8094,"ility":8095,"ãģ¨":8096,"uls":8097,"ĠComm":8098,"à¤ħà¤µà¤¸à¤°":8099,"eg":8100,"Ã§":8101,"à¤¸à¤£":8102,"Ġà¤°à¤¸à¤²":8103,"Ġà¤¶à¤¶à¤ķ":8104,"à¤ĺà¤°à¤²":8105,"Ġà¤ıà¤ķà¤¹à¤ª":8106,"Ġà¤Łà¤ªà¤ķ":8107,"à¤ķà¤®à¤®":8108,"à¤Ĩà¤°à¤¬":8109,"Ġà¤¸à¤°à¤Ĺà¤°":8110,"Ġà¤ĵà¤µ":8111,"à¤łà¤ķà¤¸à¤®":8112,"ĠNational":8113,"à¤¨à¤Ńà¤°à¤ķ":8114,"urn":8115,"ÐµÐ²":8116,"Ġà¤°à¤£à¤ľ":8117,"ĠÙĪ":8118,"unicip":8119,"In":8120,"Ġà¤¸à¤Ĺà¤°":8121,"à¤ıà¤ļà¤¸":8122,"Ġà¤®à¤ĸà¤¨":8123,"à¤·à¤ªà¤¨":8124,"à¥Įà¤Ĥ?":8125,"à¤°à¤¦à¤¹":8126,"à¤¶à¤ķà¤°":8127,"à¤¨à¤¨à¤Ĺà¤°à¤®":8128,"Ġà¤ķà¤²à¤°à¤ķ":8129,"Ġà¤Ĩà¤ĩà¤¯":8130,"Ġà¥§à¥¯à¥©à¥¦":8131,"à¤¨à¤Ĺà¤°à¤Ń":8132,"à¤ıà¤®à¤¡":8133,"Ġà¥§à¥®à¥¯":8134,"Ġà¤Ĺà¤łà¤¨à¤ªà¤Ľ":8135,"Ġà¤Ĩà¤ļà¤°à¤£à¤®":8136,"à¤Łà¤¬à¤²à¤¬":8137,"ĠAm":8138,"lease":8139,"ÑĤÐ¾":8140,"à¤¶à¤Ńà¤°à¤®":8141,"Ġà¤ĺà¤Łà¤ķà¤¹à¤°":8142,"å°":8143,"à¤²à¤īà¤ªà¤°":8144,"à¤Ĺà¤Ĺà¤°":8145,"à¤Łà¤Ńà¤°":8146,"Ġà¤Ĩà¤Ļà¤¦":8147,"à¤Īà¤ªà¤²":8148,"Ġà¤¸à¤®à¤¤à¤²":8149,"Ġà¤ıà¤Ĩà¤Ī":8150,"à¤°à¤£à¤¸à¤¹":8151,"Ġà¤ĺà¤°à¤¸":8152,"Ġà¤ıà¤ķà¤¸à¤°":8153,"à¤®à¤¨à¤¦":8154,"Ġà¤Ńà¤°à¤¸à¤ķ":8155,"à¤¥à¤²à¤¤à¤°":8156,"Ġà¤«à¤°à¤ķà¤ªà¤¨":8157,"à¤īà¤¸à¤«":8158,"ãģ¾":8159,"ets":8160,"outube":8161,"ces":8162,"ject":8163,"uch":8164,"è¿":8165,"ïĢ":8166,"à¤¿âĢĻ,":8167,"à¤¦à¤Ńà¤®":8168,"à¤Łà¤ĸ":8169,"à¤Īà¤Łà¤°":8170,"Ġà¤¯à¤®à¤¬à¤¹":8171,"à¤īà¤¨à¤¤":8172,"à¤²à¤®à¤ĸ":8173,"à¤µà¤°à¤¨":8174,"à¤¨à¤ªà¤ŀ":8175,"Ġà¤Ĺà¤łà¤¨à¤¸à¤®":8176,"à¤°à¤ĸà¤£":8177,"ities":8178,"à¤ĩà¤¬à¤²à¤®":8179,"ĠJune":8180,"à¤ĩà¤°à¤¸à¤²":8181,"Ð½ÑĭÑħ":8182,"Ġà¤ıà¤¸à¤ĩà¤Ī":8183,"ĠNotice":8184,"CC":8185,"Ãł":8186,"à¤¸à¤ħà¤°":8187,"Ġà¤¸à¤¸à¤®":8188,"à¤µà¤Īà¤®":8189,"Ġà¤¬à¤¥à¤¨":8190,"à¤£à¤ªà¤¶":8191,"à¤¸à¤®à¤¤":8192,"à¤¨à¤®à¤ķ":8193,"Ġà¤ıà¤ķà¤ł":8194,"à¤¤à¤®à¤¯":8195,"à¤¡à¤ķà¤ªà¤®":8196,"à¤·à¤®à¤§":8197,"Ġà¤¦à¤²à¤¸à¤®":8198,"Ġà¤ıà¤¸à¤ıà¤®":8199,"Ġà¤¦à¤¶à¤µà¤Ł":8200,"Ġà¥§à¥ªà¥®":8201,"Ġà¥§à¥Ńà¥©":8202,"Ð¾Ð·":8203,"ĠGu":8204,"ther":8205,"ateg":8206,"ÑĩÐµ":8207,"ÐµÐ½Ð¸Ñı":8208,"Ġque":8209,"Ġà¤¤à¤¡à¤ķà¤Ńà¤¡à¤ķ":8210,")âĢĵ":8211,"lig":8212,"uf":8213,"Ġà¥Ģ":8214,"Ġes":8215,"à¥į/":8216,"à¤ķà¤Ĺà¤£":8217,"à¥ĭà¥ĩ,":8218,"à¤¤à¤µà¤²":8219,"Ġà¤°à¤°":8220,"à¤¬à¤°à¤¤":8221,"à¤£à¤¯à¤¨":8222,"à¤ħà¤°à¤¬":8223,"à¤ļà¤¨à¤ľà¤Ļ":8224,"Ġ???":8225,"Ġà¥§à¥¬à¥¨":8226,"ali":8227,"Ġmin":8228,"à¥ģà¥ģà¥ģ":8229,"ely":8230,"ÐºÐ°":8231,"Ð°Ð´":8232,"à¨¾":8233,"à¥įà¥Ģà¥Ģ":8234,"ED":8235,"PS":8236,"TM":8237,"à¤¹à¤Łà¤®":8238,"à¤§à¤¡":8239,"à¤ĩà¤¸à¤²":8240,"à¥Įà¥Īà¤Ĥ":8241,"Ġà¤ıà¤ŀ":8242,"Ġà¤«à¤¯":8243,"Ġà¤ıà¤ķà¤®à¤¹":8244,"à¥ģà¤ģ,âĢĻ":8245,"à¥ĩà¤ģâĢĵ":8246,"ative":8247,"Ġà¥¬à¥¦à¥§":8248,"à¤¾',":8249,"BS":8250,"ET":8251,"OM":8252,"à¤¨à¤ħ":8253,"à¤¤m":8254,"à¤Łà¤¤à¤¨":8255,"Ġà¤¬à¤ª":8256,"Ġà¤¹à¤²à¤¬":8257,"à¤§à¤µà¤°":8258,"à¤£à¤ķà¤²":8259,"à¤Ļà¤µà¤°à¤ķ":8260,"Ġà¤«à¤®":8261,"Ġà¤ħà¤¹à¤Ļ":8262,"à¤Łà¤®à¤¬":8263,"Ġà¥§à¥«à¥®":8264,"à¤ıà¤®à¤¡à¤¬":8265,"ĠSch":8266,"à¤°à¤¨à¤Ĺà¤°à¤¬":8267,"ĠWeb":8268,"Ġà¥§à¥¯à¥«à¥¯":8269,"Ġà¤ħà¤¹à¤®à¤¦à¤²":8270,"St":8271,"iet":8272,"à¤°à¤¡à¤®":8273,"à¤¦à¤ļ":8274,"Ġà¤¨à¤°à¤ª":8275,"Ġà¤¤à¤ľà¤¬":8276,"à¤Ľà¤®":8277,"à¤Ńà¤¡":8278,"à¤łà¤¸à¤¹":8279,"à¤¤à¤°à¤¯":8280,"à¤²à¤¨à¤Ĺà¤°":8281,"à¤·à¤ķà¤¦":8282,"Ġà¤ļà¤²à¤¨à¤ķ":8283,"Ġà¥§à¥®à¥§à¥¬":8284,"Ġà¤¨à¤²à¤¡":8285,"hap":8286,"à¤ĩà¤¬à¤²à¤ķ":8287,"ersion":8288,"Ġà¤²à¤Ńà¤¸":8289,"à¤°à¤Ĩ":8290,"à¤¦à¤¯à¤°":8291,"à¤ıà¤²à¤¬":8292,"Ġà¤¬à¤°à¤¬":8293,"à¤ľà¤²à¤®":8294,"à¤§à¤°à¤£à¤ķ":8295,"à¤ļà¤ķà¤¤":8296,"Ġà¤¯à¤²à¤®":8297,"Ġà¤Ķà¤·à¤§à¤ķ":8298,"Ġà¤¬à¤²à¤Ńà¤¦":8299,"Ġà¤¸à¤Ļà¤ĸ":8300,"Ġà¤¨à¤Ńà¤¤":8301,"à¤¯à¤ªà¤°à¤ķ":8302,"à¤Ĺà¤¬à¤¤":8303,"à¤ıà¤²à¤ĵ":8304,"Ð¾Ð¿":8305,"imes":8306,"Ġà¥§à¥¯à¥¬à¥®":8307,"rain":8308,"à¹Ī":8309,"ESE":8310,"\"à¥¤":8311,"ĠÚ©":8312,"à¥ģà¥Ĥ":8313,"Ġà¤¬à¤¯à¤¸":8314,"Ġà¤Ńà¤°à¤¤à¤®":8315,"à¤ľà¤ªà¤Ľ":8316,"Ġà¤¤à¤£":8317,"à¤¥à¤¦":8318,"à¤Īà¤ıà¤¨":8319,"à¤°à¤¤à¤¸à¤®":8320,"à¤ªà¤¤à¤®":8321,"Ġà¤ħà¤ªà¤¶à¤¬":8322,"à¤¬à¤²à¤¤":8323,"à¤µà¤°à¤£à¤¸à¤®":8324,"Ġà¤¸à¤¡à¤ķà¤¸":8325,"à¤ıà¤¸à¤ıà¤¸à¤ª":8326,"ĠÐĿ":8327,"Ġmy":8328,"oun":8329,"ĠOr":8330,"pport":8331,"ĠÌĪ":8332,"Ð½ÑĭÐ¹":8333,"velop":8334,"Ph":8335,"áº":8336,"ĠÑģÑĤ":8337,"Ġ0000":8338,"Ġà¤Ĩà¤¯à¤¤à¤¨":8339,"à¤®à¤¤à¤ª":8340,"Ġà¤ķà¤¸à¤ľ":8341,"à¤°à¤ľà¤ª":8342,"à¤²à¤µà¤¹à¤°":8343,"à¥Įà¤Ĥ,'":8344,"Ġà¥§à¥¬à¥©":8345,"à¥¨à¥¦à¥¬à¥©":8346,"Ġà¤ĭà¤£à¤²":8347,"à¤¶à¤¬à¤£":8348,"Ġpart":8349,"Ġwork":8350,"Ġà¤¬à¤ļà¤¤à¤ªà¤¤":8351,"ãģ¯":8352,"ĠFr":8353,"ĠEng":8354,"erson":8355,"Ġ09":8356,"88":8357,"ied":8358,"ts":8359,"ton":8360,"Ġar":8361,"à¥°":8362,"à¥Ĳ":8363,"à¥ĭÃ·":8364,"à¤¸à¤¹à¤¨":8365,"à¤ıà¤¬à¤®":8366,"Ġà¤¹à¤¬à¤ķ":8367,"à¥ĮâĢĮ":8368,"à¤¤à¤°à¤¹à¤°":8369,"Ġà¤łà¤¹":8370,"à¤°à¤µà¤£à¤ķ":8371,"à¤ķà¤ķà¤¥":8372,"à¤Łà¤²à¤¸à¤®":8373,"à¤ķà¤Łà¤Ĺ":8374,"à¤µà¤¯à¤¨à¤¬":8375,"Ġà¤īà¤ªà¤°à¤¥":8376,"à¤¶à¤¹à¤°à¤®":8377,"ould":8378,"Ġà¤¤à¤²à¤¬à¤¬":8379,"Ġ2074":8380,"Ġà¥¬à¥«à¥¦":8381,"ĠDr":8382,"Ġrest":8383,"oth":8384,"eek":8385,"Ġà¤ħà¤Ĺà¤®à¤µà¤ķ":8386,"Ġà¤°à¤¥à¤ķ":8387,"Ġà¤¨à¤§":8388,"à¤ıà¤ĩà¤ķ":8389,"à¤·à¤ªà¤¤":8390,"à¤¥à¤¡":8391,"Ġà¤ľà¤£":8392,"Ġà¤ĩà¤¨à¤²":8393,"Ġà¤Ńà¤ıà¤¬à¤®":8394,"à¤ĩà¤²à¤¨à¤®":8395,"à¤¡à¤®à¤§":8396,"à¥ģ,âĢĿ":8397,"Ġà¥§à¥¬à¥ª":8398,"à¥¨à¥¦à¥¬à¥®":8399,"Ġà¥¨à¥¬à¥«":8400,"Ġà¤¨à¤Ńà¤Īà¤ķà¤¨":8401,"200":8402,"à¥ģ),":8403,"Ġà¤ķà¤Łà¤ķ":8404,"à¤ıà¤¯à¤°":8405,"à¤Ĥ...":8406,"Ġà¤ıà¤®à¤ķ":8407,"à¤ĺà¤°à¤¤":8408,"à¤ĺà¤²à¤Ĺ":8409,"à¤®à¤¤à¤¸à¤¹":8410,"à¤Ĩà¤¨à¤¨":8411,"à¤µà¤°à¤£à¤µ":8412,"à¤¸à¤¹à¤ľ":8413,"à¸Ļ":8414,"Ġà¤ķà¤²à¤®à¤ķ":8415,"outh":8416,"ãĤĭ":8417,"ource":8418,"à¤¸à¤¡à¤ķà¤ķ":8419,"Ġà¤Ĩà¤²à¤®à¤ķ":8420,"35":8421,"99":8422,"ble":8423,"px":8424,"ral":8425,"Ġà¤ķà¤£à¤¹à¤°":8426,"à¤ıà¤ķà¤ľà¤¨":8427,"à¤ĩà¤ŀ":8428,"à¤¸à¤ķà¤µà¤°":8429,"à¤ķà¤®à¤£":8430,"à¥ģà¤ģà¤Ĥ":8431,"Ġà¥§à¥®à¥§":8432,"à¤ļà¤°à¤Ļ":8433,"ĠSur":8434,"à¤Ĭà¤°":8435,"Ð°ÑĨ":8436,"ÑĢÑĥ":8437,"ĠÐ½Ðµ":8438,"Ġany":8439,"uck":8440,"Ġà¤ĺà¤ļà¤ĺà¤ļ":8441,"Ġà¤¹à¤°à¤«à¤¹à¤°":8442,"''":8443,"EM":8444,"à¤°à¤ĵà¤Ł":8445,"à¤ķà¤ªà¤¨":8446,"à¤§à¤¸à¤Ń":8447,"Ġà¤Ľà¤¸":8448,"Ġà¤Ĩà¤°à¤¬":8449,"à¥Įà¥Ī":8450,"à¤¸à¤ķà¤®":8451,"à¤ĩà¤¨à¤ĸà¤¬à¤°":8452,"à¤µà¤²à¤ª":8453,"Ġà¤Ĳà¤ľ":8454,"Ġà¤¢à¤ķà¤¢à¤ķ":8455,"amb":8456,"Ġà¤Ĩà¤ĩà¤ıà¤®à¤ĩ":8457,"ij":8458,"à¤°à¤ĸà¤ķ":8459,"à¤¨à¤¤à¤ķ":8460,"à¥ĩà¥Ī":8461,"à¤¯à¤°à¤µ":8462,"à¤¯à¤¬à¤²":8463,"à¤ıà¤Ńà¤°":8464,"à¤ıà¤Īà¤¬":8465,"à¤ģâĢĻ,":8466,"à¤°à¤¤à¤¦":8467,"à¤°à¤¹à¤¸à¤¨":8468,"Ġà¤¦à¤¶à¤µà¤°":8469,"à¤¸à¤µà¤Ł":8470,"Ġind":8471,"à¤Ĳà¤¤":8472,"Ð¾Ð»ÑĮ":8473,"?)":8474,"mand":8475,"à¤¨à¤Ī":8476,"à¤¿..":8477,"à¥ĭ....":8478,"à¤ĸà¤¨à¤µ":8479,"à¤ĺà¤¢":8480,"à¤ħà¤«à¤®":8481,"à¤°à¤µà¤®à¤¯":8482,"à¤ĵà¤¡":8483,"à¤ķà¤°à¤£à¤¹à¤°":8484,"à¤¤à¤°à¤£à¤¸à¤®":8485,"à¤¥à¤²à¤¦":8486,"Ġà¥§à¥®à¥«":8487,"ering":8488,"alk":8489,"à¥Ĥà¤ģ,":8490,"ĠChe":8491,"ĠViews":8492,"Post":8493,"ron":8494,"Ġà¤Ńà¤¡à¤ķ":8495,"à¤ļà¤°à¤£à¤ķ":8496,"à¤ĩà¤Ńà¤²":8497,"à¤ĩà¤ıà¤«à¤ı":8498,"à¤īà¤¨à¤¸":8499,"à¤¸à¤®à¤¸à¤ķ":8500,"à¤Ĺà¤°à¤¨":8501,"à¥Įà¤Ĥ)":8502,"à¤ĩà¤¨à¤¸à¤ķ":8503,"Ġà¤ĩà¤¨à¤ķ":8504,"à¤¾à¤Ĥà¥Ī,":8505,"à¤¤à¤¨à¤¦":8506,"à¤ķà¤°à¤°":8507,"Ġà¤ĺà¤°à¤Ĺ":8508,"à¤Łà¤²à¤°à¤ķ":8509,"Ġà¤ªà¤¢à¤¦":8510,"à¤¸à¤¹à¤°à¤ķ":8511,"ence":8512,"à¤®à¤£à¤¹à¤°":8513,"Ġdi":8514,"Ġder":8515,"Ġone":8516,"Ġà¤²à¤¹à¤¡":8517,"ÐµÐ³":8518,"Ð½ÑĭÐµ":8519,"The":8520,"ä¼":8521,"Ġ~":8522,"Ġà¤¸à¤°à¤¹à¤°":8523,"à¤¦à¤ħà¤¨":8524,"à¤Łà¤Ĺà¤¢":8525,"à¤¬à¤¤à¤²":8526,"à¤¥à¤²à¤¸":8527,"Ġà¤īà¤Ł":8528,"Ġà¤ľà¤¨à¤Ĺà¤£à¤¤à¤¨":8529,"à¤ħà¤µà¤¤":8530,"à¤¬à¤¨à¤¡":8531,"Ġà¤¬à¤¸à¤Ń":8532,"à¤¸à¤¨à¤ªà¤Ľ":8533,"Ġà¤¸à¤¦à¤¨à¤¬":8534,"Ġà¤ıà¤¸à¤ıà¤¸":8535,"à¤ľà¤¦à¤°à¤²":8536,"any":8537,"anch":8538,"Ġph":8539,"rop":8540,"Ġà¥¯à¥®à¥«":8541,"Ġest":8542,"Ġgr":8543,"à¤ªmà¤¬":8544,"AND":8545,"ÅŁ":8546,"Ġà¤Ĺà¤Ĺ":8547,"Ġà¤µà¤¶à¤®":8548,"à¤·à¤ľà¤¤":8549,"à¤¶à¤Ĺà¤°":8550,"Ġà¤Ĩà¤Īà¤²":8551,"à¤ĩà¤¥":8552,"à¤°à¤²à¤¯":8553,"à¥įà¥¤...":8554,"Ġà¤Ŀà¤ªà¤Ł":8555,"Ġà¤ªà¤¤à¤¨à¤ķ":8556,"Ġà¤Ĩà¤ĩà¤¬":8557,"Ġà¥¨à¥«à¥¦à¥¦":8558,"ĠSeto":8559,"ervice":8560,"ĠMarch":8561,"60":8562,"aut":8563,"work":8564,"à¤¤à¤ļà¤¨":8565,"à¥ģà¥ĩ":8566,"à¤¦à¤¸à¤¹":8567,"Ġà¤ħà¤¥à¤°":8568,"Ġà¤¹à¤«":8569,"Ġà¤¹à¤µà¤¨":8570,"Ġà¤¸à¤®à¤ªà¤¨":8571,"à¥¤)":8572,"Ġà¤¥à¤¬":8573,"à¤¸à¤ķà¤¬":8574,"Ġà¤ħà¤®à¤°à¤ª":8575,"Ġà¤¸à¤¡à¤ķà¤¦":8576,"Ġà¤ħà¤¦à¤Ń":8577,"Ġnepal":8578,"Ġà¥§à¥¯à¥«à¥ª":8579,"ä¸Ģ":8580,"åĨĨ":8581,"Ġwebsite":8582,"unicipality":8583,"ten":8584,"ware":8585,"à¤®à¤¸à¤ķ":8586,"Ġà¤¬à¤¨à¤®":8587,"Ġà¤ĸà¤µà¤°à¤ķ":8588,"Ġà¤ħà¤¸à¤Ļ":8589,"à¤®à¤¨à¤µà¤®":8590,"Ġà¤Ĩà¤Ĺà¤¨à¤®":8591,"Ġà¤°à¤®à¤Ŀ":8592,"Ġà¤ĸà¤¬à¤°à¤ªà¤¤":8593,"Ġà¤Ĩà¤¸à¤¯":8594,"Ġdie":8595,"ĠÂ£":8596,"Ġres":8597,"à¤¯à¤ľà¤¨à¤¹à¤°":8598,"ĠPosted":8599,"AP":8600,"ler":8601,"lish":8602,"Ġ),":8603,"à¤°à¤ľà¤¨à¤®":8604,"à¤¬à¤ªà¤Ľ":8605,"à¤¡à¤°à¤¶":8606,"à¤¹à¤°à¤¬":8607,"à¤°à¤®à¤¬à¤¦":8608,"Ġà¤¶à¤µà¤¦":8609,"à¤ĺà¤µ":8610,"à¤²à¤ķà¤¥":8611,"à¤ªà¤®à¤¤":8612,"à¤¤à¤ķà¤¸à¤®":8613,"à¤ļà¤¨à¤¤":8614,"à¤®à¤¨à¤¹à¤°":8615,"Ġà¤¨à¤ľà¤°à¤¬":8616,"à¤ıà¤®à¤ª":8617,"à¤¹à¤¤à¤¸":8618,"ator":8619,"ĠÐľ":8620,"ĠNESE":8621,"ÑĥÑĢ":8622,"Ġà¤Ĩà¤¸à¤¨à¤¬":8623,"Ġà¥§à¥¯à¥«à¥Ń":8624,"ights":8625,"Ġ2009":8626,"ĠThis":8627,"ĠComplete":8628,"33":8629,"air":8630,"à¤ķà¤ªà¤ķ":8631,"Ġà¤ķà¤°à¤£à¤²":8632,"à¤¬à¤µ":8633,"à¤§à¤¶à¤®à¤¶":8634,"à¥Ĥ:":8635,"à¥ĤâĢĿ":8636,"à¤ĸà¤¨à¤¬":8637,"à¤¹à¤°à¤¹à¤°":8638,"à¤¨à¤ķà¤ķ":8639,"Ġà¤«à¤Ļ":8640,"Ġà¤ıà¤ķà¤ªà¤Łà¤ķà¤®":8641,"Ġà¤Ĩà¤°à¤¨":8642,"à¤¶à¤¨à¤µ":8643,"Ġà¤ªà¤¦à¤¬à¤¹":8644,"Ġà¤µà¤¨à¤ľà¤Ļ":8645,"à¥ĩà¤Ĥ,âĢĻ":8646,"ĠAs":8647,"ley":8648,"has":8649,"Ġà¤¡à¤²à¤°à¤²":8650,"Ġà¤ļà¤°à¤®à¤¸":8651,"ĠRes":8652,"à¤ıà¤¨à¤ıà¤¨à¤²":8653,"Ġà¥¦à¥«à¥«":8654,"Ġà¤Ĩà¤ĩà¤¨à¤¸à¤ķ":8655,"Ð½Ð¾ÑģÑĤ":8656,"Ġà¤¨à¤¯à¤¨à¤°":8657,"ĠView":8658,"mà¤¹à¤°":8659,"rist":8660,"à¥ĩà¤¿":8661,"à¤¶à¤£":8662,"à¤Īà¤Ńà¤°":8663,"à¤Ńà¤ľ":8664,"à¤ĩà¤¬à¤°à¤ķ":8665,"à¤¨à¤®à¤Ĺà¤°":8666,"Ġà¤®à¤¹à¤Ĺ":8667,"à¤¸à¤²à¤µ":8668,"à¤·à¤ķà¤¤":8669,"à¥©à¥¦à¥¦":8670,"Ġà¤ĵà¤Ĺ":8671,"à¤°à¤Ńà¤²":8672,"à¤¯à¤Łà¤ķà¤¬":8673,"à¥¨à¥¦à¥§à¥«":8674,"à¤¤à¤°à¤ķà¤²":8675,"Ġà¥¨à¥¯à¥«":8676,"à¤Łà¤°à¤²à¤Ĺ":8677,"Ġ2010":8678,"ama":8679,"ĠRock":8680,"à¤ıà¤¨à¤ıà¤ļà¤¸":8681,"ience":8682,"85":8683,"pen":8684,"Ġif":8685,"Ġ________":8686,"à¤ķà¤ľà¤¨":8687,"à¤²à¤°à¤¸":8688,"à¤¯à¤¦à¤ķ":8689,"à¤¸à¤²à¤²":8690,"Ġà¤¸à¤°à¤®":8691,"Ġà¤¨à¤¢":8692,"à¤§à¤ľà¤¸":8693,"à¥Į,âĢĻ":8694,"Ġà¤ĩà¤¤à¤°":8695,"à¤·à¤ķà¤¸à¤®":8696,"à¥Īà¤Ĥà¤Ĥ":8697,"Ġà¤ħà¤®à¤°à¤ķ":8698,"à¤ĵà¤¹":8699,"à¤ķà¤°à¤£à¤¤à¤°":8700,"à¤ıà¤¨à¤ıà¤®":8701,"ĠMed":8702,"Ġsub":8703,"à¥Ģ...âĢĻ":8704,"ote":8705,"Ġà¤¦à¤®à¤ķà¤²à¤ķ":8706,"Ġà¥§à¥¯à¥¬à¥¯":8707,"Ġïģ®":8708,"weet":8709,"Ġà¤¹à¤¤à¤ķà¤¡":8710,"Ġà¤ķà¤ļà¤¨à¤ķà¤µà¤²":8711,"bs":8712,"Ġà¤ĳ":8713,"à¤¨à¤Ŀ":8714,"à¤²à¤µà¤¨":8715,"à¤®à¤¸à¤°":8716,"Ġà¤¸à¤²à¤²":8717,"à¤¦à¤ľà¤¸":8718,"Ġà¤ķà¤µà¤¯":8719,"Ġà¤¨à¤ĺ":8720,"à¤·à¤¯à¤ª":8721,"Ġà¤¤à¤¬à¤²":8722,"à¤¯à¤¸à¤¨à¤²":8723,"à¤¯à¤¤à¤¹à¤ķ":8724,"à¤¤à¤¨à¤¸à¤®":8725,"Ġà¤®à¤¤à¤¬":8726,"Ġà¥§à¥«à¥¨":8727,"à¤ıà¤¸à¤ıà¤¸à¤¬":8728,"Ġà¤Ĺà¤£à¤²":8729,"à¥ģà¤Ĥà¤ģ":8730,"alth":8731,"à¤ĩà¤ķà¤²à¤¬":8732,"à¤£à¤ªà¤¦à¤ķ":8733,"ĠRo":8734,"ä¸ĩ":8735,"----------------":8736,"Ġà¤¬à¤¬à¤°à¤®à¤¹à¤²à¤®":8737,"à§ĩ":8738,"ĠCenter":8739,"har":8740,"man":8741,"son":8742,"à¤¨à¤¥à¤²":8743,"Ġà¤¸à¤ľà¤¨":8744,"à¤ĸà¤²à¤Ĺ":8745,"à¤Ĺà¤°à¤¬":8746,"Ġà¤ķà¤®à¤²à¤²":8747,"Ġà¤¹à¤ľà¤°":8748,"à¤§à¤¨à¤¦":8749,"Ġà¥§à¥©à¥¯":8750,"Ġà¥§à¥ªà¥§":8751,"à¤¹à¤°à¤£à¤²":8752,"Ġcap":8753,"acy":8754,"Ġà¤¨à¤Ĺà¤ı":8755,"Ġà¤ĵà¤®à¤¨à¤ķ":8756,"ocu":8757,"à¥įà¤ģà¥ĩ":8758,"Ġà¤Ńà¤°à¤£à¤ª":8759,"ze":8760,"åĽ":8761,"Ġ\\'":8762,"à¥ĭ&":8763,"à¤¦à¤ĸ":8764,"Ġà¤¹à¤°à¤¹":8765,"à¤¶à¤ľà¤¸":8766,"Ġà¤ľà¤¯à¤¦":8767,"à¤Īà¤ªà¤Ľ":8768,"à¤¡à¤ĸ":8769,"Ġà¤ľà¤¨à¤Ĩà¤¸":8770,"à¤¤à¤°à¤īà¤¨":8771,"à¤¤à¤°à¤Ĺà¤¯":8772,"Ġà¤Ŀà¤²à¤®à¤²":8773,"à¤¯à¤°à¤¸à¤®":8774,"à¤°à¤¨à¤ľ":8775,"à¤¨à¤¦à¤¹":8776,"à¤®à¤£à¤ª":8777,"à¥ĭ?âĢĻ":8778,"à¸Ń":8779,"ãĥ³":8780,"à¤ħà¤µà¤¸à¤°à¤®":8781,"40":8782,"cent":8783,"fere":8784,"à¤¦à¤°à¤µ":8785,"à¥ĪâĢĿ":8786,"à¤ľà¤²à¤²":8787,"Ġà¤µà¤°à¤£":8788,"à¤¥à¤²à¤Ĺ":8789,"à¤ļà¤°à¤¨":8790,"Ġà¤ĸà¤¤à¤®":8791,"à¤ħà¤®à¤°":8792,"à¤ļà¤¨à¤ħà¤¨":8793,"à¥Įà¤ģ:":8794,"à¤¶à¤¨à¤ª":8795,"à¤®à¤²à¤¤":8796,"Ġà¤Ńà¤°à¤¥":8797,"Ġbr":8798,"Ġà¤ªà¤ļà¤¹à¤¤":8799,"à¤īà¤¥à¤¹":8800,"Ġà¤Ŀà¤®à¤Ŀà¤®":8801,"à¤½à¤½à¤½à¤½":8802,"Ġ>>>":8803,"Ġïĥĺ":8804,"erseys":8805,"86":8806,"ja":8807,"oà¤¨":8808,"Ġu":8809,"Ġà¤ħà¤«à¤²":8810,"Ġà¤¹à¤²à¤²":8811,"Ġà¤¹à¤ķà¤¹à¤°":8812,"à¤ļà¤¸à¤¹":8813,"à¤ĸà¤¬à¤°à¤ķ":8814,"à¤°à¤®à¤¤":8815,"à¥¤âĢĺ":8816,"à¤²à¤®à¤¸":8817,"Ġà¤¸à¤¨à¤«":8818,"Ġà¤¹à¤°à¤°":8819,"à¤Łà¤®à¤¸":8820,"à¤¸à¤¦à¤¸à¤®":8821,"à¤ıà¤¨à¤¬":8822,"à¤·à¤¦à¤¹à¤°":8823,"à¤ĩà¤Łà¤¸":8824,"à¥¨à¥¦à¥§à¥¯":8825,"à¤ĸà¤¨à¤¨à¤ķ":8826,"à¤Ķà¤ªà¤¨":8827,"à¤ıà¤²à¤ľ":8828,"ices":8829,"ĠARC":8830,"Ġà¤ıà¤¨à¤Ĩà¤°à¤ıà¤¨à¤¹à¤°":8831,"Ġà¤°à¤ľà¤¤à¤ª":8832,"Ġvi":8833,"Ġyear":8834,"à¤ĭà¤¤":8835,"Ġà¤ıà¤¸à¤Īà¤Īà¤ķ":8836,"Ð°Ð»ÑĮ":8837,"HIVE":8838,"à¥ģà¤¿":8839,"à¤Łà¤ľ":8840,"Ġà¤¨à¤¡":8841,"Ġà¤¬à¤°à¤¹":8842,"Ġà¤µà¤¨à¤¹à¤°":8843,"à¤ģ/":8844,"à¤¡à¤Ńà¤°":8845,"à¤°à¤ķà¤°à¤£à¤¬":8846,"Ġà¤¡à¤Ĺà¤®à¤Ĺ":8847,"Ġà¤²à¤Ĺà¤ĩà¤¨":8848,"à¤µà¤ķà¤°à¤£":8849,"Ġà¤ıà¤¨à¤ıà¤«":8850,"Ġà¥¦à¥¦":8851,"Ġà¥¦à¥©à¥¬":8852,"Ġà¤Ĩà¤Īà¤¡à¤²à¤ķ":8853,"à¤ıà¤²à¤ı":8854,"Ġsk":8855,"Ġà¤ıà¤ļà¤ª":8856,"Ġà¤ķà¤²à¤®à¤²":8857,"Ġà¤²à¤ĸà¤¨à¤īà¤®":8858,"ahil":8859,"Ġà¤ħà¤µà¤¯à¤µà¤¹à¤°":8860,"ĠARCHIVE":8861,"AD":8862,"vent":8863,"à¤¾à¥Ī,":8864,"à¤¨à¤°à¤¬":8865,"à¤ªà¤Ńà¤¨":8866,"Ġà¤ĸà¤¸à¤¹à¤°":8867,"Ġà¤ĺà¤°à¤¤à¤°":8868,"Ġà¤§à¤¨à¤¸":8869,"Ġà¤Łà¤¹à¤²":8870,"à¤Ĺà¤®à¤¨à¤ķà¤°":8871,"Ġà¤ħà¤Ŀà¤¸à¤®":8872,"à¤ľà¤²à¤¸à¤®":8873,"Ġà¤ľà¤®à¤°à¤ķà¤Ł":8874,"Ġà¤¦à¤¶à¤°":8875,"à¤ıà¤¸à¤ĩ":8876,"à¤¨à¤Ĺà¤°à¤µ":8877,"à¤¯à¤¯à¤¨à¤¶":8878,"Ġà¤Ľà¤²à¤«à¤²à¤¹à¤°":8879,"Ġà¥§à¥ªà¥©":8880,"Ġà¥¨à¥Ńà¥ª":8881,"Ġà¤°à¤¨à¤Ń":8882,"Ġà¤Ńà¤°à¤¤à¤¬à¤¹":8883,"ĠMunicipality":8884,"ĠIs":8885,"Ġà¤ľà¤¨à¤¸à¤®à¤°":8886,"âĢįà¥ĭ":8887,"Ġà¥§à¥¯à¥ªà¥¨":8888,"Ġï»¿":8889,"ĠÐ²Ñĭ":8890,"Ġà¤ıà¤«à¤ıà¤®à¤®":8891,"ä¸ĩåĨĨ":8892,"Ãŀ":8893,"à¤¸à¤«à¤°à¤ķ":8894,"Ġà¤°à¤ļà¤¯":8895,"Ġà¤ħà¤Ĺà¤°":8896,"Ġà¤µà¤ļà¤¨à¤²":8897,"à¤¬à¤¦à¤²":8898,"Ġà¤¤Ã¬":8899,"à¤¥à¤ħà¤¨":8900,"à¤¶à¤²à¤Ĺ":8901,"à¤°à¤µà¤¹à¤¨à¤ķ":8902,"à¤¿,âĢĻ":8903,"à¤¨à¤µà¤¹":8904,"à¤²à¤¤à¤¹à¤°":8905,"à¤ľà¤¨à¤ķà¤°":8906,"Ġà¤īà¤¡à¤¨":8907,"Ġà¤Ńà¤µà¤¨à¤Ń":8908,"Ġà¥¨à¥¬à¥¦":8909,"à¤Ĺà¤¬à¤®":8910,"à¤Łà¤°à¤®à¤§":8911,"ĠNet":8912,"Ð°Ñħ":8913,"ĠAss":8914,"Ġdel":8915,"Ð½Ð¾Ð¹":8916,"ional":8917,"Ġà¤¡à¤²à¤°à¤¸":8918,"ĠHD":8919,"ĠGr":8920,"Ġà¥¯à¥¯à¥¯":8921,"à¤¯à¤£à¤Ĺà¤¢à¤¬":8922,"istr":8923,"Ġà¤®à¤¹Ã¬à¤µà¤ķ":8924,"order":8925,"à¤Ľà¤²à¤«à¤²":8926,"ĠUnivers":8927,"45":8928,"Ġ_":8929,"à¤®à¤µà¤¹":8930,"à¥ģâĢĶ":8931,"à¤¦à¤²à¤Ĺ":8932,"Ġà¤¨à¤¬à¤°":8933,"à¤ıà¤ĩà¤®":8934,"Ġà¤ħà¤ªà¤ķ":8935,"Ġà¤µà¤£":8936,"Ġà¤¤à¤Ľ":8937,"à¤¶à¤Ĺ":8938,"Ġà¤Ĩà¤Ļà¤¬":8939,"Ġà¤ıà¤«à¤¬":8940,"à¤īà¤¨à¤¤à¤°":8941,"à¤Łà¤°à¤ªà¤¨":8942,"Ġà¤īà¤¦à¤¯à¤²":8943,"Ġà¤Ńà¤¯à¤Ļ":8944,"à¤¹à¤ķà¤µà¤°":8945,"à¤¨à¤µà¤¹à¤°":8946,"Ġà¥§à¥¯à¥§à¥Ń":8947,"à¤ľà¤¯à¤ªà¤Ľ":8948,"Ġà¥§à¥Ńà¥¬":8949,"à¥ĩà¤ģ,âĢĻ":8950,"ĠAP":8951,"ĠBr":8952,"ause":8953,"48":8954,"ml":8955,"ĠÏ":8956,"à¤²à¤Ĺà¤²":8957,"Ġà¤°à¤Ļà¤²":8958,"à¤¡à¤¨à¤µ":8959,"Ġà¤ļà¤ªà¤²":8960,"à¤ĺà¤ľ":8961,"...à¥¤":8962,"à¤¨à¤¸à¤ĸà¤£":8963,"à¤ıà¤¨à¤ıà¤²":8964,"à¤µà¤¤à¤¨à¤ķ":8965,"Ġà¥§à¥¯à¥©":8966,"Ġà¤ħà¤¦à¤®":8967,"Ġà¥§à¥¨à¥ª":8968,"Ġà¥§à¥®à¥¨":8969,"Ġà¥§à¥Ńà¥ª":8970,"Ġà¤Ĩà¤Īà¤¬":8971,"à¥¨à¥¦à¥¬à¥ª":8972,"ala":8973,"ĠÐł":8974,"ĠCont":8975,"Ġà¤¬à¤¹à¤¸à¤ªà¤Ľ":8976,"ĠDar":8977,"Ġà¥«à¥§à¥¨":8978,"à¤¾à¥ĪâĢĮ":8979,"Ġà¥§à¥¯à¥¬à¥ª":8980,"lock":8981,"Ġ45":8982,"IA":8983,"IP":8984,"la":8985,"ser":8986,"à¥į\"":8987,"Ġà¤°à¤¥à¤²":8988,"Ġà¤Ĺà¤°à¤°":8989,"Ġà¤Ľà¤°à¤ª":8990,"Ġà¤²à¤Łà¤°à¤®":8991,"Ġà¤°à¤¹à¤¨à¤¸à¤¹":8992,"à¤µà¤¸à¤°":8993,"à¤Ĺà¤°à¤¸":8994,"à¤ĩà¤¨à¤«":8995,"Ġà¤Ŀà¤µ":8996,"à¤¸à¤¦à¤Ń":8997,"à¤¹à¤¨à¤Ĺà¤°":8998,"Ġà¤¨à¤ªà¤¸":8999,"Ġà¥§à¥ªà¥¨":9000,"Ġà¥§à¥®à¥©":9001,"Ġ!'":9002,"à¤¯à¤Łà¤ķà¤¸":9003,"Ġà¤¹à¤²à¤¸à¤®":9004,"Ð°ÐµÑĤ":9005,"Ġà¤µà¤¢à¤¨":9006,"emb":9007,"do":9008,"ux":9009,"à¤²à¤ĸà¤°":9010,"à¥ģ|":9011,"à¤¸à¤ı":9012,"à¤¸à¤µà¤¸":9013,"Ġà¤¸à¤²à¤¬à¤²":9014,"à¤Īà¤¸à¤°":9015,"à¤£à¤®à¤¨":9016,"à¤®à¤ķà¤¨":9017,"Ġà¤¬à¤¸à¤°":9018,"à¥ªà¥¦à¥¦":9019,"à¤ķà¤ķà¤ķ":9020,"Ġà¤¨à¤Ĺà¤°à¤ªà¤²":9021,"Ġà¤¦à¤²à¤µ":9022,"à¤·à¤¯à¤¸à¤®":9023,"Ġà¥§à¥Ńà¥Ń":9024,"Ġà¤²à¤¡à¤¨":9025,"Ġà¤®à¤¦à¤¨à¤²":9026,"à¤Ĺà¤®à¤¨à¤¬":9027,"Ġà¤¨à¤Ńà¤ıà¤¤":9028,"à¤¤à¤¸à¤Ļ":9029,"à¤ªà¤Łà¤ªà¤ķ":9030,"Ð¸Ñħ":9031,"Ð¸Ð·":9032,"Ġcol":9033,"ĠDur":9034,"ĠHimal":9035,"Â«à¥ĩ":9036,"aper":9037,"Ġvar":9038,"Ġà¥¦à¥«à¥Ń":9039,"Ø§Ø±":9040,"Ġà¥§à¥¯à¥«à¥¬":9041,"à¹ī":9042,"Khabar":9043,"hi":9044,"lin":9045,"à¤¦à¤Ńà¤¨":9046,"Ġà¤°à¤¸à¤ķ":9047,"à¤ľà¤Ĺà¤¤":9048,"à¤Ńà¤²à¤ª":9049,"Ġà¤ıà¤ķà¤¹":9050,"à¤ŀà¤¸à¤¹":9051,"Ġà¤īà¤¦à¤¯à¤®":9052,"Ġà¥®à¥«à¥¦":9053,"à¤²à¤Ĺà¤ĩà¤¨":9054,"Ġà¤¸à¤Ļà¤Ĺ":9055,"Ġà¤¸à¤¤à¤¹à¤ķ":9056,"Ġà¤¸à¤¡à¤ķà¤ħà¤¨":9057,"à¤ľà¤¦à¤£":9058,"Ġà¤ıà¤²à¤¡":9059,"Ġà¤¬à¤ķà¤ªà¤¤":9060,"ãģĭ":9061,"Ġà¤°à¤¹à¤°à¤ķ":9062,"ular":9063,"Ġà¤ıà¤®à¤ıà¤¡à¤¬":9064,"ript":9065,"CT":9066,"ci":9067,"date":9068,"à¥į',":9069,"à¤°à¤Ĺà¤®à¤¨à¤ķ":9070,"à¤¨à¤ħà¤Ĺ":9071,"à¤²à¤·":9072,"à¤®à¤¸à¤²":9073,"Ġà¥ł":9074,"Ġà¤¨à¤µà¤µ":9075,"à¤ľà¤°à¤¹à¤°":9076,"à¤¥à¤ķà¤®":9077,"Ġà¤Ĩoà¤¨":9078,"Ġà¤¸à¤®à¤¬":9079,"à¤ľà¤¨à¤¨":9080,"Ġà¤ľà¤¨à¤¹à¤°":9081,"à¤¤à¤°à¤¸à¤°à¤ķ":9082,"à¥Įà¤Ĥà¤ģ,":9083,"à¤ħà¤Ľ":9084,"à¥įà¥¤\"":9085,"Ġà¤ħà¤µà¤Ĺ":9086,"à¤¸à¤°à¤¸à¤®":9087,"Ġà¥©à¥¦à¥¨":9088,"à¥ĩà¤Ĥà¤ģ":9089,"Ġà¥¨à¥¨à¥¨":9090,"à¤°à¤ĸà¤¬à¤°":9091,"ĠSE":9092,"ĠPol":9093,"à¥ĭ...âĢĻ":9094,"ange":9095,"irect":9096,"witter":9097,"ĠFebru":9098,"31":9099,"Continue":9100,"OL":9101,"æĿ":9102,"à¤ķà¤¡à¤®":9103,"à¥ģ;":9104,"Ġà¤¤à¤¬à¤®":9105,"Ġà¤Ĩà¤¦à¤¨à¤ª":9106,"Ġà¤ľà¤¯à¤¸à¤µ":9107,"à¤ĤâĢĻ":9108,"à¤Īà¤ľà¤¸":9109,"à¤¡à¤°à¤µ":9110,"à¤¡à¤®à¤²":9111,"Ġà¤ªà¤°à¤¸à¤®":9112,"à¤ħà¤£":9113,"à¤¾à¤Ĥà¤Ĥ":9114,"à¥įà¥¤&":9115,"à¤Ĩà¤ı":9116,"à¤Ĩà¤¦à¤°":9117,"à¤ļà¤®à¤§":9118,"Ġà¤Ńà¤Īà¤¦":9119,"Ġà¤Ĺà¤łà¤¨à¤¸":9120,"Ġà¤Ĩà¤Īà¤®":9121,"ani":9122,"ĠSu":9123,"Ð½Ð¾Ð³Ð¾":9124,"ĠIS":9125,"els":9126,"ÑĥÐ´":9127,"Ġ60":9128,"Ġcomment":9129,"ohn":9130,"Ġà¤ħà¤¨à¤ķà¤¨":9131,"'à¥¤":9132,"Î¿":9133,"à¤ķà¤¤à¤ķ":9134,"à¤ķà¤«à¤°":9135,"Ġà¤ķà¤Ń":9136,"Ġà¤Ľà¤¤à¤¬":9137,"à¤¶à¤²à¤²":9138,"à¤Ĥ-":9139,"à¤ļà¤ħà¤¨":9140,"à¤ļà¤ĺà¤°":9141,"à¤Ļà¤Ľ":9142,"Ġà¤ľà¤¨à¤¸à¤®à¤ķ":9143,"à¤Ĺà¤¤à¤°à¤¤":9144,"Ġà¤ĸà¤°à¤ĸà¤ľ":9145,"à¤ķà¤¨à¤¸à¤®":9146,"Ġà¤ĺà¤Łà¤¦":9147,"Ġà¤Ľà¤²à¤«à¤²à¤¸à¤®":9148,"inn":9149,"à¤Ĺà¤łà¤¨à¤¸":9150,"ĠÐŀ":9151,"Ġtime":9152,"à¤Ĭà¤ķ":9153,"Ġà¤Ĺà¤ıà¤Ľ":9154,"unity":9155,"Ġà¤ľà¤Ĺà¤¤à¤ª":9156,"ecial":9157,"\",\"":9158,")âĢĶ":9159,"à¤¤à¤Ĺà¤¢":9160,"à¤¯à¤Ńà¤°":9161,"Ġà¤ķà¤²à¤ķà¤²":9162,"Ġà¤Ĩà¤¶à¤¨":9163,"à¤Īà¤¥à¤°":9164,"Ġà¤ħà¤¨à¤¶à¤¨à¤²":9165,"à¥įà¥¤[":9166,"Ġà¤Ĩà¤°à¤§à¤¨":9167,"à¤Łà¤²à¤°à¤²":9168,"Ġà¤ķà¤ªà¤Ł":9169,"à¤ıà¤®à¤ĵà¤¯":9170,"à¤ĩà¤Łà¤¹":9171,"Ġà¥¨à¥§à¥«":9172,"Ġà¥¨à¥§à¥®":9173,"à¤Ĺà¤²à¤¬à¤ľ":9174,"à¤ıà¤²à¤Ł":9175,"Ġmon":9176,"Ð¾Ñĩ":9177,"à¤ĩà¤¬à¤²à¤²":9178,"à¤ĩà¤Ńà¤°à¤ķ":9179,"Ġà¤¨à¤Ĺà¤¦à¤ķ":9180,"Ġà¤ķà¤¦à¤®à¤¬":9181,"à¤ĭà¤£":9182,"äºĨ":9183,"por":9184,"pro":9185,"Ġx":9186,"à¤¨à¤ı":9187,"à¤ķà¤ķà¤°":9188,"Ġà¤ªà¤²à¤ķ":9189,"à¤¦à¤¶à¤ķ":9190,"à¤µà¤Ĺà¤¤":9191,"Ġà¤®à¤²à¤²":9192,"à¤ľà¤¤à¤°":9193,"Ġà¤µà¤¡à¤²":9194,"à¤Īà¤¨à¤¬":9195,"Ġà¤ıà¤¸à¤°":9196,"Ġà¤īà¤ªà¤®à¤¨":9197,"à¤ĩà¤¨à¤¸à¤®":9198,"à¤²à¤¯à¤Ĺà¤¤":9199,"Ġà¤¹à¤°à¤ª":9200,"à¤ĵà¤Ń":9201,"Ġà¤«à¤°à¤µà¤°":9202,"Ġà¥§à¥¯à¥¨à¥¦":9203,"à¤ıà¤¸à¤ıà¤ķ":9204,"Ġà¥¦à¥§à¥Ń":9205,"Ġà¤¤à¤²à¤¦":9206,"ĠSystem":9207,"Ġà¤ĺà¤¨à¤ĺ":9208,"Ġdr":9209,"Ġà¤®à¤ķà¤¹":9210,"Ġreg":9211,"Ġà¤Ńà¤°à¤®à¤Ĺ":9212,"à¸ĩ":9213,"Ġ08":9214,"mandu":9215,"GO":9216,"gan":9217,"kt":9218,"uro":9219,"éĢ":9220,"Ġà¤ªà¤²à¤²":9221,"à¤¹à¤¬à¤¹":9222,"à¤¹à¤¸à¤¹":9223,"à¤ªà¤²à¤¬":9224,"à¤Łà¤Ļ":9225,"à¤ģ...":9226,"Ġà¤ľà¤¯à¤ľ":9227,"à¤«à¤¸à¤®":9228,"Ġà¤ıà¤¨à¤ķ":9229,"à¤ªà¤°à¤¦":9230,"Ġà¤²à¤Ĺà¤¨à¤Ĺ":9231,"à¤¬à¤°à¤ª":9232,"Ġà¤ħà¤®à¤°à¤¬à¤¹":9233,"Ġà¤®à¤¤à¤ħà¤¨":9234,"Ġà¤ħà¤«à¤°à¤¹à¤°":9235,"Ġà¥§à¥ªà¥¯":9236,"à¤·à¤§à¤°à¤¤":9237,"ĠCol":9238,"Ġà¥«à¥«à¥«":9239,"Ġà¤¤à¤¬à¤°à¤²":9240,"Ġbut":9241,"Ġà¥®à¥®à¥¦":9242,"Ø§ÛĮ":9243,"http":9244,"Ã©s":9245,"ĠFebruary":9246,"ÅĤ":9247,"Ø©":9248,"à¤¨à¤ĩ":9249,"à¤¨à¤¯à¤¬":9250,"à¤¤à¤¸à¤°":9251,"à¤¸à¤°à¤ª":9252,"Ġà¤ķà¤¹à¤°":9253,"Ġà¤¬à¤°à¤¬à¤°":9254,"à¤§à¤ľà¤¯à¤¨":9255,"à¤ģ)":9256,"Ġà¤Ĩà¤Īà¤¨":9257,"Ġà¤ľà¤²à¤¸à¤®":9258,"à¤ļà¤ķà¤°":9259,"Ġà¤īà¤§à¤®":9260,"à¤ĩà¤«à¤®":9261,"Ġà¤ıà¤®à¤¨":9262,"à¤°à¤¤à¤µà¤°":9263,"Ġà¤ıà¤ķà¤¥":9264,"à¤°à¤²à¤²":9265,"à¤°à¤²à¤¯à¤ķ":9266,"à¤µà¤ķà¤°à¤²":9267,"Ġà¤ħà¤®à¤°à¤¤":9268,"à¤Ĺà¤®à¤¬":9269,"Ġà¤Ĩà¤®à¤¹à¤¡":9270,"Ġà¤Ĺà¤£à¤®":9271,"Ġà¤Ĺà¤łà¤ľ":9272,"Ġà¤«à¤²à¤¹à¤°":9273,"Ġà¥¨à¥¯à¥®":9274,"Ġles":9275,"Ġà¤Ĺà¤Īà¤¸à¤ķ":9276,"Ġtheir":9277,"Ġà¤ľà¤¯à¤¨à¤¨":9278,"ose":9279,"ists":9280,"ants":9281,"Ġà¤ıà¤ħà¤°à¤ķ":9282,"à¹Ģ":9283,"Ġà¤ľà¤¨à¤Ĺà¤£à¤¤":9284,"æĹ¥":9285,"æĺ¯":9286,"cess":9287,"ding":9288,"ËĪ":9289,"Î±":9290,"ÐĲ":9291,"åĬ":9292,"Ġel":9293,"à¥į(":9294,"à¤¨à¤¨à¤ķ":9295,"à¤¸à¤°à¤¹à¤ķ":9296,"à¥Ī!":9297,"Ġà¤¬à¤Łà¤®":9298,"Ġà¤¤à¤ķà¤¸":9299,"à¤ļà¤²à¤¸":9300,"à¤¸à¤®à¤Ĺ":9301,"à¤²à¤®à¤Ł":9302,"Ġà¤®à¤¨à¤¦":9303,"Ġà¤ķà¤®à¤²à¤¸":9304,"à¤²à¤¨à¤Ń":9305,"Ġà¤Ĩà¤°à¤Ĩà¤°":9306,"Ġà¤ħà¤µà¤ļ":9307,"à¥ĩà¥¤âĢĿ":9308,"à¤°à¤£à¤®à¤§":9309,"reen":9310,"Ġà¥¨à¥©à¥¨":9311,"Ġà¤¬à¤Ĺà¤°à¤ķ":9312,"Ġà¤Ĺà¤¹à¤Ńà¤°":9313,"Ġsec":9314,"ĠBible":9315,"Ġfl":9316,"Ġfr":9317,"Ġà¤ħà¤ľà¤¯à¤®":9318,"ily":9319,"à¤¾à¥Īà¤Ĥà¥¤":9320,"Ġà¥§à¥¯à¥¬à¥©":9321,"ouse":9322,"Ġà¤¬à¤ĸà¤¤à¤®":9323,"achar":9324,"Ġaccess":9325,"Ġcheap":9326,"àµį":9327,"TE":9328,"ures":9329,"Ã¨":9330,"à¥ĭ.....":9331,"à¤¤à¤µà¤°":9332,"à¤¸à¤¶à¤¸":9333,"Ġà¤¸à¤īà¤²":9334,"à¤¹à¤Ńà¤¨":9335,"Ġà¤ķà¤ªà¤²":9336,"à¤¬à¤¸à¤²":9337,"Ġà¤Ľà¤ļà¤²":9338,"à¤īà¤¸à¤¬":9339,"à¥ĥà¤¿":9340,"à¤°à¤£à¤¨":9341,"Ġà¤§à¤Ļ":9342,"à¤°à¤¹à¤£à¤®":9343,"à¤¤à¤ķà¤£":9344,"Ġà¤ĺà¤°à¤¨à¤ľ":9345,"Ġà¤«à¤°à¤«":9346,"Ġà¤Ĩà¤¦à¤®":9347,"Ġà¤¨à¤¹à¤¸":9348,"Ġà¥§à¥¯à¥¨":9349,"à¤µà¤ªà¤¦":9350,"Ġà¥¨à¥ªà¥§":9351,"à¤ıà¤²à¤ª":9352,"ene":9353,"Ġà¥©à¥©à¥ª":9354,"Ġà¤ĵà¤Ńà¤°à¤²":9355,"Ġà¤ļà¤°à¤£à¤¸à¤®":9356,"Ġà¤Ńà¤ĩà¤ķà¤¨":9357,"à¥ĩ-âĢĻ":9358,"à¤ªà¤¨à¤²à¤Ĺ":9359,"oss":9360,"Ġà¤Ĺà¤Ĺà¤¨à¤ļ":9361,"ize":9362,"Ġà¤¨à¤ħà¤Ł":9363,"à¤¹à¤¹à¤¹à¤¹":9364,"roup":9365,"ho":9366,"ta":9367,"ward":9368,"yr":9369,"ÉĻ":9370,"ĠØ§Ø":9371,"à¤¸à¤ĸà¤°":9372,"à¤¹à¤Ļà¤ķ":9373,"à¤ıà¤¥":9374,"Ġà¤µà¤§à¤¶":9375,"Ġà¤Ĩà¤¸à¤ķ":9376,"à¤Ńà¤ľà¤¨":9377,"à¤ĸà¤Ĺà¤¨":9378,"à¤īà¤ªà¤Ľ":9379,"à¥Į...":9380,"à¤ªà¤°à¤°":9381,"Ġà¤ıà¤ķà¤¤à¤¨":9382,"Ġà¤ķà¤°à¤¹à¤°":9383,"à¤ħà¤®à¤²":9384,"Ġà¤Ŀà¤¸à¤Ļ":9385,"Ġà¤ĵà¤ĸà¤°à¤ķ":9386,"à¤¨à¤¨à¤Ĺà¤°à¤ķ":9387,"Ġà¤¨à¤®à¤ľ":9388,"à¤¤à¤¬à¤¦":9389,"ĠPahil":9390,"ĠMH":9391,"ident":9392,"Ġ.......":9393,"Ġà¤ľà¤¯à¤ľà¤¯à¤ķ":9394,"36":9395,"49":9396,"AB":9397,"ness":9398,"èĢ":9399,"éĩ":9400,"ĠÑħ":9401,"à¤¨à¤§à¤¨":9402,"à¤ķà¤ĸ":9403,"à¤¹à¤£à¤²":9404,"Ġà¤ķà¤ªà¤°":9405,"Ġà¤°à¤«à¤¤":9406,"Ġà¤°à¤Ĺà¤¡":9407,"à¤Łà¤ļà¤¨":9408,"Ġà¤¨à¤ķà¤®":9409,"à¤¶à¤®à¤²":9410,"à¤£à¤ĺ":9411,"à¤£à¤Ńà¤¨":9412,"Ġà¤ļà¤¹à¤ķ":9413,"Ġà¤ıà¤¡à¤²":9414,"Ġà¤ıà¤ıà¤¨à¤ı":9415,"à¥¦à¥Ńà¥¦":9416,"à¤ħà¤¨à¤®":9417,"à¤®à¤ķà¤ķ":9418,"Ġà¤®à¤²à¤Ļ":9419,"à¤ıà¤¸à¤Īà¤Ī":9420,"Ġà¥§à¥¬à¥¦à¥¦":9421,"à¤ĸà¤ķà¤·":9422,"à¥¨à¥¦à¥¬à¥¯":9423,"Ð¸Ñģ":9424,"ayan":9425,"Ġà¤ķà¤¦à¤°à¤ªà¤¤":9426,"Ġ07":9427,"2017":9428,"Ġà¤Ŀà¤ķà¤Ŀà¤ķ":9429,"obile":9430,"ĠJanu":9431,"oPost":9432,"public":9433,"à¤¤à¤ĺ":9434,"à¤¸à¤¯à¤®":9435,"à¤¹à¤Łà¤ķ":9436,"à¤¦à¤Ļ":9437,"à¤¬à¤ķà¤°":9438,"à¤¶à¤ªà¤¤":9439,"Ġà¤ľà¤Ĺà¤²":9440,"à¤Īà¤ıà¤«à¤ı":9441,"à¤ĸà¤¤à¤ķ":9442,"Ġà¤ªà¤°à¤«":9443,"à¤ªà¤°à¤¹à¤°":9444,"à¤°à¤¹à¤ªà¤Ľ":9445,"à¤¾,...":9446,"à¤µà¤¨à¤¬à¤¹":9447,"à¤Ĩà¤°à¤ľ":9448,"Ġà¤°à¤¹à¤¨à¤¸à¤ķ":9449,"à¤¹à¤®à¤§":9450,"Ġ-&":9451,"Ġà¤ĸà¤¨à¤ľ":9452,"à¤Ĺà¤¢à¤ķ":9453,"ally":9454,"à¤ªà¤Łà¤ªà¤®":9455,"Ġsch":9456,"Ġsex":9457,"ĠHack":9458,"ĠFl":9459,"Ġà¤Ĩà¤īà¤Łà¤¸":9460,"à¤ıà¤ļà¤ĵ":9461,"à¤¯à¤£à¤Ĺà¤¢à¤ķ":9462,"ute":9463,"ĠPahiloPost":9464,"now":9465,"åº":9466,"Ġed":9467,"à¤®à¤¦à¤ķ":9468,"à¤®à¤°à¤£à¤ķ":9469,"à¤µà¤īà¤ªà¤ª":9470,"à¤Łà¤ĩà¤¨":9471,"à¤¬à¤Ļ":9472,"à¤§à¤¨à¤®à¤¨":9473,"Ġà¤Ľà¤ľà¤¨":9474,"à¤¶à¤¯à¤²":9475,"Ġà¤²à¤¦":9476,"à¤¹à¤°à¤£à¤®":9477,"âĢ²":9478,"Ġà¤¥à¤¸":9479,"Ġà¤ĺà¤°à¤¬à¤¹":9480,"Ġà¤ĩà¤¦à¤ķ":9481,"à¤ļà¤¨à¤µ":9482,"Ġà¤ªà¤ķà¤µ":9483,"Ġà¤ħà¤µà¤¦":9484,"Ġà¤¬à¤¹à¤¸à¤¹à¤°":9485,"Ġà¤ıà¤®à¤Ĩà¤Ī":9486,"Ġà¥§à¥¯à¥§":9487,"Ġà¤ıà¤¨à¤Ĩà¤Īà¤¬":9488,"Ġà¤Ńà¤Īà¤°à¤¹à¤¨":9489,"à¤°à¤¸à¤®à¤£":9490,"ĠCo":9491,"Ð¸Ðº":9492,"à¤¼à¥ģ":9493,"Ġbu":9494,"ament":9495,"ĠâĢĻâĢĻ":9496,"Ġà¤²à¤¹à¤¡à¤®":9497,"ĠJohn":9498,"à¤Ńà¤ªà¤¤à¤¨à¤²":9499,"Ġà¤Ĩà¤Ļà¤Ľ":9500,"ĠReg":9501,"ĠDecember":9502,"=\"":9503,"GC":9504,"Sc":9505,"fin":9506,"men":9507,"Ø¹":9508,"åŃ":9509,"à¤¿Â¥":9510,"à¤¸à¤¬à¤²":9511,"Ġà¤¬à¤¶":9512,"à¤·à¤Ŀ":9513,"à¤Ńà¤ıà¤°":9514,"à¥Į.":9515,"Ġà¤ªà¤°à¤¯":9516,"Ġà¤§à¤¨à¤¨":9517,"à¤Ŀà¤Łà¤¬":9518,"à¤°à¤¸à¤¤":9519,"à¤ķà¤²à¤¨à¤²":9520,"Ġà¤ĩà¤²à¤®":9521,"Ġà¤ĵà¤Ńà¤²":9522,"Ġà¤¢à¤²à¤®":9523,"Ġà¤ıà¤®à¤µ":9524,"Ġà¤«à¤°à¤«à¤°":9525,"Ġà¤Ĳà¤¡":9526,"Ġà¥§à¥«à¥ª":9527,"à¤°à¤ľà¤Ļ":9528,"ini":9529,"Ġà¥¨à¥©à¥©":9530,"Ġà¤Ĺà¤¨à¤Ĺà¤¨":9531,"Ġact":9532,"Ġfe":9533,"Ġover":9534,"Ġà¤ķà¤ļà¤¹à¤°":9535,"Ġà¤°à¤¹à¤°à¤®":9536,"ÑĥÑİ":9537,"ĠUp":9538,"Ġà¤«à¤¨à¤«à¤¨":9539,"over":9540,"Ġà¤¡à¤Łà¤ķà¤®à¤®":9541,"à¦°":9542,"Ġago":9543,"à¹Ģà¸":9544,"ls":9545,"Ø´":9546,"à¤°à¤Ĺà¤®à¤¨":9547,"à¤°à¤Ĩà¤²":9548,"à¤¦à¤¯à¤µ":9549,"Ġà¤ķà¤Łà¤°":9550,"à¤Ľà¤Ł":9551,"à¤ĸà¤Ĺ":9552,"à¤°à¤¤à¤ªà¤°à¤¸":9553,"à¤Ļà¤ĺ":9554,"à¤ªà¤®à¤§":9555,"à¥ĩ,âĢĿ":9556,"à¤ķà¤°à¤¨":9557,"à¥Įà¤ģ)":9558,"âĢĿà¥¤":9559,"Ġà¤Ńà¤ĩà¤°à¤¹à¤ķ":9560,"Ġà¤§à¤¨à¤¤":9561,"à¤¸à¤µà¤¬":9562,"Ġà¤ĸà¤¸à¤ĸà¤¸":9563,"Ġlink":9564,"Ġà¤Ĩà¤¹à¤µ":9565,"iter":9566,"à¤µà¤°à¤²à¤Ĺ":9567,"ĠDis":9568,"ilm":9569,"Ġà¤ķà¤¦à¤®à¤®":9570,"ĠWord":9571,"ĠVersion":9572,"à¥¦à¥¬à¥¯":9573,"Ð°Ð³":9574,"Ġà¤µà¤ļà¤¨à¤¬à¤¦":9575,"ocial":9576,"ĠÐ¸Ð½":9577,"earch":9578,"34":9579,"37":9580,"80":9581,"BC":9582,"åĮ":9583,"Ġer":9584,"à¤¾âĢį":9585,"à¤¿Â«":9586,"à¤µà¤§à¤¨":9587,"à¤§à¤²à¤Ĺ":9588,"Ġà¤Ľà¤łà¤²":9589,"Ġà¤ľà¤¶":9590,"à¤ĩà¤ıà¤°":9591,"à¤Ļà¤ªà¤Ľ":9592,"Ġà¤ķà¤°à¤ª":9593,"à¤Łà¤¨à¤ªà¤Ľ":9594,"Ġà¤ªà¤¦à¤®à¤°":9595,"Ġà¤ĩà¤¨à¤ª":9596,"Ġà¤ªà¤Łà¤ķà¤Ńà¤¨":9597,"à¤µà¤°à¤£à¤¸":9598,"à¤¤à¤°à¤£à¤¬":9599,"à¤ıà¤¸à¤ıà¤¸":9600,"Ġà¤ıà¤¨à¤Ĩà¤ĩà¤¬":9601,"Ġà¥¨à¥«à¥«":9602,"à¤¯à¤Łà¤¨à¤¬":9603,"Ġà¤¤à¤®à¤ĺ":9604,"ĠWind":9605,"à¤Īà¤¨à¤²à¤ķ":9606,"Ġà¤ķà¤¨à¤ķà¤®à¤£":9607,"Ġatt":9608,"Ġà¤ıà¤¸à¤ĩà¤ĩ":9609,"velopment":9610,"IM":9611,"RL":9612,"à¤°à¤¯à¤ķ":9613,"à¥ĢâĢľ":9614,"Ġà¤ķà¤¦à¤ķ":9615,"Ġà¤Ĺà¤Ĺà¤¨à¤²":9616,"Ġà¤¬à¤°à¤®":9617,"Ġà¤¬à¤ĺ":9618,"Ġà¤µà¤¨à¤®à¤¨":9619,"Ġà¤µà¤ļà¤¨à¤ķ":9620,"à¤§à¤µà¤¨":9621,"Ġà¤ľà¤¨à¤²":9622,"Ġà¤¸à¤®à¤Ń":9623,"à¤°à¤®à¤ĸ":9624,"Ġà¤ĸà¤²à¤ķ":9625,"Ġà¤¯à¤¸à¤ħà¤°":9626,"à¤ªà¤¨à¤ªà¤Ľ":9627,"Ġà¤ĩà¤°à¤«":9628,"à¤Ĩà¤ķà¤°":9629,"à¤¤à¤µà¤°à¤£":9630,"Ġà¤¨à¤ªà¤ļ":9631,"ones":9632,"à¤Łà¤¬à¤²à¤ª":9633,"à¤ķà¤¬à¤¡":9634,"Ġà¤ıà¤ªà¤¬":9635,"Ġà¤ıà¤ªà¤¹à¤°":9636,"à¤¯à¤Łà¤ķà¤®":9637,"ĠHot":9638,"à¤¤à¤ķà¤®à¤§":9639,"Ġà¤ªà¤Łà¤ķà¤ªà¤Łà¤ķà¤ķ":9640,"à¤Ńà¤°à¤¤à¤ª":9641,"ÐµÐ½Ð¸Ðµ":9642,"ĠØ¯":9643,"Ġà¤Ľà¤°à¤ªà¤·":9644,"der":9645,"ä¹":9646,"å¸":9647,"æī":9648,"à¤¤à¤¶à¤¤":9649,"Ġà¤ķà¤ļà¤ķ":9650,"à¤ıà¤Ĩà¤Īà¤ľ":9651,"Ġà¤Ńà¤Łà¤°":9652,"Ġà¤¦à¤ľ":9653,"à¤īà¤ĺà¤°à¤®":9654,"âĢ¢":9655,"à¤«à¤£":9656,"Ġà¤ıà¤²à¤¨":9657,"à¤°à¤¤à¤Ńà¤°":9658,"Ġà¤ľà¤¨à¤ªà¤¦":9659,"à¤²à¤ķà¤ª":9660,"à¤ļà¤¨à¤¦":9661,"à¥¬à¥¦à¥¦":9662,"Ġà¤ĸà¤°à¤¨":9663,"Ġà¤ĺà¤°à¤Łà¤¹à¤°":9664,"Ġà¤ħà¤ªà¤¸":9665,"à¤°à¤®à¤£à¤¸":9666,"Ġà¤§à¤¨à¤ŀ":9667,"Ġà¤ıà¤¸à¤¸":9668,"Ġà¥§à¥ªà¥¬":9669,"reat":9670,"à¤Ĺà¤®à¤¨à¤ªà¤Ľ":9671,"à¤¤à¤¹à¤Łà¤²":9672,"Ġà¤°à¤£à¤Ń":9673,"à¤®à¤¨à¤Ĺà¤°à¤¸":9674,"annel":9675,"ĠQu":9676,"Ġà¤Ľà¤²à¤ķà¤ªà¤Ł":9677,"fl":9678,"ious":9679,"lung":9680,"td":9681,"Ġ`":9682,"ĠÄ":9683,"à¤°à¤¶à¤ķ":9684,"à¤®à¤¶à¤®à¤¶":9685,"à¤¹à¤²à¤²":9686,"à¤¬à¤Ń":9687,"à¤§à¤Ļ":9688,"à¤¶à¤Ĺà¤¤":9689,"à¤ļà¤£":9690,"à¤¡à¤Ľ":9691,"à¤ĸà¤ķà¤¸":9692,"à¥Į)":9693,"Ġà¤¥à¤®à¤¨":9694,"Ġà¤ĸà¤²à¤ª":9695,"à¤¯à¤ķà¤¦":9696,"Ġà¤ĺà¤¤à¤²":9697,"Ġà¤¬à¤¨à¤¬":9698,"à¤¯à¤¸à¤ªà¤Łà¤ķ":9699,"à¤ĩà¤¨à¤¦":9700,"Ġà¤ªà¤ķà¤¡à¤®":9701,"à¤®à¤²à¤ª":9702,"Ġà¤ĺà¤°à¤ĸ":9703,"Ġà¤Ĩà¤ĩà¤ĵà¤¸":9704,"à¤°à¤ªà¤Ļ":9705,"à¤ıà¤¸à¤ĵ":9706,"ĠMy":9707,"Ġà¤ħà¤ľà¤¯à¤²":9708,"eder":9709,"Ġà¤²à¤¨à¤Ł":9710,"ural":9711,"Ġà¤ıà¤ļà¤Ĩà¤°":9712,"à¸±":9713,"Ġà¤¦à¤®à¤¨à¤¨":9714,"Ġà¥§à¥¯à¥«à¥§":9715,"ãĥ»":9716,"ucation":9717,"äºº":9718,"ission":9719,"ÑĩÐµÑģÐº":9720,"ION":9721,"MAND":9722,"wo":9723,"Ġà¤Ńà¤¯à¤®":9724,"Ġà¤Ĩà¤ªà¤¨":9725,"Ġà¤Ĩà¤¦à¤¨":9726,"à¤ĩà¤¬à¤ķ":9727,"Ġà¤«à¤¸à¤²":9728,"Ġà¤ıà¤ķà¤¤à¤²":9729,"à¤¯à¤¤à¤¹à¤®":9730,"...)":9731,"Ġà¥ªà¥¦à¥¦à¥¦":9732,"à¤¤à¤²à¤ª":9733,"à¤·à¤®à¤¯":9734,"Ġà¥¯à¥«à¥¦":9735,"à¤ķà¤ªà¤Łà¤ķ":9736,"Ġà¤¸à¤¤à¤¬":9737,"Ġà¥§à¥Ńà¥§":9738,"ĠÐµ":9739,"ĠÐĶ":9740,"stru":9741,"Ġbl":9742,"Ġà¤®à¤¦à¤¨à¤ª":9743,"à¸¡":9744,"Ġà¤²à¤ĸà¤¤à¤°":9745,"à¤°à¤ĺà¤£":9746,"Ġprov":9747,"Ġprote":9748,"Ġà¤ľà¤®à¤ĺà¤Łà¤ķ":9749,"ĠJanuary":9750,"CS":9751,"blog":9752,"col":9753,"gen":9754,"nect":9755,"å·":9756,"à¤¾|":9757,"à¤°à¤¢":9758,"à¥ĩ&":9759,"à¤¯à¤«":9760,"Ġà¤¸à¤Ŀ":9761,"à¤¬à¤ĩà¤®":9762,"Ġà¤ĨÃ":9763,"à¤£à¤¶à¤®à¤¶":9764,"à¤Ľà¤°à¤®":9765,"à¤īà¤¨à¤Ń":9766,"à¤īà¤¨à¤ªà¤°":9767,"à¤°à¤¤à¤ľà¤¸":9768,"à¤Ļà¤®à¤¤":9769,"à¤ŀà¤µà¤²":9770,"Ġà¤ķà¤®à¤²à¤¬à¤¹":9771,"à¤®à¤¤à¤¸":9772,"à¤Ĺà¤²à¤¹à¤°":9773,"Ġà¤¦à¤²à¤¦à¤²":9774,"Ġà¤¹à¤¸à¤¨à¤²":9775,"à¤Ńà¤µà¤¨à¤®":9776,"Ġà¥§à¥ªà¥Ń":9777,"Ġà¥§à¥Ńà¥®":9778,"à¥¨à¥¦à¥Ńà¥¬":9779,"Ġà¤¨à¤µà¤Ĺ":9780,"ict":9781,"à¤²à¤¨à¤²à¤Ĺ":9782,"Ġdet":9783,"ÐµÐ·":9784,"ĠâĻ":9785,"ization":9786,"ĠÐ´Ð»Ñı":9787,"Ġà¤ĸà¤µà¤°à¤¦":9788,"Ġunder":9789,"Ġà¤¬à¤¬à¤°à¤®à¤¹à¤²à¤¸":9790,"MANDU":9791,"55":9792,"RO":9793,"aur":9794,"lp":9795,"ÙĤ":9796,"åį":9797,"Ĥ¬":9798,"à¤Ĺà¤Ńà¤°":9799,"Ġà¤¬à¤°à¤ķ":9800,"Ġà¤Ĺà¤°à¤¨":9801,"Ġà¤ľà¤¯à¤®":9802,"à¤ĩà¤·":9803,"Ġà¤ļà¤ļ":9804,"à¤¯à¤ķà¤¸à¤®":9805,"à¤ªà¤°à¤¯":9806,"à¤°à¤¹à¤ª":9807,"à¤Ŀà¤¨à¤²":9808,"Ġà¤¬à¤¢à¤µ":9809,"à¤ķà¤²à¤¹à¤°":9810,"à¤·à¤£à¤¸à¤¹":9811,"...âĢĿ":9812,"à¤Ĩà¤Ļ":9813,"à¤¯à¤²à¤¹à¤°":9814,"Ġà¤Ĩà¤ľà¤ªà¤°":9815,"à¤ķà¤°à¤£à¤¦":9816,"à¤¡à¤²à¤°":9817,"Ġà¥§à¥¯à¥Ń":9818,"à¤¦à¤®à¤¯":9819,"Ġà¥¨à¥¨à¥Ń":9820,"à¤Ĺà¤¢à¤®":9821,"Ġà¥¨à¥¬à¥¯":9822,"à¤¸à¤¨à¤²à¤Ĺ":9823,"ĠÐ¶":9824,"à¤ªà¤¸à¤²à¤®":9825,"ĠIN":9826,"Ġà¥ªà¥©à¥«":9827,"Ġthey":9828,"Ġwhich":9829,"ĠTechn":9830,"ĠImage":9831,"à¥ĩâĢĺ":9832,"à¤²à¤Ľ":9833,"Ġà¥ĥ":9834,"à¤Ĺà¤Ľ":9835,"Ġà¤°à¤¤à¤¨à¤ª":9836,"à¥Īà¥Īà¤Ĥ":9837,"à¤Łà¤ľà¤¤":9838,"Ġà¤¬à¤ķà¤¸":9839,"à¤ľà¤ĺ":9840,"à¤§à¤ľ":9841,"à¤ļà¤ªà¤Ľ":9842,"à¤Īà¤ľà¤°":9843,"à¤¡à¤¹à¤²":9844,"Ġà¤ĸà¤°à¤²":9845,"à¤¨à¤®à¤¹":9846,"à¤µà¤°à¤«":9847,"à¤²à¤¨à¤¤à¤°":9848,"à¤·à¤£à¤¦":9849,"à¤Ĩà¤¨à¤ķ":9850,"à¤°à¤¶à¤®":9851,"à¤ĥ,":9852,"Ġà¤¦à¤²à¤¹à¤¨":9853,"à¤ķà¤¨à¤ªà¤Ľ":9854,"à¤µà¤¦à¤¤":9855,"ino":9856,"à¤ľà¤ªà¤¥":9857,"à¤ĩà¤ķà¤²à¤¯":9858,"à¤ªà¤Łà¤¨à¤®":9859,"à¤¯à¤ľà¤¨à¤¸":9860,"Ġà¤ĸà¤¬à¤°à¤¬":9861,"Ð¸ÑĤÑĮ":9862,"athmandu":9863,"32":9864,"WS":9865,"more":9866,"ty":9867,"à¤°à¤°à¤£":9868,"à¤¤à¤·":9869,"à¤¸à¤ıà¤¸":9870,"Ġà¤¸à¤¸à¤ķ":9871,"Ġà¤¸à¤ĺà¤°":9872,"Ġà¤®à¤°à¤£à¤ķ":9873,"à¤ļà¤ļ":9874,"à¤Īà¤ªà¤¨":9875,"à¥Ĥ(":9876,"à¤Ńà¤¹":9877,"à¤īà¤«":9878,"à¥Įà¥¤âĢĻ":9879,"Ġà¤ıà¤ļà¤¬":9880,"Ġà¤ħà¤¨à¤ªà¤¢":9881,"à¤°à¤£à¤¬à¤¸":9882,"à¤°à¤¹à¤¸":9883,"à¤¯à¤¤à¤¹à¤°":9884,"à¤°à¤¦à¤¶à¤¨":9885,"Ġà¤łà¤Ĺà¤¹à¤°":9886,"à¤µà¤°à¤Ń":9887,"Ġà¤Ĺà¤¤à¤¹à¤ª":9888,"à¤¶à¤ķà¤¸à¤®":9889,"Ġà¤¬à¤²à¤¶":9890,"Ġà¤¬à¤²à¤°à¤²":9891,"Ġà¤¦à¤²à¤ľ":9892,"à¤Īà¤ķà¤²à¤ķ":9893,"Ġà¤ıà¤¨à¤¡":9894,"à¤ķà¤¸à¤¤":9895,"Ġà¤Ĩà¤łà¤ªà¤¹à¤°":9896,"Ġà¥¨à¥¯à¥¬":9897,"omen":9898,"Ġà¤ĩà¤®à¤°à¤ľ":9899,"ĠPart":9900,"ĠTO":9901,"ÐµÑģÑĤ":9902,"à¤¨à¤Ńà¤°à¤®":9903,"eld":9904,"à¤°à¤ľà¤¨à¤¸":9905,"Ġà¤¨à¤Ĺà¤ıà¤°":9906,"Ġà¤Ĩà¤īà¤Łà¤¡":9907,"à¥Ģ',":9908,"ÑĥÑĤ":9909,"cted":9910,"Ġà¤¶à¤°à¤¦à¤²":9911,"ãĤĬ":9912,"ocal":9913,"ÐµÐ½ÑĤ":9914,"Ġà¤ħà¤®à¤²à¤¦":9915,"à¤Ĳà¤¶":9916,"Ġbeen":9917,"à¤ķà¤ħà¤ªà¤®":9918,"à¤¨à¤ħà¤Łà¤°":9919,"(\"":9920,"44":9921,"Ch":9922,"bal":9923,"press":9924,"Ò¯":9925,"Ú¯":9926,"à¤¨à¤°à¤ķà¤°":9927,"à¥ĭà¤¾":9928,"Ġà¤¸à¤ĸà¤°":9929,"à¤ªà¤Łà¤®":9930,"à¤µà¤ļà¤°":9931,"Ġà¤Ĺà¤ĩà¤¯":9932,"Ġà¤Ńà¤¬à¤¨":9933,"à¤·à¤ħà¤¨":9934,"Ġà¤ľà¤«":9935,"Ġà¤¯à¤¸à¤ħà¤Ĺ":9936,"Ġà¤®à¤¨à¤µ":9937,"à¤µà¤¨à¤ªà¤¦":9938,"Ġà¤ĵà¤łà¤ķ":9939,"à¤Ĺà¤²à¤Ń":9940,"à¤¤à¤²à¤¹à¤°à¤ķ":9941,"Ġà¤Ĳà¤¯":9942,"Ġà¤¹à¤¤à¤ªà¤¤":9943,"Ġ|--":9944,"Ġà¤ľà¤®à¤²à¤®":9945,"à¥¨à¥¦à¥§à¥¨":9946,"à¥¨à¥¦à¥§à¥ª":9947,"ĠTuls":9948,"à¤Łà¤µà¤²à¤¸":9949,"Ġaut":9950,"Ġà¤ıà¤«à¤Ł":9951,"Ġà¤ıà¤ķà¤ªà¤Łà¤ķà¤ķ":9952,"Ġà¤°à¤¹à¤°à¤¹à¤°":9953,"à¤¯à¤£à¤Ĺà¤¢à¤®":9954,"ING":9955,"åĲį":9956,"47":9957,"ym":9958,"}}":9959,"è¡":9960,"à¤ķà¤¨à¤¸":9961,"à¤¿Â·":9962,"à¤¸à¤¤à¤²":9963,"à¤ªà¤¥à¤®":9964,"Ġà¤Ĺà¤«à¤ķ":9965,"Ġà¤®à¤µ":9966,"Ġà¤ħà¤¡à¤ķ":9967,"à¤·à¤ļà¤¨":9968,"à¤¥à¤°à¤®":9969,"à¤¡à¤µà¤°":9970,"Ġà¤¡à¤¯":9971,"à¤Ŀà¤īà¤¨":9972,"Ġà¤ķà¤®à¤²à¤µ":9973,"à¤ħà¤ªà¤²":9974,"à¤²à¤²à¤²":9975,"à¤Łà¤°à¤ľà¤¸":9976,"à¤¦à¤¨à¤ªà¤¤":9977,"Ġà¤¸à¤®à¤¯à¤ħà¤Ĺ":9978,"Ġà¤Ĩà¤®à¤¹à¤¡à¤¤":9979,"à¤ĩà¤²à¤Łà¤¹à¤°":9980,"Ġà¤ľà¤Ĺà¤ľà¤Ĺ":9981,"Ġà¤ıà¤¨à¤ĵà¤¸":9982,"à¤ľà¤¯à¤¬":9983,"ination":9984,"à¥Ģ)âĢĵ":9985,"Ġà¤ħà¤ĸà¤µ":9986,"Ġà¤ľà¤¨à¤ķà¤ķ":9987,"ĠCr":9988,"Ġav":9989,"à¤°à¤Ļà¤¬":9990,"Ġà¤ĵà¤Ńà¤²à¤®":9991,"Ġother":9992,"à¤ıà¤ļà¤ª":9993,"ãĤĤ":9994,"Ġà¤Łà¤®à¤Ł":9995,"ĠâĨĳ":9996,"ized":9997,"Tube":9998,"à¤¨à¤Ĺà¤łà¤¨":9999,"à¤¦à¤µà¤¸à¤¹":10000,"Ġà¤ķà¤¡à¤°":10001,"Ġà¤°à¤¬à¤°à¤ķ":10002,"à¤Łà¤ªà¤°":10003,"Ġà¤®à¤°à¤ķ":10004,"à¤¶à¤°à¤®":10005,"à¤ĸà¤°à¤¬":10006,"à¤īà¤Łà¤ķ":10007,"à¤ĩà¤Ńà¤ķ":10008,"à¤¯à¤ķà¤Ĺ":10009,"à¤µà¤¸à¤§":10010,"Ġà¤®à¤¹à¤®à¤¦":10011,"Ġà¤ıà¤ķà¤²à¤ķ":10012,"Ġà¤§à¤°à¤®à¤ª":10013,"Ġà¤¤à¤°à¤¹à¤°":10014,"à¤¯à¤¤à¤¤":10015,"à¤²à¤¨à¤ľ":10016,"à¤Ĺà¤²à¤ªà¤¨":10017,"à¤§à¤¨à¤Ĺà¤¢":10018,"Ġà¤¢à¤¡":10019,"Ġà¤Ĩà¤ľà¤®":10020,"Ġà¥¨à¥¦à¥Ńà¥Ń":10021,"Ġà¥§à¥¯à¥©à¥¯":10022,"Ġà¥§à¥«à¥¯":10023,"à¤°à¤¤à¤ķà¤¥":10024,"Ġà¥§à¥®à¥¦à¥¦":10025,"à¤·à¤§à¤°à¤ķ":10026,"ero":10027,"Ġà¤ªà¤²à¤Ļ":10028,"ĠMedia":10029,"Ġden":10030,"ĠBank":10031,"ĠDes":10032,"Ġà¥ªà¥ªà¥§":10033,"Ġeb":10034,"ãĥĪ":10035,"Ġà¥§à¥§à¥©à¥Ń":10036,"ĠRed":10037,"à¤¡à¤°à¤¸à¤Ł":10038,"IL":10039,"ling":10040,"ÄĻ":10041,"å½":10042,"ìĿ":10043,"à¤¸à¤ıà¤ª":10044,"à¤¦à¤¯à¤¸":10045,"à¤µà¤§à¤°":10046,"Ġà¤¨à¤«à¤¸":10047,"à¤ıà¤°à¤ķ":10048,"à¤ıà¤¶à¤¨à¤²":10049,"à¤·à¤¸à¤ķ":10050,"Ġà¤¦à¤°à¤¹à¤°":10051,"à¤īà¤¡à¤²":10052,"à¤ĩà¤Ĩà¤ıà¤ķ":10053,"à¤«à¤ª":10054,"Ġà¤ĸà¤°à¤¦":10055,"Ġà¤«à¤²à¤®":10056,"à¤ªà¤¨à¤¹":10057,"à¤²à¤¯à¤¤à¤°":10058,"Ġà¤ªà¤Ľà¤¯":10059,"à¤Ĺà¤ķà¤µ":10060,"à¥®à¥¦à¥¦":10061,"à¤¹à¤ķà¤¬":10062,"Ġà¤ªà¤¦à¤§":10063,"Ġà¥¯à¥¨à¥¦":10064,"Ġà¤ıà¤®à¤Ĩà¤°à¤Ĩà¤Ī":10065,"à¤²à¤¤à¤¸à¤®à¤ķ":10066,"Ġà¤Ľà¤²à¤Ľ":10067,"à¤¯à¤£à¤¬à¤¹":10068,"Ġà¥¨à¥®à¥©":10069,"à¤¡à¤¬à¤¡":10070,"à¤Ĭà¤²":10071,"à¤Ĭà¤¦à¤²":10072,"ĠAut":10073,"Ġà¤ıà¤¨à¤Ĩà¤°à¤Ł":10074,"ÑĢÐ°Ð½":10075,"ĠFM":10076,"Ð°Ð¶":10077,"ours":10078,"Ġ2008":10079,"div":10080,"fe":10081,"ful":10082,"ke":10083,"mà¤¦":10084,"yakhabar":10085,"à¤²à¤¸à¤°":10086,"à¤ªà¤Ļ":10087,"à¤¦à¤®à¤ķ":10088,"à¤ıà¤ı":10089,"à¤ıà¤°à¤²":10090,"Ġà¤¦à¤¹à¤®":10091,"à¤ļà¤¯à¤²":10092,"à¤£à¤ıà¤¶":10093,"à¤Ńà¤Ń":10094,"à¤īà¤·":10095,"à¤°à¤®à¤¹":10096,"Ġà¤¶à¤¦":10097,"Ġà¤¶à¤®à¤¸":10098,"à¤¯à¤ķà¤¥":10099,"à¤¢à¤¨":10100,"à¤ĺà¤°à¤¸":10101,"à¤¯à¤®à¤¨à¤®":10102,"à¤ĩà¤¨à¤ª":10103,"à¤łà¤®à¤¡":10104,"Ġà¥¨à¥¦à¥®":10105,"à¥ĭà¥¤...":10106,"Ġà¤īà¤¦à¤¯à¤ķ":10107,"à¤®à¤¤à¤µ":10108,"Ġà¥ªà¥§à¥¦":10109,"à¤ľà¤ķà¤¸à¤®":10110,"Ġ?âĢĻ,":10111,"à¤¦à¤µà¤¬":10112,"à¤ıà¤¸à¤ıà¤²à¤¸":10113,"à¤ıà¤®à¤Ĩà¤°":10114,"Ġà¤Īà¤¦":10115,"Ġà¤Īà¤ľà¤°":10116,"ane":10117,"Ġà¤«à¤²à¤ª":10118,"aly":10119,"Ġà¤Ĩà¤łà¤¦":10120,"Ġà¥¨à¥©à¥ª":10121,"à¤ĩà¤¡à¤¬":10122,"à¤¤à¤°à¤®à¤¹":10123,"Ġà¥©à¥§à¥¦":10124,"ĠCy":10125,"Ġà¤¨à¤Ĩà¤ıà¤°":10126,"Ġpol":10127,"Ġco":10128,"Ġà¤Ľà¤łà¤²à¤Ĺ":10129,"à¸¢":10130,"ãĤ¹":10131,"ãĤī":10132,"ĠÃĹ":10133,"Ġà¤ľà¤®à¤²à¤¸":10134,"ĠDuration":10135,"!âĢĻ":10136,"%,":10137,"hr":10138,"mit":10139,"ps":10140,"tain":10141,"time":10142,"éģ":10143,"à¥Ģà¤¾":10144,"à¤ıà¤ªà¤¶":10145,"Ġà¤ħà¤ıà¤ķ":10146,"Ġà¤¹à¤ķà¤¬":10147,"à¤¬à¤²à¤¬":10148,"à¤¡à¤µà¤ķ":10149,"à¥¤,":10150,"Ġà¤ıà¤Ĩà¤°à¤Ł":10151,"à¥ĥà¥ģ":10152,"à¤ħà¤ŀ":10153,"à¤¦à¤¨à¤ªà¤Ľ":10154,"à¤ıà¤¨à¤ıà¤«":10155,"à¤ªà¤²à¤Ĺà¤¤":10156,"Ġà¤Ĳà¤¨à¤¬":10157,"à¤°à¤ľà¤¤":10158,"era":10159,"âĢľ,":10160,"arb":10161,"Ġà¤¦à¤¸à¤Ĺà¤ľ":10162,"ĠSub":10163,"Ð°Ð»Ð¸":10164,"Ġà¤ļà¤°à¤£à¤µà¤¦":10165,"ĠFacebook":10166,"Ġinfo":10167,"Ġà¤²à¤¸à¤ıà¤¨":10168,"ution":10169,"ika":10170,"Ġ06":10171,"aily":10172,"ĠAdd":10173,"ĠInternet":10174,"II":10175,"TS":10176,"cha":10177,"å¥":10178,"ģà¸":10179,"à¤ķà¤ªà¤¤":10180,"à¤¸à¤¯à¤¤":10181,"Ġà¤Ĺà¤ķ":10182,"Ġà¤Ĺà¤ŀ":10183,"à¤ľà¤®à¤²":10184,"à¤·à¤°à¤¸":10185,"à¤§à¤¸à¤¹":10186,"Ġà¤¤à¤¶":10187,"à¤Ľà¤²à¤Ĺ":10188,"Ġà¤ıà¤¨à¤°":10189,"à¤¸à¤®à¤ħà¤¨":10190,"Ġà¤Łà¤²à¤ķ":10191,"Ġà¤¸à¤¹à¤ĩà¤¨":10192,"Ġà¤Ĩà¤µà¤¹":10193,"Ġà¤Ĩà¤ĩà¤Ń":10194,"à¤¡à¤®à¤°":10195,"Ġà¥¨à¥«à¥§":10196,"als":10197,"Ġà¥¨à¥¯à¥¦":10198,"à¤Ĺà¤łà¤¬à¤¨":10199,"arch":10200,"Ġà¤¸à¤¹à¤°à¤¬à¤ľ":10201,"ites":10202,"Ð°Ñİ":10203,"Ġà¤ıà¤¡à¤µ":10204,"à¤µà¤ľà¤¹à¤°":10205,"urnt":10206,"à¥ĭ?âĢĿ":10207,"ãĤĮ":10208,"ÐµÐ¿":10209,"Ġ90":10210,"ĠÐ¸Ð·":10211,"ä¸Ń":10212,"ĠBlack":10213,"à¤°à¤Ĩà¤µà¤¸":10214,"Phone":10215,"Pr":10216,"oe":10217,"~~":10218,"çľ":10219,"à¤¾......":10220,"à¥ĩ....":10221,"à¤¦à¤²à¤¬":10222,"Ġà¤¬à¤·":10223,"Ġà¤Ńà¤°à¤¤à¤²":10224,"à¤·à¤°à¤ķà¤°":10225,"à¤¥à¤ľ":10226,"Ġà¤²à¤¤à¤®":10227,"Ġà¤²à¤¯à¤²":10228,"à¤¡à¤µà¤²":10229,"à¤Ńà¤µà¤ª":10230,"à¥Į/":10231,"à¤¢à¤¯":10232,"Ġà¤¸à¤ķà¤¨":10233,"Ġà¤¤à¤°à¤ĸà¤°":10234,"à¤Ŀà¤¯":10235,"à¤ķà¤®à¤¬":10236,"Ġà¤īà¤¨à¤¸":10237,"à¤µà¤¨à¤Ĺà¤°":10238,"Ġà¤Ķà¤ł":10239,"à¤Ĺà¤®à¤¯":10240,"à¤µà¤¤à¤¬":10241,"à¤ĩà¤²à¤¸":10242,"Ġà¤ľà¤²à¤ļà¤°":10243,"ĠÐ¢":10244,"à¤ıà¤«à¤Ł":10245,"à¤ıà¤«à¤ıà¤²":10246,"Ġà¤ħà¤µà¤¶à¤°":10247,"Ġà¤¨à¤Ĺà¤ª":10248,"!!!!":10249,"umi":10250,"Ġà¥¦à¥ªà¥¯":10251,"Ġà¤ıà¤¸à¤Īà¤Īà¤®":10252,"ĠÑĢÐ°Ð·":10253,"à¤°mà¤®":10254,"ĠUniversity":10255,"mà¤ķ":10256,"Ùģ":10257,"àª":10258,"å¼":10259,"ĠÑĦ":10260,"à¤²à¤ĺà¤°":10261,"à¤®à¤¯à¤®":10262,"à¤¯à¤µà¤²":10263,"à¤¯à¤¦à¤°":10264,"à¤¯à¤²à¤¯à¤¹à¤°":10265,"Ġà¤¬à¤¨à¤²":10266,"Ġà¤µà¤°à¤ķ":10267,"Ġà¤µà¤¤à¤¨":10268,"à¤ıà¤ķà¤ķ":10269,"à¤¶à¤®à¤ķ":10270,"Ġà¤ľà¤¯à¤¬":10271,"à¤īà¤Łà¤°":10272,"à¤¯à¤ķà¤®à¤¨":10273,"Ġà¤«à¤²à¤²":10274,"à¤²à¤ķà¤¨":10275,"Ġà¤¸à¤ķà¤¸à¤ª":10276,"Ġà¤¡à¤¨à¤¹à¤°":10277,"Ġà¤ĩà¤¡à¤²":10278,"à¤ªà¤ķà¤¸":10279,"Ġà¤ĺà¤°à¤Ľ":10280,"à¤ķà¤ªà¤Ł":10281,"à¤ľà¤®à¤¹à¤²":10282,"à¤²à¤¤à¤ª":10283,"Ġà¤Ĺà¤łà¤¨à¤²":10284,"Ġà¤¹à¤²à¤Ń":10285,"Ġà¤¤à¤²à¤¤à¤²":10286,"à¤¡à¤°à¤°":10287,"à¥¨à¥¦à¥§à¥©":10288,"Ġà¤Ĺà¤ıà¤Ľà¤¨":10289,"à¤Ĺà¤¸à¤Ĺ":10290,"Ġà¤°à¤Ļà¤¹à¤°":10291,"à¤°à¤¨à¤Ĺà¤°à¤¸":10292,"à¥ĩ?âĢĻ":10293,"Ġits":10294,"********":10295,"Ġà¤®à¤°à¤®à¤¸à¤²":10296,"ĠNRN":10297,"ĠTulsipur":10298,"OC":10299,"back":10300,"youtube":10301,"çĽ":10302,"è¯":10303,"Ġ}":10304,"Ġà¤½":10305,"à¤°à¤°à¤ķ":10306,"à¤¨à¤·":10307,"à¤®à¤¯à¤²":10308,"à¤®à¤µà¤²":10309,"à¤Łà¤Ĺà¤°":10310,"à¤Łà¤¬à¤¹":10311,"à¤¬à¤Īà¤¸":10312,"à¤§à¤Ńà¤¨":10313,"à¤¥à¤¸à¤¹":10314,"Ġà¤Ĩà¤Ļà¤ķ":10315,"Ġà¤ľà¤²à¤²":10316,"à¤ļà¤¤à¤²":10317,"à¤ļà¤²à¤Ĺ":10318,"à¤Īà¤ıà¤®":10319,"à¤£à¤¶":10320,"Ġà¤¯à¤ļ":10321,"à¤¯à¤ķà¤°à¤£à¤ķ":10322,"à¤Ļà¤¥":10323,"Ġà¤ĺà¤®à¤¨":10324,"Ġà¤¸à¤¹à¤ħà¤Ń":10325,"à¤°à¤¸à¤Ĺ":10326,"à¤®à¤ķà¤µ":10327,"à¤·à¤£à¤ª":10328,"Ġ?)":10329,"à¤ĵà¤ıà¤¨à¤ıà¤¸":10330,"à¤°à¤¨à¤¹à¤°":10331,"à¤²à¤¤à¤¦":10332,"à¤Īà¤²à¤Ł":10333,"Ġà¥§à¥®à¥¬":10334,"à¥¨à¥¦à¥§à¥§":10335,"adi":10336,"ĠÐĲ":10337,"ĠNe":10338,"ĠAcc":10339,"ames":10340,"Ġà¤Ĺà¤¹à¤¨à¤¤":10341,"udio":10342,"ĠChina":10343,"à¥¤à¥¤à¥¤":10344,"Ð¾ÑĢÐ¼":10345,"Ġà¤ľà¤¯à¤¨à¤Ĺà¤°à¤¦":10346,"ĠTrans":10347,"Ã¼r":10348,"Ġadd":10349,"ĠâĢĭâĢĭ":10350,"ĠYouTube":10351,"ais":10352,"che":10353,"Ãª":10354,"Äħ":10355,"Ðŀ":10356,"Ġum":10357,"à¥ĭ]":10358,"Ġà¤¸à¤ĩ":10359,"Ġà¤ªà¤¡à¤ķ":10360,"à¤µà¤Ńà¤ķ":10361,"à¤µà¤¶à¤®à¤¶":10362,"à¤Łà¤ļà¤¨à¤²":10363,"Ġà¤¬à¤°à¤£":10364,"à¤¥à¤ªà¤¨":10365,"Ġà¤ľà¤µà¤ķ":10366,"Ġà¤ľà¤Ĺà¤ķ":10367,"Ġà¤²à¤ķà¤°":10368,"à¤ļà¤°à¤£à¤®":10369,"à¤Ńà¤¶":10370,"à¤ĩà¤¬à¤°à¤®":10371,"ĠâĢĺ...":10372,"à¤°à¤¹à¤°à¤£":10373,"à¤ħà¤«à¤°":10374,"à¤°à¤¬à¤¸":10375,"Ġà¤Ĩà¤°à¤Ł":10376,"à¤Ĩà¤¨à¤²":10377,"à¤°à¤§à¤°":10378,"Ġà¤ĵà¤°à¤²":10379,"Ġà¤¢à¤ķà¤¨":10380,"Ġà¤Ĩà¤ĩà¤ıà¤¸à¤ķ":10381,"à¤¤à¤°à¤£à¤ªà¤Ľ":10382,"Ġà¥§à¥¯à¥©à¥®":10383,"Ġà¤¦à¤¶à¤¹à¤°":10384,"Ġà¤Ĺà¤£à¤ª":10385,"à¤ıà¤®à¤Ĩà¤°à¤²":10386,"à¤µà¤¶à¤°":10387,"Ġmod":10388,"Ġà¤ļà¤¢à¤¨":10389,"ĠAmer":10390,"ĠMo":10391,"Ġass":10392,"Ġoak":10393,"etter":10394,"à¤ĩà¤ıà¤ħà¤¨":10395,"à¤¨à¤¯à¤¨à¤ªà¤¤":10396,"Ġvideo":10397,"ips":10398,"====":10399,"less":10400,"tt":10401,"Ġà¸":10402,"à¤¾à¥ħ":10403,"à¤¨à¤µà¤¨":10404,"à¤¨à¤°à¤ª":10405,"Ġà¤¸à¤¥":10406,"Ġà¤ķà¤²à¤¬":10407,"Ġà¤²à¤ľà¤®":10408,"à¤ļà¤Ĺà¤µ":10409,"à¤£à¤ľà¤¸":10410,"à¤£à¤ħà¤¨":10411,"à¤ĸà¤¯":10412,"à¤īà¤ªà¤¦":10413,"à¤ĩà¤§":10414,"à¥¤(":10415,"à¤Ļà¤ķà¤°":10416,"à¤²à¤ķà¤¸à¤®":10417,"Ġà¤¸à¤¹à¤²":10418,"à¥ĭà¥¤&":10419,"à¤¸à¤¨à¤¸à¤¹":10420,"Ġà¤¬à¤ľà¤°":10421,"à¤¤à¤®à¤°":10422,"Ġà¤ĵà¤ªà¤¨à¤ķ":10423,"à¤¬à¤°à¤Ńà¤¨":10424,"à¤®à¤®à¤¯":10425,"Ġ,âĢĻ":10426,"Ġà¤¸à¤µà¤Ńà¤¨":10427,"Ġà¤§à¤¨à¤ªà¤¤":10428,"Ġà¥¨à¥§à¥¬":10429,"Ġà¤Ĩà¤Īà¤ĵà¤¸":10430,"Ġà¥¨à¥¨à¥§":10431,"Ġà¥¨à¥ªà¥¯":10432,"à¤Ĺà¤¢à¤¨":10433,"à¥¨à¥¦à¥¨à¥¦":10434,"à¤Ķà¤¦":10435,"à¤Łà¤¬à¤²à¤ħà¤¨":10436,"à¤ļà¤¨à¤ªà¤¶":10437,"à¤¶à¤¹à¤°à¤ķ":10438,"à¤²à¤Ńà¤²":10439,"ĠClick":10440,"Ġfree":10441,"ason":10442,"oto":10443,"irm":10444,"Ġ36":10445,"à¤¤à¤Ńà¤£":10446,"rough":10447,"åľ¨":10448,"ategory":10449,"ĠWindows":10450,"Ġà¤ķà¤ļà¤ķà¤ļ":10451,"è¦":10452,"à¤¨à¤Ĺà¤¨":10453,"à¤¨à¤ıà¤ľ":10454,"à¤¿ï¿½":10455,"à¤¸à¤Ńà¤°":10456,"à¤¹à¤¤à¤²":10457,"à¤µà¤ľà¤ķ":10458,"Ġà¤Ĺà¤Ł":10459,"à¤ıà¤¹à¤°":10460,"Ġà¤¹à¤ķà¤¸":10461,"à¤·à¤¯à¤µ":10462,"Ġà¤Ĩà¤Ŀ":10463,"à¤«à¤²à¤²":10464,"Ġà¤¸à¤¹à¤¬":10465,"Ġ(âĢĺ":10466,"Ġ(?)":10467,"Ġà¤¨à¤Ĺà¤°à¤¹à¤°":10468,"à¥ĭ,âĢľ":10469,"à¤ĵà¤ªà¤¨":10470,"à¤¸à¤¦à¤®à¤§":10471,"à¤ıà¤¨à¤Ĩà¤Ī":10472,"Ġà¤°à¤ķà¤®à¤¹à¤°":10473,"à¤īà¤¦à¤¯à¤ª":10474,"Ġà¥¨à¥¨à¥ª":10475,"Ġà¥¨à¥ªà¥ª":10476,"Ġà¤®à¤¦à¤¤à¤®":10477,"à¤¯à¤¯à¤°à¤¤":10478,"ĠtÃ©":10479,"Ġpres":10480,"ird":10481,"Ġ35":10482,"à¤ĩà¤ıà¤Ľ":10483,"ĠWorld":10484,"à¤¨à¤Ĺà¤ıà¤ķ":10485,"à¥¦à¥¬à¥®":10486,"Ġà¥§à¥¯à¥«à¥¨":10487,"ĠÃł":10488,"ïĢł":10489,"Ġà¤¬à¤°à¤¹à¤¥à¤µ":10490,"Tweet":10491,"ele":10492,"gy":10493,"yl":10494,"à¤¤à¤§":10495,"Ġà¤¸à¤¤à¤ķ":10496,"Ġà¤ªà¤²à¤®":10497,"Ġà¤Ĺà¤ĩà¤°":10498,"Ġà¤¹à¤°à¤¤":10499,"à¤§à¤°à¤¤":10500,"Ġà¤²à¤µà¤ľ":10501,"à¤ļà¤¤à¤¤":10502,"à¤ĸà¤¶":10503,"à¤īà¤§":10504,"à¤īà¤¸à¤¹à¤°":10505,"âĢº":10506,"Ġà¤§à¤°à¤®":10507,"à¤²à¤ķà¤µ":10508,"à¤ŀà¤¦":10509,"à¤Ŀà¤¤":10510,"à¤Łà¤ķà¤¬":10511,"à¤µà¤¨à¤ľà¤²":10512,"à¤®à¤¤à¤¨":10513,"à¤®à¤¨à¤Ĺà¤°à¤ķ":10514,"Ġà¤ĵà¤ĸà¤²":10515,"à¤ĵà¤ĸà¤²à¤¢":10516,"Ġ-'":10517,"Ġà¤ľà¤¨à¤¸à¤ĸ":10518,"Ġà¤ĸà¤¸à¤Ĩà¤°":10519,"Ġà¤¨à¤¬à¤¦à¤²":10520,"à¤µà¤Ńà¤°à¤®":10521,"à¥Ģ.)":10522,"à¥ĭà¤Ĥ,":10523,"aglung":10524,"à¤Ĩà¤ĩà¤ıà¤®à¤Ī":10525,"Ġà¥¯à¥©à¥Ń":10526,"osh":10527,"ä¸į":10528,"à¤¨à¤µà¤²à¤ªà¤°":10529,"Ġwho":10530,"\")":10531,")?":10532,"by":10533,"get":10534,"ks":10535,"link":10536,"à¤ķà¤ªà¤®":10537,"à¤²à¤°à¤¬":10538,"à¤¤à¤¤à¤²":10539,"à¤ªà¤Łà¤²":10540,"Ġà¤ķà¤łà¤®":10541,"Ġà¤ķà¤¬à¤°":10542,"à¥Ī..":10543,"Ġà¤ľà¤¦":10544,"Ġà¤ľà¤ŀ":10545,"Ġà¤²à¤¹à¤¸":10546,"à¤Īà¤°à¤¸":10547,"à¤Ńà¤¸à¤®":10548,"à¤īà¤§à¤¨à¤ķ":10549,"à¤łà¤µ":10550,"à¤ĺà¤ĸ":10551,"Ġà¤ĩà¤ĸ":10552,"à¤ħà¤¸à¤®":10553,"à¤¤à¤ķà¤¸":10554,"à¤µà¤¨à¤¨":10555,"à¤Łà¤¨à¤¦":10556,"Ġà¤ĵà¤®à¤°":10557,"à¤ĥ-":10558,"à¤°à¤Ńà¤¦":10559,"à¤µà¤®à¤£":10560,"à¤ķà¤ªà¤²":10561,"Ġà¤¸à¤¡à¤ķà¤Ľ":10562,"Ġà¤Ĩà¤¤à¤¤":10563,"à¤ıà¤®à¤ıà¤²":10564,"Ġà¥©à¥¦à¥«":10565,"Ġà¤¹à¤²à¤ļ":10566,"Ġà¤µà¤¸à¤ª":10567,"à¤ªà¤£à¤µ":10568,"à¤®à¤ªà¤Ł":10569,"Ġà¤Ńà¤µà¤¨à¤¸":10570,"à¤Ĺà¤®à¤¨à¤¸à¤®":10571,"ato":10572,"à¤Ĩà¤Īà¤ıà¤ķ":10573,"Ġà¤¸à¤¸à¤«":10574,"Ġà¤ıà¤²à¤ıà¤²à¤¬":10575,"à¤¤à¤¸à¤¯":10576,"à¤īà¤ªà¤²à¤¬":10577,"ĠTimes":10578,"ãģ£":10579,"ĠLa":10580,"Ġà¤²à¤¹à¤°à¤²":10581,"Ġever":10582,"ĠÐ¿Ð¾Ð´":10583,"Ġà¤Ĺà¤¡à¤¬à¤¢":10584,"Ġjust":10585,"aster":10586,"ĠÐ¿ÑĢÐ¸":10587,"Ġuse":10588,"Ġà¤®à¤°à¤¹à¤ł":10589,"LC":10590,"OW":10591,"fter":10592,"go":10593,"ms":10594,"mà¤®":10595,"rap":10596,"Î¹":10597,"Ðł":10598,"à¤°à¤°à¤²":10599,"à¤¿âĢĶ":10600,"Ġà¤ķà¤ķà¤ª":10601,"Ġà¤°à¤ª":10602,"Ġà¤°à¤Ľ":10603,"Ġà¤°à¤¡à¤²":10604,"Ġà¤°à¤ľà¤¹à¤°":10605,"à¤Łà¤®à¤¨":10606,"à¤ľà¤¬à¤²":10607,"à¤¬à¤¸à¤¨":10608,"Ġà¤¤ÅĴ":10609,"Ġà¤¤ÅĴà¤µ":10610,"à¤Īà¤Ľ":10611,"à¤ĩà¤ľà¤¸":10612,"Ġà¤ıà¤¨à¤²":10613,"Ġà¤ıà¤Ĩà¤°":10614,"à¤¾à¤ģà¥Īà¤Ĥ":10615,"à¤¨à¤ķà¤®":10616,"à¤°à¤£à¤Ńà¤¨":10617,"à¤ľà¤¨à¤ľà¤¤":10618,"à¤ĺà¤ħà¤¨":10619,"Ġà¤ħà¤°à¤°":10620,"à¤µà¤¨à¤¤":10621,"à¤·à¤£à¤²à¤Ĺ":10622,"à¤¤à¤¨à¤¹":10623,"à¤®à¤¨à¤¨":10624,"Ġà¤ĵà¤¦":10625,"à¤§à¤¨à¤Ń":10626,"Ġà¤ıà¤®à¤Ń":10627,"Ġà¤®à¤¤à¤µ":10628,"Ġà¤¦à¤²à¤ª":10629,"Ġà¥¦à¥Ńà¥¬":10630,"Ġà¤ľà¤¬à¤ľà¤ķ":10631,"à¥¨à¥¦à¥§à¥¦":10632,"ĠSo":10633,"Ġà¤ľà¤¨à¤ªà¤¥":10634,"à¤¹à¤¦à¤¸à¤®":10635,"à¤®à¤¯à¤¦à¤°":10636,"Ġà¤°à¤Ĺà¤¤à¤¬":10637,"Ġà¤ıà¤¡à¤µà¤°":10638,"asy":10639,"Ġà¤®à¤¦à¤¨à¤¸":10640,"Ġinter":10641,"à¸µ":10642,"Ġein":10643,"Ġgu":10644,"ÑıÑĤ":10645,"istry":10646,"oci":10647,"html":10648,"à¥¨à¥¦à¥¦à¥Ń":10649,"Ġ80":10650,"Ġà¤ľà¤¨à¤®à¤¤à¤¸à¤Ļ":10651,"46":10652,"Pro":10653,"UN":10654,"aid":10655,"way":10656,"è¨":10657,"à¤¨à¤°à¤¹":10658,"à¤¿à¥¤âĢĻ":10659,"à¥ĩâĢĿ,":10660,"à¤¦à¤ķà¤®":10661,"à¤¦à¤¤à¤ķ":10662,"Ġà¥¤à¥ģ":10663,"à¤ľà¤¬à¤°":10664,"Ġà¤ľà¤¨à¤²à¤¹à¤°":10665,"à¤ļà¤¯à¤®":10666,"à¤ĸà¤²à¤¤":10667,"à¤ĸà¤²à¤¨à¤ķ":10668,"à¤ĩà¤®à¤¤":10669,"à¤łà¤ľ":10670,"Ġà¤ľà¤¨à¤¦à¤¬":10671,"Ġà¤¡à¤«":10672,"à¥Įà¤Ĥ',":10673,"à¤²à¤¨à¤µ":10674,"à¤Łà¤°à¤¨à¤²":10675,"Ġà¤¸à¤°à¤Ĺà¤®":10676,"Ġà¤Ĩà¤µà¤ľ":10677,"Ġà¤ĺà¤°à¤ĺà¤¡":10678,"Ġà¤Ĩà¤®à¤¦":10679,"Ġà¥§à¥®à¥Ńà¥§":10680,"reak":10681,"Ġà¥¨à¥¨à¥®":10682,"online":10683,"Ġà¥¨à¥¬à¥ª":10684,"orth":10685,"Ġà¤ľà¤¡à¤¤":10686,"à¥ĩâĢĵâĢľ":10687,"hel":10688,"Ġà¤¡à¤²à¤°à¤¬à¤°":10689,"âĢĮâĢĮ":10690,"Ġbel":10691,"agement":10692,"à¥§à¥«à¥¦":10693,"urs":10694,"Ġne":10695,"utes":10696,"Ġ01":10697,"Ġà¥§à¥¯à¥ªà¥¬":10698,"ĠÑģÐ²":10699,"ĠØª":10700,"ĠØ³":10701,"ĠChrist":10702,"à¤¡à¤°à¤¸à¤Łà¤¸":10703,"ĠProf":10704,"ĠHead":10705,"argin":10706,"DS":10707,"lass":10708,"mm":10709,"post":10710,"åĩ":10711,"Ġra":10712,"Ġ................":10713,"à¥į..":10714,"à¤¿;":10715,"à¥Ģà¥į":10716,"à¤ªà¤ªà¤¤":10717,"à¤¦à¤¹à¤ķ":10718,"à¤µà¤¯à¤ķà¤°":10719,"à¤ıà¤¬à¤²":10720,"à¤ľà¤°à¤¬":10721,"à¤Ĥà¥į":10722,"Ġà¤ıà¤Łà¤®":10723,"à¤°à¤¤à¤¨":10724,"à¤°à¤¤à¤Ń":10725,"à¤Ļà¤Ĺà¤¤":10726,"Ġà¤¯à¤¸à¤¤":10727,"à¤¯à¤®à¤¸à¤®":10728,"à¤Ĺà¤°à¤¨à¤²":10729,"à¥Įà¤Ĥ.":10730,"à¥§à¥¦à¥¦à¥¦":10731,"à¤°à¤¬à¤®":10732,"à¤°à¤¯à¤¶à¤ķ":10733,"Ġà¤ļà¤²à¤¨à¤®":10734,"à¤¯à¤°à¤«":10735,"à¤ĸà¤°à¤¨":10736,"Ġà¤ªà¤¦à¤ķà¤µ":10737,"à¤²à¤Ĺà¤¡":10738,"Ġà¤ħà¤²à¤Ļ":10739,"Ġà¥§à¥¯à¥¨à¥©":10740,"Ġà¥§à¥§à¥¦à¥¦":10741,"Ġ:)":10742,"Ġà¥§à¥®à¥ª":10743,"Ġà¤ķà¤µà¤ļ":10744,"inal":10745,"Ġà¥¨à¥§à¥¯":10746,"à¤Ĩà¤Īà¤ıà¤²":10747,"omb":10748,"ĠPM":10749,"ĠPer":10750,"Ġbest":10751,"ams":10752,"andard":10753,"à¤¯à¤¯à¤¨à¤ķà¤°":10754,"ĠVideo":10755,"ĠÐ¿ÐµÑĢ":10756,"iki":10757,"Ġà¤Ĺà¤£à¤ªà¤¤à¤¯":10758,"riend":10759,"ĠĠĠĠ":10760,"ĠApple":10761,"kype":10762,"Ġà¤°à¤ľà¤¤à¤ªà¤Łà¤®":10763,"Ġmonth":10764,"GCDP":10765,"ç»":10766,"Ġ**":10767,"à¤¾âĢĿ,":10768,"à¤®à¤°à¤¨":10769,"Ġà¤¸à¤¸à¤°":10770,"à¤ªà¤ł":10771,"à¤¦à¤¹à¤®":10772,"à¤¦à¤¯à¤¬":10773,"à¤µà¤Īà¤ķ":10774,"Ġà¤¨à¤īà¤¡":10775,"Ġà¤µà¤µ":10776,"à¤ļà¤ªà¤Łà¤ķ":10777,"à¤¡à¤¨à¤¦":10778,"Ġà¤īà¤¸à¤¸":10779,"à¤īà¤ķà¤²":10780,"à¤ĩà¤²à¤¨":10781,"Ġà¤¶à¤µà¤¹à¤°":10782,"Ġà¤ĸà¤µà¤°à¤²":10783,"Ġà¤ħà¤§à¤µ":10784,"Ġà¤¡à¤¨à¤ķ":10785,"Ġà¤®à¤¨à¤Ĺà¤¢à¤¨":10786,"à¤¸à¤¨à¤Ń":10787,"à¤ľà¤ķà¤¸":10788,"Ġà¤ħà¤®à¤°à¤²":10789,"Ġà¤ªà¤¦à¤¤":10790,"à¤²à¤Ĺà¤Ńà¤Ĺ":10791,"Ġà¤ıà¤®à¤ıà¤²":10792,"Ġà¤Ĩà¤ĩà¤ıà¤¸à¤²":10793,"à¥Īà¤ģâĢĵ":10794,"à¤¨à¤ªà¤¶":10795,"Ġ:âĢĵ":10796,"à¤¸à¤¹à¤°à¤®":10797,"à¥ĩà¤ĤâĢĵ":10798,"Ġà¤ľà¤¬à¤ľ":10799,"Ġà¤¶à¤¹à¤°à¤¸":10800,"ady":10801,"Ġlike":10802,"Ġturnt":10803,"Ġà¤¸à¤¡à¤ķà¤®à¤§":10804,"à¤¯à¤Łà¤ķà¤®à¤§":10805,"à¤ıà¤«à¤¡":10806,"à¸´":10807,"à¤ıà¤¨à¤ıà¤¨à¤ķ":10808,"iver":10809,"ĠUN":10810,"Ġ500":10811,"Ġ02":10812,"ãĢĮ":10813,"Ð¼Ð¸":10814,"à¤¡à¤°à¤¸à¤Łà¤®":10815,"à¤¬à¤ĸà¤¤à¤®":10816,"Ã¶r":10817,"ollow":10818,"Ġebaglung":10819,"ient":10820,"wn":10821,"Ûģ":10822,"ĥ½":10823,"à¤°Tags":10824,"à¤²à¤ľà¤¨":10825,"à¥Ģ;":10826,"à¤ªà¤¤à¤°":10827,"Ġà¤ķà¤Łà¤¨":10828,"à¥ĪâĢĶ":10829,"à¤Łà¤ħà¤ĺ":10830,"à¤ıà¤¯à¤¤":10831,"Ġà¤®à¤°à¤¨":10832,"Ġà¤Ńà¤®à¤°":10833,"à¤¡à¤ªà¤¸":10834,"Ġà¤¶à¤ĸ":10835,"Ġà¤¶à¤°à¤¦à¤°":10836,"à¤łà¤¸à¤²":10837,"à¤Ļà¤Ńà¤¨":10838,"à¤¸à¤ķà¤¸à¤¹":10839,"à¤ĺà¤¨à¤®":10840,"à¤²à¤ķà¤¬à¤¸":10841,"Ġà¤¡à¤°à¤®":10842,"à¤ħà¤°à¤²":10843,"à¤µà¤¨à¤¹à¤°":10844,"à¤¸à¤¨à¤ħà¤¨":10845,"Ġà¤Ŀà¤¨à¤ķ":10846,"à¤ķà¤ķà¤¸":10847,"Ġà¤ļà¤²à¤ħà¤ļà¤²":10848,"à¤µà¤²à¤¡":10849,"à¤Łà¤®à¤£":10850,"à¤ľà¤¸à¤ľ":10851,"Ġà¥§à¥¯à¥¨à¥ª":10852,"Ġà¥«à¥¦à¥ª":10853,"Ġà¤Īà¤Ļà¤²":10854,"Ġà¥§à¥®à¥Ń":10855,"à¤ļà¤²à¤¨à¤²":10856,"Ġà¥¦à¥§à¥«":10857,"Ġà¤µà¤¨à¤ľà¤¨":10858,"à¤Ĩà¤°à¤¡":10859,"Ġà¥¨à¥ªà¥«":10860,"Ġà¥¨à¥©à¥«":10861,"à¤®à¤£à¤µ":10862,"ĠSec":10863,"isp":10864,"Ġdu":10865,"ĠIP":10866,"Ġrel":10867,"unn":10868,"Ġà¤Ŀà¤²à¤Ŀà¤²":10869,"ott":10870,",âĢĿâĢĵ":10871,"à¥ĭ-âĢĻ":10872,"ĠKathmandu":10873,"ives":10874,"iving":10875,"apan":10876,"Ġvis":10877,"ief":10878,"Ġ04":10879,"ãĢį":10880,"à¤®à¤Ĺà¤łà¤µà¤¨":10881,"ĠForum":10882,"duct":10883,"ligumi":10884,"ĠtÃ©ligumi":10885,"MA":10886,"Press":10887,"my":10888,"vest":10889,"âĪ":10890,"Ħà¸":10891,"à¤¨à¤Ńà¤¯":10892,"à¤¯à¤°à¤¹":10893,"Ġà¤ªà¤¯à¤°":10894,"à¤µà¤Ĺà¤°":10895,"Ġà¤Ĺà¤Īà¤¨":10896,"Ġà¤¬à¤¯à¤°":10897,"à¤ľà¤Ł":10898,"à¤§à¤¸à¤°à¤ķ":10899,"à¤Īà¤Ĺà¤°":10900,"à¤¡à¤¸à¤ķ":10901,"à¤Ńà¤¨à¤ķ":10902,"à¤Ńà¤°à¤¸":10903,"Ġà¤Ńà¤¨à¤¨":10904,"à¤¯à¤ķà¤Ńà¤¨":10905,"à¤īà¤¨à¤¯à¤¤":10906,"à¤¯à¤®à¤ª":10907,"à¤°à¤¹à¤Ń":10908,"à¤°à¤¹à¤£à¤²":10909,"à¤¤à¤°à¤ªà¤Ł":10910,"à¤¤à¤ķà¤¹":10911,"à¤²à¤¯à¤Ńà¤¨":10912,"à¤·à¤ķà¤¸à¤¹":10913,"à¤ĩà¤°à¤¹à¤¦":10914,"à¤Ĺà¤®à¤£":10915,"à¤ľà¤Ĺà¤ľ":10916,"Ġà¥§à¥¯à¥©à¥ª":10917,"Ġà¤Ĩà¤¶à¤¯à¤²":10918,"Ġà¤¨à¤Ńà¤ĩà¤¦":10919,"Ġà¤ıà¤¸à¤ľ":10920,"à¤¦à¤²à¤¸":10921,"à¥ĩà¥¤[":10922,"à¤Īà¤²à¤¹à¤°":10923,"Ġà¤ħà¤«à¤°à¤ķ":10924,"à¤īà¤¦à¤Ľà¤¨":10925,"Ġà¥§à¥®à¥§à¥ª":10926,"à¤²à¤¨à¤ķà¤°":10927,"Ġà¤Ĩà¤Īà¤°à¤¹à¤¨":10928,"Ġà¤ħà¤µà¤¸à¤°à¤¸à¤®":10929,"à¥¨à¥¦à¥¬à¥¨":10930,"Ġà¥¨à¥¯à¥©":10931,"à¤¨à¤¸à¤®à¤ķ":10932,"à¤¤à¤°à¤®à¤¨":10933,"à¤¤à¤µà¤¨à¤¸":10934,"ĠSl":10935,"Ġà¤¨à¤Ńà¤ıà¤ľà¤¸":10936,"Ġà¤Ĺà¤ıà¤ľà¤¸":10937,"à¤²à¤Ńà¤°à¤ķ":10938,"ĠCar":10939,"Ġà¤¨à¤ĸà¤¸":10940,"ĠBh":10941,"Ġà¤°à¤Ļà¤°":10942,"à¥Įà¤ģà¥¤'":10943,"Ġà¤¦à¤®à¤ķà¤¸":10944,"Ġhow":10945,"akh":10946,"lobal":10947,"artha":10948,"Ġà¤¸à¤¯à¤ķà¤¡":10949,"Ð¾Ð²Ñĭ":10950,"Ġà¤²à¤ĸà¤¨à¤Ĭ":10951,"ude":10952,"ĠÙĨ":10953,"ansar":10954,"Ġalso":10955,"Ġplay":10956,"à¤Ĩà¤īà¤Łà¤ķ":10957,"ountry":10958,"ĠShareTweet":10959,"va":10960,"å¯":10961,"åĿ":10962,"Ġë":10963,"à¤®à¤ªà¤Łà¤ķ":10964,"à¤¯à¤µà¤¨":10965,"à¤¯à¤¶à¤¨à¤ķ":10966,"à¤¸à¤ħà¤ª":10967,"à¤ªà¤ħà¤ĺ":10968,"à¤µà¤£à¤®":10969,"Ġà¤Ĺà¤ľà¤°":10970,"Ġà¤Ńà¤ĩà¤¸":10971,"à¤ģ'":10972,"Ġà¤ľà¤¯à¤µ":10973,"à¤ļà¤²à¤¤":10974,"à¤īà¤°à¤®":10975,"à¤īà¤ĺ":10976,"à¤īà¤¥à¤Ĺ":10977,"à¤ĩà¤¸à¤¨":10978,"Ġà¤¶à¤°à¤¤à¤¸":10979,"Ġà¤ıà¤ķà¤¤à¤®":10980,"à¤²à¤®à¤ľ":10981,"Ġà¤ķà¤®à¤²à¤¨":10982,"Ġà¤ªà¤¹à¤²à¤¬":10983,"à¤°à¤µà¤§":10984,"Ġà¤ľà¤¸à¤¦":10985,"Ġà¤Ĩà¤ľà¤²":10986,"Ġà¤ıà¤®à¤«":10987,"à¤£à¤ķà¤¦à¤ķ":10988,"Ġà¤®à¤¤à¤¹à¤°":10989,"à¤£à¤¯à¤Ĺà¤°":10990,"Ġ-âĢĺ":10991,"à¤ıà¤®à¤Ĩà¤Ī":10992,"Ġà¤Īà¤ľà¤²":10993,"Ġà¥§à¥ªà¥¦à¥¦":10994,"Ġà¤ľà¤¹à¤¦":10995,"Ġà¤ĭà¤¦":10996,"Ġà¥§à¥Ńà¥¯":10997,"ening":10998,"Ġlife":10999,"stit":11000,"Ġ//":11001,"à¤¥à¤²à¤®à¤§":11002,"ĠSm":11003,"ĠSep":11004,"à¥ĭâĢĻâĢĵ":11005,"Ġpar":11006,"Ġsite":11007,"Ð½Ð°":11008,"ĠBel":11009,"Ġà¤¤à¤¬à¤°à¤¬":11010,"elf":11011,"ãģĬ":11012,"Ġà¤ļà¤°à¤®à¤ªà¤¨":11013,"ĠKang":11014,"Ġ32":11015,"Ġà¥Ńà¥©à¥Ń":11016,"ĠïĢ":11017,"Ġwhen":11018,"ered":11019,"ĠMHz":11020,"Ġprotected":11021,"72":11022,"cont":11023,"sk":11024,"å¾":11025,"çī":11026,"Ġà´":11027,"à¤²à¤¹à¤¨":11028,"à¤²à¤ļà¤®":11029,"à¤²à¤¡à¤ª":11030,"à¤®à¤¶à¤ķ":11031,"à¤®à¤ľà¤¨à¤®":11032,"à¤¸à¤¤à¤¬":11033,"à¤¹à¤¸à¤²":11034,"Ġà¤°à¤¥à¤®":11035,"à¤ľà¤²à¤¬":11036,"à¤ľà¤°à¤¨":11037,"Ġà¤µà¤¦à¤¨":11038,"à¤¥à¤°à¤²":11039,"Ġà¤ľà¤¤à¤¨":11040,"Ġà¤ľà¤¯à¤²":11041,"à¤ļà¤¬à¤°":11042,"à¤Ľà¤ł":11043,"à¥Ĥà¤ĥ":11044,"à¤ĩà¤ªà¤°à¤¬":11045,"à¥Į|":11046,"Ġà¤ĸà¤¨à¤¨":11047,"à¤ªà¤¨à¤°à¤¤":11048,"Ġà¤ķà¤®à¤Ńà¤¨":11049,"à¥įà¥¤.":11050,"à¤¦à¤¨à¤Ĺà¤°":11051,"à¤°à¤®à¤®à¤®":11052,"Ġà¤Ĳà¤¨à¤¬à¤®":11053,"Ġà¥§à¥¯à¥¦à¥¦":11054,"Ġà¤ıà¤¸à¤Ł":11055,"à¤łà¤ķà¤¦":11056,"à¤¥à¤²à¤Ń":11057,"à¤¯à¤¯à¤¨à¤¸à¤®":11058,"à¤¯à¤¬à¤®":11059,"à¥ĩà¤ĤâĢĻ":11060,"Ġà¤Ĩà¤Īà¤ĵ":11061,"alt":11062,"à¤µà¤¨à¤ķà¤¥":11063,"Ġà¤ľà¤¡à¤¸":11064,"à¤¯à¤Łà¤¨à¤²à¤Ĺ":11065,"ĠMag":11066,"Ð¸ÑĩÐµÑģÐº":11067,"ĠDocu":11068,"Ġà¥©à¥®à¥¦":11069,"âĢĮà¤¾":11070,"Ġback":11071,"roid":11072,"ots":11073,"Ġint":11074,"email":11075,"ush":11076,"ĠWith":11077,"Ġà¤Ķà¤¸à¤¤à¤Ńà¤¨":11078,"ĠURL":11079,"à¤¸à¤«à¤°à¤®":11080,"Ġà¤¦à¤²à¤®à¤§":11081,"Ġà¤¬à¤ĸà¤¤à¤ķ":11082,"Ġexp":11083,"Ġà¤ħà¤®à¤¨à¤ļà¤¯à¤¨":11084,"å¤§":11085,"à¤¹à¤Ļà¤ķà¤Ļ":11086,"98":11087,"PAL":11088,"mà¤¸":11089,"yn":11090,"à¤®à¤Ĺà¤¤":11091,"à¤¤à¤¹à¤ķ":11092,"à¤µà¤¬à¤¨":11093,"Ġà¤ķà¤ĸà¤°":11094,"Ġà¤°à¤²":11095,"à¤Łà¤°à¤¤":11096,"Ġà¤¬à¤¯à¤²":11097,"à¤¬à¤°à¤£à¤®":11098,"à¤·à¤¸à¤¹à¤°":11099,"Ġà¤Ľà¤łà¤®":11100,"Ġà¤¦à¤²à¤¬à¤²":11101,"à¤ģâĢĿ":11102,"à¤°à¤ķà¤¤":11103,"à¤ĩà¤ıà¤¸":11104,"à¤°à¤®à¤²à¤Ĺ":11105,"Ġà¤ļà¤¸à¤ķ":11106,"à¤łà¤¨à¤²":11107,"à¤°à¤£à¤¤à¤°":11108,"à¤ľà¤¨à¤²à¤Ĺ":11109,"Ġà¤Łà¤ªà¤¨":11110,"à¤ķà¤®à¤Ĺ":11111,"...âĢĻ,":11112,"Ġà¤ħà¤¹à¤®à¤¤":11113,"Ġà¤Ķà¤·à¤¤à¤®":11114,"Ġà¤Ĩà¤®à¤¸":11115,"Ġà¤ħà¤ªà¤¬":11116,"à¤ļà¤ķà¤¸à¤®":11117,"à¤łà¤ķà¤µ":11118,"Ġà¥¦à¥ªà¥«":11119,"à¤ĩà¤®à¤¸à¤²":11120,"Ġà¤Ĩà¤ļà¤°à¤£à¤²":11121,"Ġser":11122,"Ġday":11123,"Ġdownload":11124,"ĠBit":11125,"ÑĢÐ°":11126,"Ġà¥©à¥ªà¥¦":11127,"Ġà¥«à¥¬à¥«":11128,"ĠLight":11129,"ĠGener":11130,"iva":11131,"ctor":11132,"uter":11133,"Ġgo":11134,"âĢįâĢį":11135,"ift":11136,"Ð¾Ð²Ð°Ð½":11137,"à¤ħà¤«à¤Ĺ":11138,"Ġà¤Ĩà¤ĩà¤¡à¤²à¤¬":11139,"Ġjerseys":11140,"Ġhelp":11141,"æľī":11142,"ĠProgram":11143,"140":11144,"Ð¾ÑĤÐ¾ÑĢ":11145,"à¤ıà¤¸à¤ĩà¤Ī":11146,"56":11147,"MP":11148,"ZMANDU":11149,"par":11150,"sha":11151,"wood":11152,"}.":11153,"æĶ":11154,"è§":11155,"ĠÃ©":11156,"à¤¾ï¿½...":11157,"à¤®à¤ªà¤ķ":11158,"à¤¸à¤«à¤²":11159,"à¤¹à¤ľà¤¨":11160,"Ġà¤¦à¤¦":11161,"Ġà¤Ĩà¤łà¤ķ":11162,"à¤ĸà¤Ł":11163,"Ġà¤ĸà¤ªà¤Ł":11164,"Ġà¤ħà¤¨à¤ľ":11165,"Ġà¤ıà¤ķà¤µà¤Ł":11166,"Ġà¤¸à¤¹à¤®":11167,"Ġà¤īà¤ªà¤ľà¤²":11168,"à¤ķà¤®à¤¸":11169,"Ġà¥©à¥Ńà¥«":11170,"à¤¦à¤¨à¤¦":11171,"à¤ķà¤°à¤£à¤ħà¤¨":11172,"à¤¡à¤²à¤¦":11173,"à¤¤à¤°à¤£à¤¸":11174,"à¤°à¤®à¤£à¤ª":11175,"à¤°à¤®à¤£à¤¸à¤®":11176,"à¥ĩà¥¤'":11177,"Ġà¤Ĺà¤£à¤¹à¤°":11178,"à¤µà¤¦à¤¹à¤ķ":11179,"Ġà¥¦à¥¦à¥¦":11180,"Ġà¤Ŀà¤¨à¤Ŀà¤¨":11181,"à¥¨à¥¦à¥¬à¥¬":11182,"Ġà¤¨à¤µà¤²à¤ķ":11183,"à¤Ķà¤ªà¤ļ":11184,"ĠSat":11185,"Ġà¤ıà¤«à¤µ":11186,"ĠBar":11187,"à¥Įà¤ģà¥¤\"":11188,"asc":11189,"igital":11190,"Ġget":11191,"à¦¨":11192,"ĠReview":11193,"à¤£à¤Ĺà¤Ļ":11194,"ĠÐ¾Ð±Ð»":11195,"ĠBIZMANDU":11196,"Th":11197,"UL":11198,"Â®":11199,"åĵ":11200,"éĿ":11201,"à¤°à¤ĺà¤°":11202,"à¤®à¤¹à¤ķ":11203,"à¤¯à¤°à¤¸à¤¹":11204,"à¤¹à¤§":11205,"à¤¦à¤¯à¤¤":11206,"à¤Ĺà¤¥":11207,"à¥Ī?":11208,"à¤ľà¤Ĺà¤°":11209,"Ġà¤Ľà¤Ńà¤¨":11210,"à¤ģÃ·":11211,"Ġà¤ħà¤¨à¤¦":11212,"Ġà¤®à¤¹à¤ľ":11213,"Ġà¤ıà¤ķà¤®à¤¨":11214,"Ġà¤¬à¤¨à¤Ĺ":11215,"à¤²à¤ķà¤¬à¤¹":11216,"à¤¯à¤®à¤Ń":11217,"à¤Ĺà¤°à¤¹à¤°":11218,"à¥Įà¤Ĥ...":11219,"à¤ħà¤¨à¤¨":11220,"à¤µà¤¨à¤ªà¤Ľ":11221,"à¤µà¤¨à¤ļà¤°":11222,"Ġà¤Ŀà¤ŀ":11223,"à¤¤à¤®à¤®":11224,"Ġà¤īà¤¦à¤¹":11225,"à¤®à¤²à¤¸":11226,"Ġ?!":11227,"Ġ?,âĢĻ":11228,"Ġà¤īà¤²à¤Ļ":11229,"Ġà¤ıà¤¨à¤ı":11230,"Ġà¤ıà¤¨à¤ıà¤ļà¤ķ":11231,"à¤Ĩà¤°à¤ıà¤²":11232,"ĠÐĳ":11233,"iti":11234,"Ġà¤¦à¤®à¤¨à¤®":11235,"ÐµÑĩ":11236,"Ġclick":11237,"Ġà¥©à¥Ńà¥¦":11238,"ĠLove":11239,"usic":11240,"Ġà¤²à¤¤à¤ªà¤¤":11241,"à¤Ĩà¤ĩà¤ĵà¤ıà¤®":11242,"ãĤ¤":11243,"Ġ.........":11244,"udd":11245,"à¤²à¤Ŀà¤£":11246,"Ġwhat":11247,"Ġà¤ĵà¤ĸà¤°à¤ª":11248,"à¤Łà¤ªà¤Łà¤ķà¤ķ":11249,"ĠDevelopment":11250,"RP":11251,"rib":11252,"yd":11253,"å¿":11254,"ĠĊ":11255,"à¤°à¤¯à¤®":11256,"à¤¿âĢĮ":11257,"à¥ĩà¥ģ":11258,"à¤²à¤£":11259,"à¥ģÃ·":11260,"Ġà¤¸à¤¨à¤²":11261,"à¤µà¤Ĺà¤£":11262,"Ġà¤Ĺà¤²à¤Ĺ":11263,"à¤¬à¤¬à¤Ī":11264,"à¤§à¤§":11265,"à¤ıà¤ķà¤µà¤Ł":11266,"Ġà¤ľà¤®à¤¨":11267,"à¤Ĥ)":11268,"à¤¡à¤£":11269,"à¤Ńà¤²à¤²":11270,"Ġà¤ĸà¤¯à¤°":11271,"Ġà¤ľà¤¨à¤ħà¤¨":11272,"à¤¯à¤®à¤°":11273,"Ġà¤¹à¤ľà¤°à¤¤":11274,"à¤ĵà¤²à¤®":11275,"à¤ĸà¤°à¤ª":11276,"à¤µà¤®à¤¯":11277,"Ġà¤Ĩà¤ĩà¤°à¤¨à¤ķ":11278,"à¤Łà¤²à¤µ":11279,"Ġà¤Ńà¤ĩà¤°à¤¹à¤¦":11280,"Ġà¤ĩà¤¤à¤°à¤ķ":11281,"Ġà¥¨à¥¨à¥¬":11282,"à¤®à¤Ĺà¤¨":11283,"âĢľà¥ģ":11284,"à¤Ĩà¤Īà¤ıà¤¨à¤ľ":11285,"Ġà¤¸à¤¹à¤°à¤¸":11286,"Ġmay":11287,"Ġà¤ħà¤Ļà¤Ĺ":11288,"ĠPower":11289,"à¤¦à¤µà¤²à¤Ĺ":11290,"ican":11291,"Ġsl":11292,"Ġworld":11293,"Ġà¤¥à¤°à¤¥à¤°":11294,"à¤°à¤¨à¤Ĺà¤°à¤²":11295,"umb":11296,"ÐµÐ¶":11297,"Ġâĸ":11298,"Ġà¤¡à¤Łà¤ķà¤®à¤¸":11299,"ĠïĤ":11300,"ĠOffice":11301,"Ø§Øª":11302,"ĠPlan":11303,"ĠArticle":11304,"à©Ģ":11305,"hako":11306,"ĠHimalayan":11307,"box":11308,"à¤°à¤Ĩà¤¨":11309,"à¤ķà¤Ĩà¤īà¤Ł":11310,"à¤¯à¤¨à¤®à¤¨":11311,"à¤¹à¤¶":11312,"à¤µà¤¯à¤¤":11313,"à¤Łà¤ħà¤Ł":11314,"Ġà¤¬à¤®à¤¬":11315,"à¤¬à¤Īà¤²":11316,"Ġà¤¤à¤®à¤¨":11317,"à¤¥à¤¨à¤¬":11318,"à¤ļà¤ĵà¤Ł":11319,"à¤Ńà¤ıà¤®":11320,"à¤īà¤ī":11321,"à¤ĩà¤ĵà¤ķ":11322,"Ġà¤ļà¤Łà¤¨":11323,"à¤¯à¤ķà¤ªà¤°":11324,"à¤°à¤£à¤¤":11325,"à¤ĺà¤°à¤¹à¤°":11326,"Ġà¤§à¤°à¤£":11327,"Ġà¤§à¤µà¤¨":11328,"Ġà¤Łà¤¨à¤¸à¤®":11329,"à¤¯à¤¸à¤¨à¤®":11330,"à¤Ŀà¤µ":11331,"à¤Ŀà¤«":11332,"à¥Įà¤Ĥ|":11333,"à¤ķà¤²à¤Ļ":11334,"à¤Łà¤ķà¤¹":11335,"Ġà¤Ńà¤ıà¤ľà¤¤":11336,"à¤¡à¤ķà¤¹à¤°":11337,"à¤ªà¤ķà¤ª":11338,"Ġà¤¬à¤°à¤¨":11339,"à¤¯à¤°à¤«à¤ķ":11340,"Ġà¥§à¥¯à¥©à¥©":11341,"à¤Ĺà¤¦à¤°à¤¬":11342,"à¥ĩà¤ģ-":11343,"Ġà¤¶à¤¹à¤°à¤¬à¤ľ":11344,"ader":11345,"Ġà¤¹à¤ķà¤ħà¤¨":11346,"ita":11347,"ĠDep":11348,"à¤ĩà¤«à¤Ł":11349,"à¥ĩ-'":11350,"Ð»Ñĥ":11351,"Ġhand":11352,"Ġà¥¯à¥®à¥ª":11353,"à¤§à¤¸à¤¤à¤ķ":11354,"Ġà¤¸à¤¤à¤¹à¤Ńà¤¨":11355,"Ġà¤¸à¤¡à¤ķà¤²à¤Ĺ":11356,"ills":11357,"Ø§Ùħ":11358,"à¤½à¤½à¤½":11359,"Ġhere":11360,"à§į":11361,"Ġsuryakhabar":11362,"41":11363,"71":11364,"78":11365,"BA":11366,"fer":11367,"xt":11368,"Ðĺ":11369,"à¤°à¤ľà¤®":11370,"à¥ĩà¥ĥ":11371,"à¤®à¤Ńà¤°":11372,"Ġà¤¸à¤¯à¤¨":11373,"Ġà¥¥":11374,"Ġà¤ķà¤°à¤¤":11375,"à¤Ĺà¤¸à¤®à¤ķ":11376,"Ġà¤¨à¤ķà¤Ł":11377,"à¤·à¤¸à¤²":11378,"à¤¥à¤¬à¤¹":11379,"à¤¶à¤°à¤¬à¤¹":11380,"Ġà¤²à¤¯à¤ķ":11381,"à¤īà¤Ńà¤°":11382,"Ġà¤ļà¤°à¤£à¤²":11383,"à¤¨à¤®à¤¤":11384,"Ġà¤ĩà¤¨à¤¸":11385,"à¤¯à¤¨à¤¤":11386,"à¤²à¤¨à¤¶":11387,"à¤Ĩà¤Ĺà¤¨":11388,"à¤¨à¤¸à¤¨à¤²":11389,"Ġà¤ªà¤¦à¤°":11390,"Ġà¤ħà¤ªà¤°à¤®":11391,"Ġà¥§à¥¯à¥§à¥ª":11392,"à¤ĺà¤Łà¤¨à¤ªà¤Ľ":11393,"Ġà¥¦à¥«à¥¦":11394,"à¤¿.)":11395,"à¤Ĥ.-":11396,"Ġà¥¨à¥®à¥¨":11397,"à¥¨à¥¦à¥¬à¥«":11398,"Ġà¥¨à¥©à¥§":11399,"Ġà¥¨à¥©à¥®":11400,"Ġà¤ľà¤¨à¤ķà¤µ":11401,"ĠSer":11402,"ĠPay":11403,"here":11404,"à¤ģ,âĢĿ":11405,"Ġab":11406,"Ġà¤ħà¤°à¤¬à¤¬":11407,"Ġà¤ħà¤°à¤¬à¤ªà¤¤":11408,"Ġà¤ľà¤¯à¤²à¤²":11409,"Ġà¤¶à¤°à¤¦à¤¸":11410,"ability":11411,"Ġdec":11412,"ĠØ´":11413,"Ġà¤²à¤µà¤ľà¤®":11414,"aja":11415,"Ġsuite":11416,"ĠEducation":11417,"ĠEnglish":11418,"Ġà¤§à¤Ļà¤§à¤Ļ":11419,"HE":11420,"IR":11421,"OT":11422,"SP":11423,"hor":11424,"oot":11425,"wa":11426,"yle":11427,"Ġà¥ĭ":11428,"à¥Ĩ":11429,"à¤®à¤°à¤¬à¤¹":11430,"à¤¯à¤²à¤¯à¤¬":11431,"à¤¦à¤°à¤®à¤£":11432,"à¤Ĺà¤¨à¤¬":11433,"Ġà¤®à¤łà¤ķ":11434,"à¤¬à¤®à¤²":11435,"à¤¥à¤«":11436,"à¤£à¤ľà¤¨":11437,"à¤ĸà¤Ńà¤°":11438,"à¤īà¤ªà¤²":11439,"Ġà¤¸à¤®à¤®":11440,"à¤ĩà¤ĺ":11441,"à¤¸à¤®à¤¯à¤ķ":11442,"à¤²à¤ķà¤¦à¤²à¤ķ":11443,"à¤°à¤²à¤Ĺà¤¤":11444,"Ġà¤¡à¤µà¤²":11445,"à¤®à¤ķà¤°à¤£à¤ķ":11446,"à¥Ńà¥¦à¥¦":11447,"à¤°à¤¬à¤¹à¤¨":11448,"Ġà¥«à¥¨à¥¦":11449,"à¤®à¤²à¤°":11450,"à¤®à¤²à¤ļ":11451,"Ġà¤ķà¤²à¤¹à¤ķ":11452,"Ġà¤®à¤²à¤¹":11453,"Ġà¤¬à¤¹à¤²":11454,"Ġà¤Ĩà¤®à¤ľà¤¨à¤®":11455,"à¤Łà¤²à¤¸":11456,"Ġà¥¤âĢĻ,":11457,"à¤¦à¤ķà¤¬":11458,"à¤¨à¤µà¤¬":11459,"à¤¨à¤µà¤¬à¤¸":11460,"Ġà¥§à¥¯à¥§à¥§":11461,"Ġà¤ıà¤¸à¤ıà¤²":11462,"Ġà¤ħà¤«à¤®":11463,"Ġà¤ľà¤Ĺà¤¬":11464,"Ġ...à¥¤":11465,"rem":11466,"à¤£à¤¨à¤Ĺà¤°à¤®":11467,"à¤ĩà¤ľà¤°à¤ķ":11468,"enn":11469,"Ġà¤ħà¤¡à¤ķà¤²":11470,"Ġmost":11471,"à¥ģà¥¤\"":11472,"ĠNay":11473,"Ġà¤®à¤Ļà¤¸":11474,"ÑĤÐ¾Ð¼":11475,"Ġcategory":11476,"ished":11477,"Ġà¤ıà¤¡à¤®à¤¨":11478,"agar":11479,"Ġob":11480,"Ġrem":11481,"à¤ĩà¤«à¤¸à¤ķ":11482,"ĠLam":11483,"ĠEm":11484,"ĠEve":11485,"Ġà¤¹à¤Ļà¤ķà¤Ļà¤µ":11486,"Ġ33":11487,"ĠVal":11488,"ãĤĵ":11489,"à¤Īà¤ķà¤²à¤²":11490,"ianp":11491,"äºĭ":11492,"ĠAdmin":11493,"ship":11494,"ĠArthako":11495,"à¤µà¤ªà¤°à¤°":11496,"feren":11497,"Ġà¤ħà¤Ĺà¤°à¤¬à¤¤":11498,"ĠArthakoartha":11499,".),":11500,"100":11501,"66":11502,"Ad":11503,"ST":11504,"Sp":11505,"ault":11506,"fr":11507,"ych":11508,"Äį":11509,"Å¾":11510,"Ġ________________":11511,"à¥įï¿½...":11512,"à¤®à¤ĺà¤°à¤®":11513,"à¤¯à¤°à¤¦":11514,"à¤¸à¤Łà¤°":11515,"Ġà¤¸à¤Łà¤°à¤ķ":11516,"Ġà¤ªà¤±":11517,"à¤¦à¤«":11518,"Ġà¤¨à¤ľà¤®":11519,"Ġà¤®à¤¤à¤®à¤§":11520,"Ġà¤µà¤ĸà¤¤":11521,"à¤ļà¤°à¤¸":11522,"à¤£à¤¯à¤ķà¤°":11523,"à¤īà¤Ĩà¤®":11524,"à¤«à¤°à¤¹à¤°":11525,"Ġà¤ıà¤ı":11526,"à¤°à¤¤à¤Ĺà¤¤":11527,"à¤¸à¤ķà¤ķà¤¹":11528,"Ġà¤¬à¤¢à¤¯":11529,"à¤ĩà¤¨à¤ħà¤¨":11530,"Ġà¤łà¤°à¤ķ":11531,"à¥ģà¤ģà¥¤âĢĻ":11532,"à¤¸à¤¨à¤¤à¤¨":11533,"à¤ĸà¤°à¤ļà¤¨":11534,"Ġà¤¦à¤°à¤Ńà¤¨":11535,"à¤²à¤Ĺà¤Ļ":11536,"Ġà¥¯à¥§à¥¦":11537,"à¤¹à¤¨à¤¬":11538,"Ġà¥§à¥©à¥¦à¥¦":11539,"à¤¸à¤¹à¤°à¤²":11540,"Ġà¤Ĺà¤łà¤¨à¤¬":11541,"ines":11542,"Ġà¥¨à¥§à¥ª":11543,"Ġà¤Ĭà¤¹":11544,"à¤µà¤¯à¤¨à¤¤à¤°":11545,"ansp":11546,"atus":11547,"à¤ĩà¤¡à¤¸":11548,"Ġlook":11549,"ste":11550,"à¤Ĺà¤ľà¤¹à¤°":11551,"icht":11552,"Ġà¥Ńà¥«à¥Ń":11553,"Ġsystem":11554,"ĠDay":11555,"ãģĨ":11556,"ĠFree":11557,"Ġà¥ªà¥¬à¥¦":11558,"à¤¡à¤µà¤ĸ":11559,"à¤·à¤¸à¤°à¤¹":11560,"ĠWeek":11561,"Ġhis":11562,"áĥĿ":11563,"ĠUK":11564,"à¥¦à¥¬à¥Ń":11565,"Ġà¥¦à¥«à¥©":11566,"Ġ98":11567,"à¤µà¤²à¤¨à¤¶":11568,"ĠChannel":11569,"Ġagain":11570,"iety":11571,"Ġschool":11572,"CP":11573,"News":11574,"for":11575,"rs":11576,"vol":11577,"word":11578,"Ã£":11579,"æ°":11580,"íķ":11581,"à¤¨à¤ļà¤¨":11582,"à¤ķà¤Ŀ":11583,"à¥ĭ......":11584,"à¤²à¤Ĺà¤°à¤²":11585,"à¥ģ..":11586,"Ġà¤¸à¤µà¤°":11587,"Ġà¤¨à¤²à¤¸":11588,"à¤¬à¤ķà¤ķ":11589,"à¤·à¤°à¤¸à¤¹":11590,"à¤¶à¤¤à¤¨":11591,"Ġà¤ľà¤ľà¤®":11592,"Ġà¤²à¤®à¤¤à¤¨":11593,"à¤¡à¤¸à¤²":11594,"à¤¡à¤¬à¤°":11595,"à¤¡à¤¹à¤µ":11596,"à¥Ĥà¥ģ":11597,"Ġà¤īà¤Ńà¤¯":11598,"à¤īà¤¦à¤°":11599,"à¤°à¤ķà¤¸":11600,"à¤¯à¤ķà¤ħà¤¨":11601,"à¤°à¤¤à¤Ńà¤¨":11602,"à¥ĥà¤¾":11603,"à¤ĺà¤µà¤¦":11604,"Ġà¤§à¤ªà¤ķ":11605,"Ġà¤Łà¤¨à¤Ńà¤¨":11606,"à¤°à¤¹à¤ľ":11607,"à¤°à¤¦à¤¸":11608,"Ġà¤ĩà¤¸à¤¹":11609,"Ġà¤¸à¤¬à¤²à¤¤":11610,"Ġà¤īà¤¤m":11611,"à¤Ĩà¤ĩà¤²":11612,"à¤Ĺà¤ķà¤Ļ":11613,"Ġà¤ķà¤²à¤¶à¤ķ":11614,"Ġà¤Ķà¤¤":11615,"Ġà¤ªà¤¦à¤ķà¤®":11616,"à¤¨à¤µà¤¦":11617,"Ġà¤ħà¤²à¤ª":11618,"Ġà¥§à¥®à¥¬à¥¦":11619,"Ġà¤Ńà¤Īà¤¹":11620,"Ġà¥¦à¥©à¥«":11621,"à¤Ĩà¤Īà¤ıà¤®":11622,"à¤ĩà¤¡à¤¹à¤°":11623,"Ġà¤¦à¤¶à¤ķà¤Ń":11624,"à¤°à¤¥à¤®à¤²":11625,"ĠPe":11626,"ĠTra":11627,"Ð½Ð°Ñı":11628,"Ġfam":11629,"ille":11630,"ĠâĢĻ,":11631,"room":11632,"urk":11633,"Ġintern":11634,"à¥ĭ?'":11635,"à¤ĺà¤Łà¤¨à¤®":11636,"Ġver":11637,"à¤ĩà¤ļà¤¢":11638,"ified":11639,"Ġ70":11640,"à¥¨à¥¦à¥¦à¥«":11641,"Ġà¤¦à¤®à¤ķà¤²à¤²":11642,"okh":11643,"ĠMedianp":11644,"Ġà¤ıà¤¨à¤ıà¤«à¤Ĩà¤°à¤ıà¤¸":11645,"54":11646,"58":11647,"70":11648,"76":11649,"ced":11650,"Ð¡":11651,"å±":11652,"à¤¾<":11653,"à¥ĭà¥ĩà¥¤":11654,"à¤¤à¤¡à¤ķ":11655,"à¤µà¤Ĺà¤¨":11656,"à¤ľà¤®à¤¨":11657,"à¤¬à¤¯":11658,"à¤§à¤¬à¤¹":11659,"Ġà¤¤à¤Ĺà¤¡":11660,"à¤ļà¤¹à¤ľ":11661,"Ġà¤īà¤¸à¤°":11662,"Ġà¤ļà¤ķà¤®à¤¨":11663,"Ġà¤ĸà¤ŀ":11664,"à¤¢à¤µ":11665,"à¤¢à¤¸à¤¯":11666,"Ġà¤ĺà¤Łà¤ķà¤ķ":11667,"Ġà¤¸à¤¹à¤¸à¤®":11668,"à¤¯à¤¸à¤Ļ":11669,"à¤ĩà¤¨à¤°à¤¹à¤°":11670,"âĢĵâĢľ":11671,"à¤¤à¤ķà¤ª":11672,"à¤®à¤¤à¤ªà¤Ľ":11673,"à¤¤à¤¨à¤Ĺà¤°à¤®":11674,"Ġà¤Ĩà¤µà¤°à¤®":11675,"à¤Ĺà¤²à¤¦":11676,"Ġà¤¸à¤®à¤¯à¤¹à¤°":11677,"Ġà¤Ķà¤¸":11678,"Ġà¤Ķà¤¡":11679,"Ġà¤ĺà¤°à¤ľ":11680,"Ġà¥©à¥¦à¥®":11681,"à¥¨à¥¦à¥ªà¥®":11682,"Ġà¤¨à¤°à¤¹à¤²":11683,"Ġ2007":11684,"Ð¸Ñİ":11685,"Ġsom":11686,"ĠÂ¤":11687,"ĠBy":11688,"ĠBrow":11689,"à¤¨à¤Ńà¤µà¤¨à¤¸":11690,"ÑģÐ¿":11691,"Ġà¤ĵà¤Ńà¤°à¤¹":11692,"Ġà¤ıà¤ķà¤¦à¤¶à¤ķ":11693,"ĠRating":11694,"ÑĥÐ¿":11695,"Ð°Ð¿":11696,"ocus":11697,"áŀ¶":11698,"ĠAndroid":11699,"Ġturntable":11700,"RI":11701,"iber":11702,"à¤¨à¤ĺà¤°":11703,"à¤¤à¤ĵà¤Ł":11704,"à¤¯à¤ħà¤Ń":11705,"à¤¹à¤¥":11706,"à¤ıà¤«à¤¬":11707,"à¤ıà¤ıà¤«à¤¸":11708,"Ġà¤®à¤ľà¤Ĺ":11709,"Ġà¤ľà¤ľà¤¹à¤°":11710,"à¤īà¤ĺà¤°":11711,"Ġà¤¶à¤¤à¤¬":11712,"Ġà¤ıà¤ıà¤¸":11713,"Ġà¤ıà¤¯à¤°à¤®":11714,"à¤īà¤¨à¤ª":11715,"Ġà¤ªà¤°à¤ªà¤°":11716,"à¤Ļà¤¬à¤ľ":11717,"à¤µà¤¸à¤¦à¤¸":11718,"Ġà¤Łà¤¸à¤®à¤¸":11719,"à¤²à¤®à¤ł":11720,"Ġà¤Ĩà¤¯à¤°":11721,"à¤µà¤¨à¤ļà¤ķ":11722,"...,":11723,"à¤Łà¤°à¤°":11724,"à¤¶à¤¨à¤¸à¤¹":11725,"à¤§à¤¨à¤Ĺà¤°à¤®":11726,"à¤ĵà¤ľ":11727,"Ġà¤¦à¤°à¤ª":11728,"à¤¹à¤¨à¤ļà¤¨":11729,"Ġà¤®à¤¤à¤¸":11730,"à¤ļà¤ķà¤¬à¤§":11731,"à¥ģ,'":11732,"Ġà¤ıà¤¨à¤Ń":11733,"Ġà¤ıà¤¨à¤Ĩà¤Ī":11734,"à¤¶à¤²à¤Ł":11735,"à¤ľà¤¦à¤°à¤µ":11736,"à¥¨à¥¦à¥¬à¥¦":11737,"à¥¨à¥¦à¥¬à¥Ń":11738,"Ġà¥¨à¥Ńà¥¬":11739,"Ġlist":11740,"Ġà¤¸à¤¹à¤°à¤¤":11741,"str":11742,"ĠService":11743,"Ġà¤®à¤Ĺà¤°à¤¸":11744,"Ġà¤¬à¤¡à¤¹à¤°":11745,"à¤¤à¤¹à¤Łà¤¬":11746,"à¤¦à¤¨à¤ķà¤°":11747,"Ð¸Ð´":11748,"Ġda":11749,"Ġdif":11750,"anda":11751,"à¤°à¤ľà¤¨à¤¹à¤°":11752,"ura":11753,"spot":11754,"Ġthem":11755,"Ġthere":11756,"Ġà¤ıà¤¯à¤°à¤«":11757,"ĠJav":11758,"Ġà¤ħà¤«à¤°à¤ħà¤¨":11759,"ĠÑģÐ¿":11760,"Ġà¤¸à¤¨à¤®à¤ķ":11761,"Ġcons":11762,"ulture":11763,"Ġà¤¨à¤Ŀà¤°":11764,"ĠPlay":11765,"Ġdisc":11766,"Ġà¤Ĩà¤Īà¤ıà¤¸à¤ĵ":11767,"Ġà¤ıà¤¸à¤ıà¤®à¤ıà¤¸à¤®":11768,"Ġà¥łà¤·":11769,"ĠISO":11770,"UT":11771,"ii":11772,"ĶĤ":11773,"à¥į)à¥¤":11774,"à¤°à¤īà¤¨":11775,"à¤¿à¥Ī":11776,"à¥ĩ.....":11777,"à¤²à¤ªà¤¨":11778,"à¤²à¤ħà¤Ń":11779,"à¤¤à¤µà¤ķ":11780,"à¥Ģ.....":11781,"à¤µà¤¯à¤¸":11782,"Ġà¤Ĺà¤¦à¤°":11783,"à¤Ĺà¤§":11784,"à¤Ĺà¤£à¤ķ":11785,"Ġà¤¦à¤¹à¤ķ":11786,"Ġà¤Ĩà¤Ĭà¤¨":11787,"Ġà¤ļà¤¬":11788,"à¤ľà¤¨à¤µà¤°":11789,"à¤°à¤²à¤®":11790,"Ġà¤īà¤ªà¤ľà¤®":11791,"à¤ħà¤¸à¤¨":11792,"à¤µà¤¨à¤ªà¤°":11793,"Ġà¤ľà¤¸à¤ª":11794,"à¤¶à¤¨à¤Ĺà¤°":11795,"Ġà¤ĺà¤°à¤ħà¤Ĺ":11796,"Ġà¤ıà¤®à¤ıà¤®à¤ķ":11797,"Ġà¤¨à¤Ńà¤ĩà¤°à¤¹":11798,"à¤ļà¤®à¤Ĺ":11799,"Ġà¥¨à¥«à¥¨":11800,"à¤ĩà¤ķà¤Ł":11801,"rent":11802,"Ġà¥¨à¥§à¥¨":11803,"Ġà¤Ĭà¤¬":11804,"à¤ļà¤°à¤°":11805,"Ġà¥¨à¥ªà¥¨":11806,"à¤¡à¤°à¤¸à¤®":11807,"Ġà¥¨à¥®à¥«":11808,"Ġà¥¨à¥®à¥Ń":11809,"ald":11810,"Ġà¤®à¤¦à¤¨à¤®à¤£":11811,"à¤¾à¥¤âĢĿ":11812,"Ġ/>":11813,"à¤Ĭà¤¦à¤ķ":11814,"Ġà¤¦à¤®à¤¨à¤²":11815,"ĠMe":11816,"ĠMon":11817,"Ġac":11818,"Ġsm":11819,"Ġfull":11820,"ĠHer":11821,"___":11822,"Ġà¤·à¤£":11823,"come":11824,"amro":11825,"ãģĤ":11826,"ĠKh":11827,"essage":11828,"artment":11829,"à¤¾à¥Īà¤ģ,":11830,"Ġ198":11831,"uper":11832,"Ġà¤¬à¤Ĺà¤°à¤«":11833,"restha":11834,"ification":11835,"Ġà¤®à¤°à¤¹à¤Ł":11836,"Ġà¤ĸà¤Łà¤¨à¤ªà¤Łà¤¨":11837,"Ġminutes":11838,"800":11839,"CL":11840,"Home":11841,"Lire":11842,"RE":11843,"ique":11844,"sch":11845,"zy":11846,"à®":11847,"Ġ×":11848,"Ġà¥Ī":11849,"Ġà¤Ĺà¤¯à¤°":11850,"Ġà¤¨à¤¢à¤²":11851,"Ġà¤ħà¤²à¤ķà¤¤":11852,"Ġà¤¹à¤µà¤¸":11853,"à¤ģâĢĿ,":11854,"à¤Īà¤ĵà¤ķ":11855,"à¤¡à¤ķà¤®":11856,"à¤īà¤¨à¤°":11857,"à¤īà¤¨à¤Ńà¤¨":11858,"à¤¨à¤²à¤¤":11859,"Ġà¤ıà¤ķà¤ĺà¤£":11860,"âĢĻ...":11861,"à¤ķà¤²à¤°":11862,"à¤Ĩà¤¤à¤ķ":11863,"Ġà¥¬à¥Ńà¥«":11864,"Ġà¤«à¤°à¤°":11865,"à¤µà¤°à¤£à¤ªà¤¤":11866,"Ġà¤Ĳà¤¨à¤¸":11867,"à¤¸à¤°à¤ľà¤¸":11868,"à¤ıà¤¸à¤¨à¤®":11869,"Ġà¤ĺà¤°à¤®à¤§":11870,"à¤µà¤¯à¤¨à¤¸à¤®":11871,"Ġà¥¨à¥ªà¥¬":11872,"Ġà¤ľà¤µà¤¸à¤®":11873,"Ġà¤¶à¤¹à¤°à¤¦":11874,"ĠÐĺ":11875,"Ġdays":11876,"Ġdata":11877,"ĠÂ©":11878,"Ġfile":11879,"Ġà¤Ńà¤ĩà¤Ĩà¤ıà¤ķ":11880,"ãģı":11881,"à¤¾à¥Īà¤ĤâĢĵ":11882,"ĠLtd":11883,"ĠOf":11884,"Ġincl":11885,"ems":11886,"à¤Ĩà¤¤à¤Ļ":11887,"ÑĥÐ»":11888,"ivity":11889,"à¤ļà¤¥à¤°à¤²":11890,"ody":11891,"à¥¨à¥¦à¥¦à¥¬":11892,"ĠiPhone":11893,"Ð°Ð¼Ð¸":11894,"ĠNEWS":11895,"lands":11896,"ä¼ļ":11897,"ĠWordPress":11898,"On":11899,"].":11900,"cell":11901,"kl":11902,"kan":11903,"mi":11904,"Î½":11905,"à¥¥":11906,"à¤¨à¤¥à¤°":11907,"à¤¿|":11908,"à¤®à¤²à¤¨":11909,"à¤®à¤²à¤¬":11910,"à¤¤à¤ªà¤¨":11911,"à¤¹à¤Łà¤²":11912,"à¤¦à¤°à¤¦":11913,"à¤Ĺà¤¨à¤ª":11914,"à¤Łà¤ªà¤¨":11915,"Ġà¤¨à¤°à¤ķà¤ķ":11916,"Ġà¤¬à¤ł":11917,"Ġà¤ħà¤Ĺà¤²":11918,"à¤Ńà¤°à¤£à¤ķ":11919,"à¤ĸà¤¤à¤°":11920,"Ġà¤¯à¤µ":11921,"Ġà¤¯à¤¶à¤ķ":11922,"à¤°à¤ķà¤¬":11923,"à¤¨à¤ķà¤¹à¤°":11924,"à¤¢à¤¦":11925,"Ġà¤ķà¤®à¤²à¤¬à¤ľ":11926,"à¥Ģ,...":11927,"à¤°à¤µà¤®":11928,"à¤®à¤¨à¤¬":11929,"à¤ķà¤°à¤£à¤²à¤Ĺ":11930,"Ġà¤ħà¤¬à¤ļ":11931,"à¤¶à¤®à¤¬à¤¹":11932,"Ġà¤¬à¤²à¤°à¤ķ":11933,"à¤¨à¤¬à¤ľ":11934,"Ġà¤Ĩà¤¶à¤¬à¤¹":11935,"à¤®à¤¸à¤Ļà¤²":11936,"Ġà¤ĭà¤£à¤¸":11937,"à¥¨à¥¦à¥«à¥®":11938,"Ġà¤®à¤¦à¤°à¤²":11939,"Ġà¤ľà¤²à¤Ńà¤£":11940,"ather":11941,"Ġà¥©à¥§à¥«":11942,"ĠCor":11943,"ĠAb":11944,"Ġ2000":11945,"Ġsol":11946,"Ġà¤ªà¤¸à¤²à¤¦":11947,"ĠBu":11948,"ĠDi":11949,"Ġà¥©à¥ªà¥ª":11950,"ased":11951,"ĠHol":11952,"à¤Ĩà¤ľà¤Ń":11953,"ãģķ":11954,"Ġrec":11955,"à¤īà¤ľà¤°à¤®":11956,"Ġinformation":11957,"Ġ39":11958,"ÑĥÐ±":11959,"ĠInformation":11960,"overn":11961,"Ġà¥¦à¥ªà¥¨":11962,"Ġ75":11963,"arket":11964,"ertain":11965,"Ġzu":11966,"Ġà¤Ĩà¤ĩà¤ĵà¤ıà¤®à¤ķ":11967,"Ġà¤Ńà¤Ĺà¤¤à¤¸":11968,"\\\\\\'":11969,"Ġcaption":11970,"blogspot":11971,"divide":11972,"ĠReviewed":11973,"38":11974,"je":11975,"rd":11976,"Îµ":11977,"è®":11978,"ĩà¤¨":11979,"à¤°à¤ı":11980,"à¤ķà¤¨à¤¸à¤¹":11981,"à¤²à¤²à¤ķ":11982,"à¤¯à¤µà¤ķ":11983,"à¥Ģ....":11984,"Ġà¤¸à¤²à¤ķ":11985,"à¤ªà¤ªà¤¶":11986,"Ġà¤¨à¤¬à¤²":11987,"Ġà¤Ńà¤¯à¤°":11988,"Ġà¤Ńà¤Ĺà¤¤à¤²":11989,"Ġà¤¹à¤°à¤®":11990,"à¤¶à¤¯à¤¤":11991,"Ġà¤²à¤¯à¤°":11992,"à¤ļà¤Łà¤®":11993,"à¤Īà¤¨à¤°":11994,"à¤¡à¤ĺà¤Ł":11995,"à¥ĤâĢľ":11996,"à¤īà¤ľà¤¸":11997,"à¤«à¤¡":11998,"Ġà¤¶à¤Ł":11999,"Ġà¤¶à¤Ń":12000,"Ġà¤¥à¤ļà¤ķ":12001,"à¤ľà¤¨à¤°à¤²":12002,"Ġà¤ıà¤ķà¤²à¤µ":12003,"Ġà¤§à¤°à¤®à¤°":12004,"à¤ŀà¤¸à¤®":12005,"à¤°à¤¸à¤ļ":12006,"Ġà¤īà¤ªà¤ľà¤¹à¤°":12007,"Ġà¤¸à¤°à¤ķà¤°":12008,"à¤ªà¤¤à¤²":12009,"Ġà¤Ĩà¤¯à¤¬":12010,"à¤ļà¤¨à¤¤à¤°":12011,"à¤¸à¤²à¤¬":12012,"à¤°à¤µà¤ļà¤¨à¤ķ":12013,"Ġà¤Ĩà¤°à¤ıà¤¸":12014,"à¤Ĩà¤¯à¤®":12015,"Ġà¤ĵà¤łà¤²":12016,"à¤¶à¤¨à¤°à¤¤":12017,"Ġà¤¬à¤²à¤°à¤¹à¤°":12018,"à¤¶à¤¤à¤µ":12019,"à¤ĩà¤²à¤¸à¤®":12020,"Ġà¥§à¥¯à¥§à¥®":12021,"à¤µà¤ªà¤ŀ":12022,"Ġà¤§à¤¨à¤Ĺà¤¡":12023,"Ġà¤ħà¤«à¤°à¤®":12024,"Ġà¥©à¥¦à¥¯":12025,"à¤ľà¤¯à¤¶":12026,"Ġà¤Īà¤Ĩà¤Īà¤ı":12027,"Ġà¥§à¥®à¥§à¥«":12028,"ret":12029,"à¤¯à¤¬à¤¤":12030,"à¤ĩà¤¨à¤²à¤Ĺ":12031,"Ġà¤¤à¤¹à¤ħà¤¨":12032,"Ġà¥¨à¥©à¥¬":12033,"Ġà¥¨à¥¬à¥®":12034,"Ġà¤ľà¤¨à¤ķà¤¬à¤¹":12035,"ĠSand":12036,"Ġà¤ªà¤¹à¤²à¤¹à¤°":12037,"à¤ľà¤¬à¤¸à¤®":12038,"à¤īà¤ªà¤¶":12039,"ĠTags":12040,"à¤ıà¤«à¤Ĩà¤°":12041,"Ġpara":12042,"Ġplease":12043,"lege":12044,"Ġà¥©à¥¬à¥ª":12045,"Ġà¤īà¤ªà¤ķà¤°à¤£à¤¬":12046,"Ġà¥©à¥Ńà¥Ń":12047,"comm":12048,"unction":12049,"à¤¾à¥Īà¤Ĥ-":12050,"Ġà¤ĥâĢĵ":12051,"ĠList":12052,"Ġà¤Ĩà¤ĩà¤¸à¤«à¤²":12053,"à¸Ķ":12054,"à¤ıà¤ļà¤ıà¤¸":12055,"ĠInter":12056,"ĠVis":12057,"Ġthan":12058,"Ġthrough":12059,"à¤¯à¤¦à¤²à¤¹à¤°":12060,"uman":12061,"umber":12062,"à¤ĩà¤°à¤¸à¤¬":12063,"Ġà¤ıà¤¨à¤Ĩà¤°à¤ıà¤¨à¤®":12064,"ĠReport":12065,"Ġà¤Ĺà¤¡à¤Ĺà¤¡":12066,"à¥¨à¥¦à¥¦à¥®":12067,"2016":12068,"ĠState":12069,"Ġje":12070,"ĠÐºÐ¾Ð¼":12071,"ĠÑĤÐ°Ðº":12072,"Ã³n":12073,"ĠÐŁÑĢ":12074,"Ð°Ð±Ð¾ÑĤ":12075,"Ġà¤¸à¤¤à¤²à¤ľ":12076,"ĠSurg":12077,"ĠÏĢ":12078,"åĿª":12079,"];":12080,"den":12081,"ues":12082,"ÄŁ":12083,"ÛĴ":12084,"æķ":12085,"èĩ":12086,"à¤¾âĢį.":12087,"à¤¿....":12088,"à¥ĩï¿½":12089,"à¤¯à¤¯à¤®à¤¬":12090,"Ġà¤ªà¤ļà¤²":12091,"à¤¦à¤µà¤¨":12092,"Ġà¤ķà¤Ĺ":12093,"à¥ĪâĢľ":12094,"Ġà¤¨à¤ħà¤²":12095,"Ġà¤ħà¤ľà¤°":12096,"à¤¬à¤¸à¤ª":12097,"à¤·à¤°à¤¬":12098,"à¤§à¤ħà¤¨":12099,"Ġà¤Ĩà¤Ĺà¤°":12100,"Ġà¤ľà¤¯à¤¤":12101,"à¤Īà¤®à¤¨":12102,"à¤¡à¤ªà¤¥":12103,"à¤Ľà¤ª":12104,"à¤Ńà¤°à¤¬":12105,"à¥Įà¥¤âĢĿ":12106,"Ġà¤ħà¤¨à¤Ł":12107,"Ġà¤«à¤¨à¤ª":12108,"à¤ĺà¤°à¤Ń":12109,"Ġà¤®à¤¹à¤¤à¤°":12110,"Ġà¤¸à¤¹à¤¶":12111,"à¤ªà¤¤à¤¬":12112,"à¤¯à¤¨à¤µ":12113,"Ġà¤īà¤¦à¤¯à¤¬à¤¹":12114,"à¤¦à¤ķà¤¸":12115,"Ġ,âĢĺ":12116,"Ġà¤¸à¤¡à¤ķà¤Ńà¤¨":12117,"Ġà¤§à¤¨à¤¬":12118,"Ġà¤ıà¤¸à¤ĵà¤ıà¤¸":12119,"Ġà¥§à¥®à¥¯à¥¦":12120,"à¤ĺà¤°à¤¸à¤®":12121,"Ġà¥¨à¥¨à¥¯":12122,"atic":12123,"Ġà¤Ńà¤Ĺà¤µà¤¦":12124,"ĠÐĵ":12125,"ĠSk":12126,"ĠSkype":12127,"Ġà¤¦à¤¶à¤ķà¤¬":12128,"Ġà¤¨à¤Ĩà¤īà¤¦":12129,"Ġdep":12130,"ĠIf":12131,"Ġ&#":12132,"ids":12133,"Ġà¤²à¤ĸà¤¨à¤ª":12134,"à¨¿":12135,"ä¸Ĭ":12136,"rypt":12137,"çĶŁ":12138,"ĠIndia":12139,"ĠMinistry":12140,"-âĢĺ":12141,"42":12142,"LO":12143,"OD":12144,"SA":12145,"ole":12146,"ye":12147,"ÅĽ":12148,"Ñĳ":12149,"īĪ":12150,"à¤¯à¤¥à¤²":12151,"Ġà¤¸à¤ī":12152,"à¤¹à¤²à¤¯à¤ķ":12153,"à¤µà¤®à¤®":12154,"à¤µà¤ľà¤²":12155,"Ġà¤°à¤ľà¤ķ":12156,"Ġà¤¨à¤ķà¤²":12157,"Ġà¤¨à¤ªà¤ķ":12158,"Ġà¤¬à¤Łà¤°à¤«":12159,"Ġà¤ħà¤²à¤¬":12160,"Ġà¤ħà¤ķà¤®à¤ķ":12161,"Ġà¤¹à¤łà¤ķ":12162,"Ġà¤¤à¤µà¤¸à¤®":12163,"Ġà¤īà¤¢":12164,"à¤īà¤¸à¤°":12165,"à¤ĩà¤¸à¤¹":12166,"Ġà¤ĺà¤°à¤¯":12167,"Ġà¤ıà¤ķà¤«":12168,"Ġà¤¬à¤¨à¤°":12169,"Ġà¤§à¤µà¤¨à¤²":12170,"Ġà¤ĩà¤¹":12171,"à¤ķà¤®à¤µ":12172,"Ġà¤ħà¤¸à¤²à¤®":12173,"à¤µà¤°à¤ªà¤°":12174,"à¤µà¤¨à¤Ńà¤°à¤ķ":12175,"à¤·à¤ķà¤°":12176,"à¤Ĩà¤ĩà¤¨":12177,"Ġà¥ªà¥¨à¥¦":12178,"Ġà¤ĵà¤ľà¤¸":12179,"Ġà¤ĵà¤®à¤¸à¤¤":12180,"à¤§à¤¨à¤¤à¤°":12181,"à¤ĵà¤ı":12182,"Ġà¥Ńà¥©à¥¦":12183,"Ġà¤ħà¤µà¤¤à¤°":12184,"à¤²à¤¤à¤¸":12185,"à¤¨à¤ªà¤¦à¤µ":12186,"à¤¯à¤¯à¤¨à¤¸":12187,"Ġ!,":12188,"à¤ķà¤¸à¤Ļ":12189,"à¤ĸà¤ķà¤¦":12190,"à¤¯à¤Łà¤¨à¤¨":12191,"à¥¨à¥¦à¥ªà¥¬":12192,"Ġà¥¨à¥¯à¥¨":12193,"Ġà¤Ĺà¤²à¤¹à¤¤":12194,"Ġmet":12195,"Ġà¥©à¥«à¥¦à¥¦":12196,"ĠCop":12197,"Ġsome":12198,"à¤®à¤°à¤£à¤¹à¤°":12199,"Ġà¤¡à¤²à¤°à¤¬":12200,"Ġblog":12201,"à¸£":12202,"Ġà¤ĸà¤¬à¤°à¤¸":12203,"à¥ĩ?âĢĿ":12204,"à¤ľà¤Ĺà¤¢à¤¸à¤®":12205,"Ġve":12206,"ĠâĤ¬":12207,"ante":12208,"ĠÐ²Ñģ":12209,"Ġprogram":12210,"Ġà¤ıà¤¯à¤°à¤¬à¤¸à¤ķ":12211,"Ġà¤Ĩà¤¡à¤Ńà¤°":12212,"ĠAnn":12213,"ĠUSB":12214,"Ġà¤ļà¤¹à¤²à¤ªà¤¹":12215,"ĠBeach":12216,"áŁĴ":12217,"âĢĶâĢĶâĢĶâĢĶ":12218,"æĪĳ":12219,"ĠCyber":12220,"FA":12221,"NC":12222,"RA":12223,"aa":12224,"hot":12225,"ior":12226,"lar":12227,"mas":12228,"Å¼":12229,"éĻ":12230,"ĻĤ":12231,"à¤ķà¤§à¤®":12232,"à¤²à¤°à¤¤":12233,"à¤¦à¤Ĺà¤°":12234,"Ġà¤Ĺà¤¹à¤¤":12235,"Ġà¥¤..":12236,"à¤Łà¤ľà¤¨":12237,"Ġà¤¨à¤¤à¤°":12238,"Ġà¤Ńà¤ĩà¤¨à¤¨":12239,"Ġà¤µà¤²à¤ķ":12240,"à¤¬à¤Ŀ":12241,"à¤īà¤Ńà¤¨":12242,"à¤°à¤®à¤¬à¤ľ":12243,"à¥ĮâĢĮà¤Ĥ":12244,"Ġà¤¶à¤¯à¤¨":12245,"à¤¸à¤ķà¤¦":12246,"à¤¢à¤¸":12247,"Ġà¤ıà¤ķà¤¬à¤°":12248,"à¤ªà¤¨à¤ĩà¤¤à¤°":12249,"Ġà¤ķà¤°à¤Ľà¤²":12250,"à¤ķà¤²à¤¨à¤ķà¤°":12251,"Ġà¥¨à¥¦à¥¯":12252,"Ġà¤īà¤¦à¤£":12253,"à¤ķà¤°à¤µà¤°":12254,"à¤¡à¤ķà¤¨":12255,"à¤¦à¤¨à¤°":12256,"à¤Łà¤®à¤°":12257,"Ġà¤Ĩà¤®à¤¸à¤°":12258,"Ġà¤Ĳà¤¨à¤µ":12259,"à¤²à¤¸à¤ĸ":12260,"Ġà¥¨à¥«à¥©":12261,"Ġà¤ķà¤ªà¤¨à¤®":12262,"à¤ľà¤¯à¤¬à¤¹":12263,"Ġà¤Īà¤µ":12264,"Ġà¥§à¥¬à¥§à¥¦":12265,"à¤Īà¤¨à¤Ń":12266,"à¤¾)à¥¤":12267,"Ġà¥¨à¥¯à¥¯":12268,"Ġà¥¨à¥¬à¥Ń":12269,"Ġà¤ľà¤²à¤ªà¤°":12270,"ĠÐ£":12271,"Ġà¥©à¥©à¥«":12272,"ĠAct":12273,"ĠDo":12274,"001":12275,"nbs":12276,"à¥§à¥©à¥¨":12277,"Ġform":12278,"ĠÑģÐ¾":12279,"ffect":12280,"ĠâĢłâĢĻ":12281,"Ġà¤ıà¤®à¤ıà¤ıà¤ļà¤ķ":12282,"ervices":12283,"Ġà¤Ĩà¤ĩà¤ĵà¤ıà¤¸":12284,"Ġà¤Ĩà¤ĩà¤ĵà¤ıà¤®à¤²":12285,"Ġimp":12286,"Ġtrans":12287,"Ġdesign":12288,"Ar":12289,"PA":12290,"]]":12291,"ger":12292,"za":12293,"à¤²à¤Ńà¤ķ":12294,"à¤®à¤¥à¤¨":12295,"à¤¸à¤Ŀ":12296,"à¤µà¤Ľ":12297,"Ġà¤ķà¤°à¤¸à¤¹":12298,"à¤Łà¤ĩà¤£":12299,"Ġà¤¨à¤īà¤¤":12300,"Ġà¤¨à¤łà¤¹à¤°":12301,"à¤¬à¤¥":12302,"à¤¬à¤ķà¤²":12303,"à¤§à¤Ńà¤ķ":12304,"à¤¶à¤ļ":12305,"à¤¶à¤¦à¤¤":12306,"à¤¡à¤ªà¤¬":12307,"à¤ĸà¤¤à¤®":12308,"Ġà¤¯à¤®à¤ķ":12309,"à¤°à¤ķà¤¤à¤¤":12310,"Ġà¤¶à¤°à¤®":12311,"Ġà¤ıà¤«à¤ķ":12312,"Ġà¤ªà¤°à¤ĸ":12313,"à¤°à¤£à¤ª":12314,"à¤°à¤£à¤µà¤¸":12315,"à¤¨à¤®à¤Ĺà¤°à¤²":12316,"Ġà¤®à¤¹à¤«":12317,"Ġà¤ıà¤ķà¤µ":12318,"Ġà¤ıà¤ķà¤¬à¤¦":12319,"Ġà¤¸à¤ķà¤¤":12320,"à¤ķà¤²à¤Ŀ":12321,"à¤ķà¤²à¤¨à¤¬":12322,"à¤ħà¤¥à¤µ":12323,"à¤ħà¤ĸà¤£":12324,"Ġà¤Ĺà¤¤à¤²":12325,"à¥ĭà¥¤âĢĺ":12326,"Ġà¤Ĩà¤°à¤ıà¤²":12327,"à¤¡à¤ķà¤¬":12328,"à¤¬à¤°à¤Ĺ":12329,"à¤¿à¤ģ,":12330,"à¥¯à¥¦à¥¦":12331,"Ġà¤ħà¤¬à¤¤":12332,"Ġà¤ĺà¤°à¤¨":12333,"Ġà¥§à¥¯à¥¦à¥©":12334,"Ġà¤§à¤¨à¤µà¤¨":12335,"à¤¨à¤¤à¤¸":12336,"à¤¨à¤ªà¤¸":12337,"à¤¦à¤®à¤£":12338,"à¤Ńà¤µà¤¶":12339,"Ġà¥¦à¥¨à¥®":12340,"Ġà¤¤à¤¹à¤Ńà¤¨":12341,"Ġà¥¨à¥Ńà¥§":12342,"à¤¬à¤¸à¤¤":12343,"à¤¯à¤°à¤¤à¤°":12344,"ĠSP":12345,"à¤¡à¤¬à¤²à¤®":12346,"ĠPaper":12347,"ÐµÑħ":12348,"Ġperson":12349,"à¤²à¤ĸà¤¬à¤¨":12350,"comp":12351,"amachar":12352,"unt":12353,"ĠFe":12354,"urity":12355,"spect":12356,"à¤ļà¤¨à¤²à¤Ĺà¤¤":12357,"Ġà¥«à¥ªà¥©":12358,"ĠLim":12359,"Ð»ÐµÐ½":12360,"à¤ıà¤ļà¤ıà¤®":12361,"Ġher":12362,"ival":12363,"ĠâĪ":12364,"à¥ĭâĢĿâĢĵ":12365,"ĠRepublic":12366,"Ġstud":12367,"à¥¨à¥¦à¥¦à¥ª":12368,"lich":12369,"????":12370,"Ġà¤Ĩà¤ĩà¤ıà¤®à¤Īà¤²":12371,"ney":12372,"ĠTele":12373,"appy":12374,"Ġà¤°à¤®à¤Ŀà¤®à¤®":12375,"ĠAssoci":12376,"ĠDaraz":12377,"Ġà¤ĨÃĩà¤¨":12378,"ĠÐ¾Ð±Ð»Ð°ÑģÑĤ":12379,"Download":12380,"TV":12381,"mà¤°":12382,"the":12383,"ving":12384,"à¤³":12385,"à¤ķà¤Łà¤°":12386,"à¤¿à¥Ĥ":12387,"à¤¯à¤¶à¤¨à¤²":12388,"à¤¦à¤¯à¤¹à¤°":12389,"à¤¦à¤¬à¤ķ":12390,"à¤µà¤īà¤ªà¤ķ":12391,"Ġà¤Ĺà¤Ń":12392,"à¤Ĺà¤ªà¤¨":12393,"Ġà¤°à¤¸à¤ª":12394,"Ġà¥¤_":12395,"à¤Łà¤ħà¤ªà¤®":12396,"à¤ıà¤ľà¤¤":12397,"à¤¶à¤¯à¤¨":12398,"à¤Īà¤ľà¤ķ":12399,"à¤Īà¤ıà¤ªà¤Ľ":12400,"à¤£à¤µà¤¹":12401,"Ġà¤ļà¤²à¤®à¤²":12402,"Ġà¤ıà¤¦":12403,"Ġà¤ıà¤®à¤²":12404,"Ġà¤«à¤ķà¤°":12405,
[...]
