#version: 0.2 - Trained by `huggingface/tokenizers`
à ¤
à ¥
Ġ à¤
à¤ ¾
à¥ į
à¤ °
à¤ ¨
à¤ ¿
à¤ ķ
à¥ ĩ
à¥ ĭ
à¤ ²
à¤ ®
à¤ ¤
à¤ ¯
à¥ ģ
à¥ Ģ
à¤ ¸
Ġà¤ ¸
Ġà¤ ª
à¤ ª
à¤ ¦
à¤ ¹
à¤ µ
à¥ ¤
Ġà¤ ķ
Ġà¤ Ĺ
à¤ Ĺ
à¥ Ī
Ġà¤ °
Ġà¤ ¨
à¤ Ł
à¤ ı
Ġà¤ Ń
Ġà¤ ħ
Ġà¤ ¬
Ġà¤ ¹
Ġà¤ ®
Ġà¤Ĺ à¤°
à¤ ľ
Ġà¤ µ
à¤ ¬
à¤ ·
à¤ §
Ġà¤ Ľ
Ġà¤ ¤
à¤ ģ
Ġà¤ ¦
à¤ı à¤ķ
à¤ ¥
Ġ à¥¤
à¤ ¶
à¤ Ĥ
Ġà¤ Ĩ
Ġà¤ ľ
à¤ Ľ
à¤ £
Ġà¤ ²
à¤ ļ
à¤ Ī
à¥ Ĥ
Ġà¤ ī
à¤ ¡
à¤ Ń
à¤ ī
à¤ ĸ
Ġà¤ ¯
â Ģ
Ġ à¥
Ġà¤¸ à¤®
à¤ ĩ
à¤° à¤ķ
Ġà¤Ń à¤¨
à¤¹ à¤°
à¤° à¤®
Ġà¤ ļ
à¤ «
Ġà¤ ¥
Ġà¤ª à¤¨
à¤ī à¤¨
à¥ Į
Ġà¤ ı
à¤¯ à¤ķ
à¤° à¤¤
Ġà¤ ĸ
à¤¨ à¤ķ
Ġà¤ ¶
à¤¾ à¤ģ
Ġà¤Ń à¤ıà¤ķ
Ġà¤ħ à¤¨
Ġà¤ª à¤°
à¤ ł
à¥ ĥ
à¤¸ à¤ķ
Ġà¤ «
à¤° à¤£
à¤ª à¤°
Ġ âĢ
à¤ľ à¤¨
à¤¸ à¤®
Ġà¤Ľ à¤¨
à¤¨ à¤²
à¥į à¥¤
à¤¨ à¤®
âĢ Ļ
à¤µ à¤¸
à¥ ¦
ĠâĢ ĺ
à¤ ĺ
Ġà¤¬ à¤¨
à¤ ¢
Ġà¤¸ à¤ķ
à¥ĭ à¥¤
Ġà¤ľ à¤¨
à¤¯ à¤®
Ġà¤° à¤¹
Ġà¤¯ à¤¸
à¤° à¤¹
Ġà¤® à¤¹
Ġà¥ ¨
à¤² à¤ķ
Ġà¤ı à¤ķ
Ġà¤ Ł
Ġ Ċ
à¤¯ à¤¸
Ġà¤ §
Ġà¥ §
à¤ Ļ
Ġà¤ ĺ
à¤° à¤²
à¤ ŀ
à¤ª à¤¨
à¤¯ à¤¤
Ġà¤¸ à¤°à¤ķ
Ġà¤ħ à¤§
Ġà¤Ĩ à¤«
à¤² à¤®
à¤Ĺ à¤°
à¤ª à¤Ľ
Ġà¤¸ à¤¹
à¤¤ à¤°
Ġà¤¤ à¤°
Ġà¤µ à¤°
Ġà¤¬ à¤¢
Ġà¤ ¡
âĢ ĵ
Ġà¤¬ à¤¤
Ġà¤¤ à¤¥
à¤ Ŀ
Ġà¤ī à¤ª
Ġà¤ħ à¤°
à¤° à¤¸
à¤° à¤¦
à¤ĩ à¤¨
à¤Ľ à¤¨
à¥Į à¤Ĥ
à¤ı à¤°
à¥ģ à¤ģ
Ġà¤ķ à¤®
à¤ ħ
Ġà¤ī à¤¨à¤²
à¤ª à¤¤
à¤ª à¤®
à¤ķ à¤²
Ġà¤® à¤¨
à¤ķ à¤®
Ġà¥§ à¥
Ġà¤ ł
Ġà¤ķ à¤°
Ġà¤² à¤Ĺ
Ġà¤ ĩ
à¤¾ ,
à¤¯ à¤¨
à¤¾ à¤Ĥ
à¤¬ à¤¨
à¤® à¤ķ
à¥ĩ ,
Ġà¤Ń à¤ı
Ġà¤ī à¤¤
Ġà¤ī à¤¨
č Ċ
Ġà¤ª à¤¹
Ġà¤¸ à¤¬
à¤° à¤µ
à¤¯ à¤µà¤¸
Ġà¤Ĩ à¤¯
à¤¤ à¤ķ
à¤Ł à¤ķ
à¤¯ à¤²
Ġà¤ħ à¤µà¤¸
Ġà¤ħ à¤¸
à¤¶ à¤ķ
Ġà¥¨ à¥¦
à¤¸ à¤²
à¤² à¤²
Ġà¤ħ à¤¹
à¤µ à¤°
à¤Ĺ à¤¤
à¤µ à¤¨
à¤· à¤£
à¤² à¤¬
Ġà¤ħ à¤Ń
à¤¸ à¤¨
à¤Ń à¤¨
à¤¤ à¤¨
à¥ §
à¤ Ĩ
Ġà¤Ĩ à¤ıà¤ķ
Ġà¤Ĩ à¤°
à¤° à¤¬
Ġà¤¬ à¤¸
à¤ļ à¤¨
à¤µ à¤ķ
à¤° à¤§
à¤Ł à¤¨
à¤² à¤¨
à¥ «
à¤¨ à¤¨
Ġ (
à¤° à¤¹à¤°
à¤° à¤¯
à¤ķ à¤ķ
Ġà¥ ©
à¤® à¤¤
à¥Ģ ,
à¥ĭ ,
Ġà¤ī à¤¦
à¤ķ à¤°
à¤ĩ à¤°à¤¹
Ġà¤¸ à¤ŀ
Ġà¤¸ à¤¨
à¤Ł à¤°
Ġ ?
Ġà¤¸ à¤°
Ġà¤Ĺ à¤¤
à¤ł à¤®
à¤¿ à¤ģ
à¤¸ à¤°
à¤ª à¤ķ
Ġà¤Ĩ à¤µ
à¥Į à¤ģ
à¤¤ à¤®
à¥ Ń
à¥ĩ à¥¤
Ġà¥ «
à¤® à¤¨
Ġà¤ ĵ
Ġà¤¹ à¤ľ
Ġà¤¬ à¤ľ
à¥ ¨
Ġà¤ħ à¤®
Ġà¤ Ŀ
à¤ ĥ
Ġà¤Ĩ à¤§
à¤« à¤²
à¤¨à¤® à¤¨
Ġà¤¸à¤® à¤¸
à¥Ī à¤Ĥ
à¤¦ à¤¨
Ġà¤¨ à¤¯
à¤· à¤ķ
Ġà¤¨ à¤Ĺà¤°
à¤ĩ à¤ıà¤ķ
Ġà¤ª à¤ķ
Ġà¤ī à¤¨à¤ķ
à¤¨ à¤¸
à¤ī à¤Ł
à¤°à¤® à¤£
à¥į ,
à¤° à¤¶
Ġà¤¸ à¤¯
à¤° à¤Ń
à¥ ¬
à¤Ĺ à¤ķ
à¤® à¤®
à¤¡ à¤ķ
à¤¤ à¤²
à¥ ª
Ġà¤ľà¤¨ à¤¤
à¤ı à¤¨
à¤¸ à¤¦
Ġà¤ĸ à¤°
Ġà¤ ¢
à¤ķ à¤°à¤£
Ġà¤¸ à¤¦
Ġà¤¸à¤® à¤¯
à¤² à¤¯
à¤ľ à¤ķ
Ġà¤ļ à¤²
Ġà¥ ¬
à¤§ à¤¨
Ġà¥ ª
à¤°à¤® à¤®
Ġà¤ı à¤īà¤Ł
Ġà¤ľ à¤¸
Ġà¤¤ à¤¯
Ġà¤ª à¤Ľ
à¥ ©
à¤Ĺ à¤²
à¤ľ à¤¸
Ġà¤ª à¤¦
à¤¯ à¤¹
Ġà¤¨ à¤Ń
Ġà¤¯ à¤¹
à¤ħ à¤¨
à¤ķ à¤¤
à¤® à¤²
à¤µ à¤²
Ġà¤Ń à¤¯
Ġà¤ħ à¤¬
à¤· à¤®
Ġà¤Ĩà¤µ à¤¶
à¤Ł à¤®
Ġà¤ª à¤¤
à¤µ à¤®
Ġà¤ķ à¤²
Ġà¤¸à¤¹ à¤¯
à¤¶ à¤¨
Ġà¤Ĩ à¤ĩ
Ġà¤¦ à¤°
à¤¯ à¤°
Ġà¤ķ à¤¤
Ġà¤ħ à¤µ
Ġà¤ħ à¤ĺ
Ġà¤Ĩ à¤īà¤¨
Ġà¤¤ à¤¹
Ġà¤ĩ à¤¨
Ġà¤ī à¤ķ
à¤ ĵ
à¤¶ à¤®
Ġà¤¹ à¤°
à¤¿ à¤Ĥ
Ġà¤ Ķ
à¤¬ à¤°
Ġà¤ħ à¤Ĺ
ĠâĢ ĵ
Ġà¥ Ń
Ġà¤ī à¤²
à¤¶ à¤¤
Ġà¤ı à¤®
à¤Ĺ à¤®
Ġà¤¦ à¤²
Ġà¤ķ à¤¸
Ġà¤Ń à¤ĩà¤°à¤¹
Ġà¤® à¤§
à¤¹ à¤¨
, âĢĻ
Ġà¤¯ à¤¸à¤ķ
Ġà¤ĺ à¤°
Ġà¤¸à¤¦ à¤¸
Ġà¤¨ à¤¸à¤ķ
à¤µ à¤ľà¤¨
à¥ ®
à¤² à¤Ĺ
à¤· à¤¯à¤®
Ġà¤¯à¤¸ à¤²
Ġà¤ħ à¤ª
à¤Ń à¤°
à¤ħ à¤ĺ
Ġà¤¬ à¤°
Ġà¤¤ à¤ª
Ġà¤¬ à¤¹
à¤¯ à¤µ
à¤· à¤¯
Ġà¤¬ à¤²
Ġà¤ĵ à¤²
à¤¯ à¤¸à¤ķ
à¤¦ à¤°
Ġà¤Ĩ à¤¨
à¥ ¯
Ġ Ġ
à¤ĩ à¤¸à¤ķ
Ġà¤ī à¤ļ
Ġà¤Ĩ à¤Ĺ
à¤Ł à¤²
Ġà¤¥ à¤ª
Ġà¤ħ à¤¤
à¤ı à¤ªà¤Ľ
Ġà¤ī à¤ł
à¤ķ à¤¨
Ġà¤ħ à¤¦
Ġà¥§ à¥¦
Ġà¤¨ à¤¹
Ġà¤« à¤°
Ġà¤Ĺ à¤ıà¤ķ
Ġà¤® à¤²
à¤° à¤ªà¤¤
à¥¤ âĢĻ
Ġà¤¸à¤¹ à¤Ń
à¤° à¤¨
Ġà¤¸ à¤¤
Ġà¥ ®
Ġà¤ı à¤¨
Ġà¤ļ à¤°
à¤² à¤¤
à¤£ à¤¯
à¤® à¤ļ
à¤ļ à¤ķ
Ġà¤¸ à¤Ń
à¤¥ à¤®
Ġà¤¨ à¤¦
à¤¨ à¤°
à¤ĸ à¤°
Ġà¤¸à¤® à¤¯à¤®
Ġà¤ķ à¤¸à¤°
Ġà¤¶ à¤°
à¤ª à¤²
Ġà¤ª à¤Łà¤ķ
à¤Ń à¤µ
Ġà¤¤ à¤¤
Ġà¤ī à¤®
Ġà¤®à¤¹ à¤¤
à¤¬ à¤²
Ġà¤¨ à¤®
Ġ čĊ
à¤£ à¤ķ
à¤µ à¤¯
Ġà¤² à¤ķ
à¤¯à¤¸ à¤²
à¤¨ à¤µ
à¤¿ ,
Ġà¤ Ĳ
à¥Ī à¤ģ
Ġà¤Ĺ à¤ł
à¤¹ à¤ķ
à¤· à¤¦
Ġà¤Ń à¤°
Ġà¤ħ à¤Ŀ
Ġà¤¸ à¤«à¤²
à¤µ à¤ª
Ġà¤¯ à¤¤
Ġà¥ ¯
Ġà¤ķ à¤¹
Ġà¤Ĩ à¤ķ
à¤µ à¤°à¤£
à¤¯à¤¤ à¤ķ
Ġà¤Ľ à¤²
à¤² à¤¯à¤ķ
Ġà¥¨à¥¦ à¥§
à¤ľ à¤®
à¤¾ .
à¤ĵ à¤µ
Ġà¤ħ à¤²
Ġà¤° à¤ķà¤®
Ġà¤īà¤ª à¤ļ
à¤¡ à¤®
à¤¯ à¤¸à¤®
à¤· à¤¤
Ġà¤īà¤ª à¤²à¤¬
à¤¨ à¤¬
à¤¸ à¤¹
Ġà¤ħ à¤«
Ġà¤°à¤¹ à¤¨
Ġà¤Ń à¤ıà¤°
Ġà¤¨à¤Ń à¤ıà¤ķ
à¤ĩ à¤²
à¥į âĢ
à¤¤ à¤µ
Ġà¤¦ à¤ķ
Ġà¤ĺ à¤Łà¤¨
à¤« à¤¤
à¤¦ à¤ķ
à¤ľ à¤Ĺ
Ġ '
à¤¤ à¤°à¤£
Ġà¤ı à¤¸
à¤Ĩ à¤°
à¤² à¤¯à¤²
à¤°à¤¦ à¤°
à¤¨ à¤¤
Ġà¤Ĩ à¤ī
à¤¯ à¤ª
Ġà¤¸ à¤ļ
Ġà¤® à¤¤
Ġà¤¶ à¤ķ
Ġà¤¸ à¤¡à¤ķ
Ġà¤Ĩ à¤®
Ġà¤µ à¤Ł
Ġà¤ª à¤ł
à¤ĺ à¤ķ
à¤ľ à¤²
Ġà¤Ĩ à¤¦
à¤§ à¤ķ
Ġà¤ľ à¤°
Ġà¤Ńà¤ı à¤ªà¤Ľ
à¥įâĢ į
à¤¦ à¤²
Ġà¤Ĩ à¤¶
Ġà¤ī à¤¹
à¤ı à¤¸
Ġà¤¨à¤Ĺà¤° à¤ª
à¤² à¤¸
à¤® à¤¬
Ġà¤ľ à¤Ĺ
Ġà¤Ń à¤ĩà¤¸à¤ķ
Ġà¤ı à¤µ
à¤¾ à¥ĩ
Ġà¥¤ âĢĻ
Ġà¤Ĩ à¤ľ
à¤ĩ à¤¦
à¤¸ à¤Ń
à¤ª à¤Łà¤ķ
Ġà¤§ à¤°
à¤ª à¤¯
Ġà¤ľ à¤®
à¤§ à¤¤
à¤µ à¤¤
à¤¸ à¤¬
Â ¥
à¤°à¤¤ à¤ķ
Ġà¥§à¥ ¯
à¤¶ à¤²
à¤¦ à¤®
Ġà¤ıà¤ķ à¤¤
à¤¹ à¤²
Ġà¤¹ à¤¸
à¤° à¤ª
à¤Ń à¤ıà¤ķ
Ġà¤Ľà¤² à¤«à¤²
à¤¯ à¤¯à¤¨
Ġà¤¨ à¤ª
à¤§ à¤®
à¤¾ âĢĵ
à¤¤ à¤¬
à¤° à¤ľ
à¤¬ à¤¦
Ġà¥¨à¥¦ à¥Ń
à¤°à¤£ à¤®
à¤® à¤§
à¤Ļ à¤ķ
Ġà¤Ĩ à¤¤
à¤° à¤ļà¤¨
à¤ķ à¤ª
à¤ª à¤¦
à¤Ĺ à¤ł
Ġà¤¸à¤¹ à¤®à¤¤
à¤° à¤ļ
Ġà¤¨ à¤°
Ġà¥§à¥ «
à¤² à¤¨à¤®
à¤¡ à¤²
à¤ķ à¤¸
Ġà¥§à¥ ¨
Ġà¤¸à¤¹ à¤ľ
Ġà¤ª à¤¢
à¤ł à¤ķ
à¤° à¤·
Ġà¥« à¥¦
Ġà¤ĺ à¤Ł
à¤² à¤¯à¤®
à¤ļ à¤®
à¤· à¤®à¤¤
à¤µ à¤¯à¤¨
Ġà¥¨ à¥«
Ġà¤® à¤°
à¤¥ à¤²
à¤Ļ à¤²
à¥Įà¤Ĥ à¥¤
à¤Ĺ à¤¦
à¤ĩ à¤Ł
Ġà¤« à¤°à¤ķ
Ġà¤ª à¤¶
à¤² à¤µ
Ġà¤ķà¤® à¤ľ
Ġà¤Ŀ à¤¨
à¤ı à¤®
Ġà¤¨ à¤ľ
Ġà¤¸ à¤µ
Ġà¤¬ à¤ļ
à¤¨ à¤¸à¤ķ
à¥ģ ,
âĢĻ ,
Ġà¤¯ à¤¸à¤®
à¤® à¤¸
Ġà¤§ à¤¨
Ġà¤ľ à¤¤
Ġà¤¸ à¤ľ
à¤ľ à¤°
à¤ĩ à¤ķ
à¤¯à¤µ à¤¹
à¤¨ à¤ª
Ġà¤¸ à¤¹à¤°
Ġà¤¹ à¤¤
Ġà¤ħà¤µ à¤§
à¤Ń à¤¯
Ġà¥§à¥ §
à¤ľ à¤§
à¤Ī à¤²
à¤¦ à¤µ
à¤ľ à¤¦
à¥ģ à¤Ĥ
à¤µ à¤µ
Ġà¤ħ à¤ªà¤°
Ġà¤¤à¤¹ à¤ķ
à¤¤ à¤¤
à¤¯à¤¸ à¤ªà¤Ľ
à¤ĩ à¤°
Ġà¤ĩ à¤¤
Ġà¤Ĺà¤ł à¤¨
Ġà¤¹ à¤Ł
à¤ľ à¤¨à¤ķ
à¤¹ à¤¤
à¤ª à¤£
à¤¯à¤ķ à¤¤
Ġà¤ķ à¤¨
Ġà¤ľ à¤¹
à¤°à¤£ à¤²
à¤¹ à¤®
Ġà¤¦ à¤²à¤ķ
Ã ·
Ġà¤Ĺ à¤£
Ġà¤Ń à¤µ
à¤· à¤²
Ġà¤īà¤ª à¤¯
Ġà¤¶ à¤¨
à¤² à¤°
Ġà¤ķ à¤ª
Ġà¤¯à¤¸ à¤ħà¤ĺ
à¤Ī à¤ķ
Ġà¥© à¥¦
à¤® à¤°
à¤· à¤§
Ġà¤¸à¤¹ à¤ķ
Ġà¤® à¤¸
à¤°à¤®à¤£ à¤ķ
Ġà¤ıà¤¨ à¤Ĩà¤°
Ġà¤Ńà¤ı à¤¨
à¤ķ à¤Ł
Ġ ĠĊ
à¤µ à¤¤à¤¨
à¤® à¤¦
Ġà¤Ń à¤Ł
Ġà¤īà¤ª à¤¸
à¤¸ à¤¸
Ġà¤ħà¤µà¤¸ à¤°
Ġà¤Ĳ à¤¨
à¤¯ à¤¹à¤°
Ġà¤ĸ à¤¡
à¤² à¤¨à¤ķ
Ġà¤° à¤ķ
Ġà¤µ à¤¡
à¤ľ à¤¯
à¤¬ à¤¹
Ġà¤Ĩ à¤ª
Ġà¤° à¤¨
à¤¯ à¤¯
Ġà¤ľ à¤¸à¤²
à¤¤ à¤ª
à¤¯à¤ķ à¤°
Ġà¤¤ à¤¸
Ġà¤¸à¤® à¤¨
Ġà¤Ĺ à¤®
à¤¯ à¤Łà¤¨
Ġà¤¸à¤® à¤°
Ġà¤Ń à¤£
à¤¥ à¤ķ
à¤ĸ à¤ķ
à¤® à¤Ĺ
Ġà¤ı à¤ª
Ġà¤¯à¤¸ à¤¬
à¤§ à¤¨à¤ķ
Ġà¤¯à¤¸ à¤°
à¤ļ à¤²
à¤ı à¤²
Ġà¤¸ à¤²
à¤£ à¤®
à¤ķà¤°à¤£ à¤ķ
à¤§ à¤°
Ġà¤Ĩà¤ĩ à¤¤à¤¬
à¤¸ à¤¨à¤²
à¤¨ à¤¸à¤®
Ġà¥§à¥ ®
à¤ª à¤·
Ġà¤Ķ à¤·à¤§
Ġà¤¯ à¤¦
à¤¯à¤® à¤¨
à¤ķ à¤¤à¤¨
Ġà¤ľ à¤¨à¤ķ
à¤¯ à¤¬
à¤°à¤¤ à¤²
Ġà¤ıà¤¨à¤Ĩà¤° à¤ıà¤¨
à¥ģ à¥¤
à¤ĺ à¤°
à¥Ģ âĢĻ
Ġà¤° à¤®
à¤µ à¤¦
Ġà¥§à¥ ¬
Ġà¤¤à¤¹ à¤®
à¤¨ à¤Ĺà¤°
à¤¾ âĢĻ
à¤Ĺ à¤¢
Ġà¥§à¥ ª
à¥Ī ,
à¤§ à¤¬
à¤ĺ à¤Łà¤¨
Ġà¤Ń à¤¤
à¤ķ à¤¹à¤°
à¤ĩ à¤¨à¤²
à¤¨ à¤¯
à¤ļ à¤°
à¤¯ à¤¦
à¤¸ à¤ļ
ĠĠ ĠĠ
à¤¡ à¤°
Ġà¥¨à¥¦ à¥¦
Ġà¤ª à¤°à¤®
Ġà¤µ à¤¸
à¤°à¤¹ à¤¨
Ġà¤ Ĭ
à¤¤ à¤°à¤ķ
à¤°à¤£ à¤ķ
à¤ĩ à¤ľ
à¤² à¤¸à¤®
à¥Ģ )
Ġà¤¦ à¤¬
à¥ģ à¤ĥ
à¤¸ à¤¨à¤ķ
à¤Ĩ à¤µ
à¤ĩ à¤®
à¤ļ à¤¨à¤®
Ġà¥§à¥ ©
à¤° à¤¸à¤®
Ġà¤¨ à¤µ
Ġà¤Ĩ à¤²
Ġà¤ī à¤¡
à¤ĩ à¤¤
à¤ķà¤² à¤¨
à¤°à¤® à¤ķ
Ġà¤Ĩ à¤ļ
Ġà¤ľà¤¨ à¤¸
à¤ĩ à¤¸
à¤Ĺ à¤²à¤¬
ĠâĢ ľ
à¤¶ à¤¬
à¤Łà¤° à¤¨
à¤ª à¤ļ
à¤¥ à¤¨
âĢ Ŀ
Ġà¤Ĩ à¤ł
à¤¯ à¤Łà¤ķ
Ġà¤¹ à¤²
Ġà¤ľà¤¨à¤ķ à¤ª
à¤¯ à¤£
Ġà¤ ĭ
à¤¥ à¤¤à¤¨
à¤Ĺ à¤¬
Ġà¤ī à¤ľ
à¤¨ à¤¦
Ġà¤ĸ à¤¨
Ġà¤Ĩ à¤ķà¤°
Ġà¤² à¤¡
à¤ł à¤²
Ġà¤ķ à¤ķ
à¤Ĺ à¤®à¤¨
à¤¯à¤¸ à¤¬
à¤µ à¤§
à¤° à¤Ĩà¤µ
Ġà¤īà¤ª à¤Ń
Ġà¥¨ à¥§
à¤Ĺà¤¤ à¤®
Ġà¤¦ à¤¶
Ġà¤ľ à¤¬
Ġà¤® à¤¦
à¤£ à¤¸
Ġà¤Ĺ à¤²à¤¤
Ġà¤¨ à¤ķ
Ġà¥§à¥ Ń
à¤¸ à¤µ
Ġà¤¯ à¤¥
à¤°à¤¤ à¤®
Ġà¤¦à¤² à¤¹à¤°
à¤Ĺ à¤¨
à¤ľ à¤ª
à¥Įà¤Ĥ âĢĵ
à¤ī à¤µ
à¥Ģ âĢĵ
Ġà¤Ń à¤Ī
à¥ĭ, âĢĻ
Ġà¤ķ à¤Ł
Ġà¤ħ à¤ĸ
à¤· à¤¯à¤²
Ġà¤° à¤¸
à¤ĸ à¤²
Ġà¤ĺ à¤°à¤®
à¤¶ à¤¸
Ġà¤¸ à¤¡
Ġà¤ħà¤¸ à¤°
à¤Ĺ à¤¤à¤ķ
à¤Ĺà¤ł à¤¨
Ġà¤Ĩà¤ĩ à¤ª
à¥ĩ à¤ģ
à¤µ à¤Ł
Ġà¤ľ à¤µ
Ġà¥¨à¥¦ à¥¬
à¤ Ķ
Ġà¥ª à¥¦
Ġà¤ķ à¤¥
Ġà¤ħ à¤ķ
à¥ģ Â¥
à¤Ń à¤®
Ġà¤ħ à¤¡
Ġà¤¦ à¤¶à¤ķ
à¤ħ à¤°
Ġà¤ĩ à¤²
Ġà¤ļ à¤¨
Ġà¤Ĺà¤ł à¤¬à¤¨
Ġà¤ĩ à¤®
à¤¶ à¤¸à¤Ń
Ġà¤ľà¤¨ à¤ª
Ġà¤®à¤¤ à¤¦
à¤·à¤£ à¤ķ
à¤Ł à¤¬
Ġà¤ļ à¤°à¤£à¤®
Ġà¤ī à¤¸à¤²
Ġà¤®à¤¹ à¤¸
à¤¸ à¤¹à¤°
à¤µ à¤¶
à¤® à¤¹
Ġà¤« à¤²
Ġà¥¬ à¥¦
à¥Įà¤ģ à¥¤
à¤¤ à¤°à¤®
à¥ĭ ?
à¤īà¤¨ à¤ķ
Ġà¤¨ à¤²
à¤ĩ à¤¡
à¤¹à¤° à¤£
à¤Ļ à¤®
à¤¸ à¤ª
Ġà¤¸ à¤§
Ġà¥¨ à¥¨
Ġà¤ķ à¤¡
à¤ĺ à¤²
à¤°à¤µ à¤ķ
à¤°à¤¬ à¤¹
à¤¿ à¤ĥ
à¤Ń à¤ķ
à¤ŀ à¤ª
à¤Ĺ à¤°à¤®
Ġà¤ľ à¤²à¤µ
Ġà¤Ń à¤µà¤¨
Ġà¤ļà¤² à¤ļ
Ġà¤ķ à¤ł
Ġà¤® à¤ŀ
à¤°à¤®à¤£ à¤®
Ġà¤¤ à¤¨
à¤° à¤°
à¤ķ à¤¬
à¤® à¤£
à¤¡ à¤¨
à¤¤ à¤¹à¤°
Ġà¤µ à¤¨
Ġà¥ ¦
à¤ĩ à¤¯
Ġà¤ķ à¤µ
à¤° à¤ĸ
Ġà¤ªà¤¦ à¤®
à¤µ à¤Ń
à¤¨ à¤¹à¤°
Ġà¤¸ à¤«
Ġà¤ĸ à¤¤
Ġà¤¸ à¤ªà¤¨
à¤ı à¤Ī
à¤ī à¤¦
Ġà¤¨à¤Ń à¤Ī
à¤ł à¤ķà¤²
à¤ķà¤® à¤²
à¤ª à¤¸
âĢ ĺ
Ġà¤¶ à¤¬
Ġà¥¨ à¥ª
Ġà¤ĺ à¤¨
à¤Ĺ à¤ķà¤°
Ġà¤¤ à¤²
à¤¾ à¥¤
à¤ı à¤¨à¤¨
à¤² à¤¤à¤²
à¤ł à¤ķà¤®
Ġà¤īà¤ª à¤¤
à¤¾ )
à¤§ à¤²
Ġà¤ħ à¤µà¤°
à¤¨ à¤Ńà¤¨
à¤¦ à¤¨à¤®
à¤¬ à¤®
Ġà¤¨ à¤¤
à¤« à¤¬
à¤° à¤Ĺà¤¤
Ġà¤Ĺ à¤¨
à¤ľ à¤µ
à¤ĸ à¤®
à¤² à¤ª
à¤® à¤ª
Ġà¤¸ à¤ª
Ġà¤¬ à¤®
Ġà¤¡ à¤²à¤°
à¤² à¤¤à¤ķ
Ġà¤¨ à¤¬
Ġà¤Ĭ à¤°
Ġ :
à¤² à¤¤à¤®
à¤¬ à¤Ī
à¤· à¤ħà¤ĺ
à¤¦ à¤Ľ
Ġà¤¸à¤«à¤² à¤¤
Ġà¤ª à¤ŀ
Ġà¤ĸ à¤¸
à¥ĩ âĢĵ
à¤« à¤ķ
Ġà¤Ĺ à¤ıà¤°
Ġà¤ªà¤¹ à¤²
âĢ Ķ
à¤¯à¤¤ à¤²
à¤¤ à¤°à¤¤
Ġà¤ı à¤ľ
à¤ļ à¤¨à¤ķ
Ġà¤Ĺ à¤²
à¥¨ à¥¦
à¥Ģ à¤ģ
Ġà¤ª à¤²
à¥Įà¤Ĥ ,
à¤Ĩ à¤«
à¤£ à¤¨
Ġà¤Ĩ à¤ľà¤ķ
à¤¸ à¤°à¤ķ
à¤¡ à¤¬
Ġà¤ħ à¤ªà¤¨
Ġà¤ªà¤° à¤°
à¥ĩ à¤Ĥ
Ġà¤µ à¤ķ
à¤¯à¤® à¤¬
à¤¯ à¤°à¤¤
Ġà¤ī à¤Ń
Ġà¥¨ à¥®
à¤ľ à¤¤
à¤ª à¤Ł
à¥ģ -
à¤Ł à¤µ
à¤Ł à¤°à¤®
à¤¬ à¤ķ
Ġà¤Ĩ à¤ıà¤°
à¤¯ à¤Ł
à¤ĩ à¤ª
à¤Ł à¤«
Ġà¤Ńà¤ı à¤ªà¤¨
Ġà¤Ķ à¤ªà¤ļ
Ġà¤Ĺà¤£ à¤¤à¤¨
Ġà¤ĸ à¤£
Ġà¥¨ à¥©
à¤Ł à¤¬à¤²
à¤¶ à¤¨à¤®
Ġà¤ī à¤¸à¤ķ
Ġà¤Ĩ à¤ĩà¤°à¤¹
Ġà¤Ĩ à¤ı
Ġà¤ħà¤µà¤¸ à¤°à¤®
à¤· à¤°
Ġà¤ľ à¤¸à¤ķ
Ġà¤¹ à¤ª
à¤¥ à¤²à¤®
Ġà¤ĩ à¤ļ
à¤¡ à¤¸
à¤°à¤® à¤²
Ġà¤§à¤¨ à¤Ĺà¤¢
Ġà¤ľ à¤²
Ġà¤¸ à¤ĺ
Ġà¤¦ à¤²à¤²
à¤¨à¤Ĺà¤° à¤ª
Ġà¤¬ à¤²à¤®
à¥ĭà¥¤ âĢĻ
Ġà¤ĭ à¤£
à¤· à¤¸à¤®
Ġà¥¨ à¥Ń
Ġà¤ħ à¤ľ
à¤£ à¤¤
Ġà¤¨ à¤ªà¤°
à¤¶ à¤¹à¤°
Ġà¤Ŀ à¤£
. .
à¤¦ à¤¨à¤ķ
Ġà¥¨ à¥¬
Ġà¤ Ī
à¤¤ à¤¸
Ġà¤¬ à¤¦à¤²
à¤¬ à¤¸
Ġà¤Ľ à¤ķ
Ġà¥Ń à¥¦
Ġà¤ĸ à¤Ł
à¤ªà¤¦ à¤£
Ġà¤ĸ à¤¤à¤°
Ġà¤ı à¤²
Ġà¤ľà¤¨ à¤¶à¤ķ
à¤Ĺ à¤°à¤ķ
à¤¬ à¤°à¤ķ
Ġà¤¬à¤¹ à¤¸
Ġà¤¬ à¤Ĺ
à¤¸ à¤¨à¤®
Ġà¤¨ à¤Ĩ
à¤¨à¤¸ à¤Ń
Ġà¤¸ à¤Ĺà¤°à¤®
Ġà¤¦ à¤®
à¤ĸ à¤¨
Ġà¤¸à¤® à¤Ĺ
à¥ĭ à¥ĩ
à¤¤ à¤¹
Ġà¥¨à¥¦à¥Ń à¥ª
Ġà¤Ń à¤ķ
à¤Ń à¤²
Ġà¤¨à¤Ń à¤ı
Ġà¤Ĺ à¤¹
à¤ľ à¤¬
Ġà¤ĺ à¤£
à¥ĭ âĢĵ
à¤® à¤ªà¤¨
à¤Ł à¤°à¤ķ
Ġà¤¹ à¤µ
à¤Ŀ à¤¨
Ġà¤ªà¤¦ à¤ķ
à¤· à¤¬
à¤¥ à¤°
à¤¶ à¤¨à¤ķ
à¤¤ à¤¨à¤ķ
à¤¦ à¤¤
Ġà¤¹ à¤ķ
à¤ħ à¤§
à¥Įà¤ģ ,
Ġà¤¨à¤Ń à¤ıà¤°
Ġà¤ľ à¤¸à¤°
Ġà¥¨ à¥¯
à¤¯à¤¤ à¤®
à¤ Ĭ
Ġà¤¸ à¤¸
à¤¡ à¤«
Ġà¤Ĳ à¤¤
à¤ļ à¤¸
Ġà¥¨à¥¦ à¥ª
à¤ĸ à¤¦
Ġà¥© à¥«
Ġà¥® à¥¦
Ġà¤° à¤¨à¤ķ
Ġà¤° à¤£à¤¨
à¤¹ à¤¸
Ġà¤¨ à¤Ĺà¤¦
Ġà¤² à¤¨
à¤¥ à¤®à¤¨
à¥Įà¤Ĥ ,âĢĻ
à¤ķà¤°à¤£ à¤²
à¤² à¤¦
Ġà¥© à¥©
Ġà¤ł à¤¹à¤°
Ġ -
à¥ģ à¥ģ
Ġà¤ī à¤¸
Ġà¤¹ à¤®à¤²
à¤Ł à¤¸
à¤£ à¤²
âĢ ľ
à¤ķ à¤µ
à¤ª à¤¬
Ġà¤¦ à¤¸
à¤ĩ à¤Ń
à¤°à¤¤ à¤¬
Ġà¤ħà¤¸ à¤«à¤²
à¤·à¤£ à¤®
à¤µà¤¯ à¤¨à¤®
Ġ !
à¤ī à¤ķ
Ġà¤¸ à¤Ļ
Ġà¤ħà¤¸ à¤¨
Ġà¤¸à¤®à¤¯ à¤¦
à¤§ à¤µ
Ġà¤ľ à¤Ł
Ġà¤¤à¤¹ à¤²
à¤° à¤«
à¤°à¤ļ à¤£
à¤ª à¤¨à¤ķ
Ġà¤¬ à¤¯
à¤Ĺ à¤¶
Ġà¤ľ à¤¡
Ġà¤ļ à¤¯à¤¨
Ġà¤§ à¤®
Ġà¤ĵ à¤Ń
Ġà¤Ĩ à¤¹
Ġà¤ľ à¤¸à¤®
à¤« à¤°
à¤² à¤Ń
Ġà¤® à¤¨à¤®
à¤µà¤¯ à¤¨à¤ķ
à¤· à¤Ń
à¤¶ à¤µ
Ġà¥¨à¥¦ à¥«
Ġà¤Ĺ à¤¯
à¤ı à¤«
Ġà¤Ĩ à¤Ī
Ġà¤ī à¤ªà¤°
Ġà¤ķ à¤¦à¤®
à¥ĭ âĢĻ
à¤² à¤¨à¤²
Ġà¤ıà¤ķ à¤ľà¤¨
à¤¹ à¤¦
à¤ī à¤²
Ġà¤Ĩà¤ĩ à¤«
à¤® à¤°à¤£
à¤¶ à¤¤à¤²
à¥Įà¤Ĥ -
à¤¸ à¤¤
Ġà¤ħ à¤¸à¤®
à¤· à¤ªà¤Ľ
Ġà¤ļ à¤¢
Ġà¤ķ à¤¸à¤²
à¤ģ à¥¤
à¤¯à¤® à¤²
Ġà¤ĩ à¤¸
Ġà¤¸ à¤°à¤¸
Ġà¤ª à¤¸
Ġà¤¬ à¤ķ
Ġà¥© à¥§
Ġà¤ħà¤¬ à¤ķ
à¤² à¤ªà¤¤
Ġà¤ħà¤¨ à¤²
Ġà¥Ń à¥«
à¤Ł à¤¹à¤°
à¤§ à¤¨à¤²
à¥į, âĢĻ
Ġà¤ľà¤¨ à¤ľ
Ġà¤Ńà¤ı à¤®
Ġà¤® à¤¹à¤°
à¤· à¤¹à¤°
à¤¶ à¤ķà¤²
' ,
à¤ª à¤¥
Ġà¤¸ à¤¶à¤¸
à¤° à¤¥
à¤¶ à¤¨à¤²
à¤°à¤® à¤¶
à¥Įà¤Ĥ à¥¤âĢĻ
Ġà¥¨à¥¦à¥Ń à¥¨
à¤ĩà¤¨à¤² à¤®
à¤¦ à¤µà¤²
à¤°à¤¤ à¤¸
à¤¿ ?
à¤ª à¤ª
à¤µ à¤¬
Ġà¤ĺ à¤²
Ġà¤Ń à¤¦
Ġà¤Ń à¤Ĺ
Ġà¤¤ à¤°à¤ķ
Ġà¤¡ à¤°
à¤µ à¤¡
à¤µ à¤¨à¤®
Ġà¤¶ à¤¤
à¥ĩ ?
Ġà¤² à¤²
à¤ıà¤¸ à¤ª
Ġà¤ħ à¤¶
Ġà¤¢ à¤²
Ġà¤ĺ à¤°à¤ķ
Ġà¤ħà¤¸ à¤¹
Ġà¤Ľà¤² à¤«
à¤µ à¤¨à¤ķ
Ġà¤Ĩ à¤ıà¤ªà¤Ľ
à¤°à¤¸ à¤°
à¤° à¤¥à¤®
à¥ĩ âĢĻ
Ġà¤Ľ à¤°
Ġà¤ľ à¤¨à¤®
Ġà¤¶ à¤°à¤£
Ġà¥ª à¥«
Ġà¤Ķ à¤¦
à¤² à¤¹à¤°
Ġà¤¸à¤® à¤¯à¤ķ
Ġà¤Ĩà¤« à¤¨
Ġà¥¨à¥¦à¥§ à¥Ń
à¤¤ à¤µà¤®
à¤ī à¤¤
Ġà¤Ĩà¤ĩ à¤¸
Ġà¥¯ à¥¦
à¤ª à¤¶
Ġà¤Ĩ à¤¸
Ġà¤² à¤®
Ġà¤ıà¤ķ à¤²
à¤· à¤ľ
à¤¯à¤® à¤ķ
à¤ļ à¤¯
à¤ĩ à¤ķà¤²
à¤°à¤µ à¤¦
Ġà¤Ĺ à¤ı
à¤Ł à¤ª
Ġà¤Ł à¤°
Ġà¤ĩ à¤°
à¤° à¤Ĺ
à¤Ń à¤Ĺ
à¤ľà¤¨ à¤®
à¤¹ à¤®à¤¨
Ġà¤ıà¤ķ à¤¦à¤®
Ġà¤¸à¤¡ à¤ķà¤®
à¤Ĺ à¤¸
Ġà¤¯à¤¸ à¤ªà¤Łà¤ķ
Ġà¤¸à¤®à¤¯ à¤¸à¤®
à¤° à¤¬à¤¨
Ġà¤¸ à¤¶à¤ķ
Ġà¤¢ à¤ķ
ĠĠĠĠ ĠĠĠĠ
à¤µ à¤¹
Ġà¤° à¤µ
à¤¶ à¤Ń
à¤ĩà¤¨ à¤¨
à¤°à¤®à¤£ à¤²
à¤¨à¤µ à¤Ł
à¤¨ à¤¥
à¤ª à¤¹
à¤¥ à¤µ
à¤Ĺ à¤ľ
Ġà¤¨ à¤°à¤¹
à¥įà¥¤ âĢĻ
Ġà¤ľà¤¨ à¤¸à¤®
à¤°à¤¶ à¤¸
à¤¾ à¥Īà¤Ĥ
à¤¯ à¤°à¤²
à¤¯à¤¸ à¤°
) ,
à¤ĩ à¤«
à¤°à¤¸ à¤°à¤ķ
Ġà¤ĵà¤Ń à¤°à¤®
à¤ķ à¤¹
Ġà¤ķ à¤¬
Ġà¥© à¥¨
à¤¹ à¤£
à¤Ĺ à¤¹à¤°
à¤Ĺ à¤°à¤²
à¥Ĥ ,
à¤ĩ à¤¬
à¤¯à¤® à¤®
à¤Łà¤¨ à¤Ĺà¤°
à¤¨ à¤Ń
à¤§ à¤¨à¤®
à¤Ŀ à¤¦
Ġà¤ķà¤® à¤²
Ġà¤¸à¤¦ à¤°à¤®
Ġà¤Ĩ à¤¨à¤¨
à¤°à¤¹ à¤£
à¤°à¤µ à¤°
à¤Ĩ à¤Ī
Ġà¤Ĺ à¤ĩà¤°à¤¹
Ġà¤® à¤£
à¤£ à¤µ
à¤ĸ à¤£
à¤ħ à¤ª
Ġà¤ł à¤Ĺ
à¤¨ à¤¹
Ġà¤ī à¤°
à¤ī à¤®
Ġà¤ĸ à¤¬à¤°
à¤ľà¤¨ à¤²
à¤¯à¤¸ à¤Ń
Ġà¤īà¤ª à¤®à¤¹
Ġà¥§à¥¯ à¥¯
à¤ģ ,
Ġà¤ľà¤¨ à¤Ĩ
Ġà¥¨à¥¦à¥§ à¥«
Ġà¤ı à¤«
Ġà¤« à¤¸
à¤ħ à¤¹
Ġà¥¨à¥¦à¥§ à¥¬
Ġà¤¹ à¤ķà¤®
Ġà¤ļ à¤ķ
Ġà¤ļ à¤°à¤®
Ġà¤ĩ à¤ľ
Ġà¤ħ à¤·
Ġà¤ħ à¤²à¤Ĺ
à¤ıà¤¨ à¤ı
à¤Ĺ à¤¡
à¤¦à¤¨ à¤¶
à¤µ à¤°à¤²
Ġà¤ªà¤Łà¤ķ à¤ªà¤Łà¤ķ
à¤® à¤¯
Ġà¤ī à¤ªà¤¨
à¤ª à¤ķà¤®à¤²
Å Ĵ
à¤® à¤¹à¤°
à¤µ à¤ļ
à¤µ à¤¸à¤®
à¤Ł à¤°à¤²
à¤¬ à¤ľ
Ġà¥© à¥¬
à¤ľ à¤ķà¤²
à¤ĸ à¤¨à¤¨
Ġà¥« à¥«
à¤· à¤ķà¤ķ
Ġà¤¤ à¤²à¤¬
à¤Ī à¤®
à¤īà¤¨ à¤²
à¤® à¤µ
Ġà¤ħ à¤Ł
à¤· à¤¯à¤ķ
à¤ĺ à¤¸
Ġà¤Ŀ à¤°
à¥į ?
à¤£ à¤°
Ġà¤ı à¤¡
à¤²à¤¯ à¤¬
Ġà¤¨ à¤¬à¤¨
Ġà¤Ń à¤²
à¤ľ à¤¶
Ġà¤ļ à¤²à¤¨
à¤ħ à¤²
à¤¯ à¤¥
à¤Ł à¤°à¤¸
à¤²à¤¯ à¤¹à¤°
à¤° à¤Ńà¤¨
Ġà¤®à¤¨ à¤ªà¤°
à¤¬ à¤°à¤®
à¤Ĥ .
à¤ļ à¤¬
Ġà¤Ĩà¤ĩ à¤¸à¤ķ
à¥į âĢĵ
Ġà¤ħ à¤µà¤²
à¤ģ à¥ģ
à¤Ī à¤¨
à¤Ĺà¤ł à¤¨à¤ķ
Ġà¤¸à¤¹à¤° à¤®
à¤¿ âĢĵ
Ġà¤¨ à¤ļ
Ġà¤¸à¤¡ à¤ķà¤ķ
à¥¤ '
à¤ŀ à¤¹à¤°
à¤¤à¤ķ à¤ķ
à¤¶à¤ķ à¤ķ
à¤ĩà¤°à¤¹ à¤¨
Ġà¥ª à¥¨
à¤¨à¤ķ à¤°
à¤¸à¤¦ à¤ķ
à¤Ńà¤µ à¤¤
à¤¦ à¤¸à¤®
à¤¹ à¤ķà¤²
à¤¸à¤¦ à¤¹à¤°
Ġà¤ħ à¤ļ
Ġà¤ı à¤¨à¤¸
Ġà¥¬ à¥«
à¤®à¤¬ à¤¹
Ġà¤Ĩ à¤ªà¤¤
à¤ī à¤¡
Ġà¤ĩ à¤ľà¤°
à¤¤à¤°à¤£ à¤ķ
Ġà¥¨à¥¦à¥Ń à¥«
à¤° à¤¯à¤¤
Ġà¤¸ à¤°à¤²
à¤°à¤ķ à¤°
Ġà¤ħà¤µ à¤¶
à¤¨ à¤¤à¤®
Ġà¤ķ à¤«
à¤¾ ?
à¤¨ à¤ħà¤¨
à¤¤ à¤µà¤¨
à¤£ à¤ªà¤¤
Ġà¤¶ à¤µ
à¤¨ à¤ļ
à¤¯ à¤§
Ġà¤® à¤¦à¤¨
Ġà¤ĩ à¤ķ
à¤° à¤ŀ
à¤¸ à¤Ĺà¤°
à¥ĥ à¤Ĥ
Ġà¤®à¤¹ ÅĴ
à¤ķà¤°à¤£ à¤®
Ġà¤ıà¤¨à¤Ĩà¤°à¤ıà¤¨ à¤ı
à¤¤ à¤ļ
à¤¯ à¤¶
à¤µ à¤Ńà¤°
Ġà¤° à¤Ĺà¤¤
Ġà¤Ń à¤°à¤®
Ġà¤ħ à¤¥à¤µ
à¤¸à¤ķ à¤ķ
à¤ĺ à¤¨
Ġà¥¨à¥¦à¥Ń à¥©
Ġ ,
à¤Ĺ à¤®à¤¤
Ġà¤® à¤ľà¤¦
à¤¶ à¤®à¤¨
Ġà¤Ĩ à¤®à¤¨
à¤Ī à¤µà¤Ł
à¤°à¤ķ à¤Ł
à¤¸à¤® à¤ķ
à¤ĺ à¤°à¤®
à¤°à¤¸ à¤ŀ
à¤¯à¤¯ à¤¨à¤²
Ġà¤¸ à¤²à¤®
Ġà¤¡ à¤²
Ġà¤Ĺ à¤ıà¤ªà¤Ľ
à¤· à¤ķà¤²
Ġà¤¤ à¤¸à¤°
à¤® à¤¸à¤®
à¤ª à¤ªà¤Ľ
Ġà¤¨ à¤¸
Ġà¤¸à¤® à¤Ŀà¤¦
Ġà¤ħà¤¸ à¤²
à¤¨ à¤ľ
à¤ķ à¤¦
à¤Ł à¤¬à¤¨
Ġà¤¬ à¤¡
à¤ľ à¤¤à¤¨
Ġà¤Ľ à¤µ
à¤ī à¤ª
Ġà¤īà¤ª à¤ª
à¤¯à¤¯ à¤¨à¤ķ
Ġà¤¸à¤°à¤¸ à¤«
à¥ĩ )
à¤¶ à¤¤à¤®
à¤¹à¤° à¤£à¤ķ
à¤¸à¤¦ à¤²
à¤¸à¤ķ à¤¹à¤°
Ġà¤Ŀ à¤²
à¤¨ à¤¸à¤°
à¤µà¤¸ à¤¨
Ġà¤Ľà¤²à¤« à¤²à¤®
à¤® à¤¶
Ġà¤¸à¤¬ à¤Ńà¤¨
Ġà¤ķà¤ª à¤¡
à¤¥ à¤Ĺ
Ġà¤Ĩ à¤¬à¤¦
à¤ħ à¤¬
Ġà¥¦ à¥Ń
à¤ī à¤°
Ġà¤ļ à¤°à¤£à¤ķ
à¤« à¤®
Ġà¤¥ à¤°
à¤¿ à¥¤
à¤µ à¤¹à¤°
Ġà¤ķ à¤¦
Ġà¤Ĩ à¤£à¤µ
à¤ĸ à¤¤
Ġà¤ª à¤¸à¤²
Ġà¤° à¤¨à¤®
Ġà¤ĵ à¤°
à¤ľà¤ķ à¤¤
à¤ıà¤Ī à¤®
à¤¥ à¤²à¤ķ
à¤¶ à¤Ńà¤°
à¤¸à¤ķ à¤²
Ġà¥« à¥§
.. .
à¤¯ à¤°à¤ķ
Ġà¤¨ à¤·
à¤Ł à¤ĺ
à¥¦ à¥¦
à¤²à¤¬ à¤²
à¤¦ à¤¬
à¤ı à¤Īà¤ķ
Ġà¤ľ à¤¬à¤°
à¤Ļ à¤¬
à¤ĵ à¤¸
Ġà¤ª à¤Ł
à¤µ à¤¯à¤®
Ġà¤Ĺ à¤ľ
Ġà¤Ń à¤°à¤¤
à¤ľ à¤¹à¤°
Ġà¤¦ à¤°à¤¬
à¤ħ à¤Ń
Ġà¥¨à¥¦ à¥©
Ġà¤ıà¤® à¤¬
Ġà¥¨à¥¦à¥§ à¥®
Ġà¤¤ à¤®
Ġà¤ļ à¤°à¤£
Ġà¤ħà¤² à¤ªà¤¤
Ġà¤ıà¤¨à¤Ĩà¤° à¤ı
à¤µ à¤°à¤ķ
Ġà¤Ĩ à¤īà¤Ł
à¤£ à¤ª
à¤ĩ à¤¹
à¤¯à¤ķ à¤ķ
à¤ŀ à¤µ
Ġà¤®à¤¨ à¤¸
Ġà¤ľà¤¨à¤Ĩ à¤¨
à¤¨ à¤ªà¤Ľ
Ġà¤ķ à¤ŀ
Ġà¤¤ à¤¬
Ġà¤¶ à¤²
Ġà¤Ł à¤¸
à¤Ļ à¤Ł
à¤ħ à¤®
Ġà¤ĩ à¤ľà¤²
à¤·à¤ķ à¤¹à¤°
à¤¤ à¤¦
à¤ª à¤¯à¤²
à¤µ à¤¸à¤ķ
à¤ı à¤ªà¤¨
Ġà¤¹ à¤²à¤®
à¤°à¤¸ à¤¹
à¤·à¤£ à¤²
Ġà¥© à¥Ń
Ġà¥« à¥¨
ĠĠ čĊ
à¤¨ à¤ħà¤ĺ
Ġà¤ı à¤Ł
à¤ł à¤ķà¤ķ
Ġà¤¡ à¤Ł
Ġà¤ĵ à¤ª
à¤¶à¤¤ à¤Ńà¤¨
Ġà¤¸ à¤Ł
à¤¦ à¤¨à¤²
à¤Ł à¤µà¤°
Ġà¤¹ à¤¦à¤¸à¤®
à¤£ à¤¯à¤²
Ġà¤² à¤£
Ġà¤īà¤ª à¤¹
à¤ħ à¤Ĺ
à¤¡ à¤¤
à¤« à¤¦
à¤²à¤¬ à¤ķ
Ġà¥ª à¥©
Ġà¥¨à¥¦à¥§ à¥§
Ġà¤ľà¤¨ à¤µ
Ġà¤ł à¤ķ
à¤Ĩ à¤ľ
Ġà¥© à¥ª
Ġà¥¨à¥¦à¥§ à¥ª
à¤¾ à¥ĩà¥¤
à¤¤ à¤ľ
à¤ł à¤Ń
à¤ĺ à¤®
à¥§ à¥¦
à¤Ĩ à¤ĩà¤ª
à¤¦à¤° à¤Ĺ
Ġà¥§à¥¯ à¥«
à¥Ģ à¥¤
Ġà¤¦ à¤°à¤²
à¤¶ à¤°
à¤ĩ à¤¨à¤®
à¤°à¤® à¤¨
à¤¤à¤° à¤¦
Ġà¥¨à¥¦ à¥¨
Ġà¤Ńà¤Ĺ à¤µ
à¥į âĢĻ
Ġà¤¨ à¤ĸ
à¤ľ à¤¯à¤ķ
Ġà¤¦ à¤«
Ġà¤īà¤ª à¤ķ
Ġà¤²à¤Ĺ à¤¤
Ġà¤Ī à¤¶
à¥ģ âĢĻ
Ġà¤ħ à¤²à¤®
Ġà¤ľà¤¨ à¤ļ
Ġà¤¸à¤¹ à¤°à¤ķ
à¤°à¤µ à¤Ł
à¥§ à¥§
Ġà¤Ĩà¤ª à¤¸
Ġà¤ª à¤ļ
à¤Ĺ à¤®à¤²
Ġà¤° à¤¤
Ġà¤¨ à¤Ł
Ġà¤¨ à¤µà¤¨
à¤¥ à¤ª
à¤°à¤® à¤¹à¤°
Ġà¤ı à¤£
à¤µà¤¨ à¤¶
à¤ķ à¤¥
à¥ģ ,âĢĻ
à¤ª à¤¨à¤®
à¤Ĺ à¤£
Ġà¤īà¤ª à¤µ
à¤ļà¤¨ à¤ª
Ġà¤ħà¤µ à¤²à¤®
à¤¹à¤¦ à¤°à¤¬
à¥¤ âĢĿ
Ġà¤® à¤Ĺà¤°
à¤¶ à¤¦
à¤¡ à¤µ
à¤¯à¤Ł à¤¨à¤ķ
à¤¯ à¤¨à¤ķ
à¤¦ à¤¯
Ġà¤Ń à¤ĩà¤¨
Ġà¤µ à¤ŀ
Ġà¤²à¤Ĺ à¤Ńà¤Ĺ
à¤²à¤¬ à¤¹
à¤¸à¤¦ à¤®
Ġà¥¨à¥¦à¥¦ à¥Ń
à¤¤ à¤ķà¤®
Ġà¤¹ à¤®
à¤ĩ à¤ı
à¤Ĩ à¤īà¤Ł
Ġà¥© à¥®
à¥¬ à¥©
à¤Łà¤¬ à¤²à¤ķ
à¤¿ âĢĻ
à¤¤ à¤ķà¤²
Ġà¤ª à¤£
à¤Ł à¤²à¤®
Ġà¤µ à¤²
Ġà¤īà¤¦ à¤¯à¤ª
Ġà¤Ķ à¤ļ
à¤°à¤ļ à¤²à¤¨
à¥ģ à¥¤âĢĻ
Ġà¤¨ à¤¨
Ġà¤¬ à¤Ł
Ġà¤² à¤¤
Ġà¤ı à¤¶
à¤²à¤ķ à¤²
à¤¯à¤¸ à¤¹
à¤ħ à¤«
Ġà¥© à¥¯
à¤ĵ à¤²
Ġà¤ħà¤« à¤Ĺ
à¥ģ à¥į
à¤¹ à¤¬
à¤ģ à¥Ī
Ġà¤¦ à¤£
à¤Ī à¤¦
à¤ĩ à¤²à¤®
Ġà¤Ĳ à¤¨à¤®
Ġà¤ıà¤¸ à¤ª
à¤¯ à¤°à¤®
Ġà¤° à¤ľ
à¤ı à¤ļ
Ġà¤¤ à¤Łà¤¬à¤¨
Ġà¤ľ à¤¥
Ġà¤ľ à¤²à¤¸
Ġà¤ı à¤µà¤®
Ġà¥¨à¥¦à¥§ à¥¯
à¤° à¤Ļ
à¤· à¤Ĺà¤°
à¤£ à¤¬
Ġà¤ĸ à¤ªà¤¤
Ġà¤¶ à¤¹à¤°
Ġà¤ıà¤ķ à¤ªà¤Łà¤ķ
à¥§ à¥«
à¤°à¤Ń à¤°
à¤¤ à¤¸à¤®
à¤µ à¤°à¤®
Ġà¤ķ à¤ļ
à¤Ł à¤¸à¤®
Ġà¤ħ à¤µà¤ķ
Ġà¤® à¤ķà¤µ
à¤¶ à¤¤à¤ķ
Ġà¤Ĩ à¤Ĩà¤«
à¤ŀ à¤²
à¤Ĩ à¤®
, '
à¤² à¤ªà¤Ľ
à¤¸ à¤µà¤ķ
à¤Ĺ à¤Ł
à¤§ à¤ª
Ġà¤Ĩ à¤¸à¤ª
Ġà¤² à¤ĺ
à¤ĩ à¤µ
à¤ķ à¤¡
à¤® à¤¹à¤¤
à¤¯ à¤ľ
à¤· à¤Ńà¤¨
à¤ĺ à¤°à¤ķ
Ġà¤ĺ à¤°à¤¬
à¤°à¤®à¤£ à¤¬
Ġà¤ĩ à¤£
à¥¨ à¥«
à¤° à¤ľà¤¨
à¤¿ à¥į
à¤¸ à¤µà¤®
Ġà¤ī à¤ĸ
à¤¡ à¤²à¤ķ
à¤¯à¤Ł à¤ķà¤²
Ġà¤®à¤¹ÅĴ à¤µà¤ª
Ġà¤ ·
à¥ĩ à¥į
à¤¦ à¤Ĺ
à¤ĩ à¤¨à¤ķ
Ġà¤¯à¤¸ à¤ª
Ġà¤ħà¤° à¤¬
Ġà¤¦à¤¶ à¤ķà¤®
Ġà¤¦à¤¶ à¤®à¤²
à¤¯ à¤Ń
Ġà¤Ĩ à¤ĸ
à¤ī à¤¸
ĠâĢ Ļ
Ġà¤Ńà¤ı à¤¸
Ġà¥« à¥¬
à¤ķ à¤Łà¤ķ
à¤µ à¤ķà¤²
Ġà¤® à¤ľà¤¬
Ġà¤Ĩ à¤Ń
à¤ļ à¤¨à¤²
Ġà¤īà¤ª à¤ķà¤°à¤£
à¤ıà¤¨ à¤Ĩà¤°
Ġà¥¬ à¥ª
à¤µà¤°à¤£ à¤®
à¤° à¤Ĺà¤¨
à¤¨ à¤¡
à¤® à¤¤à¤ķ
à¤ª à¤¨à¤²
Ġà¤¨ à¤Ĺ
à¤Ł à¤¨à¤ķ
Ġà¤¸à¤¹ à¤¨
à¤ħ à¤¸
à¥ĩ, âĢĺ
Ġà¥« à¥©
Ġà¤¨à¤Ń à¤ıà¤ªà¤Ľ
à¤¨ à¤¯à¤¨
à¤Ł à¤µà¤²
à¤ľ à¤ķà¤®
à¤· à¤¯à¤µà¤¸
à¤£ à¤¯à¤®
à¥Ĥ à¤ģ
Ġà¤ıà¤ķ à¤ħà¤°
à¤Ļ à¤¸
à¤ķà¤® à¤ķ
Ġà¤Ńà¤ĩà¤°à¤¹ à¤¨
à¤Ī à¤¤
à¤Ń à¤ªà¤¤
Ġà¤¸à¤® à¤¯à¤¸
à¤ĩ à¤°à¤¸
Ġà¤ĩ à¤Ł
Ġà¤Ĳ à¤¨à¤²
à¤ķ à¤¤à¤®
à¤¯ à¤ľà¤¨
à¤µ à¤¨à¤²
Ġà¤¹ à¤¨
à¤· à¤¸
à¤°à¤® à¤¬
Ġà¤ıà¤ķ à¤®
à¥Ń à¥ª
Ġà¥« à¥ª
Ġà¥¬ à¥©
Ġà¥ª à¥§
à¤Ĺà¤ł à¤¨à¤²
Ġà¤¨à¤Ĩ à¤ıà¤ķ
à¤° à¤ªà¤Ľ
à¤¸ à¤°à¤®
Ġà¤ħ à¤¯
Ġà¤¬ à¤§
Ġà¤Ĩ à¤°à¤ķ
Ġà¤« à¤¡
à¤Ļ à¤¤à¤°
Ġà¤¡ à¤°à¤²
Ġà¤ĵ à¤Ŀ
Ġà¤ļà¤² à¤ĸ
Ġà¥¬ à¥Ń
Ġà¥ª à¥Ń
Ġà¥ª à¥®
Ġà¤Ĳ à¤¨à¤ķ
Ġà¤Ĩà¤ľ à¤¸à¤®
Ġà¤· à¤¡
Ġà¤¦à¤¶à¤®à¤² à¤µ
à¤¾ à¥Ī
à¤ķ à¤¨à¤ķ
à¤® à¤ļà¤¨
à¥ģ âĢĵ
à¤ª à¤¸à¤®
Ġà¤¹ à¤Ļà¤ķ
Ġà¤® à¤¡
Ġà¤¥ à¤²
à¤ľà¤¨ à¤¤
à¤Ĩ à¤¯
Ġà¥® à¥¨
à¥ĩà¤ģ à¥¤
à¤ķ à¤Ń
Ġà¤Ĺ à¤¹à¤¨
à¤ı à¤¸à¤®
à¤· à¤¯à¤¤
à¤¥ à¤¸
Ġà¤Ĩ à¤Ĺà¤²
à¤ĸ à¤Ńà¤¨
Ġà¤ıà¤ķ à¤¦
Ġà¤Ł à¤¨
à¤µà¤ķ à¤°
Ġà¥ª à¥ª
Ġà¤® à¤ķ
à¤· à¤ķà¤®
à¤£ à¤¯à¤ķ
à¤Ń à¤ıà¤¨
à¤« à¤°à¤ķ
Ġà¥ª à¥¬
Ġà¥¨à¥¦à¥§ à¥©
à¤°à¤ª à¤¶
Ġà¤ħà¤ĸ à¤£
à¤¾ -
à¤µ à¤ľ
à¤Ł à¤¤
Ġà¤® à¤Ŀ
Ġà¤ľà¤¨ à¤µà¤°
Ġà¤¸à¤¹ à¤¸à¤ļ
à¥§ à¥¬
à¤® à¤ľ
à¤ª à¤ķà¤°
à¤Ĺ à¤²à¤®
à¤ĩ à¤¬à¤°
Ġà¤ı à¤Ńà¤°
Ġà¤ľà¤¨ à¤¯
Ġà¤¤à¤¹ à¤¬
Ġà¤Ķ à¤¸à¤¤
à¤¶à¤¤ à¤¸à¤®
Ġà¤Ńà¤°à¤¤ à¤ª
Ġà¤¨ à¤µà¤°
Ġà¤¨ à¤µà¤²
à¤ī à¤£
à¤ĸ à¤¸à¤®
Ġà¤¶ à¤ªà¤¥
Ġà¤ĺ à¤¡
à¤°à¤² à¤Ĺ
Ġà¤īà¤ª à¤¸à¤Ń
à¥§ à¥¨
à¤¨à¤¸ à¤¹
Ġà¥¬ à¥¬
Ġà¥Ń à¥¨
Ġà¤ıà¤¸ à¤ıà¤¸à¤ª
à¤¹à¤² à¤ª
à¤Ĺ à¤ª
à¥Ī à¥¤
à¤ľ à¤°à¤²
Ġà¤Ĩ à¤¦à¤°
à¤Ĩ à¤¬
à¤µà¤ķ à¤ķ
Ġà¥ª à¥¯
à¤¹à¤¨ à¤¤
à¤¤à¤µ à¤¨à¤ķ
à¤¤ à¤ªà¤¤
à¤¯ à¤ªà¤°
Ġà¤¸ à¤¦à¤¨
Ġà¤ķ à¤°à¤ķ
Ġà¤Ĺ à¤Ńà¤°
Ġà¤° à¤¦
à¤ľ à¤Ń
Ġà¤ľ à¤Ĺà¤¤
à¤ī à¤¥
Ġà¤¯ à¤ķ
à¤¯à¤ķ à¤®
à¤Ĩ à¤¤
à¤²à¤Ĺ à¤¨
Ġà¤Ńà¤° à¤ªà¤°
Ġà¥¨à¥¦à¥Ń à¥§
Ġà¤ıà¤¨à¤Ĩà¤°à¤ı à¤¨à¤ķ
à¤Ĺ à¤®à¤ķ
Ġà¤ħ à¤ŀ
Ġà¤¦ à¤²à¤¬
à¤£ à¤¬à¤¹
Ġà¤¶ à¤®
à¤Ĩ à¤ĩ
à¥Ń à¥«
à¥© à¥¦
à¤Ńà¤° à¤ª
Ġà¥§à¥¦ à¥¦
Ġà¥¨à¥¦à¥¬ à¥¨
Â «
à¤ķ à¤Łà¤®
à¤ª à¤²à¤²
Ġà¤° à¤ļà¤¨
Ġà¤¨ à¤Ĺà¤°à¤ķ
à¤°à¤£ à¤¸à¤Ń
à¤¤à¤ķ à¤°
Ġà¥« à¥®
Ġà¥® à¥«
à¤¨à¤µ à¤ħà¤§
Ġà¤Ĩà¤ķ à¤¸
Ġà¥§à¥¯ à¥®
Ġà¤ħà¤¸à¤¹ à¤®à¤¤
à¤¨ à¤Ľ
à¤¯ à¤ªà¤¤
à¤¸ à¤¸à¤®
Ġà¤Ĺ à¤¦
à¤Ĺ à¤Ń
Ġà¤® à¤ľ
Ġà¤¸à¤® à¤ķ
Ġà¤ħà¤¨ à¤¶à¤¨
à¤¯à¤® à¤¹à¤°
Ġà¤ķà¤® à¤°
Ġà¤ªà¤¹ à¤²à¤®
à¥§ à¥¯
Ġà¤ħà¤« à¤°
à¤°à¤ļ à¤²
à¤¿ .
à¤² à¤Ĺà¤¤
à¥Ģ '
à¤¸ à¤ħà¤«
Ġà¤ª à¤¬
Ġà¤ķ à¤Ńà¤°
Ġà¤¨ à¤ļà¤²
à¤Ł à¤°à¤¹à¤°
Ġà¤ħ à¤ªà¤®
Ġà¤µ à¤¨à¤¸
Ġà¤ı à¤¯à¤°
Ġà¤ĸ à¤Ĺ
à¤¾à¤ģ à¥Ī
à¤Ĩ à¤ıà¤ķ
Ġà¤ĵ à¤ªà¤¨
Ġà¥Ń à¥¬
Ġà¥¨à¥¦à¥§ à¥¨
Ġà¥¨à¥¦à¥¦ à¥¯
Ġà¥¨à¥¦à¥ª à¥¬
à¤ķ à¤ħà¤¨
à¥ĭ )
à¤¤ à¤¨à¤²
à¤¤ à¤°à¤²
à¤¦ à¤ª
à¤¶ à¤ª
Ġà¤² à¤¹
à¥Ĥ âĢĵ
à¤¡ à¤ª
Ġà¤§ à¤ķ
à¥§ à¥®
Ġà¥¬ à¥®
ĠĠ Ġ
à¤¯ à¤Łà¤°
Ġà¤® à¤ļ
à¤ľ à¤ķà¤ķ
à¤ī à¤¤à¤²
à¤ŀ à¤ķ
à¥ģà¤ģ à¥¤
Ġ? âĢĻ
à¤¤à¤® à¤²
Ġà¤ĵ à¤¸
Ġà¤Ŀ à¤Ĺà¤¡
Ġà¤«à¤² à¤«
à¤¸ à¤Ł
à¤¦ à¤Ń
Ġà¤ķ à¤°à¤£
à¤Ĺ à¤¸à¤®
Ġà¤īà¤ª à¤®
à¤²à¤² à¤Ĺ
à¤²à¤¤ à¤¬
à¤¨à¤¬ à¤¹
Ġà¥¨à¥¦à¥¬ à¥ª
à¤¤à¤¹ à¤Ł
à¤Ńà¤ªà¤¤ à¤¨
à¤¾ âĢľ
à¤ķ à¤¶
à¤² à¤ļ
à¤² à¤ĸ
à¤Ł à¤²à¤ķ
Ġà¤Ń à¤ĩà¤¹
à¤¥ à¤²à¤¬
Ġà¤ı à¤¯à¤°à¤²
Ġà¤ĸ à¤¬
à¤¤à¤° à¤¬
Ġà¥« à¥Ń
Ġà¤ħà¤µ à¤¤à¤°à¤£
à¤°à¤¨ à¤Ĺà¤°
à¤¿ )
à¤ķ à¤°à¤ķ
Ġà¤¨ à¤Ľ
Ġà¤ħ à¤Ļ
Ġà¤Ĩ à¤¯à¤ķà¤°
à¤Ī à¤ıà¤ķ
à¤ĩ à¤Łà¤®
Ġà¤ĸ à¤²
à¤¯à¤¤ à¤¯
à¤µà¤¨ à¤¸
à¥§ à¥Ń
Ġà¤Ĩà¤ĩ à¤ıà¤®
Ġà¥Ń à¥§
Ġà¥Ń à¥Ń
Ġà¤°à¤ķà¤® à¤ķ
à¤¯à¤¯ à¤¨à¤®
à¤¯ à¤¨à¤²
à¤ľ à¤¦à¤°
à¤ĸ à¤¹à¤°
à¤ļà¤¨ à¤ªà¤Ľ
Ġà¥« à¥¯
Ġà¥Ń à¥®
à¤Ĺà¤® à¤¨à¤ķ
Ġà¤Ĩà¤ª à¤¸à¤®
ĠĠĠĠĠĠĠĠ ĠĠĠĠĠĠĠĠ
à¥ĩ Ã·
à¤® à¤¥
à¤ľ à¤¹
à¤ľ à¤°à¤ķ
Ġà¤¤ à¤°à¤²
à¤Łà¤° à¤«
Ġà¤ªà¤Łà¤ķ à¤ķ
Ġà¥¯ à¥«
à¤¤à¤µ à¤Ł
Ġà¥¨à¥¦à¥¬ à¥©
Ġà¤¨à¤Ĩ à¤īà¤¨
à¤¨ à¤ľà¤¨
à¤ķ à¤°à¤²
à¥ĩ /
à¤¸ à¤¤à¤®
à¤¦ à¤£
Ġà¤¦ à¤®à¤ķ
Ġà¤Ĩ à¤ªà¤°
à¤¯à¤ķ à¤²
à¤Łà¤ķ à¤ķ
à¤ļà¤¨ à¤¬
Ġà¤Ĩà¤µ à¤§
Ġà¥¬ à¥¨
à¤¨à¤¬ à¤®
Ġà¤¬à¤ļ à¤¤
à¤¶à¤Ń à¤°à¤ķ
Ġ ...
à¤¾ à¤¾
à¤¯ à¤²à¤ķ
à¤¸ à¤«
à¤¸ à¤²à¤®
à¤¹ à¤ª
Ġà¤¬ à¤¦
à¤¡ à¤¦
à¤°à¤ķ à¤°à¤£à¤®
Ġà¤¶ à¤¶
à¤°à¤£ à¤¬
à¤²à¤ķ à¤ķ
Ġà¤ĺ à¤°à¤§
à¤Ŀ à¤Ł
Ġà¤ł à¤®
Ġà¥¬ à¥¯
à¤¯à¤¯à¤¨ à¤°à¤¤
Ġà¤¸à¤¡ à¤ķà¤²
à¥ĭ âĢĻ,
Ġà¤ª à¤µ
à¤¦ à¤¶
à¤¹ à¤£à¤ķ
à¤Ł à¤°à¤¬
à¤Ń à¤¸
à¤°à¤¤ à¤°
à¤¨à¤² à¤Ĺ
Ġà¤Ńà¤ı à¤¨à¤¨
Ġà¤¸à¤®à¤¯ à¤ħà¤ĺ
Ġà¤ªà¤¦ à¤¯
à¤·à¤¯ à¤¹à¤°
ĠĠ ĠĊ
Ġà¥§à¥¯ à¥¬
Ġà¤ľà¤¨à¤® à¤¤
à¤¨ à¤¤à¤°
à¤ķ à¤¸à¤®
à¤Ĺ à¤µ
Ġà¤° à¤ľà¤¤
à¤¶ à¤°à¤£
à¤ĸ à¤¬
Ġà¤¸à¤¬ à¤²
à¤°à¤¬ à¤°
Ġà¥Ń à¥ª
à¤¯à¤¸à¤® à¤§
Ġà¥¨à¥¦à¥Ń à¥¦
à¤łà¤ķ à¤¬
à¤¯à¤Łà¤ķ à¤ķ
Ġà¥¦ à¥¬
à¤ıà¤¨à¤Ĩà¤° à¤ıà¤¨à¤ı
à¤² à¤ĸà¤£
Ġà¤² à¤ľ
Ġà¤ī à¤§
Ġà¤¡ à¤ķ
Ġà¥¨à¥¦ à¥¨à¥¦
Ġà¤ĵ à¤®
à¤·à¤¦ à¤ķ
Ġà¥¨à¥¦à¥§ à¥¦
à¤¤ à¤Ĺà¤¤
Ġà¤¨ à¤Ńà¤¨
Ġà¤µ à¤¸à¤¨
à¤ļ à¤¥à¤°
à¤¡ à¤¨à¤®
à¤¡ à¤²à¤®
Ġà¤¥ à¤ķ
à¤µà¤ķ à¤ª
Ġà¤¤à¤¹ à¤¸à¤®
Ġà¤ħà¤ª à¤¡
Ġà¤ħà¤ª à¤¹à¤°à¤£
à¤®à¤¸ à¤¤
à¤¯à¤Łà¤ķ à¤¹à¤°
Ġà¤¸à¤ª à¤¥
Ġà¤¨à¤Ńà¤ı à¤¸à¤®
Ġà¤¨à¤Ł à¤Ĩà¤īà¤Ł
à¤° à¤ĺ
à¤¨ à¤Ńà¤°
à¤² à¤¯à¤¸
à¤Ł à¤ķà¤®
Ġà¤¦ à¤¯
à¤¥ à¤¶
Ġà¥¤ âĢĿ
à¤Ī à¤Ł
à¤īà¤¨ à¤®
Ġà¤ľà¤¨ à¤¹
à¤¯à¤® à¤¶
à¤¾à¤Ĥ à¥Ī
à¤®à¤ķ à¤°
à¤¯à¤² à¤²
Ġà¤Ĩà¤µ à¤¦
Ġà¥¬ à¥§
à¤ĵ à¤ķ
à¤¤à¤°à¤£ à¤®
Ġà¤ľà¤¬ à¤¸à¤®
à¤¬à¤Ī à¤®
Ġà¤Ĩà¤Ī à¤¸
à¤¤ à¤¹à¤¤
à¥Ģ à¤Ĥ
à¤· à¤ª
Ġà¤Ĩ à¤Ļ
à¤ī à¤¹
Ġà¤¸à¤® à¤¯à¤²
à¤°à¤ķ à¤²
Ġà¤ļ à¤®
Ġà¤ħà¤µà¤¸ à¤°à¤ķ
Ġà¤ĵ à¤Ĺà¤Ł
Ġà¤ªà¤¦ à¤¬
Ġà¤ľà¤¬ à¤ķ
Ġà¥¨à¥¦à¥ª à¥Ń
à¤° à¤ħà¤¨
à¤² à¤¸à¤¹
Ġà¤¸ à¤¨à¤®
Ġà¤¸ à¤¤à¤°
à¤ª à¤¹à¤°
à¤¦ à¤¸
à¤ı à¤«à¤²
à¤ģ à¤Ĥ
Ġà¤¦ à¤²à¤®
à¤¥ à¤¤
à¤Ń à¤°à¤¤
à¤¯à¤ķ à¤µ
Ġà¤Ł à¤ķ
à¤ķà¤² à¤¨à¤ķ
à¤Ĩ à¤ĩà¤¸
à¤¡à¤ķ à¤ª
Ġà¤¸à¤®à¤¯ à¤ªà¤Ľ
à¤·à¤¯ à¤Ĺà¤¤
Ġà¤ıà¤¨ à¤ľ
Ġà¥¯ à¥®
Ġà¥§à¥¯ à¥ª
à¤¨à¤¯ à¤¨à¤®
à¤¾ âĢĻ,
à¤¾ Ã·
à¤¨ à¤Ĺà¤°à¤ķ
à¤² à¤Ł
à¤¤ à¤Ń
à¤¤ à¤¨à¤®
à¤¸ à¤¶
Ġà¤¸ à¤°à¤¹
à¤ı à¤²à¤ķ
à¤ı à¤¸à¤¨
à¤ı à¤«à¤ķ
Ġà¤¯ à¤®
Ġà¤ı à¤ļ
à¤ĺ à¤Ł
à¤¯à¤¸ à¤ħà¤ĺ
Ġà¤§ à¤°à¤¹à¤°
à¤¯à¤¤ à¤¸
Ġà¤īà¤ª à¤¦
à¥Ń à¥¬
Ġà¤¦à¤¶à¤ķ à¤¦
à¤Ĭ à¤¨
à¥ĭ à¤Ĥ
à¤¯ à¤¦à¤²
à¤¦ à¤¹à¤°
Ġà¤ķ à¤·
Ġà¤ķ à¤¸à¤ķ
Ġà¤ķ à¤²à¤ķ
Ġà¤ķ à¤²à¤®
Ġà¤Ĺ à¤«
à¤Ĺ à¤ļ
à¤ı à¤¸à¤ķ
Ġà¤ħ à¤ł
à¤¬ à¤¤
Ġà¤ľ à¤¯
à¤Ī à¤ªà¤Łà¤ķ
à¤¡ à¤¹à¤°
à¤¡ à¤¨à¤ķ
à¥Į ,
Ġà¤°à¤¹ à¤¸
à¤°à¤¹ à¤µ
à¤²à¤ķ à¤¹à¤°
Ġà¤ıà¤ķ à¤¸
à¤¯à¤¤ à¤¬
Ġà¥® à¥®
Ġà¥¯ à¥¨
à¤¥à¤² à¤Ĺà¤¤
à¥ĩà¤ģ ,
Ġà¤¤à¤°à¤² à¤¤
à¤¾ /
à¤¦ à¤µà¤ķ
à¤Ĺ à¤ħà¤¨
à¤ı à¤Īà¤²
à¤· à¤¤à¤°
Ġà¤¦ à¤µ
à¤¶ à¤¯
à¤ļ à¤°à¤ķ
à¤Ī à¤¸
à¤¡ à¤²à¤²
à¤ĩ à¤ıà¤¨
à¤¯à¤¨ à¤ľà¤°
à¥į, âĢĺ
Ġà¤¸à¤¯ à¤Ńà¤¨
Ġà¤ħà¤ª à¤µ
Ġà¤Ľà¤²à¤« à¤²à¤ķ
Ġà¤ħà¤²à¤® à¤²
à¤¾ à¥Īà¤ģ
à¤¨ à¤ĸ
à¤² à¤¹
à¤¯ à¤£à¤ķ
à¤ª à¤°à¤ķ
à¤¦ à¤°à¤²
Ġà¤Ĺ à¤ĩà¤¸à¤ķ
à¤Ĺ à¤²à¤ķ
Ġà¤ħ à¤ļà¤®
à¤¶ à¤Ńà¤ķ
à¤ī à¤ľ
à¤ĩ à¤ĵ
à¤ĩ à¤Ńà¤°
à¤« à¤¸
à¥Į à¥¤
Ġà¤ı à¤¯
Ġà¤ıà¤ķ à¤°
Ġà¤Ł à¤¹à¤°
Ġà¤ĩ à¤Ń
à¥ĩ, âĢĻ
à¤Ĩ à¤ĩà¤ľ
Ġà¥Ń à¥¯
Ġà¤Ńà¤µ à¤¨à¤ķ
Ġà¤ıà¤¨à¤Ĩà¤°à¤ıà¤¨ à¤ıà¤ķ
à¤¨ à¤°à¤®
à¤¨ à¤ªà¤°
à¤¦ à¤¤à¤®
à¤Ĺ à¤¬à¤¨
à¤Ĺ à¤¬à¤¹
à¤ı à¤īà¤Ł
Ġà¤Ĩ à¤µà¤ķ
Ġà¤ī à¤¬
à¤°à¤® à¤§
Ġà¤¶ à¤¤à¤ª
Ġà¤« à¤²à¤¸
à¤ŀ à¤¤
Ġà¤ĩ à¤Ļ
Ġà¤ħà¤® à¤°
Ġà¤ľà¤¸ à¤ħà¤¨
Ġà¤Ĩà¤Ĺ à¤®à¤¨
Ġà¥¯ à¥Ń
Ġà¥«à¥¦ à¥¦
Ġà¥¨à¥¦à¥ª à¥®
à¤° à¤Ļà¤ķ
à¤ķ à¤ħà¤ª
à¤¹ à¤¹à¤°
Ġà¤Ĺ à¤Ĺà¤¨
Ġà¤° à¤Ļ
à¤ı à¤¬
Ġà¤µ à¤ļà¤¨
Ġà¤Ĩ à¤¸à¤¨
Ġà¤ľ à¤¯à¤¨
Ġà¤¸à¤® à¤ķà¤ķ
Ġà¤¥ à¤¨
Ġà¤ªà¤° à¤¨
Ġà¤¯à¤¸ à¤ªà¤Ľ
à¤¤à¤° à¤ª
à¤¶à¤ķ à¤¹à¤°
à¤¸à¤¨ à¤¬
Ġà¤ħà¤Ĺ à¤¸
Ġà¥Ń à¥©
Ġà¥¯ à¥ª
à¤¤à¤¹ à¤Łà¤ķ
Ġà¤¨à¤µà¤² à¤ªà¤°
à¥į à¥į
à¤¸ à¤ŀ
Ġà¤ķ à¤£
Ġà¤° à¤¥
Ġà¤° à¤¹à¤°
Ġà¤® à¤Ĺà¤°à¤²
Ġà¤¤ à¤µà¤°à¤²
Ġà¤² à¤ļ
à¤¯à¤¸ à¤ħà¤¨
à¤Ļ à¤¯
à¤²à¤¨ à¤¬
à¤¶à¤¨ à¤¬
Ġà¤¦à¤° à¤¬à¤¨
Ġà¥¯ à¥§
Ġà¥¯ à¥¯
Ġà¥¨à¥¦à¥¦ à¥®
Ġà¥¨à¥¦à¥¬ à¥¯
à¤Ķ à¤·à¤§
Ġà¤¦à¤¶à¤ķ à¤ķ
Ġà¤ª à¤¥
à¤¹ à¤ķà¤ķ
Ġà¤Ĺ à¤Ī
Ġà¥¤ âĢĺ
Ġà¤Ĩ à¤¡à¤®
Ġà¤² à¤°
à¤Ī à¤¹à¤°
à¤¡ à¤¯à¤¨
à¤ĩ à¤°à¤²
Ġà¤ļ à¤Ł
à¤ªà¤¨ à¤ªà¤¤
à¤ĩà¤¨ à¤¬
à¤ķà¤² à¤¸
Ġà¤ĩ à¤ª
à¥§ à¥ª
à¤®à¤¤ à¤²
à¥Įà¤ģ ,âĢĻ
à¤ıà¤¸ à¤ıà¤®
Ġà¤Ĳà¤¨ à¤ħà¤¨
à¤Ńà¤² à¤ªà¤®
Ġà¤ħà¤¸à¤¹ à¤ľ
à¤° à¤ľà¤¸
à¤¤ à¤¯
à¤Ĺ à¤ªà¤¤
à¥Ī âĢĵ
à¤Ł à¤ªà¤Ľ
à¤ı à¤²à¤¸
Ġà¤¹ à¤¡
Ġà¤® à¤¨à¤²
à¤ī à¤¡à¤®
Ġà¤ı à¤Ĺ
Ġà¤ĸ à¤ª
Ġà¤ĺ à¤°à¤¹à¤°
Ġà¤¡ à¤¨
Ġà¤¡ à¤¬
à¥Įà¤Ĥ âĢĻ
à¤ªà¤¤ à¤ķ
Ġà¤ĵ à¤Ł
Ġà¥® à¥ª
Ġà¥¯ à¥¬
Ġà¥§à¥¯ à¥Ń
Ġà¤¸à¤¹à¤ľ à¤¤
Ġà¤¨à¤¬ à¤¢
à¤ Ĳ
à¥į )
à¤ķ à¤Ńà¤°
à¤® à¤Ń
Ġà¤ª à¤ª
à¤¦ à¤Ľà¤¨
à¥Ī à¥Ī
Ġà¤° à¤ŀ
Ġà¤¨ à¤²à¤Ĺ
Ġà¤Ń à¤ĩ
à¤¥ à¤¨à¤®
à¤Ĥ à¥Ī
à¤Ī à¤¬
à¤ī à¤¡à¤ķ
Ġà¤ı à¤°
Ġà¤ı à¤ªà¤®
Ġà¤§ à¤¨à¤ķ
Ġà¤Ĩà¤° à¤ľ
Ġà¥¯ à¥©
Ġà¤ħà¤¸à¤«à¤² à¤¤
Ġà¤ľà¤¸à¤® à¤§
Ġà¥§à¥¯à¥¯ à¥¦
Ġà¤¡à¤² à¤°à¤ķ
à¤ķ à¤¬à¤¹
à¤¦ à¤°à¤¤
Ġà¤¦ à¤¹
Ġà¤² à¤¹à¤°
à¤Ī à¤ľà¤¨
à¤¡ à¤¹
à¤¡ à¤°à¤ķ
à¤¡ à¤°à¤²
à¤Ń à¤¨à¤®
à¤ĩ à¤²à¤ķ
Ġà¤« à¤¨
Ġà¤ł à¤ª
Ġà¤ĩ à¤¯
à¤·à¤£ à¤¬
à¥Įà¤ģ âĢĵ
Ġà¤®à¤¤ à¤²à¤¬
à¤Ĺà¤ł à¤¨à¤®
Ġà¥§à¥¯à¥« à¥¦
à¥į âĢĻ,
à¤² à¤µà¤¸
à¤¤ à¤ļà¤°
à¥Ģ -
à¤¹ à¤Ł
à¤¹ à¤ľ
à¤¬ à¤Īà¤ķ
Ġà¤¦ à¤¨
Ġà¤Ĩ à¤ĩà¤¨
à¤Ľ à¤¡
à¤¡ à¤¨à¤¸
à¤ĩ à¤¡à¤°
Ġà¤ı à¤ªà¤ķ
à¤°à¤¹ à¤®
Ġà¤®à¤¹ à¤¤à¤²
à¤²à¤ķ à¤£
à¤Ļ à¤Ĺ
à¤Łà¤¨ à¤Ĺà¤°à¤ķ
à¥Įà¤ģ à¥¤âĢĻ
à¤¤à¤® à¤§
Ġà¤ĵ à¤¶
Ġà¤ĵ à¤²à¤®
à¤µà¤Ń à¤°à¤ķ
à¤¾ à¤ĥ
à¤¤ à¤¡
à¤¯ à¤Ńà¤¨
à¤ª à¤¡
à¤ª à¤²à¤ķ
à¤µ à¤²à¤®
à¤ı à¤ħà¤¨
à¤· à¤°à¤¤
à¤ī à¤Ľ
à¤¾à¤ģ ,
à¤ł à¤°
à¤¸à¤® à¤®
Ġà¤ĺ à¤°à¤Ń
à¥ģà¤ģ ,
Ġà¤ĩ à¤Łà¤¹à¤°
à¥§ à¥©
Ġà¤ĵ à¤Ńà¤°
à¤¡à¤ķ à¤ªà¤ķ
Ġà¤ĩà¤¨ à¤°
Ġà¤Ķ à¤²
Ġà¤ĺà¤° à¤ªà¤°
Ġà¥® à¥©
à¥įâĢ º
à¤ıà¤® à¤ıà¤¸
Ġà¤Ńà¤µ à¤¨à¤®
âĢĿ ,
Ġà¤ĭ à¤·
Ġà¤ĭ à¤£à¤ķ
Ġà¤®à¤¦ à¤¨à¤ķ
Ġà¤ĸà¤¤à¤° à¤¨
Ġà¤ľà¤¬à¤° à¤ľà¤¸
à¤° à¤¸à¤ķ
Ġà¤¸ à¤ĸ
Ġà¤° à¤¨à¤°
Ġà¤¬ à¤¦à¤¨
à¤¬ à¤²à¤ķ
à¤¥ à¤¬
à¤¡ à¤Ń
Ġà¤¯ à¤ľ
à¤ĩ à¤Ĺà¤¡
à¤°à¤ķ à¤®
à¤ł à¤¨
à¤²à¤ķ à¤°
Ġà¤Ł à¤ª
Ġà¤¸à¤¹ à¤ª
à¥« à¥¦
à¥Įà¤ģ à¤Ĥ
Ġà¤ªà¤Łà¤ķ à¤¥
à¤µà¤°à¤£ à¤ķ
à¤ĩà¤² à¤Ł
à¤¤à¤µ à¤¨à¤®
Ġà¤ªà¤ł à¤¨à¤ª
à¥Įà¤Ĥà¥¤ '
Ġà¤Ī à¤¨
m à¤¨
à¤ķ à¤ľ
à¥ĩ Â«
Ġà¤ª à¤®
Ġà¤¬ à¤ĸà¤¤
à¤¶ à¤ķà¤®
à¤Ĥ à¤Ĥ
Ġà¤² à¤ĸ
à¥Ĥ âĢĻ
à¤¡ à¤Ńà¤¨
à¤ĸ à¤¸
à¤ĩ à¤ļ
Ġà¤ļ à¤ª
Ġà¤ı à¤¬
Ġà¤ľà¤¨ à¤¨
Ġà¤¯à¤¸ à¤¸
Ġà¤Ł à¤®
Ġà¤Ĩà¤¯ à¤²
à¤²à¤¬ à¤®
à¤ķà¤°à¤£ à¤¬
à¤¶à¤® à¤¶
Ġà¤ĺà¤° à¤ĺà¤°à¤®
Ġà¤¬à¤² à¤°
Ġà¥® à¥§
Ġà¥® à¥Ń
Ġà¥® à¥¬
à¥ĭ -
à¥ĭ à¤ģ
à¤² à¤ľ
Ġà¤¸ à¤ľà¤Ĺ
à¤¦ à¤ķà¤¤
à¤Ĺ à¤£à¤¨
Ġà¤ħ à¤Ľ
à¤Ľ à¤µ
à¤ļ à¤µ
à¤¡ à¤ľ
Ġà¤ħà¤¨ à¤®
à¤°à¤¹ à¤ķ
Ġà¤ıà¤ķ à¤ªà¤Ľ
à¤Ļ à¤µ
Ġà¤īà¤ª à¤ľ
à¥Įà¤Ĥ âĢĶ
à¤Łà¤° à¤ª
Ġà¤¸à¤¡à¤ķ à¤ĸà¤£
à¥ĭ âĢĶ
à¤² à¤§
à¤² à¤ľà¤¸
à¥Ģ âĢĻ,
à¤¹ à¤¯
à¤¹ à¤µ
Ġà¤Ĺ à¤¥
Ġà¤Ń à¤ĩà¤¦
Ġà¤¹ à¤²à¤µ
Ġà¤® à¤¨à¤ķ
à¤¥ à¤²à¤²
Ġà¤² à¤Ń
Ġà¤ī à¤Ĺ
à¤ī à¤¸à¤²
à¤ĩ à¤ªà¤²
à¤ĩ à¤ľà¤°
Ġà¤ı à¤ĺ
à¤¯à¤¸ à¤¨
à¤¯à¤¸ à¤Ńà¤¨
Ġà¤µà¤° à¤ªà¤°
Ġà¤ħà¤¸ à¤ľ
Ġà¤¬à¤¸ à¤°
à¤Łà¤¨ à¤Ĺà¤°à¤²
Ġà¤¬à¤¹ à¤¸à¤ķ
à¥įâĢ Į
Ġà¥¨à¥¦à¥¬ à¥®
Ġà¤ľà¤¨à¤Ĩ à¤¸
Ġà¤¡à¤² à¤°à¤®
Ġà¤¤à¤¬ à¤¸à¤®
Ġà¤ıà¤¯ à¤°à¤¬
, âĢĿ
m à¤²
à¤° à¤«à¤²
à¤ķ à¤¤à¤°
à¤µ à¤Ĺ
à¤µ à¤¯à¤ķ
à¤Ĺ à¤¤à¤°
à¤Ĺ à¤¦à¤°
Ġà¤° à¤¨à¤²
à¤ı à¤²à¤®
Ġà¤ħ à¤£
Ġà¤® à¤¤à¤²
à¤ľ à¤¸à¤®
Ġà¤¦ à¤®à¤¨
à¤ļ à¤¤
à¤ļ à¤µà¤Ł
à¤ī à¤¸à¤ķ
à¤ī à¤ªà¤°
à¤°à¤® à¤¸
Ġà¤« à¤ķ
à¤ľà¤¨ à¤Ńà¤¨
Ġà¤ıà¤ķ à¤ľ
à¤¯à¤¸ à¤ļ
Ġà¤ĩ à¤¶
Ġà¤īà¤¦ à¤¯
à¤§à¤¨ à¤¬
à¤Ĺà¤® à¤¨à¤®
Ġà¤¦à¤² à¤¸
Ġà¤Ńà¤° à¤ª
Ġà¤ıà¤¸ à¤ıà¤²à¤¸
à¤°à¤ª à¤¸
à¤ıà¤« à¤ª
Ġà¤Ńà¤Ĺ à¤µà¤¤
Ġà¥¦à¥Ń à¥ª
à¤°à¤ľà¤¨ à¤¨
à¤ľà¤Ń à¤£
à¤¨ à¤Ĺ
à¤¨ à¤ľà¤¸
à¤ķ à¤«
à¤¯ à¤¨à¤®
à¤ª à¤¢
à¤¹ à¤¨à¤ķ
Ġà¤Ĺ à¤ļ
à¤ı à¤®à¤¬
Ġà¤¬ à¤¸à¤®
Ġà¤® à¤¤à¤ķ
à¤¬ à¤¢
à¤§ à¤¸
Ġà¤¦ à¤°à¤®
à¤¥ à¤¯
Ġà¤Ĩ à¤ıà¤¨
à¤Ľ à¤°
Ġà¤² à¤¸
à¤Ń à¤¤
à¤ĩ à¤Ļ
à¤¨à¤® à¤§
Ġà¤¯à¤¸ à¤¤à¤°
à¤²à¤ķ à¤¤
à¤¯à¤¸ à¤¤à¤°
à¤Ŀ à¤¬
à¤°à¤µ à¤²
Ġà¤Ĩà¤µ à¤¤à¤ľ
à¤¹à¤ķ à¤¹à¤°
Ġà¤«à¤°à¤ķ à¤«à¤°à¤ķ
Ġà¤¨à¤ľ à¤°à¤®
Ġà¤°à¤® à¤£
Ġà¤Ĩà¤ļ à¤°à¤£
Ġà¥¨à¥¦à¥¬ à¥«
Ġà¤¤à¤¨ à¤¹
à¤¤à¤¹ à¤¤à¤ķ
Ġà¤²à¤® à¤ľ
Ġà¤¹à¤Ļà¤ķ à¤Ļ
Ġà¤ ĥ
à¤¤ à¤ªà¤Ľ
à¤ª à¤µ
à¤µ à¤ħà¤§
à¤Ł à¤¨à¤®
Ġà¤® à¤Ļ
à¤§ à¤µà¤ķ
Ġà¤Ľ à¤¤
à¤ģ âĢĵ
Ġà¤¦ à¤¯à¤¨
à¤¥ à¤ķà¤¤
à¤ī à¤Ľà¤¨
Ġà¤ļ à¤£
à¤°à¤¤ à¤¤à¤°
Ġà¤ĺ à¤°à¤¦
à¤¯à¤¤ à¤¥
Ġà¤īà¤ª à¤¸à¤®
Ġà¤ĩ à¤Ļà¤²
Ġà¤¬à¤¸ à¤ª
à¤µà¤ķ à¤¹à¤°
à¤ķà¤ķ à¤°
Ġà¤Ĩà¤µ à¤®
Ġà¤ªà¤ķ à¤¡
Ġà¤Ĩà¤ĩ à¤ªà¤°
à¤Ĺà¤® à¤¨à¤²
à¤£à¤¯ à¤¬
à¤£à¤¯ à¤¹à¤°
à¤¯à¤ª à¤¹
Ġà¤¸à¤¡à¤ķ à¤¬
à¤·à¤§ à¤°
Ġà¥¦ à¥ª
à¤°à¤« à¤²à¤®
Ġà¤¯à¤¸à¤ªà¤Łà¤ķ à¤ķ
à¤¨ à¤°à¤²
à¤¿ !
à¤¿ à¤¾
à¥ĩ à¥ĩ
à¤® à¤ĺ
à¤¤ à¤ľà¤¨
Ġà¤ª à¤µà¤¨
à¤ª m
à¤¦ à¤¦
Ġà¤¨ à¤°à¤¹à¤¨
Ġà¤® à¤¸à¤²
à¤¬ à¤¬
à¤¬ à¤Īà¤²
à¤§ à¤¹à¤°
Ġà¤Ĩ à¤°à¤®
à¤Ń à¤¦
à¤Ń à¤°à¤ķ
à¤Ń à¤µà¤ķ
Ġà¤¯ à¤¶
à¤ĩ à¤Łà¤²
à¤¹à¤° à¤²
Ġà¤ĸ à¤®
à¤¯à¤¤ à¤¨
à¤¯à¤¨ à¤¸
à¥¨ à¥§
à¤°à¤®à¤£ à¤ªà¤Ľ
Ġà¤Ĩà¤ĩ à¤ľ
à¤ĩà¤¨à¤² à¤ķ
Ġà¥¨à¥¦à¥¦ à¥©
Ġà¤ħà¤ªà¤¨ à¤¤
Ġà¥¨à¥¦à¥« à¥§
Ġà¥¨à¥¦à¥© à¥¦
Ġà¤Ĩà¤ĩà¤ıà¤® à¤Ī
à¤¨ à¤ľà¤¨à¤ķ
à¤² à¤¯à¤¨
à¤² à¤Ńà¤°
à¤¯ à¤Ĺà¤¤
à¥ģ )
Ġà¤ª à¤¤à¤¨
Ġà¤¨ à¤°à¤®
à¤ı à¤ľà¤¸
Ġà¤¹ à¤ķà¤ķ
à¤· à¤ľà¤¨à¤ķ
à¤ģ ,âĢĻ
Ġà¤¦ à¤°à¤µ
Ġà¤ľ à¤²à¤¬
Ġà¤ľ à¤Ĺà¤®
Ġà¤ľ à¤¯à¤ª
à¤£ à¤ªà¤¨
à¤£ à¤ļà¤¨
à¤ļ à¤ª
à¤ļ à¤²à¤¨
à¤ĸ à¤°à¤®
âĢ Į
à¤¯à¤ķ à¤¹à¤°
Ġà¤ľà¤¨ à¤°à¤²
Ġà¤¯à¤¸ à¤µà¤°
à¤¯à¤¸ à¤¤
à¤Ļ à¤¦
à¤ķà¤² à¤Ĺ
à¤ķà¤® à¤ľ
à¤µà¤° à¤¬
à¤Łà¤° à¤Ł
Ġà¤Ĺà¤¤ à¤µà¤°
Ġà¤ľà¤¸ à¤¬
à¤Ĺà¤ł à¤¬à¤¨
Ġà¤¸à¤¹à¤° à¤²
Ġà¤Ĺà¤£ à¤¨
Ġà¤Ńà¤Ī à¤°à¤¹
à¤¹à¤¦ à¤°à¤µ
Ġà¤¶à¤¹à¤° à¤®
Ġà¤ĵà¤ªà¤¨ à¤°
à¤¨ à¤¶
à¤ķ à¤Ĺ
à¤® à¤Ĺà¤°
à¤¤ à¤®à¤ķ
à¤¯ à¤ļ
à¤¸ à¤Ļ
à¤¸ à¤°à¤²
à¤ª à¤°à¤®
à¤Ĺ à¤²à¤²
Ġà¤¨ à¤ī
à¤Ł à¤¦
à¤Ł à¤Ńà¤¨
à¤ı à¤Ł
Ġà¤® à¤®
à¤Ń à¤µà¤²
Ġà¤¸à¤® à¤¤
à¤ł à¤¤
Ġà¤ıà¤ķ à¤¥à¤°
Ġà¤§ à¤¨à¤°
Ġà¤¸à¤¹ à¤¸
à¤¤à¤° à¤µ
à¤°à¤µ à¤¹à¤¨
à¤Ĩ à¤§
Ġà¤ħà¤µ à¤¹
Ġà¤ħà¤Ĺ à¤·
ĠĠ ĠĠĊ
Ġà¤¸à¤¤ à¤¹à¤®
Ġà¤ıà¤¨ à¤ħ
Ġà¤°à¤ķà¤® à¤®
à¤¥à¤² à¤¹à¤°
à¤ıà¤² à¤Ĺà¤¤
Ġà¥¨à¥¦à¥¦ à¥ª
Ġà¤¨à¤µ à¤ľ
à¤Ĺà¤łà¤¨ à¤¹à¤°
à¤Łà¤¬ à¤²à¤®
Ġà¤¨à¤¬ à¤¸
à¤ªà¤Ł à¤ª
Ġà¤®à¤¹ÅĴ à¤µ
Ġà¥¦à¥Ń à¥©
Ġà¤ķà¤¦ à¤®à¤ķ
? âĢĻ
à¤¨ à¤Ī
à¤¨ à¤¯à¤ķ
à¤¨ à¤¯à¤®
à¥ĭ Â¥
à¤® à¤Ĺà¤łà¤¬à¤¨
à¥Ģ /
à¤¸ à¤¸à¤¹
Ġà¤¸ à¤µà¤²
Ġà¤ª à¤¡
Ġà¤ª à¤¹à¤°
à¤µ à¤µà¤°
à¤ı à¤¡
Ġà¤¬ à¤²à¤ķ
à¤ľ à¤ªà¤¤
à¤· à¤Ńà¤°
à¤§ à¤°à¤²
Ġà¤Ĩ à¤ĺ
Ġà¤² à¤¬
à¤ļ à¤¤à¤®
à¤¡ à¤¡
à¤ī à¤ļ
à¤ĩ à¤ıà¤ªà¤Ľ
à¤°à¤£ à¤¹à¤°
à¤ľà¤¨ à¤¶
à¥ĭà¥¤ âĢĿ
Ġà¤ıà¤ķ à¤¤à¤°
à¤¯à¤¸ à¤µ
à¥Įà¤Ĥ âĢĻ,
à¤°à¤¬ à¤¦
à¤²à¤¨ à¤ªà¤Ľ
à¤ĵ à¤ıà¤¸
Ġà¤Ĩà¤ĩà¤°à¤¹ à¤¨
Ġà¤ħà¤¸à¤¹ à¤¯
à¤ļà¤¯ à¤ªà¤¤
à¤®à¤¶ à¤°à¤£
Ġà¤ĸà¤¬ à¤°à¤¦
à¤² à¤¡
à¤® à¤ĸ
à¤¯ à¤ħà¤¨
à¥ģ âĢľ
à¤¸ à¤¸à¤ķ
à¤ª à¤¸à¤ķ
à¤ª à¤ŀ
Ġà¤ķ à¤¯
à¤Ĺ à¤°à¤£
Ġà¤¨ à¤¶
à¤Ł à¤¨à¤²
à¤ı à¤ª
Ġà¤Ń à¤¡
Ġà¤ħ à¤¢
Ġà¤¬ à¤¸à¤¨
Ġà¤® à¤¯
Ġà¤® à¤²à¤®
Ġà¤Ĺà¤° à¤ķ
à¤ľ à¤°à¤Ń
à¤§ à¤¨à¤¸
à¤¶ à¤¯à¤¯
Ġà¤² à¤®à¤¹
à¤ļ à¤¥
à¤ļ à¤¶
à¤¡ à¤ħà¤¨
à¤ĩ à¤¹à¤°
à¤ĩ à¤ķà¤°
Ġà¤¶ à¤¹
à¤µà¤¸ à¤¹
à¥¦ à¥Ń
Ġà¤®à¤¹ à¤²
Ġà¤¡ à¤¬à¤²
à¥Įà¤Ĥ à¤ģ
à¤ħ à¤¤
Ġà¤ªà¤¹ à¤²à¤ķ
Ġà¤ĵ à¤¹
à¤ıà¤¨ à¤ľ
Ġà¤ªà¤¦ à¤¸
Ġà¤ıà¤¸ à¤ıà¤®à¤ıà¤¸
à¤ıà¤¸ à¤ľ
à¤ıà¤® à¤ı
à¤¨à¤¯ à¤¨à¤ķ
Ġà¥¨à¥¦à¥¦ à¥¦
Ġà¥¨à¥¦à¥ª à¥¯
à¤ĩà¤« à¤¸
Ġà¤ķà¤¦ à¤®à¤²
à¤¾ à¤¿
à¤ķ à¤¨à¤®
à¤ķ à¤Ńà¤¨
à¤² à¤¤à¤°
à¤² à¤Ńà¤¨
à¤® à¤¦à¤°
à¤µ à¤²à¤²
à¤Ĺ à¤ľà¤®
Ġà¤° à¤ļ
Ġà¤° à¤Ĺà¤¤à¤ķ
à¤Ł à¤¸à¤²
à¤ı à¤Łà¤°
Ġà¤ħ à¤¶à¤ķ
Ġà¤® à¤Ĺ
Ġà¤Ĩ à¤µà¤¸
à¤Ľ à¤ķ
à¤£ à¤¸à¤®
à¤Ī à¤ª
à¤¡ à¤¸à¤®
à¤¡ à¤°à¤¸
à¤ī à¤¬
à¤ī à¤ªà¤ª
à¤ĩ à¤²à¤¬
à¤°à¤ķ à¤ķ
Ġà¤ı à¤ıà¤«à¤ª
à¤°à¤¤ à¤µ
à¥ĥ âĢĻ
à¥¦ à¥¬à¥©
à¥ĭà¥¤ '
Ġà¤¸à¤¹ à¤ķà¤°
à¥Įà¤Ĥ ',
à¤°à¤¬ à¤²
à¤²à¤¨ à¤°à¤¤
à¥ĭ, '
Ġà¤ĵ à¤¬
à¥¨ à¥¨
Ġà¤Ŀ à¤¡à¤ª
Ġà¤¸à¤¦ à¤¨à¤®
Ġà¤¨à¤Ń à¤ĩ
Ġà¤¸à¤¤ à¤¹
Ġà¥§à¥« à¥¦
Ġà¥¨à¥¦à¥¦ à¥¬
à¤¯à¤£ à¤Ĺà¤¢
Ġà¤¦à¤¶ à¤°à¤¥
à¤¤à¤¹ à¤¤à¤®
Ġà¤ıà¤« à¤ıà¤®
Ġà¤¸à¤¹à¤¨ à¤¶
à¤ ¼
à¤¾ '
à¤° à¤ħ
à¥ĭ ',
à¤¤ à¤°à¤¹
à¥ģ âĢĻ,
Ġà¤¸ à¤¯à¤®
à¤¦ à¤°à¤®
à¤µ à¤ªà¤Ľ
à¤ı à¤¤
Ġà¤¬ à¤¹à¤°
Ġà¤¬ à¤²à¤²
à¤¶ à¤¸à¤®
Ġà¤Ĩ à¤¯à¤ķ
Ġà¤² à¤¯
à¤Ī à¤ĺ
à¤ĩ à¤¸à¤®
à¤ĩ à¤¡à¤ķ
à¤¹à¤° à¤£à¤®
Ġà¤ļ à¤¹
à¤« à¤¨
Ġà¤ı à¤ªà¤²
à¤¾à¤ģ )
à¤¾à¤ģ à¤ģ
Ġà¤ħà¤¨ à¤¨
Ġà¤¡ à¤®
à¤®à¤ķ à¤¥
Ġà¤Ńà¤ı à¤ľà¤¸
à¤Ĺà¤¤ à¤¦
à¤¤à¤¨ à¤¶
à¤Łà¤° à¤¸à¤®
Ġà¤ħà¤µ à¤Ĺà¤¤
à¤¯à¤¦ à¤²à¤²
à¥Ģ) ,
Ġà¤ıà¤¯à¤° à¤ª
à¤¾ âĢĶ
à¤¨ à¤°à¤ķ
à¤² à¤Ļ
à¤® à¤«
à¤¯ à¤Ĺ
à¤¸ à¤¯
à¤ª à¤°à¤¤
Ġà¤Ĺ à¤¢
Ġà¤Ĺ à¤¡à¤¬
à¤Ĺ à¤¨à¤®
à¥Ī âĢĻ
à¤Ł à¤¡
à¤Ł à¤ķà¤²
Ġà¤¬ à¤¬
Ġà¤¹ à¤¦
Ġà¤¹ à¤²à¤²
à¤¬ à¤²à¤®
à¤¶ à¤²à¤¤
Ġà¤Ĩ à¤¯à¤¸
à¤Ľ à¤¦
à¤ĸ à¤¨à¤ķ
à¤ĸ à¤ķà¤ķ
à¤ĩ à¤Łà¤ķ
à¤°à¤® à¤ħà¤¨
à¤¾à¤ģ à¤Ĥ
à¤¾à¤ģ âĢĵ
Ġà¤« à¤Ł
à¤¨à¤² à¤ķ
à¤ĺ à¤¬
Ġà¤¸à¤¹ à¤µ
à¤ħ à¤ªà¤°
à¤®à¤ķ à¤¤
Ġà¤Ĩà¤¯ à¤°à¤²
à¤¯à¤² à¤Ĺ
à¤Ĩ à¤¨
à¥¨ à¥©
Ġà¤Ŀ à¤Ł
à¥ª à¥«
à¤ıà¤¨ à¤ıà¤®
Ġà¤¬à¤¹ à¤¸à¤®
Ġà¤Ĩà¤ī à¤²
Ġà¤®à¤¤ à¤Ń
Ġà¤Ĩà¤® à¤ľà¤¨à¤¤
à¤¤à¤¬ à¤¹
Ġà¥©à¥¦ à¥¦
à¤ķà¤Ł à¤¤
Ġà¤¹à¤ķ à¤¹
Ġà¤ĵà¤Ń à¤°à¤ķ
à¤Ĺà¤ľ à¤ªà¤¤
Ġà¤ıà¤¨à¤Ĩà¤°à¤ı à¤¨à¤²
Ġà¤ħà¤²à¤® à¤²à¤®
Ġà¤¨à¤ī à¤ł
à¤ķ à¤ľà¤¸
à¤ķ à¤Łà¤²
à¤® à¤¦à¤²
à¤¸ à¤«à¤°
à¤ª à¤¸à¤²
à¤µ à¤°à¤¤
à¤Ł à¤¸à¤¹
à¤ı à¤Ŀ
Ġà¤ħ à¤¥
Ġà¤¹ à¤ļ
Ġà¤¹ à¤²à¤ķ
Ġà¤¹ à¤¡à¤¤
Ġà¤® à¤²à¤ķ
Ġà¤® à¤Ĺà¤°à¤ķ
Ġà¤Ĩ à¤ıà¤®
à¤Ī à¤ľ
Ġà¤ī à¤Ľ
à¤ĸ à¤¨à¤®
à¤¯à¤¸ à¤ª
à¤¯à¤¤ à¤°
Ġà¤µà¤° à¤ªà¤°à¤ķ
Ġà¤īà¤ª à¤²
à¤ħ à¤µ
Ġà¤®à¤¨ à¤¨
Ġà¤ĩ à¤ŀ
Ġà¤Ńà¤ı à¤²à¤Ĺà¤¤
Ġà¤ħà¤µà¤¸ à¤°à¤²
Ġà¤ħà¤µà¤¸ à¤°à¤µ
à¤²à¤¬ à¤¸
à¥Ń à¥©
Ġà¤¸à¤¯ à¤¦
à¤¸à¤¦ à¤¸
Ġà¤¨à¤Ń à¤ıà¤®
Ġà¤Ĩà¤ĩ à¤¤à¤µ
à¤¶à¤® à¤§
Ġà¤®à¤² à¤ľà¤²
Ġà¤Ĳ à¤ķ
à¤ľà¤¨à¤ķ à¤ª
Ġà¤ıà¤¨à¤Ĩà¤°à¤ıà¤¨ à¤ıà¤²
Ġà¤ĭ à¤ļ
à¤°à¤Ĺ à¤ŀ
Ġ ï
à¤¨ à¤Ĺà¤°à¤²
à¤¤ à¤¥
à¤¤ à¤ħà¤¨
à¤¸ à¤¡à¤ķ
Ġà¤ª à¤Łà¤¨
à¤ª à¤ķà¤²
à¤¦ à¤ķà¤²
Ġà¤Ĺ à¤¸
Ġà¤¨ à¤Ĺà¤°à¤®
à¤§ à¤ªà¤Ľ
à¤¥ à¤¹à¤°
Ġà¤Ĩ à¤¬
à¤¡ à¤ªà¤°
à¤ĸ à¤¡
à¤īà¤¨ à¤¸à¤®
Ġà¤¶ à¤°à¤¦
à¤ªà¤° à¤¬
à¤Ļ à¤ľ
à¤¤à¤° à¤¸à¤®
à¤Ŀ à¤ķ
à¤ķà¤² à¤¨à¤®
à¤¸à¤¨ à¤¸
à¥¨ à¥ª
Ġà¤Ŀ à¤¡
à¤°à¤Ń à¤°à¤ķ
Ġà¤¸à¤®à¤¯ à¤Ń
Ġà¤¸à¤®à¤¯ à¤ħà¤¨
Ġà¤Ĩà¤ĩ à¤²
Ġà¤Ĩà¤ĩ à¤¡
Ġà¤Ķ à¤ľ
Ġà¤Ĺà¤ł à¤¨à¤ķ
Ġà¤°à¤ķà¤® à¤²
à¤°à¤ļ à¤¢
à¤¯à¤Ł à¤¨à¤²
Ġà¤ľà¤² à¤ļà¤°
Ġà¤¸à¤ĺ à¤¨
Ġà¥¨à¥¦à¥« à¥¨
à¤ıà¤« à¤¸
Ġà¤ıà¤« à¤¥
Ġ Â¥
à¤¾ (
à¤² à¤°à¤ķ
à¥ģ âĢ
à¥Ģ ?
Ġà¤¸ à¤Ī
à¤ª à¤¯à¤ķ
à¤ª à¤£à¤ķ
à¤¹ à¤¤à¤ķ
Ġà¤ķ à¤¦à¤°
à¤Ĺ à¤§à¤¨
à¤Ĺ à¤¸à¤¹
Ġà¤° à¤¶
à¤Ł à¤ħà¤¨
à¤ı à¤ľ
Ġà¤ħ à¤ľà¤¯
à¤ľ à¤¸à¤²
Ġà¤µ à¤¹
Ġà¤µ à¤¨à¤ķ
à¤· à¤¯à¤°
Ġà¤¤ à¤¦
Ġà¤¤ à¤²à¤®
à¤ģ âĢĻ
à¤¥ à¤ķà¤²
à¤¶ à¤ªà¤Ľ
Ġà¤Ĩ à¤¶à¤®
à¤¡ à¤¨à¤²
à¤Ń à¤Ł
à¤Ń à¤ķà¤°
Ġà¤¯ à¤¨
Ġà¤ļ à¤¤
Ġà¤ı à¤¯à¤°à¤ķ
Ġà¤¶ à¤®à¤¶
à¤¸à¤ķ à¤¸
à¤¢ à¤¤
à¤¢ à¤¯
à¤¯à¤¸ à¤¯à¤¤
à¤Ļ à¤ª
Ġà¤¸à¤¹ à¤ļ
Ġà¤ķà¤® à¤¸à¤²
à¤ħ à¤¦
à¤¸à¤² à¤Ĺ
à¤¤à¤¨ à¤ªà¤Ľ
à¥Įà¤ģ -
à¥Ń à¥¦
à¥Ń à¥¨
Ġà¤Ŀ à¤¸
à¤ıà¤¨ à¤ª
à¤ķà¤°à¤£ à¤¸
Ġà¤¦à¤° à¤°
Ġà¤¥à¤ª à¤²
à¤ıà¤¸ à¤¨à¤ķ
Ġà¤Ĩà¤ľ à¤Ń
à¤ĩà¤ķ à¤²à¤ķ
Ġà¤īà¤ªà¤¸ à¤ļ
à¤¯à¤¬ à¤¸
Ġà¤ħà¤ĸ à¤¬
à¤¯à¤Ł à¤¨à¤®
Ġà¤¡à¤Ł à¤ķà¤®
à¤¨ à¤Ł
à¤ķ à¤¸à¤¹
à¤² à¤°à¤¹
à¤® à¤Ŀ
à¤¤ à¤«
à¤¤ à¤²à¤®
à¤¤ à¤Ĺà¤°
à¤¯ à¤¬à¤¦
à¥ģ .
à¥Ģ Ã·
à¤¸ à¤¸à¤²
à¤µ à¤²à¤¨
Ġà¤ķ à¤ªà¤ķ
Ġà¤° à¤ľà¤¨
Ġà¤° à¤£à¤µ
à¤Ł à¤¯
à¤ľ à¤¯à¤²
à¤¬ à¤¨à¤®
à¤· à¤ħà¤Ĺ
à¤§ à¤ķà¤°
à¤Ĥ à¤ģ
à¤£ à¤¨à¤Ĺà¤°
à¤ļ à¤ľà¤¨
Ġà¤ī à¤¨à¤®
à¤¡ à¤®à¤ķ
à¤ī à¤ªà¤¯
à¤ĩ à¤Ĺà¤°
à¤µà¤¸ à¤²
Ġà¤¸à¤ķ à¤°
à¤¯à¤® à¤ħà¤¨
à¤°à¤¹ à¤²
Ġà¤®à¤¹ à¤¨
à¤¯à¤¸ à¤¸
à¤Ļ à¤Łà¤¨
Ġà¤ĺ à¤°à¤²
à¤¤à¤° à¤°
à¤°à¤¸ à¤¨
à¤°à¤¸ à¤Ļ
à¤ķà¤® à¤§
à¤Łà¤ķ à¤°
à¤·à¤£ à¤¹à¤°
à¤¸à¤¨ à¤µ
à¤Łà¤¨ à¤Ĺà¤°à¤®
à¤Łà¤° à¤Ńà¤¨
Ġà¤ĵ à¤Ľ
Ġà¤Ŀ à¤²à¤¨
Ġà¤ħà¤ª à¤²
Ġà¤¤à¤ª à¤¸
Ġà¥® à¥¯
Ġà¤¨à¤® à¤¸
Ġà¤Ĳ à¤°
Ġà¤ªà¤ł à¤¨
à¤¯à¤¯à¤¨ à¤ħà¤¨
à¤łà¤ķ à¤¹à¤°
Ġà¤°à¤® à¤ªà¤®
à¤¯à¤£ à¤²
à¤Ĺà¤¬ à¤£
Ġà¥¨à¥¦à¥¬ à¥¬
Ġà¤¨à¤Ĩ à¤ī
Ġà¥¨à¥¦à¥« à¥¯
Ġà¤ªà¤¸ à¤²à¤®
à¤° à¤Ļà¤®
à¤¨ à¤Ńà¤ıà¤ķ
à¤ķ à¤°à¤®
à¤ķ à¤«à¤°
à¤² à¤¬à¤¨
à¤® à¤ħà¤¨
à¥Ģ à¤ĥ
à¤¸ à¤ªà¤Ľ
à¤ª à¤ĸ
à¤ª à¤ķà¤ķ
à¤¦ à¤¶à¤¨
à¤¹ à¤ªà¤Ľ
à¤¹ à¤ľà¤¨à¤ķ
à¤µ à¤Łà¤ķ
Ġà¤Ĺ à¤¡
à¤Ĺ à¤¨à¤ķ
Ġà¤° à¤ĺ
Ġà¤° à¤Ĺà¤¤à¤®
Ġà¤¬ à¤Ļ
Ġà¤¬ à¤¦à¤®
Ġà¤® à¤Ł
Ġà¤® à¤°à¤¹
à¤ľ à¤¯à¤¨
Ġà¤µ à¤¯à¤¸
à¤¬ à¤Ńà¤¨
Ġà¤Ľ à¤Ł
Ġà¤¦ à¤¤
à¤¶ à¤ļà¤¨
Ġà¤Ĩ à¤®à¤®
à¤£ à¤¹à¤°
à¤ļ à¤¡
à¤ļ à¤°à¤®
à¤¡ à¤ķà¤²
à¤ĸ à¤ķà¤²
à¤ĩ à¤Łà¤°
à¤ĩ à¤ķà¤¨
Ġà¤ı à¤¥
à¤¯à¤ķ à¤°à¤£
à¤ªà¤° à¤²
à¤ľà¤¨ à¤¯
à¤ľà¤¨ à¤¸
à¤¨à¤² à¤®
Ġà¤¯à¤¸ à¤¸à¤®
Ġà¤®à¤¹ à¤¶
Ġà¤ıà¤ķ à¤Ľ
Ġà¤ĩ à¤«
à¤¯à¤¨ à¤¹à¤°
à¤®à¤ķ à¤°à¤£
Ġà¤Ńà¤ı à¤¯à¤¤
à¤¯à¤² à¤¯
Ġà¤ħà¤¸ à¤°à¤²
à¤²à¤¬ à¤ļ
à¤Ĩ à¤Ĺ
à¤°à¤¬ à¤¦à¤²
Ġà¤ĵ à¤®à¤ª
à¥¨ à¥®
Ġà¤¸à¤®à¤¯ à¤¯à¤¤
à¤·à¤¦ à¤²
Ġà¤ıà¤¸ à¤ĩ
à¤Ĩà¤° à¤Ĩà¤Ī
à¤ĩà¤° à¤¸à¤ķ
Ġà¤Ĺà¤£ à¤¤
Ġà¤¨à¤µ à¤īà¤¦
Ġà¤¦à¤¶à¤ķ à¤ªà¤Ľ
Ġà¤«à¤² à¤¦
à¤¾) ,
Ġà¤¹à¤ķ à¤¦
Ġà¥¨à¥¦à¥« à¥©
Ġà¥¨à¥¦à¥« à¥®
Ġà¤ħà¤¸à¤® à¤°
Ġà¤ħà¤¸à¤® à¤Ŀà¤¦
à¤®à¤¸à¤® à¤°
Ġà¤·à¤¡ à¤¯à¤¨
à¤ªm à¤¤
à¤ļà¤¥ à¤°à¤ķ
Ġà¤Ĺà¤¡à¤¬ à¤¡
) à¥¤
à¥ĭ '
à¤² à¤°à¤®
à¤® à¤µà¤°
à¤¤ à¤Ńà¤°
à¤¯ à¤ľà¤¨à¤ķ
à¤¸ à¤µà¤°
à¤µ à¤¤à¤ķ
à¥¤ âĢĺ
à¤Ĺ à¤¯
à¤Ĺ à¤«à¤²
Ġà¤° à¤ĸ
à¤Ł à¤²à¤²
Ġà¤ħ à¤ķà¤¸
Ġà¤µ à¤ľà¤¨
Ġà¤¦ à¤¶à¤®
Ġà¤ľ à¤²à¤®
à¤ļ à¤¦
à¤ļ à¤¹à¤°
à¤ļ à¤¸à¤®
Ġà¤ī à¤·
à¤Ń à¤µà¤®
à¤°à¤¤ à¤¤
Ġà¤ĸ à¤ļ
Ġà¤ľà¤¨ à¤Ĺà¤£à¤¨
à¤¯à¤® à¤¯
Ġà¤ıà¤ķ à¤ªà¤²
Ġà¤¸à¤¹ à¤®à¤¹
Ġà¤¡ à¤£
Ġà¤¡ à¤¡
Ġà¤ł à¤Ł
à¤¯à¤² à¤¸
à¤¤à¤¨ à¤ª
à¤Ĩ à¤ķ
à¥« à¥¬
à¤®à¤¤ à¤®
Ġà¤¸à¤¨ à¤°
Ġà¤ĵ à¤ķ
à¥ª à¥¦
à¤²à¤¯ à¤¦
à¤²à¤¯ à¤¸à¤®
à¤²à¤¯ à¤ħà¤¨
à¤ľà¤ķ à¤¹à¤°
à¤Ĺà¤² à¤Ĺ
à¤¶à¤¨ à¤¸à¤®
Ġà¤Ĩà¤ĩ à¤ıà¤¸
à¤¯à¤° à¤¡
Ġà¤ıà¤® à¤¸
Ġà¤¦à¤² à¤Ń
Ġà¤ķà¤¸ à¤°à¤¤
Ġà¤ħà¤ª à¤¹
à¤ľà¤Ĺ à¤¢
Ġà¤Ĩà¤® à¤¸à¤ŀ
Ġà¤ľà¤Ĺ à¤¦
Ġà¤Ĩà¤ľ à¤Ńà¤¨
à¤°à¤ª à¤Ł
Ġà¤¸à¤¹à¤° à¤¹à¤°
à¤¯à¤¦ à¤²à¤ķ
Ġà¤ĭ à¤¤
à¤¯à¤°à¤¤ à¤°
Ġ! âĢĻ
Ġà¥§à¥¯à¥¯ à¥Ń
Ġà¤¨à¤µà¤² à¤ª
Ġà¤®à¤¤à¤² à¤µ
à¥ģâĢ °
Å ĵ
à¤° à¤¡à¤ķ
à¤² à¤°à¤²
à¤¤ à¤¸à¤¹
à¤¯ à¤¡
à¥Ģ :
à¤¸ à¤°à¤¬
à¤¦ à¤¥
à¤µ à¤®à¤¨
à¤ı à¤Ľ
à¤ı à¤¨à¤¸
Ġà¤Ń à¤ĩà¤°
Ġà¤ħ à¤ķà¤°
Ġà¤¬ à¤¸à¤ķ
Ġà¤¬ à¤ŀ
Ġà¤¬ à¤¦à¤°
à¤¬ à¤§
Ġà¤¤ à¤²à¤ķ
Ġà¤¤ à¤µà¤°à¤¬
Ġà¤¦ à¤°à¤ķ
à¤¥ à¤¨à¤ķ
à¤¶ à¤¶à¤°à¤£
Ġà¤Ĩ à¤ķà¤²à¤¨
à¤ļ à¤°à¤²
à¤ļ à¤ªà¤¦
à¤Ī à¤ļ
à¤Ń à¤²à¤®
à¤ĸ à¤²à¤¨
Ġà¤ļ à¤¶
Ġà¤¶ à¤°à¤£à¤®
à¥įà¥¤ '
à¤¯à¤® à¤¸
à¤¯à¤® à¤¨à¤ķ
Ġà¤°à¤¹ à¤®
à¤°à¤¸ à¤µ
à¤ħ à¤ķ
à¤ħ à¤«à¤®
Ġà¤ł à¤¡
Ġà¤ĩ à¤¡
Ġà¤Ńà¤ı à¤¤
Ġà¤ħà¤¸ à¤¦
à¤Ĩ à¤ĩà¤¡
à¤Łà¤¨ à¤°
à¥« à¥«
Ġà¤¨à¤Ĺà¤° à¤¸à¤Ń
à¤°à¤¶ à¤®à¤¶
à¤¡à¤ķ à¤ªà¤®
Ġà¤¸à¤¦ à¤¨à¤ķ
Ġà¤ªà¤¦ à¤¹à¤°
Ġà¤ħà¤¬ à¤¦
Ġà¤¤à¤¹ à¤¹à¤°
Ġà¤ıà¤® à¤ı
Ġà¤ķà¤¹ à¤²
à¤µà¤°à¤£ à¤²
à¤ľà¤® à¤°
Ġà¤Ĩà¤ī à¤ľ
à¤ıà¤¸ à¤ıà¤²
à¤ĩà¤ķ à¤²à¤®
Ġà¤¸à¤¹à¤° à¤µ
à¤¥à¤ķ à¤¹à¤°
Ġà¥¨à¥¦à¥¦ à¥§
Ġà¥¨à¥¦à¥¬ à¥Ń
à¤Łà¤« à¤°
Ġà¥¨à¥¦à¥« à¥¦
à¤®à¤°à¤£ à¤¶à¤ķ
Ġà¥§à¥¯à¥¯ à¥®
Ġà¥¨à¥¦à¥¨ à¥¨
à¤«à¤¸ à¤²à¤ķ
Åĵ à¤¯
Ĥ §
à¤ķ à¤ķà¤²
à¤ķ à¤°à¤¹à¤°
à¤² à¤¸à¤ķ
à¤® à¤²à¤ķ
à¤® à¤Ńà¤¨
à¤® à¤µà¤°à¤£
à¥ģ ',
à¤¸ à¤¬à¤°
Ġà¤¸ à¤Ĺ
à¤ª à¤¬à¤¹
à¤¦ à¤²à¤²
à¤µ à¤ħà¤¨
Ġà¤ķ à¤°à¤¦
à¤ı à¤Ľà¤¨
Ġà¤Ń à¤¬
à¤ľ à¤¯à¤ª
Ġà¤µ à¤¤
à¤¬ à¤°à¤²
à¤· à¤¸à¤¹
à¤§ à¤¶à¤¤à¤ķ
à¤¥ à¤ķà¤°
à¤Ĥ ,
Ġà¤ľ à¤Ļ
à¤Ī à¤°
à¤¡ à¤°à¤®
à¤ī à¤¸à¤®
Ġà¤¸à¤® à¤²
à¤ĩ à¤Ĺ
Ġà¤ļ à¤®à¤¤
Ġà¤ļ à¤¯à¤¨à¤ķ
à¤« à¤°à¤²
Ġà¤¥ à¤®
à¥Į ,âĢĻ
à¤¸à¤® à¤¸
à¤ĺ à¤ļ
Ġà¤ľà¤¨ à¤ħà¤ª
Ġà¤ıà¤ķ à¤ļ
Ġà¤īà¤ª à¤§
à¤ĩà¤¨ à¤°
Ġà¤®à¤¨ à¤Ĺ
Ġà¤¸à¤¬ à¤ħà¤²
à¤°à¤µ à¤ļà¤¨
à¤µà¤¨ à¤¯
Ġà¤¬à¤¸ à¤¹à¤°
à¤¨à¤¨ à¤Ĺà¤°
Ġà¤Ĩà¤µ à¤°à¤£à¤®
Ġà¤ĵ à¤ĸà¤²
à¥¨ à¥Ń
à¥¨ à¥¬
à¥¬ à¥¦
à¤¤à¤² à¤Ĺ
à¤ıà¤¨ à¤ıà¤ķ
Ġà¤ĺà¤° à¤ľà¤Ĺ
à¤²à¤Ĺ à¤ŀ
à¤°à¤¨ à¤Ĺà¤°à¤ķ
Ġà¤°à¤ķà¤® à¤¬
à¤ıà¤¸ à¤¸
à¤®à¤Ĺ à¤°à¤²
à¤¸à¤¨à¤² à¤²
à¤¤à¤¹ à¤Łà¤²
Ġà¥¨à¥¦à¥« à¥ª
Ġà¤ľà¤¨à¤® à¤¤à¤ķ
Ġà¤Ĩà¤ªà¤¤ à¤ķ
Ġà¤¹à¤Ļà¤ķ à¤Ļà¤®
ĠĠĠĠĠĠĠĠĠĠĠĠĠĠĠĠ ĠĠĠĠĠĠĠĠĠĠĠĠĠĠĠĠ
Ġà¤ªà¤¹à¤²à¤ķ à¤¦à¤®
Ġï Ĥ§
à¤ļà¤ªà¤¦ à¤¸
Ġà¤ĵà¤ĸà¤² à¤¢
à¤¾ à¥į
à¥į ',
à¤¨ à¤«
à¤¨ à¤µà¤°
à¤ķ à¤Ľ
à¤ķ à¤ħ
à¤² à¤¶
à¤² à¤«
à¤® à¤¦à¤¨
à¤® à¤¥à¤²
à¤¯ à¤ľà¤¸
à¥Ģ (
à¤¸ à¤ľ
Ġà¤¸ à¤¯à¤ķ
à¤ª à¤ľ
à¤¦ à¤°à¤ķ
à¤µ à¤°à¤¸
Ġà¤Ĺ à¤ıà¤®
Ġà¤° à¤«
Ġà¤¨ à¤¸à¤®
à¤Ł à¤Ń
à¤Ł à¤®à¤®
à¤ı à¤¸à¤²
à¤ı à¤Łà¤°à¤®
Ġà¤¬ à¤Ŀ
Ġà¤¬ à¤¸à¤²
Ġà¤¤ à¤²à¤µ
Ġà¤¦ à¤¬à¤¦
Ġà¤ľ à¤¯à¤°
à¤£ à¤¦
à¤£ à¤¤à¤°
à¤ļ à¤²à¤ķ
à¤Ī à¤¸à¤®
à¤Ń à¤ļ
à¤ĸ à¤¬à¤°
à¤°à¤ķ à¤°à¤£
à¤°à¤ķ à¤°à¤£à¤ķ
à¤īà¤¨ à¤¬
Ġà¤ĺ à¤ļ
à¤ªà¤¨ à¤¬
à¤ķà¤® à¤°
Ġà¤Ńà¤ı à¤Ľ
à¤·à¤£ à¤¸
à¤¸à¤¨ à¤¹
à¤¤à¤¨ à¤¸
à¤Ĩ à¤ľà¤ķ
Ġà¤ħà¤® à¤²
à¤¦à¤¨ à¤¹à¤°
à¤¦à¤¨ à¤¸à¤®
à¤¤à¤² à¤ļ
Ġà¤¢ à¤Ļ
à¤§à¤¨ à¤µ
à¤§à¤¨ à¤¹à¤°
à¤¶à¤¨ à¤ªà¤Ľ
Ġà¤Ĩà¤ĩ à¤°
Ġà¤Ĩà¤ĩ à¤¹
à¤¿à¤Ĥ à¤ģ
à¤¯à¤µ à¤§
Ġà¤Ĩà¤Ĺ à¤ľà¤¨
à¤®à¤ļ à¤²
Ġà¤Ĩà¤® à¤°à¤£
à¤µà¤¤ à¤¯
Ġà¥§à¥¨ à¥¦
Ġà¥¨à¥« à¥¦
à¤ıà¤® à¤¸
à¤ľà¤¦ à¤°à¤®
à¤¹à¤® à¤¦
à¤¯à¤¯ à¤Ń
Ġà¥¨à¥¦à¥¦ à¥«
à¤Ĩà¤µ à¤¶
à¤¯à¤£ à¤ª
à¤¯à¤£ à¤¹
Ġà¤¦à¤¶à¤ķ à¤ħà¤ĺ
Ġà¤Ĺà¤¹ à¤¤à¤°
Ġà¥¨à¥¦à¥« à¥¬
Ġà¤Ĩà¤Ī à¤¤à¤¬
Ġà¥¦à¥Ń à¥¨
à¤ıà¤¨à¤Ĩà¤° à¤ıà¤¨
Ġà¤¨à¤Ĺ à¤ıà¤ķ
à¤īà¤¥ à¤¹
Ġà¥§à¥¯à¥¬ à¥¦
Ġà¤°à¤¨à¤° à¤ħà¤ª
Ġà¤Ľà¤Ł à¤ªà¤Ł
Ġà¤¦à¤¬à¤¦ à¤¬
Ġ )
à¤° à¤ªà¤Łà¤ķ
à¥ĩ âĢĻ,
à¤¤ à¤Ĺ
à¤¯ à¤ĺ
à¤¯ à¤ªà¤Ľ
à¤¯ à¤¶à¤ķ
à¤¯ à¤°à¤¹à¤°
à¤¸ à¤ĸ
à¤¸ à¤Ńà¤¨
à¤¸ à¤ľà¤¸
à¤¸ à¤µà¤²
Ġà¤ª à¤ĸ
à¤¹ à¤¸à¤®
à¤µ à¤¶à¤ķ
à¤Ĺ à¤Ńà¤¨
à¤Ĺ à¤®à¤®
Ġà¤¹ à¤ķà¤²
Ġà¤¹ à¤µà¤²
Ġà¤µ à¤¢
à¤¬ à¤¡
à¤¬ à¤¹à¤°
à¤¬ à¤®à¤®
à¤§ à¤¸à¤®
Ġà¤¤ à¤¦à¤°
à¤¥ à¤°à¤²
à¤¶ à¤ħà¤¨
Ġà¤Ĩ à¤°à¤¸
à¤Ī à¤°à¤¹
à¤Ī à¤®à¤§
à¤ĩ à¤²à¤²
à¤ĩ à¤ıà¤®
Ġà¤ħà¤¨ à¤°
Ġà¤ħà¤¨ à¤Ĺ
Ġà¤ħà¤¨ à¤Ń
à¤°à¤£ à¤µ
à¤ªà¤° à¤°
à¤¨à¤² à¤²
à¤²à¤ķ à¤®
Ġà¤Ł à¤¨à¤ķ
à¤ªà¤¨ à¤¸à¤®
à¤Ŀ à¤²
Ġà¤īà¤ª à¤²à¤µ
Ġà¤®à¤¨ à¤¹à¤°
Ġà¤ł à¤¹
Ġà¤ķà¤° à¤¬
Ġà¤ĩ à¤°à¤«
Ġà¤Ńà¤ı à¤¦
Ġà¤Ńà¤ı à¤ħà¤¨
à¤¤à¤ķ à¤¹à¤°
à¤Ĩ à¤¦
à¤Ĩ à¤¶
à¤Ĩ à¤ī
à¤Ĩ à¤ĩà¤Ł
à¤Ĩ à¤Īà¤²
à¤®à¤¤ à¤¸à¤®
Ġà¤ħà¤µ à¤¤
Ġà¤Ķ à¤¸à¤¤à¤®
Ġà¤ĺà¤° à¤ª
à¤Łà¤² à¤¹à¤°
à¤ıà¤¸ à¤ı
Ġà¤Ĩà¤¤ à¤Ļ
Ġà¥§à¥¨ à¥«
Ġà¤¸à¤¹à¤ľ à¤°
à¥ģà¥¤ '
Ġà¤¦à¤¶à¤ķ à¤¸à¤®
à¥Įà¤Ĥ, '
à¤¤à¤¸ à¤ŀ
à¤¾à¥Īà¤Ĥ à¥¤
Ġà¤ªà¤Ł à¤ķà¤®
Ġà¥¦à¥¬ à¥¨
Ġà¤īà¤ªà¤¦ à¤«
Ġà¤¦à¤¶à¤® à¤²à¤¬
t h
à¤° à¤¡
à¤° à¤Ĩ
à¤° à¤Ļà¤²
à¤¨ à¤¯à¤¤
à¤¨ à¤ªà¤¤
à¤ķ à¤¸à¤°
à¤ķ à¤°à¤¬à¤°
à¥ĩ à¥Ī
à¤® à¤¤à¤°
à¤¤ à¤Ńà¤¨
à¤¯ à¤¯à¤ķ
à¤¯ à¤µà¤°
à¤¯ à¤¬à¤¹
à¤¸ à¤ľà¤¨
à¤¸ à¤°à¤¹
Ġà¤ª à¤¥à¤²
à¤¦ à¤¬à¤¹
à¤µ à¤¤à¤®
Ġà¤Ĺ à¤ĩà¤¨
à¥Ī à¤ĥ
Ġà¤° à¤Ļà¤ķ
à¤Ł à¤¹
à¤Ł à¤®à¤ķ
Ġà¤¬ à¤°à¤¦
Ġà¤¬ à¤¹à¤¨
Ġà¤¹ à¤ł
à¤ľ à¤¡
à¤ľ à¤¬à¤¹
à¤¬ à¤¥
à¤· à¤¯à¤¸
à¤§ à¤ķà¤ķ
Ġà¤¤ ÅĴ
à¤¥ à¤¹
à¤Ń à¤°à¤®
à¤ī à¤Ń
à¤ĩ à¤¸à¤²
Ġà¤ļ à¤¸
à¤īà¤¨ à¤¸à¤ķ
à¥Į à¥¤âĢĻ
Ġà¤ı à¤Ń
Ġà¤¶ à¤µà¤²
à¤ł à¤¸
Ġà¤« à¤¤
Ġà¤« à¤Ľ
à¤ªà¤° à¤¸
à¤ľà¤¨ à¤¬
Ġà¤ĺ à¤Łà¤ķ
Ġà¤¬à¤¢ à¤¨
à¤°à¤¸ à¤°à¤¤
à¤ĩà¤¨ à¤¸
Ġà¤ķà¤® à¤®
à¤ħ à¤¯
à¤ħ à¤Ł
Ġà¤ĩ à¤µ
à¤µà¤° à¤¹à¤°
Ġà¤Ĩà¤° à¤ıà¤²
à¤ļà¤¨ à¤¸
à¤ļà¤¨ à¤ħà¤ĺ
à¤µà¤ķ à¤¤
à¤²à¤¨ à¤¸
à¤²à¤¨ à¤ª
à¥ĩà¥¤ âĢĻ
à¤®à¤¨ à¤¸
Ġà¤ĵ à¤¡
Ġà¤ĵ à¤¢
à¤¦à¤¨ à¤¬
à¤¦à¤¨ à¤ħà¤¨
à¥¬ à¥¨
à¥¬ à¥ª
à¤Ĺà¤² à¤µ
à¤®à¤² à¤Ĺ
à¤ĵ à¤®
Ġà¤ħà¤ª à¤¹à¤°à¤£à¤®
à¤¨à¤µ à¤¤
Ġà¤ľà¤Ĺ à¤ľ
Ġà¤Ľà¤²à¤«à¤² à¤ªà¤Ľ
à¤¯à¤¯à¤¨ à¤ªà¤Ľ
à¤°à¤ļ à¤²à¤¨à¤®
Ġà¤¨à¤ľ à¤°
Ġà¤¯à¤¸à¤® à¤§
à¤¸à¤¨à¤² à¤ķ
à¤¯à¤¦ à¤²à¤®
Ġà¤Ĩà¤ł à¤µà¤Ł
Ġà¤Ńà¤Ī à¤¸à¤ķ
Ġà¥ªà¥¦ à¥¦
Ġà¤¦à¤¶à¤ķ à¤Ńà¤¨
à¤®à¤ª à¤¹
Ġà¤Ĩà¤ı à¤ªà¤¨
Ġà¤ļà¤°à¤® à¤¸
Ġà¥¦à¥Ń à¥«
à¤ıà¤ļ à¤¡
Ġà¤ĸà¤ªà¤¤ à¤ķ
Ġà¤¶à¤¹à¤° à¤¹à¤°
à¤ĩà¤°à¤¸ à¤²
Ġà¤ĸà¤¬ à¤°à¤²
Ġà¤²à¤ļ à¤ķà¤¤
Ġà¥¦à¥ª à¥¬
à¤¾ à¥ĩ,
à¤° à¤°à¤¹
à¤¨ à¤Ĺà¤°à¤®
à¤ķ à¤ĺ
à¤® à¤¨à¤²
à¤® à¤ªà¤Ľ
à¥Ģ âĢĶ
Ġà¤¸ à¤°à¤¦à¤°
à¤¹ à¤¡
à¤¹ à¤ħà¤¨
à¤µ à¤ĺ
à¤µ à¤¤à¤°
à¤µ à¤Ńà¤¨
Ġà¤ķ à¤¶
Ġà¤° à¤¡
Ġà¤¨ à¤¹à¤°
Ġà¤¨ à¤«
à¤ı à¤Ĩà¤°
Ġà¤¬ à¤ĸ
Ġà¤¹ à¤¬
à¤ľ à¤ľà¤¸
Ġà¤µ à¤¨à¤µ
à¤¬ à¤ªà¤¤
à¤· à¤µ
Ġà¤ľ à¤ĺà¤¨
à¤£ à¤¯à¤¸
à¤Ī à¤ªà¤ķ
Ġà¤ī à¤«
à¤¡ à¤²à¤¸
à¤ĩ à¤¡à¤®
à¤°à¤® à¤¸à¤®
Ġà¤ı à¤²à¤°
à¤¾à¤ģ âĢĻ
Ġà¤ħà¤¨ à¤¶à¤¨à¤®
Ġà¤ªà¤° à¤ľ
à¤ł à¤¹à¤°
Ġà¤« à¤²à¤¤
ĠâĢ Ķ
à¤°à¤¹ à¤¤
à¤Ļ à¤¸à¤®
à¤ŀ à¤¸
à¤²à¤® à¤²
Ġà¤¤à¤° à¤Ļ
Ġà¤īà¤ª à¤ķà¤°à¤£à¤ķ
à¤°à¤¦ à¤¤
à¥ģà¤ģ ,âĢĻ
Ġà¤Ńà¤ı à¤¸à¤®
à¤°à¤µ à¤£
Ġà¤Ĩà¤¯ à¤Ĩà¤°
Ġà¤ħà¤µà¤¸ à¤°à¤¹à¤°
Ġà¤ħà¤¹ à¤®à¤¦
à¤Ĺà¤¤ à¤¯
à¤²à¤¬ à¤¬
à¤¸à¤¨ à¤¹à¤¸
à¤¤à¤¨ à¤¬
à¤°à¤§ à¤¨
Ġà¤Ŀ à¤ķ
à¥¬ à¥®
à¤ıà¤¨ à¤¡
à¤ıà¤¨ à¤ıà¤²
à¤§à¤¨ à¤ªà¤Ľ
à¥© à¥«
Ġà¤ķà¤² à¤°
Ġà¤¤à¤¹ à¤¸à¤¨à¤¹à¤¸
à¤·à¤¯ à¤¬
Ġà¤Ĩà¤Ĺ à¤¨
à¥Īà¤ģ à¤Ĥ
Ġà¤Ĩà¤¶ à¤¯
Ġà¤¨à¤ª à¤¢
ĠĠĠĠ čĊ
Ġà¤Ĭ à¤¸
Ġà¤ľà¤¬ à¤ľ
Ġà¤ķà¤Ł à¤µ
à¥¨à¥¦ à¥¦
à¥¨à¥¦ à¥Ńà¥ª
Ġà¤¨à¤Ĩ à¤ĵà¤¸
Ġà¤¨à¤Ńà¤ı à¤ªà¤¨
Ġà¤ļà¤²à¤¨ à¤ļà¤²
Ġà¤¹à¤Ļà¤ķ à¤Ļà¤ķ
à¤Ĩà¤ĩ à¤ıà¤¸
Ġà¤ķà¤²à¤ķ à¤¤
Ġà¤®à¤°à¤¹ à¤ł
o n
o r
Ġ w
à¤¾ !
à¥į à¥ĩ
à¤¨ à¤Īà¤²
à¤ķ à¤°à¤¬
à¤ķ à¤¦à¤°
à¥ĭ /
à¤² à¤Ŀ
à¤² à¤µà¤ķ
à¤® à¤¨à¤ķ
à¤¯ à¤Ļ
à¤¸ à¤°à¤¤
Ġà¤ª à¤°à¤ķ
à¤¹ à¤°à¤ķ
Ġà¤ķ à¤Ľ
à¤Ĺ à¤°à¤£à¤ķ
Ġà¤¨ à¤ľà¤¨
Ġà¤¨ à¤¸à¤°
Ġà¤¨ à¤Ĺà¤¨
Ġà¤¨ à¤«à¤°
Ġà¤¨ à¤¥à¤ª
à¤Ł à¤²à¤Ĺ
à¤Ł à¤ħà¤ª
à¤Ł à¤Ĩà¤īà¤Ł
Ġà¤ħ à¤ķà¤²
Ġà¤® à¤¬
Ġà¤® à¤ł
Ġà¤® à¤®à¤¤
à¤ľ à¤¸à¤°
Ġà¤µ à¤¹à¤¨
à¤¬ à¤ļ
Ġà¤Ľ à¤¯
Ġà¤Ĩ à¤ıà¤¸
à¤Ń à¤°à¤²
à¤ĸ à¤Ń
à¤ĩ à¤®à¤¨
à¤°à¤® à¤Ń
Ġà¤ĸ à¤¹à¤°
à¤ł à¤¶
à¥ĥ à¥ĥ
à¤¨à¤® à¤°
Ġà¤°à¤¹ à¤ķ
Ġà¤¯à¤¸ à¤µ
à¤°à¤¹ à¤£à¤ķ
Ġà¤ıà¤ķ à¤¨
Ġà¤§ à¤®à¤²
à¤Ļ à¤°
à¤Ļ à¤²à¤Ĺ
Ġà¤¸à¤¹ à¤ħà¤¸
Ġà¤¡ à¤®à¤°
à¤Ŀ à¤¸à¤®
à¤°à¤¸ à¤²
à¥Įà¤Ĥ ?
Ġà¤ķà¤® à¤²à¤ª
Ġà¤ĩ à¤·
Ġà¤īà¤¨ à¤¬
Ġà¤ħà¤¸ à¤°à¤¬
à¤Ĩ à¤ĩà¤ı
à¤ķà¤ķ à¤¥
à¤łà¤® à¤£
à¥į, '
à¥© à¥¬
à¤·à¤® à¤£
Ġà¤Ĩà¤ĩ à¤Łà¤®
Ġà¤Ĩà¤ĩ à¤ĵ
à¤¶à¤¤ à¤¬
à¤¯à¤µ à¤¶
à¤°à¤¨ à¤Ĺà¤°à¤²
à¤·à¤¤ à¤µ
Ġà¤Ĩà¤® à¤°
Ġà¤Ĩà¤ľ à¤ķà¤²
Ġà¤ľà¤® à¤ĺà¤Ł
à¤°à¤ľ à¤¹à¤°
à¤¥à¤² à¤ª
Ġà¤ĭ à¤£à¤®
Ġà¤ķà¤Ł à¤¹à¤°
Ġà¤ħà¤ĸ à¤¡
Ġà¥¨à¥¦à¥¬ à¥§
à¤ıà¤Ī à¤¬
Ġà¤ĺà¤¨ à¤¶
à¥¨à¥¦ à¥§à¥Ń
Ġà¤®à¤¹à¤° à¤²
à¤ĩà¤¬ à¤°à¤²
à¤Łà¤¨à¤Ĺà¤° à¤¬
à¤īà¤ª à¤¡
à¥¦à¥¦ à¥¦
Ġà¥¨à¥¦à¥© à¥¯
Ġà¥§à¥¯à¥« à¥©
Ġà¥¨à¥¦à¥¨ à¥§
à¤ªà¤¨à¤² à¤Ĺ
Ġà¤ĺà¤°à¤§ à¤¨
, âĢĺ
a t
à¤° à¤ľà¤¨à¤²
à¤° à¤Ĩà¤®
à¤¨ à¤µà¤¸
à¤¨ à¤¯à¤²
à¤¨ à¤ļà¤°
à¤¿ à¥ĩ
à¤ķ à¤¸à¤ķ
à¤ķ à¤²à¤®
à¥ĩ -
à¤® à¤Ł
à¤¤ à¤¶
à¤¯ à¤²à¤®
à¤¯ à¤°à¤¸
à¥Ģ .
à¤¸ à¤°à¤¸
Ġà¤ª à¤Ĺ
à¤ª à¤²à¤Ĺ
à¤¹ à¤¨à¤²
à¤¹ à¤ķà¤®
à¤µ à¤ĩà¤¨
Ġà¤ķ à¤°à¤®
Ġà¤ķ à¤¥à¤¨
Ġà¤Ĺ à¤Ľ
Ġà¤Ĺ à¤ľà¤²
à¤Ĺ à¤¨à¤²
à¥Ī à¥į
Ġà¤° à¤¬
à¤Ł à¤ļ
à¤Ł à¤²à¤¬
à¤ı à¤Ń
Ġà¤ħ à¤µà¤®
Ġà¤¬ à¤«
Ġà¤® à¤łà¤®
à¤· à¤°à¤®
à¤· à¤ªà¤¹
à¤§ à¤ĸ
à¤§ à¤ķà¤²
Ġà¤¤ à¤Łà¤¸
à¤ģ à¤ģ
à¤¥ à¤Ĺà¤¨
Ġà¥¤ )
Ġà¤Ĩ à¤°à¤¤
Ġà¤Ĩ à¤ıà¤¨à¤¨
à¤£ à¤Ĺ
à¤£ à¤¯à¤µ
à¤ļ à¤Ĺ
à¤ļ à¤ĸ
à¤ļ à¤µà¤°
à¤Ī à¤¸à¤ķ
à¥Ĥ )
Ġà¤ī à¤¥à¤²à¤ª
à¤¡ à¤¨à¤µ
à¤Ń à¤¬
à¤Ń à¤ŀ
à¤ĩ à¤Ńà¤¨
à¤ĩ à¤¡à¤²
Ġà¤Ńà¤¨ à¤¸
Ġà¤ļ à¤¤à¤°
Ġà¤ı à¤ıà¤¨
Ġà¤ı à¤¥à¤²
Ġà¤ĸ à¤ķ
Ġà¤¶ à¤¸à¤ķ
Ġà¤¶ à¤Ļ
à¤ł à¤¸à¤²
Ġà¤« à¤Ĺ
à¤¸à¤® à¤¯à¤®
à¤µà¤¸ à¤°
ĠâĢĺ âĢĺ
à¤¢ à¤²
Ġà¤ľà¤¨ à¤ħà¤§
à¤¯à¤® à¤§
Ġà¤ıà¤ķ à¤ķ
à¤Ļ à¤¹à¤°
à¤Ļ à¤¸à¤¹
à¤¯à¤¤ à¤¹à¤²
Ġà¤īà¤ª à¤²à¤ķ
à¥Įà¤Ĥ à¤Ĥ
Ġà¤ķà¤® à¤¸
à¤ħ à¤¡
à¤°à¤µ à¤¨
à¤µà¤° à¤ª
à¤µà¤¨ à¤Ńà¤°
à¤Ĩ à¤Īà¤ķ
à¤Ĩ à¤ĩà¤¬
à¤°à¤¬ à¤ľ
à¤µà¤ķ à¤ªà¤®
à¤Łà¤¨ à¤¬
à¥« à¥Ń
à¤¿à¤ģ à¤Ĥ
Ġà¤Ĩà¤µ à¤°à¤£
à¥¨ à¥¯
Ġà¤Ŀ à¤°à¤¨
à¤ķà¤°à¤£ à¤¸à¤®
à¤ķà¤°à¤£ à¤ªà¤Ľ
Ġà¤¸à¤®à¤¯ à¤Ńà¤¨
à¤²à¤¯ à¤ª
à¤²à¤¯ à¤Ń
Ġà¤ªà¤¦ à¤Ń
à¤µà¤² à¤Ĺ
à¤Łà¤® à¤§
à¤µà¤® à¤¹
Ġà¤Ĩà¤ĩ à¤¡à¤²
à¤ĵ à¤°
Ġà¤Ķ à¤§
à¥® à¥¦
Ġà¤ħà¤ª à¤¹à¤°à¤£à¤ķ
Ġà¤¨à¤¹ à¤Ł
Ġà¤ıà¤¨ à¤ª
Ġà¤ıà¤¨ à¤Ĩà¤ĩà¤¸
à¤ļà¤ķ à¤¹à¤°
Ġà¤Ĺà¤ł à¤¨à¤®
Ġà¤Ĺà¤ł à¤µà¤¨
à¤·à¤¦ à¤®
à¤¸à¤¹ à¤Ń
Ġà¤®à¤¤ à¤ªà¤¤
à¤°à¤ª à¤¥
à¤¯à¤¯à¤¨ à¤¶
à¤ķà¤ª à¤¡
Ġà¤¸à¤¹à¤ľ à¤ķà¤°
à¤ıà¤® à¤ıà¤²
Ġà¤Ĺà¤łà¤¨ à¤ªà¤Ľ
à¤¯à¤¯ à¤¨à¤ķà¤°
Ġà¥§à¥® à¥¦
Ġà¤¦à¤¶à¤ķ à¤¯à¤¤
Ġà¥¬à¥¦ à¥¦
à¥ĩà¤Ĥ ,
à¥ĩà¤Ĥ à¥¤
Ġà¤Ī à¤²
Ġà¤¨à¤Ĩ à¤ıà¤ªà¤Ľ
à¤¤à¤¹ à¤Łà¤®
à¤ıà¤« à¤¡
Ġà¤Ĩà¤Ī à¤°à¤¹
Ġà¤ªà¤¸ à¤²à¤ķ
à¤Ĩà¤Ī à¤ª
Ġà¥§à¥¯à¥¯ à¥«
Ġà¥§à¥¯à¥¯ à¥¬
Ġà¤®à¤¦à¤¨ à¤ª
Ġà¥¨à¥¦à¥© à¥¬
Ġà¤ļà¤°à¤£ à¤¬à¤¦
Ġà¤Ĩà¤īà¤Ł à¤²
à¤¦à¤¯ à¤ĺ
à¤Ĳ à¤¶
Ġ ,âĢĻ
à¤° à¤ıà¤¨
à¤° à¤ħà¤°
à¤¨ à¤¢
à¤¨ à¤ªà¤¨
à¤ķ à¤¯
à¥ĩ âĢĺ
à¥ĭ Ã·
à¤² à¤¥
à¤² à¤ĺ
à¤² à¤µà¤²
à¤® à¤¨à¤®
à¤® à¤¸à¤¹
à¤¤ à¤²à¤ķ
à¤¸ à¤¡
à¤¸ à¤ħà¤¨
Ġà¤¸ à¤¶
à¤¦ à¤²à¤®
à¤µ à¤²à¤ķ
à¥Ī à¥ĩ
Ġà¤° à¤£
Ġà¤¨ à¤µà¤¯
Ġà¤¨ à¤µà¤ª
Ġà¤¨ à¤°à¤¬à¤¹
à¤ı à¤ĩ
à¤ı à¤¨à¤ķ
à¤ı à¤¨à¤²
à¤ı à¤Ńà¤¨
Ġà¤Ń à¤ľà¤¨
Ġà¤Ń à¤¬à¤¨
Ġà¤ħ à¤®à¤¨
Ġà¤µ à¤ľ
à¤¬ à¤¨à¤ķ
à¤¬ à¤°à¤¦
Ġà¤Ľ à¤¨à¤ķ
Ġà¤¤ à¤¦à¤¨
Ġà¤¦ à¤¸à¤ķ
à¤¥ à¤ħà¤¨
à¤¶ à¤Ĺ
à¤¶ à¤ľ
Ġà¤Ĩ à¤µà¤°
Ġà¤Ĩ à¤ĩà¤ıà¤ķ
Ġà¤ľ à¤ª
à¤Ľ à¤¤
à¤£ à¤ªà¤Ľ
Ġà¤² à¤ļà¤ķ
à¥Ĥ à¥¤
à¤Ń à¤²à¤ķ
à¤ī à¤ĸ
à¤ĸ à¤ª
à¤ĩ à¤Ī
à¤°à¤® à¤¦
Ġà¤ļ à¤ķà¤²
à¤« à¤²à¤ķ
à¥Į âĢĻ
à¤¯à¤ķ à¤¸
Ġà¤ĸ à¤ľ
Ġà¤¶ à¤¡
Ġà¤¶ à¤°à¤¦à¤°
Ġà¤ħà¤¨ à¤ª
à¤ł à¤¬
Ġà¤« à¤ľ
Ġà¤« à¤°à¤µ
à¤°à¤£ à¤¸à¤®
à¤ľà¤¨ à¤ľ
à¤¸à¤® à¤¯
à¥įà¥¤ âĢĿ
à¤ĺ à¤¦
Ġà¤¸à¤ķ à¤Ńà¤°
Ġà¤ľà¤¨ à¤ªà¤°
Ġà¤ľà¤¨ à¤¸à¤¹à¤Ń
Ġà¤¯à¤¸ à¤ħà¤¨
Ġà¤ıà¤ķ à¤ıà¤ķ
à¤Ļ à¤¹
Ġà¤īà¤ª à¤ķà¤ª
à¤°à¤¸ à¤¸
Ġà¤ķà¤® à¤¬
à¤ħ à¤¬à¤ķ
Ġà¤ĩ à¤ķà¤¬
à¤¾, âĢĻ
à¤¾à¤Ĥ à¤Ĥ
Ġà¤ħà¤¹ à¤®
à¤µà¤¨ à¤¬
à¤·à¤£ à¤¸à¤®
à¤¸à¤¨ à¤¸à¤®
à¤ļà¤¨ à¤ľ
à¤ļà¤¨ à¤¸à¤®
à¥« à¥§
Ġà¤īà¤¦ à¤ĺ
à¤ªà¤ķ à¤¹à¤°
à¤¤à¤® à¤¸
Ġà¤ĵ à¤¤
Ġà¤ĵ à¤ł
à¥ª à¥ª
à¤¸à¤¦ à¤¬
Ġà¤¸à¤¦ à¤°
à¥© à¥©
Ġà¤ªà¤¦ à¤ª
Ġà¤ªà¤¦ à¤ļ
Ġà¤Ĩà¤ĩ à¤¬
Ġà¤¤à¤¹ à¤¸
à¤ĵ à¤ª
à¤ĵ à¤¬
ĠĠ ĠčĊ
à¤Ńà¤µ à¤¬
à¤¬à¤² à¤Ł
à¤¨à¤µ à¤¶
Ġà¤Ĳ à¤¶
Ġà¤°à¤ķà¤® à¤®à¤§
à¤¦à¤ķ à¤¹à¤°
à¤Ĩà¤° à¤ıà¤«
à¤¯à¤ª à¤¶
Ġà¤¸à¤¡à¤ķ à¤¹à¤°
Ġà¤¨à¤ª à¤ł
Ġà¤¸à¤¹à¤° à¤¬
à¤ľà¤¦ à¤°à¤¬
à¤ķà¤Ł à¤¬
à¤ķà¤Ł à¤¤à¤®
à¤¸à¤¸ à¤¹à¤°
à¤ļà¤² à¤ļ
Ġà¥§à¥¬ à¥«
Ġà¥¨à¥¦à¥¦ à¥¨
à¤¤à¤°à¤ķ à¤²
Ġà¥¨à¥¦à¥¬ à¥¦
à¤¾) âĢĶ
à¤¬à¤Ī à¤¬
à¥¨à¥¦ à¥§à¥®
à¤ªà¤Ł à¤¨à¤®
à¤Łà¤µ à¤²à¤ķ
Ġà¤¦à¤® à¤¨à¤ķ
Ġà¤¦à¤® à¤ķà¤®
Ġà¤¹à¤ķ à¤ħà¤§
Ġà¥¨à¥¦à¥ª à¥«
Ġà¥¨à¥¦à¥« à¥Ń
Ġà¥§à¥¯à¥¯ à¥¨
Ġà¥¨à¥¦à¥¨ à¥¬
Ġà¤®à¤łà¤® à¤¨
e n
i n
à¤¾ Â¥
à¤° à¤ªà¤°
à¤° à¤¨à¤®
à¤¿ à¥ģ
à¤ķ à¤¨à¤²
à¤² à¤ħà¤¨
à¤® à¤ŀ
à¤¤ à¤ĸ
à¤¸ à¤ıà¤ª
Ġà¤¸ à¤°à¤¦
à¤¦ à¤°à¤¹
à¤¦ à¤ķà¤ķ
à¤¦ à¤®à¤¨
à¤¦ à¤ľà¤¸
à¤¹ à¤£à¤®
Ġà¤Ĺ à¤®à¤²
à¤Ĺ à¤ªà¤Ľ
Ġà¤° à¤£à¤¬à¤¹
Ġà¤¨ à¤ł
Ġà¤¨ à¤°à¤¸
à¤Ł à¤²à¤¨
à¤ı à¤®à¤®
Ġà¤¹ à¤¨à¤¨
Ġà¤® à¤¶
à¤ľ à¤«
à¤ľ à¤ħà¤¨
à¤¬ à¤Ł
à¤¬ à¤¸à¤®
à¤¬ à¤ĸà¤¤
à¤§ à¤¯
à¤§ à¤ľà¤¯à¤¨
Ġà¤¤ à¤Ł
à¤ģ à¥¤âĢĻ
Ġà¤¦ à¤°à¤Ń
à¤¶ à¤¨à¤¸
à¤¶ à¤°à¤ľ
à¤¶ à¤¬à¤¹
Ġà¤Ĩ à¤Ĭ
Ġà¤² à¤¥
Ġà¤² à¤¤à¤®
à¤Ī à¤¥
à¤Ī à¤Ń
à¤¡ à¤²à¤¬
à¤¡ à¤²à¤Ĺ
à¤¡ à¤¬à¤²
à¤Ń à¤ı
à¤ī à¤¤à¤ķ
à¤ĸ à¤¨à¤²
Ġà¤¯ à¤®à¤¨
Ġà¤¸à¤® à¤¥à¤°
à¤¹à¤° à¤®
Ġà¤ĸ à¤²à¤¨
Ġà¤ħà¤¨ à¤§
Ġà¤ªà¤° à¤¸
à¤ł à¤Ĺ
à¤ł à¤¨à¤ķ
Ġà¤« à¤¹à¤°
Ġà¤« à¤Ĺà¤¤
à¤ĺ à¤¨à¤ķ
à¤ĺ à¤°à¤²
à¤ĺ à¤¸à¤¸
à¤¯à¤® à¤¦
à¤¯à¤® à¤µ
à¤¯à¤® à¤µà¤°
à¤²à¤ķ à¤¬
Ġà¤ıà¤ķ à¤ª
Ġà¤ıà¤ķ à¤Ĩ
Ġà¤ĺ à¤¨à¤®
à¤ŀ à¤¸à¤¹
à¤ªà¤¨ à¤¹
à¤²à¤® à¤®
Ġà¤¤à¤° à¤¬
Ġà¤¡ à¤ķà¤°
à¤ħ à¤¨à¤²
à¤ħ à¤²à¤Ĺ
à¤ķà¤² à¤¬
Ġà¤ĩ à¤®à¤²
Ġà¤Ńà¤ı à¤ªà¤¶
Ġà¤īà¤¨ à¤¸
Ġà¤¸à¤¬ à¤¥
à¤Ĺà¤¤ à¤Ńà¤¨
à¤·à¤£ à¤ªà¤Ľ
à¤Ĩ à¤¸
à¤Ĩ à¤°à¤ķ
à¤Ĩ à¤īà¤¨
à¤Ĩ à¤°à¤²
à¤²à¤¨ à¤¹à¤°
à¤¨à¤¨ à¤¸à¤ķ
à¥Įà¤ģ âĢĻ
Ġà¤Ŀ à¤®
Ġà¤¨à¤Ĺà¤° à¤µ
à¤¨à¤¸ à¤¹à¤¨
à¥© à¥§
à¤¶à¤¨ à¤¹à¤°
Ġà¤Ķ à¤ª
Ġà¤Ķ à¤ªà¤¨
Ġà¤¬à¤² à¤ª
à¤ķà¤¨ à¤Ĺ
Ġà¤®à¤² à¤ĸ
Ġà¤ıà¤¨ à¤¬
à¤£à¤¯ à¤ª
Ġà¤ªà¤Łà¤ķ à¤¸à¤®
à¤µà¤¯ à¤¨à¤²
à¤µà¤°à¤£ à¤ħà¤¨
Ġà¤°à¤ķà¤® à¤¸à¤®
Ġà¤ıà¤¸ à¤¡
à¤Ĩà¤° à¤ľ
Ġà¤®à¤¤ à¤Ĺà¤£à¤¨
Ġà¤Ĩà¤ľ à¤¬
à¤łà¤ķ à¤ªà¤Ľ
à¤µà¤¯à¤¨ à¤¸
à¤ĩà¤Ł à¤¬
à¤®à¤¸ à¤Ļà¤²
Ġà¤ıà¤ª à¤¹à¤°
à¤¨à¤Ĺà¤° à¤¬
à¤Ĺà¤łà¤¨ à¤Ń
Ġà¤¨à¤² à¤¡
à¤¤à¤°à¤¤ à¤°
à¤ªà¤Ł à¤ķà¤®
à¤Łà¤µ à¤²à¤®
Ġà¤Ī à¤¸
Ġà¤ıà¤² à¤ĩà¤¡
Ġà¤¨à¤Ĩ à¤ı
à¤ĸà¤¨ à¤¨à¤ķ
Ġà¥®à¥¦ à¥¦
Ġà¤Ĩà¤Ī à¤ª
Ġà¤Ĩà¤Ī à¤ĵà¤ıà¤¸
Ġà¤¸à¤°à¤¸ à¤²
Ġà¤Ľà¤° à¤Ľ
à¤¶à¤Ń à¤°à¤¬
à¤¾à¥Īà¤Ĥ à¥¤âĢĻ
Ġà¤ľà¤¨à¤Ĩ à¤ķ
Ġà¥¨à¥¦à¥© à¥§
Ġà¥§à¥¯à¥« à¥ª
Ġà¥¨à¥¦à¥¨ à¥®
Ġà¤Ńà¤ĩà¤¨ à¤¸à¤ķ
Ġà¤¨à¤Ĺ à¤Ī
Ġà¥§à¥¯à¥® à¥¦
Ġà¥§à¥¯à¥ª à¥®
Ġà¤ıà¤ķà¤¸ à¤¯
Ġà¥§à¥¯à¥Ń à¥¦
? )
a l
a n
i on
Ġ /
à¤ Ĵ
à¤¾ à¥¤âĢĻ
à¥į !
à¤¨ à¤ı
à¤¨ à¤¬à¤°
à¤¿ ),
à¤ķ à¤¸à¤²
à¤ķ à¤¨à¤ķà¤°
à¤² à¤¯à¤¤
à¤® à¤¬à¤°
à¤¸ à¤Ĺ
à¤¸ à¤ªà¤°
à¤¦ à¤²à¤¯
à¤µ à¤¥
à¤Ĺ à¤ľà¤ķ
à¤Ĺ à¤¹à¤¨
à¤Ĺ à¤µà¤¤
Ġà¤¨ à¤¥
Ġà¤¨ à¤Ļ
Ġà¤¨ à¤ķà¤°
Ġà¤¨ à¤ĺà¤Ł
à¤ı à¤²à¤²
Ġà¤¹ à¤¯
Ġà¤¹ à¤¦à¤®
Ġà¤¹ à¤¬à¤ķ
à¤ľ à¤°à¤®
à¤¬ à¤ĩ
à¤¬ à¤¨à¤²
à¤¬ à¤®à¤ķ
à¤¬ à¤¤à¤ķ
à¤¬ à¤²à¤²
Ġà¤Ľ à¤¦
Ġà¤Ľ à¤¡
à¤ģ /
à¤ıà¤ķ à¤¤
à¤¥ à¤¨à¤²
Ġà¤Ĩ à¤¯à¤®
Ġà¤Ĩ à¤¬à¤ķ
Ġà¤Ĩ à¤ĵà¤¸
Ġà¤ľ à¤Ĺà¤¤à¤®
Ġà¤ľ à¤¯à¤¶
Ġà¤² à¤ł
Ġà¤² à¤ĸà¤¨
à¤ļ à¤ķà¤ķ
à¤Ī à¤¡
à¤Ī à¤ķà¤²
à¥Ĥ à¥Ĥ
à¤¡ à¤ªà¤®
à¤Ń à¤µà¤¨
Ġà¤¸à¤® à¤ª
Ġà¤¸à¤® à¤¨à¤ª
à¤°à¤ķ à¤¹à¤°
à¤°à¤® à¤ª
à¤°à¤® à¤ľ
à¤°à¤® à¤¸à¤¹
Ġà¤ļ à¤Łà¤ķ
Ġà¤ļ à¤¹à¤²à¤ª
Ġà¤ļ à¤¯à¤¨à¤®
à¥Į âĢĵ
Ġà¤ı à¤«à¤¬
à¤°à¤¤ à¤ľà¤¸
Ġà¤ĸ à¤µ
à¤¨à¤ķ à¤¨
Ġà¤¶ à¤Ĵ
à¤ł à¤¸à¤®
à¤ªà¤° à¤¹
à¤¸à¤® à¤¨
à¤¨à¤² à¤¬
à¤µà¤¸ à¤ļ
à¥¦ à¥¬
Ġà¤ľà¤¨ à¤¸à¤°
Ġà¤°à¤¹ à¤¨à¤¸à¤¹à¤¨
Ġà¤ıà¤ķ à¤Ńà¤¨
à¤¯à¤¸ à¤¨à¤ķ
Ġà¤§ à¤ľ
à¤¤à¤° à¤¸
à¤Ŀ à¤£
à¥ģà¤ģ à¤Ĥ
Ġà¤ĩ à¤¥
Ġà¤ĩ à¤¨à¤ķ
Ġà¤ĩ à¤¨à¤²
Ġà¤ĩ à¤Łà¤²
à¤¯à¤² à¤¯à¤®
Ġà¤ħà¤¸ à¤°à¤ķ
Ġà¤ħà¤¸ à¤¦à¤ķ
à¤¶à¤ķ à¤¦
à¤²à¤¬ à¤¦
à¤¸à¤¨ à¤ª
à¤ļà¤¨ à¤¹à¤°
à¤µà¤ķ à¤¸
à¤²à¤¨ à¤¸à¤®
à¥Ń à¥§
Ġà¤ĵ à¤¨
à¤¦à¤¨ à¤¸
Ġà¤¨à¤Ĺà¤° à¤ªà¤°
à¥ª à¥¬
Ġà¤¢ à¤°
Ġà¤¨à¤Ń à¤ĩà¤¸à¤ķ
Ġà¤ķà¤² à¤¹
à¤¶à¤¨ à¤ħà¤¨
Ġà¤Ĩà¤ĩ à¤Ł
Ġà¤Ĩà¤ĩ à¤ķà¤¨
Ġà¤Ĩà¤ĩ à¤¡à¤²à¤ķ
Ġà¤ħà¤µ à¤ľ
à¤¹à¤¨ à¤¤à¤ķ
à¥¯ à¥¯
à¤¾. ..
à¤¨à¤¬ à¤¤
à¤¸à¤¹ à¤¯
à¤ĩà¤² à¤¹à¤°
à¤²à¤¯à¤² à¤Ĺ
Ġà¤Ĩà¤® à¤¹à¤¡
à¤ıà¤¸ à¤Ł
Ġà¤¹à¤¸ à¤¨à¤²
Ġà¥§à¥¨ à¥¬
à¤ıà¤® à¤Ī
à¤®à¤Ĺ à¤°à¤ķ
à¥ģà¥¤ âĢĿ
Ġà¥§à¥¬ à¥¦
Ġà¥§à¥ª à¥¦
ĠĠĠĠ ĠĊ
Ġà¤ľà¤¨à¤¸ à¤°à¤ķ
Ġà¤¨à¤ķ à¤Ĩà¤īà¤Ł
à¤Łà¤¬ à¤²à¤²
Ġà¥¨à¥¨ à¥¦
Ġà¥¦ à¥¦à¥¦
Ġà¥¦ à¥¦à¥Ń
Ġà¥¨à¥ª à¥¦
à¥ĩâĢĵ âĢĺ
à¥ĩà¤Ĥ ,âĢĻ
Ġà¥Ńà¥¦ à¥¦
Ġà¥¨à¥¦à¥« à¥«
Ġà¤ķà¤¦à¤® à¤¹à¤°
à¤ĩà¤« à¤Ł
Ġà¤¬à¤¡ à¤¹à¤°
Ġà¤ķà¤¦ à¤®à¤®
... âĢĻ
Ġà¥¨à¥¦à¥¨ à¥ª
à¤ıà¤ļ à¤ıà¤¸
Ġà¤¶à¤ªà¤¥ à¤Ĺ
Ġà¤Ĩà¤ĩà¤ıà¤® à¤ĩ
à¤Ĳ à¤¤
Ġà¤ıà¤¯à¤°à¤¬ à¤¸à¤²
Ġà¤¶à¤¹ à¤°à¤ķ
à¤ĩà¤²à¤¬ à¤¢
Ġà¤Ŀà¤¡ à¤ªà¤ķ
Ġà¤ıà¤¸à¤ĩ à¤ĩ
Ġà¤Łà¤¨à¤ķ à¤ª
à¤ıà¤Ĩà¤° à¤ĵ
à¤Łà¤Ĩà¤īà¤Ł à¤®
Ġà¤ıà¤ķà¤Ĩ à¤ªà¤¸à¤®
Ġà¤ļà¤¹à¤²à¤ª à¤¹à¤²
) âĢĻ
a r
à¤° à¤¨à¤ķ
à¤° à¤µà¤¸
à¤° à¤ľà¤²
à¤° à¤ıà¤¨à¤ı
à¤¨ à¤°à¤¸
à¤¨ à¤Ľà¤¨
à¤¨ à¤Īà¤ķ
à¤¨ à¤ħà¤Ĺ
à¤¨ à¤°à¤µà¤²
à¤¿ Ã·
à¤ķ à¤ł
à¤ķ à¤°à¤¸
à¤ķ à¤Ĺà¤¢
à¥ĩ .
à¥ĩ à¤¾
à¥ĭ !
à¥ĭ à¥ĩà¥¤
à¤² à¤ł
à¤® à¤®à¤¤
à¤® à¤¬à¤²
à¤¤ à¤¥à¤²
à¥ģ ?
à¥Ģ à¥ĩ
à¤¸ à¤¯à¤ķ
à¤¸ à¤¤à¤°
à¤¸ à¤Ĺà¤¢
à¤¦ à¤ķà¤°
à¤¹ à¤Ĺ
à¤µ à¤¤à¤²
à¤Ł à¤ľà¤¸
à¤Ł à¤®à¤²
à¤ı à¤Ĺ
à¤ı à¤®à¤²
à¤ı à¤Łà¤°à¤ķ
Ġà¤Ń à¤ľ
Ġà¤ħ à¤¥à¤ķ
Ġà¤¬ à¤Ĺà¤°
Ġà¤¬ à¤²à¤¬
Ġà¤¬ à¤Łà¤¨
Ġà¤¬ à¤®à¤¬
Ġà¤® à¤Ńà¤¨
Ġà¤Ĺà¤° à¤Ĺà¤¹à¤¨
à¤ľ à¤ªà¤°
Ġà¤µ à¤¯
Ġà¤µ à¤¨à¤®
à¤· à¤¦à¤°
à¤§ à¤¶
à¤§ à¤°à¤ķ
à¤§ à¤¦à¤°
Ġà¤Ľ à¤ª
Ġà¤¦ à¤ĸ
à¤¥ à¤²à¤¸
Ġà¤² à¤«
à¤ļ à¤¯à¤ķ
à¤ļ à¤ķà¤®
Ġà¤ī à¤¸à¤®
à¤¡ à¤§
à¤¡ à¤ķà¤ķ
à¤ī à¤Ĺ
à¤ī à¤¡à¤°
à¤ĸ à¤Ĺ
Ġà¤¸à¤® à¤·
à¤ĩ à¤²à¤¨
à¤ĩ à¤ªà¤ķ
à¤°à¤ķ à¤°à¤£à¤²
Ġà¤ļ à¤®à¤ķ
à¤« à¤°à¤®
Ġà¤ı à¤²à¤¸
à¤°à¤¤ à¤Ń
Ġà¤ĸ à¤²à¤ª
à¤¾à¤ģ à¥¤
à¤°à¤£ à¤ª
à¤¸à¤® à¤²
à¤ĺ à¤¨à¤¤
Ġà¤ľà¤¨ à¤Ĺ
Ġà¤ľà¤¨ à¤§à¤¨à¤ķ
Ġà¤°à¤¹ à¤¦
Ġà¤®à¤¹ à¤¤à¤ķ
Ġà¤ıà¤ķ à¤ªà¤ķ
Ġà¤Ł à¤£
Ġà¤Ł à¤¡
à¤Ŀ à¤®
Ġà¤ħà¤° à¤¬à¤ķ
à¤ħ à¤Ŀ
Ġà¤²à¤Ĺ à¤¨à¤¶
Ġà¤ĩ à¤®à¤°
Ġà¤Ńà¤ı à¤¬
à¤°à¤µ à¤¹
à¤¯à¤² à¤¯à¤²
Ġà¤ħà¤¹ à¤®à¤¦à¤²
à¤Ĩ à¤°à¤¬
à¤Ĩ à¤ĵ
à¥« à¥¨
à¥« à¥®
Ġ( ?)
à¤®à¤¤ à¤¸
à¥Įà¤ģ ?
à¤®à¤¨ à¤°
Ġà¤ĵ à¤ľ
Ġà¤ĵ à¤ĸ
Ġà¤ĵ à¤¹à¤¦
à¥Īà¤Ĥ à¤ģ
à¤°à¤¶ à¤¨
Ġà¤¸à¤¯ à¤¸à¤®
à¥ª à¥©
Ġà¤¸à¤®à¤¯ à¤¬
Ġà¤ļà¤² à¤¨à¤²
Ġà¤Ĩà¤ĩ à¤ıà¤¨à¤ľ
à¤Ĺà¤® à¤ŀ
à¥¯ à¥¦
à¥¯ à¥«
à¤ķà¤¨ à¤ªà¤Ľ
à¤²à¤¤ à¤ª
à¤¯à¤¸à¤² à¤Ĺà¤¤
Ġà¤¸à¤«à¤² à¤ª
à¤µà¤ª à¤¶
à¤¡à¤® à¤°
à¤ľà¤Ĺ à¤ŀ
à¤§à¤ķ à¤¹à¤°
à¤ıà¤¸ à¤¬
à¤¯à¤¯à¤¨ à¤¬
à¤ķà¤¸ à¤¤
Ġà¤«à¤°à¤ķ à¤ªà¤¨
Ġà¤¨à¤ľ à¤°à¤ħà¤¨
à¤®à¤¸ à¤Ļ
à¤ĸà¤ķ à¤¹à¤°
Ġà¤°à¤® à¤ľ
à¤°à¤¸à¤® à¤ķ
à¤¯à¤¸à¤¬ à¤ĸà¤¤
Ġà¤ªà¤¦à¤® à¤ª
à¤µà¤Ń à¤°à¤¬
à¤ªà¤Ł à¤ªà¤®
à¤Łà¤¬à¤² à¤ª
à¤£à¤¤ à¤¯
Ġà¤Ī à¤·
Ġà¤ĸà¤Ł à¤ªà¤Ł
Ġà¤¨à¤Ĩ à¤ıà¤¸à¤®
à¤Ĭ à¤°
Ġà¤Ľà¤²à¤« à¤²à¤²
Ġà¥§à¥¯à¥¯ à¥ª
Ġà¤ıà¤« à¤Ł
à¤Łà¤°à¤¸ à¤¹
Ġà¤ªà¤¸à¤² à¤¬
Ġà¥¨à¥¦à¥¨ à¥«
Ġà¤ľà¤Ĺà¤¤ à¤¬à¤¹
Ġà¥§à¥¯à¥® à¥«
Ġà¥¦à¥¬ à¥Ń
âĢĮ à¤Ĥ
Ġà¤¤ÅĴ à¤µ
e r
Ġ .
Ġà¤ Ļ
à¤° à¤Ľ
à¤° à¤°à¤¤
à¤° à¤Ĺà¤°
à¤° à¤ĸà¤°
à¤° à¤Ĺà¤¢
à¤¨ à¤¬à¤¨
à¤¨ à¤¤à¤²
à¤¨ à¤Łà¤®
à¤¨ à¤ªà¤Łà¤ķ
à¤ķ à¤£
à¤ķ à¤ļ
à¤ķ à¤²à¤ķ
à¤ķ à¤ªà¤Ľ
à¤® à¤¯à¤ķ
à¤® à¤ľà¤¨
à¤® à¤²à¤²
à¤® à¤°à¤£à¤®
à¤¯ à¤ªà¤ķ
à¤¸ à¤ı
à¤¸ à¤¢
Ġà¤ª à¤Ļ
à¤ª à¤Ńà¤¨
à¤ª à¤Łà¤¨
à¤¦ à¤īà¤¨
à¤¦ à¤²à¤ķ
à¤¦ à¤Ńà¤¨
à¤¹ à¤Ń
à¤¹ à¤²à¤®
à¤¹ à¤Ĺà¤¤
à¤µ à¤°à¤¹
à¤µ à¤¬à¤¹
à¤Ĺ à¤¸à¤¬
à¤Ĺ à¤£à¤®
à¥Ī )
Ġà¤° à¤¬à¤°
Ġà¤¨ à¤ªà¤¤
Ġà¤¨ à¤°à¤¹à¤°
Ġà¤¨ à¤¸à¤ļ
Ġà¤¨ à¤Ĺà¤°à¤²
à¤ı à¤°à¤®
à¤ı à¤®à¤ķ
à¤ı à¤¤à¤ķ
à¤ı à¤Łà¤°à¤²
Ġà¤¬ à¤¬à¤Ī
Ġà¤¹ à¤ķà¤ª
Ġà¤® à¤Ľ
à¤ľ à¤¸à¤ķ
à¤ľ à¤¤à¤²
à¤ľ à¤¬à¤ķ
Ġà¤µ à¤¨à¤²
à¤¬ à¤°à¤¬
à¤¬ à¤¤à¤®
à¤· à¤°à¤ķ
à¤§ à¤Ĺ
à¤§ à¤Ń
à¤§ à¤ĺ
à¤§ à¤µà¤ª
Ġà¤Ľ à¤µà¤Ł
à¤¶ à¤Ńà¤¨
à¤¶ à¤¯à¤¬
à¤Ĥ à¥¤
Ġà¤ľ à¤¯à¤¸
Ġà¤ľ à¤¯à¤¦
à¤£ à¤¸à¤¹
à¤£ à¤¶à¤®à¤¶
à¤ļ à¤¤à¤°
à¤ļ à¤²à¤²
à¤Ī à¤¶
à¤Ī à¤ķà¤¨
à¤¡ à¤¯
à¤¡ à¤°à¤¶
à¤Ń à¤§
à¤Ń à¤¸à¤®
à¤ī à¤Łà¤ķ
à¤ĸ à¤ļ
à¤ĸ à¤²à¤Ĺ
à¤ĸ à¤®à¤§
à¤ĩ à¤ªà¤°
à¤ĩ à¤«à¤²
à¤ĩ à¤ħà¤¨
à¤ĩ à¤¬à¤²
à¤°à¤® à¤°
à¤°à¤® à¤¯
à¤« à¤²à¤®
à¤« à¤¸à¤²à¤®
à¤īà¤¨ à¤¤
Ġà¤ı à¤Ļ
Ġà¤ı à¤¡à¤®
à¤¯à¤ķ à¤¬
à¤°à¤¤ à¤ª
à¤°à¤¤ à¤Ńà¤°
Ġà¤ĸ à¤Ľ
Ġà¤ĸ à¤¡à¤ķ
à¤°à¤£ à¤¯
à¤ľà¤¨ à¤ª
à¤ľà¤¨ à¤ªà¤Ľ
à¤µà¤¸ à¤Ń
à¥¦ à¥Ńà¥¬
à¤ĺ à¤£
Ġà¤ıà¤ķ à¤¡
Ġà¤ıà¤ķ à¤²à¤ķ
Ġà¤Ł à¤ļ
Ġà¤§ à¤¡
Ġà¤§ à¤®à¤¨
à¤Ļ à¤ĸ
à¤²à¤® à¤¨
à¤¤à¤° à¤ªà¤¶
à¤¤à¤° à¤Ĺà¤¯
à¤Ŀ à¤ª
Ġà¤ħà¤° à¤¨
à¤ħ à¤ļ
à¤ħ à¤µà¤¸
Ġà¤®à¤¨ à¤¤
Ġà¤ĩ à¤¯à¤°
à¤¯à¤¨ à¤¶
Ġà¤ħà¤µà¤¸ à¤°à¤¬
à¤Ĺà¤¤ à¤²
à¤µà¤¨ à¤ª
à¤·à¤£ à¤µ
à¤²à¤¬ à¤ľ
à¤¸à¤¨ à¤¸à¤¤
à¤¸à¤° à¤¸à¤®
à¥Ń à¥®
Ġà¤ĵ à¤µ
à¤·à¤ķ à¤¦
à¤°à¤Ń à¤ķ
à¥ª à¥¨
à¥ª à¥®
Ġà¤ħà¤µ à¤¤à¤°à¤£à¤ķ
Ġà¤Ĩà¤īà¤¨ à¤¸à¤ķ
à¤Ĺà¤® à¤¸
Ġà¤¦à¤² à¤Ĺà¤¤
Ġà¤ħà¤ª à¤ļà¤²à¤¨
à¤Łà¤² à¤°à¤²
Ġà¥§à¥¦ à¥ª
Ġà¥§à¥¦ à¥®
Ġà¥§à¥¦ à¥¯
à¤²à¤¤ à¤¦
à¤ªà¤² à¤Ł
Ġà¤Ĳ à¤²
à¤·à¤¦ à¤¬
à¤ĩà¤² à¤¨à¤®
à¤ľà¤Ĺ à¤¨
Ġà¤Ĩà¤ī à¤Ľà¤¨
à¤¯à¤ª à¤¦
Ġà¤Ĩà¤® à¤¸à¤Ń
à¤ıà¤¸ à¤¨à¤²
Ġà¤ľà¤® à¤°
à¤¯à¤¯à¤¨ à¤¹à¤°
à¤¡à¤² à¤¹à¤°
Ġà¥§à¥¨ à¥§
Ġà¥§à¥¨ à¥®
à¤²à¤¯à¤® à¤§
Ġà¥§à¥§ à¥¦
Ġà¥§à¥® à¥§
Ġà¤Ĩà¤ł à¤ľà¤¨
Ġà¤¹à¤² à¤¹à¤°
à¤¯à¤£ à¤¹à¤°
Ġà¤®à¤¦ à¤¨à¤²
Ġà¤°à¤¸ à¤Ĺ
Ġà¤ķà¤ł à¤ĺà¤°
Ġà¤¡à¤²à¤° à¤Ńà¤¨
à¥¨à¥¦ à¥§à¥¬
Ġà¤ĭà¤£ à¤ªà¤¤
Ġà¤¨à¤Ĺà¤¦ à¤¸à¤¹
Ġà¤®à¤¨à¤® à¤¸
Ġà¥Ńà¥« à¥©
à¤§à¤¨à¤² à¤Ĺ
Ġà¥¯à¥¦ à¥¦
à¤¾à¥Īà¤Ĥ ,âĢĻ
à¤Łà¤¨à¤Ĺà¤° à¤¸
Ġà¤Ĺà¤ĩà¤°à¤¹ à¤¨
Ġà¤¤à¤²à¤¬ à¤Ńà¤¤
Ġà¥¨à¥¦à¥© à¥©
à¤Ĺà¤£ à¤¤à¤¨
à¤ķà¤¡ à¤Ń
Ġà¤īà¤ªà¤ķà¤°à¤£ à¤¹à¤°
à¤ķà¤Ń à¤°à¤ķ
à¤¤à¤°à¤² à¤¤
ĠĠĠĠĠĠĠĠĠĠĠĠĠĠĠĠ ĠĠĠĠĠĠĠĠ
à¤Ĺà¤µ à¤£
Ġà¥§à¥¯à¥ª à¥¯
Ġà¤¸à¤°à¤¹ à¤ķ
Ġà¤¯à¤® à¤¨à¤®
Ġà¤ķà¤²à¤® à¤ľ
à¤¡à¤¹ à¤²à¤®
à¤°à¤Ĩ à¤µà¤¸
Ġà¤²à¤« à¤¡
) âĢĵ
a s
d i
e p
i t
m à¤¸à¤²
Â Ń
Ġ "
Ġ A
Ġ th
à¥į à¤ĥ
à¤° à¤²à¤ķ
à¤¨ à¤§
à¤¨ à¤ıà¤ľ
à¤¿ /
à¤ķ à¤Łà¤¨
à¤ķ à¤Ĺà¤£
à¥ĩ âĢĿ
à¥ĭ âĢĿ,
à¤² à¤µà¤°
à¤² à¤ļà¤¨
à¤® à¤ªà¤¤
à¤¤ à¤ľà¤¸
à¤¤ à¤ħà¤²
à¤¯ à¤ļà¤ķ
à¤¸ à¤°à¤£
à¤¸ à¤ļà¤¨
Ġà¤¸ à¤¯à¤²
Ġà¤¸ à¤¤à¤²
Ġà¤¸ à¤¶à¤°
Ġà¤ª à¤Ĺà¤°
Ġà¤ª à¤¥à¤®
Ġà¤ª à¤¥à¤ª
à¤ª à¤ħà¤¨
à¤¦ à¤¡
à¤¦ à¤¯à¤®
à¤¹ à¤¤à¤®
à¤¹ à¤²à¤¤
à¤¹ à¤£à¤²
à¤µ à¤ĸ
à¤µ à¤ķà¤®
à¤µ à¤ļà¤¨
à¤µ à¤¦à¤²
à¤µ à¤ªà¤°à¤°
Ġà¤ķ à¤ľ
Ġà¤ķ à¤Ļ
Ġà¤ķ à¤Łà¤¨
à¤Ĺ à¤Łà¤¨
à¤Ĺ à¤ľà¤¸
à¤Ł à¤Ĺ
à¤Ł à¤Ł
à¤ı à¤¦
Ġà¤Ń à¤·
Ġà¤Ń à¤ŀ
Ġà¤Ń à¤Łà¤®
Ġà¤¹ à¤Ĺ
Ġà¤¹ à¤Ļ
Ġà¤® à¤ª
Ġà¤® à¤¥
à¤ľ à¤µà¤²
Ġà¤µ à¤°à¤£
à¤¬ à¤¬à¤Ī
à¤· à¤°à¤¶
Ġà¤Ľ à¤®
Ġà¤¤ à¤²à¤¸à¤®
Ġà¤¤ à¤µà¤°à¤®
à¤ģ Ã·
à¤¥ à¤Ńà¤¨
à¤¥ à¤¸à¤ļ
à¤¶ à¤¯à¤ķ
à¤¶ à¤µà¤ķ
Ġà¤Ĩ à¤Ļà¤¬
Ġà¤Ĩ à¤ıà¤²à¤Ĺà¤¤
Ġà¤ľ à¤¯à¤ķ
à¤£ à¤§
Ġà¤² à¤µ
Ġà¤² à¤¯à¤®
Ġà¤² à¤Ļ
à¤ļ à¤Ńà¤¨
à¤Ī à¤¨à¤²
à¤Ī à¤ľà¤ķ
à¤Ī à¤²à¤Ĺ
à¤Ī à¤¥à¤°
Ġà¤ī à¤¥à¤ª
à¤¡ à¤Ł
à¤¡ à¤ªà¤¤
à¤Ń à¤°à¤¸
à¤Ń à¤ıà¤Ľ
à¤ī à¤¡à¤¸
à¤ĸ à¤°à¤ķ
à¤ĸ à¤ªà¤¢
âĢ į
Ġà¤¸à¤® à¤µ
à¤ĩ à¤ľà¤®
à¤ĩ à¤¤à¤¬
à¤ĩ à¤¬à¤°à¤ķ
à¤ĩ à¤Ńà¤²
à¤°à¤® à¤µ
à¤°à¤® à¤ªà¤Ľ
à¥Į âĢĻ,
Ġà¤ı à¤²à¤ª
Ġà¤ı à¤ıà¤¨à¤ı
Ġà¤ĸ à¤°à¤¬
Ġà¤ĸ à¤Łà¤¨
Ġà¤ħà¤¨ à¤µ
Ġà¤ªà¤° à¤¦
à¤¸à¤ķ à¤¬
Ġà¤« à¤£
Ġà¤« à¤²à¤ķ
à¤°à¤£ à¤¸
à¤ªà¤° à¤µ
à¤ľà¤¨ à¤°
à¤ľà¤¨ à¤¨
à¤¨à¤® à¤¸
âĢĻ à¥¤
à¤ĺ à¤·
à¤ĺ à¤Ń
à¤ĺ à¤°à¤¬
à¤ĺ à¤²à¤Ĺ
à¤ĺ à¤Łà¤¨à¤ķ
Ġà¤¸à¤ķ à¤¸
à¤¯à¤® à¤¤
Ġà¤¯à¤¸ à¤ĸ
Ġà¤¯à¤¸ à¤Ńà¤¨
Ġà¤®à¤¹ à¤²à¤®
Ġà¤ıà¤ķ à¤²à¤®
Ġà¤ıà¤ķ à¤µà¤°
Ġà¤ıà¤ķ à¤®à¤¤
Ġà¤ıà¤ķ à¤ªà¤Łà¤ķà¤®
Ġà¤Ł à¤ķà¤°
Ġà¤§ à¤¸
Ġà¤§ à¤¨à¤®
Ġà¤§ à¤°à¤²
à¤Ļ à¤¨
à¤Ļ à¤ļ
à¤Ļ à¤ľà¤¸
à¤Ļ à¤¬à¤ľ
à¤¯à¤¤ à¤¹
Ġà¤¸à¤¹ à¤ħà¤§
à¤¤à¤° à¤¨
Ġà¤µà¤° à¤¦
Ġà¤īà¤ª à¤¶
à¤ĩà¤¨ à¤ª
à¤ĩà¤¨ à¤¹à¤°
à¥Įà¤Ĥ à¤ģà¥¤
à¤ħ à¤µà¤°
à¤ªà¤® à¤¤à¤ķ
à¤ªà¤® à¤¤à¤®
Ġà¤²à¤Ĺ à¤¨à¤ĸ
à¤¯à¤¨ à¤°à¤¤
Ġà¤Ńà¤ı à¤Ńà¤°à¤ķ
à¤¶à¤ķ à¤¸
à¤¶à¤ķ à¤¬
à¤¸à¤² à¤°
à¤Ĺà¤¤ à¤¤à¤°
à¤µà¤¨ à¤°
à¤·à¤£ à¤¯
à¤·à¤£ à¤ªà¤¤
à¤²à¤¬ à¤°
à¤²à¤¬ à¤¸à¤¹
à¤¸à¤¨ à¤¦
à¤¤à¤¨ à¤¹à¤°
à¥§ à¥¦à¥¦
à¤Ĩ à¤ª
à¤Ĩ à¤ł
à¤Ĩ à¤°à¤¸
Ġà¤Ĩà¤° à¤ª
à¤Łà¤¨ à¤ľ
à¤Łà¤¨ à¤°à¤ķ
à¤²à¤¨ à¤µ
à¥« à¥ª
à¥« à¥¦à¥¦
à¤®à¤¤ à¤¦
à¤®à¤¤ à¤¬
à¤Łà¤° à¤Ń
à¤ªà¤ķ à¤¤
Ġà¤Ĩà¤µ à¤¤
à¤®à¤¨ à¤Ĺà¤°
Ġà¤ĵ à¤ĸà¤¤
à¤«à¤² à¤¤
Ġà¤¨à¤Ĺà¤° à¤¬
Ġà¤¸à¤¯ à¤ľà¤¨
à¥¬ à¥«
à¥ª à¥Ń
à¤ıà¤¨ à¤Ł
Ġà¤¢ à¤²à¤ķ
à¤§à¤¨ à¤¸à¤®
à¥© à¥Ń
à¥© à¥ª
à¥© à¥®
à¤Ĺà¤² à¤¸
Ġà¤ªà¤¦ à¤²
Ġà¤ªà¤¦ à¤µ
Ġà¤ªà¤¦ à¤ķà¤®
Ġà¤ªà¤¦ à¤ķà¤ķ
Ġà¤Ĩà¤ĩ à¤¦
Ġà¤Ĩà¤ĩ à¤ĵà¤ıà¤¸
Ġà¤¤à¤¹ à¤¦
à¤ĵ à¤Ł
à¤ĵ à¤Ńà¤°
à¤¬à¤° à¤¸à¤®
Ġà¤ıà¤® à¤ª
Ġà¤ıà¤® à¤Ń
Ġà¤ıà¤® à¤Ĩà¤ĩà¤Ł
Ġà¤¦à¤² à¤¸à¤®
à¤¹à¤¨ à¤Ĺà¤°
Ġà¤ĺà¤° à¤¸à¤®
Ġà¤ĺà¤° à¤ĸà¤°
à¤·à¤¯ à¤¬à¤¸
à¤ķà¤¨ à¤¹à¤°
Ġà¥§à¥¦ à¥Ń
Ġà¥§à¥¦ à¥¨
Ġà¤ıà¤¨ à¤Ĩ
à¤²à¤¤ à¤¸à¤®
à¤£à¤¯ à¤ħà¤¨
à¤¨à¤µ à¤ľ
à¤¨à¤µ à¤ħ
à¥Īà¤ģ ,
Ġà¤Ĺà¤ł à¤ľ
Ġà¤Ĺà¤ł à¤¨à¤¸
à¤µà¤°à¤£ à¤®à¤¨
à¤ľà¤® à¤£
à¥įâĢ Ŀ
Ġà¤ıà¤¸ à¤¯
à¤ıà¤¸ à¤ıà¤ķ
Ġà¤ľà¤Ĺ à¤¤à¤ķ
Ġà¤Ĩà¤ľ à¤¦
Ġà¤§à¤° à¤ªà¤ķ
à¤µà¤¤ à¤¬
à¤°à¤ª à¤ŀ
Ġà¥§à¥¨ à¥©
à¤¥à¤² à¤¸à¤®
à¤ıà¤® à¤ĵ
Ġà¤¬à¤ļ à¤¤à¤®
Ġà¤¸à¤¹à¤° à¤¸
Ġà¥§à¥§ à¥§
à¤ľà¤¦ à¤°à¤ķ
à¤ªà¤£ à¤ªà¤Ľ
à¤ķà¤Ł à¤¸
à¤®à¤¦ à¤¤
à¤®à¤Ĺ à¤¨
Ġà¥§à¥® à¥¨
Ġà¤ľà¤¨à¤ķ à¤²
à¤¨à¤Ĺà¤° à¤¸
Ġà¥§à¥© à¥¦
Ġà¥§à¥© à¥©
Ġà¤¨à¤µ à¤Ĺà¤ł
Ġà¤Ĩà¤² à¤Ł
Ġà¤ľà¤¨à¤¸ à¤Ļ
Ġà¤ĭ à¤·à¤Ń
à¤Ĺà¤®à¤¨ à¤ªà¤Ľ
Ġà¤¦à¤¶ à¤µà¤°
à¥ĩà¤ģ âĢĵ
Ġà¤¦à¤¶à¤ķ à¤ħà¤Ĺ
à¤®à¤£ à¤²
Ġà¤¡à¤²à¤° à¤¸à¤®
à¤ıà¤« à¤ıà¤ķ
Ġà¤Ĩà¤Ī à¤¡à¤²à¤ķ
Ġà¤Ľà¤²à¤« à¤²à¤¬
ĠĠĠĠĠĠĠĠ Ġ
Ġà¤ľà¤¨à¤¸à¤® à¤°
à¤¾à¥Īà¤Ĥ -
Ġà¥§à¥¯à¥¯ à¥©
Ġà¤®à¤¦à¤¨ à¤¸
Ġ, âĢĺ
à¤īà¤ª à¤Ĺ
à¤īà¤ª à¤Ń
Ġà¤ªà¤¸à¤² à¤²
Ġà¤ªà¤¸à¤² à¤¹à¤°
Ġà¤Ĺà¤ľ à¤²à¤ķ
Ġà¤ļà¤°à¤£ à¤¬
Ġà¥¨à¥¦à¥¨ à¥©
à¤Ńà¤ªà¤¤ à¤¨à¤ķ
à¤¾à¥Ī âĢĮ
à¤®à¤ľ à¤¯à¤¨
Ġà¥§à¥¯à¥ª à¥Ń
Ġà¤ıà¤¯ à¤°à¤µ
Ġà¤ıà¤¯à¤°à¤¬ à¤¸à¤ķ
Ġà¤Ŀà¤¡ à¤ªà¤®
à¤ķà¤ħ à¤ªà¤®
à¤¨à¤ı à¤ľà¤°
Ġà¤Ĩà¤ĩà¤ıà¤®à¤ĩ à¤Ĩà¤Ī
) :
i l
i s
o m
Ġ 1
Ġ 4
à¤ ĭ
à¤¾ à¥ĭ
à¥į '
à¤° à¤¡à¤®
à¤¨ à¤°à¤¤
à¤¨ à¤¸à¤²
à¤¨ à¤°à¤¬
à¤¨ à¤¶à¤¨
à¤¨ à¤¯à¤¬
à¤¿ '
à¤¿ ,âĢĻ
à¤¿ Â¥
à¤ķ à¤Ļ
à¤ķ à¤°à¤¦
à¥ĩ '
à¥ĩ âĢĶ
à¥ĭ âĢĿ
à¤² à¤Ī
à¤² à¤¸à¤²
à¤® à¤°à¤²
à¤® à¤¸à¤²
à¤® à¤¸à¤¨
à¤¤ à¤£
à¤¤ à¤¤à¤°
à¤¤ à¤Ĺà¤¢
à¥ģ :
à¤¸ à¤°à¤¹à¤°
à¤ª à¤²à¤®
à¤ª à¤ķà¤®
à¤¦ à¤¹
à¤¦ à¤ĸ
à¤¦ à¤°à¤¬
à¤¹ à¤¨à¤®
à¤µ à¤¯à¤²
à¤µ à¤ħà¤°
Ġà¤ķ à¤¹à¤°
Ġà¤Ĺ à¤ıà¤¨
Ġà¤° à¤Ł
Ġà¤¨ à¤¯à¤¨
Ġà¤¨ à¤¤à¤®à¤¸
à¤Ł à¤¸à¤ķ
à¤Ł à¤¤à¤¨
à¤ı à¤µ
à¤ı à¤ıà¤¸
Ġà¤Ń à¤Ļ
Ġà¤Ń à¤°à¤¤à¤®
Ġà¤Ń à¤°à¤£à¤ª
Ġà¤ħ à¤¸à¤ķ
Ġà¤¬ à¤°à¤¬
Ġà¤¬ à¤ļà¤¨
Ġà¤¬ à¤¬à¤°à¤®
Ġà¤¹ à¤°à¤ķ
Ġà¤¹ à¤¸à¤¨
Ġà¤¹ à¤¦à¤ķ
Ġà¤® à¤ĸ
Ġà¤® à¤²à¤²
Ġà¤® à¤¤à¤®
à¤ľ à¤Ļ
à¤ľ à¤®à¤ķ
à¤ľ à¤²à¤Ĺ
Ġà¤µ à¤®
Ġà¤µ à¤¶
à¤· à¤°à¤¸
à¤· à¤ľà¤¸
à¤· à¤§à¤ķ
à¤§ à¤µà¤²
à¤§ à¤§à¤°
à¤§ à¤°à¤£à¤ķ
Ġà¤¤ à¤Ĺ
Ġà¤¤ à¤£
Ġà¤¤ à¤²à¤¤
à¤ģ à¥į
Ġà¤¦ à¤®à¤¦
Ġà¤¦ à¤ĸà¤²
à¤¶ à¤¹
Ġà¤Ĩ à¤²à¤®
Ġà¤Ĩ à¤¶à¤ķ
Ġà¤Ĩ à¤łà¤®
Ġà¤Ĩ à¤Ĺà¤®à¤¨à¤²
Ġà¤ľ à¤ķ
Ġà¤ľ à¤«à¤¤
à¤Ľ à¤²
à¤ļ à¤²à¤®
à¤ļ à¤°à¤¹à¤°
à¤ļ à¤²à¤¸
Ġà¤ī à¤¸à¤¬
à¤¡ à¤Ĺ
à¤¡ à¤µà¤ķ
à¤¡ à¤°à¤¹à¤°
à¤Ń à¤ıà¤ªà¤Ľ
à¤ī à¤ªà¤ķ
à¤ĸ à¤¸à¤¹
à¤ĩ à¤£
à¤ĩ à¤ªà¤Ľ
à¤ĩ à¤²à¤Ĺ
à¤ĩ à¤Ļà¤²
à¤ĩ à¤®à¤°
à¤°à¤ķ à¤°à¤£à¤¬
à¤« à¤Ł
à¤« à¤¹à¤°
à¥Į à¥Īà¤Ĥ
Ġà¤ı à¤Łà¤®
Ġà¤ĸ à¤²à¤²
à¤¨à¤ķ à¤¹à¤°
Ġà¤¶ à¤¸
Ġà¤ħà¤¨ à¤¸
Ġà¤ħà¤¨ à¤¶à¤¨à¤ķ
Ġà¤ħà¤¨ à¤µà¤°à¤¤
Ġà¤ªà¤° à¤¶
à¤ł à¤ª
à¤ł à¤¦
Ġà¤« à¤·
à¤°à¤£ à¤Ńà¤¨
à¤ľà¤¨ à¤¸à¤¹
à¤¸à¤® à¤µ
à¤¸à¤® à¤§
à¤µà¤¸ à¤¤
à¥¦ à¥§
à¤ĺ à¤ħà¤¨
à¤¢ à¤ķ
Ġà¤°à¤¹ à¤²
Ġà¤¯à¤¸ à¤ħà¤°
Ġà¤®à¤¹ à¤®à¤¦
Ġà¤ıà¤ķ à¤®à¤¨
Ġà¤Ł à¤²
Ġà¤Ł à¤¨à¤®
Ġà¤§ à¤ª
Ġà¤§ à¤µà¤¨à¤²
Ġà¤§ à¤¨à¤¬à¤¹
à¤Ļ à¤ªà¤Ľ
Ġà¤ĺ à¤®
Ġà¤ĺ à¤°à¤µ
Ġà¤ĺ à¤®à¤£
Ġà¤ĺ à¤°à¤¸à¤¹
à¤ªà¤¨ à¤¸
à¤¯à¤¤ à¤ª
à¤²à¤® à¤§
Ġà¤¸à¤¹ à¤ħà¤Ń
à¤¤à¤° à¤Ĺà¤¤
Ġà¤¤à¤° à¤ªà¤¨
Ġà¤¡ à¤°à¤ķ
à¤Ŀ à¤Łà¤®
Ġà¤ħà¤° à¤¬à¤®
à¤°à¤¸ à¤¬
à¤°à¤¸ à¤°à¤²
à¤ĩà¤¨ à¤Ń
à¥ģà¤ģ à¥¤âĢĻ
Ġà¤ķà¤® à¤¨
à¤ħ à¤°à¤²
à¤ħ à¤¸à¤²
à¤ħ à¤²à¤°
à¤ķà¤® à¤£
Ġà¤ķà¤° à¤¨
Ġà¤ĩ à¤Ńà¤¨
à¤¯à¤¨ à¤¤à¤°
à¤¾à¤Ĥ à¥Ī,
Ġà¤¸à¤¬ à¤ķ
à¤°à¤µ à¤¤
à¤°à¤µ à¤ª
à¤¯à¤² à¤¯à¤ķ
Ġà¤ħà¤¸ à¤¤
à¤¸à¤² à¤²
à¤µà¤¨ à¤°à¤ķ
à¤µà¤¨ à¤ļà¤ķ
Ġà¤ħà¤Ń à¤¯
à¤¸à¤¨ à¤ľ
à¤Ĩ à¤²
à¤Ĩ à¤ĩà¤Ń
Ġà¤Ĩà¤° à¤¬
Ġà¤Ĩà¤° à¤Ĩà¤°
Ġà¤Ĩà¤° à¤ıà¤¸à¤ķ
à¤Łà¤¨ à¤°à¤²
à¥« à¥¯
à¤¸à¤° à¤Ń
à¥Įà¤ģ âĢĻ,
Ġà¤Ŀ à¤²à¤ķ
à¥Īà¤Ĥ ,
à¤·à¤ķ à¤¬
à¥į, âĢĿ
à¥¬ à¥§
à¥¬ à¥¯
à¤®à¤® à¤§
à¥ª à¥§
à¥ª à¥¯
Ġà¤¢ à¤¡
à¤ķà¤°à¤£ à¤¤à¤°
à¤ľà¤¸ à¤ľ
Ġà¤ħà¤¬ à¤°
Ġà¤ħà¤¬ à¤ļ
Ġà¤ħà¤¬ à¤²à¤®
Ġà¤Ĩà¤ĩ à¤®
Ġà¤Ĩà¤ĩ à¤°à¤¨
Ġà¤Ĩà¤ĩ à¤ıà¤²
Ġà¤¤à¤¹ à¤Ĺà¤¤
Ġà¤¤à¤¹ à¤®à¤§
à¤ĵ à¤ªà¤¨
Ġà¤¦à¤² à¤ª
Ġà¤¦à¤² à¤¦à¤²à¤®
Ġà¤ħà¤ª à¤ľà¤¸
Ġà¤¬à¤¹ à¤¸à¤²
à¤·à¤¯ à¤ª
Ġà¤¬à¤² à¤°à¤ķ
Ġà¤īà¤ł à¤¨
Ġà¥§à¥¦ à¥§
Ġà¤ıà¤¨ à¤ıà¤®à¤¬
Ġà¤ıà¤¨ à¤Ĩà¤ĩà¤¡
Ġà¤ıà¤¨ à¤ıà¤«à¤¡
à¤Ńà¤µ à¤¹à¤°
Ġà¤Ĳ à¤¸
Ġà¤ħà¤« à¤µ
à¤ĩà¤² à¤Łà¤²
à¤¤à¤°à¤£ à¤²
Ġà¤ıà¤¸ à¤ıà¤¸à¤ķ
à¤Ĩà¤° à¤ª
à¤Ĩà¤° à¤ıà¤¸
Ġà¤Ĩà¤ī à¤¦
Ġà¤Ĩà¤¦ à¤°à¤£
Ġà¤Ĩà¤¶ à¤¯à¤ªà¤¤
à¤ªà¤Łà¤ķ à¤ķ
à¤µà¤¤ à¤¨à¤ķ
Ġà¥§à¥¯ à¥Ńà¥«
Ġà¤Ľà¤²à¤«à¤² à¤¸à¤®
à¤Ĺà¤ł à¤¨à¤¬
à¤°à¤ļ à¤¨à¤²
Ġà¤ªà¤¢ à¤¨
Ġà¤ĺà¤Ł à¤¬à¤¢
à¤¥à¤² à¤¤à¤°
à¤¨à¤ª à¤¹
à¤ĩà¤° à¤²à¤ķ
à¤ªà¤£ à¤®
à¤·à¤§ à¤°à¤²
Ġà¤Ĳà¤¨ à¤¹à¤°
à¤¯à¤Łà¤¨ à¤¬
à¤ıà¤² à¤ı
Ġà¥§à¥¬ à¥®
Ġà¥§à¥¬ à¥¯
à¤¨à¤Ĺà¤° à¤Ń
Ġà¥§à¥ª à¥¨
à¤Ĺà¤¬ à¤ľ
Ġà¥§à¥Ń à¥¦
Ġà¥§à¥Ń à¥ª
à¥ĩà¤ģ ,âĢĻ
à¥Įà¤ģà¥¤ âĢĿ
Ġà¥¦ à¥¬à¥©
Ġà¤ĺà¤¨ à¤«
Ġà¤ĸà¤¸ à¤Ĩà¤°
à¥¨à¥¦ à¥Ńà¥«
à¤Ĩà¤« à¤¨
Ġà¤Ĩà¤ı à¤Ľ
à¤ĸà¤¨ à¤¨à¤®
Ġà¥¨à¥¦à¥ª à¥¨
Ġà¤¸à¤°à¤¸ à¤°
à¤¶à¤¨à¤² à¤²
Ġà¤ħà¤¸à¤¹ à¤ľà¤¤
Ġà¤Ĺà¤ı à¤ªà¤¨
Ġà¤¸à¤®à¤¯à¤¸à¤® à¤¯à¤®
à¤¾à¥Īà¤Ĥ ,
à¤ĩà¤« à¤¸à¤ķ
à¤Ĩà¤Ī à¤ľ
Ġà¥§à¥¯à¥¯ à¥¯
Ġà¤ıà¤« à¤ı
Ġà¤ıà¤¡ à¤Ń
Ġà¤¨à¤ļ à¤¢
Ġà¤®à¤¹ÅĴ à¤µà¤ķ
Ġà¥¨à¥¦à¥© à¥ª
Ġà¥¨à¥¦à¥© à¥®
Ġà¤ıà¤¨à¤Ĩà¤°à¤ı à¤¨à¤®
Ġà¥§à¥¯à¥« à¥§
Ġà¥§à¥¯à¥« à¥Ń
à¤¥à¤ª à¤°à¤ķ
à¤ıà¤ļ à¤ĵ
Ġà¥§à¥¯à¥® à¥§
Ġà¥§à¥¯à¥® à¥ª
Ġà¥§à¥¯à¥® à¥¯
Ġà¤ĸà¤¬ à¤°à¤¹à¤°
Ġà¥§à¥¯à¥¬ à¥¬
Ġà¥¦à¥¬ à¥ª
Ġà¥¦à¥¬ à¥¯
Ġà¤ıà¤ļ à¤¡
Ġà¤Ĩà¤Ĺà¤®à¤¨ à¤ªà¤Ľ
Ġà¤µà¤ļà¤¨ à¤¬à¤¦
Ġà¥§à¥¯à¥Ń à¥¯
à¥Įà¤ģà¤Ĥ à¥¤
Ġà¤ıà¤¯à¤°à¤¬ à¤¸
Ġà¥¦à¥ª à¥®
à¤¬à¤§ à¤¶
at ion
Ġà¤ıà¤ıà¤¨ à¤Ĩà¤Īà¤²
I n
m à¤®
m à¤¹à¤°
Ġ @
à¤¾ :
à¤¾ à¥ģ
à¤¾ âĢĿ
à¥į à¤¿
à¤° à¤Ł
à¤° à¤¨à¤²
à¤° à¤ħà¤ĺ
à¤¨ à¤¯à¤¸
à¤¨ à¤Ŀ
à¤¨ à¤µà¤ķ
à¤¨ à¤µà¤²
à¤¿ -
à¤¿ à¥Ģ
à¤¿ âĢĻ,
à¤ķ à¤·
à¤ķ à¤§
à¤ķ à¤¡à¤®
à¤ķ à¤°à¤µà¤°
à¥ĩ ),
à¤² à¤īà¤ªà¤°
à¤® à¤°à¤ķ
à¤® à¤°à¤¤
à¤® à¤ľà¤¸
à¤® à¤ªà¤¦
à¤¤ à¤Ľ
à¤¤ à¤ªà¤°
à¤¤ à¤µà¤²
à¤¯ à¤¦à¤ķ
à¥ģ /
à¤¸ à¤§
à¤¸ à¤ĺ
à¤¸ à¤¤à¤ķ
à¤¸ à¤¤à¤¬
à¤¸ à¤ħà¤°
Ġà¤¸ à¤¯à¤®à¤®
à¤ª à¤Ń
à¤ª à¤¯à¤®
à¤ª à¤¸à¤¹
à¤ª à¤Łà¤¬
à¤ª à¤¸à¤¹à¤°
à¤¦ à¤µà¤¸
à¤¦ à¤ªà¤Ľ
à¤¦ à¤¤à¤°
à¤¦ à¤¯à¤²
à¤¦ à¤²à¤Ĺ
à¤¹ à¤¸à¤ķ
à¤µ à¤Ī
à¤µ à¤¦à¤¨
à¤µ à¤µà¤¤
à¤µ à¤§à¤°
à¥¤ âĢĵ
Ġà¤ķ à¤°à¤²
Ġà¤Ĺ à¤ľà¤®
Ġà¤Ĺ à¤ıà¤¨à¤¨
Ġà¤Ĺ à¤«à¤®
Ġà¤Ĺ à¤Ľà¤°
à¥Ī ?
Ġà¤° à¤¥à¤²
Ġà¤° à¤¥à¤ķ
Ġà¤¨ à¤ħ
Ġà¤¨ à¤Ĺà¤£
à¤Ł à¤°à¤¦
à¤Ł à¤ªà¤Łà¤ķ
à¤ı à¤ĩà¤®
Ġà¤ħ à¤«à¤²
Ġà¤ħ à¤ľà¤®
Ġà¤¬ à¤Łà¤²à¤°à¤²
Ġà¤¹ à¤²à¤¬
Ġà¤¹ à¤¬à¤²
Ġà¤® à¤°à¤£
Ġà¤® à¤ľà¤µ
à¤ľ à¤ªà¤Ľ
à¤ľ à¤°à¤¸
à¤ľ à¤²à¤²
à¤ľ à¤Ńà¤¨
à¤ľ à¤®à¤²
Ġà¤µ à¤§
à¤¬ à¤Ĺà¤°
à¤· à¤Ĺ
à¤· à¤°à¤²
à¤§ à¤ľà¤¨
à¤§ à¤°à¤£à¤²
à¤§ à¤Ĺà¤¯
Ġà¤Ľ à¤¹
Ġà¤Ľ à¤°à¤ªà¤¸
Ġà¤¦ à¤²à¤¬à¤¹
à¤¥ à¤¸à¤®
à¤¥ à¤®à¤²
à¤¥ à¤²à¤Ĺ
Ġà¤Ĩ à¤£
Ġà¤Ĩ à¤¡
Ġà¤ľ à¤²à¤ª
à¤£ à¤¯à¤ķà¤°
à¤£ à¤ªà¤¶
à¤ļ à¤ķà¤¨
à¤ļ à¤ĺà¤°à¤®
à¤Ī à¤¯
à¤Ī à¤¤à¤°
à¤Ī à¤Ńà¤¨
à¤Ī à¤®à¤¤
à¤Ī à¤¸à¤¹
à¤Ī à¤ľà¤¹
à¤¡ à¤ľà¤¸
à¤¡ à¤¸à¤¹
à¤Ń à¤ª
à¤Ń à¤¹
à¤Ń à¤ľ
à¤ī à¤ľà¤²
à¤ĸ à¤°à¤²
à¤ĩ à¤ªà¤®
à¤ĩ à¤ķà¤ķ
à¤ĩ à¤Ńà¤ķ
à¤ĩ à¤Ĺà¤°à¤²
à¤« à¤¯
à¤« à¤µ
Ġà¤¥ à¤°à¤ķ
Ġà¤¥ à¤ªà¤ķ
à¤īà¤¨ à¤¦
à¥Į à¥Ī
à¥Į à¥Īà¤ģ
Ġà¤ı à¤¤
Ġà¤ı à¤®à¤ķ
Ġà¤ı à¤²à¤¬
Ġà¤ı à¤Łà¤²
à¤¯à¤ķ à¤Ĺ
Ġà¤¶ à¤¤à¤ķ
Ġà¤ªà¤° à¤µ
à¤ł à¤¨à¤²
à¤ł à¤¨à¤®
à¤ł à¤¤à¤®
à¤ł à¤²à¤Ĺ
à¤ł à¤¸à¤¹
Ġà¤« à¤¨à¤ª
à¤ľà¤¨ à¤¹à¤°
à¤ľà¤¨ à¤¸à¤®
à¥įà¥¤ âĢĺ
à¥¦ à¥Ńà¥ª
à¥¦ à¥Ńà¥«
à¤ĺ à¤¤
à¤ĺ à¤¸à¤®
Ġà¤ľà¤¨ à¤Ń
Ġà¤ľà¤¨ à¤ªà¤ķ
à¤¯à¤® à¤¨à¤®
à¤°à¤¹ à¤¸à¤®
Ġà¤®à¤¹ à¤ľ
Ġà¤®à¤¹ à¤²à¤ķ
Ġà¤ıà¤ķ à¤¬
à¤¯à¤¸ à¤¸à¤®
à¤¯à¤¸ à¤¨à¤²
à¤Ļ à¤¤
à¤Ļ à¤ĺ
Ġà¤ĺ à¤Łà¤ķà¤ķ
à¤¯à¤¤ à¤¹à¤ķ
à¤¯à¤¤ à¤µà¤¶
à¤²à¤® à¤£
à¤¤à¤° à¤ľ
à¤¤à¤° à¤ªà¤Ľ
à¤¤à¤° à¤ħà¤ĺ
Ġà¤¡ à¤¸
à¤Ŀ à¤°
à¤Ŀ à¤Ĺà¤¡
Ġà¤īà¤ª à¤ľà¤ķ
Ġà¤īà¤ª à¤ķà¤°à¤£à¤®
à¤°à¤¦ à¤®
à¤°à¤¦ à¤¹
à¤ĩà¤¨ à¤«
Ġà¤ķà¤® à¤ķ
Ġà¤ķà¤® à¤Ł
à¤ħ à¤°à¤ķ
à¤ħ à¤°à¤¬
à¤ķà¤® à¤®
Ġà¤ĩ à¤¦
Ġà¤ĩ à¤²à¤®
à¥ĩ, '
à¥ĩ, âĢľ
Ġà¤¸à¤¬ à¤¸
à¤°à¤µ à¤¶
à¤°à¤µ à¤®à¤¯
à¤Łà¤ķ à¤¸
à¤Łà¤ķ à¤¹à¤°
à¤·à¤£ à¤ħà¤¨
à¤²à¤¬ à¤¹à¤°
à¤¸à¤¨ à¤°
à¤¸à¤¨ à¤¹à¤°
à¤¸à¤¨ à¤ªà¤Ľ
à¤Ńà¤¨ à¤°
à¤Ĩ à¤°à¤®
à¤Ĩ à¤¨à¤¨
à¤Ĩ à¤ĩà¤µ
Ġà¤Ĩà¤° à¤¨à¤²
Ġà¤Ĩà¤° à¤ıà¤¸
à¤ļà¤¨ à¤¤
à¤µà¤ķ à¤ªà¤ķ
à¤Łà¤¨ à¤¸
à¤ķà¤° à¤ª
à¤ķà¤° à¤¶
Ġ? ,
à¤¤à¤® à¤¨
à¥Ń à¥Ń
Ġà¤ĵ à¤ĩà¤°
Ġà¤ĵ à¤®à¤¬à¤¹
Ġà¤ĵ à¤¨à¤¸à¤°
Ġà¤ħà¤® à¤°à¤¸
Ġà¤ħà¤® à¤°à¤¬à¤¹
à¤¦à¤¨ à¤ªà¤Ľ
à¥¬ à¥Ń
à¥¬ à¥¬
à¤¸à¤¦ à¤µ
à¤ķà¤°à¤£ à¤µ
à¤²à¤¯ à¤ľà¤¸
à¤ľà¤ķ à¤¸
Ġà¤ļà¤² à¤¨à¤ķ
à¥© à¥©à¥¦
à¤ľà¤¸ à¤¹
Ġà¤ªà¤¦ à¤§
Ġà¤ħà¤¬ à¤¸
à¤Łà¤® à¤¬
Ġà¤ķà¤² à¤¸
Ġà¤ķà¤² à¤¹à¤ķ
à¤¶à¤¨ à¤ªà¤¶
Ġà¤ĩà¤¨ à¤¬
à¤ĵ à¤Ń
Ġà¤ıà¤® à¤¡
Ġà¤ıà¤® à¤ĵ
Ġà¤ıà¤® à¤¡à¤¬
à¤Ĺà¤® à¤§
à¤Ĺà¤® à¤¨à¤ķà¤°
à¥® à¥«
à¥¯ à¥§
à¥¯ à¥ª
à¤ķà¤¨ à¤¸à¤®
Ġà¤ħà¤¦ à¤®
à¤°à¤¨ à¤Ĺà¤°à¤®
à¤²à¤¤ à¤Ń
à¤²à¤¤ à¤ªà¤¤
à¤£à¤¯ à¤¸à¤®
à¤£à¤¯ à¤ªà¤Ľ
Ġà¤Ńà¤° à¤¥
Ġà¤ħà¤² à¤Ĩà¤īà¤Ł
à¤¦à¤ķ à¤¸
Ġà¤ıà¤¸ à¤ıà¤®
Ġà¤®à¤¤ à¤ª
Ġà¤¸à¤¡à¤ķ à¤¸à¤®
à¤ľà¤² à¤¸
Ġà¤Ĩà¤¶ à¤¯à¤ķ
à¤ıà¤¸ à¤ıà¤¸à¤ª
Ġà¤¨à¤° à¤Ĺ
à¤ķà¤¸ à¤ª
à¤µà¤¯à¤¨ à¤¤à¤°
Ġà¤«à¤°à¤ķ à¤®
Ġà¤¬à¤ļ à¤¤à¤ķ
Ġà¤¹à¤¤ à¤ªà¤¤
Ġà¤Ĺà¤£ à¤ªà¤¤
à¤ľà¤¯ à¤ªà¤Ľ
à¤¯à¤¯ à¤°à¤¤
Ġà¤ıà¤¨à¤Ĩà¤°à¤ıà¤¨ à¤ıà¤®
Ġà¥§à¥¬ à¥©
Ġà¥§à¥ª à¥©
Ġà¥§à¥ª à¥®
ĠĠĠĠ ĠĠĊ
à¤¤à¤°à¤ķ à¤ķ
à¤ĩà¤ľ à¤¹
à¤ĩà¤ľ à¤°à¤ķ
Ġà¥§à¥© à¥«
Ġà¥§à¥© à¥¨
Ġà¤¹à¤² à¤ļà¤²
à¤Ķ à¤¦
Ġà¤¦à¤¶à¤ķ à¤Ń
à¥ĭ? âĢĻ
Ġà¤Ńà¤µà¤¨ à¤¸
à¤®à¤£ à¤ª
Ġà¤µà¤¨ à¤ľ
Ġà¥¦ à¥«à¥¬
Ġà¤¨à¤¬ à¤¤
à¥¨à¥¦ à¥§à¥¯
Ġà¥¨à¥® à¥®
à¤ªà¤Ł à¤²à¤®
Ġà¤ĭà¤£ à¤¬
Ġà¤Ī à¤ķ
Ġà¤¦à¤® à¤ķà¤²
à¤ıà¤« à¤ľ
à¤°à¤¥ à¤®à¤¤
à¤µà¤¬ à¤ľ
Ġà¤ľà¤¨à¤® à¤¤à¤²
à¤ĩà¤ķà¤² à¤²
à¤Ĩà¤Ī à¤¸
à¤¨à¤¹ à¤ľ
Ġà¥§à¥¯à¥¯ à¥§
Ġà¤ıà¤« à¤¡
Ġà¤ıà¤« à¤Ĩà¤Ī
à¥įâĢĵ âĢĺ
Ġà¤¡à¤² à¤°à¤²
à¤®à¤¶ à¤°à¤£à¤²
Ġà¤Ĺà¤ľ à¤¬à¤ķ
Ġà¤¡à¤Ł à¤ķà¤®à¤ķ
Ġà¤¸à¤Ł à¤¹
à¤ıà¤ļ à¤ª
à¤¸à¤°à¤® à¤§
à¤Ĩà¤ĩ à¤ıà¤¨
à¤Ĺà¤Ń à¤Ļ
Ġà¤²à¤¹ à¤¡
Ġà¤²à¤¹ à¤°à¤ķ
à¤²à¤ļ à¤²à¤¨
Ġà¤¦à¤®à¤ķ à¤ķ
Ġà¥§à¥¯à¥¬ à¥«
Ġà¤¯à¤® à¤¨à¤ķ
à¤Ĺà¤ļ à¤²à¤¨
Ġà¤ľà¤¯ à¤¬à¤¹
à¤¾à¥Īà¤ģ ,
Ġà¤°à¤¹à¤° à¤²
Ġà¥§à¥¯à¥Ń à¥®
à¤Ĳ à¤¨
à¥įâĢº à¥Ģ
à¤¤à¤ľà¤¨ à¤¹à¤°
à¤ħà¤µ à¤¤à¤°à¤£
Ġà¤¶à¤°à¤¦ à¤¸
Ġà¤®à¤°à¤¹ à¤Ł
Ġà¤ıà¤ķà¤Ľ à¤¤
à¤°à¤Ĩ à¤ĸ
Ġà¤Ŀà¤ķ à¤Ŀà¤ķ
à¤°à¤®à¤Ń à¤Ļ
Ġà¤§à¤°à¤ªà¤ķ à¤¡
! âĢĻ
) -
0 0
c om
o f
r e
w w
Â ¬
Ġ a
Ġ t
Ġ ..
Ġ of
Ģ Ń
à¥ ī
à¤° à¤¯à¤®
à¤° à¤Ŀ
à¤° à¤¶à¤ķ
à¤° à¤ľà¤ķ
à¤¨ à¤¥à¤²
à¤¿ (
à¤¿ à¤¿
à¤¿ à¥ĥ
à¤¿ ...
à¤ķ à¤ĸ
à¤ķ à¤ľà¤¨
à¤ķ à¤ŀ
à¤ķ à¤·à¤£
à¥ĩ !
à¥ĩ ...
à¥ĭ ),
à¤² à¤ľà¤¨
à¤² à¤¢
à¤² à¤ħà¤ĺ
à¤® à¤·
à¤® à¤ıà¤ķ
à¤® à¤Ľ
à¤® à¤°à¤¹
à¤® à¤Ļ
à¤® à¤¶à¤ķ
à¤® à¤Łà¤¨
à¤® à¤¸à¤°
à¤¤ à¤Ł
à¤¤ à¤²à¤²
à¤¯ à¤°à¤¬
à¤¯ à¤£à¤®
à¥ģ à¥ĥ
à¥Ģ âĢĿ
Ġà¤¸ à¤¨à¤ķ
Ġà¤¸ à¤ªà¤°
Ġà¤¸ à¤Ĺà¤°
Ġà¤ª à¤¥à¤°
à¤¦ à¤«
à¤¦ à¤¯à¤ķ
à¤¦ à¤¨à¤¨
à¤¦ à¤Ńà¤®
à¤¹ à¤ļ
à¤¹ à¤ľà¤¸
à¤¹ à¤²à¤Ĺ
à¤¹ à¤¸à¤ļ
à¤¹ à¤µà¤°à¤®
à¤µ à¤ªà¤°
à¤µ à¤ªà¤¤
à¤µ à¤Łà¤°
à¤µ à¤ľà¤¸
à¤µ à¤¶à¤¤
à¤µ à¤īà¤ª
Ġà¤ķ à¤£à¤²
Ġà¤ķ à¤Ńà¤°à¤ķ
Ġà¤Ĺ à¤ľà¤¬
Ġà¤Ĺ à¤ĩà¤¹
à¤Ĺ à¤Ĺà¤°
Ġà¤° à¤ľà¤ķà¤²
Ġà¤¨ à¤µà¤¸
Ġà¤¨ à¤¡à¤°
à¤Ł à¤Ĺà¤°
à¤Ł à¤Ĺà¤¤
à¤Ł à¤®à¤¨
à¤ı à¤¥
à¤ı à¤ļà¤ķ
Ġà¤Ń à¤¯à¤ķ
Ġà¤Ń à¤ĩà¤¯
Ġà¤¬ à¤ĺ
Ġà¤¬ à¤®à¤ķ
Ġà¤¬ à¤¥à¤¨
Ġà¤¬ à¤²à¤¬à¤¹
Ġà¤¹ à¤¡à¤ª
Ġà¤® à¤·
Ġà¤® à¤Ń
Ġà¤® à¤ľà¤¸
Ġà¤® à¤¤à¤µ
à¤ľ à¤¯à¤®
à¤ľ à¤²à¤ķ
à¤ľ à¤²à¤®
Ġà¤µ à¤«
Ġà¤µ à¤¥à¤¨
à¤¬ à¤µ
à¤¬ à¤Ń
à¤¬ à¤°à¤£
à¤¬ à¤ľà¤¨
à¤¬ à¤¤à¤¸
à¤· à¤°à¤¹
à¤· à¤®à¤ķ
à¤§ à¤ħà¤¨
à¤§ à¤Ńà¤°
à¤§ à¤¸à¤°à¤ķ
à¤§ à¤¨à¤¸à¤¹
Ġà¤¤ à¤¡à¤ķ
Ġà¤¤ à¤®à¤²
Ġà¤¤ à¤¬à¤®
Ġà¤¦ à¤¹à¤¨
à¤¥ à¤ķà¤ķ
à¤¶ à¤¯à¤¤
à¤¶ à¤¸à¤¹
Ġà¤Ĩ à¤¸à¤¨à¤®
Ġà¤Ĩ à¤Ĺà¤®à¤¨à¤®
Ġà¤ľ à¤ļ
Ġà¤ľ à¤µà¤°
Ġà¤ľ à¤®à¤²
à¤Ľ à¤¸
à¤£ à¤ĺ
à¤£ à¤ħà¤¨
à¤£ à¤²à¤Ĺ
Ġà¤² à¤¯à¤°
à¤ļ à¤°à¤£
à¤ļ à¤¯à¤®
à¤ļ à¤ķà¤²
à¤ļ à¤°à¤¬
à¤ļ à¤ķà¤¤
à¤ļ à¤²à¤¨à¤ķ
à¤Ī à¤µ
à¤Ī à¤Ĺ
à¤Ī à¤«
à¤Ī à¤¨à¤ķ
à¤Ī à¤²à¤®
à¤Ī à¤ķà¤°
à¤Ī à¤Łà¤®
Ġà¤ī à¤¬à¤°
à¤¡ à¤¶
à¤¡ à¤ļ
à¤¡ à¤°à¤¬
à¤¡ à¤¬à¤°
à¤Ń à¤°à¤£
à¤Ń à¤µà¤¸
à¤Ń à¤¡à¤¹à¤²à¤®
à¤ī à¤ªà¤¨
à¤ī à¤ªà¤¤
à¤ī à¤§à¤¨
à¤ī à¤¦à¤²
à¤ĸ à¤µ
à¤ĸ à¤Ĺà¤¨
âĢ ©
Ġà¤¸à¤® à¤¦
Ġà¤¸à¤® à¤¯à¤¤
à¤ĩ à¤ľà¤ķ
à¤ĩ à¤®à¤²
à¤ĩ à¤ıà¤²
à¤ĩ à¤ıà¤ªà¤¨
à¤°à¤® à¤¤
Ġà¤ļ à¤ĸ
à¤« à¤ľ
à¤« à¤°à¤ª
Ġà¤¥ à¤Ł
à¤īà¤¨ à¤¸
à¥Į ?
à¥Į ',
à¥Į à¥¤'
Ġà¤ı à¤Łà¤ķ
Ġà¤ı à¤ıà¤¸
Ġà¤ı à¤ħà¤°
Ġà¤ı à¤Ĩà¤ĩà¤ľ
Ġà¤ı à¤ıà¤¨à¤¸
à¤¯à¤ķ à¤¥
à¤°à¤¤ à¤¸à¤®à¤ķ
Ġà¤ĸ à¤Ĺà¤°
Ġà¤ĸ à¤²à¤¬à¤²
Ġà¤¶ à¤µà¤ķ
Ġà¤ħà¤¨ à¤Ĺà¤¨
Ġà¤ªà¤° à¤²
à¤ł à¤ķà¤¸
à¥ĥ .
à¤¸à¤ķ à¤®
Ġà¤« à¤Ļ
à¤°à¤£ à¤²à¤Ĺ
à¤°à¤£ à¤¸à¤¹
à¤ľà¤¨ à¤¦
à¤¸à¤® à¤Ĺ
à¤¨à¤® à¤²
âĢĻ âĢĵ
à¥¦ à¥¯
à¤ĺ à¤µ
à¤ĺ à¤¹à¤°
à¤ĺ à¤°à¤¤
Ġà¤¸à¤ķ à¤²
Ġà¤ľà¤¨ à¤¸à¤¨à¤²
Ġà¤°à¤¹ à¤¨à¤ķ
Ġà¤¯à¤¸ à¤ªà¤²
à¤°à¤¹ à¤ª
à¤²à¤ķ à¤¨
Ġà¤Ł à¤ļà¤ķ
Ġà¤§ à¤¨à¤²
Ġà¤§ à¤µà¤¨
à¤Ļ à¤«
Ġà¤ĺ à¤¸
à¤ŀ à¤¸à¤®
à¤ŀ à¤¶à¤²
à¤¯à¤¤ à¤µ
à¤²à¤® à¤ķ
à¤²à¤® à¤ĸ
à¤Ĺà¤° à¤ª
à¤¤à¤° à¤Ĺ
Ġà¤¡ à¤Ĺ
Ġà¤¡ à¤¢
Ġà¤¡ à¤²à¤ķ
à¤Ŀ à¤ªà¤Ł
Ġà¤īà¤ª à¤¬
Ġà¤īà¤ª à¤ľà¤®
Ġà¤īà¤ª à¤ķà¤°à¤£à¤²
à¥Įà¤Ĥ '
à¥Įà¤Ĥ à¤ģ,
Ġà¤ķà¤® à¤²à¤°
Ġà¤ķà¤® à¤²à¤®à¤£
à¤ħ à¤ľ
à¤ħ à¤·
à¤ħ à¤²à¤²
à¤ħ à¤¸à¤¦à¤ķ
Ġà¤®à¤¨ à¤¬à¤¹
Ġà¤ĩ à¤¬
à¤¾à¤Ĥ à¥Īà¥¤
à¤®à¤ķ à¤°à¤£à¤ķ
à¤°à¤µ à¤¬
à¤°à¤µ à¤¬à¤¹
Ġà¤Ĩà¤¯ à¤µ
à¤¤à¤ķ à¤¤
à¤¤à¤ķ à¤¬
à¤¤à¤ķ à¤£
à¤Łà¤ķ à¤ĺà¤°à¤®
Ġà¤ħà¤¸ à¤Ń
Ġà¤ħà¤¸ à¤¦à¤²
Ġà¤ħà¤¹ à¤¸
à¤µà¤¨ à¤ľ
à¤µà¤¨ à¤ªà¤Ľ
à¤·à¤£ à¤²à¤Ĺ
à¤·à¤£ à¤Ńà¤°à¤®
à¤¸à¤¨ à¤Ń
à¤¤à¤¨ à¤§
à¤Ĩ à¤Ļ
Ġà¤Ĩà¤° à¤ıà¤²à¤ķ
à¤°à¤¬ à¤ķ
à¤Łà¤¨ à¤¹à¤°
à¤²à¤¨ à¤¤
à¤²à¤¨ à¤ľ
à¥« à¥©
à¥ĭ, âĢĿ
Ġà¤īà¤¦ à¤¯à¤²
Ġà¤Ĺà¤¤ à¤¹à¤ª
à¤¸à¤° à¤ªà¤Ľ
à¥Įà¤ģ )
à¤®à¤¨ à¤¶
Ġà¤ħà¤® à¤°à¤®
Ġà¤ħà¤® à¤°à¤ª
Ġà¤Ŀ à¤Ŀà¤²
à¤¦à¤¨ à¤¹
Ġà¤¨à¤¯ à¤°
à¤¨à¤¸ à¤ªà¤Łà¤²à¤®
à¤°à¤®à¤£ à¤¸
à¤°à¤®à¤£ à¤µ
à¤°à¤®à¤£ à¤¹à¤°
à¤°à¤¶ à¤®
à¤²à¤¯ à¤Ńà¤¨
à¤§à¤¨ à¤ª
Ġà¤ľà¤¸ à¤ª
Ġà¤ľà¤¸ à¤ľà¤¸à¤²
à¤Ĺà¤² à¤¤
à¤Ĺà¤² à¤¤à¤°
Ġà¤¨à¤Ń à¤ĩà¤¦
à¤®à¤² à¤¤
à¤®à¤² à¤Ł
Ġà¤Ńà¤¯ à¤°à¤¹
à¤Łà¤® à¤¯
à¤µà¤® à¤£
à¤¶à¤¨ à¤°
Ġà¤Ĩà¤ĩ à¤¯
Ġà¤Ĩà¤ĩ à¤ĩà¤Ī
Ġà¤¦à¤° à¤ĸ
Ġà¤ħà¤µ à¤¯à¤µ
à¤ĵ à¤¨
à¤ĵ à¤¤
Ġà¤¹à¤° à¤¸à¤®
Ġà¤Ķ à¤ķ
Ġà¤Ķ à¤¸à¤¬à¤°
à¤¹à¤¨ à¤µ
Ġà¤ĺà¤° à¤ľà¤®
Ġà¤ĺà¤° à¤ĺà¤°
à¥® à¥§
à¥® à¥©
à¥® à¥®
Ġà¤ħà¤ª à¤¶à¤¬
à¤·à¤¯ à¤¸à¤®
à¤Łà¤² à¤¸
Ġà¤ħà¤¦ à¤ķ
Ġà¥§à¥¦ à¥©
Ġà¤¸à¤¤ à¤ª
à¤²à¤¤ à¤¸à¤®à¤ķ
Ġà¤¨à¤® à¤°
Ġà¤Ĩà¤ķ à¤·
à¤µà¤°à¤£ à¤¬
à¤µà¤°à¤£ à¤¹à¤°
à¤µà¤°à¤£ à¤¸à¤®
Ġà¤ħà¤² à¤°
à¤¡à¤® à¤§
à¤¤à¤µ à¤¨à¤²
à¤¤à¤µ à¤°à¤²
à¤¦à¤ķ à¤ª
Ġà¤ıà¤¸ à¤Ī
Ġà¤ıà¤¸ à¤ĵ
à¤Ĩà¤° à¤Ĩà¤°
Ġà¤Ĩà¤ī à¤Ľ
à¤¯à¤ª à¤°à¤ķ
Ġà¤®à¤¤ à¤¸
Ġà¤¸à¤¡à¤ķ à¤¦
Ġà¤¸à¤¡à¤ķ à¤Ńà¤¨
à¤ľà¤² à¤µ
à¤ıà¤¸ à¤¡
à¤¸à¤¬ à¤ķ
Ġà¥§à¥¯ à¥¦
à¤°à¤£à¤® à¤§
à¤ķà¤ª à¤Ł
à¤ªà¤¦ à¤¯
à¤°à¤ļ à¤²à¤¨à¤²
Ġà¥§à¥« à¥©
Ġà¥§à¥¨ à¥Ń
Ġà¥§à¥¨ à¥ª
Ġà¥§à¥¨ à¥¯
Ġà¥§à¥¨ à¥¦à¥¦
à¤łà¤ķ à¤ħà¤ĺ
à¤µà¤¯à¤¨ à¤¬
Ġà¥¨à¥« à¥¬
Ġà¥¨à¥« à¥¬à¥¨
à¤¥à¤² à¤¦
à¤ĩà¤Ł à¤¹à¤°
à¤ıà¤® à¤ľ
Ġà¤¸à¤ľ à¤Ĺà¤¤
Ġà¥§à¥§ à¥¨
à¥ģà¤Ĥ à¤ģ
à¤¹à¤¤ à¤¸
Ġà¤ķà¤ª à¤Ł
à¤·à¤§ à¤°à¤¤
Ġà¤Ńà¤ıà¤¨ à¤Ńà¤ıà¤ķ
à¤¯à¤Łà¤¨ à¤¸
à¤®à¤Ĺ à¤¨à¤²
Ġà¤ıà¤ª à¤¬
à¤¸à¤¨à¤² à¤Ĺ
Ġà¤ıà¤¨à¤Ĩà¤°à¤ıà¤¨ à¤¹à¤°
Ġà¥§à¥ª à¥«
à¤ĩà¤¨à¤² à¤¸à¤®
à¤¨à¤¯ à¤¨à¤²
Ġà¤Ĭ à¤¨
à¤°à¤¸à¤® à¤£
Ġà¤Ĩà¤ļ à¤°à¤£à¤²
Ġà¤Ĩà¤ł à¤¬
à¤¯à¤£ à¤ĺ
à¤¯à¤£ à¤¬à¤¹
Ġà¤ĭ à¤¦
à¤Ĺà¤®à¤¨ à¤¸à¤®
Ġà¥¨à¥§ à¥¦
Ġà¥¨à¥§ à¥©
Ġà¤ľà¤¬ à¤ľà¤²
Ġà¤®à¤¦ à¤¤
Ġà¥§à¥Ń à¥«
à¤µà¤Ł à¤°à¤²
à¤¸à¤¹à¤° à¤¹à¤°
Ġà¥¬à¥¦ à¥§
à¤Ńà¤ķ à¤°à¤ķ
Ġà¤Ńà¤µà¤¨ à¤¹à¤°
Ġà¥¦ à¥§à¥«
Ġà¥¦ à¥«à¥§
Ġà¤ķà¤µ à¤ļ
à¤īà¤¦ à¤¯à¤ª
Ġà¤¨à¤Ńà¤Ī à¤ķà¤¨
Ġà¤¤à¤² à¤¦
à¤¾) -
à¥¨à¥¦ à¥¬à¥¨
à¤¸à¤°à¤ķ à¤°
à¤ªà¤Ł à¤¨à¤²
à¤¯à¤Ł à¤¨à¤®à¤¨
Ġà¤Ĩà¤ı à¤ľà¤¸
Ġà¤ľà¤² à¤ľà¤²
Ġà¤ĭà¤£ à¤²
Ġà¥¨à¥Ń à¥«
Ġà¤Ī à¤®
Ġà¤Ī à¤Ļà¤ĺ
Ġà¤¨à¤Ĩ à¤¤
Ġà¤¨à¤Ĩ à¤Ī
à¤¤à¤¹ à¤¸à¤®
à¤Ĭ à¤ª
à¤ļà¤¸ à¤¯
Ġà¥¨à¥¦à¥ª à¥ª
Ġà¥©à¥« à¥¦
Ġà¤¦à¤¸ à¤Ĺà¤ľ
Ġà¤ĵà¤Ń à¤°à¤¸
à¤ıà¤« à¤ı
Ġà¤Ĩà¤Ī à¤Ł
Ġà¤Ĩà¤Ī à¤¡
Ġà¤ħà¤¸à¤® à¤¯à¤®
à¤ģà¥¤ '
Ġà¥Ńà¥« à¥¦
à¥ĩ? âĢĻ
Ġà¥ªà¥« à¥¦
Ġà¤ıà¤ķà¤² à¤¤à¤°
Ġà¤¨à¤°à¤¹ à¤²
à¤ĩà¤¬ à¤°à¤®
à¤Ĩà¤Ī à¤Ł
à¤Ĩà¤Ī à¤Ń
Ġà¤ħà¤²à¤Ĺ à¤ħà¤²à¤Ĺ
à¤µà¤°à¤² à¤Ĺ
Ġà¥«à¥« à¥¦
Ġà¤Ńà¤°à¤® à¤Ĺ
à¤¥à¤Ĺ à¤¨à¤ķ
Ġà¥¦à¥Ń à¥¦
Ġà¤Ńà¤°à¤¤ à¤¬à¤¹
Ġà¥¨à¥¦à¥© à¥¨
Ġà¥§à¥¯à¥« à¥¨
Ġà¤ħà¤°à¤¬ à¤ªà¤¤
à¤ļà¤¨à¤² à¤Ĺà¤¤
à¤Ĩà¤ĩ à¤¤à¤¬
à¤Ĩà¤ĩ à¤ıà¤«
Â« à¥ĭ
Ġà¥§à¥¯à¥® à¥¬
Ġà¥§à¥¯à¥® à¥®
Ġà¤ıà¤¯à¤° à¤«
Ġà¤Ĩà¤ĩà¤ıà¤® à¤Īà¤²
Ġà¥¦à¥¬ à¥«
Ġà¤ıà¤ļ à¤Ĩà¤ĩà¤Ń
Ġà¤ıà¤ļ à¤Ĩà¤Īà¤Ń
Ġà¥§à¥¯à¥Ń à¥©
Ġà¤¨à¤Ńà¤ĩ à¤ķà¤¨
Ġà¤Ĩà¤¯à¤ķ à¤°à¤ķ
Ġï ĢŃ
à¤ľà¤Ĺà¤¢ à¤®
Ġà¤ıà¤®à¤ı à¤¡à¤¬
à¤Ĩà¤ī à¤Łà¤ķ
Ġà¤ħà¤®à¤¨ à¤ļ
Ġà¤²à¤ļà¤ķ à¤¦
as s
Ġth e
Ġà¤¸à¤¤à¤² à¤ľ
1 1
2 3
4 4
? '
? âĢĿ
a d
m a
n ep
o p
Ã Ī
Ġ 9
Ġ T
Ġ h
à¤¾ à¥Ģ
à¤¾ âĢĺ
à¥į /
à¥į :
à¥į à¤ģ
à¥į à¤¾à¤¾
à¤° à¤ł
à¤° à¤ªà¤¨
à¤¨ à¤ıà¤ķ
à¤¨ à¤°à¤¹
à¤¨ à¤Ĺà¤¢
à¤¿ à¥¤âĢĻ
à¤ķ à¤¢
à¤ķ à¤ķà¤®
à¤ķ à¤¸à¤Ń
à¤ķ à¤·à¤°
à¤ķ à¤¸à¤®à¤ķ
à¤ķ à¤¨à¤¸à¤¹
à¥ĭ à¥Ī
à¤² à¤ļà¤ķ
à¤² à¤ľà¤¯
à¤² à¤īà¤¦
à¤® à¤°à¤®
à¤® à¤¸à¤ķ
à¤® à¤°à¤¸
à¤® à¤Ńà¤ķ
à¤¤ à¤§
à¤¤ à¤µà¤°
à¤¤ à¤Ĺà¤¤à¤ķ
à¤¤ à¤¶à¤®à¤¶
à¤¯ à¤ĸ
à¤¯ à¤ŀ
à¤¯ à¤¬à¤°
à¤¯ à¤¬à¤²
à¤¯ à¤ľà¤¨à¤²
à¤¯ à¤°à¤¬à¤ľ
à¥ģ à¥ģà¤ģ
à¥ģ ),
à¤¸ à¤ł
à¤¸ à¤«à¤²
à¤¸ à¤¨à¤®à¤¨
à¤¸ à¤ľà¤¨à¤ķ
à¤¸ à¤¯à¤¯
à¤¸ à¤ħà¤ª
à¤¸ à¤°à¤²à¤Ĺ
Ġà¤¸ à¤°à¤®
Ġà¤¸ à¤°à¤¤
Ġà¤¸ à¤ľà¤¨
Ġà¤ª à¤²à¤ķ
à¤ª à¤§
à¤ª à¤Ńà¤°
à¤ª à¤ħà¤ĺ
à¤ª à¤Łà¤²
à¤¦ à¤¯à¤¸
à¤¦ à¤°à¤¹à¤°
à¤¦ à¤¬à¤²
à¤¦ à¤Ļà¤µ
à¤¹ à¤²à¤ķ
à¤µ à¤£
à¤µ à¤Ĺà¤°
à¤µ à¤Ĺà¤¤
à¤µ à¤Ĩ
à¤µ à¤ªà¤ķ
à¤µ à¤§à¤¨
à¤µ à¤Łà¤®
à¤µ à¤ħà¤ĺ
à¤µ à¤Ĩà¤°
à¤µ à¤¶à¤²
à¤µ à¤īà¤ªà¤ķ
à¥¤ )
Ġà¤ķ à¤¸à¤®
Ġà¤ķ à¤łà¤®
Ġà¤ķ à¤ľà¤²
Ġà¤ķ à¤Ńà¤°à¤²
Ġà¤Ĺ à¤ĩ
Ġà¤Ĺ à¤Ĺà¤¨à¤ķ
à¤Ĺ à¤¹
à¤Ĺ à¤Ĺ
à¤Ĺ à¤¦à¤¨
à¤Ĺ à¤µà¤¶
Ġà¤° à¤¸à¤®
Ġà¤° à¤¤à¤¨
Ġà¤° à¤®à¤¨
Ġà¤° à¤¨à¤µ
Ġà¤¨ à¤§
Ġà¤¨ à¤¡
Ġà¤¨ à¤¢
Ġà¤¨ à¤°à¤¦
Ġà¤¨ à¤®à¤¨
Ġà¤¨ à¤ħà¤Ł
à¤Ł à¤Ĺà¤¢
à¤Ł à¤Ńà¤Ł
à¤Ł à¤Ĩà¤īà¤Łà¤ķ
à¤ı à¤²à¤¬
à¤ı à¤¬à¤²
à¤ı à¤ĩà¤ķ
à¤ı à¤¬à¤®
à¤ı à¤«à¤¬
à¤ı à¤ªà¤¶
Ġà¤Ń à¤®
Ġà¤Ń à¤¸
Ġà¤Ń à¤µà¤¸
Ġà¤Ń à¤²à¤¬
Ġà¤Ń à¤²à¤ª
Ġà¤ħ à¤Łà¤²
Ġà¤¬ à¤Ĺà¤°à¤®
Ġà¤¹ à¤°à¤£
Ġà¤¹ à¤°à¤Ń
Ġà¤¹ à¤²à¤¸à¤®
Ġà¤® à¤²à¤¯
Ġà¤Ĺà¤° à¤®
à¤ľ à¤°à¤¬
à¤ľ à¤ķà¤°
à¤¬ à¤Łà¤ķ
à¤¬ à¤²à¤¬
à¤¬ à¤²à¤Ĺ
à¤¬ à¤¤à¤¬
à¤¬ à¤°à¤¬à¤¹
à¤· à¤ĺ
à¤· à¤°à¤¬
à¤· à¤ļà¤¨
à¤· à¤ħà¤¨
à¤· à¤¯à¤µ
à¤· à¤¬à¤¹
à¤§ à¤°à¤£
à¤§ à¤Ļ
à¤§ à¤¤à¤°
à¤§ à¤ķà¤®
à¤§ à¤ªà¤¶
Ġà¤Ľ à¤¬
Ġà¤Ľ à¤²à¤ķ
Ġà¤Ľ à¤¤à¤®
Ġà¤Ľ à¤°à¤ª
Ġà¤¤ à¤Ļ
Ġà¤¤ à¤Łà¤®
Ġà¤¤ à¤ľà¤¬
Ġà¤¦ à¤ľ
Ġà¤¦ à¤Ļ
à¤ıà¤ķ à¤²
à¤ıà¤ķ à¤ľà¤¨
à¤¥ à¤«
Ġà¥¤ '
à¤¶ à¤¸à¤ķ
à¤¶ à¤ľà¤¸
à¤¶ à¤°à¤ŀ
à¤Ĥ à¥ĩà¥¤
Ġà¤Ĩ à¤Ł
Ġà¤Ĩ à¤¸à¤ķ
Ġà¤Ĩ à¤®à¤ļ
Ġà¤Ĩ à¤¹à¤¤
Ġà¤Ĩ à¤°à¤£à¤²
Ġà¤Ĩ à¤²à¤®à¤²
Ġà¤ľ à¤Ĺà¤ķ
Ġà¤ľ à¤¯à¤¸à¤µ
à¤Ľ à¤ľà¤¸
à¤£ à¤Ńà¤¨
à¤£ à¤¸à¤Ń
à¤£ à¤ľà¤Ļ
Ġà¤² à¤Ľ
Ġà¤² à¤ŀ
Ġà¤² à¤Łà¤°à¤®
à¤ļ à¤ªà¤Ľ
à¤ļ à¤¤à¤¨
à¤ļ à¤ħà¤¨
à¤ļ à¤°à¤¨
à¤ļ à¤²à¤¨à¤®
à¤Ī à¤¨à¤®
à¤Ī à¤µà¤°
à¤Ī à¤ľà¤°
à¥Ĥ à¤ģ,
Ġà¤ī à¤®à¤¨
à¤¡ à¤ĺà¤Ł
à¤Ń à¤¹à¤°
à¤Ń à¤Ńà¤¨
à¤Ń à¤¡à¤ķ
à¤ī à¤¹à¤°
à¤ī à¤ł
à¤ī à¤ªà¤®
à¤ī à¤ļà¤ķ
à¤ī à¤ªà¤¦
à¤ī à¤ľà¤°
à¤ī à¤ªà¤ļ
à¤ī à¤¤à¤¸
à¤ĸ à¤¤à¤ķ
à¤ĸ à¤¤à¤²
à¤ĸ à¤¬à¤¹
Ġà¤¯ à¤®à¤²
âĢ ²
Ġà¤¸à¤® à¤°à¤ķ
à¤ĩ à¤ĩ
à¤ĩ à¤¤à¤°
à¤ĩ à¤¸à¤¨
à¤ĩ à¤¤à¤²
à¤ĩ à¤Ļà¤ķ
à¤ĩ à¤¬à¤¹
à¤ĩ à¤ħà¤²à¤°
à¤°à¤ķ à¤¸
à¤°à¤ķ à¤µ
Ġà¤ļ à¤ŀ
Ġà¤ļ à¤ķà¤¨
Ġà¤ļ à¤²à¤®à¤²
à¤« à¤·
à¤« à¤¸à¤²
Ġà¤¥ à¤®à¤®
à¥Į âĢĮ
Ġà¤ı à¤¸à¤ķ
à¤¯à¤ķ à¤¸à¤®
à¤°à¤¤ à¤¸à¤®
à¤°à¤¤ à¤µà¤°
à¤°à¤¤ à¤ªà¤°à¤¸
Ġà¤¶ à¤ª
Ġà¤¶ à¤¯à¤¨
Ġà¤ħà¤¨ à¤ªà¤¢
Ġà¤ªà¤° à¤ĸ
à¥ĥ à¤¿
à¤¸à¤ķ à¤°
Ġà¤« à¤ķà¤°
à¤°à¤£ à¤µà¤¶
à¤°à¤£ à¤¬à¤¸
à¤ªà¤° à¤ľ
à¤ªà¤° à¤¹à¤°
ĠâĢ Ŀ
à¤ľà¤¨ à¤¸à¤¤
à¤ľà¤¨ à¤ĺà¤¨à¤¤
à¤¸à¤® à¤°
à¤¨à¤® à¤£
à¤ĺ à¤ľà¤¸
Ġà¤¬à¤¨ à¤¸
à¤¢ à¤¦
à¥ĭà¥¤ âĢĺ
Ġà¤ľà¤¨ à¤ªà¤¦
Ġà¤ľà¤¨ à¤īà¤¤
Ġà¤ľà¤¨ à¤ĺà¤¨à¤¤
Ġà¤®à¤¹ à¤ķ
à¤²à¤ķ à¤¸à¤®
à¤²à¤ķ à¤¸à¤¹
Ġà¤ıà¤ķ à¤¥
Ġà¤ıà¤ķ à¤¦à¤²
Ġà¤ıà¤ķ à¤®à¤¹
Ġà¤ıà¤ķ à¤¹à¤ľ
Ġà¤Ł à¤¯
Ġà¤Ł à¤ªà¤°
Ġà¤Ł à¤ļà¤¸
à¤¯à¤¸ à¤¦
Ġà¤§ à¤Ļ
à¤Ļ à¤Ĺà¤²
à¤Ļ à¤ķà¤¨
à¤Ļ à¤ĸà¤²
Ġà¤ĺ à¤¤à¤²
à¤ŀ à¤°
à¤ŀ à¤¶à¤ķ
à¤ªà¤¨ à¤°à¤¤
Ġà¤ħà¤§ à¤ķ
Ġà¤ħà¤§ à¤¬
à¤Ĺà¤° à¤¸à¤®
à¤¤à¤° à¤ħà¤¨
Ġà¤¤à¤° à¤ĸà¤°à¤®
Ġà¤¬à¤¢ à¤¦
Ġà¤¬à¤¢ à¤µ
à¤Ŀ à¤¨à¤²
à¤Ŀ à¤®à¤ķ
à¤Ŀ à¤ªà¤ĸ
Ġà¤īà¤ª à¤Ĺ
Ġà¤īà¤ª à¤®à¤¨
Ġà¤ħà¤° à¤µ
à¤ĩà¤¨ à¤µ
à¤ĩà¤¨ à¤¸à¤ķ
à¤ĩà¤¨ à¤¸à¤®
à¥ģà¤ģ ',
Ġà¤ķà¤® à¤Ĺà¤°
Ġà¤ķà¤® à¤¨à¤µ
à¤ħ à¤µà¤²
à¤ħ à¤µà¤§
à¤ªà¤¤ à¤®
à¤ªà¤® à¤¤
à¤ķà¤² à¤²
à¤ķà¤² à¤µ
Ġà¤®à¤¨ à¤¬
Ġà¤®à¤¨ à¤¨à¤ªà¤°
à¤ķà¤® à¤¸
Ġà¤ķà¤° à¤¸à¤®
Ġà¤ĩ à¤¨à¤¸
Ġà¤ĩ à¤¹à¤²
Ġà¤ĩ à¤ıà¤¨à¤Ł
à¤¯à¤¨ à¤¬
à¤¾à¤Ĥ à¤ģ
Ġà¤Ńà¤ı à¤Ŀ
Ġà¤Ńà¤ı à¤Ńà¤¨
Ġà¤Ńà¤ı à¤¬à¤®
Ġà¤ªà¤¹ à¤²à¤¬
à¤¤à¤ķ à¤¸
à¤Łà¤ķ à¤¹
Ġà¤ħà¤¸ à¤°à¤¦
à¤¸à¤² à¤¦
à¤¸à¤² à¤ªà¤¨
à¤µà¤° à¤¸à¤®
à¤Ĺà¤¤ à¤¬
à¤µà¤¨ à¤ªà¤¦
à¤·à¤£ à¤ķà¤°
à¤²à¤¬ à¤µ
à¤Ĩ à¤ĩà¤ıà¤ķ
Ġà¤Ĩà¤° à¤ĩà¤ķ
Ġà¤Ĩà¤° à¤ıà¤®à¤¬
Ġà¤¬à¤¸ à¤¬
à¤ļà¤¨ à¤Ńà¤¨
à¤Łà¤¨ à¤°à¤¸
à¤Łà¤¨ à¤¸à¤¤
à¤®à¤¤ à¤¸à¤¹
Ġà¤īà¤¦ à¤¹
Ġà¤īà¤¦ à¤¯à¤ķ
à¤ķà¤° à¤Ń
à¤Łà¤° à¤¨à¤²
Ġà¤¸à¤° à¤ª
à¤¸à¤° à¤ª
à¥Įà¤ģ âĢĿ,
à¤¤à¤® à¤¬
Ġà¤ĵ à¤¦
Ġà¤ĵ à¤Ĺ
Ġà¤ĵ à¤łà¤®
Ġà¤ĵ à¤®à¤¨
Ġà¤ĵ à¤®à¤®
Ġà¤ĵ à¤ĸà¤°
Ġà¤Ŀ à¤ªà¤Ł
Ġà¤Ŀ à¤®à¤Ŀ
à¥Īà¤Ĥ à¤Ĥ
à¤¦à¤¨ à¤ª
à¤·à¤ķ à¤¸
à¤·à¤ķ à¤¸à¤®
Ġà¤¨à¤Ĺà¤° à¤Ń
à¤¨à¤¸ à¤¬
à¤°à¤®à¤£ à¤¸à¤®
Ġà¤¸à¤¯ à¤µà¤Ł
à¤¤à¤² à¤¹à¤°
à¤ķà¤°à¤£ à¤²à¤Ĺ
Ġà¤¸à¤¦ à¤Ń
à¤²à¤¯ à¤¸à¤®à¤ķ
à¤§à¤¨ à¤¦
à¥© à¥¨à¥¦
Ġà¤¨à¤Ń à¤°
Ġà¤¨à¤Ń à¤¤
Ġà¤ħà¤¬ à¤²
Ġà¤ħà¤¬ à¤¸à¤°
Ġà¤ªà¤¤ à¤¨à¤ķ
Ġà¤ªà¤¤ à¤ŀ
à¤µà¤® à¤§
Ġà¤ķà¤² à¤°à¤ķ
Ġà¤ķà¤² à¤¹à¤¬
à¤¶à¤¨ à¤¦
Ġà¤Ĩà¤ĩ à¤ıà¤«à¤¸
Ġà¤Ĩà¤ĩ à¤ıà¤«à¤ľ
Ġà¤¦à¤° à¤ª
à¤ĵ à¤¢
à¤ĵ à¤Ĩà¤°
Ġà¤¹à¤° à¤ªà¤²
Ġà¤¹à¤° à¤«à¤¹à¤°
Ġà¤Ķ à¤·à¤¤
Ġà¤ıà¤® à¤Ĩà¤°à¤Ĩà¤Ī
à¤Ĺà¤® à¤°
Ġà¤¦à¤² à¤¸à¤¹
Ġà¤ĺà¤° à¤¨
à¥® à¥¬
à¥® à¥ª
Ġà¤¬à¤¹ à¤ķ
à¤·à¤¯ à¤Ńà¤¨
Ġà¤¬à¤² à¤°à¤¸
Ġà¤¬à¤² à¤Ńà¤¦
à¥¯ à¥¬
Ġà¤¥à¤ª à¤ĺà¤Ł
Ġà¥§à¥¦ à¥«
Ġà¤¨à¤¹ à¤°à¤ķ
à¤°à¤¨ à¤ľ
Ġà¤¸à¤¤ à¤¹à¤¦
Ġà¤ıà¤¨ à¤Ł
Ġà¤ıà¤¨ à¤ıà¤®
à¤ªà¤² à¤Ĺà¤¤
Ġà¤Ĳ à¤°à¤²
Ġà¤Ĳ à¤¨à¤µ
Ġà¤Ĺà¤ł à¤¨à¤²
à¤¹à¤ķ à¤¬
à¤µà¤°à¤£ à¤¸
Ġà¤°à¤ķà¤® à¤¸à¤¹
à¤¸à¤¹ à¤ľ
à¤¸à¤¹ à¤°à¤ķ
à¤¸à¤¹ à¤®à¤¤
Ġà¤ħà¤« à¤¸
Ġà¤ħà¤« à¤°à¤®
à¤ĩà¤² à¤°
à¤ĩà¤² à¤Łà¤ķ
à¥įâĢ Ķ
à¤ľà¤Ĺ à¤¦
à¤ľà¤Ĺ à¤ľ
à¤¤à¤°à¤£ à¤¸
Ġà¤ıà¤¸ à¤ı
Ġà¤ıà¤¸ à¤ľ
à¤Ĩà¤° à¤ıà¤²
à¤Ĩà¤° à¤Ĩà¤Īà¤ķ
Ġà¤®à¤¤ à¤¬
Ġà¤®à¤¤ à¤ªà¤°
Ġà¤Ĩà¤¶ à¤²
à¤ıà¤¸ à¤ıà¤ļ
à¤²à¤¸ à¤ĸ
Ġà¤ľà¤Ĺ à¤¨
Ġà¤ľà¤Ĺ à¤ľà¤Ĺ
Ġà¥§à¥¯ à¥Ńà¥ª
Ġà¥§à¥¯ à¥§à¥Ń
Ġà¥§à¥¯ à¥Ńà¥¬
à¤¯à¤¯à¤¨ à¤¸à¤®
à¤°à¤ľ à¤¨à¤ķ
Ġà¥¨à¥¦à¥Ń à¥¬
à¤Ĺà¤ł à¤¨à¤¸
Ġà¥§à¥« à¥¨
Ġà¥§à¥« à¥¦à¥¦
Ġà¥§à¥¨ à¥¨
à¤łà¤ķ à¤¸à¤®
à¥Įà¤Ĥà¥¤ âĢĿ
à¤ĩà¤Ł à¤¸
à¤ıà¤® à¤Ĩà¤ĩà¤ıà¤¸
Ġà¤¨à¤ľ à¤°à¤²
Ġà¤§à¤¨ à¤¦
Ġà¤§à¤¨ à¤ľà¤¨à¤ķ
à¤¨à¤ª à¤¶
Ġà¤¸à¤¹à¤° à¤Ń
Ġà¥§à¥§ à¥¬
à¤ªà¤£ à¤²
à¤ªà¤£ à¤¸à¤®
Ġà¤Ńà¤µ à¤¨à¤²
à¤ıà¤² à¤Ł
à¤ıà¤² à¤ĩà¤¡
Ġà¥§à¥® à¥Ń
Ġà¥§à¥® à¥¬
Ġà¥§à¥® à¥©
Ġà¥§à¥® à¥¦à¥¦
Ġà¥§à¥® à¥¨à¥«
Ġà¤ľà¤¨à¤ķ à¤°
Ġà¤ľà¤¨à¤ķ à¤ķ
Ġà¥§à¥¬ à¥Ń
Ġà¥§à¥¬ à¥§à¥¬
ĠĠĠĠ ĠĠ
ĠĠĠĠ ĠĠĠ
à¤ĩà¤ľ à¤ħà¤¨
à¤Ĺà¤²à¤¬ à¤ľ
à¤¯à¤Łà¤ķ à¤¸
à¤¯à¤Łà¤ķ à¤¬
à¤¯à¤£ à¤¸
Ġà¤¦à¤¶ à¤ķà¤²
Ġà¤ľà¤¬ à¤ľà¤ķ
Ġà¤ķà¤Ł à¤¨à¤ķ
à¤µà¤Ł à¤¸
à¤Ķ à¤·à¤§à¤ķ
à¤®à¤¹ à¤¤à¤²
à¥ĭ? '
à¤¹à¤°à¤£ à¤¬
à¤¹à¤°à¤£ à¤¹à¤°
Ġà¤Ńà¤µà¤¨ à¤¬
Ġà¤Ńà¤µà¤¨ à¤Ń
Ġà¥¦ à¥§à¥Ń
Ġà¥¦ à¥©à¥§
à¤°à¤ĸ à¤£
à¤ıà¤Ī à¤¸
à¤¾à¥¤ '
à¥¨à¥¦ à¥§à¥©
à¥¨à¥¦ à¥©à¥ª
Ġà¥¨à¥® à¥«
à¤¯à¤Ł à¤¨à¤²à¤Ĺ
à¤Łà¤¬à¤² à¤°
Ġà¤Ī à¤°
Ġà¤Ī à¤Ł
Ġà¤Ī à¤ļ
Ġà¤ıà¤² à¤ľ
Ġà¤ıà¤² à¤¨à¤²
Ġà¤ıà¤² à¤Ĩà¤ĩà¤¸
à¤ĸà¤¨ à¤¨à¤²
Ġà¤¨à¤Ńà¤ı à¤ľà¤¸
à¤ľà¤¬ à¤ľ
à¤·à¤¬ à¤¢
Ġà¤¹à¤ķ à¤¸à¤®
Ġà¥¨à¥¦à¥ª à¥¦
Ġà¥¨à¥¦à¥ª à¥§
à¤°à¤« à¤²à¤ķ
Ġà¤Ĩà¤Ī à¤ıà¤¨à¤ľ
Ġà¤ķà¤¦à¤® à¤ªà¤Ľ
à¥ĩ? '
Ġà¤Ĩà¤¸ à¤¯
Ġà¤¢à¤ķ à¤¢à¤ķ
à¤¾à¥Īà¤Ĥ âĢĵ
Ġà¤ªà¤Łà¤ķà¤ªà¤Łà¤ķ à¤ķ
Ġà¥©à¥¬ à¥¦
Ġà¥¬à¥« à¥¦
Ġà¤¸à¤°à¤² à¤¤
Ġà¤®à¤¦à¤¨ à¤¦
à¤īà¤ª à¤²à¤¬
Ġà¥¦à¥Ń à¥§
Ġà¤ķà¤¦ à¤®à¤¬
à¤µà¤¯à¤® à¤¸
Ġà¤Ĩà¤īà¤Ł à¤ª
à¥§à¥¦ à¥¨
Ġà¥§à¥¯à¥« à¥®
Ġà¥¨à¥¦à¥¨ à¥Ń
Ġà¤ħà¤²à¤® à¤²à¤ķ
à¤ıà¤ļ à¤ĵà¤²
à¤īà¤¸ à¤«
Ġà¤¨à¤Ĺ à¤¦à¤ķ
à¤Ńà¤ªà¤¤ à¤¨à¤²
à¤ĩà¤°à¤¸ à¤¬
à¤¾à¥Ī ,âĢĻ
Ġà¤ľà¤Ĺà¤¤ à¤ª
à¤Ĩà¤ĩ à¤ĩà¤Ī
à¥Ńà¥« à¥Ń
Ġà¥§à¥¯à¥® à¥©
Ġà¤²à¤¹ à¤¡à¤®
à¤°à¤¨à¤Ĺà¤° à¤¸
à¤°à¤¨à¤Ĺà¤° à¤¬
Ġà¥§à¥¯à¥¬ à¥§
Ġà¥§à¥¯à¥¬ à¥®
Ġà¥§à¥¯à¥¬ à¥¯
Ġà¥¦à¥¬ à¥®
Ġà¤ĵà¤® à¤¨à¤®
Ġà¥§à¥¯à¥ª à¥¦
à¤¤à¤¨à¤® à¤¨à¤¨
à¤«à¤¸ à¤¬à¤°
Ġà¤°à¤Ļ à¤°
Ġà¥§à¥¯à¥Ń à¥§
Ġà¤²à¤¹à¤° à¤²
à¤ļà¤¥ à¤°à¤®
à¤µà¤¸à¤¹ à¤®à¤¤
à¤¡à¤°à¤¸ à¤¨à¤²
Ġà¤¦à¤¶à¤°à¤¥ à¤ľ
Ġà¤¦à¤¶à¤°à¤¥ à¤ļà¤¨
à¤¼ à¥Ģ
Ġà¤ļà¤¹ à¤²à¤²
Ġà¤Ĺà¤¢ à¤µ
Ġà¤Ĺà¤¡à¤¬ à¤¢
Ġà¤¡à¤Łà¤ķà¤® à¤¬
Ġà¤Ĺà¤¡ à¤µà¤¡
Ġà¤ıà¤¸à¤ĩ à¤Ī
Ġà¤Ĩà¤ĩà¤ıà¤¸ à¤Ł
ĠĠĠĠĠĠĠĠĠĠĠĠĠĠĠĠĠĠĠĠĠĠĠĠĠĠĠĠĠĠĠĠ ĠĠĠĠĠĠĠĠĠĠĠĠĠĠĠĠĠĠĠĠĠĠĠĠĠĠĠĠĠĠĠĠ
à¤ķà¤ħ à¤ªà¤ķ
Ġà¤¸à¤¯à¤ķ à¤¡
Ġà¤ĺà¤ļ à¤ĺà¤ļ
Ġà¤ĺà¤Łà¤ķ à¤¹à¤°
Ġà¤°à¤£ à¤ľ
Ġà¤²à¤ĸà¤¨ à¤ī
à¤¸à¤ı à¤ªà¤ķ
à¤¡à¤¯ à¤¨à¤®à¤¨
à¤¡à¤°à¤¶ à¤Łà¤¸
à¤ĩà¤ªà¤° à¤¥
In di
Ġà¤¨à¤ħ à¤ªà¤¨
Ġà¤¤à¤¡à¤ķ à¤Ńà¤¡à¤ķ
Ġà¤ħà¤µà¤¯à¤µ à¤¹à¤°
à¤µà¤Ĩ à¤¦à¤°
Ġà¤¹à¤°à¤Ń à¤ľà¤¨
Ġà¤Ľà¤°à¤ª à¤·
Ġà¤§à¤Ļ à¤§à¤Ļ
Ġà¤Ŀà¤®à¤Ŀ à¤®
a y
e c
e s
i th
r i
s t
t er
Ã ŀ
Ġ I
Ġ M
Ġ O
Ġ P
Ġ b
Ġ f
Ġ p
Ġ à¥ģ
Ġ in
à¤¾ ',
à¥į à¤¾
à¥į à¥ģ
à¥į à¤Ĥ
à¥į Ã·
à¤° à¤ıà¤¨à¤ıà¤ķ
à¤¨ à¤¤à¤ķ
à¤¨ à¤¶à¤ķ
à¤¨ à¤¸à¤¨
à¤¨ à¤°à¤¹à¤°
à¤¨ à¤ľà¤°
à¤¨ à¤°à¤¸à¤¹
à¤¿ à¥ĭ
à¤¿ âĢ
à¤¿ Â«
à¤¿ âĢĮà¤Ĥ
à¤ķ à¤ıà¤ķ
à¤ķ à¤ªà¤¨
à¤ķ à¤¤à¤ķ
à¤ķ à¤·à¤ķ
à¤ķ à¤¤à¤²
à¤ķ à¤ļà¤ķ
à¤ķ à¤¥à¤¨
à¤ķ à¤¥à¤°
à¤ķ à¤²à¤ķà¤¹à¤°
à¤ķ à¤ĵà¤Ńà¤°
à¥ĩ Â¥
à¤² à¤ŀ
à¤² à¤µà¤®
à¤² à¤ļà¤®
à¤² à¤¯à¤¸à¤¹
à¤² à¤Ńà¤°à¤ª
à¤² à¤¯à¤¤à¤°
à¤® à¤²à¤®
à¤® à¤¯à¤²
à¤® à¤§à¤¨
à¤® à¤°à¤¨
à¤® à¤°à¤£à¤ķ
à¤® à¤ľà¤¨à¤®
à¤¤ à¤ĺ
à¤¤ à¤²à¤¨
à¤¤ à¤ľà¤¨à¤ķ
à¤¤ à¤ĵà¤Ł
à¤¤ à¤¤à¤µà¤°à¤²
à¤¯ à¤ªà¤¨
à¤¯ à¤Ĺà¤°
à¤¯ à¤§à¤°
à¤¯ à¤¶à¤¨à¤ķ
à¤¯ à¤°à¤§à¤¨
à¤¯ à¤Ĭà¤°
à¥ģ à¤¿
à¥ģ à¥ĩ
à¥Ģ ...
à¤¸ à¤ªà¤¨
à¤¸ à¤¤à¤²
à¤¸ à¤Łà¤²
à¤¸ à¤Ĺà¤°à¤®
à¤¸ à¤«à¤°à¤ķ
à¤¸ à¤°à¤¹à¤ķ
Ġà¤¸ à¤·
Ġà¤¸ à¤¸à¤¦
Ġà¤ª à¤²à¤¸
Ġà¤ª à¤°à¤ķà¤®
à¤ª à¤Ĺ
à¤ª à¤ľà¤¸
à¤ª à¤¸à¤¬
à¤¦ à¤°à¤µ
à¤¦ à¤¤à¤ķ
à¤¦ à¤µà¤¨
à¤¦ à¤ħà¤¨
à¤¦ à¤¯à¤°
à¤¦ à¤¸à¤¹
à¤¦ à¤¬à¤ľ
à¤¦ à¤µà¤¸à¤¹
à¤¹ à¤¤à¤°
à¤¹ à¤®à¤§
à¤µ à¤°à¤¦
à¤µ à¤¬à¤¨
à¤µ à¤Łà¤²
à¤µ à¤Ĺà¤¨
à¤µ à¤īà¤ªà¤ª
Ġà¤ķ à¤Ń
Ġà¤ķ à¤¨à¤ķ
Ġà¤ķ à¤ªà¤®
Ġà¤Ĺ à¤Ĺ
Ġà¤Ĺ à¤²à¤ķ
Ġà¤Ĺ à¤¹à¤ķ
Ġà¤Ĺ à¤ľà¤°
Ġà¤Ĺ à¤®à¤¨à¤¶
à¤Ĺ à¤«
à¤Ĺ à¤Ńà¤°
à¤Ĺ à¤¡à¤²
à¤Ĺ à¤Ĳà¤¤
à¥Ī ...
Ġà¤° à¤¯
Ġà¤° à¤¸à¤ķ
Ġà¤° à¤¸à¤°
Ġà¤° à¤Ļà¤²
Ġà¤° à¤ľà¤Ĺà¤ľ
Ġà¤¨ à¤ķà¤®
Ġà¤¨ à¤²à¤¸
Ġà¤¨ à¤Ŀà¤°
à¤Ł à¤ľ
à¤Ł à¤§
à¤Ł à¤«à¤²
à¤Ł à¤ļà¤¨à¤²
à¤Ł à¤ľà¤°à¤²
à¤ı à¤¨à¤®
à¤ı à¤ĺ
à¤ı à¤¯à¤°à¤²
à¤ı à¤¸à¤²à¤Ĺ
Ġà¤Ń à¤¯à¤²
Ġà¤Ń à¤Ĺà¤¤
Ġà¤ħ à¤¹à¤°
Ġà¤ħ à¤Ĺà¤°
Ġà¤ħ à¤µà¤¨
Ġà¤ħ à¤ľà¤°
Ġà¤ħ à¤¨à¤ķà¤¨
Ġà¤¬ à¤¥
Ġà¤¬ à¤¨à¤ķ
Ġà¤¬ à¤ķà¤®
Ġà¤¬ à¤Ĺà¤²
Ġà¤¬ à¤Łà¤®
Ġà¤¬ à¤®à¤¬à¤¹
Ġà¤¹ à¤£
Ġà¤¹ à¤ķà¤¬
Ġà¤® à¤¨à¤®à¤¨
Ġà¤® à¤ķà¤¹
à¤ľ à¤Ł
à¤ľ à¤Ĺà¤°
à¤ľ à¤¤à¤°
à¤ľ à¤¤à¤ķ
à¤ľ à¤¬à¤°
Ġà¤µ à¤ļ
Ġà¤µ à¤¨à¤¬
à¤¬ à¤¸à¤ķ
à¤¬ à¤ĩà¤®
à¤¬ à¤Ĺà¤°à¤®
à¤· à¤ľà¤¨
à¤· à¤ªà¤¨
à¤· à¤Ŀ
à¤· à¤²à¤Ĺ
à¤§ à¤ļ
à¤§ à¤¡
à¤§ à¤°à¤¤
à¤§ à¤ªà¤¤
à¤§ à¤¦à¤ķ
à¤§ à¤ľà¤²
à¤§ à¤¯à¤ķà¤ķ
à¤§ à¤Ńà¤¤
Ġà¤Ľ à¤¹à¤°
Ġà¤¤ à¤Łà¤ķ
à¤ģ à¥ĩ
à¤ģ ',
Ġà¤¦ à¤Ĺ
Ġà¤¦ à¤²à¤¬à¤²
à¤¥ à¤ľ
à¤¶ à¤¯à¤®
à¤¶ à¤¤à¤°
à¤¶ à¤¯à¤²
à¤¶ à¤¤à¤¨
à¤¶ à¤²à¤Ĺ
à¤Ĥ à¥ģ
à¤Ĥ âĢĻ
Ġà¤Ĩ à¤¯à¤¤
Ġà¤Ĩ à¤¸à¤²
Ġà¤Ĩ à¤ľà¤®
Ġà¤Ĩ à¤¯à¤¤à¤¨
Ġà¤ľ à¤ľ
Ġà¤ľ à¤¨à¤²
Ġà¤ľ à¤ªà¤¨
Ġà¤ľ à¤¤à¤¨
Ġà¤ľ à¤¯à¤µ
Ġà¤ľ à¤¡à¤¸
à¤Ľ à¤Ńà¤¨
à¤£ à¤¢
à¤£ à¤µà¤¤
à¤£ à¤Ńà¤ķ
Ġà¤² à¤¸à¤ª
Ġà¤² à¤Ńà¤¸
à¤ļ à¤Ń
à¤ļ à¤Ļ
à¤ļ à¤ľà¤¸
à¤ļ à¤¸à¤¹
à¤ļ à¤¤à¤¤
à¤ļ à¤Ĺà¤®à¤¨
à¤Ī à¤µà¤¸
à¤Ī à¤ľà¤¸
à¤Ī à¤ªà¤²
à¤Ī à¤¡à¤°
à¥Ĥ ?
à¥Ĥ à¥į
à¥Ĥ à¤Ĥ
Ġà¤ī à¤ĺ
Ġà¤ī à¤¸à¤°
à¤¡ à¤ªà¤¬
à¤Ń à¤²à¤²
à¤Ń à¤¬à¤¹
à¤Ń à¤ĩà¤¹
à¤ī à¤Łà¤°
à¤ī à¤¥à¤²
à¤ī à¤¥à¤µ
à¤ĸ à¤°à¤¤
à¤ĸ à¤ľà¤¸
à¤ĸ à¤¨à¤µ
à¤ĸ à¤ķà¤¸
à¤ĸ à¤¨à¤¸à¤®
Ġà¤¸à¤® à¤µà¤°
à¤ĩ à¤¥
à¤ĩ à¤Ľ
à¤ĩ à¤ľà¤¨
à¤ĩ à¤Łà¤¨
à¤ĩ à¤µà¤Ł
à¤ĩ à¤Ļà¤¸
Ġà¤Ńà¤¨ à¤ķ
à¤¹à¤° à¤ª
à¤°à¤® à¤¶à¤ķ
Ġà¤ļ à¤°à¤¨
Ġà¤ļ à¤¹à¤²
Ġà¤ļ à¤īà¤°
à¤« à¤²à¤¬
Ġà¤¥ à¤µ
à¤īà¤¨ à¤ªà¤°
Ġà¤ı à¤²à¤¨
Ġà¤ı à¤Ĩà¤°
Ġà¤ı à¤Ĩà¤ĩà¤Ł
à¤°à¤¤ à¤¬à¤¨
Ġà¤ĸ à¤°à¤²
Ġà¤ĸ à¤µà¤°
à¤¨à¤ķ à¤²
à¤¨à¤ķ à¤¤
Ġà¤¶ à¤Ń
Ġà¤¶ à¤¨à¤®
Ġà¤¶ à¤¶à¤°
Ġà¤¶ à¤¹à¤µ
à¤¾à¤ģ (
à¤¾à¤ģ ?
à¤¾à¤ģ à¥Ī,
Ġà¤ħà¤¨ à¤¦
Ġà¤ħà¤¨ à¤¬
à¤ł à¤¯
à¤¸à¤ķ à¤¸à¤¹
Ġà¤« à¤°à¤®
Ġà¤« à¤²à¤®
à¤°à¤£ à¤¨
à¤°à¤£ à¤µà¤¸
à¤ªà¤° à¤Ń
ĠâĢ ¢
à¤ľà¤¨ à¤¸à¤°à¤ķ
à¥¦ à¥«
à¥¦ à¥ª
à¥¦ à¥©
à¤ĺ à¤¡
à¤ĺ à¤¨à¤²
à¤ĺ à¤°à¤¸
Ġà¤¸à¤ķ à¤¸à¤®
Ġà¤ľà¤¨ à¤¦
à¤¯à¤® à¤°
à¤¯à¤® à¤£
à¤¯à¤® à¤¸à¤®
à¤¯à¤® à¤¤à¤°
Ġà¤°à¤¹ à¤¯
Ġà¤¯à¤¸ à¤Ń
à¤°à¤¹ à¤°à¤ķ
à¤°à¤¹ à¤ªà¤Ľ
à¤°à¤¹ à¤¸à¤¨
à¤°à¤¹ à¤¦à¤¶
Ġà¤®à¤¹ à¤Ļ
Ġà¤ıà¤ķ à¤ĸ
Ġà¤ıà¤ķ à¤¢
à¤¯à¤¸ à¤ŀ
Ġà¤§ à¤°à¤¤
Ġà¤§ à¤µà¤²
Ġà¤§ à¤¨à¤µ
à¤Ļ à¤¥
à¤Ļ à¤¡
à¤Ļ à¤Ń
à¤Ļ à¤®à¤¸
à¤Ļ à¤«à¤¸
à¤ŀ à¤®
à¤ŀ à¤¬à¤¹
à¤ªà¤¨ à¤¦
à¤ªà¤¨ à¤µ
à¤ªà¤¨ à¤ªà¤Ľ
à¤¯à¤¤ à¤Ńà¤¨
à¤²à¤® à¤¯
Ġà¤¸à¤¹ à¤Ĩà¤¯
à¤¤à¤° à¤¯
à¤¤à¤° à¤ĺ
à¤¤à¤° à¤Ńà¤¨
à¤¤à¤° à¤Ĩ
Ġà¤¡ à¤°à¤®
Ġà¤īà¤ª à¤ľà¤²
à¤°à¤¦ à¤²
à¤°à¤¦ à¤¶
à¤ĩà¤¨ à¤°à¤¹à¤°
à¤ĩà¤¨ à¤ľà¤¸
à¥ģà¤ģ âĢĻ
Ġà¤ķà¤® à¤²à¤¸
Ġà¤ķà¤® à¤²à¤¬à¤¹
à¤ħ à¤¨à¤¨
à¤ħ à¤¸à¤¦
à¤ħ à¤°à¤¨
à¤ªà¤¤ à¤¨
à¤ķà¤² à¤Ŀ
Ġà¤®à¤¨ à¤°
Ġà¤®à¤¨ à¤¶
Ġà¤®à¤¨ à¤Ĺà¤£à¤¨
Ġà¤²à¤Ĺ à¤¨
Ġà¤²à¤Ĺ à¤¤à¤®
Ġà¤²à¤Ĺ à¤¨à¤Ĺ
Ġà¤ĩ à¤Ĺ
Ġà¤ĩ à¤²à¤ķ
Ġà¤ĩ à¤µà¤¨
Ġà¤ĩ à¤¶à¤¨
Ġà¤ĩ à¤¦à¤²
Ġà¤ĩ à¤ıà¤ļà¤ıà¤¸
à¤¯à¤¨ à¤¸à¤®
à¤¬à¤¨ à¤¸
à¤¬à¤¨ à¤¬
à¤®à¤ķ à¤¹
Ġà¤Ńà¤ı à¤°à¤®
Ġà¤Ńà¤ı à¤īà¤ª
à¤°à¤µ à¤ľ
à¤°à¤µ à¤§
à¤Łà¤ķ à¤ĺà¤°
à¤Łà¤ķ à¤ĺà¤°à¤²
à¤¶à¤ķ à¤°
à¤Ĺà¤¤ à¤¹à¤°
à¤µà¤¨ à¤µ
à¤µà¤¨ à¤Ĺ
à¤·à¤£ à¤¸à¤¹
Ġà¤ħà¤Ń à¤¦
à¤¸à¤¨ à¤¤à¤°
à¤¸à¤¨ à¤¯à¤¨
à¤¸à¤¨ à¤ľà¤¸
à¤¸à¤¨ à¤¸à¤¹
à¤¸à¤¨ à¤ªà¤Ł
à¤¤à¤¨ à¤Ĺà¤°
à¤Ĩ à¤ļ
à¤Ĩ à¤Ĺà¤¨
Ġà¤Ĩà¤° à¤¨
Ġà¤Ĩà¤° à¤Ī
Ġà¤¬à¤¸ à¤¸
à¤²à¤¨ à¤¦
à¤¨à¤¨ à¤¨
à¤ķà¤ķ à¤ķ
à¤®à¤¤ à¤ª
à¤®à¤¤ à¤ªà¤Ľ
Ġà¤¸à¤¨ à¤¬
Ġ? âĢĿ
Ġà¤Ĺà¤¤ à¤¸
à¤łà¤® à¤¡
à¤ªà¤ķ à¤¸
à¤ªà¤ķ à¤ª
à¥Įà¤ģ à¤ģ
à¤¤à¤® à¤¯
à¥ĩà¥¤ '
à¤®à¤¨ à¤¦
à¤®à¤¨ à¤Ĺà¤°à¤®
Ġà¤ĵ à¤ķà¤²
Ġà¤ĵ à¤®à¤ķ
Ġà¤ĵ à¤ıà¤¨à¤ıà¤®
Ġà¤¬à¤ľ à¤Ĺ
Ġà¤Ŀ à¤ª
à¤ĥ ,
à¤ĥ âĢĻ
à¤¦à¤¨ à¤¤à¤°
à¤¦à¤¨ à¤ªà¤¤
à¤¦à¤¨ à¤Ńà¤¨
à¤¦à¤¨ à¤īà¤ªà¤°
Ġà¤¨à¤Ĺà¤° à¤¸
Ġà¤ªà¤ķ à¤¡à¤®
à¤°à¤®à¤£ à¤ª
à¤°à¤®à¤£ à¤Ńà¤¨
Ġà¤¸à¤¯ à¤°
Ġà¤¸à¤¯ à¤µà¤°
à¤°à¤Ń à¤°à¤¬
à¤¡à¤ķ à¤¹à¤°
à¤¤à¤² à¤¤
à¤ķà¤°à¤£ à¤Ń
à¤ķà¤°à¤£ à¤ľà¤¸
à¤²à¤¯ à¤µ
à¤ľà¤ķ à¤¸à¤®
Ġà¥¬ à¥§à¥¨
à¤§à¤¨ à¤Ń
à¤§à¤¨ à¤ªà¤¤
à¥© à¥¨
à¥© à¥¯
Ġà¤ªà¤¦ à¤¬à¤¹
Ġà¤ħà¤¬ à¤§
Ġà¤ħà¤¬ à¤§à¤ķ
Ġà¤ħà¤¬ à¤īà¤ª
Ġà¤ķà¤² à¤°à¤®
à¤¶à¤¨ à¤µ
à¤¶à¤¨ à¤°à¤¤
Ġà¤Ĩà¤ĩ à¤ķ
à¤¯à¤° à¤¸à¤®
Ġà¤ħà¤µ à¤¯
Ġà¤Ĩà¤īà¤¨ à¤ķ
Ġà¤¤à¤¹ à¤Ńà¤¨
Ġà¤ĩà¤¨ à¤«
à¤ĵ à¤¹à¤°
à¤ĵ à¤Ĩà¤ĩà¤ª
Ġà¤¹à¤° à¤°
Ġà¤¹à¤° à¤ª
Ġà¤Ķ à¤°
à¤¬à¤° à¤Ńà¤¨
ĠâĢĵ âĢĺ
à¤¶à¤¤ à¤Ń
Ġà¤ıà¤® à¤ıà¤²à¤ķ
à¤¹à¤¨ à¤¬
à¤¹à¤¨ à¤¬à¤¹
à¤¹à¤¨ à¤¶à¤®à¤¶
Ġà¤ĺà¤° à¤Ĩ
à¥® à¥¯
Ġà¤¬à¤² à¤¦
Ġà¤¬à¤² à¤ľà¤«
à¤Łà¤² à¤¸à¤®
Ġà¥§à¥¦ à¥¬
Ġà¤¸à¤¤ à¤¹à¤¬
Ġà¤ıà¤¨ à¤Ń
à¤£à¤¯ à¤¬à¤®
à¤ļà¤ķ à¤¸à¤®
à¤Ńà¤µ à¤ª
à¤¨à¤µ à¤°à¤¹
Ġà¤Ĳ à¤¯à¤°
Ġà¤Ĳ à¤¨à¤¬
Ġà¤Ĳ à¤¨à¤¬à¤®
à¤·à¤¦ à¤¸
Ġà¤Ńà¤° à¤¸à¤ķ
à¤µà¤ª à¤ŀ
Ġà¤ħà¤² à¤µ
à¤¡à¤® à¤Ľ
à¤¡à¤® à¤£
à¤¯à¤¸à¤® à¤ķ
à¤¨à¤¬ à¤¸
Ġà¤ħà¤« à¤°à¤ķ
Ġà¤ıà¤¸ à¤Ł
Ġà¤ıà¤¸ à¤¬
Ġà¤ıà¤¸ à¤Ń
Ġà¤ıà¤¸ à¤ıà¤¸
Ġà¤ıà¤¸ à¤ĵà¤ıà¤¸
Ġà¤¸à¤¡à¤ķ à¤Ľ
Ġà¤Ĩà¤® à¤ª
Ġà¤Ĩà¤® à¤ľà¤¨à¤®
Ġà¤Ĩà¤® à¤īà¤ªà¤Ń
à¤¦à¤² à¤¹à¤°
à¤¾à¥ĩ à¤Ĥ
à¤µà¤¤ à¤¨à¤²
Ġà¥§à¥¯ à¥§
Ġà¥§à¥¯ à¥¨à¥¦
Ġà¥§à¥¯ à¥§à¥§
Ġà¥§à¥¯ à¥§à¥¬
à¤°à¤ª à¤¥à¤®
Ġà¤Ľà¤²à¤«à¤² à¤¹à¤°
Ġà¤¨à¤ª à¤¸
Ġà¥§à¥« à¥«
Ġà¥§à¥« à¥ª
à¤¡à¤² à¤°
à¤ķà¤¸ à¤ªà¤®
Ġà¥«à¥¦ à¥¦à¥¦
à¤µà¤¯à¤¨ à¤¸à¤®
à¤ĩà¤Ł à¤¨à¤²
Ġà¤«à¤°à¤ķ à¤ķ
à¤ıà¤® à¤ıà¤ķ
à¤ıà¤® à¤¡
à¤®à¤¸ à¤¨à¤²
à¤®à¤¸ à¤Ļà¤ķ
Ġà¤¸à¤¹à¤° à¤Ńà¤¨
Ġà¥§à¥§ à¥Ń
Ġà¥§à¥§ à¥ª
à¤ªà¤£ à¤µ
Ġà¤Ĺà¤£ à¤µ
à¤·à¤§ à¤°à¤¹à¤°
à¤ķà¤Ł à¤Ĺ
à¤ľà¤¯ à¤ľ
à¤ľà¤¯ à¤¬à¤¹
Ġà¤°à¤¨ à¤Ń
Ġà¤Ĺà¤® à¤Ĺà¤¢
à¤ļà¤² à¤¨à¤²
à¤ıà¤² à¤ĵ
à¤¸à¤¨à¤² à¤¸
Ġà¥§à¥® à¥¯à¥«
Ġà¤ľà¤¨à¤ķ à¤Ļ
Ġà¤ıà¤¨à¤Ĩà¤°à¤ıà¤¨ à¤Ń
à¥ģà¥¤ âĢĺ
à¤ĺà¤° à¤ĺà¤°à¤®
à¤µà¤¦ à¤¹
Ġà¥§à¥¬ à¥§
Ġà¥§à¥¬ à¥ª
Ġà¥§à¥ª à¥Ń
Ġà¥§à¥ª à¥¬
Ġà¥§à¥ª à¥ª
à¤ĩà¤¨à¤² à¤²
à¤ĩà¤¨à¤² à¤Ĺ
à¤ļà¤° à¤°
ĠĠĠĠ Ġ
Ġà¤Ĭ à¤¬
à¤¤à¤°à¤ķ à¤¹à¤°
à¤¸à¤¨à¤ķ à¤°
Ġà¥§à¥© à¥Ń
Ġà¤¨à¤µ à¤§à¤¨
à¤ĩà¤¸ à¤°à¤ķ
Ġà¤Ĩà¤ł à¤°
Ġà¥¨à¥§ à¥§
Ġà¥¨à¥§ à¥Ń
Ġà¥¨à¥§ à¥¬
Ġà¤¦à¤¶ à¤Ĺà¤ľ
Ġà¤®à¤¦ à¤ķà¤ķ
Ġà¥§à¥Ń à¥Ń
Ġà¥§à¥Ń à¥¬
Ġà¥§à¥Ń à¥®
Ġà¥§à¥Ń à¥¯
Ġà¥§à¥Ń à¥¬à¥®
Ġà¤ķà¤Ł à¤Ĩà¤īà¤Ł
Ġà¤ħà¤¸à¤° à¤«
Ġà¤ħà¤ķ à¤¬à¤°
Ġà¤«à¤² à¤ª
à¤ĩà¤¡ à¤¸
à¤ķà¤¬ à¤¡
à¤°à¤ĸ à¤ª
Ġà¥¨à¥ª à¥§
Ġà¥¨à¥ª à¥¨
à¤¾) âĢĵ
à¤¦à¤¨à¤® à¤§
à¥¨à¥¦ à¥§à¥«
à¥¨à¥¦ à¥Ńà¥¨
à¤ľà¤¤ à¤ªà¤¤
à¤ªà¤Ł à¤¨à¤ķ
à¤ªà¤Ł à¤ªà¤ķ
à¤ªà¤Ł à¤ªà¤²
à¤¯à¤Ł à¤ķà¤®
à¤¯à¤Ł à¤¨à¤ķà¤°
à¤¯à¤Ł à¤ķà¤®à¤§
à¤ĩà¤ª à¤¬
Ġà¥¨à¥© à¥¨
Ġà¤ľà¤² à¤¶
Ġà¤ľà¤² à¤ļà¤°à¤¹à¤°
Ġà¤ĭà¤£ à¤¸à¤®
Ġà¥¨à¥Ń à¥¬
Ġà¥¨à¥Ń à¥¦à¥¦
Ġà¤ħà¤ľ à¤¯à¤®
Ġà¤ħà¤ľ à¤°à¤¬
Ġà¥¨à¥¬ à¥¦à¥¦
Ġà¤ĸà¤Ł à¤ªà¤Łà¤²
à¤Łà¤°à¤ķ à¤¨
Ġà¥©à¥© à¥¦
à¤Łà¤¸ à¤²à¤ķ
à¤Łà¤¸ à¤²à¤®
à¤ĩà¤Ń à¤°à¤²
à¤ıà¤« à¤Ł
Ġà¤Ĩà¤Ī à¤¸à¤ķ
Ġà¤Ĩà¤Ī à¤ıà¤®à¤Ī
à¤¹à¤¦ à¤¸à¤®
Ġà¥©à¥§ à¥¦
à¤¿? âĢĻ
à¤ªà¤ª à¤¶
à¤°à¤®à¤£à¤² à¤Ĺà¤¤
à¤ªà¤¹ à¤ª
Ġà¤ľà¤¨à¤¸à¤® à¤ķ
à¤ĩà¤¬ à¤²à¤ķ
à¤ĩà¤¬ à¤²à¤®
à¤ĩà¤¬ à¤°à¤¬
à¤Ĩà¤Ī à¤ı
à¤Ĩà¤Ī à¤¬
à¤ħà¤ª à¤µ
Ġà¤ıà¤« à¤¸
Ġà¤ļà¤ķ à¤ļà¤ķ
à¤Łà¤°à¤² à¤Ĺ
Ġà¥«à¥« à¥«
Ġà¤¤à¤²à¤¬ à¤ķ
Ġà¤ħà¤µà¤¶ à¤°
à¤¤à¤µà¤¨ à¤¬
Ġà¤°à¤Ĺà¤¤ à¤²
Ġà¤¨à¤¸ à¤¹à¤¨
Ġà¤Ŀà¤² à¤Ŀà¤²
Ġà¥«à¥§ à¥¨
Ġà¤Ńà¤°à¤¤ à¤µ
Ġà¥¨à¥¦à¥© à¥Ń
Ġà¤ļà¤°à¤£ à¤¹à¤°
Ġà¤Ĩà¤īà¤Ł à¤¸
Ġà¤Ĩà¤īà¤Ł à¤¡
Ġà¤ĵà¤ª à¤¨à¤®
à¤Ĩà¤ľ à¤¸à¤®
Ġà¥©à¥ª à¥¯
Ġà¥¨à¥¦à¥¨ à¥¯
à¤ĩà¤ı à¤¬
à¤ĩà¤ı à¤Ľ
à¤°à¤ļà¤²à¤¨ à¤ħà¤¨
Ġà¤ĸà¤ªà¤¤ à¤²
à¤µà¤°à¤® à¤§
Ġà¥«à¥¬ à¥¦
Ġà¤¨à¤Ĺ à¤ıà¤°
Ġà¤¨à¤Ĺ à¤ıà¤ªà¤Ľ
Ġà¤¨à¤Ĺ à¤¦à¤®
à¤ħà¤¸ à¤«à¤²
à¤ħà¤¸ à¤«à¤²à¤¤
à¤·à¤¸ à¤°à¤¹
Ġà¤¹à¤Ļà¤ķ à¤Ļà¤¬
Ġà¥¬à¥¬ à¥¬
à¤Ĩà¤ĩ à¤ıà¤®
Ġà¥§à¥¯à¥® à¥Ń
à¤¨à¤Ľ à¤ķ
Ġà¤ħà¤«à¤° à¤ħà¤¨
à¤°à¤¨à¤Ĺà¤° à¤¸à¤®
Ġà¤Ĩà¤ĩà¤ıà¤® à¤ıà¤¸
Ġà¥Ńà¥Ń à¥Ń
Ġà¥§à¥¯à¥¬ à¥Ń
Ġà¥¦à¥¬ à¥§
Ġà¤¸à¤¨à¤® à¤ķ
Ġà¥§à¥¯à¥ª à¥«
Ġà¥§à¥¯à¥ª à¥¬
Ġà¤Ĺà¤« à¤Ĺ
Ġà¤ħà¤®à¤° à¤Ĺà¤¢
Ġà¤°à¤¥ à¤¯
à¤Ķà¤·à¤§ à¤¸à¤¹
Ġà¤²à¤¹à¤° à¤®
Ġà¤Ĩà¤ĩà¤¨ à¤¸à¤ķ
à¥įâĢº à¤¿
Ġà¤²à¤ĸ à¤¨à¤ª
Ġà¥¦à¥ª à¥Ń
à¤ªm à¤¬
à¥¦à¥Ń à¥¨
à¥¦à¥Ń à¥©
Ġà¤®à¤Ĺ à¤¹
Ġà¤¹à¤¦ à¤¬à¤¨
à¥ªà¥« à¥¬
Ġà¤ıà¤¯à¤°à¤ķ à¤¨
Ġà¤ıà¤®à¤ı à¤ıà¤ļ
Ġà¤¹à¤µà¤² à¤¦
Ġà¤¨à¤¹à¤° à¤¬
Ġà¤¬à¤ĸ à¤¤à¤®
or e
or g
Ġw ith
Ġà¤Ĩà¤ĩà¤ĵ à¤ıà¤®
Ġà¤Ĩà¤ĩà¤ĵ à¤ıà¤®à¤²
à¤¸à¤¡ à¤ķà¤®
Ġà¤¦à¤¸à¤ķ à¤®
en d
Ġà¤µà¤¯ à¤·
à¤¸à¤ı à¤ªà¤²
âĢį à¥ĭ
Ġà¤ĸà¤Łà¤¨ à¤ªà¤Łà¤¨à¤®
Ġà¤ĸà¤Łà¤¨ à¤ªà¤Łà¤¨
Ġà¤ıà¤¨à¤Ĩ à¤ıà¤¨à¤ı
il l
Ġ1 23
à¤ĭ à¤·
à¤¦à¤¹ à¤¡à¤¤
Ġà¤¨à¤¯à¤¨ à¤°
Ġà¤¬à¤¬à¤°à¤® à¤¹à¤²
à¤Ľà¤² à¤«à¤²
à¤ıà¤²à¤ı à¤ıà¤¸à¤¸
à¤¨à¤µà¤² à¤ªà¤°
Ġà¤ıà¤«à¤Ĩà¤Ī à¤Ĩà¤°
Ġà¤ľà¤µà¤° à¤ľà¤¸
Ġà¤ıà¤¸à¤Ī à¤Ī
Ġà¤Īà¤Ļà¤ĺ à¤Ļ
Ġà¤¸à¤°à¤® à¤¥à¤²
âĢ² ,
Ġà¤²à¤¸à¤ª à¤¸
à¤ļà¤Ĺà¤®à¤¨ à¤¤
à¤¤à¤°à¤Ĩ à¤¬à¤¦
Ġà¤ķà¤Łà¤Ĩà¤īà¤Ł à¤¸
4 5
6 7
a c
b ass
c e
e f
e m
g o
g ma
i g
l o
m e
m à¤¯
p p
r ad
t e
u J
u k
v e
º à¥ĭ
Ġ B
Ġ N
Ġ Q
Ġ S
Ġ W
Ġ c
Ġ à¥ĩ
Ġ an
Ġ re
Ġ nep
ŀ à¥ģ
Ġà¤ ¿
à¤¾ à¥Ī,
à¤¾ âĢĮà¤Ĥ
à¥į -
à¥į à¥Į
à¥į à¥įà¥¤
à¥į à¥Įà¤Ĥà¥¤
à¥į ...âĢĻ
à¤° à¤ıà¤ķ
à¤° à¤¯à¤¸
à¤° à¤ªà¤ķ
à¤° à¤°à¤®à¤£
à¤° à¤ĸà¤ķ
à¤° à¤Ĺà¤®à¤¨
à¤° à¤¥à¤°
à¤° mà¤®
à¤¨ à¤ĩ
à¤¨ à¤īà¤¨
à¤¨ à¤µà¤¨
à¤¨ à¤ļà¤¨
à¤¨ à¤¹à¤¨
à¤¨ à¤Ńà¤µ
à¤¨ à¤§à¤°
à¤¨ à¤ĺà¤°
à¤¨ à¤ĵà¤Ńà¤°
à¤¿ âĢĿ
à¤¿ âĢĺ
à¤¿ âĢľ
à¤ķ à¤µà¤¸
à¤ķ à¤Ĺà¤¤
à¤ķ à¤¸à¤¨
à¤ķ à¤§à¤®
à¥ĩ à¥ĥ
à¥ĭ .
à¥ĭ à¥ĩ,
à¥ĭ à¤ĥ
à¥ĭ ...
à¥ĭ à¥ĩà¥¤âĢĻ
à¤² à¤£
à¤² à¤Ĺà¤°
à¤² à¤ªà¤®
à¤² à¤Łà¤ķ
à¤² à¤°à¤¹à¤°
à¤² à¤Ĺà¤®
à¤² à¤¹à¤¨
à¤² à¤ĸà¤¨
à¤² à¤ħà¤¸
à¤® à¤¡
à¤® à¤ł
à¤® à¤ªà¤°
à¤® à¤¯à¤®
à¤® à¤Ńà¤°
à¤® à¤¹à¤ķ
à¤® à¤ªà¤Łà¤ķ
à¤® à¤¹à¤²
à¤® à¤¶à¤®à¤¶
à¤® à¤Ĩà¤²
à¤¤ à¤·
à¤¤ à¤Ľà¤¨
à¤¤ à¤¸à¤°
à¤¤ à¤Ńà¤ıà¤ķ
à¤¤ à¤¹à¤®
à¤¤ à¤ľà¤¨à¤²
à¤¤ à¤¸à¤®à¤ķ
à¤¯ à¤·
à¤¯ à¤īà¤¨
à¤¯ à¤¯à¤®
à¤¯ à¤°à¤¹
à¤¯ à¤¡à¤®
à¤¯ à¤ıà¤¸
à¥ģ '
à¥ģ à¤¾
à¥ģ à¥ģà¤Ĥ
à¥Ģ ...âĢĻ
à¤¸ à¤¯à¤¤
à¤¸ à¤¹à¤ķ
à¤¸ à¤¸à¤¬
à¤¸ à¤¡à¤°
à¤¸ à¤Ĺà¤¨
à¤¸ à¤¶à¤¸
à¤¸ à¤ľà¤¨à¤²
Ġà¤¸ à¤Łà¤°
Ġà¤¸ à¤¸à¤°
Ġà¤¸ à¤ĺà¤°
Ġà¤ª à¤¥à¤ķ
Ġà¤ª à¤µà¤¨à¤²
à¤ª à¤¯à¤¤
à¤ª à¤¤à¤°
à¤ª à¤¶à¤ķ
à¤ª à¤²à¤¬
à¤ª à¤ħà¤°
à¤¦ à¤ľ
à¤¦ à¤°à¤¦
à¤¦ à¤ķà¤®
à¤¦ à¤¶à¤ķ
à¤¦ à¤¶à¤®
à¤¦ à¤¯à¤µ
à¤¦ à¤¬à¤¸
à¤¹ à¤¥
à¤¹ à¤Łà¤ķ
à¤¹ à¤¸à¤²
à¤¹ à¤Ńà¤¨
à¤¹ à¤Łà¤®
à¤¹ à¤¸à¤¹
à¤¹ à¤²à¤¸
à¤¹ à¤¬à¤°à¤®
à¤¹ à¤¨à¤ķà¤°
à¤¹ à¤ħà¤Ĺ
à¤µ à¤Ļ
à¤µ à¤¯à¤¤
à¤µ à¤°à¤µ
à¤µ à¤¡à¤ķ
à¤µ à¤£à¤²
à¤µ à¤ľà¤¹à¤°
à¤µ à¤īà¤ªà¤°
à¤µ à¤ħà¤²à¤°
à¥¤ à¥¤
Ġà¤ķ à¤Ĺ
Ġà¤ķ à¤°à¤¤
Ġà¤ķ à¤ķà¤²
Ġà¤ķ à¤²à¤²
Ġà¤ķ à¤¦à¤ķ
Ġà¤ķ à¤ľà¤°
Ġà¤ķ à¤°à¤£à¤²
Ġà¤ķ à¤ļà¤²
Ġà¤ķ à¤«à¤°
Ġà¤ķ à¤²à¤ķà¤²
Ġà¤Ĺ à¤ıà¤¸
Ġà¤Ĺ à¤ĩà¤¦
Ġà¤Ĺ à¤ĩà¤°
Ġà¤Ĺ à¤ĩà¤¸
Ġà¤Ĺ à¤ĩà¤¯
Ġà¤Ĺ à¤²à¤¤à¤²
à¤Ĺ à¤ıà¤ķ
à¤Ĺ à¤ķà¤®
à¤Ĺ à¤µà¤¨
à¤Ĺ à¤£à¤ķ
à¤Ĺ à¤¨à¤ª
à¤Ĺ à¤¸à¤®à¤ķ
à¥Ī '
à¥Ī à¥Īà¤Ĥ
à¥Ī âĢĮ
Ġà¤° à¤Ń
Ġà¤° à¤¸à¤¦
Ġà¤° à¤ľà¤¸
Ġà¤° à¤¥à¤®
Ġà¤° à¤Ļà¤®
Ġà¤¨ à¤ĩ
Ġà¤¨ à¤µà¤®
Ġà¤¨ à¤ľà¤²
Ġà¤¨ à¤īà¤¤
Ġà¤¨ à¤īà¤¡
à¤Ł à¤ĸ
à¤Ł à¤Ļ
à¤Ł à¤ļà¤¨
à¤Ł à¤µà¤ķ
à¤Ł à¤¬à¤¹
à¤Ł à¤ªà¤Ł
à¤Ł à¤¹à¤Ł
à¤Ł à¤īà¤ªà¤Ĺ
à¤ı à¤ı
à¤ı à¤ŀ
à¤ı à¤¯à¤¤
à¤ı à¤Łà¤®
à¤ı à¤¯à¤°
à¤ı à¤Ńà¤°
à¤ı à¤ıà¤²
à¤ı à¤ıà¤«
à¤ı à¤Ĩà¤ĩà¤ľ
à¤ı à¤ıà¤«à¤ª
à¤ı à¤Ĩà¤°à¤²
Ġà¤Ń à¤¯à¤®
Ġà¤Ń à¤ĩà¤¸
Ġà¤ħ à¤ıà¤ķ
Ġà¤ħ à¤ªà¤¤
Ġà¤ħ à¤®à¤¤
Ġà¤ħ à¤¡à¤ķ
Ġà¤ħ à¤ļà¤²
Ġà¤ħ à¤¡à¤°
Ġà¤ħ à¤Łà¤µ
Ġà¤¬ à¤µ
Ġà¤¬ à¤°à¤£
Ġà¤¬ à¤®à¤²
Ġà¤¬ à¤°à¤¬à¤°
Ġà¤¬ à¤¬à¤Īà¤®
Ġà¤¹ à¤¥
Ġà¤¹ à¤°à¤¦à¤®
Ġà¤® à¤¸à¤ķ
Ġà¤® à¤²à¤¬
Ġà¤® à¤ķà¤°
Ġà¤® à¤Ĺà¤¨
à¤ľ à¤ĺ
à¤ľ à¤¬à¤¨
à¤ľ à¤µà¤ķ
à¤ľ à¤®à¤®
à¤ľ à¤¯à¤°
à¤ľ à¤Ĺà¤®
à¤ľ à¤īà¤¡
à¤ľ à¤¸à¤®à¤ķ
à¤ľ Ãŀ
Ġà¤µ à¤£
Ġà¤µ à¤¨à¤¤
à¤¬ à¤¶
à¤¬ à¤ĺ
à¤¬ à¤°à¤¹
à¤¬ à¤Ļ
à¤¬ à¤¸à¤²
à¤¬ à¤°à¤¹à¤°
à¤¬ à¤¦à¤¨
à¤¬ à¤ĩà¤²
à¤¬ à¤®à¤§
à¤¬ à¤ľà¤°
à¤¬ à¤¸à¤ª
à¤· à¤¶
à¤· à¤ļ
à¤· à¤ªà¤¤
à¤· à¤µà¤°
à¤· à¤ķà¤°
à¤· à¤®à¤²
à¤· à¤ľà¤¤
à¤· à¤°à¤ķà¤°
à¤· à¤¯à¤¸à¤¹
à¤§ à¤¦
à¤§ à¤ľ
à¤§ à¤²à¤Ĺ
à¤§ à¤Ńà¤ķ
à¤§ à¤¯à¤ķà¤®
à¤§ à¤¶à¤®à¤¶
à¤§ à¤°à¤£à¤¹à¤°
Ġà¤Ľ à¤ł
Ġà¤Ľ à¤Ļ
Ġà¤Ľ à¤®à¤¤
Ġà¤Ľ à¤ªà¤ķ
Ġà¤¤ à¤ķ
Ġà¤¤ à¤¡
Ġà¤¤ à¤¬à¤²
Ġà¤¤ à¤®à¤¸
à¤ģ )
à¤ģ âĢĻ,
Ġà¤¦ à¤¹à¤¤
à¤ıà¤ķ à¤°
à¤¥ à¤¦
à¤¥ à¤°à¤®
à¤¥ à¤®à¤ķ
à¤¥ à¤µà¤¤
à¤¥ à¤ķà¤¸
à¤¶ à¤£
à¤¶ à¤ļ
à¤¶ à¤Ļ
à¤¶ à¤¬à¤¨
à¤¶ à¤®à¤ķ
à¤¶ à¤µà¤²
à¤¶ à¤µà¤ª
à¤¶ à¤¯à¤ª
à¤Ĥ à¤¾
Ġà¤Ĩ à¤¥
Ġà¤Ĩ à¤¸à¤®
Ġà¤Ĩ à¤ªà¤¨
Ġà¤Ĩ à¤¯à¤¨
Ġà¤Ĩ à¤®à¤ķ
Ġà¤Ĩ à¤ĵ
Ġà¤Ĩ à¤²à¤¸
Ġà¤Ĩ à¤ļà¤°
Ġà¤Ĩ à¤¡à¤µ
Ġà¤Ĩ à¤Ĺà¤®à¤¨à¤ķ
Ġà¤Ĩ à¤Ĩà¤ª
Ġà¤ľ à¤®à¤ķ
Ġà¤ľ à¤ľà¤¸à¤²
à¤Ľ à¤®
à¤Ľ à¤ª
à¤Ľ à¤²à¤«
à¤£ à¤¹
à¤£ à¤ľ
à¤£ à¤Ĺà¤°
à¤£ à¤ķà¤°
Ġà¤² à¤ª
Ġà¤² à¤Ł
Ġà¤² à¤²à¤ķ
Ġà¤² à¤Łà¤ķ
Ġà¤² à¤¯à¤²
Ġà¤² à¤ķà¤°
Ġà¤² à¤¤à¤¬
Ġà¤² à¤µà¤ľ
Ġà¤² à¤°à¤¤à¤°
à¤ļ à¤Ł
à¤ļ à¤ľ
à¤ļ à¤«
à¤ļ à¤¯à¤¸
à¤ļ à¤¯à¤¨
à¤ļ à¤²à¤¬
à¤ļ à¤°à¤£à¤®
à¤ļ à¤®à¤§
à¤ļ à¤ķà¤®à¤§
à¤Ī à¤¹
à¤Ī à¤Łà¤ķ
à¤Ī à¤¤à¤²
à¤Ī à¤ĵ
à¤Ī à¤ľà¤²
à¤Ī à¤¬à¤¸
à¤Ī à¤¨à¤²à¤ķ
à¥Ĥ à¥¤âĢĿ
à¤¡ à¤·
à¤¡ à¤ĸ
à¤¡ à¤ªà¤Ľ
à¤¡ à¤¸à¤¨
à¤¡ à¤®à¤²
à¤¡ à¤¨à¤¦
à¤¡ à¤ħà¤ª
à¤¡ à¤ħà¤²à¤²
à¤Ń à¤£
à¤Ń à¤ľà¤¨
à¤Ń à¤ıà¤°
à¤Ń à¤®à¤§
à¤ī à¤°à¤®
à¤ī à¤ªà¤¸
à¤ī à¤¡à¤¬
à¤ĸ à¤¯
à¤ĸ à¤ľ
à¤ĸ à¤ķà¤®
à¤ĸ à¤°à¤¬
à¤ĸ à¤®à¤¨
à¤ĸ à¤¦à¤°
à¤ĸ à¤²à¤¤
à¤ĸ à¤²à¤¨à¤ķ
Ġà¤¯ à¤°
Ġà¤¸à¤® à¤§
Ġà¤¸à¤® à¤¶
Ġà¤¸à¤® à¤Ń
à¤ĩ à¤ķà¤®
à¤ĩ à¤µà¤°
à¤ĩ à¤®à¤®
à¤ĩ à¤¸à¤¬
à¤ĩ à¤«à¤ķ
à¤ĩ à¤Ĺà¤°à¤ķ
à¤°à¤ķ à¤¨
à¤°à¤ķ à¤¬
à¤°à¤ķ à¤°à¤ķ
à¤°à¤ķ à¤Łà¤¨
à¤°à¤ķ à¤¤à¤¤
à¤¹à¤° à¤¸
à¤¹à¤° à¤¬
à¤¹à¤° à¤£à¤¸
à¤°à¤® à¤°à¤¤
à¤°à¤® à¤®à¤¨
à¤°à¤® à¤ľà¤¸
à¤°à¤® à¤ħà¤ĺ
Ġà¤ļ à¤¡
Ġà¤ļ à¤¹à¤°
Ġà¤ļ à¤µà¤¨
Ġà¤ļ à¤°à¤£à¤²
Ġà¤ļ à¤ķà¤Ł
Ġà¤ļ à¤īà¤°à¤®
à¤« à¤¸à¤®
à¤« à¤ªà¤Ľ
à¤« à¤°à¤¹à¤°
Ġà¤¥ à¤¹
Ġà¤¥ à¤ªà¤®
à¤īà¤¨ à¤ªà¤¨
à¤īà¤¨ à¤¤à¤°
à¥Į -
Ġà¤ı à¤¸à¤°
Ġà¤ı à¤ıà¤«
Ġà¤ı à¤Ĩà¤Ī
Ġà¤ı à¤ıà¤Ĩà¤°
Ġà¤ı à¤ĩà¤¬à¤°à¤²
Ġà¤ı à¤ĩà¤¬à¤°à¤ķ
Ġà¤ı à¤ħà¤°à¤²
Ġà¤ı à¤ıà¤Ĩà¤°à¤²
à¤¯à¤ķ à¤Ńà¤¨
à¤°à¤¤ à¤¶
à¤°à¤¤ à¤ªà¤Ľ
à¤°à¤¤ à¤²à¤Ĺ
Ġà¤ĸ à¤¤à¤®
Ġà¤ĸ à¤¬à¤°à¤®
à¤¨à¤ķ à¤ķ
à¤¨à¤ķ à¤ª
Ġà¤¶ à¤¦
Ġà¤¶ à¤¬à¤²
à¤¾à¤ģ âĢĻ,
Ġà¤ħà¤¨ à¤²à¤ķ
Ġà¤ħà¤¨ à¤°à¤²
Ġà¤ħà¤¨ à¤¸à¤¨
Ġà¤ħà¤¨ à¤¶à¤¨à¤¸
Ġà¤ªà¤° à¤ª
Ġà¤ªà¤° à¤¹
Ġà¤ªà¤° à¤«à¤°à¤®
à¤ł à¤µ
à¤ł à¤ľà¤¸
à¥ĥ âĢĻ,
à¥ĥ âĢĿ
à¤¸à¤ķ à¤µ
à¤¸à¤ķ à¤¸à¤ķ
à¤¸à¤ķ à¤¸à¤®
à¤¸à¤ķ à¤®à¤§
à¤°à¤£ à¤¦
à¤°à¤£ à¤ļ
à¤°à¤£ à¤ªà¤Ľ
à¤°à¤£ à¤¤à¤¯
à¤ªà¤° à¤¦
ĠâĢ ŀà¥ģ
à¤ľà¤¨ à¤µ
à¤ľà¤¨ à¤ļ
à¤ľà¤¨ à¤ľà¤¤
à¤ľà¤¨ à¤Ĩà¤¸
à¤¸à¤® à¤¬
à¤¨à¤® à¤ķ
à¤¨à¤® à¤®
à¤¨à¤® à¤¤
à¤µà¤¸ à¤¬
à¤µà¤¸ à¤§
à¥¦ à¥¨
ĠâĢĺ ...
à¤ĺ à¤°à¤¦
à¤ĺ à¤®à¤®
à¤¢ à¤µ
Ġà¤¸à¤ķ à¤¸à¤²
Ġà¤ľà¤¨ à¤ħà¤Ń
à¤¯à¤® à¤ªà¤Ľ
à¤¯à¤® à¤ľà¤¸
à¤¯à¤® à¤¨à¤¸à¤®
Ġà¤°à¤¹ à¤°à¤ķ
Ġà¤¯à¤¸ à¤ħà¤§
Ġà¤¯à¤¸ à¤ħà¤Ĺ
à¤°à¤¹ à¤¸
à¤°à¤¹ à¤¦
à¤°à¤¹ à¤¬
à¤°à¤¹ à¤¹à¤°
à¤°à¤¹ à¤ħà¤¨
Ġà¤®à¤¹ à¤¦
à¤²à¤ķ à¤Ńà¤°
Ġà¤ıà¤ķ à¤ł
Ġà¤ıà¤ķ à¤¤à¤²
Ġà¤ıà¤ķ à¤§à¤°
Ġà¤ıà¤ķ à¤¹à¤ª
Ġà¤ıà¤ķ à¤®à¤¤à¤²
Ġà¤Ł à¤Ł
Ġà¤Ł à¤¹à¤²
Ġà¤Ł à¤¨à¤¸à¤®
Ġà¤Ł à¤¨à¤Ńà¤¨
Ġà¤Ł à¤¸à¤®à¤¸
à¤¯à¤¸ à¤¨à¤®
à¤¯à¤¸ à¤µà¤°
à¤¯à¤¸ à¤ªà¤Łà¤ķ
à¤¯à¤¸ à¤ªà¤¶
Ġà¤§ à¤¤
Ġà¤§ à¤¨à¤¸
à¤Ļ à¤Ńà¤¨
à¤Ļ à¤ķà¤°
à¤Ļ à¤µà¤°à¤ķ
Ġà¤ĺ à¤¨à¤ķ
Ġà¤ĺ à¤®à¤¨
Ġà¤ĺ à¤¨à¤ª
Ġà¤ĺ à¤°à¤¤à¤°
à¤°à¤² à¤²
à¤ŀ à¤¦
à¤ŀ à¤¬
à¤ŀ à¤¶
à¤ªà¤¨ à¤¹à¤°
à¤¯à¤¤ à¤¤
à¤¯à¤¤ à¤¸à¤®
à¤¯à¤¤ à¤µà¤¸
à¤¯à¤¤ à¤²à¤Ĺ
à¤¯à¤¤ à¤¬à¤¸
à¤²à¤® à¤¸
à¤Ĺà¤° à¤¦
à¤Ĺà¤° à¤¬
Ġà¤¸à¤¹ à¤®
à¤¤à¤° à¤Ĺà¤¤à¤ķ
à¤¤à¤° à¤¨à¤Ĺà¤°à¤ª
Ġà¤¤à¤° à¤µ
Ġà¤µà¤° à¤ª
Ġà¤¡ à¤ļ
Ġà¤¡ à¤Ĺà¤®
Ġà¤¡ à¤Ĺà¤²à¤¸
à¤Ŀ à¤¸
à¤Ŀ à¤Łà¤ķ
à¤°à¤¸ à¤ļ
à¤°à¤¸ à¤°à¤®
à¤°à¤¦ à¤¹à¤¸
à¤°à¤¦ à¤¶à¤°
à¤ĩà¤¨ à¤¹
à¤ĩà¤¨ à¤Ńà¤¨
à¤ĩà¤¨ à¤ħà¤¨
à¥Įà¤Ĥ )
à¤ıà¤° à¤ıà¤¨
à¥ģà¤ģ à¤ģ
Ġà¤ķà¤® à¤Ńà¤¨
à¤ħ à¤¶
à¤ħ à¤ĸ
à¤ħ à¤¨à¤®
à¤ħ à¤¨à¤¸
à¤ħ à¤ªà¤²
à¤ħ à¤µà¤¤
à¤ħ à¤®à¤°
à¤ħ à¤ļà¤²
à¤ħ à¤¸à¤¦à¤²
à¤ħ à¤µà¤¸à¤°
à¤ªà¤® à¤§
Ġà¤®à¤¨ à¤Ń
à¤ķà¤® à¤¬
Ġà¤ĩ à¤¨à¤®
Ġà¤ĩ à¤¸à¤¨
Ġà¤ĩ à¤ĵ
Ġà¤ĩ à¤Łà¤°à¤¨
Ġà¤ĩ à¤Ĩà¤¸
à¤¯à¤¨ à¤Ńà¤¨
à¤¬à¤¨ à¤¨
Ġà¤Ńà¤ı à¤Ĺà¤°
Ġà¤Ńà¤ı à¤ľà¤¤
Ġà¤ªà¤¹ à¤ļ
Ġà¤ªà¤¹ à¤²à¤²
Ġà¤ªà¤¹ à¤²à¤¸
Ġà¤¸à¤¬ à¤²à¤¤
à¤°à¤µ à¤Ĺ
Ġà¤Ĩà¤¯ à¤¶
à¤¤à¤ķ à¤ª
à¤¤à¤ķ à¤¸à¤®
à¤¯à¤² à¤¬
à¤¯à¤² à¤¹à¤°
Ġà¤ħà¤¸ à¤¹à¤¨
à¤¶à¤ķ à¤¸à¤®
à¤¶à¤ķ à¤¸à¤®à¤ķ
Ġà¥¨à¥¦ à¥¯
à¤¸à¤² à¤Ł
à¤¸à¤² à¤°à¤²
à¤µà¤° à¤°
à¤Ĺà¤¤ à¤¸
à¤Ĺà¤¤ à¤ª
à¤Ĺà¤¤ à¤¹à¤ª
à¤µà¤¨ à¤¤
à¤µà¤¨ à¤¦
à¤µà¤¨ à¤ªà¤°
à¤·à¤£ à¤¦
à¤¸à¤¨ à¤¯
à¤¤à¤¨ à¤µ
à¤Ĩ à¤ĸ
à¤Ĩ à¤¶à¤®
à¤Ĩ à¤ľà¤®
à¤Ĩ à¤ķà¤¸
à¤Ĩ à¤ªà¤¸
à¤Ĩ à¤ĩà¤«
à¤Ĩ à¤Ļà¤¸
Ġà¤Ĩà¤° à¤Ł
Ġà¤Ĩà¤° à¤ĩ
Ġà¤Ĩà¤° à¤¨à¤ķ
Ġà¤Ĩà¤° à¤ĩà¤²
Ġà¤Ĩà¤° à¤ıà¤²à¤®
à¤°à¤¬ à¤²à¤ķ
à¤ļà¤¨ à¤ªà¤¶
à¤ļà¤¨ à¤Ĩà¤¯
à¤µà¤ķ à¤¯
à¤µà¤ķ à¤ªà¤¸à¤®
à¤²à¤¨ à¤¯à¤¤
à¤²à¤¨ à¤ªà¤¶
à¤¨à¤¨ à¤°
à¤ķà¤ķ à¤¬
à¥Ģ, âĢĻ
Ġà¤īà¤¦ à¤¯à¤°
Ġà¤īà¤¦ à¤¯à¤¸à¤®
à¤ķà¤° à¤ļ
à¤Łà¤° à¤Ĺ
à¤Łà¤° à¤²à¤ķ
à¤Łà¤° à¤ªà¤¨
à¤Łà¤° à¤ľà¤¸
Ġ? )
Ġà¤¸à¤° à¤Ĺà¤°
Ġà¤¸à¤° à¤ļà¤¨
Ġà¤¸à¤° à¤«à¤°
Ġà¤Ĺà¤¤ à¤²
Ġà¤Ĺà¤¤ à¤¬à¤°
à¤¿à¤ģ ?
à¤¸à¤° à¤ľà¤¸
Ġà¤Ĩà¤µ à¤ľ
à¥Įà¤ģ âĢĿ
à¤¤à¤® à¤¹
à¥ĩà¥¤ âĢĿ
Ġà¥« à¥Ńà¥ª
à¤®à¤¨ à¤¬
à¤®à¤¨ à¤µà¤®
Ġà¤ĵ à¤ļ
Ġà¤ĵ à¤«
Ġà¤ĵ à¤ľà¤¸
Ġà¤ĵ à¤®à¤°
Ġà¤ĵ à¤¤à¤ª
Ġà¤ĵ à¤ıà¤ıà¤¸
Ġà¤Ŀ à¤®à¤ķ
à¤«à¤² à¤¸
à¤¦à¤¨ à¤¦
à¤·à¤ķ à¤¤
à¤·à¤ķ à¤¤à¤°
Ġà¤¨à¤Ĺà¤° à¤µà¤§
à¤°à¤®à¤£ à¤¤
à¤°à¤®à¤£ à¤ªà¤¶
à¤°à¤¶ à¤®à¤¸
Ġà¤¸à¤¯ à¤¥
à¤°à¤Ń à¤²
à¤¡à¤ķ à¤¬
à¤¡à¤ķ à¤°à¤ķ
à¤¡à¤ķ à¤°à¤²
à¥ª à¥¦à¥¦
à¤ıà¤¨ à¤ıà¤¨
à¤ıà¤¨ à¤ıà¤¸
Ġà¤¢ à¤²à¤®
à¤ķà¤°à¤£ à¤¤
à¤ķà¤°à¤£ à¤¦
Ġà¤¸à¤¦ à¤®
Ġà¤¸à¤¦ à¤¨à¤²
Ġà¤¸à¤®à¤¯ à¤ħà¤Ĺ
à¤²à¤¯ à¤ªà¤Ľ
à¤ľà¤ķ à¤¬
Ġà¤ļà¤² à¤¨à¤®
à¤§à¤¨ à¤Ńà¤¨
à¤§à¤¨ à¤Ĺà¤¢
Ġà¥ª à¥§à¥¦
à¥© à¥¦à¥¦
à¤Ĺà¤² à¤¸à¤®
à¤Ĺà¤² à¤ªà¤¨
Ġà¤ªà¤¦ à¤®à¤°
Ġà¤¨à¤Ń à¤ĩà¤°à¤¹
à¤ķà¤¤ à¤¥
à¤µà¤² à¤¤
Ġà¤Ńà¤¯ à¤Ń
Ġà¤ħà¤¬ à¤®
à¤·à¤® à¤¯
à¤µà¤® à¤¯
Ġà¤Ĩà¤ĩ à¤ı
Ġà¤Ĩà¤ĩ à¤¸à¤²
Ġà¤Ĩà¤ĩ à¤Ńà¤°
Ġà¤Ĩà¤ĩ à¤ķà¤¨à¤®
Ġà¤Ĩà¤ĩ à¤Łà¤®à¤®
Ġà¤Ĩà¤ĩ à¤ıà¤ĩ
Ġà¤ķà¤¤ à¤µ
Ġà¤ħà¤µ à¤ļ
à¤ĵ à¤¶
à¤ĵ à¤²à¤®
à¤ĵ à¤Ŀ
à¤ĵ à¤ıà¤¨à¤ıà¤®
Ġà¤¹à¤° à¤ł
à¤¿à¤Ĥ à¤Ĥ
Ġà¤Ķ à¤Ĺ
Ġà¤Ķ à¤·à¤§à¤ķ
ĠâĢĵ âĢľ
à¤¶à¤¤ à¤¦
Ġà¤ıà¤® à¤Ł
Ġà¤ıà¤® à¤ľ
Ġà¤ıà¤® à¤Ĩà¤°
Ġà¤ıà¤® à¤Ĩà¤ĩà¤ıà¤¸
Ġà¤ıà¤® à¤Ĩà¤°à¤ª
à¤Ĺà¤® à¤¯
Ġà¤¦à¤² à¤ľ
Ġà¤¦à¤² à¤¹à¤¨
Ġà¤Ńà¤ĩà¤°à¤¹ à¤ķ
à¤¹à¤¨ à¤°
à¤¹à¤¨ à¤ª
à¤¹à¤¨ à¤¦
à¤¹à¤¨ à¤¤à¤¸
Ġà¤ĺà¤° à¤Ĺ
à¥® à¥Ń
à¤²à¤Ĺ à¤¢
Ġà¤ħà¤ª à¤Ĺ
Ġà¤ħà¤ª à¤ļ
Ġà¤ħà¤ª à¤¦à¤¸
Ġà¤ħà¤ª à¤ľà¤¸à¤ķ
Ġà¤¬à¤° à¤«
à¤¯à¤µ à¤¤
à¤¯à¤µ à¤¨à¤®
à¤·à¤¯ à¤ļ
Ġà¤¬à¤² à¤¸
Ġà¤¬à¤² à¤µ
Ġà¤¬à¤² à¤¶
à¤¦à¤° à¤ª
à¤ķà¤¨ à¤¬
Ġà¤ħà¤¦ à¤Ń
Ġà¤¨à¤¹ à¤²
Ġà¤«à¤° à¤«
Ġà¤®à¤² à¤¦
à¤°à¤¨ à¤¹à¤°
Ġà¤ıà¤¨ à¤¡
Ġà¤ıà¤¨ à¤ıà¤¸à¤ľ
Ġà¤ıà¤¨ à¤ıà¤ļà¤ķ
à¤¨à¤° à¤ª
Ġà¤ªà¤Łà¤ķ à¤¦
à¤Ńà¤µ à¤¶
à¤Ńà¤µ à¤¸à¤®
Ġà¤®à¤¹à¤¤ à¤¸
à¤µà¤¯ à¤¸à¤®
à¤µà¤¯ à¤Ĺà¤°
à¤¨à¤µ à¤¹à¤°
Ġà¤Ĳ à¤ľ
Ġà¤Ĳ à¤¨à¤¸
Ġà¤Ĳ à¤¯à¤°à¤²
Ġà¤Ĺà¤ł à¤¨à¤¬
Ġà¤Ĺà¤ł à¤¨à¤²à¤Ĺ
à¤¹à¤ķ à¤¸
Ġà¤Ńà¤° à¤ĸà¤°
à¤µà¤°à¤£ à¤µ
Ġà¤Ľà¤² à¤ª
à¤ľà¤® à¤§
à¤ľà¤® à¤¹à¤²
Ġà¤ħà¤² à¤ª
Ġà¤ħà¤« à¤®
à¤¦à¤ķ à¤¬
Ġà¤ıà¤¸ à¤ıà¤¸à¤¬
à¤Ĩà¤° à¤Ł
Ġà¤Ĩà¤ī à¤Łà¤°
Ġà¤®à¤¤ à¤¸à¤¹
Ġà¤Ĩà¤® à¤µ
Ġà¤Ĩà¤® à¤¬
Ġà¤Ĩà¤® à¤§
Ġà¤Ĩà¤® à¤¸à¤°
Ġà¤Ĩà¤® à¤®à¤¤à¤¦
Ġà¤Ĩà¤¦ à¤®
Ġà¤Ĩà¤¶ à¤Ļ
à¤ıà¤¸ à¤§
à¤ıà¤¸ à¤ıà¤²à¤¸
à¤ıà¤¸ à¤ĩà¤ĩ
à¤²à¤¸ à¤ľ
à¤®à¤¬ à¤¦
à¤®à¤¬ à¤ľ
Ġà¤ľà¤Ĺ à¤¦à¤®
à¤¾à¥ĩ âĢĻ
à¤¾à¥ĩ âĢĵ
Ġà¥¤âĢĻ âĢĺ
Ġà¤Ĩà¤ľ à¤ªà¤°
Ġà¥§à¥¯ à¥¨
Ġà¥§à¥¯ à¥©à¥¦
Ġà¥§à¥¯ à¥§à¥®
Ġà¥§à¥¯ à¥¨à¥Ń
Ġà¥§à¥¯ à¥©à¥¬
Ġà¥§à¥¯ à¥©à¥©
à¤¦à¤® à¤¯
Ġà¤Ľà¤²à¤«à¤² à¤¦
Ġà¤¨à¤ª à¤ļ
à¤¾âĢĵ âĢĵ
à¤¤à¤¬ à¤®
à¤Ļà¤ķ à¤Ł
Ġà¤Ĩà¤¤ à¤¤
à¤°à¤ļ à¤²à¤¨à¤ķ
Ġà¥§à¥« à¥§
Ġà¥§à¥« à¥¬
Ġà¥§à¥« à¥¯
à¤ķà¤¸ à¤°à¤¹
à¤łà¤ķ à¤¸à¤®à¤ķ
Ġà¥«à¥¦ à¥§
Ġà¥¨à¥« à¥«
à¤¥à¤² à¤Ń
à¤ĩà¤Ł à¤¥
à¤ĩà¤Ł à¤Ŀ
Ġà¤«à¤°à¤ķ à¤ĸ
à¤ıà¤® à¤Īà¤²
Ġà¤¬à¤ļ à¤¤à¤ªà¤¤
Ġà¤¬à¤ļ à¤¤à¤ķà¤°
à¥ģ, âĢĿ
à¤ľà¤° à¤ªà¤Ľ
à¤ľà¤° à¤ľà¤¸
à¤ľà¤§ à¤°
Ġà¤Ĺà¤łà¤¨ à¤¸à¤®
à¤¹à¤® à¤¦à¤²
Ġà¤ķà¤ª à¤Łà¤ª
Ġà¥©à¥¦ à¥ª
Ġà¥©à¥¦ à¥®
Ġà¥©à¥¦ à¥¦à¥¦
à¤ķà¤Ł à¤ª
à¤ķà¤Ł à¤¹à¤°
à¤®à¤¦ à¤¯
à¤®à¤¦ à¤¨à¤ķ
à¤ľà¤¯ à¤¬
à¤¯à¤ķà¤° à¤¥
à¤¯à¤Łà¤¨ à¤¸à¤®
à¤¯à¤Łà¤¨ à¤ľà¤¸
à¤ĸà¤ķ à¤¬
à¤ĸà¤ķ à¤¸à¤®
à¤¨à¤¸à¤® à¤ķ
Ġà¥§à¥® à¥«
Ġà¥§à¥® à¥®
Ġà¥§à¥® à¥§à¥¯
Ġà¥§à¥® à¥¨à¥¨
Ġà¥§à¥® à¥¨à¥ª
Ġà¥§à¥® à¥Ńà¥¨
Ġà¥§à¥® à¥Ńà¥§
Ġà¥§à¥¬ à¥¬
à¤¨à¤Ĺà¤° à¤¦
à¤ĺà¤Łà¤¨ à¤ªà¤Ľ
ĠĠĠĠ ĠčĊ
Ġà¤ªà¤°à¤® à¤¸à¤¤
à¤¤à¤°à¤ķ à¤¨
à¤²à¤¸à¤® à¤ķ
à¥Ģ) âĢĶ
Ġà¥§à¥© à¥§
Ġà¥§à¥© à¥®
Ġà¥§à¥© à¥¯
Ġà¤¨à¤µ à¤¬
Ġà¤¨à¤µ à¤Ĩà¤Ĺà¤¨
Ġà¤īà¤¡ à¤¯à¤¨
Ġà¤Ĩà¤ļ à¤°à¤£à¤ķ
Ġà¤¹à¤² à¤ĸ
à¤¯à¤£ à¤Ł
à¤Ĺà¤¬ à¤®
à¤¨à¤¦ à¤¹
Ġà¥¨à¥§ à¥¨
Ġà¥¨à¥§ à¥ª
Ġà¤¦à¤¶ à¤ľà¤¨
Ġà¥§à¥Ń à¥©
Ġà¥§à¥Ń à¥«à¥«
Ġà¥§à¥Ń à¥¯à¥¯
à¤¸à¤µ à¤Ł
à¤¸à¤µ à¤¬
Ġà¤Ńà¤Ī à¤¦
Ġà¤Ńà¤Ī à¤ķà¤¨
Ġà¤ĺà¤°à¤® à¤§
Ġà¤¸à¤¡ à¤¨
à¥ĩà¤ģ à¥¤âĢĻ
à¥ĩà¤ģ ',
à¤Ķ à¤¸à¤¤
Ġà¤ħà¤ķ à¤¬à¤°à¤²
Ġà¤ħà¤¡ à¤ķà¤²à¤¬
Ġà¤¦à¤¶à¤ķ à¤¤
Ġà¤ĩà¤® à¤°à¤ľ
à¤Łà¤¬ à¤²à¤¬
à¤¸à¤¹à¤° à¤²
à¤¸à¤¹à¤° à¤¬
Ġà¥¬à¥¦ à¥®
à¤¤à¤°à¤® à¤¨
à¥ĭ? âĢĿ
à¤ĩà¤¡ à¤°à¤®
à¤¹à¤°à¤£ à¤²
Ġà¥¨à¥¨ à¥¨
Ġà¥¨à¥¨ à¥¬
à¤°à¤¬à¤¹ à¤¨à¤ķ
à¤Ńà¤ķ à¤°à¤¬
Ġà¤Ńà¤µà¤¨ à¤¸à¤®
Ġà¤µà¤¨ à¤ľà¤¨
Ġà¥¦ à¥§à¥¬
Ġà¥¦ à¥©à¥¬
Ġà¥¦ à¥«à¥¨
à¤īà¤¦ à¤¯
à¤łà¤ķà¤² à¤Ĺ
à¤ªà¤¸ à¤²à¤®
Ġà¥¨à¥ª à¥«
Ġà¤ĺà¤¨ à¤ĺ
à¤²à¤¤à¤² à¤Ĺ
à¤ĸà¤® à¤¯
Ġà¤¸à¤ª à¤¥à¤Ĺ
Ġà¤¨à¤¬ à¤ľ
à¤¬à¤Ī à¤¸
à¥¨à¥¦ à¥§à¥¨
à¥¨à¥¦ à¥¦à¥Ń
à¥¨à¥¦ à¥Ńà¥¦
à¤¡à¤¬ à¤¡
Ġà¥¨à¥® à¥¦
Ġà¥¨à¥® à¥ª
à¤Łà¤µ à¤²à¤²
à¤Łà¤µ à¤²à¤¬
à¤·à¤° à¤ªà¤Ľ
Ġà¤ľà¤¸à¤ķ à¤¸
à¤¡à¤¸ à¤ľ
Ġà¥¨à¥Ń à¥¦
Ġà¤ħà¤ľ à¤¯à¤²
.. ..
Ġà¥¨à¥¬ à¥«
Ġà¥¨à¥¬ à¥ª
Ġà¥¨à¥¬ à¥¯
Ġà¤Ī à¤¤
Ġà¤Ī à¤ľ
Ġà¤Ī à¤Ń
Ġà¤ıà¤² à¤¡
Ġà¤¨à¤Ĩ à¤ıà¤®
Ġà¤¨à¤Ĩ à¤īà¤²
Ġà¤¦à¤® à¤¨à¤®
à¥Įà¤ģ, âĢĿ
Ġà¥¨à¥¯ à¥«
Ġà¥¨à¥¯ à¥©
Ġà¥¨à¥¯ à¥®
Ġà¥©à¥© à¥ª
Ġà¥©à¥© à¥§à¥¦
âĢľ ,
à¤ĩà¤Ń à¤°à¤ķ
à¤ĩà¤Ń à¤²à¤ķ
Ġà¤ĵà¤Ń à¤°à¤Ń
à¤«à¤° à¤ıà¤«
à¤·à¤Ń à¤°à¤ķ
à¤ıà¤« à¤¡à¤¬
Ġà¤Ĩà¤Ī à¤°
Ġà¤Ĩà¤Ī à¤¸à¤°
Ġà¤ķà¤¦à¤® à¤ª
Ġà¤ķà¤¦à¤® à¤µ
à¤²à¤¨à¤² à¤Ĺ
à¤®à¤°à¤£ à¤¯
à¤ģà¥¤ âĢĿ
Ġà¤¸à¤°à¤¸ à¤¹à¤¯
à¤¦à¤µà¤² à¤Ĺ
à¥ĩ? âĢĿ
Ġà¤ľà¤¨à¤® à¤¤à¤®
Ġà¤ľà¤¨à¤® à¤¤à¤¬
Ġà¤ľà¤¨à¤® à¤¤à¤¸
Ġà¤Ĩà¤ĩà¤¸ à¤«à¤²
Ġà¤Ĺà¤ı à¤Ĺ
à¤Ńà¤Ĺ à¤µ
Ġà¤¸à¤¡à¤ķà¤® à¤§
ĠĠĠĠĠĠĠĠ ĠĠ
à¤¶à¤Ń à¤°à¤®
à¤¹à¤£ à¤ªà¤Ľ
à¤¹à¤£ à¤¦à¤²à¤²
à¤ĩà¤¬ à¤°à¤¯
à¤Łà¤¨à¤Ĺà¤° à¤¦
à¤Łà¤¨à¤Ĺà¤° à¤µ
à¤¨à¤Ń à¤ı
à¤¨à¤Ń à¤ıà¤°
Ġà¤ķà¤®à¤² à¤ľ
à¤ħà¤ª à¤¡
Ġà¤ĸà¤¬à¤° à¤ªà¤¤
à¤ģ, '
Ġà¤ıà¤« à¤µ
Ġà¤ıà¤« à¤ľ
à¤ıà¤¨à¤ı à¤ļà¤¸
Ġà¤ħà¤Ł à¤²à¤¬
Ġà¤ıà¤¡ à¤ª
Ġà¤ıà¤¡ à¤µ
Ġà¤ıà¤¡ à¤®à¤¨
Ġà¤¸à¤°à¤² à¤°
Ġà¤¸à¤°à¤² à¤²
à¤¨à¤ħà¤¨ à¤µ
Ġà¤®à¤¦à¤¨ à¤°
à¥ĥà¤Ĥ à¤Ĥ
à¤¤à¤ļ à¤°à¤ķ
à¤¤à¤ļ à¤°à¤®
à¤¤à¤ļ à¤°à¤¹à¤°
Ġà¤°à¤Ĺà¤¤ à¤¬
Ġà¤°à¤Ĺà¤¤ à¤ľà¤¸
Ġ, '
Ġà¤¡à¤² à¤°à¤¬à¤°
Ġà¤¨à¤¸ à¤¬à¤¨
à¤¨à¤ľ à¤¡
à¤īà¤ª à¤ľ
à¤īà¤ª à¤°à¤ķ
Ġà¥¦à¥Ń à¥¬
à¤ĸà¤¤ à¤¸à¤®
Ġà¤ªà¤¸à¤² à¤¦
Ġà¤Ńà¤°à¤¤ à¤°
Ġà¥¨à¥¦à¥© à¥«
à¤Ļà¤Ł à¤¨à¤®
Ġà¤¡à¤Ł à¤ķà¤®à¤²
Ġà¥§à¥¯à¥« à¥¯
Ġà¤ħà¤²à¤® à¤¨
à¤Łà¤²à¤® à¤§
à¤ħà¤« à¤¸
à¤ħà¤« à¤Ĺ
à¤ıà¤ļ à¤ıà¤²
Ġà¤ıà¤ķà¤ªà¤Łà¤ķ à¤ķ
Ġà¤īà¤ªà¤ķà¤°à¤£ à¤¬
Ġà¤īà¤ªà¤ķà¤°à¤£ à¤¸à¤¹
à¤ıà¤¨à¤Ĩà¤° à¤ıà¤¨à¤²
à¤¨à¤¯à¤¨ à¤¸
à¤ĩà¤°à¤¸ à¤¹à¤°
Ġà¤Ĳà¤¨à¤² à¤Ĺ
Ġà¤¹à¤¨ à¤¨à¤ķ
Ġà¥ªà¥ª à¥§
Ġà¤Ķà¤¸à¤¤ à¤Ńà¤¨
Ġà¤¸à¤¦à¤¨ à¤¬
Ġà¤ľà¤Ĺà¤¤ à¤²
à¤Ĩà¤ĩ à¤Ĩà¤°
à¤Ĩà¤ĩ à¤ĵà¤ıà¤¸
à¤Ĩà¤ĩ à¤ıà¤¨à¤ľ
Ġà¥§à¥¯à¥® à¥¨
à¥§à¥¯ à¥«
à¤īà¤¤à¤² à¤Ĺ
à¤²à¤ĸ à¤¬à¤°
Ġà¤¬à¤¦ à¤ĸ
Ġà¥§à¥¯à¥¬ à¥¨
Ġà¤ĵà¤® à¤Ńà¤ķ
à¤¾à¤Ĥà¥Ī ,âĢĻ
Ġà¥§à¥¯à¥ª à¥¨
à¤¤à¤Ń à¤£
Ġà¤¯à¤® à¤¨à¤²
à¤ĺà¤Ł à¤¨à¤®
Ġà¤ľà¤¯ à¤ļà¤¨
à¤¾à¥Īà¤ģ âĢĵ
à¤¨à¤ĸ à¤¡
à¤ĩà¤ĵ à¤¹à¤°
Ġà¤Ĩà¤Ĺà¤®à¤¨ à¤¸
Ġà¤ľà¤¯à¤¨ à¤Ĺà¤°
Ġà¥¯à¥ª à¥©
Ġà¥§à¥¯à¥Ń à¥Ń
Ġà¥§à¥¯à¥Ń à¥¨
à¤Ĳ à¤°à¤²
Ġà¤Ńà¤ĩ à¤ıà¤²
Ġà¤¦à¤¹ à¤ļ
à¤¤à¤ļà¤° à¤¸à¤®
Ġà¤²à¤Ń à¤ª
Ġà¤ıà¤¯à¤°à¤¬ à¤¸à¤®
Ġà¤ıà¤¯à¤°à¤¬ à¤¸à¤¸
à¤µà¤Ĺ à¤¨à¤ķ
à¤§à¤¸ à¤¤à¤ķ
Ġà¤²à¤¸ à¤ıà¤ŀ
Ġà¤¹à¤Ļà¤ķà¤Ļ à¤¸à¤®à¤ķ
à¤¿! âĢĻ
Ġà¤®à¤¸à¤² à¤¨
Ġà¤ªà¤¤à¤¨ à¤¸
à¤®à¤ĸ à¤¡
à¤ıà¤®à¤ı à¤¸à¤²
à¤¡à¤°à¤¸ à¤¨
à¤¡à¤°à¤¸ à¤Łà¤ķ
à¤¡à¤°à¤¸ à¤Łà¤¸
Ġà¤Ŀà¤¡à¤ª à¤¹à¤°
Ġà¤ıà¤«à¤ıà¤® à¤¹à¤°
à¤¼ à¤¾
à¤¼ à¤¿
Ġà¤Ĩà¤¯à¤ķ à¤°à¤®
Ġà¤Ĩà¤¯à¤ķ à¤°à¤¬
à¤®à¤« à¤²à¤ķ
à¤¸à¤¡à¤ķ à¤¸
Ġà¤Ĩà¤¬ à¤¶
Ġà¤¶à¤°à¤¦ à¤²
Ġà¤µà¤¹ à¤¸à¤ķ
Ġà¤¡à¤Łà¤ķà¤® à¤®
à¤ľà¤¯à¤¨ à¤Ĺà¤°
à¤ļà¤¡ à¤Ĺ
Ġà¤ıà¤¸à¤ĩ à¤ĩà¤®
Ġà¤ľà¤²à¤® à¤Ĺ
à¤ķà¤ħ à¤ªà¤²
à¤®à¤¦à¤¨ à¤¦
Ġà¤Ĩà¤ĩà¤° à¤¨à¤ķ
à¤°à¤ªà¤Łà¤ķ à¤¸à¤®
Ġà¤ĺà¤°à¤ª à¤Ŀ
à¤°à¤¡ à¤®à¤²
Ġà¤¤ÅĴ à¤µà¤¹à¤°
Ġà¤¬à¤ĸ à¤¤à¤ķ
Ġà¤¹à¤¬ à¤¸à¤®
à¤°à¤µà¤£ à¤¶à¤ķ
or t
Ġw ar
à¤¾! âĢĻ
à¤¯à¤°à¤¸ à¤ª
Ġà¤Ĺà¤ľà¤² à¤¸à¤Ļ
à¤¸à¤¡ à¤ķà¤ķ
Ġà¤°à¤£ à¤Ń
à¤Ĩà¤°à¤ıà¤« à¤Ĩà¤ĩà¤¡
in g
Ġà¤²à¤ĸà¤¨ à¤īà¤¬
à¥¦à¥¬ à¥Ń
à¥ªà¥¬ à¥§
Ġà¥¨à¥ªà¥¦ à¥§
Ġà¤ĵà¤ĸ à¤°à¤¬
à¤¨à¤ªà¤Łà¤ķ à¤¸à¤®
Ġà¤ıà¤¡à¤® à¤£
ĠA uJ
Ġà¤«à¤²à¤ķ à¤¨
à¤¯à¤¤à¤¹ à¤ħà¤§
à¤®à¤¨à¤Ĺà¤° à¤¸
Ġà¤ıà¤¨à¤Ĩ à¤ıà¤°à¤ıà¤¨
à¥įâĢĿ ,
Ġà¥§à¥¨à¥© à¥ªà¥«à¥¬
à¤¾à¥ĪâĢĮ ,âĢĻ
à¤ªà¤ķà¤® à¤²à¤ķ
Ġà¤ķà¤¹à¤° à¤¬
Ġà¤ķà¤¹à¤° à¤¹à¤°
Ġà¤¬à¤¬à¤°à¤® à¤¹à¤²à¤¸
Ġà¤Ĩà¤²à¤® à¤¬
Ġà¤Ĩà¤ĩà¤ıà¤² à¤ĵà¤ķ
Ġà¤ıà¤«à¤ı à¤ı
Ġà¤Ĩà¤°à¤ıà¤¸ à¤ıà¤¸
Ġà¤ıà¤®à¤ĵ à¤¯
Ġà¤ıà¤¸à¤ıà¤® à¤ıà¤¸à¤®
Ġà¤ıà¤¸à¤ıà¤® à¤ıà¤¸à¤ķ
Ġt o
à¤®à¤ıà¤ķ à¤µ
Indi a
ec t
à¤¿âĢ ºà¥ĭ
Ġà¤ıà¤Ĩà¤° à¤ıà¤¨
Ġ123 45
bass y
em bassy
gma il
Ġà¤Ĩà¤ĵ à¤ĩ
Ġà¤ľà¤®à¤ķ à¤Ł
Ġà¤¡à¤Ĺà¤® à¤Ĺ
Ġà¤ĩà¤ĵ à¤Ĩà¤Ī
Ġà¤Ĩà¤ĩà¤ıà¤ĩ à¤ıà¤²
Ġ12345 67
! '
) "
, ,
, âĢĵ
. )
/ /
2 0
5 00
: //
? ,
? ',
D ef
M S
M o
P l
e t
e x
e ar
g e
i c
i ve
l i
l ect
m à¤°
m à¤¦
m à¤²à¤ķ
m ore
n o
n t
o l
p ass
p ort
r ation
t p
t tp
u r
v is
y ear
º à¥ģ
Ã Ĵ
Ġ #
Ġ $
Ġ *
Ġ ;
Ġ F
Ġ H
Ġ à¥į
Ġ à¥Ī
Ġ Ã·
Ġ on
Ġ at
Ġ st
Ġ ex
Ġ vis
Ġ year
Ġà¤ ¾
à¤¾ âĢį
à¥į à¥į,
à¥į ),
à¥į à¥Įà¤Ĥà¤Ĥ
à¤° à¤°à¤ķ
à¤° à¤īà¤¨
à¤° à¤°à¤£
à¤° à¤¯à¤²
à¤° à¤Łà¤°
à¤° à¤ªà¤²
à¤° à¤ĩà¤²
à¤° à¤¥à¤ķ
à¤° à¤ħà¤ª
à¤° à¤īà¤¡
à¤° à¤Ĺà¤®à¤¨à¤®
à¤° à¤ıà¤¨à¤ıà¤®
à¤° à¤ıà¤¨à¤ıà¤²
à¤¨ à¤·
à¤¨ à¤¨à¤®
à¤¨ à¤ĺ
à¤¨ à¤ħ
à¤¨ à¤Łà¤ķ
à¤¨ à¤µà¤®
à¤¨ à¤¦à¤°
à¤¨ à¤ľà¤®
à¤¨ à¤¯à¤ª
à¤¨ à¤Ĺà¤¨
à¤¨ à¤¡à¤¬
à¤¨ à¤ľà¤¤
à¤¨ à¤¥à¤°
à¤¨ à¤ħà¤§
à¤¨ à¤°à¤²à¤Ĺ
à¤¨ à¤Ĩà¤¤
à¤¨ à¤Ĩà¤ıà¤ķ
à¤¨ à¤ĵà¤ķ
à¤¨ à¤Īà¤¬
à¤¨ à¤¶à¤®à¤¶
à¤¨ à¤ĺà¤£
à¤¨ à¤Ĩà¤¨à¤¨
à¤¿ :
à¤ķ à¤ªà¤°
à¤ķ à¤°à¤¹
à¤ķ à¤Ŀ
à¤ķ à¤¬à¤¨
à¤ķ à¤ļà¤¨
à¤ķ à¤ªà¤ķ
à¤ķ à¤¨à¤¸
à¤ķ à¤¦à¤²
à¤ķ à¤¦à¤®
à¤ķ à¤·à¤£à¤ķ
à¤ķ à¤ħà¤«
à¤ķ à¤¸à¤¨à¤ľ
à¥ĩ (
à¥ĩ à¥ģ
à¥ĩ à¥ĩ,
à¥ĩ ',
à¥ĭ :
à¥ĭ à¤¾
à¥ĭ à¥į
à¥ĭ à¥įà¥¤
à¥ĭ âĢĺ
à¤² à¤·
à¤² à¤Ľ
à¤² à¤²à¤ķ
à¤² à¤ªà¤¨
à¤² à¤°à¤¦
à¤² à¤¸à¤¨
à¤² à¤°à¤¬
à¤² à¤ªà¤ķ
à¤² à¤Łà¤®
à¤² à¤Ńà¤ķ
à¤² à¤ħà¤§
à¤² à¤ħà¤ª
à¤² à¤ħà¤Ń
à¤² à¤ħà¤Ĺ
à¤® à¤¢
à¤® à¤¯à¤¤
à¤® à¤Łà¤ķ
à¤® à¤°à¤¬
à¤® à¤¦à¤ķ
à¤® à¤µà¤¤
à¤® à¤ľà¤¦
à¤® à¤ĺà¤°
à¤® à¤ľà¤¤
à¤® à¤¥à¤°
à¤® à¤µà¤¹
à¤® à¤ľà¤¨à¤²
à¤® à¤ıà¤ķà¤¤
à¤® à¤ħà¤µà¤¤
à¤¤ à¤ıà¤ķ
à¤¤ à¤Ŀ
à¤¤ à¤ļà¤¨
à¤¤ à¤µà¤ķ
à¤¤ à¤¯à¤¹
à¤¤ à¤ħà¤ĺ
à¤¤ à¤µà¤°à¤£
à¤¤ à¤ħà¤§
à¤¤ à¤Ĺà¤£
à¤¤ à¤ľà¤¨à¤¤
à¤¤ à¤µà¤°à¤¬
à¤¯ à¤«
à¤¯ à¤¯à¤¸
à¤¯ à¤¯à¤²
à¤¯ à¤¡à¤ķ
à¤¯ à¤µà¤®
à¤¯ à¤Ńà¤°
à¤¯ à¤Łà¤²
à¤¯ à¤Ĩà¤°
à¤¯ à¤ľà¤²
à¤¯ à¤ħà¤Ń
à¤¯ à¤°à¤¸à¤¹
à¤¯ à¤µà¤®à¤¹
à¤¯ à¤ħà¤µà¤¸
à¥ģ (
à¥ģ à¥Ĥ
à¥ģ âĢĿ,
à¥ģ ?âĢĻ
à¥Ģ !
à¥Ģ à¤¿
à¥Ģ âĢĺ
à¥Ģ âĢľ
à¥Ģ âĢĿ,
à¥Ģ ?âĢĻ
à¤¸ à¤ıà¤ķ
à¤¸ à¤£
à¤¸ à¤¯à¤®
à¤¸ à¤°à¤¦
à¤¸ à¤°à¤µ
à¤¸ à¤Łà¤ķ
à¤¸ à¤Łà¤¨
à¤¸ à¤Łà¤°
à¤¸ à¤¦à¤¨
à¤¸ à¤¹à¤¨
à¤¸ à¤ħà¤ĺ
à¤¸ à¤ļà¤ķ
à¤¸ à¤¥à¤²
à¤¸ à¤ıà¤²
à¤¸ à¤¯à¤¬
à¤¸ à¤ļà¤°
à¤¸ à¤¡à¤¬
à¤¸ à¤°à¤¸à¤°
à¤¸ à¤ĩà¤«
à¤¸ à¤°à¤¸à¤¹
à¤¸ à¤ıà¤²à¤ķ
à¤¸ à¤ĵà¤°
Ġà¤¸ à¤¥
Ġà¤¸ à¤µà¤¸
Ġà¤¸ à¤ªà¤®
Ġà¤¸ à¤¤à¤ķ
Ġà¤¸ à¤¸à¤¨
Ġà¤¸ à¤ĩà¤¦
Ġà¤¸ à¤¯à¤®à¤ķ
Ġà¤ª à¤§
Ġà¤ª à¤ıà¤¨
Ġà¤ª à¤Ĺà¤²
Ġà¤ª à¤¯à¤°
Ġà¤ª à¤²à¤ª
Ġà¤ª à¤īà¤²
Ġà¤ª à¤µà¤¨à¤ķ
à¤ª à¤ł
à¤ª à¤ļà¤¨
à¤ª à¤ľà¤ķ
à¤ª à¤¦à¤°
à¤ª à¤ľà¤²
à¤ª à¤¸à¤¸
à¤¦ à¤Ł
à¤¦ à¤ļ
à¤¦ à¤ªà¤¨
à¤¦ à¤¯à¤¤
à¤¦ à¤¤à¤²
à¤¦ à¤µà¤ª
à¤¦ à¤¸à¤Ń
à¤¦ à¤¬à¤¦
à¤¦ à¤¯à¤¹à¤°
à¤¦ à¤¯à¤¬
à¤¦ à¤¯à¤¦
à¤¦ à¤¬à¤ķ
à¤¦ à¤¸à¤¤
à¤¦ à¤¯à¤¶
à¤¦ à¤°à¤¬à¤ľ
à¤¹ à¤Ļ
à¤¹ à¤ªà¤¨
à¤¹ à¤®à¤ķ
à¤¹ à¤²à¤²
à¤¹ à¤ªà¤ķ
à¤¹ à¤¨à¤¸
à¤¹ à¤Łà¤²
à¤¹ à¤¬à¤²
à¤¹ à¤¬à¤¦
à¤¹ à¤¸à¤¸
à¤¹ à¤£à¤¸
à¤¹ à¤¸à¤ª
à¤¹ à¤¬à¤®
à¤¹ à¤¦à¤¤
à¤¹ à¤ªà¤¶
à¤¹ à¤¡à¤¤
à¤¹ à¤ķà¤®à¤§
à¤¹ à¤ħà¤µà¤°
à¤µ à¤ªà¤¨
à¤µ à¤²à¤¬
à¤µ à¤¦à¤°
à¤µ à¤µà¤ª
à¤µ à¤ĩà¤²
à¤µ à¤¦à¤ķ
à¤µ à¤¯à¤ķà¤°
à¤µ à¤§à¤¨à¤ķ
à¤µ à¤ļà¤°
à¤µ à¤¶à¤¸
à¤µ à¤ĸà¤¤
à¤µ à¤°à¤¸à¤¹
à¤µ à¤¶à¤®à¤¶
à¤µ à¤Ĭà¤°
Ġà¤ķ à¤ªà¤°
Ġà¤ķ à¤¤à¤°
Ġà¤ķ à¤Łà¤ķ
Ġà¤ķ à¤Łà¤°
Ġà¤ķ à¤µà¤²
Ġà¤ķ à¤¹à¤¨
Ġà¤ķ à¤ķà¤¨
Ġà¤ķ à¤¥à¤®
Ġà¤ķ à¤ªà¤²
Ġà¤ķ à¤¬à¤²
Ġà¤ķ à¤£à¤ķ
Ġà¤ķ à¤ķà¤Ł
Ġà¤ķ à¤£à¤®
Ġà¤ķ à¤Ńà¤°à¤ª
Ġà¤Ĺ à¤µ
Ġà¤Ĺ à¤Ł
Ġà¤Ĺ à¤Ļ
Ġà¤Ĺ à¤ŀ
Ġà¤Ĺ à¤Ĺà¤°
Ġà¤Ĺ à¤¤à¤ķ
Ġà¤Ĺ à¤«à¤²
Ġà¤Ĺ à¤£à¤ķ
Ġà¤Ĺ à¤¹à¤¤
Ġà¤Ĺ à¤ıà¤²à¤Ĺà¤¤
Ġà¤Ĺ à¤Ĺà¤¨à¤²
Ġà¤Ĺ à¤Ńà¤¨à¤°
à¤Ĺ à¤°à¤¤
à¤Ĺ à¤°à¤¹
à¤Ĺ à¤ªà¤¨
à¤Ĺ à¤µà¤°
à¤Ĺ à¤¨à¤°
à¤Ĺ à¤¡à¤®
à¤Ĺ à¤¨à¤¬
à¤Ĺ à¤ľà¤²
à¤Ĺ à¤¨à¤¸à¤®
à¤Ĺ à¤£à¤¤
à¤Ĺ à¤£à¤²
à¤Ĺ à¤²à¤ķà¤²
à¤Ĺ à¤¨à¤¸à¤¹
à¤Ĺ à¤°à¤¤à¤°
à¤Ĺ à¤¨à¤²à¤Ĺ
à¥Ī !
à¥Ī âĢĻ,
à¥Ī Ã·
à¥Ī âĢĶ
Ġà¤° à¤Ĺ
Ġà¤° à¤Ľ
Ġà¤° à¤ªà¤®
Ġà¤° à¤¡à¤ķ
Ġà¤° à¤®à¤²
Ġà¤° à¤ķà¤¸
Ġà¤° à¤¬à¤°à¤ķ
Ġà¤¨ à¤²à¤®
Ġà¤¨ à¤¤à¤°
Ġà¤¨ à¤Ŀ
Ġà¤¨ à¤°à¤Ń
Ġà¤¨ à¤¬à¤°
Ġà¤¨ à¤Ĺà¤®
Ġà¤¨ à¤°à¤¨
Ġà¤¨ à¤ĸà¤°
Ġà¤¨ à¤¬à¤²
Ġà¤¨ à¤ľà¤®
Ġà¤¨ à¤ķà¤¸
Ġà¤¨ à¤µà¤µ
Ġà¤¨ à¤µà¤¦
Ġà¤¨ à¤īà¤¦
Ġà¤¨ à¤īà¤²
Ġà¤¨ à¤ħà¤²
Ġà¤¨ à¤«à¤¸
Ġà¤¨ à¤ħà¤¡
Ġà¤¨ à¤°à¤µà¤¹
à¤Ł à¤¶
à¤Ł à¤Ľ
à¤Ł à¤¤à¤°
à¤Ł à¤ħ
à¤Ł à¤ªà¤¤
à¤Ł à¤°à¤µ
à¤Ł à¤¤à¤®
à¤Ł à¤ħà¤ĺ
à¤Ł à¤ľà¤®
à¤Ł à¤¸à¤¬
à¤Ł à¤Ńà¤¯
à¤Ł à¤µà¤Ł
à¤Ł à¤ıà¤«
à¤ı à¤°à¤ķ
à¤ı à¤īà¤¨
à¤ı à¤°à¤¸
à¤ı à¤¶à¤¨
à¤ı à¤ĩà¤²
à¤ı à¤¡à¤¬
à¤ı à¤¶à¤¨à¤ķ
à¤ı à¤ıà¤¨à¤ı
à¤ı à¤¯à¤°à¤ķ
à¤ı à¤ıà¤¨à¤ıà¤²
Ġà¤Ń à¤¡à¤ķ
Ġà¤Ń à¤°à¤¤à¤ķ
Ġà¤Ń à¤ľà¤¨à¤ķ
Ġà¤Ń à¤ĩà¤¨à¤¨
Ġà¤ħ à¤²à¤ķ
Ġà¤ħ à¤¤à¤°
Ġà¤ħ à¤²à¤¬
Ġà¤ħ à¤ªà¤ķ
Ġà¤ħ à¤Ĺà¤²
Ġà¤ħ à¤ľà¤µ
Ġà¤ħ à¤¥à¤°
Ġà¤ħ à¤Ļà¤¸
Ġà¤¬ à¤¨à¤²
Ġà¤¬ à¤¨à¤®
Ġà¤¬ à¤°à¤¹
Ġà¤¬ à¤µà¤¨
Ġà¤¬ à¤ķà¤¸
Ġà¤¬ à¤Ļà¤²
Ġà¤¬ à¤Ĺà¤¦
Ġà¤¬ à¤ĩà¤ľ
Ġà¤¬ à¤Ĺà¤°à¤ķ
Ġà¤¬ à¤¦à¤Ĺ
Ġà¤¬ à¤¬à¤Īà¤²
Ġà¤¬ à¤¯à¤²à¤Ĺ
Ġà¤¹ à¤«
Ġà¤¹ à¤°à¤¤
Ġà¤¹ à¤°à¤µ
Ġà¤¹ à¤µà¤ķ
Ġà¤¹ à¤¥à¤ķ
Ġà¤¹ à¤ķà¤¹à¤°
Ġà¤¹ à¤¦à¤¬
Ġà¤¹ à¤°à¤¹à¤®
Ġà¤¹ à¤¡à¤¬à¤¡
Ġà¤® à¤Ī
Ġà¤® à¤°à¤ķ
Ġà¤® à¤ªà¤Ľ
Ġà¤® à¤¯à¤²
Ġà¤® à¤°à¤¬
Ġà¤® à¤¸à¤°
Ġà¤® à¤ľà¤ķ
Ġà¤® à¤¦à¤°
Ġà¤® à¤ķà¤¨
Ġà¤® à¤°à¤£à¤²
Ġà¤® à¤ĸà¤¨
Ġà¤® à¤¯à¤²à¤²
Ġà¤Ĺà¤° à¤ļ
à¤ľ à¤ľ
à¤ľ à¤ĸ
à¤ľ à¤ľà¤¨
à¤ľ à¤Ĺà¤¤
à¤ľ à¤²à¤¬
à¤ľ à¤¤à¤®
à¤ľ à¤Ĺà¤²
à¤ľ à¤ļà¤²
à¤ľ à¤Ńà¤ķ
à¤ľ à¤ĸà¤¬à¤°
Ġà¤µ à¤¦
Ġà¤µ à¤·
Ġà¤µ à¤ļà¤¨à¤®
Ġà¤µ à¤Ĺà¤¨
Ġà¤µ à¤¹à¤¸
Ġà¤µ à¤²à¤Ń
Ġà¤µ à¤ļà¤¨à¤²
Ġà¤µ à¤ļà¤¨à¤¬
à¤¬ à¤ĸ
à¤¬ à¤°à¤¸
à¤¬ à¤¸à¤¨
à¤¬ à¤²à¤¨
à¤¬ à¤ķà¤ķ
à¤¬ à¤®à¤¨
à¤¬ à¤°à¤Ń
à¤¬ à¤ľà¤¸
à¤¬ à¤¬à¤°
à¤¬ à¤²à¤¤
à¤¬ à¤¦à¤²
à¤¬ à¤ĩà¤ķ
à¤¬ à¤¹à¤¤
à¤¬ à¤Ĺà¤°à¤ķ
à¤¬ à¤Ĺà¤°à¤²
à¤· à¤¨
à¤· à¤ĸ
à¤· à¤°à¤£
à¤· à¤ªà¤ķ
à¤· à¤¤à¤®
à¤· à¤®à¤®
à¤· à¤¯à¤¹
à¤· à¤µà¤¦
à¤§ à¤¹
à¤§ à¤Ĺà¤°
à¤§ à¤µà¤°
à¤§ à¤Ńà¤¨
à¤§ à¤ľà¤¸
à¤§ à¤¸à¤Ń
à¤§ à¤¬à¤¹
à¤§ à¤¹à¤¸
à¤§ à¤°à¤£à¤¸à¤Ń
à¤§ à¤ķà¤®à¤§
Ġà¤Ľ à¤Ńà¤¨
Ġà¤Ľ à¤łà¤ķ
Ġà¤Ľ à¤ļà¤²
Ġà¤¤ à¤Ľ
Ġà¤¤ à¤¹à¤°
Ġà¤¤ à¤°à¤¹
Ġà¤¤ à¤Łà¤¬
Ġà¤¤ à¤µà¤°à¤ķ
à¤ģ '
à¤ģ -
à¤ģ âĢĿ
à¤ģ à¥ĩâĢĵ
Ġà¤¦ à¤¨à¤ķ
Ġà¤¦ à¤¶à¤²
Ġà¤¦ à¤¹à¤®
Ġà¤¦ à¤¸à¤ķà¤ķ
à¤ıà¤ķ à¤ķ
à¤ıà¤ķ à¤¦
à¤ıà¤ķ à¤¦à¤®
à¤ıà¤ķ à¤µà¤Ł
à¤¥ à¤°à¤ķ
à¤¥ à¤ªà¤¨
à¤¥ à¤ķà¤®
à¤¥ à¤µà¤°
à¤¥ à¤Ĺà¤¤
à¤¥ à¤°à¤¬
à¤¥ à¤ľà¤¸
à¤¥ à¤¬à¤¹
à¤¥ à¤¨à¤¸à¤®
à¤¥ à¤Łà¤¬
à¤¥ à¤¬à¤¸
à¤¥ à¤ĸà¤¨
à¤¥ à¤²à¤²à¤Ĺ
Ġà¥¤ "
Ġà¥¤ à¥¤
Ġà¥¤ ...
à¤¶ à¤¶
à¤¶ à¤ªà¤°
à¤¶ à¤ľà¤¨
à¤¶ à¤²à¤ķ
à¤¶ à¤²à¤²
à¤¶ à¤µà¤°
à¤¶ à¤¯à¤µ
à¤¶ à¤£à¤ķ
à¤¶ à¤¸à¤ļ
à¤¶ à¤°à¤¬à¤¹
à¤¶ à¤¦à¤¤
à¤¶ à¤ªà¤¶
à¤Ĥ ?
à¤Ĥ à¤¿
à¤Ĥ âĢĵ
Ġà¤Ĩ à¤¨à¤ķ
Ġà¤Ĩ à¤ľà¤¨
Ġà¤Ĩ à¤¢
Ġà¤Ĩ à¤ŀ
Ġà¤Ĩ à¤¸à¤°
Ġà¤Ĩ à¤Ļà¤²
Ġà¤Ĩ à¤°à¤£à¤ķ
Ġà¤Ĩ à¤Ķ
Ġà¤Ĩ à¤Ļà¤¸
Ġà¤Ĩ à¤ķà¤²à¤¨à¤®
Ġà¤Ĩ à¤Ĺà¤¤à¤¬
Ġà¤ľ à¤ŀ
Ġà¤ľ à¤¯à¤¤
Ġà¤ľ à¤°à¤µ
Ġà¤ľ à¤¯à¤²
Ġà¤ľ à¤®à¤¨
Ġà¤ľ à¤²à¤¯
Ġà¤ľ à¤Ĺà¤²
Ġà¤ľ à¤¯à¤¬
Ġà¤ľ à¤²à¤¸à¤®
Ġà¤ľ à¤ķà¤¡
Ġà¤ľ à¤¯à¤ķà¤²
Ġà¤ľ à¤²à¤ķà¤¨
à¤Ľ à¤¯
à¤Ľ à¤Ł
à¤Ľ à¤°à¤¤
à¤Ľ à¤¸à¤®
à¤Ľ à¤Ļ
à¤Ľ à¤®à¤²
à¤£ à¤¶
à¤£ à¤°à¤®
à¤£ à¤ľà¤¨
à¤£ à¤¨à¤®
à¤£ à¤¯à¤¤
à¤£ à¤µà¤°
à¤£ à¤®à¤§
à¤£ à¤ļà¤°
à¤£ à¤µà¤¹
à¤£ à¤Ĺà¤£
Ġà¤² à¤¤à¤ķ
Ġà¤² à¤ķà¤ķ
Ġà¤² à¤Łà¤®
Ġà¤² à¤Ńà¤ķ
Ġà¤² à¤Ńà¤°à¤ª
Ġà¤² à¤Ļà¤µ
Ġà¤² à¤²à¤®à¤¨
à¤ļ à¤§
à¤ļ à¤ªà¤°
à¤ļ à¤°à¤¦
à¤ļ à¤ķà¤°
à¤ļ à¤Łà¤®
à¤ļ à¤¬à¤°
à¤ļ à¤²à¤Ĺ
à¤ļ à¤ıà¤¸
à¤ļ à¤ªà¤Łà¤ķ
à¤ļ à¤Ńà¤ıà¤ķ
à¤ļ à¤¯à¤¬
à¤ļ à¤Ķ
à¤ļ à¤°à¤¸à¤¹
à¤ļ à¤ĺà¤°à¤ķ
à¤ļ à¤°à¤²à¤Ĺ
à¤Ī à¤ı
à¤Ī à¤²à¤ķ
à¤Ī à¤¨à¤¨
à¤Ī à¤ħà¤¨
à¤Ī à¤Ńà¤°
à¤Ī à¤ıà¤¸
à¤Ī à¤§à¤°
à¤Ī à¤°à¤¹à¤¨
à¤Ī à¤ħà¤®
à¤Ī à¤ľà¤¨à¤¤
à¤Ī à¤Ĩà¤¤
à¤Ī à¤Ńà¤¸
à¤Ī à¤ĩà¤ļ
à¤Ī à¤¨à¤²à¤®
à¤Ī à¤Ńà¤°à¤²
à¥Ĥ .
à¥Ĥ à¤¿
à¥Ĥ à¥ģ
à¥Ĥ à¤ĥ
à¥Ĥ âĢĻ,
à¥Ĥ à¤ģà¥¤
Ġà¤ī à¤¤à¤°
Ġà¤ī à¤¡à¤²
Ġà¤ī à¤¸à¤¸
Ġà¤ī à¤Łà¤ªà¤Ł
à¤¡ à¤Ľ
à¤¡ à¤£
à¤¡ à¤ķà¤°
à¤¡ à¤ªà¤ķ
à¤¡ à¤®à¤®
à¤¡ à¤µà¤¯
à¤¡ à¤¨à¤¬
à¤¡ à¤Ĩà¤°
à¤¡ à¤ľà¤¤
à¤¡ à¤¯à¤¨à¤ķ
à¤Ń à¤¶
à¤Ń à¤Ń
à¤Ń à¤¨à¤ķ
à¤Ń à¤¯à¤¤
à¤Ń à¤°à¤¬
à¤Ń à¤¸à¤°
à¤Ń à¤ĩà¤¸à¤ķ
à¤Ń à¤¸à¤¹
à¤ī à¤²à¤²
à¤ī à¤¸à¤°
à¤ī à¤ľà¤¸
à¤ī à¤¸à¤¬
à¤ī à¤¡à¤²
à¤ī à¤§à¤¨à¤ķ
à¤ī à¤¬à¤¸
à¤ī à¤ªà¤¶
à¤ī à¤Ĩà¤®
à¤ī à¤¤à¤¹à¤¸à¤®
à¤ĸ à¤Ł
à¤ĸ à¤ıà¤ķ
à¤ĸ à¤¶
à¤ĸ à¤°à¤£
à¤ĸ à¤ľà¤¨
à¤ĸ à¤ĺ
à¤ĸ à¤¯à¤¤
à¤ĸ à¤¬à¤¨
à¤ĸ à¤¨à¤¬
à¤ĸ à¤¸à¤®à¤ķ
à¤ĸ à¤°à¤¤à¤°
Ġà¤¯ à¤®à¤ķ
Ġà¤¯ à¤¶à¤ķ
Ġà¤¯ à¤¤à¤¨
Ġà¤¯ à¤®à¤°
Ġà¤¯ à¤¶à¤°
âĢ ¨
Ġà¤¸à¤® à¤Ŀ
Ġà¤¸à¤® à¤µà¤¨
Ġà¤¸à¤® à¤¤à¤²
Ġà¤¸à¤® à¤¯à¤¤à¤°
à¤ĩ à¤§
à¤ĩ à¤¶
à¤ĩ à¤ĸ
à¤ĩ à¤ł
à¤ĩ à¤®à¤ķ
à¤ĩ à¤Ĩ
à¤ĩ à¤°à¤¯
à¤ĩ à¤¸à¤°
à¤ĩ à¤ľà¤²
à¤ĩ à¤ıà¤¸
à¤ĩ à¤®à¤¬
à¤ĩ à¤Ńà¤®
à¤ĩ à¤ħà¤²
à¤ĩ à¤Ļà¤¬
à¤ĩ à¤ĵà¤²
à¤ĩ à¤ħà¤ķ
à¤ĩ à¤Ĩà¤ĩà¤ı
à¤°à¤ķ à¤¹
à¤°à¤ķ à¤Ńà¤¨
à¤°à¤ķ à¤®à¤§
Ġà¤Ńà¤¨ à¤¨
à¤¹à¤° à¤¨
à¤¹à¤° à¤¦
à¤°à¤® à¤ĸ
à¤°à¤® à¤°à¤ª
à¤°à¤® à¤¬à¤¦
à¤°à¤® à¤¬à¤ľ
Ġà¤ļ à¤¸à¤ķ
Ġà¤ļ à¤ķà¤®
Ġà¤ļ à¤Łà¤¨
Ġà¤ļ à¤®à¤ļ
Ġà¤ļ à¤¨à¤®à¤¤
à¤« à¤ļ
à¤« à¤¤à¤°
à¤« à¤°à¤¸
à¤« à¤ħà¤²
Ġà¤¥ à¤¯
Ġà¤¥ à¤ļà¤ķ
à¤īà¤¨ à¤°
à¤īà¤¨ à¤¹à¤²à¤®
à¥Į âĢľ
Ġà¤ı à¤¦
Ġà¤ı à¤¹
Ġà¤ı à¤¨à¤ķ
Ġà¤ı à¤ªà¤°
Ġà¤ı à¤ŀ
Ġà¤ı à¤ħ
Ġà¤ı à¤¸à¤²
Ġà¤ı à¤ıà¤®
Ġà¤ı à¤¡à¤°
Ġà¤ı à¤ļà¤¬
Ġà¤ı à¤Ĩà¤ĩà¤ª
Ġà¤ı à¤ıà¤«à¤¸
Ġà¤ı à¤Ĩà¤Īà¤ª
à¤¯à¤ķ à¤¤à¤°
à¤¯à¤ķ à¤®à¤®
à¤¯à¤ķ à¤²à¤Ĺ
à¤¯à¤ķ à¤°à¤£à¤®
à¤¯à¤ķ à¤°à¤£à¤ķ
à¤°à¤¤ à¤¨
à¤°à¤¤ à¤¸à¤¹
Ġà¤ĸ à¤¦
Ġà¤ĸ à¤¶
Ġà¤ĸ à¤°à¤ķ
Ġà¤ĸ à¤Łà¤®
Ġà¤ĸ à¤¸à¤¹à¤°
Ġà¤ĸ à¤µà¤°à¤ķ
Ġà¤ĸ à¤²à¤ķà¤ķ
à¤¨à¤ķ à¤®
à¤¨à¤ķ à¤°à¤£à¤¦
Ġà¤¶ à¤°à¤®
Ġà¤¶ à¤®à¤¨
Ġà¤¶ à¤®à¤¸
Ġà¤¶ à¤°à¤£à¤²
Ġà¤¶ à¤¸à¤¸
Ġà¤¶ à¤°à¤¤à¤¸
à¤¾à¤ģ /
à¤¾à¤ģ à¥Īà¥¤
Ġà¤ħà¤¨ à¤ľ
Ġà¤ħà¤¨ à¤«
Ġà¤ħà¤¨ à¤¶à¤¨à¤²
Ġà¤ªà¤° à¤«à¤°
à¤ł à¤Ł
à¤ł à¤īà¤¤
à¥ĥ )
à¥ĥ ,
à¥ĥ à¥Ģ
à¤¸à¤ķ à¤¸à¤¦
à¤¸à¤ķ à¤¸à¤¨à¤ľ
Ġà¤« à¤®
Ġà¤« à¤¯
Ġà¤« à¤°à¤¹
Ġà¤« à¤¤à¤ķ
Ġà¤« à¤ĩà¤¦
à¤°à¤£ à¤¯à¤ķ
à¤°à¤£ à¤¯à¤°à¤¤
à¤ªà¤° à¤ª
à¤ªà¤° à¤Ńà¤¨
à¤ªà¤° à¤¸à¤¹
ĠâĢ °
ĠâĢ ºà¥ģ
à¤ľà¤¨ à¤¤à¤°
à¤ľà¤¨ à¤µà¤°
à¤ľà¤¨ à¤°à¤®à¤£
à¤ľà¤¨ à¤ľà¤¸
à¤ľà¤¨ à¤ħà¤¨
à¤ľà¤¨ à¤²à¤Ĺ
à¤¸à¤® à¤¤
à¤¸à¤® à¤¯à¤ķ
à¤¸à¤® à¤Ŀà¤¦
à¤¨à¤² à¤¨
à¤¨à¤² à¤¸
à¤¨à¤² à¤¸à¤¹
à¥įà¥¤ âĢľ
âĢĻ âĢĻ
à¤µà¤¸ à¤¦à¤¸
à¥¦ à¥®
à¥¦ à¥§à¥Ń
à¥¦ à¥¬à¥ª
ĠâĢĺ (
à¤ĺ à¤ľ
à¤ĺ à¤¨à¤®
à¤ĺ à¤ĺ
à¤ĺ à¤Łà¤ķ
à¤ĺ à¤°à¤Ń
à¤ĺ à¤¸à¤¹
à¤ĺ à¤Ļà¤²
à¤ĺ à¤Ĺà¤¨
à¤ĺ à¤®à¤£
à¤ĺ à¤łà¤¨
à¤¢ à¤¨
à¤¢ à¤¸
à¤¢ à¤Ĺ
à¤¢ à¤¥
Ġà¤¸à¤ķ à¤¸à¤ª
à¥ĭà¥¤ )
Ġà¤ľà¤¨ à¤°
Ġà¤ľà¤¨ à¤¶
Ġà¤ľà¤¨ à¤ħà¤¨
Ġà¤ľà¤¨ à¤¬à¤°
Ġà¤ľà¤¨ à¤ľà¤¨à¤²
à¤¯à¤® à¤¯à¤°
Ġà¤°à¤¹ à¤²à¤ª
Ġà¤¯à¤¸ à¤¤
Ġà¤¯à¤¸ à¤ªà¤¹
Ġà¤¯à¤¸ à¤ħà¤µà¤§
à¤°à¤¹ à¤ľ
à¤°à¤¹ à¤µà¤¨
à¤°à¤¹ à¤Ńà¤¨
à¤°à¤¹ à¤¸à¤¹
à¤°à¤¹ à¤£à¤®
à¤²à¤ķ à¤µ
à¤²à¤ķ à¤¥
à¤²à¤ķ à¤°à¤²
à¤²à¤ķ à¤®à¤²
Ġà¤ıà¤ķ à¤§
Ġà¤ıà¤ķ à¤Łà¤ķ
Ġà¤ıà¤ķ à¤¦à¤°
Ġà¤ıà¤ķ à¤ªà¤¦
Ġà¤ıà¤ķ à¤µà¤Ł
Ġà¤Ł à¤¬
Ġà¤Ł à¤²à¤ķ
Ġà¤Ł à¤ªà¤ķ
Ġà¤Ł à¤ªà¤²
Ġà¤Ł à¤ļà¤²
Ġà¤Ł à¤ķà¤®à¤°
à¤¯à¤¸ à¤ĸ
à¤¯à¤¸ à¤Ļ
à¤¯à¤¸ à¤¹à¤°à¤®
Ġà¤§ à¤¬
Ġà¤§ à¤°à¤£
Ġà¤§ à¤°à¤®à¤°
à¤Ļ à¤Ŀ
à¤Ļ à¤®à¤¤
à¤Ļ à¤ħà¤ĺ
à¤Ļ à¤®à¤§
à¤Ļ à¤¹à¤®
à¤Ļ à¤§à¤°
à¤Ļ à¤¬à¤®
à¤Ļ à¤ĸà¤£
à¤Ļ à¤ĺà¤®
à¤Ļ à¤ĩà¤Ļ
Ġà¤ĺ à¤°à¤¤
Ġà¤ĺ à¤¢
Ġà¤ĺ à¤°à¤µà¤°
Ġà¤ĺ à¤°à¤²à¤Ĺ
à¤°à¤² à¤¯
à¤ŀ à¤¤à¤°
à¤ŀ à¤µà¤²
à¤ªà¤¨ à¤¤à¤°
à¤¯à¤¤ à¤ªà¤Ľ
à¤¯à¤¤ à¤¤à¤°
Ġà¤ħà¤§ à¤°
Ġà¤ħà¤§ à¤µ
à¤²à¤® à¤¤
à¤²à¤® à¤¹
à¤²à¤® à¤°à¤²
Ġà¤¸à¤¹ à¤²
Ġà¤¸à¤¹ à¤¶
Ġà¤¸à¤¹ à¤ľà¤¸
Ġà¤¸à¤¹ à¤µà¤°à¤£
Ġà¤¸à¤¹ à¤īà¤¤
à¤¤à¤° à¤¶
à¤¤à¤° à¤¹à¤°
à¤¤à¤° à¤īà¤¨
à¤¤à¤° à¤¸à¤¹
à¤¤à¤° à¤¸à¤°à¤ķ
à¤¤à¤° à¤ªà¤Ł
Ġà¤¡ à¤Ļ
Ġà¤¡ à¤²à¤²
Ġà¤¡ à¤²à¤¬
Ġà¤¡ à¤°à¤¬
Ġà¤¡ à¤°à¤§
Ġà¤¡ à¤¨à¤µ
Ġà¤¡ à¤¨à¤¹à¤°
Ġà¤¡ à¤¶à¤¨à¤²
Ġà¤¡ à¤¢à¤²
âĢĵ âĢĺ
à¤Ŀ à¤«
à¤Ŀ à¤Łà¤²
à¤Ŀ à¤ĸà¤°
à¤Ŀ à¤¨à¤¯
à¤Ŀ à¤Łà¤¬
à¤Ŀ à¤Ŀà¤²
Ġà¤īà¤ª à¤°à¤ķ
Ġà¤īà¤ª à¤µà¤¨à¤ķ
Ġà¤īà¤ª à¤ľà¤¹à¤°
Ġà¤ħà¤° à¤°
Ġà¤ħà¤° à¤¶à¤¦
à¤°à¤¸ à¤¤
à¤°à¤¸ à¤ª
à¤°à¤¸ à¤¦
à¤°à¤¸ à¤°à¤¬
à¤°à¤¸ à¤µà¤ķ
à¤°à¤¸ à¤°à¤¹à¤°
à¤°à¤¦ à¤¸
à¤°à¤¦ à¤¯à¤²
à¤°à¤¦ à¤¶à¤¨
à¤°à¤¦ à¤¹à¤®
à¤°à¤¦ à¤¹à¤¦
à¤ĩà¤¨ à¤°à¤ķ
à¤ĩà¤¨ à¤ªà¤Ľ
à¤ĩà¤¨ à¤¸à¤¹
à¤ĩà¤¨ à¤«à¤°
à¤ıà¤° à¤Ńà¤¨
à¥ģà¤ģ '
à¥ģà¤ģ âĢĵ
Ġà¤ķà¤® à¤¦
Ġà¤ķà¤® à¤£
Ġà¤ķà¤® à¤²à¤ķ
Ġà¤ķà¤® à¤²à¤²
Ġà¤ķà¤® à¤²à¤µ
à¤ħ à¤¨à¤ķ
à¤ħ à¤ł
à¤ħ à¤¸à¤®
à¤ħ à¤²à¤®
à¤ħ à¤¸à¤°
à¤ħ à¤®à¤²
à¤ħ à¤¬à¤¦
à¤ħ à¤µà¤¶
à¤ħ à¤¥à¤°
à¤ħ à¤²à¤ªà¤¤
à¤ħ à¤µà¤¹
à¤ħ à¤¸à¤¹à¤ľ
à¤ķà¤² à¤¤
à¤ķà¤² à¤¨à¤²
à¤ķà¤² à¤°à¤¸
à¤ķà¤² à¤¨à¤¬
à¤ķà¤² à¤¸à¤¹
à¤ķà¤² à¤¬à¤¹
Ġà¤®à¤¨ à¤Ńà¤°
Ġà¤®à¤¨ à¤«à¤°
à¤ķà¤® à¤µ
à¤ķà¤® à¤Ĺ
Ġà¤ł à¤£
Ġà¤ķà¤° à¤µ
Ġà¤ķà¤° à¤¹à¤°
Ġà¤ķà¤° à¤Ļ
Ġà¤²à¤Ĺ à¤¤à¤ķ
Ġà¤ĩ à¤¤à¤°
Ġà¤ĩ à¤Łà¤°
Ġà¤ĩ à¤ľà¤®
Ġà¤ĩ à¤¡à¤²
Ġà¤ĩ à¤Ńà¤®
Ġà¤ĩ à¤ıà¤¸à¤ª
Ġà¤ĩ à¤ıà¤¸à¤ı
à¤¯à¤¨ à¤ª
à¤¬à¤¨ à¤Ł
à¤¬à¤¨ à¤¡
à¤®à¤ķ à¤¬
Ġà¤Ńà¤ı à¤¹
Ġà¤¸à¤¬ à¤ĩà¤¨
à¤°à¤µ à¤®
à¤°à¤µ à¤¹à¤¨à¤ķ
Ġà¤Ĩà¤¯ à¤²à¤ķ
Ġà¤Ĩà¤¯ à¤²à¤¬
à¤¤à¤ķ à¤¨
à¤¤à¤ķ à¤¦
à¤Łà¤ķ à¤ª
à¤Łà¤ķ à¤¬
à¤Łà¤ķ à¤Ńà¤¨
à¤Łà¤ķ à¤ħà¤¨
à¤Łà¤ķ à¤ĺà¤°à¤ķ
à¤¯à¤² à¤¦
à¤¯à¤² à¤Ĺà¤®
à¤¯à¤² à¤¯à¤ª
Ġà¤ħà¤¸ à¤¨à¤®
Ġà¤ħà¤¸ à¤Ļ
Ġà¤ħà¤¸ à¤²à¤²
Ġà¤ħà¤¸ à¤°à¤¹à¤°
Ġà¤ħà¤¸ à¤¦à¤µ
Ġà¤ħà¤¸ à¤¹à¤®
Ġà¤ħà¤¸ à¤«à¤²à¤®
à¤¶à¤ķ à¤µ
Ġà¥¨à¥¦ à¥®
Ġà¥¨à¥¦ à¥®à¥«
à¤²à¤² à¤²
à¤µà¤° à¤Ńà¤¨
à¤µà¤° à¤ļà¤¨
à¤µà¤° à¤ľà¤¸
à¤Ĺà¤¤ à¤¸à¤®
à¤Ĺà¤¤ à¤¸à¤¹
à¤Ĺà¤¤ à¤®à¤§
à¤µà¤¨ à¤Ń
à¤µà¤¨ à¤¸à¤®
à¤µà¤¨ à¤Ĺà¤°
à¤µà¤¨ à¤¬à¤¹
à¤·à¤£ à¤Ĺ
à¤·à¤£ à¤°à¤¹
à¤·à¤£ à¤¤à¤°
à¤·à¤£ à¤Ńà¤¨
à¤¸à¤¨ à¤¶
à¤¸à¤¨ à¤ļ
à¤¸à¤¨ à¤Ńà¤¨
à¤¸à¤¨ à¤ħà¤¨
à¤¸à¤¨ à¤ªà¤¦
à¤¸à¤¨ à¤¸à¤®à¤ķ
à¤¤à¤¨ à¤¦
à¤¤à¤¨ à¤¤à¤°
à¤¤à¤¨ à¤Ĺà¤°à¤ķ
à¤¤à¤¨ à¤ªà¤¶
à¤Ĩ à¤¹
à¤Ĩ à¤¨à¤ķ
à¤Ĩ à¤ªà¤°
à¤Ĩ à¤¨à¤²
à¤Ĩ à¤¯à¤®
à¤Ĩ à¤ĩà¤¨
à¤Ĩ à¤ªà¤¤
à¤Ĩ à¤¯à¤²
à¤Ĩ à¤¸à¤¨
à¤Ĩ à¤ĩà¤°à¤¹
à¤Ĩ à¤¤à¤®
à¤Ĩ à¤®à¤¸
à¤Ĩ à¤®à¤¹
à¤Ĩ à¤Ĩà¤«
Ġà¤Ĩà¤° à¤¡
à¤°à¤¬ à¤®
à¤°à¤¬ à¤²à¤²
à¤°à¤¬ à¤¹à¤¨
à¤°à¤¬ à¤¹à¤ķ
à¤°à¤¬ à¤¬à¤¹
Ġà¤¬à¤¸ à¤¯
à¤ļà¤¨ à¤°
à¤ļà¤¨ à¤¦
à¤ļà¤¨ à¤¤à¤°
à¤µà¤ķ à¤°à¤£
à¤µà¤ķ à¤¸à¤¹
à¤°à¤§ à¤°
à¤Łà¤¨ à¤¤
à¤Łà¤¨ à¤µ
à¤Łà¤¨ à¤¡
à¤Łà¤¨ à¤ªà¤Ľ
à¤Łà¤¨ à¤¤à¤°
à¤²à¤¨ à¤Ń
à¤²à¤¨ à¤Ĺà¤°
à¤²à¤¨ à¤Ńà¤°
à¤¨à¤¨ à¤¸
à¤¨à¤¨ à¤ľ
à¤¨à¤¨ à¤°à¤¸
à¤°à¤¯ à¤¦
à¤ķà¤ķ à¤¸
à¤ķà¤ķ à¤¸à¤®
Ġà¥© à¥¨à¥¦
Ġà¤īà¤¦ à¤£
Ġà¤īà¤¦ à¤¯à¤®
à¤ķà¤° à¤°
à¤ķà¤° à¤ľ
à¤ķà¤° à¤Ńà¤¨
à¤ĩà¤°à¤¹ à¤ķ
à¤ĩà¤°à¤¹ à¤¦
Ġà¤¸à¤¨ à¤¸
Ġà¤¸à¤¨ à¤¤à¤ķ
Ġà¤¸à¤¨ à¤¸à¤¨
à¤Łà¤° à¤ļ
à¤Łà¤° à¤ħà¤Ĺ
Ġ? ,âĢĻ
Ġ? âĢĻ,
Ġà¤¸à¤° à¤Ĺà¤®
Ġà¤¸à¤° à¤ľà¤®
à¤¸à¤° à¤ľà¤¨
à¤ªà¤ķ à¤Ł
à¤ªà¤ķ à¤ļà¤¨
Ġà¤Ĩà¤µ à¤¬
Ġà¤Ĩà¤µ à¤°à¤®
Ġà¤Ĩà¤µ à¤¤à¤°à¤£à¤®
Ġà¤Ĩà¤µ à¤Ĺà¤®à¤¨à¤®
à¥Įà¤ģ '
à¥Įà¤ģ à¤ĥ
à¥Įà¤ģ à¤ģà¥¤
à¥ĩà¥¤ âĢľ
à¤®à¤¨ à¤ª
à¤®à¤¨ à¤µ
à¤®à¤¨ à¤Ĺà¤²
à¤®à¤¨ à¤Ĺà¤°à¤ķ
Ġà¤ĵ à¤¥
Ġà¤ĵ à¤ī
Ġà¤ĵ à¤°à¤¬
Ġà¤ĵ à¤¬à¤°
Ġà¤ĵ à¤ıà¤¸
Ġà¤ĵ à¤ªà¤¨à¤ķ
Ġà¤ĵ à¤Ĺà¤µ
Ġà¤ĵ à¤®à¤¨à¤¸
Ġà¤ĵ à¤Ĩà¤°à¤ľ
Ġà¤ĵ à¤¹à¤°à¤¦
Ġà¤¹à¤ľ à¤¬
Ġà¤¹à¤ľ à¤°à¤¤
à¥¨ à¥§à¥§
Ġà¤ħà¤® à¤¨à¤ķ
Ġà¤ħà¤® à¤¨à¤²
Ġà¤ħà¤® à¤°à¤ľ
Ġà¤Ŀ à¤ŀ
Ġà¤Ŀ à¤¸à¤Ļ
Ġà¤¸à¤®à¤¸ à¤¨à¤²
à¤¦à¤¨ à¤Ĺà¤°
à¤·à¤ķ à¤ħà¤¨
Ġà¤ªà¤ķ à¤¡à¤ķ
à¤¨à¤¸ à¤¯
à¤¨à¤¸ à¤¸
à¤¨à¤¸ à¤°à¤ķ
à¤¨à¤¸ à¤¨à¤²
à¤¨à¤¸ à¤ĸà¤£
à¤¨à¤¸ à¤¦à¤¸
à¤īà¤Ł à¤²
à¤°à¤®à¤£ à¤¨
à¤°à¤®à¤£ à¤ħà¤ĺ
à¤°à¤®à¤£ à¤Ńà¤¤
à¤°à¤¶ à¤®à¤£
Ġà¤¸à¤¯ à¤¬
Ġà¤¸à¤¯ à¤ªà¤¤
à¤Ĺà¤ķ à¤¤
à¤¡à¤ķ à¤ªà¤²
à¤¤à¤² à¤ª
à¤ıà¤¨ à¤¬
à¤ıà¤¨ à¤ıà¤«à¤¡
à¤¸à¤¦ à¤¤
à¤¸à¤¦ à¤¦
à¤¸à¤¦ à¤ľ
à¤¸à¤¦ à¤Ń
à¤¸à¤¦ à¤°à¤®
à¤¸à¤¦ à¤²à¤Ĺ
à¤¸à¤¦ à¤®à¤§
Ġà¤¢ à¤²à¤¨
à¤ķà¤°à¤£ à¤¯
à¤ķà¤°à¤£ à¤¹à¤°
à¤ķà¤°à¤£ à¤ħà¤¨
Ġà¤¸à¤®à¤¯ à¤ļ
Ġà¤¸à¤®à¤¯ à¤¬à¤¦
Ġà¤¸à¤®à¤¯ à¤ĸà¤£
à¤²à¤¯ à¤²à¤ķ
à¤ľà¤ķ à¤¸à¤¹
Ġà¥¬ à¥¨à¥¦
Ġà¥¬ à¥§à¥¬
à¤§à¤¨ à¤Ĺ
à¤§à¤¨ à¤ľà¤¸
à¤°à¤®à¤® à¤§
à¥© à¥®à¥¦
à¤Ĺà¤² à¤°
à¤Ĺà¤² à¤Ł
à¤Ĺà¤² à¤¹à¤°
Ġà¤ªà¤¦ à¤¤
Ġà¤ªà¤¦ à¤ħà¤¨
Ġà¤ªà¤¦ à¤®à¤§
Ġà¤ªà¤¦ à¤®à¤¬à¤¹
Ġà¤¨à¤Ń à¤ĩà¤¨à¤¹
à¤®à¤² à¤°
à¤®à¤² à¤¸
à¤®à¤² à¤¢
à¤µà¤² à¤Ĺà¤¤
Ġà¤Ńà¤¯ à¤¬
Ġà¤Ńà¤¯ à¤µà¤¹
Ġà¤ħà¤¬ à¤Ńà¤¨
Ġà¤ħà¤¬ à¤Ĩà¤«
Ġà¤ħà¤¬ à¤¸à¤°à¤®
à¤·à¤® à¤§
à¤Łà¤® à¤°
à¤Łà¤® à¤ª
Ġà¤ªà¤¤ à¤¨à¤²
Ġà¤ªà¤¤ à¤¨à¤®
Ġà¤ªà¤¤ à¤Ļ
Ġà¤ķà¤² à¤¹à¤²
à¤¶à¤¨ à¤Ĺà¤°
à¤¶à¤¨ à¤Ńà¤¨
Ġà¤Ĩà¤ĩ à¤¥
Ġà¤Ĩà¤ĩ à¤ļ
Ġà¤Ĩà¤ĩ à¤Ń
Ġà¤Ĩà¤ĩ à¤ĩ
Ġà¤Ĩà¤ĩ à¤¨à¤²
Ġà¤Ĩà¤ĩ à¤ĵà¤µ
Ġà¤Ĩà¤ĩ à¤ıà¤Ī
Ġà¤Ĩà¤ĩ à¤ıà¤¸à¤ª
Ġà¤Ĩà¤ĩ à¤ıà¤¸à¤ķ
Ġà¤Ĩà¤ĩ à¤ıà¤¸à¤²
Ġà¤¦à¤° à¤¸à¤®
Ġà¤¦à¤° à¤Ńà¤¨
à¤¯à¤° à¤¨
à¤¯à¤° à¤«
à¤¯à¤° à¤ªà¤Ľ
Ġà¤ħà¤µ à¤Ĺ
Ġà¤ħà¤µ à¤¤à¤°
Ġà¤ħà¤µ à¤īà¤ª
Ġà¤¤à¤¹ à¤ħà¤¨
à¤ĵ à¤¹
à¤ĵ à¤Ľ
à¤ĵ à¤®à¤°
à¤ĵ à¤¨à¤°à¤¸
à¤ĵ à¤Ĩà¤°à¤¬
à¤ĵ à¤ıà¤®à¤ľ
à¤¶à¤® à¤¬à¤¹
Ġà¤¹à¤° à¤Ĺ
à¤¿à¤Ĥ )
à¤¿à¤Ĥ ,
à¤¿à¤Ĥ .
Ġà¤Ķ à¤¬
Ġà¤Ķ à¤¡
Ġà¤Ķ à¤ł
Ġà¤Ķ ÃĪ
à¤¬à¤° à¤ª
à¤¬à¤° à¤Ĺ
à¤¬à¤° à¤ľà¤¸
Ġà¤ħà¤Ĺ à¤Łà¤¸
Ġà¥Ń à¥Ńà¥ª
à¤¶à¤¤ à¤µ
Ġà¤ıà¤® à¤µ
Ġà¤ıà¤® à¤«
Ġà¤ıà¤® à¤ıà¤®
Ġà¤ıà¤® à¤Ĩà¤Ī
Ġà¤ıà¤® à¤ıà¤ļ
Ġà¤ıà¤® à¤ıà¤¸à¤®
Ġà¤ıà¤® à¤Ĩà¤ĩà¤¸
Ġà¤ıà¤® à¤°à¤¸à¤¨
Ġà¤ıà¤® à¤ıà¤ļà¤ª
à¤Ĺà¤® à¤¬
à¤Ĺà¤® à¤¹à¤²
Ġà¤¦à¤² à¤°
Ġà¤¦à¤² à¤¦
Ġà¤¦à¤² à¤µ
Ġà¤¦à¤² à¤ªà¤¨
Ġà¤ķà¤¸ à¤°à¤¤à¤ķ
Ġà¤Ńà¤ĩà¤°à¤¹ à¤¯
à¤¹à¤¨ à¤ľ
à¤¹à¤¨ à¤ļà¤¨
,âĢĻ âĢĵ
Ġà¤ĺà¤° à¤ľà¤¸
Ġà¤ĺà¤° à¤ĺà¤¡
à¤µà¤ľà¤¨ à¤®
à¥® à¥¨
à¤²à¤Ĺ à¤£
Ġà¤¯à¤¸à¤² à¤Ĺà¤¤
Ġà¤ħà¤ª à¤ľà¤¸à¤²
Ġà¤ħà¤ª à¤¹à¤°à¤£à¤¸
Ġà¤¬à¤¹ à¤²
Ġà¤¬à¤¹ à¤¸à¤¬
Ġà¤¬à¤¹ à¤¸à¤¹à¤°
à¤¯à¤µ à¤¦
à¤·à¤¯ à¤ľà¤¸
Ġà¤¬à¤² à¤ľ
Ġà¤¬à¤² à¤Ń
Ġà¤¬à¤² à¤°à¤²
à¥¯ à¥¨
à¥¯ à¥©
Ġà¤Ĩà¤Ĺ à¤¡
Ġà¤Ĩà¤Ĺ à¤¤à¤ķ
à¤Łà¤² à¤¦
à¤Łà¤² à¤°à¤ķ
à¤Łà¤² à¤Ĺà¤¤
Ġà¤īà¤ł à¤Ľ
Ġà¤īà¤ł à¤¬à¤¸
à¤ķà¤¨ à¤ªà¤ķ
à¤ķà¤¨ à¤ľà¤¸
Ġà¥§à¥¦ à¥¦à¥¦
Ġà¤¨à¤¹ à¤ķ
Ġà¤¨à¤¹ à¤¸
Ġà¤®à¤² à¤¸
Ġà¤®à¤² à¤¹
Ġà¤®à¤² à¤¹à¤°
à¥¤âĢĻ âĢĻ
Ġà¤¸à¤¹à¤Ń à¤Ĺ
à¤°à¤¨ à¤¦
à¤°à¤¨ à¤µ
à¤°à¤¨ à¤ļ
à¤°à¤¨ à¤°à¤¸
Ġà¥® à¥§à¥¦
Ġà¥® à¥§à¥«
Ġà¥® à¥Ńà¥«
Ġà¤ıà¤¨ à¤ıà¤¸
Ġà¤ıà¤¨ à¤ıà¤®à¤¸
Ġà¤ıà¤¨ à¤ıà¤®à¤ıà¤²
Ġà¤ıà¤¨ à¤Ĩà¤Īà¤¬
Ġà¤ļà¤° à¤¨à¤ķ
à¤²à¤¤ à¤¹à¤°
à¤¨à¤° à¤¸à¤®
à¤ĸà¤° à¤ª
à¤ĸà¤° à¤¸à¤®
à¤ĸà¤° à¤ļà¤¨
à¤ªà¤² à¤¡
Ġà¤ªà¤Łà¤ķ à¤Ńà¤¨
à¤Ńà¤µ à¤¹
à¤Ńà¤µ à¤ļ
Ġà¤īà¤® à¤°
à¤¬à¤² à¤ª
à¤¬à¤² à¤µ
à¤µà¤¯ à¤¬
à¤¨à¤µ à¤¦
à¤¨à¤µ à¤¯à¤¨
à¤¨à¤µ à¤¤à¤¸
à¤¨à¤µ à¤¬à¤¸
à¤¿, '
Ġà¤Ĳ à¤¯
Ġà¤Ĳ à¤¨à¤¨
Ġà¤Ĳ à¤łà¤¨
Ġà¤Ĺà¤ł à¤¨à¤ª
à¤·à¤¦ à¤¦
Ġà¤Ńà¤° à¤Ĺ
Ġà¤ħà¤Ŀ à¤¸à¤®
Ġà¤¸à¤«à¤² à¤°
Ġà¤¸à¤«à¤² à¤¤à¤®
Ġà¤ķà¤¹ à¤°à¤ķ
Ġà¤Ĩà¤ķ à¤¡
à¤µà¤°à¤£ à¤¸à¤¹
à¤ľà¤® à¤ľ
à¤ľà¤® à¤¹à¤²à¤ķ
Ġà¤°à¤ķà¤® à¤¸
à¤¸à¤¹ à¤¤
à¤¸à¤¹ à¤¸à¤ļ
Ġà¤ħà¤« à¤¤
Ġà¤ħà¤« à¤°à¤²
Ġà¤ħà¤« à¤°à¤¹à¤°
à¤ĩà¤² à¤¸
à¤¤à¤µ à¤°à¤®
à¤¦à¤ķ à¤Ł
à¤¦à¤ķ à¤¸à¤®
à¤¦à¤ķ à¤¤à¤²
à¤¦à¤ķ à¤ªà¤¦
à¤ľà¤Ĺ à¤ªà¤¤
Ġ' '
à¤¤à¤°à¤£ à¤¬
à¤¤à¤°à¤£ à¤¸à¤®
Ġà¤ıà¤¸ à¤¸
Ġà¤ıà¤¸ à¤ıà¤²
Ġà¤ıà¤¸ à¤ıà¤®à¤Ī
à¤¨à¤¤ à¤¸
à¤¨à¤¤ à¤¹
à¤¨à¤¤ à¤¬
à¤¯à¤ª à¤Ł
Ġà¤®à¤¤ à¤®à¤¤
Ġà¤®à¤¤ à¤ħà¤¨
Ġà¤¸à¤¡à¤ķ à¤ľà¤¸
Ġà¤¸à¤¡à¤ķ à¤¸à¤ŀ
Ġà¤Ĩà¤® à¤Ĺ
Ġà¤Ĩà¤® à¤Ń
Ġà¤Ĩà¤® à¤¦à¤ħà¤¨
à¤ľà¤² à¤¸à¤®
Ġà¤Ĩà¤¦ à¤¤
à¤¦à¤² à¤µ
Ġà¤Ĩà¤¶ à¤µ
à¤ıà¤¸ à¤¸à¤®
à¤ıà¤¸ à¤ªà¤Ľ
à¤ıà¤¸ à¤ıà¤¸
à¤ıà¤¸ à¤Ĩà¤Ī
à¤ıà¤¸ à¤¨à¤²à¤Ĺ
à¤ıà¤¸ à¤ĩà¤Ī
à¤ıà¤¸ à¤Ĩà¤°à¤²
à¤ıà¤¸ à¤ıà¤¸à¤¬
à¤ıà¤¸ à¤Ĩà¤ĩà¤Ĩà¤°
à¤²à¤¸ à¤¡à¤ķ
Ġà¤ľà¤Ĺ à¤¬
Ġà¤ľà¤Ĺ à¤¹à¤¸
à¤¾à¥ĩ ?
Ġà¥¤âĢĻ âĢĻ
Ġà¤ľà¤® à¤²à¤®
Ġà¤ľà¤® à¤°à¤ķà¤Ł
à¤¸à¤¬ à¤¹
à¤¸à¤¬ à¤Ńà¤¨
Ġà¥§à¥¯ à¥©
Ġà¥§à¥¯ à¥¬à¥©
Ġà¥§à¥¯ à¥¨à¥«
Ġà¥§à¥¯ à¥¨à¥©
Ġà¥§à¥¯ à¥¨à¥ª
Ġà¥§à¥¯ à¥¨à¥¬
Ġà¥§à¥¯ à¥¦à¥¬
Ġà¥§à¥¯ à¥©à¥Ń
à¤¶à¤² à¤ª
à¤¹à¤² à¤µ
à¤¹à¤² à¤ĸ
Ġà¤¹à¤¸ à¤¨à¤ķ
à¤°à¤ª à¤¦
à¤°à¤ª à¤¥à¤¸
à¤°à¤ª à¤¥à¤¬
Ġà¤Ľà¤²à¤«à¤² à¤ħà¤¨
à¤¯à¤¯à¤¨ à¤ª
à¤¯à¤¯à¤¨ à¤ªà¤¶
à¤§à¤® à¤§
à¤¤à¤¬ à¤Ŀ
à¤°à¤ľ à¤¹
à¤°à¤ľ à¤¸à¤®à¤ķ
Ġà¤Ĩà¤¤ à¤¸à¤¬
à¤ķà¤ª à¤°à¤®
à¤Ĺà¤ł à¤ķ
à¤Ĺà¤ł à¤¨à¤ª
à¤°à¤ļ à¤¨à¤ķ
à¤¡à¤² à¤°à¤²
à¤ķà¤¸ à¤¸
à¤łà¤ķ à¤¦
Ġà¤ĺà¤Ł à¤ķà¤²
à¤ļà¤® à¤¹
à¤µà¤¯à¤¨ à¤Ĺà¤°
à¤µà¤¯à¤¨ à¤¸à¤¹
à¤Ļà¤² à¤°
à¤Ĺà¤¦ à¤°à¤¬
à¤ĩà¤Ł à¤¸à¤¹
Ġà¤«à¤°à¤ķ à¤°
Ġà¤«à¤°à¤ķ à¤²
Ġà¤«à¤°à¤ķ à¤ªà¤¨à¤ķ
Ġà¤«à¤°à¤ķ à¤®à¤¤à¤®
à¤²à¤µ à¤¹à¤°
à¤ıà¤® à¤ª
à¤ıà¤® à¤Ł
à¤ıà¤® à¤Ĩ
à¤ıà¤® à¤ıà¤¨
à¤ıà¤® à¤ıà¤®
à¤ıà¤® à¤ıà¤«
à¤ıà¤® à¤Ĩà¤Ī
à¤ıà¤® à¤Ĩà¤ĩà¤Ł
à¤ıà¤® à¤Ĩà¤Īà¤Ł
Ġà¤¨à¤ľ à¤°à¤¬
Ġà¤¨à¤ľ à¤°à¤¬à¤¨
Ġà¤¬à¤ļ à¤ªà¤¨
Ġà¤¬à¤ļ à¤ªà¤¨à¤®
Ġà¤§à¤¨ à¤ª
Ġà¤§à¤¨ à¤ľà¤¨
Ġà¤§à¤¨ à¤¸à¤®
Ġà¤§à¤¨ à¤ŀ
Ġà¤§à¤¨ à¤ªà¤¤
à¤ĩà¤ķ à¤°à¤²
à¤¨à¤ª à¤¸
à¤¨à¤ª à¤Ł
à¤¨à¤ª à¤ŀ
à¤¨à¤ª à¤¸à¤²
Ġà¤¸à¤¹à¤° à¤®à¤§
Ġà¤¹à¤¤ à¤ª
Ġà¥§à¥§ à¥«
Ġà¥§à¥§ à¥«à¥«
Ġà¥§à¥§ à¥©à¥Ń
à¤¦à¤µ à¤¬
à¤¦à¤µ à¤¹à¤°
à¤¦à¤µ à¤¸à¤®
Ġà¤ħà¤ªà¤° à¤¹à¤£
Ġà¤ĩà¤¤ à¤°à¤ķ
Ġà¤¹à¤Ł à¤¸
à¤¹à¤¤ à¤°à¤®
à¤¹à¤¤ à¤¸à¤®
à¤ªà¤£ à¤¸
à¤¹à¤® à¤¦à¤ķ
Ġà¤Ĺà¤£ à¤°
Ġà¤ķà¤ª à¤¬
Ġà¥©à¥¦ à¥§
à¤·à¤§ à¤°à¤ķ
à¤ķà¤Ł à¤¸à¤®
à¤ķà¤Ł à¤ªà¤®
à¤ķà¤Ł à¤µà¤°
à¤¸à¤¸ à¤¸
Ġà¤ħà¤µà¤¸à¤° à¤¸à¤®
à¤ľà¤¯ à¤ļà¤¨
à¤ľà¤¯ à¤Ńà¤ıà¤ķ
à¤¬à¤¹ à¤ª
à¤¬à¤¹ à¤¸à¤®
Ġà¤°à¤¨ à¤Ĩà¤īà¤Ł
à¤¤à¤ª à¤°à¤ķ
à¤¤à¤ª à¤Łà¤®
à¤¥à¤ķ à¤¬
à¤®à¤Ĺ à¤°à¤®
à¤ıà¤² à¤ľ
à¤ıà¤² à¤ıà¤«
à¤¸à¤¨à¤² à¤®
à¤¸à¤¨à¤² à¤ª
à¤¸à¤¨à¤² à¤¬
Ġà¥§à¥® à¥§à¥¬
Ġà¥§à¥® à¥Ńà¥«
Ġà¥§à¥® à¥Ńà¥¬
Ġà¥§à¥® à¥§à¥ª
Ġà¥§à¥® à¥ªà¥¦
Ġà¥§à¥® à¥«à¥Ń
Ġà¥§à¥® à¥©à¥§
Ġà¥§à¥® à¥¯à¥¦
Ġà¥§à¥® à¥ªà¥®
Ġà¥§à¥® à¥«à¥ª
Ġà¤ľà¤¨à¤ķ à¤µ
Ġà¤°à¤® à¤£à¤ķ
à¤µà¤¦ à¤¹à¤ķ
Ġà¥§à¥¬ à¥¦à¥¦
à¤¨à¤Ĺà¤° à¤µ
à¤¨à¤Ĺà¤° à¤Ńà¤°
à¤Ĺà¤¢ à¤¬
à¤ļà¤° à¤ľà¤¨
ĠĠĠĠ ĠĠčĊ
ĠĠĠĠ ĠĠĠĊ
à¤¡à¤° à¤Ĺ
à¤¡à¤° à¤ħà¤¨
Ġà¤ªà¤°à¤® à¤¹
Ġà¤Ĭ à¤®
Ġà¤Ĭ à¤§
Ġà¤Ĭ à¤¨à¤ķ
à¤ĩà¤ľ à¤°à¤¸à¤¹
à¥Ģ) âĢĻ
à¥Ģ) âĢĵ
Ġà¥§à¥© à¥«à¥¬
Ġà¤¨à¤µ à¤²à¤ķ
Ġà¤¨à¤µ à¤µà¤°
Ġà¤Ĩà¤ļ à¤°à¤£à¤®
Ġà¤Ĩà¤ļ à¤°à¤£à¤¬
Ġà¤ľà¤¨à¤¸ à¤¤
à¤ĩà¤¸ à¤§
à¤ĩà¤¸ à¤ļà¤°
à¤¥à¤¨ à¤Ĺ
à¤¥à¤¨ à¤ľ
à¤¥à¤¨ à¤Ńà¤¨
âĢĿ âĢĵ
Ġà¤Ĩà¤ł à¤¦
à¤¯à¤£ à¤Ĺ
à¤¯à¤£ à¤¬
Ġà¤ĸà¤¨ à¤ľ
Ġà¤ķà¤ķ à¤¬
Ġà¤ķà¤ķ à¤¸à¤ķ
à¤Ĺà¤®à¤¨ à¤µ
à¤Ĺà¤®à¤¨ à¤¬
à¤¯à¤¸à¤¬ à¤ĸà¤¤à¤ķ
Ġà¥¨à¥§ à¥®
Ġà¥¨à¥§ à¥¯
Ġà¤¦à¤¶ à¤Ĺ
Ġà¤¦à¤¶ à¤µà¤Ł
Ġà¤¦à¤¶ à¤°à¤¥à¤ķ
Ġà¤ľà¤¬ à¤ľà¤®
Ġà¤®à¤¦ à¤°à¤¸
Ġà¤®à¤¦ à¤¤à¤®
Ġà¥§à¥Ń à¥«à¥Ń
à¤¸à¤µ à¤¹à¤°
Ġà¤Ńà¤Ī à¤¸
Ġà¤Ńà¤Ī à¤°à¤¹à¤¨
à¤ĸà¤² à¤¨à¤²
à¤Ĺà¤łà¤¨ à¤ľà¤¸
à¤Ĺà¤łà¤¨ à¤ħà¤¨
à¥ĩà¤ģ à¥¤'
à¤µà¤Ł à¤¦
à¤µà¤Ł à¤¬
à¤µà¤Ł à¤°à¤ķ
Ġà¤ħà¤ķ à¤µ
Ġà¤ħà¤ķ à¤¬à¤°à¤ķ
Ġà¤ĩà¤® à¤°à¤¨
Ġà¤®à¤¹à¤¸ à¤ŀ
à¤¸à¤¹à¤° à¤®
Ġà¤«à¤² à¤Ń
Ġà¥¬à¥¦ à¥«
à¤¤à¤°à¤® à¤¹
à¤¤à¤°à¤® à¤¨à¤ķ
à¥ĭ? âĢĻ,
à¥ĭ? âĢľ
à¤ĩà¤¡ à¤ĩà¤«
à¤¹à¤°à¤£ à¤¸à¤®
Ġà¥¨à¥¨ à¥«
Ġà¥¨à¥¨ à¥ª
Ġà¥¨à¥¨ à¥®
Ġà¤Ńà¤µà¤¨ à¤¨
Ġà¤Ńà¤µà¤¨ à¤¤
Ġà¤Ńà¤µà¤¨ à¤¸à¤¹
Ġà¤ķà¤ł à¤ª
Ġà¤ķà¤ł à¤ĺà¤°à¤®
à¤ķà¤¬ à¤ķ
à¤®à¤£ à¤°
à¤®à¤£ à¤µ
Ġà¤µà¤¨ à¤Ń
Ġà¥¦ à¥«à¥¦
Ġà¥¦ à¥«à¥Ń
Ġà¥¦ à¥¯à¥¦
Ġà¥¦ à¥¦à¥¯
à¤°à¤ĸ à¤°à¤¤
à¤°à¤ĸ à¤§à¤¨
à¤µà¤Ń à¤°à¤®
à¤ªà¤¸ à¤Ļ
Ġà¤¤à¤² à¤ªà¤Ł
Ġà¤Ĺà¤¨ à¤Ĺà¤¨à¤¸à¤®
à¤²à¤ª à¤Ł
à¤®à¤ª à¤Ł
à¤®à¤ª à¤¶
Ġà¤¸à¤ª à¤¥à¤®
Ġà¤¸à¤ª à¤¥à¤ķ
Ġà¤¨à¤¬ à¤Ĺ
Ġà¤¨à¤¬ à¤¦à¤²
à¤¬à¤Ī à¤¤à¤°
Ġà¤ªà¤¹à¤² à¤¹à¤°
Ġà¤ªà¤¹à¤² à¤ªà¤Ľ
Ġà¤Ĺà¤² à¤¬à¤¨
Ġà¤Ĺà¤² à¤Ļà¤ķ
à¥¨à¥¦ à¥§à¥§
à¥¨à¥¦ à¥¬à¥©
à¥¨à¥¦ à¥©à¥¦
à¥¨à¥¦ à¥§à¥ª
à¥¨à¥¦ à¥Ńà¥©
à¥¨à¥¦ à¥ªà¥¦
à¥¨à¥¦ à¥«à¥«
à¥¨à¥¦ à¥¬à¥ª
à¥¨à¥¦ à¥«à¥®
à¥¨à¥¦ à¥ªà¥Ń
à¥Ģà¤ģ ,
Ġà¤ªà¤² à¤¹
Ġà¤ªà¤² à¤ľ
à¤£à¤¨ à¤Ĺà¤°à¤®
à¤£à¤¨ à¤Ĺà¤°à¤ķ
à¤¡à¤¬ à¤²à¤®
à¥ĩà¤Ĥ à¥¤âĢĻ
à¥ĩà¤Ĥ âĢĻ,
à¥ĩà¤Ĥ à¤ģà¥¤
Ġà¥¨à¥® à¥¨
Ġà¥¨à¥® à¥¬
Ġà¥¨à¥® à¥¯
à¤¯à¤Ł à¤¸
Ġà¥¨à¥© à¥¦
Ġà¥¨à¥© à¥¬
Ġà¥¨à¥© à¥ª
Ġà¥¨à¥© à¥¯
Ġà¥¨à¥© à¥¯à¥¬
à¤Łà¤¬à¤² à¤¸
à¤Łà¤¬à¤² à¤°à¤¹à¤°
Ġà¤Ĩà¤ı à¤Ńà¤¨
Ġà¤Ĩà¤ı à¤ħà¤¨
Ġà¤ľà¤² à¤¦
Ġà¤ľà¤² à¤¨à¤²
Ġà¤ľà¤² à¤ļà¤°à¤ķ
Ġà¤¸à¤ĺ à¤¨à¤¤
Ġà¤Ī à¤¯
Ġà¤Ī à¤¨à¤ķà¤°
Ġà¥Ńà¥¦ à¥©
Ġà¤¬à¤¹à¤¸ à¤ªà¤Ľ
Ġà¤¨à¤Ĩ à¤ĩ
Ġà¤¨à¤Ĩ à¤ĩà¤ª
Ġà¤¨à¤Ĩ à¤Ĭ
Ġà¤¨à¤Ĩ à¤ıà¤ªà¤¨
Ġà¤¦à¤® à¤¨à¤¨
à¥ĭà¥ĩ âĢĻ
à¤¤à¤¹ à¤Łà¤¬
Ġà¤¨à¤Ńà¤ı à¤¬
à¤ľà¤¬ à¤¡
à¤ľà¤¬ à¤¸à¤®
Ġà¥¨à¥¯ à¥¨
Ġà¥¨à¥¯ à¥¬
à¤Ĭ à¤®
à¤Ĭ à¤ĵà¤²
Ġà¥©à¥« à¥©
Ġà¤¨à¤Ĺà¤¦ à¤°à¤¹
Ġà¥©à¥© à¥§
Ġà¥©à¥© à¥«
Ġà¥©à¥© à¥¬
Ġà¥©à¥© à¥®
à¥ģà¥ģ à¥ģ
à¥ģà¥ģ âĢľ
à¥ģà¥ģ ',
Ġà¤¦à¤¸ à¤µà¤°
Ġ! !
Ġà¤ĵà¤Ń à¤°à¤²
Ġà¤ĵà¤Ń à¤°à¤¬
à¤²à¤Ń à¤ª
à¤²à¤Ń à¤°à¤ķ
à¤ıà¤« à¤µ
à¤ıà¤« à¤Ĩà¤°
à¤ıà¤« à¤Ĩà¤ĩà¤¡
à¤ıà¤« à¤ıà¤²à¤ıà¤«
Ġà¤Ĩà¤Ī à¤¯
Ġà¤Ĩà¤Ī à¤¸à¤²
Ġà¤Ĩà¤Ī à¤¤à¤µ
Ġà¤īà¤ªà¤° à¤¥
Ġà¤ķà¤¦à¤® à¤¸à¤¹
à¥ĭâĢĻ à¥¤
à¥ĭâĢĻ âĢĵ
à¤¹à¤¦ à¤¬
à¤®à¤°à¤£ à¤°à¤¹
Ġà¤ħà¤¸à¤® à¤ķ
Ġà¤ļà¤¢ à¤¨
Ġà¥©à¥§ à¥«
Ġà¥©à¥§ à¥¨
Ġà¥©à¥§ à¥¬
à¤§à¤¨à¤² à¤Ĺà¤¤
à¤¶à¤¨à¤² à¤ķ
Ġà¤ħà¤¶ à¤°
à¤µà¤¨à¤ķ à¤¥
à¥ĩâĢĻ âĢĵ
Ġà¤¶à¤°à¤£ à¤°
Ġà¥ªà¥« à¥¬
Ġà¤Ĩà¤¸ à¤«
Ġà¤Ĩà¤¸ à¤¯à¤²
Ġà¤²à¤® à¤¤à¤¨
Ġà¤Ĺà¤ı à¤¦
à¤¥à¤µ à¤°à¤¸
à¤Ĺà¤ľ à¤¹à¤°
à¤¾à¥Īà¤Ĥ âĢĻ
Ġà¤ķà¤¬ à¤¡
Ġà¥©à¥¨ à¥¬
à¤ĩà¤¬ à¤²à¤²
à¤¨à¤Ń à¤°à¤ķ
à¤¨à¤Ń à¤ıà¤Ńà¤¨
à¤§à¤¨à¤® à¤§
à¤°à¤¹à¤£ à¤¶
à¤Ĩà¤Ī à¤ıà¤ķ
à¤Ĩà¤Ī à¤ıà¤¸
à¤Ĩà¤Ī à¤¤à¤¬
à¤Ĩà¤Ī à¤ıà¤²
à¤Ĩà¤Ī à¤ıà¤¸à¤ķ
à¤¨à¤¹ à¤ª
Ġà¤ĸà¤¬à¤° à¤ª
Ġà¤ĸà¤¬à¤° à¤¸à¤®
Ġà¤ĸà¤¬à¤° à¤ªà¤Ľ
Ġà¤ıà¤« à¤ıà¤¸à¤²
Ġà¤ıà¤« à¤ıà¤®à¤®
Ġà¤ıà¤« à¤ıà¤®à¤ķ
Ġà¤ıà¤« à¤«à¤°à¤ıà¤«
Ġà¤ļà¤°à¤® à¤°
Ġà¤ħà¤²à¤Ĺ à¤¥à¤²à¤Ĺ
à¤ıà¤¨à¤ı à¤¬
à¤ıà¤¨à¤ı à¤¨à¤²
à¤®à¤¯ à¤£à¤®
à¤µà¤¸à¤® à¤ķ
Ġà¥©à¥¬ à¥«
Ġà¥©à¥¬ à¥ª
Ġà¤¤à¤²à¤¬ à¤²
Ġà¤ıà¤¡ à¤ľà¤¸
Ġà¤ļà¤²à¤¨ à¤¹à¤°
à¤¯à¤¥ à¤²à¤¨
Ġà¤ħà¤µà¤² à¤ļ
Ġà¥ªà¥¨ à¥«
Ġà¥ªà¥¨ à¥ª
Ġà¥¬à¥« à¥«
Ġà¥¬à¥« à¥¯
Ġà¤ħà¤µà¤¶ à¤°à¤®
Ġà¤®à¤¦à¤¨ à¤ªà¤¥
Ġà¤®à¤¹ÅĴ à¤µà¤¸à¤®
Ġà¤ıà¤¨à¤Ĩà¤°à¤ıà¤¨à¤ı à¤Ń
à¤¤à¤ļ à¤°à¤²
Ġà¤¡à¤² à¤°à¤¬
Ġà¤¡à¤² à¤°à¤¨
Ġà¤¡à¤² à¤°à¤ª
Ġà¤¡à¤² à¤°à¤¸à¤¹
Ġà¤¬à¤¡ à¤¬à¤°
à¤īà¤ª à¤§
à¤īà¤ª à¤ł
à¤īà¤ª à¤¸à¤Ń
à¤¥à¤Ĺ à¤¨à¤®
Ġà¥¦à¥Ń à¥Ń
à¤¿à¥¤ âĢĿ
... '
Ġà¤ªà¤Ł à¤ķà¤²
Ġà¤Ĺà¤ľ à¤²à¤®
Ġà¤ļà¤°à¤£ à¤¦
Ġà¤ļà¤°à¤£ à¤¸à¤®
Ġà¤ıà¤¨à¤Ĩà¤°à¤ı à¤¨à¤¸
à¤£à¤ª à¤ĸ
Ġà¤¤à¤¬ à¤°à¤¬
Ġà¥©à¥Ń à¥«
Ġà¥©à¥Ń à¥Ń
Ġà¥«à¥¨ à¥«
Ġà¥«à¥¨ à¥®
à¤¦à¤¨à¤² à¤Ĺ
Ġà¥ªà¥© à¥«
Ġà¥ªà¥© à¥¬
Ġà¥ªà¥© à¥ª
Ġà¥ªà¥© à¥®
à¤Ĩà¤ľ à¤Ń
à¤Ĩà¤ľ à¤Ńà¤¨
Ġà¥©à¥ª à¥¬
à¥§à¥¦ à¥¯
Ġà¥§à¥¯à¥« à¥«
Ġà¥§à¥¯à¥« à¥¬
à¤ĩà¤¨à¤® à¤§
Ġà¤ħà¤²à¤® à¤²à¤²
à¥§à¥§ à¥«
Ġà¤ªà¤ļ à¤¹à¤¤
Ġà¤®à¤Ĺà¤° à¤¹à¤°
à¤ĩà¤ı à¤¦
à¤ĩà¤ı à¤Ŀ
à¤ĩà¤ı à¤ľà¤¸
à¤ĩà¤ı à¤ħà¤¨
à¤ĩà¤ı à¤ļà¤ıà¤¸
Ġà¤¬à¤Ł à¤¨à¤ķ
Ġà¤¬à¤Ł à¤¨à¤²
Ġà¤²à¤¤ à¤¸à¤®
Ġà¤²à¤¤ à¤ªà¤¤
à¤ĩà¤²à¤® à¤ķ
Ġà¤°à¤ľ à¤¤à¤ªà¤Łà¤®
à¤ıà¤ļ à¤ı
à¤ıà¤ļ à¤ıà¤«
à¤ıà¤ļ à¤ĵà¤ķ
à¤ıà¤ļ à¤Ĩà¤°à¤²
à¤°à¤Ļ à¤Ĺ
à¤°à¤Ļ à¤¸à¤®
à¥§à¥« à¥¯
à¤°à¤ľà¤¨ à¤¸
à¤¸à¤µà¤® à¤¯
à¤īà¤¸ à¤¸à¤®
ĠâĢĻ ,
Ġà¥«à¥¬ à¥«
à¤ıà¤¨à¤Ĩà¤° à¤ıà¤¨à¤ķ
à¤ıà¤¨à¤Ĩà¤° à¤ıà¤ı
Ġà¤¨à¤Ĺ à¤ª
Ġà¤¨à¤Ĺ à¤ı
Ġà¤¸à¤¹à¤¨ à¤¶à¤ķ
Ġà¥«à¥© à¥¨
à¤ľà¤ķà¤® à¤§
à¥Ĥà¤ģ ?
à¤Ńà¤ªà¤¤ à¤¨à¤¬
à¤¯à¤ľà¤¨ à¤¸
Ġà¥¬à¥© à¥¦
Ġà¥ªà¥§ à¥ª
Ġà¥ªà¥Ń à¥¦
à¤¾à¥Ī à¥¤âĢĻ
Ġà¤¹à¤Ļà¤ķ à¤Ļà¤µ
Ġà¥®à¥¨ à¥®
à¤ķà¤Ń à¤°à¤®
Ġà¤Ĺà¤¹à¤¨ à¤°
Ġà¤Ĺà¤¹à¤¨ à¤¤à¤®
à¤·à¤¯à¤¤ à¤°
à¤·à¤ķà¤® à¤§
Ġà¥ªà¥¬ à¥¦
à¥§à¥¨ à¥§
à¥§à¥¨ à¥ª
à¤¨à¤¸à¤¹ à¤ª
à¤¹à¤¨à¤¤ à¤ªà¤Ľ
à¤¹à¤¨à¤¤ à¤ħà¤¨
Ġà¤¸à¤¦à¤¨ à¤¸à¤¹
à¤ľà¤Ń à¤¤
Ġà¤ľà¤Ĺà¤¤ à¤¸
à¤²à¤Ĺà¤¨ à¤¶
à¤Ĩà¤ĩ à¤Ĩ
Ġà¥®à¥« à¥¦
Ġà¤ħà¤¸à¤¹à¤®à¤¤ à¤¹à¤°
à¤¨à¤Ľ à¤¹à¤°
Ġà¤ħà¤¨à¤¶à¤¨ à¤¦
Ġà¤ħà¤¨à¤¶à¤¨ à¤¬
Ġà¤ıà¤¯à¤° à¤°
Ġà¤ĵà¤ªà¤¨ à¤¹
Ġà¥¬à¥® à¥¨
Ġà¥¬à¥® à¥©
Ġà¤ķà¤°à¤£ à¤°
à¤²à¤ĸ à¤¬à¤¨
à¤Łà¤²à¤ķ à¤ľ
Ġà¤ĸà¤¬ à¤°à¤¸
à¤¤à¤°à¤¬ à¤¹à¤¤
Ġà¥«à¥Ń à¥©
Ġà¤ħà¤µà¤¤à¤°à¤£ à¤ªà¤Ľ
à¤ĩà¤Łà¤® à¤§
Ġà¤Ĩà¤ĩà¤ıà¤® à¤Īà¤ķ
Ġà¤Ĩà¤ĩà¤ıà¤® à¤Īà¤¦
Ġà¥Ńà¥® à¥©
Ġà¤¦à¤®à¤ķ à¤¡
Ġà¥¬à¥¨ à¥¬
à¤¸à¤« à¤°à¤®
Ġà¤łà¤® à¤łà¤®
Ġà¤¸à¤¡à¤ķà¤² à¤Ĺ
à¤¦à¤¶ à¤ľà¤¨
à¤¦à¤¶ à¤Ĺà¤ľ
Ġà¥§à¥¯à¥¬ à¥ª
à¤Ĺà¤µ à¤¤à¤®
à¤Ĺà¤µ à¤¤à¤®à¤¯
Ġà¤¡à¤ķ à¤µà¤°
Ġà¤¸à¤ªà¤¥ à¤ªà¤Ľ
Ġà¤¸à¤ªà¤¥ à¤ªà¤¤
Ġà¤Ĩà¤Īà¤¸ à¤«à¤²
Ġà¤¸à¤¨à¤® à¤²
Ġà¤¦à¤²à¤® à¤§
Ġà¤Łà¤ķ à¤¬à¤¹
Ġà¥¯à¥® à¥ªà¥®
à¤²à¤Ł à¤Ńà¤¨
Ġà¤¸à¤°à¤¹ à¤®
Ġà¤¸à¤°à¤¹ à¤¦à¤Ń
Ġà¤ıà¤ļ à¤ı
à¤¯à¤¦à¤² à¤¹à¤°
Ġà¤ķà¤²à¤ķ à¤²à¤µ
Ġà¤ķà¤²à¤® à¤ķ
à¤Īà¤ªà¤Łà¤ķ à¤ķ
à¤Īà¤ªà¤Łà¤ķ à¤Ńà¤¨
à¤¡à¤¹à¤° à¤®
à¤¯à¤¤à¤¬ à¤¶
à¤ĩà¤ĵ à¤Ĩà¤Ī
Ġà¥Ńà¥¯ à¥§à¥«
Ġà¤ĩà¤Ļ à¤ĺà¤Ļà¤²
Ġà¥¯à¥Ń à¥§
Ġà¥¯à¥Ń à¥¯
à¤ķà¤ħà¤ª à¤ªà¤Ľ
Ġà¤µà¤ļà¤¨ à¤µà¤¦
Ġà¤ľà¤¯à¤¨ à¤¨
Ġà¤°à¤¹à¤° à¤®
Ġà¥¯à¥¯ à¥¦
Ġà¤ªà¤¥ à¤Ń
Ġà¤ļà¤Ł à¤ªà¤Ł
à¥Įà¤ģ,âĢĻ âĢĻ
à¤ıà¤¸à¤ıà¤® à¤ıà¤¸
à¤Ĳ à¤ķ
Ġà¤Ńà¤ĩ à¤Ĺ
Ġà¤Ńà¤ĩ à¤Ľ
Ġà¤Ńà¤ĩ à¤ķà¤¨
Ġà¤Ńà¤ĩ à¤Ĩà¤ıà¤ķ
à¤ĩà¤²à¤ķ à¤°
à¤Ĺà¤łà¤¨à¤® à¤§
Ġà¤Ĩà¤ĩà¤¨ à¤ª
à¤¾à¤ĥ ,
Ġà¤ĵà¤Ńà¤° à¤¡
à¥įâĢº ,
Ġà¤²à¤ĸ à¤¨à¤²
à¤ĩà¤ļ à¤¢
Ġà¤Łà¤® à¤Łà¤°
Ġà¤®à¤¨à¤ķ à¤²
Ġà¤µà¤°à¤ªà¤° à¤¬
Ġà¤¦à¤®à¤¨ à¤µ
Ġà¤¦à¤®à¤¨ à¤¬
Ġà¤īà¤¦à¤¯ à¤ªà¤Ľ
à¤¨à¤Ĺ à¤¯
à¤ķà¤« à¤Łà¤®
Ġà¤²à¤¸ à¤ıà¤¨
Ġà¥¦à¥ª à¥§
Ġà¥¦à¥ª à¥¨
Ġà¤ªà¤¤à¤¨ à¤ªà¤Ľ
Ġà¤¨à¤°à¤® à¤ªà¤¨
Ġà¤¨à¤ī à¤¬
Ġà¤¨à¤ī à¤Ń
à¤¨à¤Ī à¤¶
à¤°à¤¬à¤¦ à¤²à¤ķ
à¤¸à¤¸à¤ķ à¤°
Ġà¤®à¤²à¤® à¤ªà¤Ł
à¤ļà¤¥ à¤°à¤²
Ġà¤®à¤¹à¤² à¤ħà¤¨
Ġà¤Ĩà¤µà¤¸ à¤°
à¤¡à¤°à¤¸ à¤¨à¤ķ
à¤¡à¤°à¤¸ à¤Łà¤®
à¤¼ à¥ģ
à¤¼ à¥Ī
à¤¼ à¥Į
à¤°à¤ħ à¤µ
Ġà¤¸à¤¯à¤® à¤§
à¤Īà¤ĺ à¤£
Ġà¤¡à¤® à¤°à¤¬à¤¹
Ġà¤¹à¤¦ à¤Ńà¤¨
Ġà¤īà¤Ľ à¤²à¤ķ
à¥Ńà¥© à¥Ń
Ġà¤Ŀà¤¡ à¤ªà¤¬
à¥ģâĢ º
à¤¦à¤¶à¤¨ à¤ªà¤Ľ
Ġà¤Ĺà¤¡ à¤Ĺà¤¡
à¤¯à¤ķà¤°à¤£ à¤¸
Ġà¤ıà¤¸à¤ĩ à¤ĩà¤ķ
à¥«à¥¬ à¥¬
Ġà¤Ĩà¤ĩà¤ıà¤¸ à¤¡
Ġà¤Ĩà¤ĩà¤ıà¤¸ à¤ĵ
à¤ľà¤Ĺà¤¢ à¤¸à¤®
Ġà¤ıà¤®à¤ı à¤ıà¤ļà¤ķ
à¤ľà¤¯à¤ª à¤¶
à¤§à¤¶à¤¤à¤ķ à¤ª
à¤°à¤µà¤ļà¤¨ à¤¹à¤°
ĠĠĠĠĠĠĠĠĠĠĠĠĠĠĠĠĠĠĠĠĠĠĠĠĠĠĠĠĠĠĠĠ ĠĠĠĠĠĠĠĠĠĠĠĠĠĠĠĠĠĠĠĠĠĠĠĠ
à¤¾à¥į à¥Īà¤Ĥ
à¤°à¤ķà¤°à¤£ à¤¸
Ġà¤Ĩà¤ĩà¤° à¤¨à¤²
à¤¯à¤ĺ à¤£
Ġà¤µà¤¢ à¤¨
à¤ıà¤¸à¤ı à¤²à¤¬
Ġà¥§à¥¨à¥« à¥®
th er
à¤°à¤¡ à¤®à¤®
à¤¸à¤ľà¤¨ à¤µ
à¤¸à¤ľà¤¨ à¤¹à¤°
Ġà¤¹à¤ł à¤µ
Ġà¤¤ÅĴ à¤µà¤²
à¤¯à¤¦à¤²à¤® à¤§
Ġà¤°à¤¡ à¤²à¤Ĺ
à¤Ĩà¤ĩà¤ıà¤¸ à¤ĵ
Ġw e
Ġw ww
Ġw ill
à¤¯à¤Ļ à¤¨
Ġà¤Ĩà¤ĩà¤ĵ à¤ıà¤¸à¤®
Ġà¤Ĩà¤ĩà¤ĵ à¤ıà¤¸à¤ķ
Ġà¤Ĩà¤ĩà¤ĵ à¤ıà¤®à¤ķ
à¤¯à¤°à¤¸ à¤¯
à¤ģà¤ģ à¤ģà¤ģ
à¤ļà¤ĸ à¤ªà¤¨à¤ķ
à¤ļà¤ĸ à¤ªà¤¨à¤²
Ġà¤ıà¤ıà¤¨ à¤ıà¤¸
à¤¢à¤² à¤ªà¤²
Ġà¤Ĩà¤µà¤°à¤£ à¤Ń
à¥¨à¥¯ à¥®
Ġà¥§à¥®à¥¦ à¥§
à¤°à¤ıà¤¨ à¤¹à¤°
à¤®à¤¨à¤® à¤Ĺà¤¨
à¥ªà¥ª à¥ª
à¤ĵà¤ª à¤¸à¤¨
en t
al pass
à¤¸à¤Ĺ à¤ŀ
à¤Īà¤ķà¤² à¤²
à¤°à¤®à¤¸à¤¹ à¤ļ
à¥¦à¥¬ à¥¬
à¥¯à¥¯ à¥¯
Ġà¥§à¥ªà¥¦ à¥ª
à¤¨à¤°à¤¸ à¤¬
à¤ķà¤ł à¤ª
à¤¸à¤¯à¤ķ à¤¡
Ġà¤¬à¤Ĺà¤° à¤Ľ
Ġà¤ľà¤¨à¤Ĺ à¤£à¤ķ
à¤°à¤µà¤¹ à¤¨à¤®
à¤®à¤ľà¤¨ à¤®à¤²
à¤¡à¤°à¤¶ à¤Ł
à¤¡à¤°à¤¶ à¤Łà¤®
Ġà¤ıà¤Ļ à¤Ĺà¤²à¤¬
ĠĠĠĠĠĠĠĠĠĠĠĠĠĠĠĠĠĠĠĠĠĠĠĠ ĠĠ
ĠĠĠĠĠĠĠĠĠĠĠĠĠĠĠĠĠĠĠĠĠĠĠĠ ĠĠĠĠĠĠ
ĠĠĠĠĠĠĠĠĠĠĠĠĠĠĠĠĠĠĠĠĠĠĠĠ ĠĠĠĠĠ
ep al
it i
it y
ÂŃ )
ÂŃ ÂŃ)
ĠA f
ĠA pp
à¥įà¤ĥ âĢĵ
Ġà¤¸à¤¤à¤² à¤ľà¤²
Ġà¤Ľà¤® à¤Ľà¤®
Ġà¤²à¤µ à¤ľà¤®
à¤ıà¤®à¤ĵ à¤¯
à¤ıà¤®à¤ĵ à¤¡
à¤ķà¤Łà¤¸ à¤¬à¤¨
Ġ,âĢĺ âĢĺ
à¤ĭ à¤£
à¥ĩâĢĶ âĢĺ
à¤¦à¤°à¤¬ à¤¸
Ġà¤¹à¤°à¤ķ à¤łà¤µ
à¤īà¤ªà¤ķ à¤°à¤£
à¥Įà¥Īà¤Ĥ à¥¤
Ġà¤ħà¤¨à¤¸ à¤¶à¤¨
Ġà¤Ĩà¤ĩà¤ıà¤² à¤Ł
à¤Ĩà¤°à¤ıà¤¸ à¤ıà¤¸
Ġà¥§à¥Ńà¥¦ à¥¨à¥«
à¤¥à¤²à¤Ĺ à¤¤à¤°
Ġà¤Ĩà¤¡ à¤Ńà¤°
à¥Įà¥Īà¤ģ âĢĻ
Ġà¤Ĩà¤°à¤ıà¤¸ à¤ıà¤¸à¤ķ
Ġà¤ıà¤«à¤Ĩà¤Ī à¤Ĩà¤°à¤®
ww w
Â¬ )
Ġt al
à¤¿... ?
à¤®à¤°à¤¹ à¤ł
à¤¹à¤ļ à¤°à¤£à¤®
à¤¹à¤ļ à¤°à¤£à¤ķ
Ġà¤ľà¤®à¤² à¤¸
âĢ© âĢ©
Ġà¤ıà¤¸à¤ĵ à¤ıà¤ļà¤Ĩà¤°à¤²
Ġà¤Īà¤Ļà¤ĺ à¤Ļà¤²
44 4
nep embassy
op er
ĠT h
Ġh ttp
à¤¤à¤§ à¤®à¤¨
Ġà¤°à¤¤à¤¨ à¤ļ
Ġà¤Ľà¤²à¤ķ à¤ªà¤Łà¤ķ
Ġà¤Ľà¤²à¤ķ à¤ªà¤Ł
à¤īà¤ªà¤® à¤¹
Ġà¤¶à¤ª à¤¥à¤ķ
à¤Ŀà¤®à¤ķ à¤ķ
Ġà¤ıà¤¸à¤ı à¤Łà¤ª
ĠĠĠĠĠĠĠĠĠĠĠĠĠĠĠĠĠĠĠĠĠĠĠĠĠĠĠĠĠĠĠĠĠĠĠĠĠĠĠĠĠĠĠĠĠĠĠĠĠĠĠĠĠĠĠĠĠĠĠĠĠĠĠĠ ĠĠĠĠ
Indi an
Ġà¤¤à¤¡à¤ķà¤Ńà¤¡à¤ķ à¤Ńà¤¨
ri end
ĠO li
ĠP M
Ġb e
Ġà¤ķà¤Ń à¤°à¤¬
Ġà¤ķà¤¨à¤ķ à¤®à¤£
Ġà¤Ĺà¤Ĺ à¤¨à¤¸
à¥Ī... )à¥¤
Ġà¤°à¤¸à¤° à¤Ļ
Ġà¤ħà¤Ĺà¤° à¤¬à¤¤
à¤ľà¤¬à¤° à¤ľà¤¸
Ġà¤¦à¤²à¤¬à¤² à¤¸à¤¹
Ġà¤Ĩà¤ľà¤® à¤¸
ill ion
ac y
go v
rad e
ĠB illion
ĠN epal
ĠQ more
ĠW e
Ġan d
Ġnep alpass
à¤¨à¤Ńà¤µ à¤¨à¤®
Ġà¤°à¤¸à¤¦ à¤ª
à¤ıà¤ıà¤« à¤¯
Ġà¤Ľà¤ł à¤ªà¤°
Ġà¤Ľà¤Ļ à¤Ľà¤Ļ
Ġà¤Ĩà¤ªà¤¨ à¤¤
Ġà¤ħà¤¸à¤¹à¤¨ à¤¶
Ġà¤Ľà¤²à¤ª à¤«à¤²
Ġ1234567 8
Pl ay
no t
Ġst ore
Ġex t
Ġvis it
à¤¨à¤ħ à¤Łà¤°
Ġà¤ªà¤²à¤ª à¤²à¤®
à¤Ĺà¤µà¤° à¤ªà¤°
à¤ıà¤ıà¤¨à¤ıà¤² à¤Ł
Ġà¤¬à¤°à¤¹ à¤¥à¤µ
Ġà¤¹à¤¥à¤ķ à¤£
Ġà¤µà¤²à¤Ń à¤¦
à¤¥à¤Łà¤¬ à¤ķ
à¤¡à¤µà¤¯ à¤°à¤ķ
Ġà¤ıà¤ħ à¤°à¤ª
Ġà¤°à¤¹à¤²à¤ª à¤¹à¤²
Ġà¤¡à¤°à¤§ à¤®
à¤Ĩà¤®à¤¸ à¤ŀ
à¤Ĩà¤®à¤¹ à¤¡
Ġà¤ĶÃĪ à¤§
Ġà¤ıà¤¨à¤ıà¤¸ à¤¡à¤¬
Ġà¤ıà¤¸à¤ıà¤² à¤ıà¤«à¤ª
à¤ıà¤¸à¤Ĩà¤ĩà¤Ĩà¤° à¤ĵ
Ġà¥¯à¥®à¥ªà¥® à¥©
Ġnepalpass port
% )
' '
' à¥¤
) (
) .
) ;
) à¥ĩ
) âĢĶ
) )à¥¤
, "
, à¥¤
, à¥¤âĢĻ
, Ã·
0 1
0 6
1 23
2 1
2 9
2 500
3 5
3 00
3 21
4 321
5 4321
6 54321
7 2
7 654321
8 7654321
9 0
? ,âĢĻ
? âĢĻ,
A F
A K
A P
A w
B lo
C C
C h
C o
C ri
D i
D om
E D
E F
E R
E s
G u
I I
I O
I AF
J o
K A
K L
K P
L A
M r
M in
M ar
M CC
N P
N R
N T
O M
O KL
P i
P re
Q u
R A
R e
S D
S p
T Y
T w
T op
V is
W as
W ER
a b
a k
a v
a in
a pp
a ve
a ge
c h
c k
c ort
d e
d f
d v
d ing
e en
e di
e op
e Was
f ect
f lect
g p
g an
g ion
g is
h a
h o
h s
h at
h ar
h es
i z
k s
k es
l e
l y
l at
l om
l ation
l com
l et
l lect
m p
m à¤¸
m à¤ª
m à¤Ľ
m à¤Ń
m à¤¨à¤ķ
m à¤¸à¤®
m à¤²à¤®
m à¤²à¤¬
m à¤²à¤¨
m à¤ľà¤¸
m à¤Ńà¤¦
m an
n p
n à¤¨à¤µ
n al
n ation
n av
o w
o ol
o ther
o oper
o kes
p er
p ec
p rad
p et
p lom
r ep
r iti
r oper
r acy
r gan
s on
s en
s an
s end
s ive
t u
t w
t y
t in
t ter
t ac
t ration
t Gu
u e
u al
u nt
u lat
u mp
u san
u tu
v it
w or
§ §
Â ģ
Â į
Ã ľ
Å Ĥ
Ì ¸
à §§
Ġ 3
Ġ U
Ġ [
Ġ \
Ġ |
Ġ ~
Ġ à¥Ĥ
Ġ or
Ġ ar
Ġ In
Ġ lo
Ġ India
Ġ Def
Ġ Indian
Ġ not
Ġ 06
Ġ 29
Ġ Ch
Ġ Es
Ġ Jo
Ġ KP
Ġ Re
Ġ Vis
Ġ de
Ġ let
Ġ man
Ġ nà¤¨à¤µ
Ġ rep
Ġ send
Ġ ump
Ġ ÅĤ
Ġ Ì¸
Ġ à§§
à¤ ±
à¥ Ĭ
à¤¾ ]
à¤¾ à¤¾à¤ģ
à¤¾ à¥ĥ
à¤¾ à¤¾à¥Īà¤Ĥ
à¤¾ âĢĮ
à¥į (
à¥į _
à¥į à¥ĭ
à¥į à¥Ĥ
à¥į à¥Įà¤Ĥ
à¥į à¥Įà¤ģà¥¤
à¥į à¥ģà¥ģ
à¥į ...
à¥į Â«
à¥į à¥Īà¥Ī
à¥į à¥ĩà¥ĩ
à¥į à¤¾à¥į
à¥į à¥Įà¤Ĥ,'
à¥į à¤¾à¥ĭ
à¥į à¥Ģà¤¿
à¤° m
à¤° à¤°à¤®
à¤° à¤¢
à¤° à¤°à¤²
à¤° à¤Łà¤¨
à¤° à¤¨à¤¨
à¤° à¤łà¤®
à¤° à¤ıà¤ªà¤Ľ
à¤° à¤ľà¤®
à¤° à¤Ĩà¤°
à¤° à¤¯à¤ķà¤°
à¤° à¤ĺà¤°
à¤° à¤°à¤£à¤ķ
à¤° à¤Ķ
à¤° à¤īà¤¨à¤ķ
à¤° à¤¡à¤¨
à¤° à¤Ĩà¤«
à¤° à¤Łà¤«
à¤° à¤Łà¤°à¤ķ
à¤° à¤ħà¤§
à¤° à¤ĩà¤Ń
à¤° à¤īà¤¤
à¤° à¤ħà¤¹
à¤° à¤ħà¤Ń
à¤° à¤·à¤£à¤²
à¤° à¤ħà¤¸
à¤° à¤Ĩà¤¬
à¤° à¤¡à¤ª
à¤° à¤Ĺà¤®à¤¨à¤ķ
à¤° à¤¯à¤ķà¤²
à¤° à¤¨à¤²à¤Ĺ
à¤° à¤¯à¤²à¤²
à¤° à¤Īà¤¸
à¤° à¤ıà¤¬
à¤° mà¤¨
à¤° à¤¡à¤Ńà¤¨
à¤° à¤īà¤ªà¤°
à¤° à¤¡à¤®à¤ķ
à¤° à¤Ŀà¤²
à¤° à¤ıà¤¨à¤ķ
à¤° à¤łà¤Ĺ
à¤° à¤ĵà¤Ł
à¤° à¤ĩà¤Ńà¤ķ
à¤° à¤ľà¤Ĺà¤ľ
à¤° à¤ħà¤¸à¤«à¤²
à¤° à¤īà¤ªà¤°à¤ķ
à¤¨ à¤¨à¤²
à¤¨ à¤°à¤¦
à¤¨ à¤°à¤µ
à¤¨ à¤¤à¤¨
à¤¨ à¤Łà¤¨
à¤¨ à¤Łà¤°
à¤¨ à¤¦à¤¨
à¤¨ à¤°à¤Ń
à¤¨ à¤ıà¤¨
à¤¨ à¤ľà¤ķ
à¤¨ à¤Ĺà¤²
à¤¨ à¤¯à¤°
à¤¨ à¤¶à¤®
à¤¨ à¤ļà¤ķ
à¤¨ à¤ĸà¤°
à¤¨ à¤ªà¤²
à¤¨ à¤¬à¤²
à¤¨ à¤µà¤¯
à¤¨ à¤¡à¤®
à¤¨ à¤¯à¤¸à¤®
à¤¨ à¤ĩà¤²
à¤¨ à¤¤à¤°à¤£
à¤¨ à¤¹à¤²
à¤¨ à¤¡à¤²
à¤¨ à¤ıà¤®
à¤¨ à¤ĩà¤ķ
à¤¨ à¤ļà¤²
à¤¨ à¤¡à¤°
à¤¨ à¤Ĺà¤łà¤¨
à¤¨ à¤ħà¤°
à¤¨ à¤Ĩà¤«
à¤¨ à¤¡à¤¸
à¤¨ à¤¶à¤¨à¤²
à¤¨ à¤ĺà¤°à¤®
à¤¨ à¤īà¤ª
à¤¨ à¤ħà¤¬
à¤¨ à¤Ĺà¤£
à¤¨ à¤Īà¤¦
à¤¨ à¤Ĺà¤Ń
à¤¨ à¤Īà¤¸
à¤¨ à¤ıà¤īà¤Ł
à¤¨ à¤¶à¤¨à¤¬
à¤¨ à¤ĩà¤ļ
à¤¨ à¤¯à¤²à¤Ĺ
à¤¨ à¤Ĩà¤µà¤¶
à¤¨ à¤Ĩà¤īà¤¨
à¤¨ à¤ĵà¤Ł
à¤¨ à¤ĺà¤¨à¤²
à¤¿ ',
à¤¿ âĢĮ
à¤¿ ...âĢĻ
à¤ķ à¤¯à¤¤
à¤ķ à¤µà¤°
à¤ķ à¤¨à¤¨
à¤ķ à¤Łà¤°
à¤ķ à¤°à¤®à¤£
à¤ķ à¤ªà¤²
à¤ķ à¤£à¤ķ
à¤ķ à¤ªà¤Łà¤ķ
à¤ķ à¤¹à¤²
à¤ķ à¤Ńà¤ıà¤ķ
à¤ķ à¤¥à¤²
à¤ķ à¤ļà¤²
à¤ķ à¤°à¤¹à¤¨
à¤ķ à¤Ĺà¤¨
à¤ķ à¤īà¤µ
à¤ķ à¤Ķ
à¤ķ à¤ħà¤°
à¤ķ à¤Ļà¤®
à¤ķ à¤°à¤¬à¤¹
à¤ķ à¤ľà¤µ
à¤ķ à¤Ĭ
à¤ķ à¤īà¤¤
à¤ķ à¤ħà¤Ń
à¤ķ à¤°à¤¸à¤¹
à¤ķ à¤°à¤®à¤¨
à¤ķ à¤°à¤²à¤Ĺ
à¤ķ à¤²à¤ķà¤ķ
à¤ķ à¤ªà¤¨à¤¬
à¤ķ à¤Ĩà¤¦
à¤ķ à¤°à¤¦à¤¤
à¤ķ à¤¦à¤²à¤¹à¤°
à¥ĩ :
à¥ĩ ;
à¥ĩ <
à¥ĩ à¤ĥ
à¥ĩ à¤¾à¥¤
à¥ĩ âĢĿ,
à¥ĩ ...âĢĻ
à¥ĩ âĢį
à¥ĭ (
à¥ĭ à¤¾à¥¤
à¥ĭ à¥ĩà¤Ĥ
à¥ĭ ..
à¥ĭ à¤¾à¤¿
à¥ĭ ...âĢĻ
à¥ĭ à¥Īà¤ģ,
à¥ĭ à¥Īà¤Ĥ,
à¥ĭ âĢ²,
à¤² à¤ıà¤ķ
à¤² à¤°à¤¸
à¤² à¤°à¤µ
à¤² à¤µà¤¨
à¤² à¤¤à¤¨
à¤² à¤¸à¤°
à¤² à¤¶à¤¨
à¤² à¤¹à¤ķ
à¤² à¤µà¤ª
à¤² à¤Ļà¤ķ
à¤² à¤¡à¤²
à¤² à¤¥à¤²
à¤² à¤ļà¤²
à¤² à¤ĺà¤°
à¤² à¤·à¤£à¤ķ
à¤² à¤Ńà¤²
à¤² à¤¦à¤¤
à¤² à¤ļà¤¸
à¤² à¤¹à¤¬
à¤² à¤¡à¤ª
à¤² à¤¯à¤¤à¤¸
à¤² à¤¸à¤²à¤Ĺ
à¤² à¤Ĩà¤¦
à¤² à¤Ĩà¤ī
à¤² à¤Ĺà¤®à¤§
à¤² à¤ħà¤µà¤§
à¤® à¤°à¤¦
à¤® à¤ķà¤²
à¤® à¤ķà¤®
à¤® à¤¬à¤¨
à¤® à¤²à¤¬
à¤® à¤¨à¤¨
à¤® à¤Łà¤°
à¤® à¤®à¤¨
à¤® à¤«à¤²
à¤® à¤ľà¤ķ
à¤® à¤µà¤²
à¤® à¤¹à¤¨
à¤® à¤¥à¤®
à¤® à¤£à¤ķ
à¤® à¤¯à¤¸à¤®
à¤® à¤¯à¤ª
à¤® à¤§à¤®
à¤® à¤Ńà¤¯
à¤® à¤¦à¤µ
à¤® à¤ľà¤¨à¤ķ
à¤® à¤¯à¤¯
à¤® à¤¥à¤ķ
à¤® à¤£à¤®
à¤® à¤¯à¤¬
à¤® à¤µà¤¦
à¤® à¤ĩà¤¤
à¤® à¤¥à¤¨
à¤® à¤£à¤¸
à¤® à¤Ļà¤®
à¤® à¤ĸà¤®
à¤® à¤µà¤¬
à¤® à¤īà¤¤
à¤® à¤ĸà¤£
à¤® à¤°à¤ķà¤Ł
à¤® à¤ľà¤¹à¤°
à¤® à¤ĺà¤°à¤ķ
à¤® à¤Ĩà¤ıà¤ķ
à¤® à¤²à¤²à¤Ĺ
à¤® à¤Łà¤¨à¤®
à¤® à¤Łà¤¨à¤²
à¤® à¤ħà¤ªà¤°
à¤® à¤Ĩà¤¨
à¤® à¤ıà¤ľ
à¤® à¤¸à¤ķà¤¸
à¤® à¤¹à¤®à¤¦
à¤® à¤Ĩà¤¦
à¤® à¤Ĩà¤¶
à¤® à¤¢à¤²
à¤® à¤Łà¤¨à¤¬
à¤® à¤ĩà¤¤à¤°
à¤¤ à¤ªà¤¨
à¤¤ à¤²à¤¬
à¤¤ à¤¤à¤¨
à¤¤ à¤¤à¤²
à¤¤ à¤¶à¤®
à¤¤ à¤¦à¤°
à¤¤ à¤ĸà¤°
à¤¤ à¤§à¤°
à¤¤ à¤Ĩà¤«
à¤¤ à¤¸à¤°à¤ķ
à¤¤ à¤Łà¤¸
à¤¤ à¤Ĺà¤¸
à¤¤ à¤ħà¤ª
à¤¤ à¤ĸà¤¤
à¤¤ à¤²à¤¬à¤²
à¤¤ à¤ħà¤Ń
à¤¤ à¤µà¤°à¤£à¤®
à¤¤ à¤²à¤¨à¤¬
à¤¤ à¤µà¤²à¤Ĺ
à¤¤ à¤ĭà¤·
à¤¯ à¤ł
à¤¯ à¤¯à¤¤
à¤¯ à¤Ŀ
à¤¯ à¤¯à¤µà¤¸
à¤¯ à¤µà¤¨
à¤¯ à¤ļà¤¨
à¤¯ à¤µà¤ķ
à¤¯ à¤·à¤ķ
à¤¯ à¤°à¤Ń
à¤¯ à¤µà¤²
à¤¯ à¤¶à¤¨
à¤¯ à¤ħà¤ĺ
à¤¯ à¤¦à¤°
à¤¯ à¤ªà¤²
à¤¯ à¤¯à¤¤à¤ķ
à¤¯ à¤ľà¤®
à¤¯ à¤¦à¤®
à¤¯ à¤Ńà¤ıà¤ķ
à¤¯ à¤Ļà¤²
à¤¯ à¤Ĺà¤¢
à¤¯ à¤īà¤¨à¤ķ
à¤¯ à¤¯à¤®à¤¬
à¤¯ à¤Łà¤°à¤®
à¤¯ à¤¯à¤®à¤²
à¤¯ à¤¶à¤¨à¤²
à¤¯ à¤ľà¤¨à¤®
à¤¯ à¤ħà¤®
à¤¯ à¤ħà¤«
à¤¯ à¤ĩà¤ļ
à¤¯ à¤ħà¤¡
à¤¯ mà¤®
à¥ģ à¥įâĢį
à¥ģ à¥ģ,
à¥ģ à¥ģà¤ĥ
à¥ģ âĢĿ
à¥ģ âĢĶ
à¥ģ à¥Ĥà¤ģ
à¥ģ ...âĢĻ
à¥Ģ ;
à¥Ģ à¥į
à¥Ģ à¥Ģ
à¥Ģ ..
à¥Ģ ',
à¥Ģ à¥¤'
à¥Ģ ÂŃ
à¥Ģ Â¬)
à¤¸ à¤µà¤¸
à¤¸ à¤ĩà¤¨
à¤¸ à¤ªà¤¤
à¤¸ à¤¬à¤¨
à¤¸ à¤¯à¤²
à¤¸ à¤°à¤¯
à¤¸ à¤Ńà¤°
à¤¸ à¤ĸà¤°
à¤¸ à¤¯à¤¸à¤®
à¤¸ à¤¸à¤Ń
à¤¸ à¤Ļà¤²
à¤¸ à¤¤à¤¤
à¤¸ à¤¯à¤¹à¤°
à¤¸ à¤ĺà¤²
à¤¸ à¤ħà¤§
à¤¸ à¤Łà¤ª
à¤¸ à¤ľà¤¨à¤®
à¤¸ à¤ĩà¤¬
à¤¸ à¤Łà¤¨à¤ķ
à¤¸ à¤¯à¤Ńà¤¨
à¤¸ à¤ħà¤¦
à¤¸ à¤¡à¤ķà¤²
à¤¸ à¤Ĩà¤¦
à¤¸ à¤ĵà¤¨
à¤¸ à¤ħà¤ªà¤²
Ġà¤¸ à¤ĩ
Ġà¤¸ à¤¸à¤ķ
Ġà¤¸ à¤¨à¤²
Ġà¤¸ à¤²à¤ķ
Ġà¤¸ à¤ªà¤Ľ
Ġà¤¸ à¤ĩà¤¨
Ġà¤¸ à¤¯à¤¨
Ġà¤¸ à¤¬à¤¨
Ġà¤¸ à¤Ĺà¤¤
Ġà¤¸ à¤°à¤¬
Ġà¤¸ à¤ļà¤¨
Ġà¤¸ à¤Łà¤¨
Ġà¤¸ à¤ľà¤ķ
Ġà¤¸ à¤Ĺà¤²
Ġà¤¸ à¤Łà¤®
Ġà¤¸ à¤¶à¤¤
Ġà¤¸ à¤Ĺà¤®
Ġà¤¸ à¤ĸà¤°
Ġà¤¸ à¤«à¤¤
Ġà¤¸ à¤ľà¤²
Ġà¤¸ à¤²à¤¸
Ġà¤¸ à¤°à¤¤à¤ķ
Ġà¤¸ à¤²à¤µ
Ġà¤¸ à¤¸à¤¸
Ġà¤¸ à¤¥à¤ķ
Ġà¤¸ à¤¸à¤ļ
Ġà¤¸ à¤°à¤¹à¤¨
Ġà¤¸ à¤°à¤®à¤ķ
Ġà¤¸ à¤Ĺà¤łà¤¨
Ġà¤¸ à¤īà¤¦
Ġà¤¸ à¤Łà¤¹à¤°
Ġà¤¸ à¤°à¤µà¤°
Ġà¤¸ à¤Łà¤°à¤¸
Ġà¤¸ à¤²à¤¬à¤²
Ġà¤¸ à¤¥à¤ª
Ġà¤¸ à¤Ĺà¤łà¤¨à¤¹à¤°
Ġà¤¸ à¤Ĺà¤¯
Ġà¤¸ à¤¥à¤°à¤²
Ġà¤¸ à¤°à¤®à¤¦
Ġà¤¸ à¤Łà¤°à¤¸à¤¹
Ġà¤ª à¤ľ
Ġà¤ª à¤²à¤®
Ġà¤ª à¤ªà¤®
Ġà¤ª à¤²à¤²
Ġà¤ª à¤µà¤°
Ġà¤ª à¤ķà¤°
Ġà¤ª à¤Łà¤°
Ġà¤ª à¤°à¤®à¤®
Ġà¤ª à¤¶à¤²
Ġà¤ª à¤¸à¤ª
Ġà¤ª à¤Ĺà¤¡
Ġà¤ª à¤¡à¤¤
Ġà¤ª à¤¥à¤¸
Ġà¤ª mà¤²
Ġà¤ª à¤¸à¤¨à¤°
Ġà¤ª Ãŀ
à¤ª à¤«
à¤ª à¤īà¤¨
à¤ª à¤°à¤£
à¤ª à¤ľà¤¨
à¤ª à¤ĺ
à¤ª à¤Ļ
à¤ª à¤Ŀ
à¤ª à¤ħ
à¤ª à¤ªà¤¤
à¤ª à¤ªà¤®
à¤ª à¤¸à¤°
à¤ª à¤°à¤®à¤£
à¤ª à¤¬à¤°
à¤ª à¤¬à¤¦
à¤ª à¤¥à¤ķ
à¤ª à¤§à¤°
à¤ª à¤ļà¤°
à¤ª à¤Ĺà¤¨
à¤ª à¤Ĩà¤«
à¤ª à¤ľà¤¬
à¤ª à¤īà¤²
à¤ª à¤¡à¤¤
à¤ª à¤łà¤¨
à¤ª à¤Ńà¤°à¤ķ
à¤ª à¤¦à¤ķà¤¸
à¤ª à¤Łà¤®à¤¯
à¤¦ à¤§
à¤¦ à¤°à¤£
à¤¦ à¤ĺ
à¤¦ à¤Ļ
à¤¦ à¤Ŀ
à¤¦ à¤¯à¤¨
à¤¦ à¤®à¤ķ
à¤¦ à¤¸à¤²
à¤¦ à¤µà¤°
à¤¦ à¤¦à¤¨
à¤¦ à¤°à¤®à¤£
à¤¦ à¤®à¤²
à¤¦ à¤µà¤®
à¤¦ à¤Ńà¤°
à¤¦ à¤ĩà¤¸à¤ķ
à¤¦ à¤¹à¤ķ
à¤¦ à¤®à¤¬
à¤¦ à¤¶à¤²
à¤¦ à¤ļà¤®
à¤¦ à¤¶à¤¬
à¤¦ à¤ħà¤°
à¤¦ à¤¶à¤¨à¤®
à¤¦ à¤Ńà¤²
à¤¦ à¤¶à¤¨à¤ķ
à¤¦ à¤¶à¤µ
à¤¦ à¤°à¤¸à¤¹
à¤¦ à¤°à¤²à¤Ĺ
à¤¦ à¤¶à¤ª
à¤¦ à¤¶à¤®à¤¶
à¤¦ à¤°à¤¸à¤¨
à¤¦ à¤ķà¤®à¤§
à¤¹ à¤¶
à¤¹ à¤ĩ
à¤¹ à¤µà¤°
à¤¹ à¤²à¤¬
à¤¹ à¤¤à¤¨
à¤¹ à¤ķà¤°
à¤¹ à¤Łà¤°
à¤¹ à¤²à¤¯
à¤¹ à¤ķà¤¤
à¤¹ à¤®à¤²
à¤¹ à¤µà¤²
à¤¹ à¤ħà¤ĺ
à¤¹ à¤²à¤¯à¤ķ
à¤¹ à¤¤à¤µ
à¤¹ à¤¦à¤²
à¤¹ à¤®à¤¬
à¤¹ à¤¸à¤Ń
à¤¹ à¤¸à¤¬
à¤¹ à¤Ńà¤ıà¤ķ
à¤¹ à¤¤à¤¬
à¤¹ à¤Ļà¤ķ
à¤¹ à¤ľà¤°
à¤¹ à¤Ĺà¤¢
à¤¹ à¤Łà¤¬
à¤¹ à¤¶à¤®à¤¶
à¤µ à¤·
à¤µ à¤ıà¤ķ
à¤µ à¤Ľ
à¤µ à¤«
à¤µ à¤¢
à¤µ à¤¯à¤¸
à¤µ à¤Ŀ
à¤µ à¤²à¤¯
à¤µ à¤ľà¤ķ
à¤µ à¤¹à¤¨
à¤µ à¤¡à¤²
à¤µ à¤ľà¤°
à¤µ à¤Īà¤²
à¤µ à¤¹à¤¤
à¤µ à¤Īà¤ķ
à¤µ à¤ĩà¤®
à¤µ à¤ļà¤¨à¤®
à¤µ à¤¶à¤¬
à¤µ à¤Ńà¤ķ
à¤µ à¤¬à¤®
à¤µ à¤ļà¤¨à¤ķ
à¤µ à¤ĩà¤¬
à¤µ à¤¯à¤®à¤®
à¤µ à¤Īà¤®
à¤µ à¤ľà¤¶
à¤µ à¤¤à¤°à¤£à¤ķ
à¤µ à¤Ĩà¤¯
à¤µ à¤Ĩà¤ĩà¤ľ
à¤µ à¤ĩà¤ļ
à¤µ à¤ħà¤¤
à¤µ à¤£à¤¸à¤®
à¤µ à¤¤à¤²à¤Ĺ
à¤µ à¤ħà¤¡
à¤µ à¤ħà¤µà¤¸
à¤µ à¤Ĩà¤ª
à¤µ à¤ıà¤Ĩà¤ĩà¤ľ
à¤µ à¤īà¤ªà¤®à¤¹
à¥¤ "
à¥¤ âĢľ
à¥¤ âĢ²
Ġà¤ķ à¤ªà¤¨
Ġà¤ķ à¤°à¤¸
Ġà¤ķ à¤µà¤°
Ġà¤ķ à¤²à¤¬
Ġà¤ķ à¤¤à¤¨
Ġà¤ķ à¤ļà¤¨
Ġà¤ķ à¤²à¤¨
Ġà¤ķ à¤«à¤²
Ġà¤ķ à¤¡à¤ķ
Ġà¤ķ à¤ļà¤ķ
Ġà¤ķ à¤µà¤¯
Ġà¤ķ à¤°à¤¦à¤°
Ġà¤ķ à¤ªà¤Łà¤ķ
Ġà¤ķ à¤°à¤£à¤®
Ġà¤ķ à¤ķà¤ª
Ġà¤ķ à¤ļà¤¨à¤ķ
Ġà¤ķ à¤Ĺà¤ľ
Ġà¤ķ à¤īà¤¡
Ġà¤ķ à¤²à¤¬à¤²
Ġà¤ķ à¤°à¤®à¤¨
Ġà¤ķ à¤°à¤²à¤Ĺ
Ġà¤ķ à¤°à¤¤à¤°
Ġà¤ķ à¤Ļà¤¦
Ġà¤ķ à¤²à¤¬à¤¸
Ġà¤ķ à¤Ńà¤°à¤®
Ġà¤ķ à¤ĸà¤Ĺ
Ġà¤ķ à¤īà¤²à¤²
Ġà¤Ĺ à¤ª
Ġà¤Ĺ à¤ľà¤¨
Ġà¤Ĺ à¤¨à¤®
Ġà¤Ĺ à¤Ľà¤¨
Ġà¤Ĺ à¤®à¤ķ
Ġà¤Ĺ à¤¯à¤²
Ġà¤Ĺ à¤²à¤²
Ġà¤Ĺ à¤µà¤°
Ġà¤Ĺ à¤Łà¤¨
Ġà¤Ĺ à¤ĩà¤ıà¤ķ
Ġà¤Ĺ à¤¦à¤°
Ġà¤Ĺ à¤¨à¤°
Ġà¤Ĺ à¤«à¤¬
Ġà¤Ĺ à¤²à¤ª
Ġà¤Ĺ à¤²à¤¤à¤ķ
Ġà¤Ĺ à¤«à¤ķ
Ġà¤Ĺ à¤¡à¤«
Ġà¤Ĺ à¤ĩà¤¨à¤¨
Ġà¤Ĺ à¤Īà¤¨
Ġà¤Ĺ à¤®à¤¬à¤¹
Ġà¤Ĺ à¤¨à¤¬à¤¹
à¤Ĺ à¤ı
à¤Ĺ à¤§
à¤Ĺ à¤¥
à¤Ĺ à¤Ľ
à¤Ĺ à¤ĸ
à¤Ĺ à¤µà¤¸
à¤Ĺ à¤ŀ
à¤Ĺ à¤Ŀ
à¤Ĺ à¤ıà¤°
à¤Ĺ à¤ķà¤²
à¤Ĺ à¤Ĺà¤¤
à¤Ĺ à¤¶à¤¤
à¤Ĺ à¤ħà¤ĺ
à¤Ĺ à¤Ĩà¤°
à¤Ĺ à¤Ńà¤ıà¤ķ
à¤Ĺ à¤°à¤£à¤®
à¤Ĺ à¤°à¤£à¤²
à¤Ĺ à¤ļà¤°
à¤Ĺ à¤ĩà¤¤
à¤Ĺ à¤Ĺà¤¨
à¤Ĺ à¤īà¤¦
à¤Ĺ à¤ľà¤¤
à¤Ĺ à¤ľà¤¬
à¤Ĺ à¤ªà¤¶
à¤Ĺ à¤¹à¤£
à¤Ĺ à¤£à¤ªà¤¤
à¤Ĺ à¤ĺà¤¨
à¤Ĺ à¤ħà¤Ń
à¤Ĺ à¤ħà¤Ĺ
à¤Ĺ à¤°à¤£à¤¬
à¤Ĺ à¤ĩà¤ļ
à¤Ĺ à¤¹à¤µ
à¤Ĺ à¤ªà¤°à¤°
à¤Ĺ à¤Ĩà¤Īà¤²
à¤Ĺ à¤«à¤²à¤ķ
à¤Ĺ à¤²à¤¨à¤ľ
à¥Ī :
à¥Ī à¤¿
à¥Ī à¤¾à¤ģ
à¥Ī ,âĢĻ
à¥Ī à¥Īà¤ģ
à¥Ī âĢĿ
à¥Ī âĢľ
à¥Ī ',
à¥Ī à¥¤'
à¥Ī à¥¤âĢĿ
à¥Ī ...âĢĻ
Ġà¤° à¤°
Ġà¤° à¤²
Ġà¤° à¤ª
Ġà¤° à¤·
Ġà¤° à¤ħ
Ġà¤° à¤ķà¤²
Ġà¤° à¤ĸà¤°
Ġà¤° à¤ªà¤²
Ġà¤° à¤¸à¤Ń
Ġà¤° à¤¨à¤ª
Ġà¤° à¤ľà¤§
Ġà¤° à¤ľà¤¨à¤ķ
Ġà¤° à¤§à¤°
Ġà¤° à¤ļà¤°
Ġà¤° à¤¥à¤¨
Ġà¤° à¤£à¤¸
Ġà¤° à¤Ĩà¤«
Ġà¤° à¤ļà¤¯
Ġà¤° à¤ľà¤¹à¤°
Ġà¤° à¤£à¤¬
Ġà¤° à¤Ļà¤¸
Ġà¤° à¤¨à¤¸à¤¹
Ġà¤° à¤Ĺà¤ª
Ġà¤° à¤ĸà¤¬
Ġà¤° à¤ķà¤²à¤Ĺ
Ġà¤° à¤ħà¤¦
Ġà¤° à¤£à¤¦
Ġà¤° à¤¸à¤¹à¤¯
Ġà¤° à¤ħà¤µà¤¸à¤°
Ġà¤¨ à¤Ī
Ġà¤¨ à¤°à¤ķ
Ġà¤¨ à¤ĩà¤¨
Ġà¤¨ à¤®à¤ķ
Ġà¤¨ à¤«à¤²
Ġà¤¨ à¤¨à¤¸
Ġà¤¨ à¤°à¤¶
Ġà¤¨ à¤ħà¤ĺ
Ġà¤¨ à¤²à¤¤
Ġà¤¨ à¤ĩà¤²
Ġà¤¨ à¤¶à¤²
Ġà¤¨ à¤°à¤ª
Ġà¤¨ à¤²à¤µ
Ġà¤¨ à¤¨à¤ª
Ġà¤¨ à¤²à¤°
Ġà¤¨ à¤ķà¤Ł
Ġà¤¨ à¤ļà¤°
Ġà¤¨ à¤ĸà¤²
Ġà¤¨ à¤«à¤ķ
Ġà¤¨ à¤ĩà¤ª
Ġà¤¨ à¤ĸà¤¨
Ġà¤¨ à¤īà¤ķ
Ġà¤¨ à¤¸à¤¤
Ġà¤¨ à¤īà¤®
Ġà¤¨ à¤°à¤¸à¤¹
Ġà¤¨ à¤ħà¤¸
Ġà¤¨ à¤¹à¤°à¤²
Ġà¤¨ à¤°à¤¶à¤®à¤¶
Ġà¤¨ à¤ĺà¤ļ
Ġà¤¨ à¤łà¤¹à¤°
Ġà¤¨ à¤¢à¤²
Ġà¤¨ à¤Ļà¤¹à¤°
Ġà¤¨ à¤ĵà¤°
Ġà¤¨ à¤¡à¤Ĺ
Ġà¤¨ à¤¨à¤ķà¤®
à¤Ł à¤ı
à¤Ł à¤¥
à¤Ł à¤īà¤¨
à¤Ł à¤°à¤¤
à¤Ł à¤ªà¤°
à¤Ł à¤¢
à¤Ł à¤°à¤¹
à¤Ł à¤ĩà¤¨
à¤Ł à¤ªà¤®
à¤Ł à¤µà¤¨
à¤Ł à¤¬à¤°
à¤Ł à¤Ńà¤°
à¤Ł à¤ªà¤²
à¤Ł à¤Ļà¤ķ
à¤Ł à¤¸à¤¸
à¤Ł à¤¸à¤¨à¤²
à¤Ł à¤ļà¤°
à¤Ł à¤¡à¤°
à¤Ł à¤Ĩà¤µ
à¤Ł à¤°à¤µà¤ķ
à¤Ł à¤«à¤ķ
à¤Ł à¤ľà¤¤
à¤Ł à¤¨à¤²à¤Ĺ
à¤Ł à¤ĵà¤ķ
à¤Ł à¤īà¤ªà¤°
à¤Ł à¤Ĩà¤¨
à¤Ł à¤ĸà¤¬à¤°
à¤Ł à¤ªà¤°à¤¸
à¤Ł à¤Ĩà¤°à¤ķ
à¤Ł à¤ľà¤Ļ
à¤Ł à¤Ľà¤²
à¤Ł à¤īà¤ł
à¤Ł à¤ıà¤¯à¤°à¤²
à¤ı l
à¤ı à¤·
à¤ı à¤ıà¤ķ
à¤ı à¤£
à¤ı à¤°à¤¤
à¤ı à¤°à¤¹
à¤ı à¤°à¤²
à¤ı à¤¤à¤°
à¤ı à¤¤à¤¨
à¤ı à¤¸à¤°
à¤ı à¤¤à¤²
à¤ı à¤µà¤®
à¤ı à¤ĵ
à¤ı à¤Łà¤²
à¤ı à¤ħà¤°
à¤ı à¤ļà¤¸
à¤ı à¤«à¤°
à¤ı à¤ĩà¤¬
à¤ı à¤Ĩà¤Ī
à¤ı à¤ļà¤¬
à¤ı à¤ıà¤²à¤ķ
à¤ı à¤ıà¤¸à¤²
à¤ı à¤ıà¤«à¤¡
à¤ı à¤¶à¤ľ
à¤ı à¤ıà¤²à¤²
à¤ı à¤ıà¤¸à¤¬
à¤ı à¤Ĩà¤°à¤®
à¤ı à¤Ĩà¤Īà¤Ł
Ġà¤Ń à¤ĸ
Ġà¤Ń à¤°à¤ķ
Ġà¤Ń à¤¢
Ġà¤Ń à¤°à¤¹
Ġà¤Ń à¤°à¤²
Ġà¤Ń à¤ķà¤®
Ġà¤Ń à¤Łà¤°
Ġà¤Ń à¤°à¤Ń
Ġà¤Ń à¤µà¤¤
Ġà¤Ń à¤ĩà¤ķ
Ġà¤Ń à¤²à¤°
Ġà¤Ń à¤®à¤°
Ġà¤Ń à¤°à¤¤à¤²
Ġà¤Ń à¤Ĺà¤¨
Ġà¤Ń à¤°à¤¤à¤¬
Ġà¤Ń à¤īà¤ķ
Ġà¤Ń à¤ľà¤¨à¤®
Ġà¤Ń mà¤¨
Ġà¤Ń ÃĴ
Ġà¤ħ à¤°à¤®
Ġà¤ħ à¤¨à¤ķ
Ġà¤ħ à¤Łà¤ķ
Ġà¤ħ à¤Ĺà¤¤
Ġà¤ħ à¤²à¤¨
Ġà¤ħ à¤Łà¤°
Ġà¤ħ à¤ľà¤¸
Ġà¤ħ à¤¦à¤°
Ġà¤ħ à¤ķà¤¨
Ġà¤ħ à¤īà¤¨à¤ķ
Ġà¤ħ à¤£à¤µ
Ġà¤ħ à¤ķà¤®à¤ķ
Ġà¤ħ à¤¹à¤°à¤£à¤®
Ġà¤ħ à¤ľà¤Ĺà¤¨
Ġà¤ħ à¤¨à¤ķà¤²
Ġà¤¬ à¤ª
Ġà¤¬ à¤¶
Ġà¤¬ à¤£
Ġà¤¬ à¤Ń
Ġà¤¬ à¤ł
Ġà¤¬ à¤¬à¤¨
Ġà¤¬ à¤¯à¤²
Ġà¤¬ à¤ķà¤°
Ġà¤¬ à¤¬à¤²
Ġà¤¬ à¤łà¤ķ
Ġà¤¬ à¤Łà¤¬
Ġà¤¬ à¤ķà¤µ
Ġà¤¬ à¤®à¤²à¤Ĺ
Ġà¤¬ à¤ĩà¤¤à¤¬
Ġà¤¬ à¤¡à¤¬à¤¡
Ġà¤¹ à¤¹
Ġà¤¹ à¤·
Ġà¤¹ à¤¶
Ġà¤¹ à¤°à¤¹
Ġà¤¹ à¤°à¤¸
Ġà¤¹ à¤¤à¤ķ
Ġà¤¹ à¤Łà¤ķ
Ġà¤¹ à¤µà¤¨
Ġà¤¹ à¤°à¤¬
Ġà¤¹ à¤²à¤¨
Ġà¤¹ à¤Łà¤°
Ġà¤¹ à¤ªà¤ķ
Ġà¤¹ à¤Ĺà¤²
Ġà¤¹ à¤Łà¤²
Ġà¤¹ à¤¦à¤²
Ġà¤¹ à¤²à¤¸
Ġà¤¹ à¤¡à¤²
Ġà¤¹ à¤¡à¤°
Ġà¤¹ à¤°à¤ķà¤Ł
Ġà¤¹ à¤²à¤²à¤Ĺ
Ġà¤¹ à¤ķà¤²à¤Ĺ
Ġà¤¹ à¤Ļà¤ľ
Ġà¤¹ à¤¤à¤ķà¤£
Ġà¤® à¤µ
Ġà¤® à¤«
Ġà¤® à¤¯à¤¨
Ġà¤® à¤Łà¤°
Ġà¤® à¤«à¤²
Ġà¤® à¤²à¤Ĺ
Ġà¤® à¤ĵà¤µ
Ġà¤® à¤ľà¤Ĺ
Ġà¤® à¤ķà¤¸
Ġà¤® à¤°à¤£à¤ķ
Ġà¤® à¤ĩà¤¤
Ġà¤® à¤°à¤£à¤µ
Ġà¤® à¤Ĩà¤¨à¤ķ
Ġà¤Ĺà¤° à¤°
Ġà¤Ĺà¤° à¤ıà¤ķ
Ġà¤Ĺà¤° à¤ªà¤Ľ
Ġà¤Ĺà¤° à¤Ŀ
Ġà¤Ĺà¤° à¤Ńà¤¨
Ġà¤Ĺà¤° à¤Ĺà¤¹à¤£
à¤ľ à¤¯à¤¸
à¤ľ à¤ŀ
à¤ľ à¤¯à¤¤
à¤ľ à¤ªà¤®
à¤ľ à¤²à¤¨
à¤ľ à¤°à¤¹à¤°
à¤ľ à¤®à¤¤
à¤ľ à¤Ńà¤°
à¤ľ à¤¯à¤µ
à¤ľ à¤°à¤¨
à¤ľ à¤Ńà¤µ
à¤ľ à¤¤à¤¬
à¤ľ à¤Ĺà¤¤à¤®
à¤ľ à¤ĸà¤¨
à¤ľ à¤ħà¤ª
à¤ľ à¤¯à¤¸à¤¹
à¤ľ à¤ĺà¤°à¤ķ
à¤ľ à¤ĸà¤¬
à¤ľ à¤¡à¤ľ
à¤ľ à¤ľà¤¸à¤²
à¤ľ à¤Łà¤¹
à¤ľ à¤ļà¤²à¤²
à¤ľ à¤Ļà¤ĸ
à¤ľ à¤īà¤ªà¤°à¤ķ
Ġà¤µ à¤Ĺ
Ġà¤µ à¤¸à¤®
Ġà¤µ à¤¯à¤®
Ġà¤µ à¤²à¤®
Ġà¤µ à¤¤à¤¨
Ġà¤µ à¤ķà¤°
Ġà¤µ à¤¸à¤°
Ġà¤µ à¤¨à¤®à¤¨
Ġà¤µ à¤·à¤ķ
Ġà¤µ à¤ľà¤ķ
Ġà¤µ à¤¯à¤¹
Ġà¤µ à¤ķà¤¤
Ġà¤µ à¤¦à¤²
Ġà¤µ à¤¨à¤ª
Ġà¤µ à¤ľà¤¨à¤ķ
Ġà¤µ à¤²à¤°
Ġà¤µ à¤ļà¤¨à¤ķ
Ġà¤µ à¤·à¤°
Ġà¤µ à¤ļà¤¸
Ġà¤µ à¤ľà¤¨à¤²
Ġà¤µ à¤¸à¤®à¤ķ
Ġà¤µ à¤¤à¤¨à¤²
Ġà¤µ à¤ļà¤¤
Ġà¤µ à¤ľà¤¨à¤Ńà¤¨
Ġà¤µ à¤§à¤¶
à¤¬ à¤¯
à¤¬ à¤ª
à¤¬ à¤°à¤¤
à¤¬ à¤¤à¤°
à¤¬ à¤Ŀ
à¤¬ à¤ķà¤®
à¤¬ à¤°à¤µ
à¤¬ à¤µà¤°
à¤¬ à¤ķà¤°
à¤¬ à¤®à¤²
à¤¬ à¤Łà¤®
à¤¬ à¤Łà¤²
à¤¬ à¤¬à¤²
à¤¬ à¤¹à¤ķ
à¤¬ à¤¸à¤¹
à¤¬ à¤ľà¤²
à¤¬ à¤§à¤®
à¤¬ à¤®à¤¸
à¤¬ à¤§à¤¨à¤ķ
à¤¬ à¤¥à¤¨
à¤¬ à¤Ĺà¤¬
à¤¬ à¤Łà¤¸
à¤¬ à¤«à¤°
à¤¬ à¤ĩà¤¬
à¤¬ à¤ħà¤ª
à¤¬ à¤¬à¤°à¤®
à¤¬ à¤°à¤¸à¤¹
à¤¬ à¤ļà¤¨à¤¬
à¤¬ à¤ļà¤¤
à¤¬ à¤ĩà¤¸à¤®
à¤¬ à¤¤à¤²à¤Ĺ
à¤¬ à¤ıà¤¸à¤¸
à¤¬ à¤°à¤¦à¤¤
à¤¬ à¤«à¤Ł
à¤· à¤¸à¤ķ
à¤· à¤µà¤¸
à¤· à¤¢
à¤· à¤¤à¤ķ
à¤· à¤¸à¤²
à¤· à¤Ĺà¤¤
à¤· à¤°à¤¹à¤°
à¤· à¤°à¤ľ
à¤· à¤°à¤¸à¤®
à¤· à¤¬à¤®
à¤· à¤Ĩà¤«
à¤· à¤īà¤¤
à¤· à¤ªà¤¶
à¤· à¤īà¤®
à¤· à¤°à¤²à¤Ĺ
à¤· à¤µà¤®à¤¨
à¤· à¤Ĩà¤°à¤®
à¤· à¤ħà¤¸à¤°
à¤· à¤ıà¤µà¤®
à¤§ à¤Ľ
à¤§ à¤°à¤®
à¤§ à¤¯à¤ķ
à¤§ à¤µà¤¸
à¤§ à¤°à¤¹
à¤§ à¤²à¤ķ
à¤§ à¤ªà¤¨
à¤§ à¤°à¤¸
à¤§ à¤°à¤¦
à¤§ à¤®à¤ķ
à¤§ à¤µà¤¨
à¤§ à¤¤à¤¨
à¤§ à¤¨à¤¨
à¤§ à¤°à¤¹à¤°
à¤§ à¤ªà¤ķ
à¤§ à¤Ĺà¤²
à¤§ à¤ķà¤¤
à¤§ à¤¶à¤¨
à¤§ à¤¶à¤¤
à¤§ à¤Ĺà¤®
à¤§ à¤ħà¤ĺ
à¤§ à¤¸à¤¹
à¤§ à¤ªà¤Łà¤ķ
à¤§ à¤ĩà¤¤
à¤§ à¤Ķ
à¤§ à¤ħà¤§
à¤§ à¤ªà¤¨à¤ķ
à¤§ à¤ľà¤¹
à¤§ à¤¶à¤°à¤£
à¤§ à¤°à¤®à¤§
à¤§ à¤Ĩà¤§
à¤§ à¤¸à¤®à¤¸
à¤§ à¤īà¤ªà¤¨
Ġà¤Ľ à¤¸
Ġà¤Ľ à¤Ĺ
Ġà¤Ľ à¤īà¤¨
Ġà¤Ľ à¤ľà¤¨
Ġà¤Ľ à¤¡à¤ķ
Ġà¤Ľ à¤ľà¤¸
Ġà¤Ľ à¤¸à¤¬
Ġà¤Ľ à¤¤à¤¹à¤°
Ġà¤¤ à¤ľ
Ġà¤¤ à¤§
Ġà¤¤ à¤ĸ
Ġà¤¤ à¤°à¤¤
Ġà¤¤ à¤°à¤£
Ġà¤¤ à¤Ĺà¤°
Ġà¤¤ à¤ªà¤¤
Ġà¤¤ à¤ķà¤ķ
Ġà¤¤ à¤ªà¤ķ
Ġà¤¤ à¤®à¤¨
Ġà¤¤ à¤ķà¤¨
Ġà¤¤ à¤ķà¤¸
Ġà¤¤ à¤Ļà¤®
Ġà¤¤ à¤¬à¤¸
Ġà¤¤ à¤¬à¤°à¤®
Ġà¤¤ à¤®à¤¬à¤¹
Ġà¤¤ à¤°à¤®à¤¨
Ġà¤¤ à¤µà¤°à¤Ńà¤¨
à¤ģ !
à¤ģ ?
à¤ģ à¤¿
à¤ģ à¥ģà¤ģ
à¤ģ à¥ĩ,
à¤ģ à¥ĩà¥¤
à¤ģ à¥Īà¤Ĥ
à¤ģ à¥ģà¤Ĥ
à¤ģ à¥ģà¥¤
à¤ģ à¥ĩ,âĢĻ
à¤ģ ?âĢĿ
Ġà¤¦ à¤ª
Ġà¤¦ à¤§
Ġà¤¦ à¤Ī
Ġà¤¦ à¤ľà¤¨
Ġà¤¦ à¤¸à¤®
Ġà¤¦ à¤²à¤¨
Ġà¤¦ à¤°à¤¹à¤°
Ġà¤¦ à¤®à¤®
Ġà¤¦ à¤®à¤²
Ġà¤¦ à¤¸à¤¬
Ġà¤¦ à¤¶à¤¬
Ġà¤¦ à¤²à¤¨à¤¹à¤°
Ġà¤¦ à¤¸à¤®à¤§
Ġà¤¦ à¤¶à¤¨à¤°
à¤ıà¤ķ à¤¸
à¤ıà¤ķ à¤¢
à¤ıà¤ķ à¤²à¤ķ
à¤ıà¤ķ à¤ªà¤Ľ
à¤ıà¤ķ à¤¤à¤°
à¤ıà¤ķ à¤µà¤°
à¤ıà¤ķ à¤ªà¤Łà¤ķ
à¤ıà¤ķ à¤Ĩà¤ĩà¤ıà¤¸
à¤ıà¤ķ à¤¨à¤ıà¤ķ
à¤ıà¤ķ à¤¹à¤¦à¤¸à¤®
à¤¥ à¤ı
à¤¥ à¤ıà¤ķ
à¤¥ à¤ļ
à¤¥ à¤¡
à¤¥ à¤ªà¤°
à¤¥ à¤ľà¤¨
à¤¥ à¤µà¤¸
à¤¥ à¤°à¤¹
à¤¥ à¤ªà¤Ľ
à¤¥ à¤°à¤¦
à¤¥ à¤Ľà¤¨
à¤¥ à¤¤à¤ķ
à¤¥ à¤¨à¤¸
à¤¥ à¤ıà¤¨
à¤¥ à¤¶à¤¤
à¤¥ à¤Ńà¤°
à¤¥ à¤°à¤¨
à¤¥ à¤ľà¤®
à¤¥ à¤¸à¤¹
à¤¥ à¤²à¤¯à¤®
à¤¥ à¤¨à¤ª
à¤¥ à¤¨à¤Ĺà¤°
à¤¥ à¤ħà¤Ń
à¤¥ à¤Ĩà¤īà¤Ł
à¤¥ à¤¨à¤¸à¤¹
à¤¥ à¤Ĩà¤§
à¤¥ à¤īà¤ªà¤¯
à¤¥ à¤Ĩà¤¶
à¤¥ à¤²à¤¨à¤ľ
Ġà¥¤ âĢľ
à¤¶ à¤Ł
à¤¶ à¤¥
à¤¶ à¤īà¤¨
à¤¶ à¤µà¤¸
à¤¶ à¤ĺ
à¤¶ à¤°à¤²
à¤¶ à¤¶à¤ķ
à¤¶ à¤¸à¤²
à¤¶ à¤Ĺà¤¤
à¤¶ à¤²à¤¨
à¤¶ à¤¨à¤¨
à¤¶ à¤¨à¤®à¤¨
à¤¶ à¤ľà¤ķ
à¤¶ à¤®à¤²
à¤¶ à¤¶à¤®
à¤¶ à¤¦à¤°
à¤¶ à¤ľà¤²
à¤¶ à¤¦à¤®
à¤¶ à¤°à¤£à¤®
à¤¶ à¤ľà¤¨à¤ķ
à¤¶ à¤¹à¤¤
à¤¶ à¤¯à¤¹à¤°
à¤¶ à¤ħà¤§
à¤¶ à¤¯à¤ľà¤¨
à¤¶ à¤¹à¤µ
à¤¶ à¤®à¤²à¤Ĺ
à¤¶ à¤ıà¤¨à¤²
à¤¶ à¤Ĩà¤ļ
à¤¶ à¤īà¤ªà¤°à¤ķ
à¤Ĥ )
à¤Ĥ à¥į
à¤Ĥ à¥Īà¤Ĥ
à¤Ĥ ,âĢĻ
à¤Ĥ âĢĻ,
à¤Ĥ à¤Ĥ.
à¤Ĥ à¤ģà¥ģ
à¤Ĥ à¥¤'
Ġà¤Ĩ à¤·
Ġà¤Ĩ à¤°à¤£
Ġà¤Ĩ à¤°à¤¹
Ġà¤Ĩ à¤¤à¤ķ
Ġà¤Ĩ à¤²à¤²
Ġà¤Ĩ à¤ªà¤ķ
Ġà¤Ĩ à¤¦à¤¨
Ġà¤Ĩ à¤¡à¤ķ
Ġà¤Ĩ à¤¬à¤°
Ġà¤Ĩ à¤Ĺà¤®
Ġà¤Ĩ à¤ľà¤²
Ġà¤Ĩ à¤Ļà¤ķ
Ġà¤Ĩ à¤ļà¤®
Ġà¤Ĩ à¤²à¤µ
Ġà¤Ĩ à¤Īà¤²
Ġà¤Ĩ à¤Īà¤ķ
Ġà¤Ĩ à¤Ļà¤®
Ġà¤Ĩ à¤¡à¤¬
Ġà¤Ĩ à¤¯à¤®à¤¬
Ġà¤Ĩ à¤ĩà¤¨à¤¨
Ġà¤Ĩ à¤¯à¤¸à¤¹
Ġà¤Ĩ à¤¯à¤®à¤¹à¤°
Ġà¤Ĩ à¤ķà¤²à¤¨à¤ķ
Ġà¤Ĩ à¤Ĭà¤¨
Ġà¤Ĩ à¤¨à¤ķà¤¨
Ġà¤Ĩ à¤¯à¤¨à¤¬
Ġà¤Ĩ à¤¦à¤¨à¤ª
Ġà¤Ĩ à¤¸à¤¬à¤¹
Ġà¤ľ à¤§
Ġà¤ľ à¤¶
Ġà¤ľ à¤Ń
Ġà¤ľ à¤°à¤ķ
Ġà¤ľ à¤¹à¤°
Ġà¤ľ à¤«
Ġà¤ľ à¤¯à¤®
Ġà¤ľ à¤²à¤ķ
Ġà¤ľ à¤²à¤²
Ġà¤ľ à¤¸à¤¨
Ġà¤ľ à¤µà¤ķ
Ġà¤ľ à¤²à¤¨
Ġà¤ľ à¤¨à¤®à¤¨
Ġà¤ľ à¤¡à¤ķ
Ġà¤ľ à¤²à¤Ĺ
Ġà¤ľ à¤¦à¤°
Ġà¤ľ à¤°à¤¨
Ġà¤ľ à¤ľà¤²
Ġà¤ľ à¤ĩà¤¦
Ġà¤ľ à¤¯à¤µà¤¹
Ġà¤ľ à¤¯à¤Ń
Ġà¤ľ à¤¯à¤²à¤ķ
Ġà¤ľ à¤«à¤°à¤²
Ġà¤ľ à¤¤à¤¨à¤¸
à¤Ľ à¤¬
à¤Ľ à¤ļ
à¤Ľ à¤°à¤®
à¤Ľ à¤°à¤²
à¤Ľ à¤¤à¤°
à¤Ľ à¤ªà¤ķ
à¤Ľ à¤ħà¤¨
à¤Ľ à¤²à¤Ĺ
à¤£ à¤Ľ
à¤£ à¤ļ
à¤£ à¤Ń
à¤£ à¤°à¤¤
à¤£ à¤ªà¤°
à¤£ à¤ķà¤²
à¤£ à¤µà¤ķ
à¤£ à¤¨à¤¨
à¤£ à¤°à¤¹à¤°
à¤£ à¤®à¤¨
à¤£ à¤®à¤®
à¤£ à¤ľà¤¸
à¤£ à¤ħà¤ĺ
à¤£ à¤¤à¤¤
à¤£ à¤£à¤®
à¤£ à¤Ĺà¤¨
à¤£ à¤¬à¤®
à¤£ à¤ªà¤Ł
à¤£ à¤¦à¤¤
à¤£ à¤ħà¤Ĺ
à¤£ à¤¯à¤¸à¤¹
à¤£ à¤Ķà¤·à¤§
à¤£ à¤¢à¤²
à¤£ à¤¸à¤¹à¤¯
à¤£ à¤īà¤¦à¤¯
Ġà¤² à¤¦
Ġà¤² à¤¶
Ġà¤² à¤°à¤ķ
Ġà¤² à¤¸à¤ķ
Ġà¤² à¤¯à¤¤
Ġà¤² à¤®à¤ķ
Ġà¤² à¤µà¤°
Ġà¤² à¤µà¤ķ
Ġà¤² à¤²à¤¨
Ġà¤² à¤Łà¤°
Ġà¤² à¤¤à¤²
Ġà¤² à¤ľà¤ķ
Ġà¤² à¤Ńà¤°
Ġà¤² à¤ľà¤²
Ġà¤² à¤²à¤¨à¤ķ
Ġà¤² à¤µà¤¦
Ġà¤² à¤Ńà¤²
Ġà¤² à¤¹à¤¸
Ġà¤² à¤¯à¤ħà¤¨
Ġà¤² à¤°à¤ķà¤¨
à¤ļ à¤ļ
à¤ļ à¤ł
à¤ļ à¤ĺ
à¤ļ à¤ŀ
à¤ļ à¤°à¤¸
à¤ļ à¤¤à¤ķ
à¤ļ à¤Ĺà¤¤
à¤ļ à¤¡à¤ķ
à¤ļ à¤¤à¤²
à¤ļ à¤¸à¤¦
à¤ļ à¤¯à¤¹
à¤ļ à¤¯à¤µ
à¤ļ à¤¦à¤°
à¤ļ à¤¯à¤¸à¤®
à¤ļ à¤°à¤ļà¤¨
à¤ļ à¤¬à¤¹
à¤ļ à¤¯à¤ķà¤°
à¤ļ à¤ĺà¤°
à¤ļ à¤Ĺà¤¢
à¤ļ à¤°à¤£à¤ķ
à¤ļ à¤ħà¤§
à¤ļ à¤ıà¤¸à¤ª
à¤ļ à¤ħà¤Ĺ
à¤ļ à¤Ĺà¤®à¤¨à¤ķ
à¤ļ à¤¹à¤ª
à¤ļ à¤ªà¤¡
à¤ļ à¤Ĩà¤¦
à¤ļ à¤¤à¤¹à¤¸à¤®
à¤Ī à¤·
à¤Ī à¤§
à¤Ī à¤Ľ
à¤Ī à¤ĸ
à¤Ī à¤ªà¤°
à¤Ī à¤¢
à¤Ī à¤¯à¤¤
à¤Ī à¤ªà¤Ľ
à¤Ī à¤Ŀ
à¤Ī à¤²à¤¬
à¤Ī à¤¸à¤¨
à¤Ī à¤¸à¤°
à¤Ī à¤«à¤²
à¤Ī à¤¡à¤ķ
à¤Ī à¤¸à¤¦
à¤Ī à¤Ĺà¤®
à¤Ī à¤¨à¤¬
à¤Ī à¤¦à¤²
à¤Ī à¤¸à¤Ń
à¤Ī à¤ªà¤¦
à¤Ī à¤Ĺà¤¦
à¤Ī à¤ıà¤®
à¤Ī à¤¬à¤¹
à¤Ī à¤ħà¤°
à¤Ī à¤®à¤¹
à¤Ī à¤«à¤ķ
à¤Ī à¤ľà¤¬
à¤Ī à¤ļà¤¸
à¤Ī à¤Łà¤¸
à¤Ī à¤«à¤°
à¤Ī à¤¸à¤¤
à¤Ī à¤īà¤¤
à¤Ī à¤¨à¤Ń
à¤Ī à¤ħà¤¸
à¤Ī à¤¹à¤ª
à¤Ī à¤¹à¤ľ
à¤Ī à¤Ĩà¤ľà¤ķ
à¤Ī à¤Ĩà¤¶
à¤Ī à¤ĵà¤Ł
à¤Ī à¤²à¤®à¤§
à¤Ī à¤īà¤ªà¤²à¤¬
à¤Ī à¤¸à¤µà¤Ł
à¤Ī à¤¸à¤¹à¤°à¤®
à¥Ĥ '
à¥Ĥ /
à¥Ĥ :
à¥Ĥ à¥ĥ
à¥Ĥ âĢĿ
à¥Ĥ âĢĶ
à¥Ĥ âĢľ
à¥Ĥ ),
Ġà¤ī à¤Ł
Ġà¤ī à¤¥
Ġà¤ī à¤¶
Ġà¤ī à¤®à¤ķ
Ġà¤ī à¤²à¤¬
Ġà¤ī à¤°à¤¹à¤°
Ġà¤ī à¤ıà¤¨
Ġà¤ī à¤®à¤²
Ġà¤ī à¤°à¤¨
Ġà¤ī à¤¯à¤¦
Ġà¤ī à¤¸à¤µ
à¤¡ à¤ı
à¤¡ à¤¥
à¤¡ à¤Ī
à¤¡ à¤ł
à¤¡ à¤¯à¤¤
à¤¡ à¤Ĺà¤°
à¤¡ à¤¤à¤°
à¤¡ à¤Ŀ
à¤¡ à¤Ľà¤¨
à¤¡ à¤¬à¤¨
à¤¡ à¤°à¤µ
à¤¡ à¤Łà¤ķ
à¤¡ à¤¯à¤²
à¤¡ à¤µà¤°
à¤¡ à¤µà¤¨
à¤¡ à¤®à¤¨
à¤¡ à¤µà¤®
à¤¡ à¤¨à¤°
à¤¡ à¤ľà¤®
à¤¡ à¤ıà¤¸
à¤¡ à¤¹à¤²
à¤¡ à¤°à¤ª
à¤¡ à¤¯à¤¯à¤¨
à¤¡ à¤¬à¤¹
à¤¡ à¤¬à¤®
à¤¡ à¤¸à¤°à¤ķ
à¤¡ à¤ĩà¤ª
à¤¡ à¤ªà¤¥
à¤¡ à¤ĸà¤£
à¤¡ à¤µà¤¹à¤°
à¤¡ à¤ĩà¤¨à¤®
à¤¡ à¤ħà¤«
à¤¡ à¤Łà¤¨à¤ķ
à¤¡ à¤°à¤²à¤Ĺ
à¤¡ à¤Łà¤ķà¤®
à¤¡ à¤°à¤®à¤§
à¤¡ à¤ļà¤¡
à¤¡ à¤ıà¤¸à¤ıà¤²
à¤¡ à¤Ĩà¤ĩà¤Ł
à¤¡ à¤¸à¤¨à¤ª
à¤¡ à¤Ĺà¤²à¤¸
à¤¡ à¤Ĩà¤¯à¤²
à¤Ń à¤Ī
à¤Ń à¤ĩ
à¤Ń à¤¨à¤²
à¤Ń à¤°à¤¹
à¤Ń à¤ªà¤¨
à¤Ń à¤Ĺà¤¤
à¤Ń à¤²à¤¬
à¤Ń à¤ķà¤ķ
à¤Ń à¤ĩà¤°à¤¹
à¤Ń à¤®à¤®
à¤Ń à¤ħà¤¨
à¤Ń à¤®à¤²
à¤Ń à¤²à¤Ĺ
à¤Ń à¤ªà¤²
à¤Ń à¤°à¤£à¤®
à¤Ń à¤°à¤£à¤ķ
à¤Ń à¤²à¤¸à¤®
à¤Ń à¤ľà¤¨à¤®
à¤Ń à¤ĩà¤°à¤¹à¤¨
à¤Ń à¤µà¤¸à¤¹
à¤Ń à¤¬à¤¹à¤°
à¤Ń à¤²à¤¬à¤ľ
à¤ī à¤¯
à¤ī à¤¶
à¤ī à¤Ļ
à¤ī à¤ŀ
à¤ī à¤ªà¤Ľ
à¤ī à¤Ŀ
à¤ī à¤ıà¤°
à¤ī à¤²à¤¬
à¤ī à¤¸à¤¨
à¤ī à¤Ńà¤¨
à¤ī à¤¸à¤¦
à¤ī à¤ĸà¤°
à¤ī à¤¤à¤µ
à¤ī à¤¦à¤ķ
à¤ī à¤¸à¤Ń
à¤ī à¤®à¤§
à¤ī à¤®à¤°
à¤ī à¤¸à¤¸
à¤ī à¤¥à¤ķ
à¤ī à¤¸à¤¹à¤°
à¤ī à¤¤à¤¹à¤°
à¤ī à¤¥à¤¸
à¤ī à¤ĵà¤ķ
à¤ī à¤§à¤¨à¤¸
à¤ī à¤Ĩà¤¦
à¤ī à¤ıà¤¨à¤®
à¤ī à¤Īà¤ļà¤¸
à¤ĸ à¤ı
à¤ĸ à¤ĸ
à¤ĸ à¤ªà¤°
à¤ĸ à¤Ĺà¤°
à¤ĸ à¤¤à¤°
à¤ĸ à¤°à¤¸
à¤ĸ à¤ħ
à¤ĸ à¤ªà¤¤
à¤ĸ à¤°à¤µ
à¤ĸ à¤Łà¤ķ
à¤ĸ à¤Ĩ
à¤ĸ à¤°à¤¹à¤°
à¤ĸ à¤ķà¤°
à¤ĸ à¤ªà¤ķ
à¤ĸ à¤¤à¤®
à¤ĸ à¤¨à¤¸
à¤ĸ à¤ħà¤¨
à¤ĸ à¤Ńà¤°
à¤ĸ à¤ħà¤ĺ
à¤ĸ à¤¹à¤ķ
à¤ĸ à¤¬à¤¦
à¤ĸ à¤¨à¤ª
à¤ĸ à¤¤à¤ª
à¤ĸ à¤§à¤°
à¤ĸ à¤¸à¤ļ
à¤ĸ à¤¨à¤¦
à¤ĸ à¤¤à¤¹à¤°
à¤ĸ à¤ĸà¤¨
à¤ĸ à¤°à¤Ńà¤°
à¤ĸ à¤Ĩà¤¯
à¤ĸ à¤¨à¤²à¤Ĺ
à¤ĸ à¤ķà¤²à¤Ĺ
à¤ĸ à¤ħà¤¤
à¤ĸ à¤Ĩà¤¦
à¤ĸ à¤¤à¤°à¤¨
Ġà¤¯ à¤²
Ġà¤¯ à¤µ
Ġà¤¯ à¤ļ
Ġà¤¯ à¤Ļ
Ġà¤¯ à¤²à¤®
Ġà¤¯ à¤®à¤¬
Ġà¤¯ à¤µà¤¤
Ġà¤¯ à¤®à¤µ
Ġà¤¯ à¤°à¤¬à¤¦
Ġà¤¯ à¤¤à¤¨à¤ª
Ġà¤¯ à¤®à¤¨à¤¸
Ġà¤¯ à¤Łà¤ĸ
âĢ Ĳ
Ġà¥ Ĳ
Ġà¤¸à¤® à¤®
Ġà¤¸à¤® à¤¥
Ġà¤¸à¤® à¤ļ
Ġà¤¸à¤® à¤¨à¤ķ
Ġà¤¸à¤® à¤¸à¤®
Ġà¤¸à¤® à¤¯à¤¨
Ġà¤¸à¤® à¤µà¤¯
Ġà¤¸à¤® à¤¨à¤¤
Ġà¤¸à¤® à¤¹à¤¤
Ġà¤¸à¤® à¤¬à¤¹
Ġà¤¸à¤® à¤®à¤¹
Ġà¤¸à¤® à¤¦à¤°à¤®
Ġà¤¸à¤® mà¤Ńà¤¦
à¤ĩ à¤°à¤ķ
à¤ĩ à¤°à¤®
à¤ĩ à¤ĺ
à¤ĩ à¤ŀ
à¤ĩ à¤Ŀ
à¤ĩ à¤Ľà¤¨
à¤ĩ à¤ıà¤°
à¤ĩ à¤¯à¤¨
à¤ĩ à¤¤à¤ķ
à¤ĩ à¤¶à¤ķ
à¤ĩ à¤°à¤¬
à¤ĩ à¤ľà¤¸
à¤ĩ à¤¯à¤°
à¤ĩ à¤Ĺà¤®
à¤ĩ à¤ħà¤ĺ
à¤ĩ à¤°à¤¨
à¤ĩ à¤ĸà¤°
à¤ĩ à¤¸à¤¹
à¤ĩ à¤¤à¤µ
à¤ĩ à¤¦à¤²
à¤ĩ à¤ªà¤Łà¤ķ
à¤ĩ à¤®à¤§
à¤ĩ à¤ķà¤¸
à¤ĩ à¤®à¤¸
à¤ĩ à¤Ńà¤¯
à¤ĩ à¤ķà¤°à¤£à¤ķ
à¤ĩ à¤§à¤°
à¤ĩ à¤¤à¤°à¤ķ
à¤ĩ à¤¸à¤¨à¤ķ
à¤ĩ à¤Ĺà¤¨
à¤ĩ à¤Ļà¤®
à¤ĩ à¤ªà¤¸
à¤ĩ à¤¬à¤®
à¤ĩ à¤ĩà¤ª
à¤ĩ à¤ļà¤¸
à¤ĩ à¤µà¤°à¤ķ
à¤ĩ à¤Ĩà¤®
à¤ĩ à¤Ĩà¤ıà¤ķ
à¤ĩ à¤²à¤²à¤Ĺ
à¤ĩ à¤ĵà¤ķ
à¤ĩ à¤²à¤ķà¤¹à¤°
à¤ĩ à¤ĩà¤ķà¤°
à¤ĩ à¤ıà¤«à¤ı
à¤ĩ à¤Ĩà¤ĩà¤ıà¤«
à¤°à¤ķ à¤¤
à¤°à¤ķ à¤¶
à¤°à¤ķ à¤£
à¤°à¤ķ à¤°à¤®
à¤°à¤ķ à¤®à¤ķ
à¤°à¤ķ à¤¸à¤¨
à¤°à¤ķ à¤Łà¤°
à¤°à¤ķ à¤°à¤£à¤¹à¤°
Ġà¤Ńà¤¨ à¤ı
Ġà¤Ńà¤¨ à¤ķà¤ķ
à¤¹à¤° à¤°
à¤¹à¤° à¤¤
à¤¹à¤° à¤¹
à¤¹à¤° à¤¥
à¤¹à¤° à¤¸à¤®
à¤°à¤® à¤¨à¤ķ
à¤°à¤® à¤¨à¤®
à¤°à¤® à¤ŀ
à¤°à¤® à¤ªà¤¨
à¤°à¤® à¤Ĺà¤°
à¤°à¤® à¤Ĺà¤¤
à¤°à¤® à¤®à¤®
à¤°à¤® à¤ķà¤¤
à¤°à¤® à¤Ńà¤°
à¤°à¤® à¤¬à¤¹
à¤°à¤® à¤ĸà¤ķ
à¤°à¤® à¤¤à¤¯
à¤°à¤® à¤īà¤ªà¤°
à¤°à¤® à¤Ĩà¤īà¤¨
à¤°à¤® à¤ħà¤µà¤¶
Ġà¤ļ à¤¦
Ġà¤ļ à¤µ
Ġà¤ļ à¤°à¤ķ
Ġà¤ļ à¤²à¤ķ
Ġà¤ļ à¤°à¤µ
Ġà¤ļ à¤ķà¤¤
Ġà¤ļ à¤®à¤°
Ġà¤ļ à¤ķà¤®à¤ķ
Ġà¤ļ à¤¯à¤¨à¤²
Ġà¤ļ à¤Łà¤ķà¤ķ
Ġà¤ļ à¤°à¤ķà¤²
à¤« à¤Ĺ
à¤« à¤£
à¤« à¤¡
à¤« à¤¨à¤²
à¤« à¤°à¤µ
à¤« à¤¯à¤²
à¤« à¤Ńà¤¨
à¤« à¤¸à¤°
à¤« à¤ħà¤¨
à¤« à¤®à¤°
à¤« à¤Łà¤ª
Ġà¤¥ à¤¸
Ġà¤¥ à¤ı
Ġà¤¥ à¤ªà¤¨
Ġà¤¥ à¤°à¤¬
Ġà¤¥ à¤®à¤¤
Ġà¤¥ à¤®à¤¨
Ġà¤¥ à¤²à¤°
Ġà¤¥ à¤®à¤ľ
Ġà¤¥ à¤īà¤Ń
Ġà¤¥ à¤ķà¤°à¤ª
Ġà¤¥ à¤Ļà¤¥
Ġà¤ªà¤¨ à¤ķ
Ġà¤ªà¤¨ à¤®
Ġà¤ªà¤¨ à¤¡
à¤īà¤¨ à¤¨
à¤īà¤¨ à¤¯
à¤īà¤¨ à¤µ
à¤īà¤¨ à¤Ĺ
à¤īà¤¨ à¤Ł
à¤īà¤¨ à¤¥
à¤īà¤¨ à¤ļ
à¤īà¤¨ à¤Ń
à¤īà¤¨ à¤Ĺà¤°
à¤īà¤¨ à¤ħ
à¤īà¤¨ à¤Ńà¤¨
à¤īà¤¨ à¤ħà¤ĺ
à¤īà¤¨ à¤¬à¤¹
à¤īà¤¨ à¤ªà¤Ł
à¤īà¤¨ à¤ĵà¤²
à¥Į à¥ĩ
à¥Į à¥ĩ,
à¥Į âĢĿ
à¥Į âĢĶ
à¥Į à¥ĩà¤Ĥ
à¥Į à¥¤âĢĿ
à¥Į ,'
à¥Į ?âĢĻ
à¥Į âĢĮà¤Ĥ
Ġà¤ı à¤·
Ġà¤ı à¤¸à¤®
Ġà¤ı à¤¨à¤²
Ġà¤ı à¤²à¤®
Ġà¤ı à¤µà¤°
Ġà¤ı à¤µà¤ķ
Ġà¤ı à¤Łà¤°
Ġà¤ı à¤¡à¤ķ
Ġà¤ı à¤ĵ
Ġà¤ı à¤²à¤µ
Ġà¤ı à¤¯à¤¬
Ġà¤ı à¤ľà¤ª
Ġà¤ı à¤Łà¤¬
Ġà¤ı à¤¬à¤®
Ġà¤ı à¤«à¤ķ
Ġà¤ı à¤¡à¤¬
Ġà¤ı à¤īà¤ķ
Ġà¤ı à¤«à¤°
Ġà¤ı à¤ıà¤¸à¤ª
Ġà¤ı à¤Łà¤ª
Ġà¤ı à¤ĩà¤¬
Ġà¤ı à¤¯à¤°à¤®
Ġà¤ı à¤ĩà¤¬à¤°
Ġà¤ı à¤Ĩà¤ĩ
Ġà¤ı à¤ıà¤¸à¤¨
Ġà¤ı à¤īà¤ľ
Ġà¤ı à¤Ļà¤Ĺ
Ġà¤ı à¤ĩà¤Ļ
Ġà¤ı à¤ıà¤¨à¤ıà¤ķ
Ġà¤ı à¤Ĩà¤Īà¤²
Ġà¤ı à¤ıà¤«à¤¡
Ġà¤ı à¤Ĩà¤°à¤¸
Ġà¤ı à¤Ĩà¤Īà¤ľ
Ġà¤ı à¤ħà¤°à¤ķ
Ġà¤ı à¤¸à¤®à¤¬
à¤¯à¤ķ à¤¨
à¤¯à¤ķ à¤ª
à¤¯à¤ķ à¤¦
à¤¯à¤ķ à¤ļ
à¤¯à¤ķ à¤¨à¤ķ
à¤¯à¤ķ à¤ªà¤°
à¤¯à¤ķ à¤®à¤ķ
à¤¯à¤ķ à¤ªà¤ķ
à¤¯à¤ķ à¤ħà¤¨
à¤¯à¤ķ à¤¸à¤¹
à¤¯à¤ķ à¤°à¤£à¤²
à¤¯à¤ķ à¤ķà¤¹
à¤°à¤¤ à¤Ĺà¤¤
à¤°à¤¤ à¤¸à¤¨
à¤°à¤¤ à¤ħà¤¨
à¤°à¤¤ à¤®à¤§
à¤°à¤¤ à¤Ńà¤ķ
à¤°à¤¤ à¤µà¤°à¤²
à¤°à¤¤ à¤µà¤°à¤®
Ġà¤ĸ à¤¸à¤ķ
Ġà¤ĸ à¤²à¤ķ
Ġà¤ĸ à¤°à¤¦
Ġà¤ĸ à¤¸à¤²
Ġà¤ĸ à¤¤à¤¨
Ġà¤ĸ à¤¸à¤°
Ġà¤ĸ à¤Ĺà¤¨
Ġà¤ĸ à¤¬à¤°à¤ķ
Ġà¤ĸ à¤µà¤°à¤²
Ġà¤ĸ à¤¯à¤°à¤®
Ġà¤ĸ à¤Ļà¤ľ
à¤¨à¤ķ à¤¹
à¤¨à¤ķ à¤µ
à¤¨à¤ķ à¤ł
à¤¨à¤ķ à¤ķà¤²
à¤¨à¤ķ à¤ķà¤°
à¤¨à¤ķ à¤ħà¤¨
à¤¨à¤ķ à¤Ńà¤°
Ġà¤¶ à¤£
Ġà¤¶ à¤ĸ
Ġà¤¶ à¤µà¤¸
Ġà¤¶ à¤¶à¤ķ
Ġà¤¶ à¤µà¤®
Ġà¤¶ à¤¯à¤°
Ġà¤¶ à¤°à¤¨
Ġà¤¶ à¤¨à¤¬
Ġà¤¶ à¤°à¤¹à¤¨
Ġà¤¶ à¤µà¤¬
Ġà¤¶ à¤łà¤¹à¤°
à¤¾à¤ģ à¥Īà¤Ĥ
à¤¾à¤ģ Ã·
à¤¾à¤ģ à¤ģà¥¤
à¤¾à¤ģ ),
Ġà¤Ńà¤ıà¤ķ à¤®
Ġà¤Ńà¤ıà¤ķ à¤ª
Ġà¤ħà¤¨ à¤¹
Ġà¤ħà¤¨ à¤Ł
Ġà¤ħà¤¨ à¤¡
Ġà¤ħà¤¨ à¤°à¤ķ
Ġà¤ħà¤¨ à¤°à¤¸
Ġà¤ħà¤¨ à¤°à¤µ
Ġà¤ħà¤¨ à¤²à¤²
Ġà¤ħà¤¨ à¤°à¤¬
Ġà¤ħà¤¨ à¤¬à¤°
Ġà¤ħà¤¨ à¤Ńà¤µ
Ġà¤ħà¤¨ à¤¸à¤¹
Ġà¤ħà¤¨ à¤¹à¤²
Ġà¤ħà¤¨ à¤¸à¤¨à¤ķ
Ġà¤ħà¤¨ à¤ĩà¤¸
Ġà¤ħà¤¨ à¤µà¤¶
Ġà¤ħà¤¨ à¤ªà¤¸
Ġà¤ħà¤¨ à¤¸à¤¨à¤®
Ġà¤ħà¤¨ à¤Łà¤ª
Ġà¤ħà¤¨ à¤Ĩà¤ĩà¤¡
Ġà¤ªà¤° à¤¸à¤®
Ġà¤ªà¤° à¤µà¤°
Ġà¤ªà¤° à¤µà¤¨
à¤ł à¤¡
à¤ł à¤ĸ
à¤ł à¤Ĺà¤°
à¤ł à¤ªà¤Ľ
à¤ł à¤°à¤¸
à¤ł à¤¬à¤¨
à¤ł à¤¨à¤¸
à¤ł à¤¡à¤®
à¤ł à¤ķà¤ª
à¤ł à¤¸à¤®à¤ķ
à¤ł à¤¨à¤ľ
à¥ĥ à¥ģ
à¥ĥ à¥Ī
à¥ĥ à¥ĥà¤Ĥ
à¤¸à¤ķ à¤¨
à¤¸à¤ķ à¤¤
à¤¸à¤ķ à¤ª
à¤¸à¤ķ à¤ľà¤¸
à¤¸à¤ķ à¤®à¤²
à¤¸à¤ķ à¤¸à¤¬
à¤¸à¤ķ à¤ķà¤¹
Ġà¤« à¤¹
Ġà¤« à¤µ
Ġà¤« à¤ĸ
Ġà¤« à¤¨à¤ķ
Ġà¤« à¤ķà¤²
Ġà¤« à¤¸à¤²
Ġà¤« à¤²à¤²
Ġà¤« à¤²à¤¨
Ġà¤« à¤¡à¤ķ
Ġà¤« à¤ĸà¤°
à¤°à¤£ à¤¤
à¤°à¤£ à¤Ń
à¤°à¤£ à¤īà¤¨
à¤°à¤£ à¤¯à¤®
à¤°à¤£ à¤¤à¤°
à¤°à¤£ à¤¯à¤¹
à¤°à¤£ à¤ħà¤¨
à¤°à¤£ à¤¦à¤¤
à¤°à¤£ à¤¸à¤®à¤ķ
à¤°à¤£ à¤¶à¤®à¤¶
à¤°à¤£ à¤Ĩà¤µà¤¶
à¤ªà¤° à¤¨
à¤ªà¤° à¤¯
à¤ªà¤° à¤Ĺà¤°
à¤ªà¤° à¤µà¤°
à¤ªà¤° à¤Ĺà¤¤
à¤ªà¤° à¤²à¤Ĺ
à¤ªà¤° à¤«à¤°à¤®
ĠâĢ ²
ĠâĢ ĭ
ĠâĢ Į
à¤ľà¤¨ à¤¹
à¤ľà¤¨ à¤°à¤²
à¤ľà¤¨ à¤¶à¤ķ
à¤ľà¤¨ à¤¸à¤°
à¤ľà¤¨ à¤ªà¤Łà¤ķ
à¤ľà¤¨ à¤®à¤§
à¤ľà¤¨ à¤ĩà¤ļ
à¤ľà¤¨ à¤Ĩà¤¨
à¤ľà¤¨ à¤®à¤¤à¤¸
à¤¸à¤® à¤°à¤®
à¤¸à¤® à¤ľà¤¨
à¤¸à¤® à¤¸à¤®
à¤¸à¤® à¤¯à¤¸
à¤¸à¤® à¤¯à¤²
à¤¸à¤® à¤¤à¤²
à¤¸à¤® à¤ħà¤¨
à¤¸à¤® à¤¯à¤¦
à¤¸à¤® à¤¯à¤Ń
à¤¸à¤® à¤¯à¤ªà¤Ľ
Ġà¤Ľà¤¨ à¤µ
à¤¨à¤² à¤¹à¤°
à¤¨à¤² à¤Ĺà¤¤
à¤¨à¤² à¤²à¤Ĺ
à¥įà¥¤ à¥¤
à¥įà¥¤ ,âĢĻ
à¤¨à¤® à¤¹
à¤¨à¤® à¤Ĺ
à¤¨à¤® à¤ķà¤µ
âĢĻ !
âĢĻ (
âĢĻ à¤Ĥ
à¤µà¤¸ à¤¸
à¤µà¤¸ à¤°à¤ķ
à¤µà¤¸ à¤¹à¤°
à¤µà¤¸ à¤¨à¤ķ
à¤µà¤¸ à¤°à¤¹
à¤µà¤¸ à¤«à¤²
à¤µà¤¸ à¤²à¤Ĺ
à¤µà¤¸ à¤ħà¤ĺ
à¥¦ à¥§à¥«
à¥¦ à¥§à¥¯
à¥¦ à¥§à¥®
à¥¦ à¥§à¥©
à¥¦ à¥¬à¥®
à¥¦ à¥©à¥«
à¥¦ à¥«à¥Ń
à¥¦ à¥«à¥§
à¥¦ à¥ªà¥ª
à¥¦ à¥©à¥©
à¥¦ à¥«à¥¨
à¥¦ à¥«à¥®
à¥¦ à¥«à¥¯
à¤ĺ à¤¶
à¤ĺ à¤ĸ
à¤ĺ à¤Ļ
à¤ĺ à¤¤à¤°
à¤ĺ à¤µà¤°
à¤ĺ à¤°à¤¹à¤°
à¤ĺ à¤·à¤ķ
à¤ĺ à¤ħà¤ĺ
à¤ĺ à¤Łà¤²
à¤ĺ à¤µà¤ª
à¤ĺ à¤°à¤ľ
à¤ĺ à¤¬à¤¹
à¤ĺ à¤¨à¤¸à¤®
à¤ĺ à¤µà¤¦
à¤ĺ à¤¬à¤ķ
à¤ĺ à¤·à¤¬
à¤ĺ à¤¨à¤ķà¤°
à¤ĺ à¤¸à¤®à¤ķ
à¤ĺ à¤·à¤°à¤¤
à¤ĺ à¤¨à¤®à¤§
à¤ĺ à¤ħà¤ªà¤°
Ġà¤¬à¤¨ à¤°
Ġà¤¬à¤¨ à¤ľ
Ġà¤¬à¤¨ à¤ıà¤ķ
Ġà¤¬à¤¨ à¤¹à¤°
Ġà¤¬à¤¨ à¤ĺ
à¤¢ à¤°
à¤¢ à¤®
à¤¢ à¤¬
à¤¢ à¤¡
à¤¢ à¤¸à¤®
à¤¢ à¤ªà¤¢
à¤¢ à¤¸à¤¯à¤ķ
Ġà¤¸à¤ķ à¤ķ
Ġà¤¸à¤ķ à¤µ
Ġà¤¸à¤ķ à¤ıà¤ķ
Ġà¤¸à¤ķ à¤°à¤ķ
Ġà¤¸à¤ķ à¤¸à¤ķ
Ġà¤¸à¤ķ à¤Ľà¤¨
à¥ĭà¥¤ âĢĻ,
Ġà¤ľà¤¨ à¤¬
Ġà¤ľà¤¨ à¤ıà¤ķ
Ġà¤ľà¤¨ à¤¹à¤°
Ġà¤ľà¤¨ à¤ĺ
Ġà¤ľà¤¨ à¤¤à¤ķ
Ġà¤ľà¤¨ à¤¤à¤¨
Ġà¤ľà¤¨ à¤¤à¤²
Ġà¤ľà¤¨ à¤¸à¤¨à¤ķ
Ġà¤ľà¤¨ à¤Ĩà¤µ
Ġà¤ľà¤¨ à¤Ķà¤·à¤§
Ġà¤ľà¤¨ à¤ĩà¤ļ
Ġà¤ľà¤¨ à¤Īà¤ļ
Ġà¤ľà¤¨ à¤¦à¤®à¤¨
Ġà¤ľà¤¨ à¤°à¤²à¤ķ
Ġà¤ľà¤¨ à¤īà¤ªà¤²à¤¬
Ġà¤ľà¤¨ à¤īà¤¦à¤¯
à¤¯à¤® à¤ª
à¤¯à¤® à¤Ń
à¤¯à¤® à¤ĸ
à¤¯à¤® à¤¨à¤²
à¤¯à¤® à¤Ĺà¤°
à¤¯à¤® à¤²à¤²
à¤¯à¤® à¤Ńà¤¨
à¤¯à¤® à¤²à¤Ĺ
à¤¯à¤® à¤¨à¤¤
à¤¯à¤® à¤¬à¤¦
à¤¯à¤® à¤®à¤§
à¤¯à¤® à¤¬à¤®
Ġà¤°à¤¹ à¤¨à¤®
Ġà¤°à¤¹ à¤¨à¤¸à¤¹
Ġà¤°à¤¹ à¤®à¤¦à¤¤
Ġà¤¯à¤¸ à¤¨
Ġà¤¯à¤¸ à¤ħ
Ġà¤¯à¤¸ à¤¬à¤°
Ġà¤¯à¤¸ à¤¸à¤¤
Ġà¤¯à¤¸ à¤ªà¤¶
Ġà¤¯à¤¸ à¤Ĩà¤§
Ġà¤¯à¤¸ à¤ĺà¤ħà¤ĺ
à¤°à¤¹ à¤Ń
à¤°à¤¹ à¤Ĺà¤°
à¤°à¤¹ à¤¨à¤¨
à¤°à¤¹ à¤¸à¤¨à¤²
Ġà¤®à¤¹ à¤®
Ġà¤®à¤¹ à¤¬
Ġà¤®à¤¹ à¤²à¤²
Ġà¤®à¤¹ à¤ľà¤¸
Ġà¤®à¤¹ à¤µà¤ª
Ġà¤®à¤¹ à¤®à¤°
Ġà¤®à¤¹ à¤¸à¤ļ
Ġà¤®à¤¹ à¤²à¤¹à¤°
Ġà¤®à¤¹ à¤Ļà¤Ĺ
Ġà¤®à¤¹ à¤®à¤¤à¤¸
à¤²à¤ķ à¤¸
à¤²à¤ķ à¤¹
à¤²à¤ķ à¤°à¤ķ
à¤²à¤ķ à¤Ŀ
à¤²à¤ķ à¤®à¤§
à¤²à¤ķ à¤¬à¤¹
Ġà¤ıà¤ķ à¤¯
Ġà¤ıà¤ķ à¤¹
Ġà¤ıà¤ķ à¤µ
Ġà¤ıà¤ķ à¤Ĺ
Ġà¤ıà¤ķ à¤Ń
Ġà¤ıà¤ķ à¤«
Ġà¤ıà¤ķ à¤°à¤¤
Ġà¤ıà¤ķ à¤¸à¤®
Ġà¤ıà¤ķ à¤¨à¤®
Ġà¤ıà¤ķ à¤°à¤¦
Ġà¤ıà¤ķ à¤ħ
Ġà¤ıà¤ķ à¤¤à¤¨
Ġà¤ıà¤ķ à¤ķà¤°
Ġà¤ıà¤ķ à¤¸à¤°
Ġà¤ıà¤ķ à¤¬à¤°
Ġà¤ıà¤ķ à¤Ĩà¤°
Ġà¤ıà¤ķ à¤Ĺà¤ł
Ġà¤ıà¤ķ à¤¹à¤¤
Ġà¤ıà¤ķ à¤¬à¤¹
Ġà¤ıà¤ķ à¤²à¤ª
Ġà¤ıà¤ķ à¤ªà¤Ł
Ġà¤ıà¤ķ à¤¬à¤ľ
Ġà¤ıà¤ķ à¤ħà¤ķ
Ġà¤ıà¤ķ à¤¸à¤®à¤¯à¤®
Ġà¤ıà¤ķ à¤¹à¤¦à¤¸à¤®
Ġà¤ıà¤ķ à¤°à¤¸à¤¤
Ġà¤Ł à¤¹
Ġà¤Ł à¤µ
Ġà¤Ł à¤¨à¤²
Ġà¤Ł à¤ªà¤®
Ġà¤Ł à¤®à¤ķ
Ġà¤Ł à¤¸à¤²
Ġà¤Ł à¤¨à¤¦
Ġà¤Ł à¤ªà¤Ł
Ġà¤Ł à¤ªà¤¡
à¤¯à¤¸ à¤°à¤¹
à¤¯à¤¸ à¤¸à¤²
à¤¯à¤¸ à¤Ĩ
à¤¯à¤¸ à¤¸à¤¹
à¤¯à¤¸ à¤ħà¤°
à¤¯à¤¸ à¤ªà¤¹
à¤¯à¤¸ à¤īà¤ª
à¤¯à¤¸ à¤¤à¤¯
à¤¯à¤¸ à¤īà¤ªà¤°
Ġà¤§ à¤²
Ġà¤§ à¤ķà¤²
Ġà¤§ à¤¨à¤¨
Ġà¤§ à¤ªà¤ķ
Ġà¤§ à¤¨à¤¬
Ġà¤§ à¤®à¤°
Ġà¤§ à¤µà¤¨à¤®
Ġà¤§ à¤µà¤¨à¤ķ
Ġà¤§ à¤µà¤¨à¤¸
Ġà¤§ à¤°à¤®à¤ª
Ġà¤§ à¤¨à¤µà¤ľ
Ġà¤§ à¤°à¤¹à¤°à¤ķ
à¤Ļ à¤ķà¤²
à¤Ļ à¤ķà¤®
à¤Ļ à¤¸à¤²
à¤Ļ à¤Ĺà¤ķ
à¤Ļ à¤ħà¤¨
à¤Ļ à¤ľà¤Ĺ
à¤Ļ à¤§à¤ķ
à¤Ļ à¤¸à¤Ń
à¤Ļ à¤®à¤°
à¤Ļ à¤ķà¤²à¤¨
à¤Ļ à¤¸à¤¤
à¤Ļ à¤Ĺà¤°à¤²
à¤Ļ à¤¨à¤ľ
à¤Ļ à¤Ĩà¤ľ
à¤Ļ à¤¯à¤ķà¤®
à¤Ļ à¤ĩà¤Ļà¤²
à¤Ļ à¤Ĺà¤°à¤ª
Ġà¤ĺ à¤¤
Ġà¤ĺ à¤ľà¤¨
Ġà¤ĺ à¤°à¤¸
Ġà¤ĺ à¤¨à¤¤
Ġà¤ĺ à¤Īà¤²
Ġà¤ĺ à¤Īà¤ķ
Ġà¤ĺ à¤¨à¤¹à¤°
Ġà¤ĺ à¤°à¤Ńà¤°
à¤°à¤² à¤°
à¤°à¤² à¤¨
à¤°à¤² à¤¹à¤°
à¤°à¤² à¤¯à¤ªà¤Ľ
à¤ŀ à¤¨
à¤ŀ à¤¡
à¤ŀ à¤ªà¤°
à¤ŀ à¤ľà¤¸
à¤ŀ à¤®à¤£
à¤ªà¤¨ à¤°
à¤ªà¤¨ à¤¯
à¤ªà¤¨ à¤Ĺà¤°
à¤ªà¤¨ à¤¯à¤¨
à¤ªà¤¨ à¤Ńà¤¨
à¤ªà¤¨ à¤ªà¤ķ
à¤ªà¤¨ à¤ħà¤ĺ
à¤ªà¤¨ à¤¸à¤¹
à¤ªà¤¨ à¤Ĺà¤°à¤ķ
à¤ªà¤¨ à¤¸à¤Ĺ
à¤¯à¤¤ à¤¦
à¤¯à¤¤ à¤¹à¤°
à¤¯à¤¤ à¤ľà¤¸
à¤¯à¤¤ à¤ħà¤¨
à¤¯à¤¤ à¤¸à¤¬
à¤¯à¤¤ à¤®à¤§
à¤¯à¤¤ à¤¸à¤¤
à¤¯à¤¤ à¤¹à¤¬
à¤¯à¤¤ à¤¹à¤¸à¤®
à¤¯à¤¤ à¤Ńà¤°à¤®
à¤¯à¤¤ à¤Ĩà¤ªà¤°
Ġà¤ħà¤§ à¤¯à¤¯à¤¨
Ġà¤Ĩà¤« à¤¸
à¤²à¤® à¤°
à¤²à¤® à¤ª
à¤²à¤® à¤Ł
à¤²à¤® à¤¡
à¤²à¤® à¤ł
à¤²à¤® à¤¸à¤®
à¤²à¤® à¤¸à¤²
à¤²à¤® à¤¸à¤¨à¤²
à¤Ĺà¤° à¤¸
à¤Ĺà¤° à¤Ľ
à¤Ĺà¤° à¤¹à¤°
à¤Ĺà¤° à¤ľà¤¸
à¤Ĺà¤° à¤¬à¤°
Ġà¤¸à¤¹ à¤¦
Ġà¤¸à¤¹ à¤¹
Ġà¤¸à¤¹ à¤Ł
Ġà¤¸à¤¹ à¤¬
Ġà¤¸à¤¹ à¤§
Ġà¤¸à¤¹ à¤ĩà¤¨
Ġà¤¸à¤¹ à¤ķà¤ķ
Ġà¤¸à¤¹ à¤§à¤°
Ġà¤¸à¤¹ à¤¤à¤¦
Ġà¤¸à¤¹ à¤¤à¤¸à¤®
Ġà¤¸à¤¹ à¤ħà¤ªà¤°
Ġà¤¸à¤¹ à¤¨à¤¸à¤¹à¤¨
à¤¤à¤° à¤ªà¤°
à¤¤à¤° à¤Ļ
à¤¤à¤° à¤ŀ
à¤¤à¤° à¤ªà¤¨
à¤¤à¤° à¤ľà¤¸
à¤¤à¤° à¤¦à¤ķ
à¤¤à¤° à¤¨à¤Ĺà¤°
Ġà¤¤à¤° à¤°
Ġà¤¤à¤° à¤¨
Ġà¤¤à¤° à¤¸
Ġà¤¤à¤° à¤¡
Ġà¤¤à¤° à¤Ń
Ġà¤¤à¤° à¤ĸ
Ġà¤¤à¤° à¤¹à¤°
Ġà¤¤à¤° à¤īà¤¨
Ġà¤¤à¤° à¤¸à¤°
Ġà¤¤à¤° à¤¯à¤¹
Ġà¤¤à¤° à¤ħà¤®
Ġà¤¤à¤° à¤¸à¤®à¤¯
Ġà¤¬à¤¢ à¤°
Ġà¤¬à¤¢ à¤¯
Ġà¤¬à¤¢ à¤ª
Ġà¤¡ à¤¤
Ġà¤¡ à¤·
Ġà¤¡ à¤«
Ġà¤¡ à¤¨à¤ķ
Ġà¤¡ à¤¨à¤²
Ġà¤¡ à¤¨à¤®
Ġà¤¡ à¤Ĺà¤ķ
Ġà¤¡ à¤µà¤²
Ġà¤¡ à¤°à¤¨
Ġà¤¡ à¤¨à¤¬
Ġà¤¡ à¤²à¤¸
Ġà¤¡ à¤°à¤ļ
Ġà¤¡ à¤¬à¤ķ
Ġà¤¡ à¤²à¤¹à¤°
Ġà¤¡ à¤¬à¤ľ
Ġà¤¡ à¤®à¤¬à¤¹
âĢĵ âĢĵ
Ġà¤¬à¤¤ à¤¹
Ġà¤¤à¤¥ à¤·
à¤Ŀ à¤µ
à¤Ŀ à¤¡
à¤Ŀ à¤¹à¤°
à¤Ŀ à¤°à¤¨
à¤Ŀ à¤ªà¤ļ
à¤Ŀ à¤¨à¤¹à¤°
à¤Ŀ à¤Łà¤ª
à¤Ŀ à¤ĵà¤¸
à¤Ŀ à¤Łà¤¸à¤®
Ġà¤īà¤ª à¤ªà¤°
Ġà¤īà¤ª à¤ķà¤®
Ġà¤īà¤ª à¤®à¤®
Ġà¤īà¤ª à¤ªà¤ª
Ġà¤īà¤ª à¤µà¤¨à¤®
Ġà¤īà¤ª à¤¶à¤Ń
Ġà¤īà¤ª à¤Ĩà¤¯
Ġà¤ħà¤° à¤¯
Ġà¤ħà¤° à¤¸
Ġà¤ħà¤° à¤Ĺ
Ġà¤ħà¤° à¤¥
Ġà¤ħà¤° à¤Ń
Ġà¤ħà¤° à¤Ĺà¤°
Ġà¤ħà¤° à¤Ĺà¤¨
Ġà¤ħà¤° à¤¥à¤°à¤²
à¤°à¤¸ à¤¯
à¤°à¤¸ à¤«
à¤°à¤¸ à¤¨à¤²
à¤°à¤¸ à¤ĺ
à¤°à¤¸ à¤°à¤¦
à¤°à¤¸ à¤ľà¤¸
à¤°à¤¸ à¤¯à¤¦
à¤°à¤¸ à¤°à¤¸à¤®
à¤°à¤¸ à¤¦à¤¸
à¤°à¤¦ à¤¯
à¤°à¤¦ à¤°à¤¹
à¤°à¤¦ à¤¹à¤ķ
à¤°à¤¦ à¤¹à¤²
à¤ĩà¤¨ à¤¤
à¤ĩà¤¨ à¤¯
à¤ĩà¤¨ à¤Ĺ
à¤ĩà¤¨ à¤Ł
à¤ĩà¤¨ à¤¬à¤¦
à¤ĩà¤¨ à¤ħà¤ª
à¤ĩà¤¨ à¤ĸà¤¬à¤°
à¤ĩà¤¨ à¤ħà¤Ł
à¥Įà¤Ĥ /
à¥Įà¤Ĥ à¤ĥ
à¥Įà¤Ĥ ),
à¥Įà¤Ĥ à¤ģâĢĵ
à¥Įà¤Ĥ à¤Ĥ,
à¤ıà¤° à¤¬
à¤ıà¤° à¤¸à¤®
à¤ıà¤° à¤ªà¤Ľ
à¤ıà¤° à¤īà¤¦
à¥ģà¤ģ âĢĻ,
à¥ģà¤ģ à¥¤âĢĿ
à¥ģà¤ģ ?',
Ġà¤ķà¤® à¤ª
Ġà¤ķà¤® à¤µ
Ġà¤ķà¤® à¤ļ
Ġà¤ķà¤® à¤¸à¤®
Ġà¤ķà¤® à¤ªà¤¨
Ġà¤ķà¤® à¤²à¤¬
Ġà¤ķà¤® à¤²à¤¨
Ġà¤ķà¤® à¤ĸà¤°
Ġà¤ķà¤® à¤Ńà¤¯
à¤ħ à¤£
à¤ħ à¤¹à¤°
à¤ħ à¤°à¤®
à¤ħ à¤¢
à¤ħ à¤²à¤ķ
à¤ħ à¤ªà¤¨
à¤ħ à¤ªà¤Ľ
à¤ħ à¤°à¤¸
à¤ħ à¤ķà¤®
à¤ħ à¤¸à¤¨
à¤ħ à¤°à¤¹à¤°
à¤ħ à¤ªà¤ķ
à¤ħ à¤«à¤²
à¤ħ à¤Ĺà¤²
à¤ħ à¤Łà¤²
à¤ħ à¤ľà¤®
à¤ħ à¤§à¤ķ
à¤ħ à¤ľà¤°
à¤ħ à¤«à¤ķ
à¤ħ à¤¬à¤¸
à¤ħ à¤¸à¤¤
à¤ħ à¤¥à¤µ
à¤ħ à¤¹à¤°à¤£à¤ķ
à¤ħ à¤¡à¤°à¤ķ
à¤ħ à¤µà¤²à¤®
à¤ħ à¤¨à¤²à¤ķ
à¤ħ à¤²à¤®à¤²
à¤ħ à¤¸à¤¹à¤®à¤¤
à¤ªà¤¤ à¤Ļ
à¤ªà¤® à¤ķà¤²
à¤ªà¤® à¤¤à¤²
à¤ªà¤® à¤¤à¤¤
à¤ªà¤® à¤¤à¤ª
à¤ķà¤² à¤°
à¤ķà¤² à¤¯
à¤ķà¤² à¤ª
à¤ķà¤² à¤¹
à¤ķà¤² à¤ľ
à¤ķà¤² à¤°à¤ķ
à¤ķà¤² à¤¹à¤°
à¤ķà¤² à¤¯à¤ķ
à¤ķà¤² à¤¯à¤¸
à¤ķà¤² à¤Ļ
à¤ķà¤² à¤ļà¤¨
à¤ķà¤² à¤°à¤¹à¤°
à¤ķà¤² à¤¨à¤Ĺà¤°
à¤ķà¤² à¤¨à¤ķà¤°
à¤ķà¤² à¤¨à¤¸à¤¹
Ġà¤®à¤¨ à¤ª
Ġà¤®à¤¨ à¤¦
Ġà¤®à¤¨ à¤µ
Ġà¤®à¤¨ à¤ľ
Ġà¤®à¤¨ à¤¨à¤®
Ġà¤®à¤¨ à¤¨à¤¬
Ġà¤®à¤¨ à¤Ĺà¤¢
Ġà¤®à¤¨ à¤¨à¤¯
à¤ķà¤® à¤¨
à¤ķà¤® à¤¤
à¤ķà¤® à¤¯
à¤ķà¤® à¤¦
à¤ķà¤® à¤¸à¤²
à¤ķà¤® à¤°à¤¨
à¤ķà¤® à¤¸à¤¹
à¤ķà¤® à¤¹à¤¤
à¤ķà¤® à¤¸à¤®à¤ķ
Ġà¤ł à¤¸
Ġà¤ł à¤¢
Ġà¤ł à¤Ĺà¤ł
Ġà¤ł à¤ķà¤ķà¤°
Ġà¤ł ÃĴ
Ġà¤ķà¤° à¤¯
Ġà¤ķà¤° à¤«
Ġà¤ķà¤° à¤Ńà¤¨
Ġà¤ķà¤° à¤ľà¤¸
Ġà¤ķà¤° à¤¨à¤ľ
Ġà¤ķà¤° à¤¬à¤²à¤ķ
Ġà¤²à¤Ĺ à¤²
Ġà¤²à¤Ĺ à¤ıà¤ķ
Ġà¤²à¤Ĺ à¤¨à¤ķ
Ġà¤²à¤Ĺ à¤¨à¤®
Ġà¤²à¤Ĺ à¤ĩà¤¨
Ġà¤²à¤Ĺ à¤ĩà¤¨à¤ķ
Ġà¤ĩ à¤¹
Ġà¤ĩ à¤ĸ
Ġà¤ĩ à¤²à¤²
Ġà¤ĩ à¤Łà¤¨
Ġà¤ĩ à¤²à¤¨
Ġà¤ĩ à¤²à¤¯
Ġà¤ĩ à¤ľà¤¸
Ġà¤ĩ à¤Ńà¤°
Ġà¤ĩ à¤¦à¤ķ
Ġà¤ĩ à¤ıà¤®
Ġà¤ĩ à¤ĩà¤ľ
Ġà¤ĩ à¤ĸà¤²
Ġà¤ĩ à¤¡à¤¨
Ġà¤ĩ à¤ĸà¤®
Ġà¤ĩ à¤Łà¤ª
Ġà¤ĩ à¤¨à¤ķà¤°
Ġà¤ĩ à¤®à¤¬à¤¹
Ġà¤ĩ à¤¯à¤°à¤ķ
Ġà¤ĩ à¤¤à¤°à¤¬
Ġà¤ĩ à¤ĵà¤ķ
Ġà¤ĩ à¤ıà¤®à¤ıà¤¸
Ġà¤ĩ à¤ıà¤¸à¤ıà¤²
Ġà¤ĩ à¤ıà¤¸à¤ıà¤ķ
Ġà¤ĩ à¤ıà¤¸à¤ıà¤ļ
à¤¾, '
à¤¯à¤¨ à¤¯
à¤¯à¤¨ à¤¦
à¤¯à¤¨ à¤µ
à¤¯à¤¨ à¤ľ
à¤¯à¤¨ à¤¡
à¤¯à¤¨ à¤ľà¤¨
à¤¯à¤¨ à¤ľà¤¸
à¤¯à¤¨ à¤¸à¤¹
à¤¯à¤¨ à¤ľà¤¨à¤ķ
à¤¾à¤Ĥ :
à¤¬à¤¨ à¤¦
à¤¬à¤¨ à¤ľ
à¤®à¤ķ à¤¸
à¤®à¤ķ à¤ª
à¤®à¤ķ à¤Ľ
à¤®à¤ķ à¤Ń
à¤®à¤ķ à¤¹à¤°
à¤®à¤ķ à¤¸à¤®
à¤®à¤ķ à¤Ŀ
à¤®à¤ķ à¤Ńà¤¨
à¥ĩ, ,
à¥ĩ, âĢĵ
à¥ĩ, âĢĿ
Ġà¤Ńà¤ı à¤µ
Ġà¤Ńà¤ı à¤ľ
Ġà¤Ńà¤ı à¤¶
Ġà¤Ńà¤ı à¤ļ
Ġà¤Ńà¤ı à¤¨à¤¤
Ġà¤Ńà¤ı à¤®à¤§
Ġà¤Ńà¤ı à¤ıà¤ķà¤¹à¤¦à¤¸à¤®
Ġà¤īà¤¤ à¤ª
Ġà¤īà¤¤ à¤°à¤²
Ġà¤īà¤¤ à¤ªà¤¨
Ġà¤īà¤¨ à¤ª
Ġà¤īà¤¨ à¤¨à¤²
Ġà¤īà¤¨ à¤¸à¤¹
Ġà¤ªà¤¹ à¤¡
Ġà¤ªà¤¹ à¤²à¤µ
Ġà¤ªà¤¹ à¤²à¤¸à¤®
Ġà¤¸à¤¬ à¤°
Ġà¤¸à¤¬ à¤Ĺ
Ġà¤¸à¤¬ à¤Ł
Ġà¤¸à¤¬ à¤ıà¤ķ
Ġà¤¸à¤¬ à¤¡
Ġà¤¸à¤¬ à¤Ń
Ġà¤¸à¤¬ à¤¨à¤®
Ġà¤¸à¤¬ à¤ıà¤¸à¤Ł
à¤°à¤µ à¤µ
à¤°à¤µ à¤ŀ
à¤°à¤µ à¤¦à¤°
à¤°à¤µ à¤ļà¤¨à¤®
à¤¯à¤µà¤¸ à¤¯
Ġà¤Ĩà¤¯ à¤¬
Ġà¤Ĩà¤¯ à¤µà¤°
Ġà¤Ĩà¤¯ à¤Ńà¤¨
à¤¤à¤ķ à¤Ń
à¤Łà¤ķ à¤ªà¤Ľ
à¤Łà¤ķ à¤¤à¤°
à¤Łà¤ķ à¤ªà¤Łà¤ķ
à¤Łà¤ķ à¤ľà¤¤
à¤¯à¤² à¤°
à¤¯à¤² à¤ª
à¤¯à¤² à¤¡
à¤¯à¤² à¤Ńà¤¨
à¤¯à¤² à¤²à¤Ĺ
à¤¯à¤² à¤«à¤°
à¤¯à¤² à¤ħà¤ª
à¤¯à¤² à¤¤à¤¶
Ġà¤ħà¤µà¤¸ à¤°à¤ª
Ġà¤ħà¤µà¤¸ à¤°à¤ļ
Ġà¤ħà¤¸ à¤°à¤®
Ġà¤ħà¤¸ à¤¨à¤ķ
Ġà¤ħà¤¸ à¤¨à¤²
Ġà¤ħà¤¸ à¤°à¤µ
Ġà¤ħà¤¸ à¤µà¤°
Ġà¤ħà¤¸ à¤°à¤¸à¤®
Ġà¤ħà¤¸ à¤²à¤¹à¤°
Ġà¤ħà¤¸ à¤²à¤¬à¤¹
Ġà¤ħà¤¸ à¤°à¤²à¤Ĺ
Ġà¤ħà¤¸ à¤¦à¤¸
Ġà¤ħà¤¸ à¤«à¤²à¤ķ
à¤¶à¤ķ à¤¸à¤¹
Ġà¥¨à¥¦ à¥¯à¥¯
Ġà¥¨à¥¦ à¥®à¥§
à¤¸à¤² à¤¤
à¤¸à¤² à¤¹
à¤¸à¤² à¤¬
à¤¸à¤² à¤°à¤ķ
à¤¸à¤² à¤²à¤Ĺ
à¤¸à¤² à¤°à¤¸à¤¹
Ġà¤ħà¤¹ à¤²
Ġà¤ħà¤¹ à¤¯
Ġà¤ħà¤¹ à¤µ
Ġà¤ħà¤¹ à¤Ļ
Ġà¤ħà¤¹ à¤¸à¤¯
à¤µà¤° à¤¯
à¤µà¤° à¤ľ
à¤µà¤° à¤¥
à¤µà¤° à¤Ń
à¤µà¤° à¤ŀ
à¤µà¤° à¤ªà¤Ľ
à¤µà¤° à¤ĸà¤£
à¤µà¤° à¤ªà¤°à¤ķ
à¤Ĺà¤¤ à¤¨
à¤Ĺà¤¤ à¤°à¤¤
à¤Ĺà¤¤ à¤Ŀ
à¤Ĺà¤¤ à¤µà¤°
à¤Ĺà¤¤ à¤ľà¤¸
à¤Ĺà¤¤ à¤ľà¤®
à¤Ĺà¤¤ à¤ħà¤®
à¤Ĺà¤¤ à¤īà¤ľ
à¤µà¤¨ à¤Ł
à¤µà¤¨ à¤¹à¤°
à¤µà¤¨ à¤ľà¤¨
à¤µà¤¨ à¤Ńà¤¨
à¤µà¤¨ à¤¤à¤®
à¤µà¤¨ à¤¦à¤°
à¤µà¤¨ à¤ļà¤°
à¤µà¤¨ à¤¬à¤¸
à¤µà¤¨ à¤ħà¤§
à¤µà¤¨ à¤ªà¤¶
à¤µà¤¨ à¤¸à¤®à¤ķ
à¤µà¤¨ à¤¦à¤¶
à¤µà¤¨ à¤ľà¤Ļ
à¤·à¤£ à¤¤
à¤·à¤£ à¤ª
à¤·à¤£ à¤Ĺà¤°
à¤·à¤£ à¤ľà¤¸
à¤·à¤£ à¤Ńà¤°
à¤·à¤£ à¤ħà¤Ń
à¤·à¤£ à¤Ĩà¤¦
à¤²à¤¬ à¤Ł
à¤²à¤¬ à¤ľà¤¸
à¤²à¤¬ à¤¦à¤²
à¤²à¤¬ à¤®à¤§
à¤²à¤¬ à¤Ĺà¤²à¤®
Ġà¤ħà¤Ń à¤¯à¤ķ
à¤¸à¤¨ à¤¤
à¤¸à¤¨ à¤¸à¤ķ
à¤¸à¤¨ à¤¤à¤ķ
à¤¸à¤¨ à¤¤à¤¨
à¤¸à¤¨ à¤¦à¤°
à¤¸à¤¨ à¤¨à¤¹
à¤Ńà¤¨ à¤°à¤¦
à¤Ńà¤¨ à¤°à¤¹à¤°
à¤¤à¤¨ à¤¹
à¤¤à¤¨ à¤¸à¤®
à¤¤à¤¨ à¤Ńà¤¨
à¤¤à¤¨ à¤ħà¤¨
à¤¤à¤¨ à¤ħà¤ĺ
à¤¤à¤¨ à¤¸à¤¹
à¤¤à¤¨ à¤¬à¤®
à¥§ à¥§à¥¦
à¥§ à¥¨à¥¦à¥¦
à¤Ĩ à¤Ł
à¤Ĩ à¤ı
à¤Ĩ à¤Ń
à¤Ĩ à¤µà¤°
à¤Ĩ à¤°à¤§
à¤Ĩ à¤ķà¤°
à¤Ĩ à¤®à¤¨
à¤Ĩ à¤¤à¤²
à¤Ĩ à¤Ĺà¤²
à¤Ĩ à¤Ĺà¤®
à¤Ĩ à¤®à¤ļ
à¤Ĩ à¤µà¤°à¤£
à¤Ĩ à¤µà¤¤
à¤Ĩ à¤¶à¤²
à¤Ĩ à¤Ļà¤²
à¤Ĩ à¤ĩà¤ķ
à¤Ĩ à¤ľà¤¦
à¤Ĩ à¤¯à¤ķà¤°
à¤Ĩ à¤µà¤¦
à¤Ĩ à¤Ĺà¤®à¤¨
à¤Ĩ à¤Ĺà¤¤à¤ķ
à¤Ĩ à¤ľà¤ķà¤²
à¤Ĩ à¤®à¤µ
à¤Ĩ à¤ĩà¤¹
à¤Ĩ à¤ªà¤¸à¤®
à¤Ĩ à¤°à¤²à¤Ĺ
à¤Ĩ à¤ĩà¤¨à¤ľà¤¸
à¤Ĩ à¤ıà¤®à¤ıà¤«
à¤Ĩ à¤ķà¤²à¤¨à¤Ĺà¤°
Ġà¤Ĩà¤ıà¤ķ à¤°
Ġà¤Ĩà¤ıà¤ķ à¤®
Ġà¤Ĩà¤° à¤Ń
Ġà¤Ĩà¤° à¤ıà¤¨
Ġà¤Ĩà¤° à¤ĩà¤®
Ġà¤Ĩà¤° à¤¨à¤¦
Ġà¤Ĩà¤° à¤ıà¤«
Ġà¤Ĩà¤° à¤Ĩà¤ĩà¤ª
Ġà¤Ĩà¤° à¤Ĩà¤°à¤ķ
Ġà¤Ĩà¤° à¤Ĩà¤°à¤²
Ġà¤Ĩà¤° à¤Ńà¤¸à¤®
Ġà¤Ĩà¤° à¤Ĩà¤°à¤¸
Ġà¤Ĩà¤° à¤ıà¤¨à¤ıà¤¸
Ġà¤Ĩà¤° à¤ıà¤¡à¤¬
à¤°à¤¬ à¤¤
à¤°à¤¬ à¤Ł
à¤°à¤¬ à¤¢
Ġà¤¬à¤¸ à¤¹
Ġà¤¬à¤¸ à¤µ
Ġà¤¬à¤¸ à¤Ń
Ġà¤¬à¤¸ à¤°à¤®
Ġà¤¬à¤¸ à¤¸à¤®
Ġà¤¬à¤¸ à¤§à¤¨
Ġà¤¬à¤¸ à¤¬à¤°
Ġà¤¬à¤¸ à¤¸à¤¹
à¤ļà¤¨ à¤¨
à¤ļà¤¨ à¤µ
à¤ļà¤¨ à¤¯à¤¤
à¤ļà¤¨ à¤Ĺà¤°
à¤ļà¤¨ à¤ªà¤¤
à¤ļà¤¨ à¤¶à¤ķ
à¤ļà¤¨ à¤¤à¤¨
à¤ļà¤¨ à¤Ńà¤¯
à¤ļà¤¨ à¤ªà¤¹
à¤ļà¤¨ à¤ħà¤Ĺ
à¤ļà¤¨ à¤Ĩà¤¦
à¤µà¤ķ à¤¦
à¤µà¤ķ à¤µ
à¤µà¤ķ à¤¬
à¤µà¤ķ à¤§
à¤µà¤ķ à¤¸à¤®
à¤µà¤ķ à¤ķà¤°
à¤µà¤ķ à¤ªà¤²
à¤µà¤ķ à¤ªà¤¬
à¤Łà¤¨ à¤¦
à¤Łà¤¨ à¤¸à¤®
à¤Łà¤¨ à¤¢
à¤Łà¤¨ à¤ªà¤¨
à¤Łà¤¨ à¤°à¤Ńà¤¨
à¤Łà¤¨ à¤Ĺà¤°à¤¤à¤°
à¤²à¤¨ à¤°
à¤²à¤¨ à¤¨
à¤²à¤¨ à¤¯
à¤²à¤¨ à¤Ł
à¤²à¤¨ à¤°à¤²
à¤²à¤¨ à¤¤à¤°
à¤²à¤¨ à¤ħà¤¨
à¤²à¤¨ à¤Ĺà¤°à¤ķ
à¥« à¥¨à¥¦
à¥« à¥©à¥«
à¥« à¥©à¥¬
à¥« à¥¦à¥¦à¥¦
à¤¨à¤¨ à¤¯
à¤¨à¤¨ à¤Ľ
à¤¨à¤¨ à¤¬à¤¨
Ġ( '
Ġ( -
Ġ( à¥¤
Ġ( âĢĺ
à¤°à¤¹à¤° à¤²
à¤°à¤¹à¤° à¤¹
à¤°à¤¹à¤° à¤£
à¤°à¤¹à¤° à¤£à¤ķ
à¤°à¤¯ à¤µ
à¤°à¤¯ à¤¥
à¤°à¤¯ à¤£
à¤°à¤¯ à¤ĺ
à¤°à¤¯ à¤¶à¤ķ
à¤ķà¤ķ à¤ł
à¤ķà¤ķ à¤°à¤£
à¤ķà¤ķ à¤°à¤£à¤ķ
à¤®à¤¤ à¤¤
à¤®à¤¤ à¤µ
à¤®à¤¤ à¤¤à¤°
à¤®à¤¤ à¤Ńà¤¨
à¥Ģ, '
à¥Ģ, ,
à¥ĭ, âĢľ
Ġà¤īà¤¦ à¤®
Ġà¤īà¤¦ à¤¯à¤¸
Ġà¤īà¤¦ à¤¯à¤µ
Ġà¤īà¤¦ à¤¯à¤¦
Ġà¤īà¤¦ à¤¯à¤¸à¤¹
à¤ķà¤° à¤Ĺ
à¤ķà¤° à¤¸à¤®
à¤ķà¤° à¤ľà¤¸
à¤ķà¤° à¤¶à¤®à¤¶
à¤ĩà¤°à¤¹ à¤²
à¤ĩà¤°à¤¹ à¤¨à¤®
Ġà¤¸à¤¨ à¤¯
Ġà¤¸à¤¨ à¤ª
Ġà¤¸à¤¨ à¤¦
Ġà¤¸à¤¨ à¤µ
Ġà¤¸à¤¨ à¤Ī
Ġà¤¸à¤¨ à¤Ń
Ġà¤¸à¤¨ à¤«
Ġà¤¸à¤¨ à¤īà¤²
à¤Łà¤° à¤°
à¤Łà¤° à¤ªà¤®
à¤Łà¤° à¤¨à¤°
à¤Łà¤° à¤ľà¤¡
Ġ? '
Ġ? âĢĵ
Ġ? à¥¤âĢĻ
Ġ? âĢĿ,
Ġà¤¸à¤° à¤Ń
Ġà¤¸à¤° à¤¸à¤®
Ġà¤¸à¤° à¤ľà¤¸
Ġà¤¸à¤° à¤°à¤°
Ġà¤¸à¤° à¤Ńà¤²
Ġà¤¸à¤° à¤°à¤«
Ġà¤Ĺà¤¤ à¤µ
Ġà¤Ĺà¤¤ à¤Ńà¤¨
à¤łà¤® à¤¯
à¤łà¤® à¤§
à¤¿à¤ģ ,
à¤¿à¤ģ à¥į
à¤¿à¤ģ à¤ģ
à¤¸à¤° à¤°
à¤¸à¤° à¤ľ
à¤¸à¤° à¤¶
à¤¸à¤° à¤Ńà¤¨
à¤¸à¤° à¤ħà¤¨
à¤¸à¤° à¤Ĺà¤°à¤®
à¤ªà¤ķ à¤¦
à¤ªà¤ķ à¤¸à¤®
à¤ªà¤ķ à¤¯à¤¨
à¤ªà¤ķ à¤ħà¤¨
à¤ªà¤ķ à¤Łà¤²
à¤ªà¤ķ à¤¬à¤¹
Ġà¤Ĩà¤µ à¤¸à¤®
Ġà¤Ĩà¤µ à¤²à¤ķ
Ġà¤Ĩà¤µ à¤°à¤£à¤ķ
Ġà¤Ĩà¤µ à¤Ĺà¤®à¤¨
Ġà¤Ĩà¤µ à¤¯à¤¶
à¥Įà¤ģ !
à¥Įà¤ģ :
à¥Įà¤ģ âĢĶ
à¥Įà¤ģ ',
à¥Įà¤ģ ?âĢĻ
à¤¤à¤® à¤°
à¤¤à¤® à¤®
à¤¤à¤® à¤£
à¤¤à¤® à¤¹à¤°
à¤¤à¤® à¤¹à¤¨
à¤¤à¤® à¤²à¤Ĺ
à¥Ń à¥¯
à¥Ń à¥¦à¥¦
à¥Ń à¥Ńà¥ª
à¥ĩà¥¤ )
à¥ĩà¥¤ âĢĺ
Ġà¥« à¥¬à¥©
à¤®à¤¨ à¤·
à¤®à¤¨ à¤¹à¤°
à¤®à¤¨ à¤ªà¤ķ
à¤®à¤¨ à¤ľà¤¸
à¤®à¤¨ à¤°à¤ª
Ġà¤ĵ à¤¯
Ġà¤ĵ à¤·
Ġà¤ĵ à¤ĩ
Ġà¤ĵ à¤¸à¤ķ
Ġà¤ĵ à¤ľà¤¨
Ġà¤ĵ à¤°à¤²
Ġà¤ĵ à¤Łà¤²
Ġà¤ĵ à¤ĩà¤²
Ġà¤ĵ à¤®à¤¬
Ġà¤ĵ à¤¸à¤¬
Ġà¤ĵ à¤¡à¤²
Ġà¤ĵ à¤łà¤ķ
Ġà¤ĵ à¤®à¤¸
Ġà¤ĵ à¤ĩà¤¤
Ġà¤ĵ à¤ĩà¤¸
Ġà¤ĵ à¤Ńà¤²
Ġà¤ĵ à¤®à¤µ
Ġà¤ĵ à¤µà¤°à¤®
Ġà¤ĵ à¤ľà¤¨à¤¦
Ġà¤ĵ à¤ıà¤²à¤ĩà¤¡
Ġà¤ĵ à¤Ļà¤¡
Ġà¤ĵ à¤ıà¤ıà¤¸à¤¬
Ġà¤¹à¤ľ à¤°
Ġà¤¬à¤ľ à¤°
Ġà¤¬à¤ľ à¤«
Ġà¤¬à¤ľ à¤²à¤²
à¥¨ à¥¬à¥©
à¥¨ à¥§à¥¨
à¥¨ à¥§à¥ª
Ġà¤ħà¤® à¤ª
Ġà¤ħà¤® à¤°à¤²
Ġà¤ħà¤® à¤°à¤¬
Ġà¤ħà¤® à¤°à¤Ń
Ġà¤ħà¤® à¤°à¤¨
Ġà¤ħà¤® à¤°à¤°
Ġà¤ħà¤® à¤²à¤¡
Ġà¤ħà¤® à¤°à¤µà¤¹
Ġà¤Ŀ à¤µ
Ġà¤Ŀ à¤¨à¤ķ
Ġà¤Ŀ à¤²à¤²
Ġà¤Ŀ à¤ķà¤®à¤ķ
Ġà¤Ŀ à¤²à¤®à¤²
Ġà¤Ŀ à¤¨à¤ķà¤ª
à¤ĥ à¥ģ
à¤ĥ à¥¤
Ġà¤Ĩà¤§ à¤°à¤®
à¤«à¤² à¤ª
à¤«à¤² à¤¹
à¤«à¤² à¤«
à¤¨à¤®à¤¨ à¤ľ
Ġà¤¸à¤®à¤¸ à¤¸
à¥Īà¤Ĥ )
à¥Īà¤Ĥ à¥¤
à¤¦à¤¨ à¤°
à¤¦à¤¨ à¤¤
à¤¦à¤¨ à¤µ
à¤¦à¤¨ à¤¥
à¤¦à¤¨ à¤ļ
à¤¦à¤¨ à¤°à¤ª
à¤¦à¤¨ à¤Ĩà¤ĩà¤«
Ġà¤¨à¤¯ à¤¨à¤ķ
à¤·à¤ķ à¤ª
à¤·à¤ķ à¤¹
à¤·à¤ķ à¤µ
à¤·à¤ķ à¤°à¤ķ
à¤·à¤ķ à¤¬à¤¨
à¤·à¤ķ à¤Ĺà¤¤
à¤·à¤ķ à¤£à¤ķ
à¤·à¤ķ à¤¨à¤¬
à¤·à¤ķ à¤¹à¤²
à¤·à¤ķ à¤¸à¤®à¤ķ
Ġà¤¨à¤Ĺà¤° à¤°
Ġà¤¨à¤Ĺà¤° à¤ıà¤ķ
Ġà¤¨à¤Ĺà¤° à¤Ńà¤¨
Ġà¤¨à¤Ĺà¤° à¤ªà¤²
Ġà¤¨à¤Ĺà¤° à¤Ĩà¤µ
Ġà¤¨à¤Ĺà¤° à¤¸à¤°à¤ķ
Ġà¤ªà¤ķ à¤¨
Ġà¤ªà¤ķ à¤µ
Ġà¤ªà¤ķ à¤¡à¤²
à¤¨à¤¸ à¤¤
à¤¨à¤¸ à¤ª
à¤¨à¤¸ à¤Ĺ
à¤¨à¤¸ à¤¨à¤ķ
à¤¨à¤¸ à¤¨à¤®
à¤¨à¤¸ à¤°à¤¹à¤ķ
à¤īà¤Ł à¤¹à¤²
à¤°à¤®à¤£ à¤¦
à¤°à¤®à¤£ à¤Ł
à¤°à¤®à¤£ à¤®à¤ķ
à¤°à¤®à¤£ à¤ľà¤¸
à¤°à¤®à¤£ à¤²à¤Ĺ
à¤°à¤®à¤£ à¤®à¤§
à¤°à¤®à¤£ à¤¦à¤²à¤®
à¥į, âĢľ
à¤°à¤¶ à¤°
Ġà¤¸à¤¯ à¤Ń
Ġà¤¸à¤¯ à¤ľà¤¤
à¤°à¤Ń à¤²à¤Ĺ
à¤°à¤Ń à¤ıà¤ªà¤¨
à¤°à¤Ń à¤Ĺà¤µà¤¤
à¥¬ à¥§à¥Ń
à¥¬ à¥¨à¥¨
à¤®à¤® à¤¯
à¤®à¤® à¤£
à¤¡à¤ķ à¤°à¤¬
à¤¡à¤ķ à¤Łà¤²
à¤¡à¤ķ à¤ªà¤¬
à¤¤à¤² à¤µ
à¤¤à¤² à¤ĸ
à¤¤à¤² à¤¸à¤®
à¤¤à¤² à¤¬à¤¨
à¤¤à¤² à¤Ĺà¤¤
à¤¤à¤² à¤ħà¤¨
à¤¤à¤² à¤¹à¤°à¤ķ
à¥ª à¥¨à¥§
Ġà¤ľà¤¨à¤¤ à¤¹à¤¸à¤®
à¤ıà¤¨ à¤ħ
à¤ıà¤¨ à¤Ńà¤¨
à¤ıà¤¨ à¤ıà¤«
à¤ıà¤¨ à¤ĵà¤¸
à¤ıà¤¨ à¤ĵà¤ķ
à¤ıà¤¨ à¤ıà¤¸à¤ľ
à¤ıà¤¨ à¤ıà¤®à¤ı
à¤ıà¤¨ à¤ıà¤¸à¤Ł
à¤¸à¤¦ à¤ª
à¤¸à¤¦ à¤¸à¤®
à¤¸à¤¦ à¤Ńà¤¨
à¤¸à¤¦ à¤ľà¤¸
à¤¸à¤¦ à¤¹à¤²
à¤¸à¤¦ à¤¹à¤¹à¤°
Ġà¤ĸà¤° à¤ĸà¤ľà¤¨
Ġà¤¢ à¤¸
Ġà¤¢ à¤Ĺà¤²
Ġà¤¢ à¤ķà¤¨
Ġà¤¢ à¤ķà¤®à¤ķ
à¤ķà¤°à¤£ à¤ª
à¤ķà¤°à¤£ à¤Ńà¤¨
à¤ķà¤°à¤£ à¤ķà¤°
à¤ķà¤°à¤£ à¤ħà¤ĺ
à¤ķà¤°à¤£ à¤ªà¤¶
à¤ķà¤°à¤£ à¤īà¤ªà¤°
Ġà¤¸à¤¦ à¤µ
Ġà¤¸à¤®à¤¯ à¤°
Ġà¤¸à¤®à¤¯ à¤¯
Ġà¤¸à¤®à¤¯ à¤ªà¤¨
Ġà¤¸à¤®à¤¯ à¤ļà¤ķ
Ġà¤¸à¤®à¤¯ à¤Ĺà¤¢
Ġà¤¸à¤®à¤¯ à¤µà¤§
Ġà¤¸à¤®à¤¯ à¤ªà¤¶
Ġà¤¸à¤®à¤¯ à¤ªà¤¹
à¤²à¤¯ à¤°
à¤²à¤¯ à¤ļ
à¤²à¤¯ à¤¨à¤²
à¤²à¤¯ à¤²à¤®
à¤²à¤¯ à¤¯à¤²
à¤²à¤¯ à¤µà¤°
à¤²à¤¯ à¤Ńà¤°
à¤²à¤¯ à¤ħà¤ĺ
à¤²à¤¯ à¤ıà¤®
à¤²à¤¯ à¤ħà¤Ĺ
à¤ľà¤ķ à¤ķà¤²
à¤ľà¤ķ à¤Ńà¤¨
Ġà¥¬ à¥§à¥¦
Ġà¥¬ à¥§à¥§
Ġà¥¬ à¥§à¥«
Ġà¥¬ à¥§à¥®
Ġà¥¬ à¥§à¥Ń
Ġà¥¬ à¥¨à¥¦à¥¦
à¤§à¤¨ à¤¤
à¤§à¤¨ à¤ļ
à¤§à¤¨ à¤°à¤¹
à¤§à¤¨ à¤Ĺà¤°
à¤§à¤¨ à¤¤à¤°
à¤§à¤¨ à¤ħà¤¨
à¤§à¤¨ à¤¬à¤¹
à¤§à¤¨ à¤Ĺà¤°à¤®
à¤§à¤¨ à¤īà¤¤
à¤§à¤¨ à¤Ĩà¤µà¤¦
Ġà¥ª à¥¨à¥¦
Ġà¥ª à¥§à¥§
Ġà¥ª à¥§à¥«
à¤°à¤®à¤® à¤¬
Ġà¤ľà¤¸ à¤¸
Ġà¤ľà¤¸ à¤¶
Ġà¤ľà¤¸ à¤¤à¤°
Ġà¤ľà¤¸ à¤ľà¤¤
Ġà¤ľà¤¸ à¤ħà¤ª
Ġà¤¤à¤¯ à¤°
à¥© à¥§à¥ª
à¥© à¥«à¥¦
à¥© à¥¨à¥§
à¥© à¥ªà¥«
à¥© à¥«à¥«
à¥© à¥¦à¥¦à¥¦
à¤Ĺà¤² à¤¦
à¤Ĺà¤² à¤Ń
à¤Ĺà¤² à¤«
à¤Ĺà¤² à¤°à¤²
à¤Ĺà¤² à¤µà¤¨
à¤Ĺà¤² à¤°à¤¬
à¤Ĺà¤² à¤ľà¤¸
à¤Ĺà¤² à¤Ńà¤°
à¤Ĺà¤² à¤ªà¤¨à¤ķ
à¤ľà¤¸ à¤¸
à¤ľà¤¸ à¤Ń
Ġà¤ªà¤¦ à¤°
Ġà¤ªà¤¦ à¤¹
Ġà¤ªà¤¦ à¤ķà¤²
Ġà¤ªà¤¦ à¤Ńà¤¨
Ġà¤ªà¤¦ à¤®à¤²
Ġà¤ªà¤¦ à¤°à¤ļà¤¨
Ġà¤ªà¤¦ à¤¤à¤¥
à¤¯à¤¹ à¤ķ
à¤¯à¤¹ à¤¹à¤°
à¤¯à¤¹ à¤µà¤¹
Ġà¤¨à¤Ń à¤¬
Ġà¤¨à¤Ń à¤ĩà¤¸
Ġà¤¨à¤Ń à¤ĩà¤¹
à¤ħà¤¨ à¤¯
à¤ħà¤¨ à¤ª
à¤ħà¤¨ à¤Ł
à¤ħà¤¨ à¤¬
à¤ħà¤¨ à¤§
à¤ħà¤¨ à¤¸à¤¨
à¤ķà¤¤ à¤µ
à¤ķà¤¤ à¤¹à¤°
à¤ķà¤¤ à¤ªà¤Ľ
à¤ķà¤¤ à¤¹à¤¦
à¤ķà¤¤ à¤µà¤°à¤²
à¤®à¤² à¤ļ
à¤®à¤² à¤¹à¤°
à¤®à¤² à¤Ŀ
à¤®à¤² à¤Ńà¤¨
à¤®à¤² à¤ľà¤²
à¤®à¤² à¤ĸà¤¨
à¤µà¤² à¤¸
à¤µà¤² à¤ª
à¤µà¤² à¤ľ
à¤µà¤² à¤ļ
à¤µà¤² à¤¡
à¤µà¤² à¤ĭà¤·
Ġà¤Ńà¤¯ à¤ª
Ġà¤Ńà¤¯ à¤Ĺ
Ġà¤Ńà¤¯ à¤Ļ
Ġà¤ħà¤¬ à¤¤
Ġà¤ħà¤¬ à¤ª
Ġà¤ħà¤¬ à¤¬
Ġà¤ħà¤¬ à¤Ľ
Ġà¤ħà¤¬ à¤ªà¤¨
Ġà¤ħà¤¬ à¤ħà¤¨
Ġà¤ħà¤¬ à¤ľà¤¨à¤¤
Ġà¤ħà¤¬ à¤īà¤ļ
Ġà¤ħà¤¬ à¤Ĩà¤īà¤¨
à¤·à¤® à¤°
à¤Łà¤® à¤¸
à¤Łà¤® à¤µ
à¤Łà¤® à¤£
à¤Łà¤® à¤Ń
à¤Łà¤® à¤ªà¤Ľ
à¤Łà¤® à¤¸à¤¹
à¤µà¤® à¤ŀ
Ġà¤ķà¤² à¤µ
Ġà¤ķà¤² à¤¹à¤°
Ġà¤ķà¤² à¤°à¤¸
Ġà¤ķà¤² à¤°à¤¹à¤°
Ġà¤ķà¤² à¤¹à¤®
Ġà¤ķà¤² à¤°à¤«
Ġà¤ķà¤² à¤°à¤¸à¤¹
Ġà¤ķà¤² à¤¹à¤¯
à¤¶à¤¨ à¤§
à¤¶à¤¨ à¤¶
à¤¶à¤¨ à¤Ń
à¤¶à¤¨ à¤ľà¤¸
à¤¶à¤¨ à¤ħà¤ĺ
à¤¶à¤¨ à¤¬à¤®
à¤¶à¤¨ à¤ħà¤²
à¤¶à¤¨ à¤¹à¤¶
Ġà¤Ĩà¤ĩ à¤µ
Ġà¤Ĩà¤ĩ à¤Ī
Ġà¤Ĩà¤ĩ à¤¯à¤¸
Ġà¤Ĩà¤ĩ à¤¤à¤®
Ġà¤Ĩà¤ĩ à¤¸à¤ª
Ġà¤Ĩà¤ĩ à¤ıà¤²à¤ķ
Ġà¤Ĩà¤ĩ à¤¡à¤²à¤²
Ġà¤Ĩà¤ĩ à¤ıà¤ª
Ġà¤Ĩà¤ĩ à¤ĵà¤®
Ġà¤Ĩà¤ĩ à¤ķà¤¨à¤²
Ġà¤Ĩà¤ĩ à¤Ĩà¤ĩà¤ıà¤«
Ġà¤Ĩà¤ĩ à¤ľà¤¨à¤¹
Ġà¤¦à¤° à¤°à¤¬à¤¨
à¤¯à¤° à¤ª
à¤¯à¤° à¤ªà¤°
à¤¯à¤° à¤ªà¤¨
à¤¯à¤° à¤Ńà¤¨
à¤¯à¤° à¤ĩà¤Ł
à¤¯à¤° à¤¨à¤¦
Ġà¤ħà¤µ à¤ª
Ġà¤ħà¤µ à¤¦
Ġà¤ħà¤µ à¤µ
Ġà¤ħà¤µ à¤¥
Ġà¤ħà¤µ à¤ħà¤§
Ġà¤Ĩà¤īà¤¨ à¤ľ
Ġà¤Ĩà¤īà¤¨ à¤¬
Ġà¤Ĩà¤īà¤¨ à¤¸à¤®
Ġà¤¤à¤¹ à¤ļ
Ġà¤¤à¤¹ à¤Ń
Ġà¤¤à¤¹ à¤ªà¤Ľ
Ġà¤¤à¤¹ à¤²à¤Ĺ
Ġà¤¤à¤¹ à¤¸à¤¹
Ġà¤¤à¤¹ à¤¹à¤®
Ġà¤¤à¤¹ à¤¸à¤¨à¤¹
Ġà¤¤à¤¹ à¤¶à¤¨à¤¹à¤¶
Ġà¤ĩà¤¨ à¤¡
Ġà¤ĩà¤¨ à¤ªà¤Ľ
Ġà¤ĩà¤¨ à¤§à¤¨
Ġà¤ĩà¤¨ à¤ªà¤²
Ġà¤ĩà¤¨ à¤«à¤°
à¤ĵ à¤Ĺ
à¤ĵ à¤ľ
à¤ĵ à¤¡
à¤ĵ à¤¸à¤ķ
à¤ĵ à¤¨à¤²
à¤ĵ à¤ĩà¤¨
à¤ĵ à¤ķà¤°
à¤ĵ à¤«à¤²
à¤ĵ à¤¬à¤°
à¤ĵ à¤²à¤Ĺ
à¤ĵ à¤²à¤¸
à¤ĵ à¤ıà¤®
à¤ĵ à¤ĩà¤¸
à¤ĵ à¤ĵà¤¸
à¤ĵ à¤ıà¤ļ
à¤ĵ à¤Ĺà¤Ł
à¤ĵ à¤ıà¤¸à¤®
à¤ĵ à¤ıà¤¸à¤ķ
à¤ĵ à¤ıà¤¨à¤ľ
à¤ĵ à¤Ĩà¤°à¤ķ
à¤ĵ à¤ıà¤ıà¤¸
à¤ĵ à¤¨à¤Ŀ
à¤ĵ à¤ıà¤¨à¤®
à¤ĵ à¤ıà¤®à¤ıà¤¸à¤²
à¤ĵ à¤ıà¤¨à¤ıà¤«
à¤¶à¤® à¤¸
à¤¶à¤® à¤ľ
à¤¶à¤® à¤£
à¤¶à¤® à¤ĸ
à¤¶à¤® à¤ľà¤¨
à¤¶à¤® à¤µà¤¹
Ġà¤¹à¤° à¤«
Ġà¤¹à¤° à¤«à¤ķ
Ġà¤¹à¤° à¤¸à¤®à¤¯
Ġà¤Ķ à¤¸
Ġà¤Ķ à¤µ
Ġà¤Ķ à¤¶
Ġà¤Ķ à¤°à¤¹
Ġà¤Ķ à¤²à¤®
Ġà¤Ķ à¤°à¤µ
Ġà¤Ķ à¤¯à¤²
Ġà¤Ķ à¤¸à¤°
Ġà¤Ķ à¤²à¤¤
Ġà¤Ķ à¤§à¤ķ
Ġà¤Ķ à¤²à¤¸
Ġà¤Ķ à¤¸à¤¤à¤ķ
Ġà¤Ķ à¤·à¤¤à¤®
Ġà¤Ķ à¤·à¤¤à¤ķ
à¤¬à¤° à¤°
à¤¬à¤° à¤¨
à¤¬à¤° à¤ªà¤Ľ
Ġà¤ħà¤Ĺ à¤ª
Ġà¤ħà¤Ĺ à¤®à¤¨
Ġà¤ħà¤Ĺ à¤²à¤¬à¤Ĺà¤²à¤®
Ġà¥Ń à¥¬à¥©
Ġà¥Ń à¥§à¥«
Ġà¥Ń à¥¨à¥«
Ġà¥Ń à¥©à¥¦
Ġà¥Ń à¥§à¥¯
Ġà¤īà¤² à¤Ļ
Ġà¤īà¤² à¤Łà¤«
Ġà¤īà¤² à¤ªà¤¬
à¤¶à¤¤ à¤¤
à¤¶à¤¤ à¤¯
à¤¶à¤¤ à¤ħà¤¨
à¤¶à¤¤ à¤Ńà¤ıà¤ķ
à¤¶à¤¤ à¤¹à¤®
à¤¶à¤¤ à¤ħà¤°
à¤¶à¤¤ à¤ľà¤¤
Ġà¤ıà¤® à¤°
Ġà¤ıà¤® à¤ĩ
Ġà¤ıà¤® à¤ıà¤²
Ġà¤ıà¤® à¤Ĩà¤ĩ
Ġà¤ıà¤® à¤ıà¤®à¤ıà¤¸
Ġà¤ıà¤® à¤ıà¤®à¤¬
Ġà¤ıà¤® à¤ıà¤¸à¤ľ
Ġà¤ıà¤® à¤ıà¤¸à¤¸
Ġà¤ıà¤® à¤ıà¤®à¤¸
Ġà¤ıà¤® à¤ıà¤²à¤ı
Ġà¤ıà¤® à¤Ĩà¤Īà¤Ł
Ġà¤ıà¤® à¤°à¤¸à¤¨à¤²
à¤Ĺà¤® à¤ª
à¤Ĺà¤® à¤¦
à¤Ĺà¤® à¤Ĺà¤¢
Ġà¤¦à¤² à¤¤à¤°
Ġà¤¦à¤² à¤Ŀ
Ġà¤¦à¤² à¤Ńà¤¨
Ġà¤¦à¤² à¤¦à¤°
Ġà¤¦à¤² à¤¦à¤²
Ġà¤¦à¤² à¤Ĺà¤¤à¤°
Ġà¤¦à¤² à¤¹à¤¨à¤ķ
Ġà¤ķà¤¸ à¤ª
Ġà¤ķà¤¸ à¤¬
Ġà¤ķà¤¸ à¤¨à¤²
Ġà¤ķà¤¸ à¤Ĺà¤°
Ġà¤ķà¤¸ à¤°à¤¤à¤®
Ġà¤Ńà¤ĩà¤°à¤¹ à¤²
Ġà¤Ńà¤ĩà¤°à¤¹ à¤¦
Ġà¤®à¤§ à¤µà¤²
à¤¹à¤¨ à¤¹
à¤¹à¤¨ à¤¸à¤®
à¤¹à¤¨ à¤¤à¤®
à¤¹à¤¨ à¤¤à¤²
à¤¹à¤¨ à¤¤à¤¬
,âĢĻ âĢĻ
Ġà¤ĺà¤° à¤ľ
Ġà¤ĺà¤° à¤ĸ
Ġà¤ĺà¤° à¤ªà¤Ł
Ġà¤ĺà¤° à¤Łà¤¹à¤°
Ġà¤ĺà¤° à¤¨à¤ľ
Ġà¤ĺà¤° à¤ħà¤Ĺ
Ġà¤ĺà¤° à¤ĺà¤°à¤ķ
Ġà¤ĺà¤° à¤ĺà¤°à¤¬
Ġà¤ĺà¤° à¤ľà¤®à¤®
Ġà¤¨à¤¸à¤ķ à¤¨
à¥® à¥¦à¥¦
à¥® à¥§à¥§
à¥® à¥§à¥¨
à¥® à¥¦à¥Ń
à¥® à¥ªà¥«
à¥® à¥©à¥«
à¥® à¥ªà¥®
à¤²à¤Ĺ à¤µ
à¤²à¤Ĺ à¤Ĺà¤¤
à¤²à¤Ĺ à¤¸à¤¹
à¤²à¤Ĺ à¤Ńà¤Ĺ
à¤²à¤Ĺ à¤ĩà¤¨à¤®
à¤·à¤¯à¤® à¤§
Ġà¤ħà¤ª à¤¸
Ġà¤ħà¤ª à¤¬
Ġà¤ħà¤ª à¤Ń
Ġà¤ħà¤ª à¤¹à¤°
Ġà¤ħà¤ª à¤ł
Ġà¤ħà¤ª à¤¶à¤ķ
Ġà¤ħà¤ª à¤ķà¤°
Ġà¤ħà¤ª à¤¯à¤¶
Ġà¤ħà¤ª à¤¸à¤ľ
Ġà¤ħà¤ª à¤ļà¤²à¤¨à¤ķ
Ġà¤ħà¤ª à¤ļà¤²à¤¨à¤®
à¤Ńà¤° à¤¥
à¤Ńà¤° à¤ªà¤°
à¤Ńà¤° à¤Łà¤°
à¤Ńà¤° à¤¨à¤¸
à¤Ńà¤° à¤ĸà¤°
Ġà¤¬à¤° à¤Ĺ
Ġà¤¬à¤° à¤ĸ
Ġà¤¬à¤° à¤Ńà¤¨
Ġà¤¬à¤° à¤Ļà¤ľ
Ġà¤¤à¤ª à¤¶
Ġà¤¤à¤ª à¤ĩ
Ġà¤¬à¤¹ à¤¸à¤ļ
à¤¯à¤µ à¤ª
à¤¯à¤µ à¤¹à¤°
à¤¯à¤µ à¤°à¤£
à¤¯à¤µ à¤¯à¤¸
à¤¯à¤µ à¤¯à¤¨
à¤·à¤¯ à¤¦
à¤·à¤¯ à¤Ĺà¤¤à¤®
à¤·à¤¯ à¤Ĺà¤¤à¤ķ
à¤·à¤¯ à¤īà¤ªà¤°
Ġà¤¬à¤² à¤¤
Ġà¤¬à¤² à¤¹
Ġà¤¬à¤² à¤Ńà¤¨
Ġà¤¬à¤² à¤°à¤¹à¤°
Ġà¤¬à¤² à¤µà¤¹
Ġà¤¬à¤² à¤ħà¤Ĺ
Ġà¤¬à¤² à¤Ľà¤²
Ġà¤ĵà¤² à¤Ļ
à¤¦à¤° à¤¸à¤®
à¤¦à¤° à¤ªà¤ķ
à¥¯ à¥Ń
à¥¯ à¥®
à¥¯ à¥Ńà¥ª
à¥¯ à¥ªà¥«
à¥¯ à¥¨à¥ª
à¥¯ à¥«à¥Ń
à¥¯ à¥¨à¥¯à¥®
à¤ĩà¤¸à¤ķ à¤ªà¤Ľ
Ġà¤Ĩà¤Ĺ à¤Ł
à¤Łà¤² à¤°
à¤Łà¤² à¤µ
à¤Łà¤² à¤¨à¤ķ
à¤Łà¤² à¤°à¤¬
à¤Łà¤² à¤ħà¤¨
à¤Łà¤² à¤¸à¤¹
Ġà¤¥à¤ª à¤¸
Ġà¤¥à¤ª à¤µ
Ġà¤¥à¤ª à¤¥
Ġà¤¥à¤ª à¤¸à¤®
Ġà¤¥à¤ª à¤ªà¤Ľ
Ġà¤¥à¤ª à¤ħà¤¨
Ġà¤¥à¤ª à¤¸à¤¹
Ġà¤ħà¤¤ à¤§
Ġà¤ħà¤¤ à¤¹à¤°
Ġà¤īà¤ł à¤¯
à¤ķà¤¨ à¤°à¤¤
à¤ķà¤¨ à¤Ĺà¤°
à¤ķà¤¨ à¤Ńà¤ıà¤ķ
Ġà¤ħà¤¦ à¤²à¤¬à¤¦à¤²
Ġà¥§à¥¦ à¥§à¥®
Ġà¥§à¥¦ à¥Ńà¥¨
Ġà¥§à¥¦ à¥®à¥¦
Ġà¥§à¥¦ à¥©à¥®
Ġà¤¨à¤¹ à¤ļ
Ġà¤¨à¤¹ à¤¸à¤¨
Ġà¤«à¤° à¤°
Ġà¤«à¤° à¤°à¤°
Ġà¤®à¤² à¤¸à¤®
Ġà¤®à¤² à¤°à¤²
Ġà¤®à¤² à¤Ńà¤¨
Ġà¤®à¤² à¤¹à¤®
à¤°à¤¨ à¤¹
à¤°à¤¨ à¤¬
à¤°à¤¨ à¤¸à¤ķ
à¤°à¤¨ à¤ªà¤Ľ
à¤°à¤¨ à¤Ńà¤ıà¤°
à¤°à¤¨ à¤Ĺà¤°à¤¤à¤°
Ġà¤¸à¤¤ à¤¤
Ġà¤¸à¤¤ à¤°à¤²
Ġà¤¸à¤¤ à¤¹à¤µ
Ġà¥® à¥§à¥§
Ġà¥® à¥¬à¥©
Ġà¥® à¥Ńà¥ª
Ġà¥® à¥§à¥¨
Ġà¥® à¥©à¥¦
Ġà¥® à¥Ńà¥¬
Ġà¤ıà¤¨ à¤µ
Ġà¤ıà¤¨ à¤Ĺ
Ġà¤ıà¤¨ à¤ĩà¤¸
Ġà¤ıà¤¨ à¤ĵà¤¸
Ġà¤ıà¤¨ à¤ıà¤ļ
Ġà¤ıà¤¨ à¤ıà¤Ĩà¤°
Ġà¤ıà¤¨ à¤Ĩà¤Īà¤¸
Ġà¤ıà¤¨ à¤ıà¤«à¤ı
Ġà¤ıà¤¨ à¤ĩà¤Ĩ
Ġà¤ļà¤° à¤Ļ
à¤²à¤¤ à¤¤
à¤²à¤¤ à¤¸
à¤²à¤¤ à¤Ńà¤¨
à¤²à¤¤ à¤ľà¤¸
à¤²à¤¤ à¤ħà¤¨
à¤²à¤¤ ÅĴ
à¤£à¤¯ à¤¦
à¤£à¤¯ à¤ľà¤¸
à¤£à¤¯ à¤ħà¤ĺ
à¤£à¤¯ à¤īà¤ªà¤°
à¤®à¤ļ à¤°
à¤®à¤ļ à¤°à¤£à¤®
à¤®à¤ļ à¤°à¤£à¤ķ
à¤ļà¤ķ à¤¸
à¤¥à¤® à¤§
à¤¨à¤° à¤°
à¤¨à¤° à¤Ĺ
à¤¨à¤° à¤¡
à¤¨à¤° à¤²à¤ķ
à¤¨à¤° à¤¡à¤ķ
à¤¨à¤° à¤¡à¤²
à¤ĸà¤° à¤ıà¤ķ
Ġà¤¸à¤®à¤¯à¤® à¤¦
Ġà¤ķà¤¸à¤° à¤ªà¤Ľ
à¤ªà¤² à¤°
à¤ªà¤² à¤ª
à¤ªà¤² à¤¹
à¤ªà¤² à¤ľ
à¤ªà¤² à¤°à¤ķ
à¤ªà¤² à¤Łà¤ķ
à¤ªà¤² à¤Łà¤¤
à¤ªà¤² à¤Łà¤ªà¤Ľ
Ġà¤ªà¤Łà¤ķ à¤¸
Ġà¤ªà¤Łà¤ķ à¤ļ
Ġà¤ªà¤Łà¤ķ à¤ķà¤ķ
à¤Ńà¤µ à¤¯
à¤Ńà¤µ à¤¦
à¤Ńà¤µ à¤¥
à¤Ńà¤µ à¤Ľ
à¤Ńà¤µ à¤ªà¤Ľ
à¤Ńà¤µ à¤¬à¤¨
à¤Ńà¤µ à¤ľà¤¸
Ġà¤īà¤® à¤Ļ
Ġà¤īà¤® à¤ªà¤¹
Ġà¤®à¤¹à¤¤ à¤¹à¤°
Ġà¤®à¤¹à¤¤ à¤¸à¤®à¤ķ
à¤¬à¤² à¤°
à¤¬à¤² à¤¸
à¤¬à¤² à¤¹à¤°
à¤¬à¤² à¤°à¤®
à¤¬à¤² à¤¨à¤ķ
à¤¬à¤² à¤°à¤²
à¤¬à¤² à¤Ńà¤¨
Ġà¤¨à¤® à¤ľ
Ġà¤¨à¤® à¤ĸ
à¤µà¤¯ à¤¯
à¤µà¤¯ à¤¨à¤²à¤Ĺ
à¤¨à¤µ à¤¹
à¤¨à¤µ à¤°à¤ķ
à¤¨à¤µ à¤¸à¤®
à¤¨à¤µ à¤¯à¤¤
à¤¨à¤µ à¤²à¤®
à¤¨à¤µ à¤²à¤²
à¤¨à¤µ à¤ľà¤Ĺ
à¤¨à¤µ à¤§à¤°
à¤¨à¤µ à¤īà¤¦
Ġà¤Ĳ à¤ļ
Ġà¤Ĳ à¤®à¤ľ
Ġà¤Ĳ à¤¨à¤¬à¤¹
Ġà¤Ĳ à¤¯à¤°à¤¸
à¥Īà¤ģ -
à¥Īà¤ģ à¥¤
à¥Īà¤ģ à¤ģ
à¥Īà¤ģ âĢĵ
à¥Īà¤ģ âĢĶ
à¥Īà¤ģ à¤ģ,
à¤¹à¤ķ à¤¸à¤®
à¤¹à¤ķ à¤¸à¤®à¤ķ
à¤·à¤¦ à¤ĸ
à¤·à¤¦ à¤¸à¤®
à¤·à¤¦ à¤²à¤ķ
Ġà¤ħà¤Ŀ à¤Ńà¤¨
Ġà¤¸à¤«à¤² à¤¸à¤®
Ġà¤¸à¤«à¤² à¤«à¤²à¤¤
à¤µà¤ª à¤¦
à¤µà¤ª à¤Ł
Ġà¤¯à¤¤ à¤¹à¤²
Ġà¥¯ à¥¨à¥¦
Ġà¥¯ à¥§à¥¨
Ġà¥¯ à¥§à¥®
Ġà¤Ĩà¤ķ à¤¶
Ġà¤Ĩà¤ķ à¤£
à¤µà¤°à¤£ à¤¨
à¤µà¤°à¤£ à¤ª
à¤µà¤°à¤£ à¤ªà¤Ľ
à¤µà¤°à¤£ à¤¤à¤°
à¤µà¤°à¤£ à¤ľà¤¸
à¤µà¤°à¤£ à¤²à¤Ĺ
à¤µà¤°à¤£ à¤Ĩà¤¦
Ġà¤Ľà¤² à¤Ľ
Ġà¤Ľà¤² à¤ªà¤²
Ġà¤Ľà¤² à¤ªà¤²à¤²
à¤²à¤¯à¤ķ à¤°
à¤ľà¤® à¤¨à¤®
à¤ľà¤® à¤¬à¤°
à¤¾. ,
Ġà¤ħà¤² à¤ľ
Ġà¤ħà¤² à¤¨à¤²
Ġà¤ħà¤² à¤Ļ
Ġà¤ħà¤² à¤ħ
Ġà¤ħà¤² à¤«à¤°
Ġà¤ħà¤² à¤Ĳ
Ġà¤ħà¤² à¤ıà¤¨à¤ķ
Ġà¤ħà¤² à¤Ĳà¤¨
Ġà¤°à¤ķà¤® à¤ª
Ġà¤°à¤ķà¤® à¤«
Ġà¤°à¤ķà¤® à¤Ńà¤¨
Ġà¤°à¤ķà¤® à¤¬à¤°
Ġà¤īà¤ªà¤ļ à¤¸à¤µ
à¤¡à¤® à¤¹à¤°
à¤¡à¤® à¤¸à¤®
à¤¡à¤® à¤ªà¤Ľ
à¤¡à¤® à¤ľà¤¸
à¤¯à¤¸à¤® à¤¤
à¤¯à¤¸à¤® à¤¯
à¤·à¤¤ à¤¬
à¤¨à¤¬ à¤ľ
à¤¸à¤¹ à¤ķà¤°
à¤¸à¤¹ à¤ľà¤¤
Ġà¤ħà¤« à¤ķ
Ġà¤ħà¤« à¤°à¤¬
Ġà¤ħà¤« à¤¸à¤°
Ġà¤ħà¤« à¤°à¤¸à¤®
Ġà¤ħà¤« à¤Ļà¤Ĺ
Ġà¤Ńà¤ıà¤° à¤ªà¤¨
à¤ĩà¤² à¤¦
à¤ĩà¤² à¤°à¤ķ
à¤ĩà¤² à¤¸à¤®
à¤ĩà¤² à¤Ĺà¤²
à¤ĩà¤² à¤Ĺà¤®
à¤ĩà¤² à¤ħà¤ĺ
à¥įâĢ ŀ
à¤¤à¤µ à¤¹
à¤¤à¤µ à¤¨à¤²à¤Ĺ
à¤«à¤¤ à¤¸à¤®
à¤¦à¤ķ à¤Łà¤²
à¤¦à¤ķ à¤¦à¤²
à¤ľà¤Ĺ à¤¡
Ġ' ?
à¤¤à¤°à¤£ à¤¦
à¤¤à¤°à¤£ à¤ªà¤Ľ
à¤¤à¤°à¤£ à¤¤à¤°
à¤¤à¤°à¤£ à¤ķà¤°
à¤¤à¤°à¤£ à¤²à¤Ĺ
à¤¤à¤°à¤£ à¤¸à¤¹
Ġà¤ıà¤¸ à¤ıà¤¨
Ġà¤ıà¤¸ à¤Ĩà¤ĩà¤ª
Ġà¤ıà¤¸ à¤ıà¤ª
Ġà¤ıà¤¸ à¤ıà¤¸à¤²
Ġà¤ıà¤¸ à¤ıà¤®à¤¸
Ġà¤ıà¤¸ à¤ıà¤ıà¤¸
à¤Ĩà¤° à¤Ī
à¤Ĩà¤° à¤ıà¤¨
à¤Ĩà¤° à¤Īà¤²
à¤Ĩà¤° à¤ıà¤«à¤¸
à¤Ĩà¤° à¤ıà¤¸à¤²
à¤Ĩà¤° à¤Ĩà¤ĩà¤Ł
à¤Ĩà¤° à¤ıà¤¨à¤¡
à¤Ĩà¤° à¤łà¤¦
à¤Ĩà¤° à¤°à¤ıà¤¬
à¤²à¤¯à¤² à¤²
à¤¨à¤¤ à¤¤
à¤¨à¤¤ à¤¯
à¤¨à¤¤ à¤¨à¤²
à¤¨à¤¤ à¤®à¤ķ
Ġà¤Ĩà¤ī à¤¥
Ġà¤®à¤¤ à¤¹
Ġà¤®à¤¤ à¤Ľ
Ġà¤®à¤¤ à¤ªà¤¨
Ġà¤®à¤¤ à¤ªà¤Ľ
Ġà¤®à¤¤ à¤²à¤¬à¤ķ
Ġà¤®à¤¤ à¤Ĺà¤£à¤¤
Ġà¤¸à¤¡à¤ķ à¤¸
Ġà¤¸à¤¡à¤ķ à¤ħà¤¨
Ġà¤¸à¤¡à¤ķ à¤Ńà¤°
Ġà¤Ĩà¤® à¤ªà¤°
Ġà¤Ĩà¤® à¤¸à¤®
Ġà¤Ĩà¤® à¤Ńà¤°
Ġà¤Ĩà¤® à¤¦à¤°
Ġà¤Ĩà¤® à¤ªà¤¦
Ġà¤Ĩà¤® à¤Ĺà¤łà¤¬à¤¨
Ġà¤Ĩà¤® à¤īà¤ªà¤¯
Ġà¤Ĩà¤® à¤Ĩà¤ķ
Ġà¤Ĩà¤® à¤Ĩà¤ª
Ġà¤Ĩà¤® à¤ľà¤¨à¤¸à¤®
Ġà¤Ĩà¤® à¤ľà¤¨à¤µ
Ġà¤Ĩà¤® à¤¹à¤¡à¤¤
Ġà¤Ĩà¤® à¤¬à¤¹à¤¸à¤®
Ġà¤ªà¤ł à¤¨à¤ķ
Ġà¤ªà¤ł à¤ĩà¤ıà¤ķ
Ġà¤ªà¤ł à¤¨à¤¸
à¤ľà¤² à¤ª
à¤ľà¤² à¤¸à¤ķ
à¤ľà¤² à¤ªà¤Ľ
à¤ľà¤² à¤ļà¤°
à¤ľà¤² à¤µà¤Ł
Ġà¤Ĩà¤¦ à¤¶
Ġà¤Ĩà¤¦ à¤°à¤Ń
Ġà¤Ĩà¤¦ à¤¤à¤²
Ġà¤Ĩà¤¦ à¤²à¤¤à¤¸à¤®
Ġà¤Ĩà¤¦ à¤°à¤¸à¤¤
à¤§à¤ķ à¤¸
à¤§à¤ķ à¤µ
à¤§à¤ķ à¤¬
à¤§à¤ķ à¤Ľà¤¨
Ġà¤ľà¤° à¤Ļ
à¥įâĢį âĢį
à¤¦à¤² à¤Ń
à¤¦à¤² à¤Ŀ
Ġà¤Ĩà¤¶ à¤¯à¤¬
à¤ıà¤¸ à¤¯
à¤ıà¤¸ à¤µ
à¤ıà¤¸ à¤°à¤¹
à¤ıà¤¸ à¤¤à¤°
à¤ıà¤¸ à¤ħà¤¨
à¤ıà¤¸ à¤Ĩà¤°
à¤ıà¤¸ à¤ĩà¤ķ
à¤ıà¤¸ à¤ıà¤²à¤ķ
à¤ıà¤¸ à¤°à¤¹à¤ķ
à¤ıà¤¸ à¤ıà¤²à¤®
à¤ıà¤¸ à¤ıà¤¡
à¤ıà¤¸ à¤Ĩà¤°à¤¬
à¤ıà¤¸ à¤Īà¤ı
à¤ıà¤¸ à¤Īà¤ıà¤®
à¤ıà¤¸ à¤ĵà¤ıà¤ļ
à¤²à¤¸ à¤¸
à¤²à¤¸ à¤¸à¤®
à¤²à¤¸ à¤°à¤¹
à¤²à¤¸ à¤ªà¤Ľ
à¤®à¤¬ à¤¬
à¤®à¤¬ à¤°à¤£
à¤®à¤¬ à¤Łà¤¨
Ġà¤ľà¤Ĺ à¤¸
Ġà¤ľà¤Ĺ à¤¹
Ġà¤ľà¤Ĺ à¤ļ
Ġà¤ľà¤Ĺ à¤¹à¤°
Ġà¤ľà¤Ĺ à¤¸à¤®
Ġà¤ľà¤Ĺ à¤¨à¤²
Ġà¤ľà¤Ĺ à¤¶à¤ķ
Ġà¤ľà¤Ĺ à¤¦à¤¶
à¤¾à¥ĩ !
à¤¾à¥ĩ '
à¤¾à¥ĩ -
à¤¾à¥ĩ /
à¤¾à¥ĩ à¥ĩà¥¤
à¤¾à¥ĩ ',
à¤¾à¥ĩ à¤Ĥà¥Ī
Ġà¤Ĩà¤ľ à¤Ŀ
Ġà¤Ĩà¤ľ à¤®à¤ķ
Ġà¤Ĩà¤ľ à¤®à¤²
Ġà¤Ĩà¤ľ à¤Ĩà¤«
Ġà¤Ĩà¤ľ à¤¦à¤¬
à¤¸à¤Ń à¤ıà¤ķ
à¤ªà¤Łà¤ķ à¤¨
à¤ªà¤Łà¤ķ à¤ªà¤Łà¤ķ
à¤ªà¤¯ à¤ħà¤µà¤¸
Ġà¤ľà¤® à¤ĺà¤Łà¤²
à¤µà¤¤ à¤¸
à¤µà¤¤ à¤Ń
à¤µà¤¤ à¤¹à¤°
à¤µà¤¤ à¤«
à¤µà¤¤ à¤¸à¤®
à¤µà¤¤ à¤ªà¤Ľ
à¤µà¤¤ à¤Ńà¤¨
à¤µà¤¤ à¤¤à¤¨
à¤µà¤¤ à¤¹à¤®
à¤¸à¤¬ à¤®
à¤¸à¤¬ à¤ħà¤²
Â¥ à¥ģ
Ġà¥§à¥¯ à¥¦à¥¦
Ġà¥§à¥¯ à¥§à¥¦
Ġà¥§à¥¯ à¥§à¥«
Ġà¥§à¥¯ à¥§à¥¨
Ġà¥§à¥¯ à¥§à¥ª
Ġà¥§à¥¯ à¥¨à¥§
Ġà¥§à¥¯ à¥¦à¥Ń
Ġà¥§à¥¯ à¥¨à¥¨
Ġà¥§à¥¯ à¥¨à¥¯
Ġà¥§à¥¯ à¥©à¥®
Ġà¥§à¥¯ à¥¦à¥§
à¤¶à¤² à¤¦
à¤¶à¤² à¤Ł
à¤¦à¤® à¤ķà¤®
Ġà¤ıà¤ķà¤¤ à¤¹
à¤¹à¤² à¤¸à¤®
Ġà¤¹à¤¸ à¤ª
à¤°à¤ª à¤¹
à¤°à¤ª à¤¡
à¤°à¤ª à¤¹à¤°
à¤°à¤ª à¤ķà¤ķ
à¤°à¤ª à¤ħà¤¨
à¤°à¤ª à¤¥à¤ķ
Ġà¤Ľà¤²à¤«à¤² à¤¸
Ġà¤Ľà¤²à¤«à¤² à¤µ
Ġà¤Ľà¤²à¤«à¤² à¤ļ
Ġà¤Ľà¤²à¤«à¤² à¤Ĺà¤°
Ġà¤Ľà¤²à¤«à¤² à¤Ńà¤¨
Ġà¤Ľà¤²à¤«à¤² à¤¸à¤¹
Ġà¤Ľà¤²à¤«à¤² à¤Ńà¤ıà¤°
à¤¯à¤¯à¤¨ à¤¸
à¤¯à¤¯à¤¨ à¤Ĺà¤°
à¤¯à¤¯à¤¨ à¤ªà¤¤
à¤¯à¤¯à¤¨ à¤Ńà¤¨
à¤¯à¤¯à¤¨ à¤¸à¤¹
à¤¯à¤¯à¤¨ à¤¤à¤¥
Ġà¤¨à¤ª à¤¡
à¤¤à¤¬ à¤¸
à¤¤à¤¬ à¤¦
à¤¤à¤¬ à¤ļà¤ª
à¤°à¤ľ à¤¤
à¤°à¤ľ à¤¯
à¤°à¤ľ à¤Ĺà¤¤
Ġà¥¨à¥¦à¥Ń à¥Ń
Ġà¥¨à¥¦à¥Ń à¥®
à¤®à¤§ à¤°
à¤Ļà¤ķ à¤¸
à¤ķà¤ª à¤ª
à¤ķà¤ª à¤¨à¤ķ
à¤ķà¤ª à¤ŀ
à¤ªà¤¦ à¤ª
à¤ªà¤¦ à¤Ńà¤¨
à¤Ĺà¤ł à¤¨à¤¤
à¤Ĺà¤ł à¤¨à¤¦
à¤°à¤ļ à¤°
Ġà¤¨à¤° à¤«
Ġà¤¨à¤° à¤īà¤Īà¤ļà¤¸
Ġà¥§à¥« à¥Ń
Ġà¥§à¥« à¥«à¥¬
à¤²à¤¨à¤® à¤£
à¤¡à¤² à¤°à¤ķ
à¤¡à¤² à¤¸à¤®
à¤¡à¤² à¤Ńà¤¨
à¤¡à¤² à¤ħà¤¨
à¤¡à¤² à¤¸à¤¹
à¤¡à¤² à¤Łà¤¨à¤ķ
à¤ķà¤¸ à¤ļ
à¤ķà¤¸ à¤¨à¤²
à¤ķà¤¸ à¤Ļ
à¤ķà¤¸ à¤ªà¤ķ
Ġà¥§à¥¨ à¥§à¥«
Ġà¥§à¥¨ à¥§à¥Ń
Ġà¥§à¥¨ à¥¬à¥®
Ġà¥§à¥¨ à¥¯à¥§
Ġà¤¸à¤¹à¤ľ à¤¯
Ġà¤¸à¤¹à¤ľ à¤ª
Ġà¤¸à¤¹à¤ľ à¤µ
Ġà¤¸à¤¹à¤ľ à¤Ĩà¤µà¤¤
à¤łà¤ķ à¤ħà¤Ĺ
Ġà¥«à¥¦ à¥«
Ġà¥«à¥¦ à¥¨à¥§
Ġà¤ĺà¤Ł à¤¯
Ġà¤ĺà¤Ł à¤¸
Ġà¤ĺà¤Ł à¤Ľ
Ġà¤ĺà¤Ł à¤¨à¤ķ
Ġà¤ĺà¤Ł à¤¨à¤®
à¤²à¤¯à¤® à¤®
à¤·à¤®à¤¤ à¤®
à¤µà¤¯à¤¨ à¤ª
à¤µà¤¯à¤¨ à¤¹
à¤µà¤¯à¤¨ à¤ļ
à¤µà¤¯à¤¨ à¤ªà¤Ľ
à¤µà¤¯à¤¨ à¤ħà¤¨
Ġà¥¨à¥« à¥§
Ġà¥¨à¥« à¥Ń
Ġà¥¨à¥« à¥¨
Ġà¥¨à¥« à¥ª
Ġà¥¨à¥« à¥©
Ġà¥¨à¥« à¥®
Ġà¥¨à¥« à¥¦à¥¦
Ġà¥¨à¥« à¥ªà¥¯
à¤¥à¤² à¤¥
à¤¥à¤² à¤Ńà¤¨
à¤¥à¤² à¤¸à¤¹
à¤Ĺà¤¦ à¤¤
à¤ĩà¤Ł à¤¹
à¤ĩà¤Ł à¤°à¤ķ
à¤ĩà¤Ł à¤°à¤®
à¤ĩà¤Ł à¤¸à¤®
à¤ĩà¤Ł à¤²à¤ķ
à¤ĩà¤Ł à¤Ńà¤¨
à¤ĩà¤Ł à¤ħà¤¨
à¤ĩà¤Ł à¤²à¤Ĺ
Ġà¤«à¤°à¤ķ à¤§
Ġà¤«à¤°à¤ķ à¤ļ
Ġà¤«à¤°à¤ķ à¤®à¤¤
Ġà¤«à¤°à¤ķ à¤ªà¤¨à¤¸à¤®
à¤²à¤µ à¤¹
à¤²à¤µ à¤ľ
à¤²à¤µ à¤¬
à¤²à¤µ à¤¶
Ġà¤Ŀà¤¨ à¤Ŀà¤Ł
à¤ıà¤® à¤¹à¤°
à¤ıà¤® à¤Ĩà¤°
à¤ıà¤® à¤Īà¤ķ
à¤ıà¤® à¤¡à¤¬
à¤ıà¤® à¤ıà¤²à¤ķ
à¤ıà¤® à¤ıà¤¸à¤ķ
à¤ıà¤® à¤ĵà¤ıà¤¸
à¤ıà¤® à¤Ĩà¤°à¤²
à¤ıà¤® à¤Ĩà¤°à¤Ł
Ġà¤¨à¤ľ à¤°à¤¨
Ġà¤¸à¤µ à¤¦
Ġà¤¸à¤µ à¤§
Ġà¤¸à¤µ à¤¨à¤®
Ġà¤¸à¤µ à¤Ńà¤¨
Ġà¤¬à¤ļ à¤¤à¤¸
Ġà¤¬à¤ļ à¤¤à¤¸à¤®
à¥ģ, '
à¥ģ, ,
à¥ģ, Âį
à¤®à¤¸ à¤°à¤ķ
à¤®à¤¸ à¤¨à¤ķ
à¤®à¤¸ à¤¶à¤ķ
à¤®à¤¸ à¤Ļà¤¸
Ġà¤§à¤¨ à¤¶à¤ķ
Ġà¤§à¤¨ à¤¥à¤²
Ġà¤¸à¤ľ à¤°
Ġà¤¸à¤ľ à¤¤
à¤ľà¤° à¤¨à¤ķ
à¤ĩà¤ķ à¤°à¤ķ
à¤ĩà¤ķ à¤¹à¤°
à¤ĩà¤ķ à¤Łà¤ķ
à¤¨à¤ª à¤¢
à¤¨à¤ª à¤¹à¤²
à¤¨à¤ª à¤¸à¤²à¤®
Ġà¤¸à¤¹à¤° à¤¤
Ġà¤¸à¤¹à¤° à¤ª
Ġà¤¸à¤¹à¤° à¤ľ
Ġà¤¸à¤¹à¤° à¤¸à¤®
Ġà¤¸à¤¹à¤° à¤ľà¤¸
Ġà¤¸à¤¹à¤° à¤¨à¤ľ
Ġà¥§à¥§ à¥®
Ġà¥§à¥§ à¥¯
Ġà¥§à¥§ à¥¦à¥¦
Ġà¥§à¥§ à¥«à¥¦
Ġà¥§à¥§ à¥ªà¥«
Ġà¥§à¥§ à¥ªà¥¬
Ġà¥§à¥§ à¥Ńà¥®
Ġà¥§à¥§ à¥®à¥¬
à¤¦à¤µ à¤ľ
à¤¦à¤µ à¤Ńà¤¨
à¤¦à¤µ à¤ľà¤¸
à¤ľà¤¦ à¤¬
à¤ľà¤¦ à¤°à¤µ
à¤µà¤µ à¤ľ
Ġà¤ħà¤ªà¤° à¤¦
Ġà¤ħà¤ªà¤° à¤Ł
Ġà¤ħà¤ªà¤° à¤ļà¤°
à¤¤à¤¤ à¤µà¤°à¤¬
à¤ĩà¤° à¤¨à¤ķ
à¤ĩà¤° à¤¸à¤®
à¤ĩà¤° à¤Łà¤¹à¤°
Ġà¤Ĺà¤łà¤¨ à¤¦
Ġà¤Ĺà¤łà¤¨ à¤¤à¤°
Ġà¤Ĺà¤łà¤¨ à¤¬à¤¨
Ġà¤Ĺà¤łà¤¨ à¤ħà¤ĺ
à¤ľà¤¨à¤ķ à¤°
à¤ľà¤¨à¤ķ à¤Ł
à¤ªà¤£ à¤°
à¤ªà¤£ à¤¦
à¤ªà¤£ à¤¬
à¤ªà¤£ à¤Ń
à¤ªà¤£ à¤ķà¤²
à¤ªà¤£ à¤ľà¤¸
à¤ªà¤£ à¤ħà¤¨
à¤ªà¤£ à¤¸à¤¹
Ġà¤ķà¤¨ à¤Ńà¤°
Ġà¤ľà¤¹ à¤¦
à¤¹à¤® à¤£
à¤¹à¤® à¤¦à¤¨
à¤¹à¤® à¤¦à¤¨à¤ķ
Ġà¤Ĺà¤£ à¤®
Ġà¤Ĺà¤£ à¤¦
Ġà¤Ĺà¤£ à¤ķà¤²
Ġà¤Ńà¤µ à¤¦
à¤²à¤° à¤¸à¤®
à¤²à¤° à¤ŀ
à¤Īà¤ķ à¤Łà¤ķ
Ġà¥©à¥¦ à¥«
Ġà¥©à¥¦ à¥¨
Ġà¥©à¥¦ à¥¬
Ġà¥©à¥¦ à¥¯
Ġà¥©à¥¦ à¥Ńà¥«
Ġà¥©à¥¦ à¥¦à¥Ń
Ġà¥©à¥¦ à¥®à¥«
à¤®à¤° à¤°
à¤®à¤° à¤¸à¤®
à¤®à¤° à¤¨à¤²
à¤®à¤° à¤Ńà¤¨
à¤®à¤° à¤ľà¤¸
à¤·à¤§ à¤°à¤¬
à¤·à¤§ à¤°à¤ªà¤ŀ
Ġà¤Ńà¤ıà¤¨ à¤Ľ
à¤ķà¤Ł à¤¦
à¤ķà¤Ł à¤ł
à¤ķà¤Ł à¤¦à¤°
à¤®à¤¦ à¤²à¤²
à¤®à¤¦ à¤ħà¤²
Ġà¤īà¤ªà¤¸ à¤¸
Ġà¤īà¤ªà¤¸ à¤µ
à¤¸à¤¸ à¤°à¤¹
à¤¸à¤¸ à¤Ĺà¤°
Ġà¤Ĳà¤¨ à¤¸à¤®
Ġà¤Ĳà¤¨ à¤ªà¤Ľ
Ġà¤ĸà¤¡ à¤Ĺ
à¤²à¤¨à¤ķ à¤°
Ġà¤µà¤¡ à¤µà¤°
à¤ľà¤¯ à¤¯
à¤ľà¤¯ à¤°à¤¤
à¤ľà¤¯ à¤ĸà¤°
à¤ľà¤¯ à¤¶à¤®à¤¶
à¤¬à¤¹ à¤¸
à¤¬à¤¹ à¤¸à¤ķ
Ġà¤Ĩà¤ª à¤«
Ġà¤Ĩà¤ª à¤¸à¤ķ
Ġà¤°à¤¨ à¤°à¤¬à¤¹
à¤¤à¤ª à¤¸
à¤¤à¤ª à¤°à¤¤
à¤¯à¤Łà¤¨ à¤¤à¤°
à¤¯à¤Łà¤¨ à¤Ńà¤¨
à¤¯à¤Łà¤¨ à¤¸à¤¹
Ġà¤¸à¤®à¤° à¤¸à¤®
Ġà¤Ńà¤£ à¤¡à¤°
à¤¥à¤ķ à¤¦
à¤¥à¤ķ à¤¹
à¤¥à¤ķ à¤¸à¤®
à¤¥à¤ķ à¤ľà¤¸
à¤ĸà¤ķ à¤¦
à¤ĸà¤ķ à¤·
à¤ĸà¤ķ à¤Ń
à¤ĸà¤ķ à¤ľà¤¸
à¤®à¤Ĺ à¤¨à¤®
à¤®à¤Ĺ à¤ıà¤°
Ġà¤ıà¤ª à¤¸à¤®
Ġà¤ıà¤ª à¤²à¤ķ
à¤ļà¤² à¤Ń
à¤ļà¤² à¤¸à¤®
à¤ļà¤² à¤Ńà¤¨
à¤ıà¤² à¤¡
à¤ıà¤² à¤Ń
à¤ıà¤² à¤ıà¤¨
à¤ıà¤² à¤Ĩà¤°
à¤ıà¤² à¤ıà¤¸
à¤ıà¤² à¤ıà¤®
à¤ıà¤² à¤ĵà¤ķ
à¤ıà¤² à¤ıà¤¸à¤²
Ġà¤¸à¤² à¤ľ
Ġà¤¸à¤² à¤¹à¤ķ
à¤¸à¤¨à¤² à¤¦
à¤¸à¤¨à¤² à¤¹à¤°
à¤¨à¤¸à¤® à¤°
Ġà¥§à¥® à¥§à¥«
Ġà¥§à¥® à¥§à¥®
Ġà¥§à¥® à¥Ńà¥¦
Ġà¥§à¥® à¥©à¥«
Ġà¥§à¥® à¥ªà¥¬
Ġà¥§à¥® à¥¯à¥¯
Ġà¥§à¥® à¥¬à¥¯
Ġà¥§à¥® à¥¬à¥¬
Ġà¥§à¥® à¥®à¥«
Ġà¥§à¥® à¥¯à¥§
Ġà¥§à¥® à¥«à¥©
Ġà¥§à¥® à¥®à¥¬
Ġà¤Ķà¤·à¤§ à¤¸à¤®
Ġà¤Ķà¤·à¤§ à¤¸à¤¹
Ġà¤¯à¤¦ à¤ª
Ġà¤ľà¤¨à¤ķ à¤¦
Ġà¤ľà¤¨à¤ķ à¤Ńà¤¨
Ġà¤ľà¤¨à¤ķ à¤¨à¤¨
à¤¯à¤¬ à¤ķ
à¤¯à¤¬ à¤²à¤ķ
Ġà¤ıà¤¨à¤Ĩà¤°à¤ıà¤¨ à¤¤
Ġà¤ıà¤¨à¤Ĩà¤°à¤ıà¤¨ à¤¬
Ġà¤ıà¤¨à¤Ĩà¤°à¤ıà¤¨ à¤ļ
Ġà¤ıà¤¨à¤Ĩà¤°à¤ıà¤¨ à¤ıà¤¨
Ġà¤ıà¤¨à¤Ĩà¤°à¤ıà¤¨ à¤ħà¤¨
Ġà¤ıà¤¨à¤Ĩà¤°à¤ıà¤¨ à¤ıà¤¸
Ġà¤ıà¤¨à¤Ĩà¤°à¤ıà¤¨ à¤ħà¤®
à¥ģà¥¤ )
à¥ĢâĢĻ à¥¤
Ġà¤°à¤® à¤¨à¤²
Ġà¤°à¤® à¤£à¤²
Ġà¤°à¤® à¤£à¤¬à¤¹
à¤µà¤¦ à¤¤
à¤µà¤¦ à¤¸
à¤µà¤¦ à¤¦
à¤µà¤¦ à¤£
Ġà¥§à¥¬ à¥¨
Ġà¥§à¥¬ à¥¨à¥¦
Ġà¥§à¥¬ à¥¨à¥«
Ġà¥§à¥¬ à¥§à¥¨
Ġà¥§à¥¬ à¥¬à¥¦
Ġà¥§à¥¬ à¥¬à¥®
Ġà¥§à¥¬ à¥¯à¥«
Ġà¥§à¥¬ à¥ªà¥®
Ġà¥§à¥¬ à¥ªà¥¯
à¤¨à¤Ĺà¤° à¤¡
à¤¨à¤Ĺà¤° à¤¸à¤®
à¤¨à¤Ĺà¤° à¤ªà¤²
à¤¨à¤Ĺà¤° à¤¸à¤¹
à¤¨à¤Ĺà¤° à¤¸à¤Ń
à¤¨à¤Ĺà¤° à¤¨à¤Ĺà¤°à¤ª
à¤¾âĢĻ à¥¤
à¤Ĺà¤¢ à¤ķ
à¤Ĺà¤¢ à¤²
à¤Ĺà¤¢ à¤®
à¤Ĺà¤¢ à¤µ
à¤Ĺà¤¢ à¤Ńà¤¨
Ġà¥§à¥ª à¥§
Ġà¥§à¥ª à¥¯
Ġà¥§à¥ª à¥¦à¥¦
Ġà¥§à¥ª à¥§à¥«
Ġà¥§à¥ª à¥Ńà¥¨
Ġà¥§à¥ª à¥©à¥©
à¤§à¤¬ à¤ª
à¤ĺà¤Łà¤¨ à¤īà¤¨
à¤ĺà¤Łà¤¨ à¤¸à¤®
Ġà¤Ńà¤¤ à¤Ńà¤¤
à¤ĩà¤¨à¤² à¤¬
à¤ĩà¤¨à¤² à¤Ńà¤¨
à¤ĩà¤¨à¤² à¤ħà¤ĺ
à¤¨à¤¯ à¤Ńà¤¨
à¤ļà¤° à¤¸à¤®
à¤¯à¤¦ à¤¸
à¤¡à¤° à¤«
à¤¡à¤° à¤ªà¤Ľ
Ġà¤ªà¤°à¤® à¤°
Ġà¤ªà¤°à¤® à¤ª
Ġà¤ªà¤°à¤® à¤ľ
Ġà¤ªà¤°à¤® à¤¬
Ġà¤ªà¤°à¤® à¤§
Ġà¤ªà¤°à¤® à¤ļ
Ġà¤ªà¤°à¤® à¤¸à¤¨
Ġà¤ªà¤°à¤® à¤¤à¤¤
Ġà¤ªà¤°à¤® à¤Ĩà¤¨à¤¨
à¤°à¤¹à¤¨ à¤ªà¤°
Ġà¤Ĭ à¤¹
Ġà¤Ĭ à¤Ń
Ġà¤Ĭ à¤¨à¤²
à¤¤à¤°à¤ķ à¤¸
à¤¤à¤°à¤ķ à¤¬
à¤¤à¤°à¤ķ à¤ķà¤°
à¤¤à¤°à¤ķ à¤²à¤Ĺ
à¤¤à¤°à¤ķ à¤²à¤¹
à¤ĩà¤ľ à¤¤
à¤ĩà¤ľ à¤¹à¤°
à¥Ģ) -
à¥Ģ) à¥¤
Ġà¤¦à¤¬ à¤¬
Ġà¤¦à¤¬ à¤Ļ
à¤ĩà¤® à¤°à¤ķ
à¤ļà¤¨à¤® à¤¯
à¤ļà¤¨à¤® à¤£
Ġà¥§à¥© à¥¬
Ġà¥§à¥© à¥ª
Ġà¥§à¥© à¥§à¥¨
Ġà¥§à¥© à¥§à¥ª
Ġà¥§à¥© à¥«à¥¦
Ġà¥§à¥© à¥©à¥«
Ġà¥§à¥© à¥«à¥Ń
Ġà¥§à¥© à¥¨à¥¯
Ġà¥§à¥© à¥®à¥¦
Ġà¥§à¥© à¥¯à¥¦
Ġà¥§à¥© à¥ªà¥®
Ġà¥§à¥© à¥¬à¥§
Ġà¥§à¥© à¥¬à¥¬
Ġà¥§à¥© à¥®à¥§
à¤°à¤¸à¤® à¤°
Ġà¤¨à¤µ à¤Ĺ
Ġà¤¨à¤µ à¤Ń
Ġà¤¨à¤µ à¤¸à¤®
Ġà¤¨à¤µ à¤ķà¤²
Ġà¤¨à¤µ à¤ķà¤®
Ġà¤¨à¤µ à¤ħà¤Ń
Ġà¤¨à¤µ à¤¹à¤ľ
Ġà¤Ĩà¤² à¤¸à¤²
Ġà¤Ĩà¤² à¤µà¤ķ
Ġà¤Ĩà¤² à¤µà¤ķà¤ķ
Ġà¤īà¤¡ à¤¨
Ġà¤īà¤¡ à¤¡
Ġà¤īà¤¡ à¤¨à¤ķ
Ġà¤īà¤¡ à¤¯à¤¯à¤¨
à¤ĩà¤¤ à¤ħà¤¨
à¤ķà¤²à¤¨ à¤¹à¤°
à¤ķà¤²à¤¨ à¤ªà¤Ľ
à¤ķà¤²à¤¨ à¤ħà¤¨
Ġà¤Ĩà¤ļ à¤®à¤¨
Ġà¤ľà¤¨à¤¸ à¤ĸ
Ġà¤ľà¤¨à¤¸ à¤ŀ
à¤ĩà¤¸ à¤¤
à¤ĩà¤¸ à¤¸à¤ķ
à¤ĩà¤¸ à¤°à¤²
à¤ĩà¤¸ à¤¤à¤°
à¤ĩà¤¸ à¤Ńà¤¨
à¤ĩà¤¸ à¤°à¤¬
ĠâĢľ âĢĺ
à¤¶à¤¬ à¤ķ
à¤¶à¤¬ à¤®
à¤¶à¤¬ à¤ª
à¤¶à¤¬ à¤£
à¤¥à¤¨ à¤¹à¤°
Ġà¤Ĩà¤ł à¤¸à¤®
Ġà¤Ĩà¤ł à¤µà¤°
Ġà¤Ĩà¤ł à¤ķà¤°
Ġà¤Ĩà¤ł à¤¸à¤¹
Ġà¤Ĩà¤ł à¤ªà¤Łà¤ķ
Ġà¤Ĩà¤ł à¤ªà¤¹à¤°
Ġà¤Ĩà¤ł à¤¹à¤ľ
Ġà¤Ĩà¤ł à¤ĺà¤£
Ġà¤Ĩà¤ł à¤ĵà¤Ł
Ġà¤Ĩà¤ł à¤°à¤¦à¤¶
Ġà¤Ĩà¤ł à¤¦à¤¶à¤ľà¤¨
à¤¯à¤Łà¤ķ à¤¦
à¤¯à¤Łà¤ķ à¤ľà¤¸
Ġà¤¹à¤² à¤Ń
Ġà¤¹à¤² à¤Ĺà¤°
Ġà¤¹à¤² à¤¤à¤°
Ġà¤¹à¤² à¤Ńà¤°
Ġà¤¹à¤² à¤ļà¤²à¤ķ
Ġà¤¹à¤² à¤ļà¤²à¤²
à¤¯à¤£ à¤¸à¤®
à¤¯à¤£ à¤²à¤Ĺ
à¤¯à¤£ à¤®à¤§
Ġà¤ĭ à¤Ĺ
Ġà¤ĭ à¤¶à¤¬
à¤Ĺà¤¬ à¤¤
à¤¨à¤¦ à¤¯
Ġà¤ĸà¤¨ à¤ĸà¤¨
Ġà¤²à¤¡ à¤Ń
Ġà¤ķà¤ķ à¤¸à¤²
à¤Ĺà¤®à¤¨ à¤¸
à¤Ĺà¤®à¤¨ à¤¦
à¤Ĺà¤®à¤¨ à¤Ńà¤¨
à¤Ĺà¤®à¤¨ à¤ľà¤¸
à¤Ĺà¤®à¤¨ à¤ħà¤¨
à¤Ĺà¤®à¤¨ à¤¸à¤¹
à¤Ĺà¤®à¤¨ à¤ªà¤¶
à¤¯à¤¸à¤¬ à¤¬
Ġà¥¨à¥§ à¥«
Ġà¥¨à¥§ à¥¦à¥¦
Ġà¤¦à¤¶ à¤ªà¤²
Ġà¤ľà¤¬ à¤®
Ġà¤®à¤¦ à¤¦
Ġà¤®à¤¦ à¤¹
Ġà¤®à¤¦ à¤¨à¤®
Ġà¤®à¤¦ à¤Ńà¤Ł
Ġà¤®à¤¦ à¤¨à¤®à¤£
à¤£à¤¸ à¤¶
à¤£à¤¸ à¤°à¤¹
à¤£à¤¸ à¤«à¤²à¤¤
à¤£à¤¸ à¤°à¤¸à¤«
Ġà¤Ĺà¤²à¤¤ à¤¬
Ġà¤¨à¤ķ à¤ļ
Ġà¤¨à¤ķ à¤Ĩà¤īà¤Łà¤ķ
Ġà¥§à¥Ń à¥§
Ġà¥§à¥Ń à¥¨
Ġà¥§à¥Ń à¥Ńà¥¬
Ġà¥§à¥Ń à¥«à¥¦
Ġà¥§à¥Ń à¥Ńà¥©
Ġà¥§à¥Ń à¥¨à¥Ń
Ġà¥§à¥Ń à¥¯à¥¦
Ġà¥§à¥Ń à¥¯à¥¬
Ġà¥§à¥Ń à¥©à¥¯
Ġà¥§à¥Ń à¥§à¥¨à¥ª
à¤¸à¤µ à¤ľà¤¸
à¤¸à¤µ à¤ħà¤¨
à¤¸à¤µ à¤¡à¤ı
à¤Ĺà¤¨ à¤ªà¤Ľ
à¤Ĺà¤¨ à¤Ĩà¤¦
à¤ľà¤ª à¤¥
à¤ľà¤ª à¤¡à¤¤
Ġà¤Ńà¤Ī à¤¨
Ġà¤Ńà¤Ī à¤¹
Ġà¤Ńà¤Ī à¤°à¤¹à¤ķ
Ġà¤ķà¤Ł à¤ľ
Ġà¤ķà¤Ł à¤¨à¤²
à¤·à¤¯à¤² à¤Ĺ
Ġà¤°à¤¸ à¤ª
Ġà¤°à¤¸ à¤«
Ġà¤°à¤¸ à¤§à¤°
à¤ĸà¤² à¤¬à¤¨
à¤¶à¤¸ à¤¤
à¤¶à¤¸ à¤°à¤ķ
à¤Ĺà¤łà¤¨ à¤ļ
à¤Ĺà¤łà¤¨ à¤¤à¤°
à¤Ĺà¤łà¤¨ à¤Ńà¤¨
à¥ĩà¤ģ à¤Ĥ
à¥ĩà¤ģ à¥ĩà¥¤
à¥ĩà¤ģ âĢĻ,
à¥ĩà¤ģ âĢĶ
à¤µà¤Ł à¤¯
à¤µà¤Ł à¤¸à¤®
à¤µà¤Ł à¤°à¤¬
à¤µà¤Ł à¤²à¤Ĺ
à¤Ķ à¤°
à¤Ķ à¤²
à¤Ķ à¤ªà¤ļ
à¤Ķ à¤¸à¤¤à¤®
Ġà¥ªà¥¦ à¥§
Ġà¥ªà¥¦ à¥«
Ġà¥ªà¥¦ à¥¨
Ġà¥ªà¥¦ à¥ª
Ġà¥ªà¥¦ à¥©
Ġà¥ªà¥¦ à¥¨à¥©
Ġà¤ķà¤¥ à¤¨à¤ķ
Ġà¤ķà¤¥ à¤¨à¤²
Ġà¤ķà¤¥ à¤¨à¤®
Ġà¤ķà¤¥ à¤¨à¤¬
Ġà¤ħà¤ķ à¤¹
Ġà¤ħà¤ķ à¤£
Ġà¤¦à¤¶à¤ķ à¤°
Ġà¤¦à¤¶à¤ķ à¤¬
Ġà¤¦à¤¶à¤ķ à¤¹à¤°
Ġà¤¦à¤¶à¤ķ à¤Ńà¤°
Ġà¤¦à¤¶à¤ķ à¤ªà¤¹
Ġà¤¦à¤¶à¤ķ à¤Ńà¤°à¤ķ
Ġà¤ĩà¤® à¤ª
Ġà¤ĩà¤® à¤¡
Ġà¤ĩà¤® à¤°à¤²
Ġà¤ľà¤¨à¤ª à¤¥
à¤¸à¤¹à¤° à¤¦
à¤¸à¤¹à¤° à¤Ń
à¤µà¤¶ à¤°
à¤µà¤¶ à¤°à¤£
à¤µà¤¶ à¤¨à¤²
à¤®à¤¹ à¤²à¤®
à¤®à¤¹ à¤Ļà¤Ĺ
Ġà¤«à¤² à¤¹à¤°
Ġà¥¬à¥¦ à¥¬
à¤¤à¤°à¤® à¤¨à¤²
à¥ĭ? ,
à¤ĩà¤¡ à¤µ
à¤ĩà¤¡ à¤¬
à¤ĩà¤¡ à¤°à¤²
à¤ĩà¤¡ à¤°à¤¹à¤°
à¤ĩà¤¡ à¤ľà¤¸
à¤ĩà¤¡ à¤¸à¤¹
à¤ĩà¤¡ à¤¬à¤¡
à¤¹à¤°à¤£ à¤Ľà¤¨
à¤¹à¤°à¤£ à¤¸à¤¹
à¤Ļà¤® à¤¯
à¤Ļà¤® à¤¯à¤ķ
à¤Ļà¤® à¤¯à¤®
à¤Ļà¤® à¤¯à¤²
à¤¸à¤ª à¤Ł
à¤¸à¤ª à¤¶
Ġà¥¨à¥¨ à¥§
Ġà¥¨à¥¨ à¥Ń
Ġà¥¨à¥¨ à¥©
Ġà¥¨à¥¨ à¥¬à¥©
Ġà¥¨à¥¨ à¥¨à¥«
Ġà¥¨à¥¨ à¥®à¥«
Ġà¥¨à¥¨ à¥®à¥©
Ġà¥¨à¥¨ à¥ªà¥¬à¥§
Ġà¤ķà¤¡ à¤ĺà¤°
à¤°à¤¬à¤¹ à¤¨à¤²à¤Ĺ
à¤¿à¤ĥ âĢĻ
à¤ŀà¤ª à¤ª
Ġà¤Ńà¤µà¤¨ à¤¦
Ġà¤Ńà¤µà¤¨ à¤ľ
Ġà¤Ńà¤µà¤¨ à¤ħà¤Ĺ
Ġà¤ķà¤ł à¤¬
Ġà¤ķà¤ł à¤ĺ
Ġà¤¤à¤¨ à¤ĸ
à¤°à¤° à¤ŀ
à¤ķà¤¬ à¤¢
à¤®à¤£ à¤¬
à¤®à¤£ à¤¹à¤°
à¤®à¤£ à¤¬à¤¹
à¤¡à¤¨ à¤ªà¤Ľ
à¤¡à¤¨ à¤Ńà¤¨
Ġà¤µà¤¨ à¤Ŀ
Ġà¤µà¤¨ à¤«à¤¡
Ġà¥¦ à¥«
Ġà¥¦ à¥®
Ġà¥¦ à¥§à¥¦
Ġà¥¦ à¥§à¥¨
Ġà¥¦ à¥¨à¥®
Ġà¥¦ à¥¨à¥Ń
Ġà¥¦ à¥©à¥«
Ġà¥¦ à¥«à¥®
Ġà¥¦ à¥«à¥¯
Ġà¥¦ à¥¯à¥ª
Ġà¥¦ à¥¦à¥ªà¥ª
à¤ĩà¤¯ à¤¨à¤ķ
Ġà¤ķà¤µ à¤°à¤ķ
Ġà¤ķà¤µ à¤°à¤²
Ġà¤ķà¤µ à¤²à¤®
Ġà¤ķà¤µ à¤ľà¤ķ
Ġà¤ķà¤µ à¤ļà¤ķ
Ġà¤ķà¤µ à¤ļà¤¬
à¤°à¤ĸ à¤¹à¤°
à¤°à¤ĸ à¤ªà¤¤
Ġà¤ªà¤¦à¤® à¤ĺ
à¤µà¤Ń à¤°à¤²
Ġà¤¸à¤« à¤¦à¤°à¤Ĺ
à¤ıà¤Ī à¤Ńà¤°
à¤īà¤¦ à¤¸
Ġà¤¨à¤Ńà¤Ī à¤®
Ġà¤¨à¤Ńà¤Ī à¤¸
Ġà¤¨à¤Ńà¤Ī à¤¦
Ġà¤¨à¤Ńà¤Ī à¤¨à¤¹
à¤ªà¤¸ à¤ĸ
à¤ªà¤¸ à¤²à¤ķ
Ġà¤¶à¤¬ à¤ķ
Ġà¤¶à¤¬ à¤¸
Ġà¥¨à¥ª à¥Ń
Ġà¥¨à¥ª à¥¬
Ġà¥¨à¥ª à¥©
Ġà¥¨à¥ª à¥®
Ġà¥¨à¥ª à¥§à¥©
Ġà¥¨à¥ª à¥«à¥¦
Ġà¥¨à¥ª à¥¨à¥ª
Ġà¥¨à¥ª à¥ªà¥¦
Ġà¥¨à¥ª à¥¯à¥¦
Ġà¤ĺà¤¨ à¤ļà¤ķ
Ġà¤¤à¤² à¤µà¤¸
Ġà¤¤à¤² à¤µà¤®
à¤¾) âĢĻà¥¤
à¤§à¤² à¤Ĺà¤¤
à¤¬à¤® à¤¹à¤°
Ġà¤¨à¤¤ à¤¸
à¤«à¤¬ à¤¬
Ġà¤Ĺà¤¨ à¤¤à¤¨
Ġà¤Ĺà¤¨ à¤Ĺà¤¨
à¤²à¤ª à¤¹
à¤®à¤ª à¤¦à¤ķ
Ġà¤¸à¤ª à¤Ń
Ġà¤¸à¤ª à¤¨à¤ķ
Ġà¤¸à¤ª à¤¥à¤¸
Ġà¤¬à¤® à¤ľà¤¸
Ġà¤¬à¤® à¤¬à¤°
à¤²à¤¤à¤ķ à¤°
Ġ: âĢĺ
à¤¬à¤Ī à¤¦
à¤¬à¤Ī à¤µ
à¤¬à¤Ī à¤Ńà¤¨
à¤¬à¤Ī à¤²à¤Ĺ
à¥ĩâĢĵ '
Ġà¤ªà¤¹à¤² à¤Ĺà¤°
Ġà¤ªà¤¹à¤² à¤Ńà¤¨
Ġà¤ªà¤¹à¤² à¤Ńà¤ĩà¤°à¤¹
âĢĶ âĢĺ
à¤¤à¤°à¤¤ à¤°à¤¤
à¤¤à¤°à¤¤ à¤Ĺà¤¤
à¤ļà¤¨à¤ķ à¤µà¤²à¤¯
Ġà¤Ĺà¤² à¤¹à¤¤
Ġà¤Ĺà¤² à¤¶à¤¨à¤ķ
à¥¨à¥¦ à¥«
à¥¨à¥¦ à¥Ń
à¥¨à¥¦ à¥§à¥¦
à¥¨à¥¦ à¥¨à¥«
à¥¨à¥¦ à¥«à¥¬
à¥¨à¥¦ à¥¨à¥¬
à¥¨à¥¦ à¥«à¥Ń
à¥¨à¥¦ à¥«à¥§
à¥¨à¥¦ à¥Ńà¥§
à¥¨à¥¦ à¥ªà¥¬
à¥¨à¥¦ à¥ªà¥®
à¥¨à¥¦ à¥¬à¥«
à¥¨à¥¦ à¥¬à¥§
à¥¨à¥¦ à¥¬à¥Ń
à¥¨à¥¦ à¥¬à¥¬
à¥Ģà¤ģ âĢĵ
à¥Ģà¤ģ Ã·
Ġà¤ªà¤² à¤¶
Ġà¤ªà¤² à¤¹à¤°
Ġà¤ªà¤² à¤«
Ġà¤ªà¤² à¤Ļ
Ġà¤ªà¤² à¤ªà¤²
à¥Įà¤Ĥ, âĢĿ
Ġà¤Ĩà¤ľà¤ķ à¤²à¤ķ
à¤¡à¤¬ à¤ķ
à¤¡à¤¬ à¤²à¤²
Ġà¤ħà¤ªà¤¨ à¤¤à¤¤
à¥ĩà¤Ĥ '
à¥ĩà¤Ĥ -
à¥ĩà¤Ĥ âĢĻ
à¥ĩà¤Ĥ à¥¤'
à¤¯à¤°à¤¤ à¤°à¤¹
Ġà¤īà¤Ń à¤¯à¤²
Ġà¥¨à¥® à¥§
Ġà¥¨à¥® à¥Ń
Ġà¥¨à¥® à¥©
Ġà¥¨à¥® à¥ªà¥¯
à¤ªà¤Ł à¤¹à¤°
à¤ªà¤Ł à¤²à¤Ĺ
à¤Łà¤°à¤® à¤§
à¤¯à¤Ł à¤¹à¤°
à¤ĩà¤ª à¤¶
à¤ĩà¤ª à¤ĸ
à¤ĩà¤ª à¤¡à¤ķ
Ġà¥¨à¥© à¥§
Ġà¥¨à¥© à¥®
Ġà¥¨à¥© à¥®à¥Ń
à¤Łà¤¬à¤² à¤Ń
à¤Łà¤¬à¤² à¤°à¤ķ
à¤Łà¤¬à¤² à¤Ńà¤¨
Ġà¤Ĩà¤ı à¤¤
Ġà¤Ĩà¤ı à¤ª
Ġà¤Ĩà¤ı à¤¦
Ġà¤Ĩà¤ı à¤¬
Ġà¤Ĩà¤ı à¤¥
Ġà¤Ĩà¤ı à¤¸à¤®
Ġà¤Ĩà¤ı à¤¯à¤¤
Ġà¤Ĩà¤ı à¤Ŀ
à¤·à¤° à¤Ńà¤¨
à¤¥à¤²à¤® à¤¯
à¤¥à¤²à¤® à¤§
à¤¡à¤¸ à¤¸à¤®
à¤¡à¤¸ à¤°à¤²
à¤¡à¤¸ à¤µà¤°
Ġà¤ľà¤² à¤ľ
Ġà¤ľà¤² à¤§
Ġà¤ľà¤² à¤ªà¤°
Ġà¤ľà¤² à¤ªà¤®
Ġà¤ľà¤² à¤¶à¤ķ
Ġà¤ľà¤² à¤¸à¤¨
Ġà¤ľà¤² à¤ľà¤®
Ġà¤ľà¤² à¤īà¤¤
Ġà¤ľà¤² à¤ļà¤°à¤®
Ġà¤ľà¤² à¤Ńà¤£
Ġà¤¦à¤²à¤² à¤Ĺ
à¥ĭà¥¤âĢĻ âĢĺ
Ġà¤ĭà¤£ à¤¦
Ġà¤ĭà¤£ à¤§à¤¨
à¤·à¤¸à¤® à¤ķ
Ġà¥¨à¥Ń à¥§
Ġà¥¨à¥Ń à¥¨
Ġà¥¨à¥Ń à¥ª
Ġà¥¨à¥Ń à¥©
Ġà¥¨à¥Ń à¥®
Ġà¥¨à¥Ń à¥¯
Ġà¥¨à¥Ń à¥§à¥®
Ġà¥¨à¥Ń à¥¦à¥Ń
Ġà¥¨à¥Ń à¥¨à¥¬
Ġà¥¨à¥Ń à¥©à¥©
Ġà¤ħà¤ľ à¤¬
Ġà¤ħà¤ľ à¤¯à¤ķ
Ġà¤ħà¤ľ à¤¯à¤°
Ġà¥¨à¥¬ à¥¦
Ġà¥¨à¥¬ à¥Ń
Ġà¥¨à¥¬ à¥¨
Ġà¥¨à¥¬ à¥¬
Ġà¥¨à¥¬ à¥©
Ġà¥¨à¥¬ à¥ªà¥¬
Ġà¤Ī à¤ª
Ġà¤Ī à¤µ
Ġà¤Ī à¤¬
Ġà¤Ī à¤£
Ġà¤Ī à¤¨à¤²
Ġà¤Ī à¤Ļ
Ġà¤Ī à¤ŀ
Ġà¤Ī à¤µà¤¨
Ġà¤Ī à¤¦à¤®
Ġà¤Ī à¤ıà¤®
à¤¤à¤¸ à¤°à¤®
à¤¤à¤¸ à¤°à¤¸
à¤¤à¤¸ à¤¶à¤ķ
Ġà¥Ńà¥¦ à¥§
Ġà¥Ńà¥¦ à¥«
Ġà¤ĸà¤Ł à¤ľ
Ġà¤ĸà¤Ł à¤ªà¤Łà¤ķ
Ġà¤ıà¤² à¤Ĺà¤°
Ġà¤ıà¤² à¤ĩà¤µ
Ġà¤ıà¤² à¤ıà¤²à¤¸
Ġà¤ıà¤² à¤ıà¤²à¤¬
Ġà¤ıà¤² à¤ıà¤®à¤ª
Ġà¤ıà¤² à¤ĩà¤ĩà¤ª
Ġà¤ıà¤² à¤ıà¤²à¤ıà¤®
Ġà¤¬à¤¹à¤¸ à¤Ĺà¤°
Ġà¤¬à¤Ĺ à¤°à¤²
Ġà¤¬à¤Ĺ à¤Īà¤ķ
Ġà¤¨à¤Ĩ à¤ıà¤°
Ġà¤¨à¤Ĩ à¤Ĭà¤¨
Ġà¤¨à¤Ĩ à¤ĩà¤ķà¤¨
Ġà¤¦à¤® à¤ľà¤¸
Ġà¤¦à¤® à¤ķà¤²à¤¬
à¤ĸà¤¨ à¤ľ
à¤ĸà¤¨ à¤¶
à¤ĸà¤¨ à¤¶à¤ķ
à¤¤à¤¹ à¤°à¤ķ
à¤¤à¤¹ à¤Łà¤¤
Ġà¤Ńà¤ķ à¤Ńà¤ķ
à¤Ńà¤² à¤¦
à¤Ńà¤² à¤ªà¤°
à¤Ńà¤² à¤Ńà¤¨
à¤Ńà¤² à¤µà¤®
à¤Ńà¤² à¤ªà¤°à¤²
à¤Ńà¤² à¤ªà¤°à¤µ
Ġà¤¨à¤Ńà¤ı à¤¤
à¥ĭâĢĵ âĢĺ
Ġà¤¹à¤µ à¤¸à¤®
Ġà¤ªà¤¦à¤ķ à¤µ
à¤¥à¤° à¤¸à¤ķ
à¤¥à¤° à¤ĺà¤Ł
à¤¤à¤¨à¤ķ à¤²
Ġà¤¹à¤ķ à¤µ
Ġà¤¹à¤ķ à¤Ń
à¥Įà¤ģ, '
Ġà¥¨à¥¯ à¥Ń
Ġà¥¨à¥¯ à¥ª
Ġà¥¨à¥¯ à¥¯
à¤Ĭ à¤ķ
à¤Ĭ à¤¸
à¤ļà¤¸ à¤¯à¤Ńà¤¨
à¤ĸà¤¦ à¤¹
Ġà¥©à¥« à¥Ń
Ġà¥©à¥« à¥¨
Ġà¥©à¥« à¥ª
Ġà¥©à¥« à¥®
Ġà¥©à¥« à¥¯
Ġà¥®à¥¦ à¥§
Ġà¥®à¥¦ à¥Ń
Ġà¥®à¥¦ à¥¨à¥«
Ġà¤°à¤¨à¤ķ à¤ķ
à¤¹à¤¸ à¤ľà¤¸
Ġà¤¨à¤Ĺà¤¦ à¤¬
à¤²à¤¦ à¤Ļ
Ġà¥©à¥© à¥Ń
Ġà¥©à¥© à¥§à¥¦à¥¦
Ġà¤łà¤¹à¤° à¤¸à¤¹
Ġ- -
Ġ- âĢĺ
Ġà¤īà¤¸ à¤¸à¤®
Ġà¤īà¤¸ à¤īà¤¸à¤²
à¤Łà¤¸ à¤¸à¤®
à¤Łà¤¸ à¤Ńà¤¨
âĢľ âĢĵ
à¤ķà¤µ à¤ļà¤ķ
à¤ªà¤¬ à¤¤
Ġà¤¦à¤¸ à¤ľà¤¨
Ġà¤¦à¤¸ à¤¥à¤°
à¤ĩà¤Ń à¤¸
à¤ĩà¤Ń à¤Ł
Ġ! )
Ġ! ?
Ġ! âĢĿ
Ġ! âĢĺ
Ġà¤¸à¤Ļ à¤ķà¤²à¤¨
à¤§à¤µ à¤¹à¤°
à¤§à¤µ à¤ļà¤¨à¤¹à¤°
à¤°à¤« à¤°
à¤°à¤« à¤®
Ġà¤ľà¤¡ à¤¤
Ġà¤ļà¤¯à¤¨ à¤¤
Ġà¤ļà¤¯à¤¨ à¤ª
Ġà¤ļà¤¯à¤¨ à¤¸à¤®
Ġà¤ĵà¤Ń à¤°à¤¹
Ġà¤ľà¤¸à¤® à¤¨
à¤«à¤° à¤¨à¤²
à¤²à¤Ń à¤¤
à¤²à¤Ń à¤¸
à¤²à¤Ń à¤ı
à¤²à¤Ń à¤Ń
à¤²à¤Ń à¤®à¤§
Ġà¤®à¤¨à¤® à¤¨à¤®
à¤µà¤¯à¤¨à¤ķ à¤°
à¤·à¤Ń à¤¤
à¤·à¤Ń à¤°à¤®
à¤¶à¤µ à¤ľ
à¤¶à¤µ à¤¬
à¤ıà¤« à¤¥
à¤ıà¤« à¤ĵ
à¤ıà¤« à¤¸à¤¹
à¤ıà¤« à¤ıà¤®
à¤ıà¤« à¤Ĩà¤Ī
à¤ıà¤« à¤ĵà¤²
à¤ıà¤« à¤ıà¤Ł
à¤ıà¤« à¤ıà¤«à¤ı
à¤ıà¤« à¤ĵà¤Ĩà¤°
à¤ıà¤« à¤ıà¤¨à¤ıà¤¸
à¤ıà¤« à¤«à¤°à¤ıà¤«
Ġà¤Ĩà¤Ī à¤®
Ġà¤Ĩà¤Ī à¤ľ
Ġà¤Ĩà¤Ī à¤¬
Ġà¤Ĩà¤Ī à¤ıà¤ķ
Ġà¤Ĩà¤Ī à¤«
Ġà¤Ĩà¤Ī à¤ªà¤°
Ġà¤Ĩà¤Ī à¤¨à¤¨
Ġà¤Ĩà¤Ī à¤¤à¤®
Ġà¤Ĩà¤Ī à¤«à¤²
Ġà¤Ĩà¤Ī à¤°à¤¨
Ġà¤Ĩà¤Ī à¤ĵà¤µ
Ġà¤Ĩà¤Ī à¤ıà¤¸
Ġà¤Ĩà¤Ī à¤¡à¤²
Ġà¤Ĩà¤Ī à¤ıà¤®
Ġà¤Ĩà¤Ī à¤¨à¤¸à¤ķ
Ġà¤Ĩà¤Ī à¤ĵà¤ıà¤¸à¤ķ
Ġà¤īà¤ªà¤° à¤°
Ġà¤īà¤ªà¤° à¤ľ
Ġà¤īà¤ªà¤° à¤ĸ
Ġà¤ķà¤¦à¤® à¤¸
Ġà¤ķà¤¦à¤® à¤ħà¤ĺ
à¥ĭâĢĻ âĢĻ
à¤²à¤¨à¤² à¤Ĺà¤¤
à¤®à¤°à¤£ à¤¬
à¤®à¤°à¤£ à¤¹à¤°
à¤®à¤°à¤£ à¤¸à¤®
à¤¸à¤¤ à¤¤à¤°
Ġà¤ħà¤¸à¤® à¤¨
Ġà¤ħà¤¸à¤® à¤®
Ġà¤ħà¤¸à¤® à¤¯à¤ķ
Ġà¤ħà¤¸à¤® à¤ŀ
Ġà¤ħà¤¸à¤® à¤¨à¤¤
Ġà¤¬à¤ķ à¤ªà¤¤
Ġà¥©à¥§ à¥©à¥®
Ġà¥©à¥§ à¥®à¥Ń
Ġà¥Ńà¥« à¥Ń
Ġà¥Ńà¥« à¥¨
Ġà¥Ńà¥« à¥¬
Ġà¥Ńà¥« à¥¨à¥ª
Ġà¥Ńà¥« à¥¦à¥¬
Ġà¤ľà¤¨à¤ľ à¤£à¤¨
à¤¶à¤ķà¤² à¤²
à¤¶à¤ķà¤² à¤Ĺ
à¤°à¤¥ à¤ľ
à¤°à¤¥ à¤¨à¤®
à¤°à¤¥ à¤®à¤ķ
à¤¶à¤¨à¤² à¤¸
à¤¶à¤¨à¤² à¤ª
à¥Įà¤Ĥà¥¤âĢĻ âĢĻ
à¥Įà¤Ĥà¥¤âĢĻ âĢĺ
à¤¿? '
à¤ªà¤ª à¤²à¤ķ
à¤ªà¤ª à¤²à¤Ĺ
Ġà¤Ńà¤Ĺ à¤¡
Ġà¤Ńà¤Ĺ à¤µà¤°
Ġà¤¡à¤° à¤Ľ
Ġà¤¡à¤° à¤Ńà¤¨
à¤µà¤¨à¤® à¤°à¤£à¤ķ
à¥ĩ? ,âĢĻ
Ġà¤²à¤² à¤¶
Ġà¤ħà¤¶ à¤°à¤«
Ġà¤¢à¤² à¤ªà¤²
à¤°à¤¥à¤® à¤ĸà¤£
Ġà¤ľà¤¨à¤® à¤¨à¤ķ
Ġà¤ľà¤¨à¤® à¤ŀ
Ġà¥ªà¥« à¥©
Ġà¥ªà¥« à¥®
Ġà¥ªà¥« à¥«à¥¬
Ġà¤Ĩà¤ĩà¤¸ à¤¬à¤°
Ġà¤Ĩà¤ĩà¤¸ à¤«à¤²à¤®
Ġà¥¯à¥¦ à¥«
Ġà¤Ĩà¤¸ à¤¯à¤ķ
à¤·à¤ľ à¤¸à¤°
à¤ļà¤¯ à¤Ń
à¤ļà¤¯ à¤¨à¤ķ
à¤ĩà¤ķà¤² à¤¯
à¤ĩà¤ķà¤² à¤ª
à¤ĩà¤ķà¤² à¤¬
à¤ĩà¤ķà¤² à¤¸à¤®
à¤ĩà¤ķà¤² à¤¸à¤¹
Ġà¤Ĺà¤ı à¤¤
Ġà¤Ĺà¤ı à¤¬
Ġà¤Ĺà¤ı à¤Ľ
Ġà¤Ĺà¤ı à¤°à¤®
Ġà¤Ĺà¤ı à¤īà¤¨
Ġà¤Ĺà¤ı à¤¯à¤¤
Ġà¤Ĺà¤ı à¤Ľà¤¨
Ġà¤Ĺà¤ı à¤ľà¤¸
à¤°à¤Ĺ à¤°à¤²
à¤°à¤Ĺ à¤¤à¤°
à¤Ńà¤Ĺ à¤µà¤¤
à¤Ĺà¤¸ à¤Ĺ
Ġà¤¯à¤¸à¤ªà¤Łà¤ķ à¤¦
Ġà¤¯à¤¸à¤ªà¤Łà¤ķ à¤¬
ĠĠĠĠĠĠĠĠ ĠĊ
ĠĠĠĠĠĠĠĠ ĠĠĠĊ
ĠĠĠĠĠĠĠĠ ĠĠĠĠĠĠčĊ
ĠĠĠĠĠĠĠĠ ĠĠĠĠĠĠĠĊ
à¤µà¤¹ à¤¨à¤ķ
à¤¶à¤Ń à¤ķà¤¤
à¤¨à¤¥ à¤ª
à¤ªà¤¹ à¤ªà¤ķ
à¤Ĺà¤ľ à¤ľà¤¨
à¤¾à¥Īà¤Ĥ /
à¤¾à¥Īà¤Ĥ à¥¤'
à¤¯à¤°à¤² à¤Ĺ
à¤ĩà¤« à¤®
à¤ĩà¤« à¤²à¤®
à¤ĩà¤« à¤¸à¤²
à¤ĩà¤« à¤¡à¤ķ
à¤ĩà¤« à¤¸à¤¬
Ġà¤ĵà¤Ńà¤°à¤® à¤§
à¤ķà¤¹ à¤°à¤ķ
à¤ķà¤¹ à¤¡à¤¤
Ġà¥©à¥¨ à¥Ń
Ġà¥©à¥¨ à¥¨
Ġà¥©à¥¨ à¥ª
Ġà¥©à¥¨ à¥©
Ġà¥©à¥¨ à¥¯
à¤¹à¤£ à¤¦
à¤¹à¤£ à¤¹à¤°
à¤¹à¤£ à¤ħà¤ĺ
à¤¹à¤£ à¤¸à¤¹
à¤¹à¤£ à¤¦à¤²à¤ķ
à¤ĩà¤¬ à¤°à¤¦
à¤Łà¤¨à¤Ĺà¤° à¤¸à¤®
à¤¨à¤Ń à¤¸
à¤¨à¤Ń à¤£
à¤¨à¤Ń à¤Ī
à¤¨à¤Ń à¤°à¤®
à¤¨à¤Ń à¤ĩà¤¸à¤ķ
Ġà¤ķà¤®à¤² à¤ľà¤¸
à¤°à¤¹à¤£ à¤ª
à¤°à¤¹à¤£ à¤Ĺ
à¤°à¤¹à¤£ à¤ľà¤¸
à¤°à¤¹à¤£ à¤¸à¤¹
à¤Ĩà¤Ī à¤ĵà¤ıà¤¸
à¤Ĩà¤Ī à¤Ĩà¤°à¤ıà¤«
à¤Ĩà¤Ī à¤ıà¤¸à¤Ł
Ġà¤Ĺà¤ĩà¤°à¤¹ à¤¦
à¤ħà¤ª à¤ªà¤Ľ
à¤ħà¤ª à¤¸à¤¹
à¤ħà¤ª à¤¹à¤°à¤£
à¤ħà¤ª à¤¹à¤°à¤£à¤®
à¤¨à¤¹ à¤Ł
Ġà¤ĸà¤¬à¤° à¤ļ
Ġà¤ľà¤¨à¤Ĩ à¤¦
Ġà¤ıà¤« à¤ıà¤«
Ġà¤ıà¤« à¤ıà¤Ł
Ġà¤ıà¤« à¤ıà¤ľ
Ġà¤ıà¤« à¤ıà¤¨à¤¸
Ġà¤ıà¤« à¤ıà¤ļà¤¡
Ġà¤ļà¤°à¤® à¤µ
Ġà¤ĩà¤ľ à¤ľ
à¤ıà¤¨à¤ı à¤¦
à¤ıà¤¨à¤ı à¤¸à¤®
à¤ıà¤¨à¤ı à¤¨à¤¸
à¤ıà¤¨à¤ı à¤®à¤§
à¤ıà¤¨à¤ı à¤ļà¤ıà¤¸à¤ª
à¤®à¤¯ à¤¦à¤°
à¤ªà¤ķà¤®à¤² à¤¦
à¤ªà¤ķà¤®à¤² à¤¹à¤°
à¤®à¤¹à¤° à¤°
à¤¬à¤ľ à¤²à¤²
Ġà¥©à¥¬ à¥¦à¥¦
Ġà¥©à¥¬ à¥¬à¥«
à¤ĸà¤¨à¤¨ à¤¬
à¤ĸà¤¨à¤¨ à¤¸à¤®
Ġà¥«à¥« à¥§
Ġà¥«à¥« à¥¬
Ġà¥«à¥« à¥¬à¥§
à¤·à¤ķà¤ķ à¤ķ
Ġà¤¤à¤²à¤¬ à¤®
Ġà¤¤à¤²à¤¬ à¤ľ
Ġà¤¤à¤²à¤¬ à¤¬
Ġà¤¤à¤²à¤¬ à¤¸à¤®
Ġà¤¤à¤²à¤¬ à¤Ńà¤¨
Ġà¤¤à¤²à¤¬ à¤¸à¤°à¤¹à¤ķ
à¤Īà¤® à¤Ŀ
à¥į? '
à¥į? âĢĻ
à¥į? âĢĿ
Ġà¤ıà¤¡ à¤°à¤²
Ġà¤ıà¤¡ à¤µà¤°
Ġà¤ıà¤¡ à¤®à¤²
Ġà¤ıà¤¡ à¤ľà¤®
Ġà¤ıà¤¡ à¤°à¤¸à¤¨
Ġà¤ļà¤²à¤¨ à¤µ
Ġà¤ļà¤²à¤¨ à¤¸à¤®
à¤Ĥ. ,
à¤Ĥ. à¥¤)
Ġà¥ªà¥¨ à¥¨
Ġà¥ªà¥¨ à¥¨à¥¯
Ġà¥ªà¥¨ à¥©à¥ªà¥«
Ġà¥¬à¥« à¥©
Ġà¤Ĩà¤ªà¤¤ à¤µ
Ġà¤¸à¤°à¤² à¤ªà¤¨
Ġà¤ħà¤µà¤¶ à¤°à¤ķ
à¤¨à¤¤à¤® à¤®
Ġà¤ķà¤« à¤¨
à¤¾? '
à¤¾? )
à¤¤à¤µà¤¨ à¤¸
à¤¤à¤µà¤¨ à¤ªà¤Ľ
Ġà¤¶à¤µ à¤¹à¤°
Ġà¤®à¤¦à¤¨ à¤ļ
Ġà¤®à¤¦à¤¨ à¤¬à¤¨
Ġà¤®à¤¦à¤¨ à¤¬à¤¹
Ġà¤®à¤¦à¤¨ à¤Ĩà¤¶
Ġà¤®à¤¹ÅĴ à¤µà¤¸
Ġà¤®à¤¹ÅĴ à¤µà¤²
Ġà¤®à¤¹ÅĴ à¤µà¤®
Ġà¤®à¤¹ÅĴ à¤µà¤¬
Ġà¤®à¤¹ÅĴ à¤µà¤¹
Ġà¤ıà¤¨à¤Ĩà¤°à¤ıà¤¨à¤ı à¤ľà¤¸
Ġà¤ıà¤¨à¤Ĩà¤°à¤ıà¤¨à¤ı à¤Ĩà¤ĩà¤¸
à¤¤à¤ļ à¤°à¤¦
à¤¯à¤¶ à¤¨à¤¸
Ġà¤°à¤Ĺà¤¤ à¤¸
Ġà¤°à¤Ĺà¤¤ à¤ª
Ġà¤°à¤Ĺà¤¤ à¤ľ
Ġà¤°à¤Ĺà¤¤ à¤¸à¤¹
Ġà¤°à¤Ĺà¤¤ à¤ªà¤ļ
à¤ĺà¤¨ à¤¶
à¤ĺà¤¨ à¤«
Ġà¤Ĩà¤®à¤¨ à¤°à¤¸
à¤¯à¤¯à¤¨à¤² à¤Ĺ
Ġà¤¸à¤²à¤® à¤ª
Ġà¤¡à¤² à¤°à¤¦
Ġà¤¡à¤² à¤°à¤ľ
Ġà¤¡à¤² à¤°à¤®à¤§
à¤·à¤ķà¤² à¤Ĺ
Ġà¤¨à¤¸ à¤ªà¤Ľ
Ġà¤¬à¤¡ à¤ª
Ġà¤¬à¤¡ à¤µà¤°
Ġà¤¬à¤¡ à¤ĺà¤°à¤¹à¤°
à¤īà¤ª à¤¨à¤®
à¤īà¤ª à¤ľà¤ķ
à¤īà¤ª à¤¸à¤ļ
Ġà¤īà¤ªà¤ª à¤²à¤¬
à¥ĩ) âĢĵ
à¥ĩ) âĢĿ
à¤¨à¤¸à¤° à¤ľà¤¨
à¤¨à¤¸à¤° à¤¸à¤®
à¤®à¤¶ à¤Ļ
à¤®à¤¶ à¤°à¤£à¤ķ
à¤¥à¤Ĺ à¤¨à¤¸
à¤ħà¤¬ à¤ļ
Ġà¥¦à¥Ń à¥¯
Ġà¥¦à¥Ń à¥«à¥¬
Ġà¤¥à¤° à¤ľà¤¸
à¤¿à¥¤ (
à¤¿à¥¤ à¥¤à¥¤
Ġà¤ªà¤¸à¤² à¤¸
Ġà¤ªà¤¸à¤² à¤¸à¤®
Ġà¤ªà¤¸à¤² à¤Ŀ
à¤¥à¤²à¤ķ à¤®
Ġà¥«à¥§ à¥¦
Ġà¥«à¥§ à¥Ń
Ġà¥«à¥§ à¥®
Ġà¥«à¥§ à¥§à¥¯
... ,
... ?
... à¥¤
... à¥¤âĢĻ
à¤Łà¤ĺ à¤ķà¤°
à¥¦à¥¦ à¥«
à¤¦à¤¬ à¤¢
à¤¦à¤¬ à¤ļà¤¨
Ġà¤ªà¤Ł à¤ªà¤Łà¤ķ
Ġà¤Ĺà¤ľ à¤ªà¤¤
Ġà¤Ĺà¤ľ à¤¬à¤²
Ġà¤ļà¤°à¤£ à¤¤
Ġà¤ļà¤°à¤£ à¤µà¤¦
Ġà¤ļà¤°à¤£ à¤Ĺà¤¤à¤°
Ġà¤ıà¤¨à¤Ĩà¤°à¤ı à¤ıà¤ķ
Ġà¤Ĩà¤īà¤Ł à¤¬
Ġà¤Ĩà¤īà¤Ł à¤«
Ġà¤Ĩà¤īà¤Ł à¤ķà¤®à¤²
à¤ĩà¤¹ à¤ª
Ġà¤¤à¤¬ à¤°à¤²
à¤Ļà¤Ł à¤¨à¤²
à¤ħà¤® à¤°à¤ª
à¤¤à¤¦ à¤¶à¤ķ
à¤°à¤¸à¤¹ à¤ľ
Ġà¥©à¥Ń à¥¦
Ġà¥©à¥Ń à¥§
Ġà¥©à¥Ń à¥¬
Ġà¥©à¥Ń à¥ª
Ġà¥«à¥¨ à¥Ń
Ġà¥«à¥¨ à¥©
à¤łà¤ķà¤ķ à¤ķ
à¤łà¤ķà¤ķ à¤¹
Ġà¤¡à¤Ł à¤ľ
Ġà¤ĵà¤ª à¤¨à¤²
à¤Łà¤µà¤° à¤ªà¤°
Ġà¥ªà¥© à¥«à¥¦
Ġà¥ªà¥© à¥«à¥¯
Ġà¥©à¥ª à¥§
Ġà¥©à¥ª à¥®
à¤¾à¥ĩà¥¤ '
à¤¾à¥ĩà¥¤ à¥¤
à¤¤à¤ľ à¤Ĺà¤¤
à¥§à¥¦ à¥Ń
à¥Ģà¥¤ âĢĺ
à¥įâĢĻ (
Ġà¤¨à¤ĸ à¤¸
à¤ľà¤¯à¤ķ à¤¹
à¥ģâĢĻ âĢĵ
Ġà¤ħà¤²à¤® à¤¤
Ġà¤ħà¤²à¤® à¤²à¤¬
Ġà¤ħà¤²à¤® à¤²à¤¹à¤°
à¥§à¥§ à¥ª
à¥§à¥§ à¥¯
à¥§à¥§ à¥¬à¥©
Ġà¤ªà¤ļ à¤ª
Ġà¤ªà¤ļ à¤Ń
Ġà¤ªà¤ļ à¤ªà¤¨
Ġà¤¨à¤Ł à¤ĸà¤Łà¤ķ
Ġà¤¨à¤Ł à¤Ĩà¤Ł
à¤ªà¤¨à¤® à¤§
à¤Ĺà¤£ à¤¦
à¤Ĺà¤£ à¤¹à¤°
à¤¡à¤µ à¤¯à¤°
à¤¦à¤¯ à¤Ĺà¤¤
Ġà¤Ńà¤ĩà¤¨ à¤°à¤¹à¤¨
à¤¤à¤ķà¤® à¤§
Ġà¤¹à¤® à¤¦à¤°
à¤ĩà¤ı à¤¸à¤ķ
à¤ĩà¤ı à¤¸à¤®
à¤ĩà¤ı à¤°à¤¸
Ġà¥©à¥® à¥¦
Ġà¥©à¥® à¥Ń
Ġà¥©à¥® à¥¬
Ġà¥©à¥® à¥ª
Ġà¥©à¥® à¥©
Ġà¥©à¥® à¥ªà¥«
à¤Łà¤¬à¤²à¤ķ à¤°
à¤°à¤ļà¤²à¤¨ à¤¬
à¤°à¤ļà¤²à¤¨ à¤¹à¤°
à¤°à¤ļà¤²à¤¨ à¤¸à¤®
Ġà¤¨à¤¨ à¤«
Ġà¤¬à¤Ł à¤®à¤ķ
Ġà¤¬à¤Ł à¤®à¤²
Ġà¤ıà¤¶ à¤ľà¤ķ
Ġà¤ıà¤¶ à¤¸à¤¨à¤ľ
à¤¯à¤¸à¤¹ à¤Ń
Ġà¥©à¥¯ à¥¨
Ġà¥©à¥¯ à¥ª
Ġà¥©à¥¯ à¥§à¥®
Ġà¥©à¥¯ à¥¦à¥¬
à¤ĩà¤²à¤® à¤®
Ġà¤°à¤ľ à¤¤à¤®
à¤ıà¤ļ à¤Ł
à¤ıà¤ļ à¤ľ
à¤ıà¤ļ à¤ıà¤®
à¤ıà¤ļ à¤ıà¤²à¤¸
à¤ıà¤ļ à¤ıà¤¸à¤²
à¤ıà¤ļ à¤ıà¤®à¤®
à¤ıà¤ļ à¤Ĩà¤ĩà¤Ń
à¤ıà¤ļ à¤Ĩà¤Īà¤ı
Ġà¤ľà¤¥ à¤Ń
à¤°à¤Ļ à¤¸
à¤°à¤Ļ à¤Ĺà¤¤
Ġà¤¶à¤¹à¤° à¤²
Ġà¤¶à¤¹à¤° à¤¤
Ġà¤¶à¤¹à¤° à¤¸
Ġà¤¶à¤¹à¤° à¤µ
Ġà¤¶à¤¹à¤° à¤Ĺ
Ġà¤¶à¤¹à¤° à¤Ń
Ġà¤¶à¤¹à¤° à¤¸à¤®
à¥§à¥« à¥¦
à¤¤à¤¸à¤® à¤¸
à¤¤à¤¸à¤® à¤¯à¤Ńà¤¨
à¤Ĩà¤® à¤ľà¤¨à¤¤
,' à¥¤
à¤§à¤ª à¤ł
à¤ĩà¤µ à¤²à¤ķ
à¤ķà¤¡ à¤ħ
à¤ķà¤¡ à¤®à¤®
à¤¯à¤ľ à¤Ĩà¤¦
à¥¨à¥« à¥©
à¤°à¤ľà¤¨ à¤¬
à¤°à¤ľà¤¨ à¤¨à¤¸à¤®
à¤¯à¤Łà¤ķà¤² à¤Ĺ
Ġà¤· à¤Ł
à¤ĩà¤¨à¤ķ à¤°à¤ª
Ġà¤¯à¤¸à¤ª à¤ĺ
Ġà¤ħà¤°à¤¬ à¤¬
à¤¯à¤Ń à¤µà¤¨
à¤¯à¤Ń à¤ĩà¤°à¤¹
Ġà¤Ńà¤ıà¤¸ à¤Ĺ
Ġà¥«à¥¬ à¥¨
à¤ķà¤Łà¤ķ à¤°
Ġà¤īà¤ªà¤ķà¤°à¤£ à¤Ńà¤¨
Ġà¤īà¤ªà¤ķà¤°à¤£ à¤²à¤Ĺ
à¤ıà¤¨à¤Ĩà¤° à¤ıà¤¨à¤®
Ġà¥¬à¥ª à¥Ń
Ġà¥¬à¥ª à¥ª
Ġà¥¬à¥ª à¥®à¥®
à¤¨à¤¡ à¤Ł
Ġà¤¨à¤Ĺ à¤ĩà¤¸à¤ķ
Ġà¤¨à¤Ĺ à¤¦à¤²
Ġà¤¨à¤Ĺ à¤ĩà¤ķà¤¨
Ġà¥«à¥© à¥¦
Ġà¥«à¥© à¥«
Ġà¥«à¥© à¥ª
Ġà¥«à¥© à¥®
Ġà¥«à¥© à¥¯
Ġà¥«à¥© à¥®à¥ª
à¤¨à¤¯à¤¨ à¤ª
à¤¨à¤¯à¤¨ à¤¦
à¤¨à¤¯à¤¨ à¤¬
à¤¨à¤¯à¤¨ à¤¹à¤°
à¤¨à¤¯à¤¨ à¤ªà¤¤
à¤¨à¤¯à¤¨ à¤Ńà¤¨
à¤¨à¤¯à¤¨ à¤ħà¤¨
à¤Łà¤µà¤² à¤¦
à¥Ĥà¤ģ âĢĵ
à¥Ĥà¤ģ âĢĿ
à¤Ļà¤¸ à¤Ł
à¤Īà¤¤ à¤¹à¤ķ
à¤Ńà¤ªà¤¤ à¤¨à¤¸à¤®
à¤ĩà¤°à¤¸ à¤ľà¤¨
à¤ĩà¤°à¤¸ à¤¸à¤®
à¤ĩà¤°à¤¸ à¤²à¤Ĺ
Ġà¤ĩà¤Ł à¤²à¤Ĺ
à¤µà¤¨à¤² à¤Ĺ
à¤°à¤®à¤¬ à¤§
Ġà¥«à¥ª à¥¦
Ġà¥«à¥ª à¥¬
Ġà¥«à¥ª à¥®
Ġà¥¬à¥© à¥«
Ġà¥¬à¥© à¥¬
Ġà¥¬à¥© à¥¯à¥¨à¥ª
Ġà¥ªà¥§ à¥Ń
Ġà¥ªà¥§ à¥¨
Ġà¥ªà¥§ à¥¬
Ġà¥ªà¥§ à¥©
à¤¸à¤°à¤® à¤¯
Ġà¤¬à¤§ à¤¶
Ġà¤ĵà¤Ŀ à¤ª
Ġà¥¬à¥Ń à¥¦
Ġà¥¬à¥Ń à¥«
Ġà¥¬à¥Ń à¥Ń
Ġà¥¬à¥Ń à¥«à¥¦
Ġà¥¬à¥Ń à¥«à¥¯
Ġà¥ªà¥Ń à¥«
Ġà¥ªà¥Ń à¥¬
Ġà¥ªà¥Ń à¥Ńà¥¨
Ġà¥ªà¥Ń à¥¦à¥©
Ġà¥ªà¥® à¥¦
Ġà¥ªà¥® à¥«
Ġà¥ªà¥® à¥ª
à¤ªà¤¸à¤® à¤¯à¤ķ
Ġà¤¹à¤Ļà¤ķ à¤Ļà¤²
Ġà¤¹à¤Ļà¤ķ à¤Ļà¤¸
Ġà¤¥à¤² à¤Ļà¤²
Ġà¥®à¥¨ à¥Ń
Ġà¥®à¥¨ à¥¯
Ġà¥®à¥¨ à¥Ńà¥¦
à¤ķà¤Ń à¤°à¤¬
Ġà¤Ĺà¤¹à¤¨ à¤¤
à¤ıà¤¸à¤® à¤ı
Ġà¤ıà¤ķà¤¦ à¤¶à¤ķ
Ġà¥ªà¥ª à¥Ń
Ġà¥ªà¥ª à¥ª
Ġà¥ªà¥¬ à¥«
Ġà¥ªà¥¬ à¥¨
Ġà¥ªà¥¬ à¥ª
Ġà¤®à¤Ŀ à¤§
à¥§à¥¬ à¥ªà¥¯
à¥§à¥¬ à¥¦à¥«
à¤Ĺà¤²à¤® à¤¯
Ġà¤¨à¤µà¤° à¤¸à¤ķ
Ġà¤¨à¤µà¤° à¤¸à¤®à¤§
Ġà¤¶à¤ªà¤¥ à¤ªà¤Ľ
Ġà¤¶à¤ªà¤¥ à¤ªà¤¤
Ġà¤¶à¤ªà¤¥ à¤ħà¤ĺ
à¥§à¥¨ à¥¬
Ġà¥¬à¥¬ à¥«
Ġà¥¬à¥¬ à¥Ń
Ġà¥¬à¥¬ à¥Ńà¥¨
Ġà¥Ńà¥¨ à¥¨
Ġà¤Ĩà¤¦à¤° à¤ª
Ġà¤Ĩà¤¦à¤° à¤Ĺà¤°
Ġà¥ªà¥¯ à¥¬
Ġà¥ªà¥¯ à¥®
Ġà¥ªà¥¯ à¥¯
à¤¯à¤ªà¤° à¤²
Ġà¤¸à¤¦à¤¨ à¤¦
Ġà¤¸à¤¦à¤¨ à¤¸à¤®
Ġà¤¸à¤¦à¤¨ à¤¸à¤®à¤ķ
Ġà¤ľà¤Ĺà¤¤ à¤¬
Ġà¤ľà¤Ĺà¤¤ à¤ľà¤¨à¤¨
à¤īà¤¥ à¤¹à¤®
à¤Ĩà¤ĩ à¤«à¤²
à¤Ĩà¤ĩ à¤ķà¤¨
à¤Ĩà¤ĩ à¤°à¤¨
à¤Ĩà¤ĩ à¤¸à¤¬
à¤Ĩà¤ĩ à¤ıà¤²
à¤Ĩà¤ĩ à¤Ĩà¤ĩ
à¤Ĩà¤ĩ à¤ıà¤®à¤ıà¤¸
à¤Ĩà¤ĩ à¤ıà¤«à¤¸
à¤Ĩà¤ĩ à¤ıà¤®à¤¸
à¤Ĩà¤ĩ à¤ıà¤¸à¤ı
à¤Ĩà¤ĩ à¤ıà¤®à¤Ī
à¤Ĩà¤ĩ à¤ıà¤®à¤ĵ
à¤Ĩà¤ĩ à¤ıà¤«à¤ľ
à¤Ĩà¤ĩ à¤ıà¤²à¤ĵ
à¤Ĩà¤ĩ à¤ĵà¤ıà¤®
à¥Ńà¥« à¥¦
à¥Ńà¥« à¥©
Â« à¤¾
Â« à¥į
Â« à¥ĩ
à¤ķà¤Łà¤® à¤¯
à¤ªà¤²à¤² à¤Ĺ
Ġà¤¨à¤Ĺà¤°à¤ķ à¤ª
Ġà¤¨à¤Ĺà¤°à¤ķ à¤ªà¤ķ
Ġà¥«à¥® à¥ª
Ġà¥«à¥® à¥©
Ġà¥«à¥® à¥®
Ġà¥®à¥« à¥«
Ġà¥®à¥« à¥©
Ġà¤ħà¤¸à¤¹à¤®à¤¤ à¤²
à¤¸à¤¸à¤® à¤°
Ġà¤Ĺà¤¦ à¤Ĺà¤¦
à¤Ĺà¤Ń à¤¶
à¤Ĺà¤Ń à¤ıà¤ªà¤Ľ
Ġà¤ħà¤¨à¤¶à¤¨ à¤¤
Ġà¤ħà¤¨à¤¶à¤¨ à¤ª
Ġà¤ħà¤¨à¤¶à¤¨ à¤°à¤¤
Ġà¤ħà¤¨à¤¶à¤¨ à¤¸à¤®
Ġà¤ħà¤¨à¤¶à¤¨ à¤ľà¤¸
à¥§à¥¯ à¥§
à¥§à¥¯ à¥Ńà¥ª
à¥§à¥¯ à¥®à¥¦
à¥§à¥¯ à¥¯à¥¯
à¥§à¥¯ à¥¯à¥¦
à¤¿. )
à¥Ģ' )
à¥Ģ' ?
Ġà¤ķà¤Ńà¤° à¤Ĺ
à¤¾à¤ģà¥Ī ?
à¤¾à¤ģà¥Ī à¥¤âĢĻ
à¤¾à¤ģà¥Ī ?âĢĻ
à¤¾à¤ģà¥Ī âĢĻà¤Ĥ
Ġà¤ĵà¤ªà¤¨ à¤°à¤¦
Ġà¥Ńà¥¬ à¥¦
Ġà¥Ńà¥¬ à¥Ń
Ġà¥Ńà¥¬ à¥ª
Ġà¥Ńà¥¬ à¥®
à¥ĭ) à¥¤
Ġà¤²à¤¹ à¤¡à¤ķ
à¤¡à¤ª à¤¥à¤®
Ġà¥¬à¥® à¥¦
Ġà¥¬à¥® à¥¬
Ġà¥¬à¥® à¥¬à¥Ń
à¤¦à¤Ń à¤ıà¤ªà¤Ľ
à¤¤à¤¹à¤Ł à¤¤à¤°
à¤¤à¤¹à¤Ł à¤Ńà¤¨
à¤ķà¤¶ à¤§
à¤ķà¤¶ à¤ªà¤®
à¤²à¤ļ à¤²à¤¨à¤ķ
à¤²à¤ļ Åĵà¤¯
Ġà¤ĸà¤¬ à¤¹à¤°
Ġà¤ĸà¤¬ à¤°à¤¬
Ġà¥«à¥Ń à¥¬
Ġà¥«à¥Ń à¥®
Ġà¥«à¥Ń à¥Ńà¥«
Ġà¥«à¥Ń à¥®à¥¬
Ġà¤ħà¤µà¤¤à¤°à¤£ à¤®
Ġà¤ħà¤µà¤¤à¤°à¤£ à¤Ĺà¤°
Ġà¤ħà¤µà¤¤à¤°à¤£ à¤²à¤Ĺ
à¤°à¤¨à¤Ĺà¤° à¤¸à¤¹
à¤¿) âĢĻ
à¤Īà¤ıà¤ķ à¤Ĩà¤ªà¤¸à¤®
Ġà¤ĸà¤² à¤Ļ
Ġà¤ĸà¤² à¤µà¤²
Ġà¤ĸà¤² à¤ļà¤°
à¥§à¥Ń à¥¬
à¥§à¥Ń à¥¦à¥¦
à¥§à¥Ń à¥§à¥¦à¥Ń
Ġà¤Ĩà¤ĩà¤ıà¤® à¤ıà¤ķ
Ġà¤Ĩà¤ĩà¤ıà¤® à¤¡
Ġà¥Ńà¥§ à¥©à¥¦
Ġà¥Ńà¥Ń à¥¯à¥¨à¥¯à¥®
à¤¯à¤¨à¤² à¤Ĺ
Ġà¥«à¥¯ à¥ª
Ġà¥«à¥¯ à¥©
Ġà¥«à¥¯ à¥¬à¥©
Ġà¥«à¥¯ à¥¦à¥¨
Ġà¥Ńà¥® à¥Ń
Ġà¥Ńà¥® à¥¯
Ġà¥Ńà¥® à¥§à¥«
Ġà¥Ńà¥® à¥«à¥®
ĠĠĠĠĠĠĠĠĠĠĠĠĠĠĠĠ ĠĠ
ĠĠĠĠĠĠĠĠĠĠĠĠĠĠĠĠ ĠĠĠ
à¤ľà¤¹ à¤µ
Ġà¤¤à¤°à¤² à¤¤à¤ķ
Ġà¥¯à¥« à¥¦
Ġà¥¯à¥« à¥¬
Ġà¥¯à¥« à¥¦à¥¬
Ġà¥¯à¥« à¥¬à¥§
Ġà¤¨à¤Ĩà¤īà¤¨ à¤ľ
Ġà¤¦à¤®à¤ķ à¤¸
Ġà¤¦à¤®à¤ķ à¤¬
Ġà¤Ĩà¤ªà¤° à¤§
Ġà¤¬à¤ļà¤¤ à¤Ľ
Ġ... à¥¤
Ġ... âĢĻ
Ġ... à¥¤âĢĻ
Ġ... à¥¤âĢĿ
à¤¸à¤« à¤²à¤ķ
à¤¸à¤« à¤²à¤®
à¤¸à¤« à¤°à¤¬
à¤¹à¤ª à¤ŀ
à¤¹à¤ª à¤¥à¤ķ
Ġà¤¬à¤¦ à¤°à¤Ń
Ġà¤¬à¤¦ à¤Ĺà¤®
à¤Ŀà¤Ł à¤°à¤¹
Ġà¥¬à¥¯ à¥§
Ġà¥¬à¥¯ à¥¨
Ġà¥¬à¥¯ à¥§à¥¯
à¤¦à¤¶ à¤µà¤°
à¤¦à¤¶ à¤ªà¤Łà¤ķ
à¤¦à¤¶ à¤°à¤¥à¤ľ
à¤Ńà¤¸ à¤°à¤¹
à¤Ńà¤¸ à¤Ļ
Ġà¤°à¤ľà¤¤ à¤¸
Ġà¤°à¤ľà¤¤ à¤ľà¤¯à¤¨
Ġà¥Ńà¥ª à¥Ń
Ġà¥Ńà¥ª à¥ª
Ġà¥¦à¥¬ à¥¬
Ġà¤²à¤ľ à¤ľà¤¸
Ġà¤ĵà¤® à¤¨à¤ķ
Ġà¤ĵà¤® à¤ķà¤²
à¤¤à¤Ĺà¤¤ à¤§
à¤µà¤ķà¤ª à¤ħà¤Ĺ
Ġà¤ħà¤ªà¤¹à¤°à¤£ à¤²
Ġà¤ħà¤ªà¤¹à¤°à¤£ à¤¬
Ġà¤ħà¤ªà¤¹à¤°à¤£ à¤¶
Ġà¤ħà¤ªà¤¹à¤°à¤£ à¤¸à¤®
Ġà¤ħà¤ªà¤¹à¤°à¤£ à¤ªà¤Ľ
à¤²à¤¯à¤¸ à¤°à¤ķ
à¤¾à¤Ĥà¥Ī '
à¤¾à¤Ĥà¥Ī ?
à¤¾à¤Ĥà¥Ī âĢĻ
à¤¾à¤Ĥà¥Ī à¥¤âĢĻ
Ġà¥¬à¥§ à¥ªà¥©
à¤¤à¤¹à¤¤ à¤Ń
à¥Ģà¤Ĥ à¤ģ
Ġà¤Ĩà¤Ļ à¤¦
Ġà¤Ĩà¤Ļ à¤Ĺ
Ġà¤Ĩà¤Ļ à¤Ľ
Ġà¤Ĩà¤Ļ à¤ķà¤²
Ġà¤Ĩà¤Ļ à¤¸à¤°
à¤ģà¤Ĥ ,
à¤ģà¤Ĥ à¥¤
à¤Ĩà¤ĩà¤¸ à¤«à¤²
à¤¡à¤ķà¤ª à¤²à¤Ĺ
Ġà¥¯à¥® à¥¦
Ġà¥¯à¥® à¥§
Ġà¥¯à¥® à¥ª
Ġà¥¯à¥® à¥«à¥§
Ġà¥¯à¥® à¥§à¥¦à¥¦
Ġà¥¯à¥® à¥¬à¥§à¥Ń
Ġà¥§à¥¯à¥ª à¥§
à¤¤à¤Ń à¤°à¤ķ
à¤¤à¤Ń à¤°à¤®
à¤¤à¤Ń à¤ıà¤°
à¤¤à¤Ń à¤µà¤¨
à¤¤à¤Ń à¤ĩà¤¸à¤ķ
à¤¤à¤Ń à¤ıà¤ªà¤Ľ
à¤¤à¤Ń à¤ıà¤¸
à¤¤à¤Ń à¤ĩà¤°à¤¹à¤¨
Ġà¤¸à¤°à¤¹ à¤¦
Ġà¤¸à¤°à¤¹ à¤°à¤ķ
Ġà¤¸à¤°à¤¹ à¤¸à¤®
Ġà¤¸à¤°à¤¹ à¤Ŀ
Ġà¤¸à¤°à¤¹ à¤¨à¤ª
Ġà¤¸à¤°à¤¹ à¤¦à¤¸à¤®
Ġà¤¸à¤°à¤¹ à¤¦à¤ª
à¤ıà¤¸à¤¨ à¤¸
à¤ıà¤¸à¤¨ à¤¬
Ġà¤ıà¤ļ à¤ª
Ġà¤ıà¤ļ à¤ľ
Ġà¤ıà¤ļ à¤Ĩà¤°
Ġà¤ıà¤ļ à¤ıà¤¸
Ġà¤ıà¤ļ à¤ıà¤®
Ġà¤ıà¤ļ à¤ıà¤ļ
Ġà¤ıà¤ļ à¤ıà¤²à¤ı
à¤¯à¤¦à¤² à¤¸
Ġà¤ķà¤¸à¤ķ à¤¸à¤²
Ġà¤ķà¤²à¤® à¤²
Ġà¤ķà¤²à¤® à¤®
Ġà¤ķà¤²à¤® à¤¸
Ġà¤ķà¤²à¤® à¤µ
Ġà¤Ĺà¤« à¤ľà¤¸
à¤Ĺà¤ļ à¤²à¤¨à¤®
à¤¬à¤¤ à¤ľà¤¸
Ġà¤ľà¤¯ à¤Ĺ
Ġà¤ľà¤¯ à¤ľà¤¯à¤ķ
à¥Į, âĢĵ
Ġà¤ıà¤ķà¤¸ à¤ł
Ġà¥®à¥® à¥¨
Ġà¥®à¥® à¥©
Ġà¥®à¥® à¥®
Ġà¤¦à¤µ à¤¦à¤µ
à¤ĩà¤ıà¤¨ à¤ıà¤¨
à¥į,âĢĺ âĢĺ
Ġà¤ħà¤²à¤®à¤² à¤Ńà¤¨
à¤¾à¥Īà¤ģ à¥¤
à¤¾à¥Īà¤ģ à¥¤âĢĻ
à¤²à¤¹ à¤¡à¤¬
à¤ªà¤°à¤ķ à¤¤
à¤ªà¤°à¤ķ à¤ª
à¤īà¤ľ à¤°à¤¹à¤°
à¤ĩà¤ĵ à¤ıà¤®
à¤ĩà¤Ńà¤° à¤ľà¤¨
à¤«à¤¸ à¤°à¤²
à¥Įà¥¤ )
Ġà¤ıà¤¯ à¤°à¤¸
à¤¨à¤°à¤® à¤ªà¤¨
Ġà¤īà¤¬ à¤¡à¤ĸ
Ġà¤ĩà¤Ļ à¤Ĺ
Ġà¤Ĩà¤Ĺà¤®à¤¨ à¤¬
Ġà¤Ĩà¤Ĺà¤®à¤¨ à¤ªà¤¶
Ġà¥¯à¥Ń à¥©
Ġà¥¯à¥Ń à¥Ńà¥§
Ġà¤Ĺà¤Ĺà¤¨ à¤Ĺ
Ġà¤Ĺà¤Ĺà¤¨ à¤ļ
Ġà¤Ĺà¤Ĺà¤¨ à¤Ń
Ġà¤µà¤ļà¤¨ à¤¹à¤°
Ġà¤Ĩà¤¸à¤¨ à¤Ĺ
Ġà¥Ńà¥© à¥ª
Ġà¥Ńà¥© à¥®
Ġà¥Ńà¥© à¥¯
Ġà¥¯à¥ª à¥¬
Ġà¥¯à¥ª à¥¯à¥ª
à¥įà¥į à¤¾
à¥įà¥į à¥į
Ġà¤ķà¤£ à¤¹à¤°
Ġà¤°à¤¥ à¤ľ
Ġà¤°à¤¹à¤° à¤Ńà¤¨
Ġà¥¯à¥¯ à¥«
Ġà¥¯à¥¯ à¥®
Ġà¤ªà¤¥ à¤¬
Ġà¤ªà¤¥ à¤ħà¤¨
Ġà¤Ĺà¤Ī à¤¸à¤ķ
Ġà¤Ĺà¤Ī à¤°à¤¹
Ġà¤Ĺà¤Ī à¤¸à¤¹
à¤¡à¤¯à¤¨ à¤¸
à¤ĩà¤°à¤² à¤µ
à¤ĩà¤°à¤² à¤¬
à¤ĩà¤°à¤² à¤ľà¤¸
à¤ĩà¤°à¤² à¤Ńà¤ıà¤ķ
à¥§à¥ª à¥¦
à¥§à¥ª à¥ª
à¤ıà¤¸à¤ıà¤® à¤ı
à¤Ńà¤²à¤ªà¤® à¤¨
à¤¤à¤¯ à¤·
Ġà¤¡à¤¬ à¤²à¤¬à¤¹
à¥Įà¤ĤâĢĻ à¥¤
Ġà¥®à¥ª à¥Ń
Ġà¥®à¥ª à¥ª
Ġà¥®à¥ª à¥ªà¥¨
Ġà¥¯à¥¬ à¥¨
Ġà¥¯à¥¬ à¥ª
Ġà¥¯à¥¬ à¥®
Ġà¤¨à¤¬à¤¢ à¤¨
à¤Ĳ à¤°
à¤Ĳ à¤¯
à¤Ĳ à¤Ĺ
à¤Ĳ à¤¨à¤ķ
à¤Ĳ à¤¨à¤²
à¥į) à¥¤
à¤®à¤Ń à¤¤
à¤®à¤Ń à¤ıà¤°
Ġà¤ªà¤ª à¤Ĺ
à¥Īà¥Ī à¥į
Ġà¤¨à¤²à¤Ĺ à¤īà¤¨
Ġà¤Ńà¤ĩ à¤ªà¤°
Ġà¤Ńà¤ĩ à¤¸à¤¨à¤¸à¤ķ
Ġà¥¯à¥© à¥«
Ġà¥¯à¥© à¥¨
Ġà¥¯à¥© à¥«à¥®
Ġà¤¦à¤¹ à¤ĸ
Ġà¤¦à¤¹ à¤¨à¤®
Ġà¤²à¤¹à¤° à¤¸
Ġà¤²à¤¹à¤° à¤¬
Ġà¤²à¤¹à¤° à¤Ń
à¤¡à¤°à¤ķ à¤ķ
Ġà¤«à¤¨ à¤Ł
Ġà¤«à¤¨ à¤«à¤¨
à¤¹à¤Ł à¤¸à¤¹
Ġà¤®à¤¹à¤¤à¤² à¤Ĺ
à¤Ļà¤Ĺ à¤²à¤²
à¥Įà¤ģà¥¤âĢĻ âĢĻ
à¤¾à¤ĥ âĢĻ
à¤¤à¤¡ à¤¸à¤®
à¤ªà¤¡ à¤ªà¤Ł
à¤·à¤°à¤¤ à¤¹à¤°
Ġà¤ĵà¤Ńà¤° à¤°
Ġà¤ĵà¤Ńà¤° à¤Ł
Ġà¤ĵà¤Ńà¤° à¤ħà¤ĺ
Ġà¥®à¥© à¥§
à¥įâĢº à¥ĩ
à¤ıà¤®à¤ıà¤¸ à¤Ł
à¤ıà¤®à¤ıà¤¸ à¤¬
à¤ıà¤®à¤ıà¤¸ à¤Ń
Ġà¤¸à¤ĸ à¤¡
Ġà¤°à¤¨à¤° à¤ħà¤ªà¤²
Ġà¤Łà¤ª à¤ħà¤ªà¤ķ
à¥Įà¤ģà¤Ĥ ,
à¥Įà¤ģà¤Ĥ à¥¤'
Ġà¤Īà¤¨ à¤Łà¤°à¤¨
à¥ĩÂ« âĢĻ
Ġà¤¬à¤ĸà¤¤ à¤ľà¤¸
Ġà¤²à¤ĸ à¤ªà¤¤
à¤ĸà¤¸ à¤¯à¤²
à¤ĸà¤¸ à¤¯à¤²à¤®
à¤ķà¤°à¤£à¤¬ à¤¢
Ġà¥®à¥Ń à¥¦
Ġà¥®à¥Ń à¥¯
à¥ĭà¤ģ à¥ĩ
à¤²à¤ľ à¤¡
à¥ĭâĢĶ '
à¥ĢâĢĻ, âĢĺ
Ġà¤²à¤Ń à¤°à¤²
Ġà¤¬à¤¹à¤¸à¤ķ à¤°
Ġà¤ıà¤¯à¤°à¤¬ à¤¸à¤¬
à¤°à¤«à¤² à¤Ńà¤¨
à¤µà¤Ĺ à¤Ńà¤°
à¤µà¤Ĺ à¤£à¤ķ
Ġà¤¦à¤®à¤¨ à¤°
à¤ļà¤¤ à¤¹à¤®
Ġà¤Ńà¤°à¤ª à¤ªà¤°
à¤¨à¤Ĺ à¤ıà¤ķ
à¤¨à¤Ĺ à¤Ī
à¤¨à¤Ĺ à¤ŀ
à¤¨à¤Ĺ à¤ıà¤ªà¤¨
Ġà¤¬à¤¸à¤® à¤§
à¤¬à¤¢ à¤®
à¤§à¤¸ à¤°à¤¹
à¤Ńà¤¤ à¤¥
à¤ĩà¤Ļ à¤°
à¤ĩà¤Ļ à¤¦
à¤Ŀà¤¬ à¤Ŀ
Ġà¤Ĩà¤ļà¤°à¤£ à¤¸
Ġà¤Ĩà¤ļà¤°à¤£ à¤µ
Ġà¤Ĩà¤ļà¤°à¤£ à¤¸à¤®
Ġà¤¹à¤Ļà¤ķà¤Ļ à¤¸à¤®
Ġà¤¹à¤Ļà¤ķà¤Ļ à¤²à¤Ĺ
Ġà¥¦à¥ª à¥¦
Ġà¥¦à¥ª à¥©
Ġà¥¦à¥ª à¥¯
à¤°à¤«à¤²à¤® à¤§
à¤¨à¤°à¤² à¤µ
à¥ĩà¥ĩ à¥ĩ
à¤®à¤ĺ à¤Łà¤ķà¤ķ
Ġà¤ªà¤µà¤¨ à¤°
Ġà¤ªà¤µà¤¨ à¤¦
à¤ªm à¤ķ
à¤ªm à¤®
à¤ªm à¤ļ
à¤ĩà¤Łà¤² à¤¹à¤°
à¤ĩà¤Łà¤² à¤¸à¤¹
à¤¨à¤ľà¤¨à¤ķ à¤ķ
Ġà¤ªà¤¤à¤¨ à¤¬
Ġà¤ªà¤¤à¤¨ à¤ªà¤¶
Ġà¤¦à¤°à¤µ à¤¨
à¤ļà¤ª à¤¦à¤®
à¤ļà¤²à¤¨ à¤¸
âĢĮ à¤¿
Ġà¤¨à¤ī à¤łà¤²
à¤ıà¤Ł à¤¯
à¤ıà¤Ł à¤°à¤¦
à¤Ńà¤µà¤² à¤Ĺ
à¤Ńà¤µà¤² à¤Ĺà¤¤
à¤°à¤µà¤¹à¤¨ à¤¸à¤®
Ġà¤®à¤¹ÅĴà¤µ à¤ħà¤¨
Ġà¤ªà¤¡ à¤¸à¤°
à¤ıà¤¡ à¤ľà¤¸
Ġà¤²à¤¬ à¤ľà¤®
Ġà¤²à¤¬ à¤¬à¤¹
à¤°à¤¬à¤¦ à¤²à¤®
à¤°à¤¬à¤¦ à¤²à¤²
à¤°à¤¬à¤¦ à¤²à¤¬
à¤ĵà¤ıà¤¸ à¤¸
à¤²à¤¡ à¤®à¤¨
à¤Ĺà¤°à¤£ à¤¸
à¤ıà¤ª à¤«à¤²
à¤ıà¤ª à¤«à¤ķ
Ġà¤Ńà¤¡ à¤ªà¤®
Ġà¤®à¤¯ à¤Ļ
Ġà¤®à¤²à¤® à¤²
à¤ļà¤¥ à¤°à¤¬
à¤µà¤¸à¤¹ à¤¸à¤ļ
à¤µà¤¸à¤¹ à¤®à¤¤à¤²
à¥¦à¥Ń à¥§
à¥¦à¥Ń à¥®
à¥¦à¥Ń à¥¯
Ġà¤®à¤¹à¤² à¤Ŀ
Ġà¤ıà¤¸à¤ıà¤®à¤ıà¤¸ à¤¸à¤®
à¤ıà¤®à¤ı à¤Ĩà¤°à¤Ł
Ġà¤ķà¤¦à¤®à¤² à¤Ĺ
à¤µà¤²à¤² à¤¨
à¤Łà¤¸à¤² à¤²
Ġà¤®à¤Ĺ à¤§à¤ķ
Ġà¤®à¤Ĺ à¤¨à¤®à¤¸
à¤¡à¤°à¤¸ à¤¨à¤¬
Ġà¤¨à¤Ńà¤ĩ à¤ŀ
Ġà¤¨à¤Ńà¤ĩ à¤ıà¤²
Ġà¤¸à¤¤à¤¹ à¤Ńà¤¨
Ġà¥§à¥«à¥¦ à¥«
Ġà¥§à¥«à¥¦ à¥¯
à¤¯à¤£à¤Ĺà¤¢ à¤ķ
à¤¯à¤£à¤Ĺà¤¢ à¤®
à¤¯à¤£à¤Ĺà¤¢ à¤¸
à¤¯à¤£à¤Ĺà¤¢ à¤¬
à¤¯à¤£à¤Ĺà¤¢ à¤¤à¤°
Ġà¤ıà¤«à¤ıà¤® à¤Ĩà¤°à¤Ĩà¤Īà¤ķ
à¤¼ à¥į
à¤°à¤ħ à¤ķ
à¤°à¤ħ à¤¹à¤°
à¤°à¤ħ à¤°à¤®
à¤°à¤ħ à¤µà¤ľ
à¤°à¤ħ à¤µà¤¸à¤°
Ġà¤¸à¤¯à¤® à¤¸
Ġà¤¸à¤¯à¤® à¤¯à¤¤
à¤ıà¤¤ à¤¥
à¤¾à¤ģà¤ģ )
à¤¾âĢĶ âĢĶ
à¤²à¤Ļ à¤Ĺà¤¨
à¥ĪâĢĻ à¥¤
Ġà¤Ŀà¤Ł à¤ªà¤Ł
à¥ªà¥« à¥¯
à¤ıà¤¨à¤ıà¤® à¤¸
à¤®à¤¦à¤² à¤¹à¤°
à¤ªà¤¸à¤² à¤¹à¤°
Ġà¤®à¤²à¤ķ à¤µ
à¤ħà¤µ à¤¤à¤°à¤£à¤ķ
à¤ħà¤µ à¤¤à¤°à¤£à¤®
Ġà¤¶à¤°à¤¦ à¤®
Ġà¤¶à¤°à¤¦ à¤µ
Ġà¤Ĩà¤ĩà¤¡ à¤²à¤¬
à¥ģâĢ į
Ġà¤ķà¤¦à¤° à¤Ĺà¤°
Ġà¤ķà¤¦à¤° à¤ªà¤¤
Ġà¤ħà¤ľà¤¯ à¤¬
Ġà¤µà¤¹ à¤¨à¤ķà¤°
à¤Ńà¤ķà¤° à¤¸à¤®
à¤¸à¤ķà¤¸ à¤ªà¤Ľ
à¤Ļà¤ª à¤Ļ
à¥Ńà¥¦ à¥«
à¥Ńà¥¦ à¥¯à¥Ńà¥ª
à¥Ńà¥¨ à¥Ń
à¥ģ. )
à¤µà¤²à¤¨ à¤¶
à¤£à¤¨à¤Ĺà¤° à¤¦
à¤ļà¤ľà¤¨ à¤ĺà¤¨à¤¤
à¤Ļà¤Łà¤¨ à¤¸
à¤Ļà¤Łà¤¨ à¤¬
à¤¦à¤¶à¤¨ à¤¶
Ġà¤Ĺà¤¡ à¤Ĺà¤®
Ġà¤°à¤ĺ à¤µ
Ġà¤Ĩà¤®à¤® à¤¡
Ġà¤Ĩà¤®à¤® à¤¸à¤ŀ
à¤®à¤ķà¤°à¤£ à¤¸à¤®
à¤¯à¤²à¤¯ à¤¯à¤²
à¤¯à¤²à¤¯ à¤ľà¤¸
à¤Ĩà¤Ĺ à¤ľà¤¨
à¤°à¤¬à¤¦à¤² à¤¸à¤®
à¥¨à¥® à¥¦
à¥¨à¥® à¥§
à¥¨à¥® à¥¨
à¥¨à¥® à¥®
Ġà¤ıà¤¸à¤ĩ à¤ĩà¤²
Ġà¤ıà¤¸à¤ĩ à¤ĩà¤ª
à¤Ĩà¤°à¤Ĩà¤Ī à¤¸
à¤Ĩà¤°à¤Ĩà¤Ī à¤¬
à¤Ĩà¤°à¤Ĩà¤Ī à¤ıà¤¸
Ġà¤µà¤ľà¤¨ à¤¦
à¤ļà¤¦ à¤°à¤ķ
à¤ļà¤¹à¤° à¤Ńà¤¨
Ġà¤īà¤· à¤¨
à¤²à¤¯à¤¸à¤® à¤¯
Ġà¤ķà¤¸à¤°à¤¤ à¤ªà¤Ľ
à¤ľà¤Ĺà¤¢ à¤ķ
à¤ľà¤Ĺà¤¢ à¤²
à¤ĸà¤²à¤¨ à¤µ
à¤¯à¤®à¤¸ à¤°à¤¹
à¤ħà¤ķ à¤¬à¤°à¤¨
Ġà¤ħà¤¸à¤¦ à¤¸à¤°à¤ķ
à¤Łà¤¨à¤° à¤Ĺà¤°
Ġà¤ıà¤®à¤ı à¤²à¤¬
Ġà¤ıà¤®à¤ı à¤Ĩà¤°à¤ıà¤¸à¤²
à¤ıà¤¸à¤ıà¤² à¤Ĩà¤°
à¤ıà¤¸à¤ıà¤² à¤ıà¤«à¤ª
Ġà¤¸à¤Ĺ à¤°à¤¹à¤µ
à¤µà¤ħà¤¨ à¤¶à¤¨à¤ķ
à¤§à¤¶à¤¤à¤ķ à¤¸à¤¹
à¤¥à¤ķà¤° à¤¸à¤®
Ġà¤¥à¤® à¤¸à¤°
à¤¨à¤¨à¤Ĺà¤° à¤¸à¤®
à¥¨à¥Ń à¥¯
ĠĠĠĠĠĠĠĠĠĠĠĠĠĠĠĠĠĠĠĠĠĠĠĠĠĠĠĠĠĠĠĠ ĠĠĠĠĠĊ
ĠĠĠĠĠĠĠĠĠĠĠĠĠĠĠĠĠĠĠĠĠĠĠĠĠĠĠĠĠĠĠĠ ĠĠĠĠĠĠĠĠĠĠĠĠĠĠĠĠĠĠ
à¤ķà¤ħ à¤ªà¤¸
à¤ķà¤ħ à¤ªà¤¬
à¤µà¤°à¤¸ à¤¤
Ġà¤¤à¤²à¤µ à¤¸à¤®
à¤Īà¤¸à¤® à¤°
à¤°à¤ķà¤°à¤£ à¤¸à¤®
à¤°à¤ķà¤°à¤£ à¤ªà¤Ľ
à¤Ĩà¤ľà¤ķ à¤²à¤ķ
Ġà¤Ĩà¤ĩà¤¹ à¤¬à¤ķ
Ġà¥¨à¥«à¥¦ à¥ª
à¤Ĩà¤¦ à¤°à¤£
à¤ıà¤¸à¤ı à¤¦
à¤ıà¤¸à¤ı à¤¡à¤²
à¤ıà¤¸à¤ı à¤«à¤¬
à¤ıà¤¸à¤ı à¤Ĩà¤ĩà¤¡
à¤°à¤Ĩ à¤īà¤¨
à¤¸à¤°à¤¹ à¤¦
à¥Īà¤ĥ à¥¤
Ġà¤¹à¤ł à¤¬
Ġà¤¹à¤ł à¤ľà¤¸
à¤ľà¤¡ à¤Łà¤ķà¤®
Ġà¤¤ÅĴ à¤µà¤ķ
Ġà¤¤ÅĴ à¤µà¤¬
à¤ļà¤¨à¤¸ à¤¬à¤¨
à¤ĵà¤® à¤Ńà¤ķ
Ġà¤ķà¤¶ à¤¹
Ġà¤¨à¤¹à¤° à¤ļ
à¤°à¤µà¤£ à¤ľà¤¸
à¥¬à¥® à¥¯
Ġà¤ľà¤¬à¤ľ à¤Ńà¤¨
à¥¨à¥¦à¥¦ à¥§
à¥¨à¥¦à¥¦ à¥«
à¥¨à¥¦à¥¦ à¥ª
à¥¨à¥¦à¥¦ à¥©
à¥¨à¥¦à¥¦ à¥¯
à¥¨à¥¦à¥¦ à¥«à¥¬à¥¬
à¤Ĩà¤ĩà¤ıà¤¸ à¤Ł
on tin
or ce
or ity
Ġw as
Ġw ay
Ġw ho
à¤¾! ?
à¤¾! ,âĢĻ
à¥įà¥ĩ à¤¾
à¤Ĩà¤ĩà¤ı à¤ª
à¤Ĩà¤ĩà¤ı à¤«à¤²
à¤Ĩà¤ĩà¤ı à¤«à¤ķ
à¤Ĩà¤ĩà¤ı à¤ĩà¤ı
à¥©à¥¬ à¥«
Ġà¤Ĩà¤ĩà¤Łà¤® à¤¬
Ġà¤Ĩà¤ĩà¤ĵ à¤ıà¤®à¤¬
Ġà¤Ĩà¤ĩà¤ĵ à¤ıà¤®à¤®
Ġà¤ľà¤®à¤ĺà¤Ł à¤ªà¤Ľ
at e
at er
à¤¨à¤µà¤¸ à¤°à¤¹
à¥Ģ. )
à¥Ģ. ,
à¤¸à¤°à¤¸ à¤«
Ġà¤ķà¤°à¤® à¤ļà¤¨
Ġà¤ķà¤¥à¤¨ à¤ħà¤¨
Ġà¤Ĺà¤ľà¤² à¤Ŀ
à¤ļà¤ĸ à¤ªà¤¨
à¥Ĥ) âĢĻ
Ġà¤ıà¤ıà¤¨ à¤ıà¤¨
Ġà¤ıà¤ıà¤¨ à¤ıà¤¸à¤¸
Ġà¤ıà¤ıà¤¨ à¤Ĩà¤Īà¤ķ
à¥Įà¤Ĥà¤Ĥ à¥¤
à¥Įà¤Ĥà¤Ĥ âĢĵ
à¥Įà¤Ĥà¤Ĥ ,âĢĻ
à¥¨à¥¯ à¥Ń
à¥¨à¥¯ à¥¬
à¥¨à¥¯ à¥©
à¥¨à¥¯ à¥®à¥¯
Ġà¤Ĩà¤ĩà¤¡à¤² à¤ľà¤¸
à¤°à¤ªà¤¥ à¤¸à¤®
à¤ıà¤®à¤ıà¤² à¤ıà¤¨à¤ķ
Ġà¥§à¥®à¥¦ à¥ª
à¤¸à¤¡ à¤Łà¤ķà¤®
Ġà¤°à¤£ à¤§
Ġà¤¨à¤µà¤ª à¤¹
à¤ıà¤ĩ à¤ªà¤Ľ
Ġà¤ħà¤®à¤¨ à¤ļà¤¯à¤¨à¤ķ
Ġà¤Ľà¤¨à¤ķ à¤²
Ġà¤ıà¤ķà¤ıà¤ķ à¤µà¤Ł
à¥©à¥© à¥®à¥ªà¥«
Ġà¤ªà¤¦à¤ª à¤Ĺà¤°
à¤Ĩà¤°à¤ıà¤« à¤¯
Ġà¥§à¥¬à¥« à¥ª
Ġà¥§à¥¬à¥« à¥¯
en es
en ce
en sive
in a
in al
in di
Ġà¤¸à¤°à¤¦ à¤°à¤®
à¤¬à¤Ł à¤®à¤²
à¤Ńà¤ı à¤¯
Ġà¤¯à¤®à¤¨ à¤¬
Ġà¤¯à¤®à¤¨ à¤ľà¤¸
Ġà¤ıà¤ķà¤Ĩ à¤ªà¤¸à¤ķ
à¥Įà¤ģâĢĻ âĢĵ
Ġà¤Ŀà¤® à¤ķà¤²
al ity
an ge
an not
an nav
à¤¨à¤ı à¤µ
à¤¨à¤ı à¤ľà¤ķ
Ġà¤²à¤ĸà¤¨ à¤Ĭ
Ġà¤²à¤ĸà¤¨ à¤īà¤®
à¥Ĥà¥Ĥ à¥Ĥ
Ġà¤ļà¤Łà¤ķ à¤ª
Ġà¤ĸà¤µ à¤°à¤¦
à¤¤à¤°à¤¸ à¤§
à¥ªà¥¬ à¥Ń
à¥¯à¥¯ à¥¬
à¤¾... )
à¤¾... âĢĻ
Ġà¥§à¥¨à¥¬ à¥¯
Ġà¥§à¥¬à¥¦ à¥«
Ġà¥¦à¥¦à¥¦ à¥¬
Ġà¤ķà¤¦à¤®à¤® à¤§
à¤ıà¤ļà¤ıà¤¸ à¤Ĩà¤Īà¤ıà¤¸à¤Ł
ar d
ar usan
ar enes
à¤¸à¤Ĺà¤¢ à¤®
Ġà¤¬à¤Ĺà¤° à¤¹à¤°
Ġà¤¬à¤Ĺà¤° à¤Ńà¤°
Ġà¤¬à¤Ĺà¤° à¤¬à¤ľ
Ġà¤¬à¤²à¤¬ à¤²à¤ķ
Ġà¤¬à¤®à¤¬ à¤®
à¤§à¤¶ à¤¤à¤ķà¤ķ
à¤§à¤¶ à¤¥à¤¤à¤ķ
Ġà¤ļà¤®à¤ķ à¤¦
Ġà¤ļà¤®à¤ķ à¤ľà¤¸
Ġà¤ļà¤®à¤ķ à¤§à¤®à¤ķ
à¤°à¤µà¤¹ à¤¨à¤¸à¤¹
à¤Ĩà¤ĵ à¤¨
Ġà¤ĵà¤ĸ à¤Ł
Ġà¤ĵà¤ĸ à¤²à¤®
Ġà¤ĵà¤ĸ à¤°à¤²à¤Ĺ
Ġà¤«à¤°à¤ķà¤ªà¤¨ à¤¤
Ġà¤«à¤°à¤ķà¤ªà¤¨ à¤¤à¤°
Ġà¤Ľà¤²à¤«à¤²à¤² à¤Ĺà¤¤
Ġà¤Ļ à¤¯à¤¨
à¤°à¤Ľ à¤¹
à¤ªà¤Łà¤¨ à¤µ
à¤¹à¤Ń à¤Ļ
à¤¹à¤²à¤® à¤¯
Ġà¤¨à¤Ĺà¤°à¤² à¤Ĺ
Ġà¤µà¤¨à¤² à¤¸
à¤¬à¤°à¤¬ à¤®
à¤£à¤¸à¤¹ à¤®à¤¤
à¤¡à¤°à¤¶ à¤Łà¤ķ
à¤ĩà¤ªà¤° à¤Ł
à¤ĩà¤ªà¤° à¤¥à¤°
à¤ĩà¤«à¤² à¤¸
Ġà¤ıà¤Ļ à¤ķà¤°
Ġà¤ıà¤Ļ à¤Ĺà¤²
Ġà¤Łà¤ļ à¤ķà¤¨
à¤ħà¤µà¤¸ à¤°à¤ķ
à¥Ńà¥® à¥«
à¥Ńà¥® à¥¯
Ġà¥§à¥¨à¥® à¥®
à¤Ĺà¤£à¤¤à¤¨ à¤¤
ĠĠĠĠĠĠĠĠĠĠĠĠĠĠĠĠĠĠĠĠĠĠĠĠ ĠĠĠĠ
ĠĠĠĠĠĠĠĠĠĠĠĠĠĠĠĠĠĠĠĠĠĠĠĠ ĠĠĠ
as tGu
di ation
ep en
it ter
ĠA nt
ĠA II
Ġth at
Ġth is
Ġth arusan
à¥ĩâĢĿ âĢĵ
Ġà¤¸à¤¯à¤² à¤Ńà¤¨
Ġà¤¸à¤¤à¤² à¤ľà¤¸
à¤ľà¤µà¤² à¤¤
Ġà¤²à¤µ à¤ľà¤ķ
Ġà¤²à¤Ļ à¤¡
Ġà¤²à¤Ļ à¤«
à¤ĸà¤ªà¤¢ à¤®
à¤ĸà¤ªà¤¢ à¤ª
Ġà¤ĸà¤Łà¤¨ à¤ħà¤¨
à¤ĺà¤· à¤¶
à¤¯à¤¤à¤¹ à¤²à¤Ĺ
à¤Ĩà¤ł à¤ľà¤¨
à¤Ĩà¤ł à¤Ķà¤°
à¤®à¤¨à¤Ĺà¤° à¤¬
à¥©à¥Ń à¥§à¥¦
à¥©à¥Ń à¥¨à¥«à¥©
à¥©à¥® à¥©
à¤ĵà¤Ńà¤° à¤Ł
à¤ĵà¤Ńà¤° à¤ıà¤ķ
Ġà¤ıà¤¨à¤Ĩ à¤ıà¤¨à¤ıà¤®
Ġà¤ıà¤¨à¤Ĩ à¤ıà¤¨à¤ıà¤ķ
Ġà¤§à¤°à¤ªà¤ķ à¤¡à¤ķ
Ġà¤§à¤°à¤ªà¤ķ à¤¡à¤®
à¤ıà¤®à¤ĵ à¤²à¤Ĺ
il ater
is h
is m
Ġ1 1
Ġ1 2
Ġ1 9
Ġ1 11
Ġ4 35
à¤ĭ à¤£à¤®
à¤ªà¤ķà¤® à¤²à¤²
à¤¹à¤¨à¤® à¤£
à¤ıà¤ıà¤¸ à¤ıà¤¸
Ġà¤Ńà¤°à¤¤à¤® à¤£
Ġà¤¬à¤¬à¤°à¤® à¤¹à¤²à¤ķ
Ġà¤¹à¤¸à¤¨ à¤¤
Ġà¤ıà¤Łà¤® à¤Ń
Ġà¤ıà¤Łà¤® à¤¬à¤®
Ġà¤Łà¤² à¤ľà¤®
Ġà¤ĩà¤Ńà¤¨ à¤ª
à¥ªà¥¯ à¥©
Ġà¤Ĩà¤ĩà¤ıà¤² à¤ĵ
à¤Ĩà¤°à¤ıà¤¸ à¤¡
Ġà¥§à¥Ńà¥¦ à¥®
à¤¥à¤ªà¤°à¤ķ à¤¤
In ter
à¤ķà¤¡à¤® à¤¬
à¥Ī? '
Ġà¤¨à¤ħ à¤²à¤®à¤²
Ġà¤¹à¤¬à¤² à¤¦
Ġà¤®à¤°à¤£ à¤¶
à¥Įà¥Īà¤ģ à¥¤
à¤¯à¤¸à¤¸à¤® à¤¯à¤ķ
à¤ħà¤°à¤¬ à¤ķ
à¤ħà¤°à¤¬ à¤¸
à¤ħà¤°à¤¬ à¤¬
Ġà¤ĩà¤²à¤® à¤¸
à¤Ĩà¤ĩà¤µ à¤¬à¤²
Ġà¤Ĩà¤°à¤ıà¤¸ à¤ıà¤¸à¤¸
Ġà¤Ĩà¤°à¤ıà¤¸ à¤ıà¤¸à¤²
à¤ĵà¤Ń à¤°à¤¹
Ġà¤ıà¤®à¤ĵ à¤¡
Ġà¤ıà¤®à¤ĵ à¤ĩ
Ġà¤ıà¤®à¤ĵ à¤ıà¤«
Ġà¤ıà¤®à¤ĵ à¤Ĩà¤ĩà¤¸
à¥®à¥« à¥§à¥§à¥¯
Ġà¤ıà¤¸à¤ıà¤® à¤ıà¤²à¤®
Ġà¥¨à¥®à¥® à¥ªà¥«
Ġà¤¦à¤®à¤ķà¤² à¤²à¤Ĺ
à¤Ĩà¤ĩà¤ıà¤¨ à¤¬
à¤Ĩà¤ĩà¤ıà¤¨ à¤ıà¤¸
Ġà¤§à¤°à¤ªà¤ķà¤¡ à¤ªà¤Ľ
00 01
com pet
re sen
Ġa go
Ġa ak
Ġt rade
à¤¿... à¥¤âĢĻ
à¥ĩ... ?
à¥ĩ... à¥¤
Ġà¤¸à¤¨à¤ķ à¤ķ
Ġà¤¸à¤¨à¤ķ à¤®
Ġà¤¸à¤¨à¤ķ à¤Ł
à¤Łà¤Ĺà¤° à¤¬
à¤Łà¤Ĺà¤¤ à¤²à¤Ĺ
Ġà¤īà¤¬à¤° à¤Ĺ
à¤¡à¤¶ à¤°à¤®
à¤¡à¤¶ à¤°à¤¸
à¤¡à¤ļ à¤¢
âĢ© Ġ
à¤łà¤ķà¤¸ à¤¬à¤¨
Ġà¤«à¤Ļ à¤¸à¤¨
Ġà¤«à¤Ļ à¤¸à¤¨à¤²
Ġà¤«à¤Ļ à¤¸à¤¨à¤ķ
Ġà¤¡à¤Ĺ à¤«
à¥®à¥§ à¥¬à¥©
Ġà¤ıà¤¸à¤Ī à¤ĩ
Ġà¤ıà¤¸à¤Ī à¤Īà¤®
Ġà¤ıà¤¸à¤ĵ à¤ıà¤¸à¤ķ
Ġà¤ıà¤¸à¤ĵ à¤ıà¤¸à¤²
Ġà¥§à¥¯à¥¦ à¥«
Ġà¥§à¥¯à¥¦ à¥ª
Ġà¥§à¥¯à¥¦ à¥®
Ġà¥©à¥«à¥¦ à¥ªà¥§
à¤Ĩà¤ĩà¤ıà¤« à¤¹à¤°
à¤Ĩà¤ĩà¤ıà¤« à¤¸à¤¹
Ġà¤ħà¤®à¤¨à¤ļ à¤¯à¤¨
ass wor
11 1
ad eWas
ad gp
ma inal
op i
ÃĪ à¤ªà¤Ľ
ÃĪ à¤¯à¤²
Ġ9 87654321
ĠT rade
ĠT ED
ĠT een
Ġh ig
Ġh ol
Ġh ave
à¥įà¤ģ à¤¿
à¤¨à¤Ĺà¤¢ à¤®
à¤¯à¤ĸ à¤¸à¤ķ
à¤¯à¤¬à¤² à¤¦
à¤¸à¤ħà¤ª à¤ľà¤¸
à¤µà¤£ à¤¹à¤¤
à¤µà¤§à¤¨ à¤ħà¤¨
Ġà¤¨à¤¡ à¤¢
à¤ıà¤¬à¤² à¤¹à¤°
Ġà¤Ńà¤® à¤£à¤ķ
Ġà¤Ńà¤® à¤£à¤®
à¤§à¤°à¤£ à¤¤à¤¯
Ġà¤Ľà¤²à¤ķ à¤ªà¤Łà¤®à¤¯
à¤īà¤ªà¤¦ à¤«
à¥ĮâĢĮ -
à¥ĮâĢĮ âĢĵ
Ġà¤¶à¤ª à¤¥à¤®
Ġà¤¶à¤ª à¤¥à¤²
Ġà¤Łà¤ªà¤° à¤Ł
à¤Ŀà¤®à¤ķ à¤ľà¤¸
Ġà¤ĵà¤¦ à¤¶à¤²
à¤ĵà¤Ĩà¤° à¤Ńà¤¨
à¥®à¥¬ à¥§à¥¨
Ġà¤ıà¤¨à¤ıà¤® à¤ıà¤ķ
Ġà¤Ĺà¤łà¤¨à¤² à¤Ĺà¤¤
Ġà¤ıà¤¸à¤ı à¤Łà¤ķ
Ġà¤ıà¤¸à¤ı à¤Łà¤®
ĠĠĠĠĠĠĠĠĠĠĠĠĠĠĠĠĠĠĠĠĠĠĠĠĠĠĠĠĠĠĠĠĠĠĠĠĠĠĠĠĠĠĠĠĠĠĠĠĠĠĠĠĠĠĠĠĠĠĠĠĠĠĠĠ ĠĠĠĠĠĠĠĠĠĠĠĠĠĠĠĠĠĠĠĠĠĠĠĠĠĠĠĠĠĠĠĠĠĠĠĠĠĠĠĠĠĠĠĠĠĠĠĠĠĠĠĠĠĠĠĠ
ĠĠĠĠĠĠĠĠĠĠĠĠĠĠĠĠĠĠĠĠĠĠĠĠĠĠĠĠĠĠĠĠĠĠĠĠĠĠĠĠĠĠĠĠĠĠĠĠĠĠĠĠĠĠĠĠĠĠĠĠĠĠĠĠ ĠĠĠĠĠĠĠĠĠĠĠĠĠĠĠĠĠĠĠĠĠĠĠĠĠĠĠĠĠĠ
es hs
ri ority
st ate
ĠI s
ĠI OM
ĠM r
ĠM ay
ĠM ig
ĠM edi
ĠO ce
ĠO rgan
ĠP LA
ĠP roper
Ġb y
Ġb ilater
Ġf or
Ġf ur
Ġf riend
Ġf ool
Ġp ic
Ġp eop
Ġp asswor
Ġp riority
Ġin vit
Ġin compet
à¤¾', '
à¤¿âĢ °
à¤ķà¤ļà¤ķ à¤ļ
à¤®à¤ľà¤¨à¤® à¤ľ
à¤¸à¤¤à¤² à¤ľ
Ġà¤ķà¤¨à¤ķ à¤®
Ġà¤ķà¤¨à¤ķ à¤²à¤¤
[...]
