{
  "!": 5,
  "!'": 8628,
  "!âĢĻ": 5819,
  "\"": 6,
  "#": 7,
  "$": 8,
  "%": 9,
  "%)": 10718,
  "'": 10,
  "''": 10719,
  "',": 1283,
  "'à¥¤": 10720,
  "(": 11,
  ")": 12,
  ")\"": 8629,
  ")(": 10721,
  "))à¥¤": 10726,
  "),": 1374,
  ")-": 5820,
  ").": 10722,
  "):": 5199,
  ");": 10723,
  ")à¥¤": 3360,
  ")à¥ĩ": 10724,
  ")âĢĵ": 4917,
  ")âĢĶ": 10725,
  ")âĢĻ": 4575,
  "*": 13,
  ",": 14,
  ",\"": 10727,
  ",'": 1790,
  ",'à¥¤": 15626,
  ",,": 8630,
  ",Ã·": 10730,
  ",à¥¤": 10728,
  ",à¥¤âĢĻ": 10729,
  ",âĢĵ": 8631,
  ",âĢĺ": 3994,
  ",âĢĻ": 501,
  ",âĢĻâĢĵ": 9834,
  ",âĢĻâĢĻ": 13936,
  ",âĢĿ": 2649,
  "-": 15,
  ".": 16,
  ".)": 8632,
  "..": 1132,
  "...": 1594,
  "...'": 10339,
  "...,": 15512,
  "....": 8406,
  "...?": 15513,
  "...à¥¤": 15514,
  "...à¥¤âĢĻ": 15515,
  "...âĢĻ": 4559,
  "/": 17,
  "//": 8633,
  "0": 18,
  "00": 5821,
  "0001": 16518,
  "01": 10731,
  "06": 10732,
  "1": 19,
  "11": 6265,
  "111": 16555,
  "123": 10733,
  "2": 20,
  "20": 8634,
  "2020": 16714,
  "21": 10734,
  "23": 6266,
  "2500": 10736,
  "25000001": 16798,
  "29": 10735,
  "3": 21,
  "300": 10738,
  "321": 10739,
  "35": 10737,
  "4": 22,
  "4321": 10740,
  "44": 6267,
  "444": 10645,
  "45": 7517,
  "5": 23,
  "500": 8635,
  "54321": 10741,
  "6": 24,
  "654321": 10742,
  "67": 7518,
  "7": 25,
  "72": 10743,
  "7654321": 10744,
  "8": 26,
  "87654321": 10745,
  "9": 27,
  "90": 10746,
  ":": 28,
  "://": 8636,
  ";": 29,
  "<": 30,
  "</s>": 2,
  "<mask>": 4,
  "<pad>": 1,
  "<s>": 0,
  "<unk>": 3,
  "?": 31,
  "?'": 6268,
  "?',": 8638,
  "?)": 4418,
  "?,": 8637,
  "?,âĢĻ": 10747,
  "?âĢĻ": 2866,
  "?âĢĻ,": 10748,
  "?âĢĿ": 6269,
  "@": 32,
  "A": 33,
  "AF": 10749,
  "AK": 10750,
  "AKW": 16799,
  "AP": 10751,
  "APEF": 16800,
  "Aw": 10752,
  "Awarenes": 16801,
  "B": 34,
  "Blo": 10753,
  "Block": 16802,
  "BlockadeWasCrimeMr": 16991,
  "BlockadeWasCrimeMrModi": 17002,
  "C": 35,
  "CC": 10754,
  "Ch": 10755,
  "Co": 10756,
  "Cri": 10757,
  "CrimeMr": 16803,
  "D": 36,
  "Def": 8639,
  "Defence": 16715,
  "DefenceMinIndia": 16982,
  "Di": 10758,
  "Dom": 10759,
  "E": 37,
  "ED": 10760,
  "EF": 10761,
  "ER": 10762,
  "Es": 10763,
  "F": 38,
  "G": 39,
  "Gu": 10764,
  "H": 40,
  "I": 41,
  "IAF": 10767,
  "II": 10765,
  "IO": 10766,
  "IOR": 16804,
  "In": 5493,
  "Indi": 6825,
  "India": 8614,
  "IndiaCo": 16712,
  "IndiaCoastGuard": 16981,
  "Indian": 10659,
  "IndianDi": 16790,
  "IndianDiplomacy": 16988,
  "Inter": 16491,
  "International": 16950,
  "J": 42,
  "Jo": 10768,
  "K": 43,
  "KA": 10769,
  "KL": 10770,
  "KP": 10771,
  "L": 44,
  "LA": 10772,
  "M": 45,
  "MCC": 10776,
  "MS": 8640,
  "Mar": 10775,
  "MaritimeDom": 16806,
  "MaritimeDomainAwarenes": 16992,
  "MaritimeDomainAwareness": 17003,
  "Min": 10774,
  "MinIndia": 16805,
  "Mo": 8641,
  "MoD": 16716,
  "Modi": 16717,
  "Mr": 10773,
  "N": 46,
  "NP": 10777,
  "NPKA": 16807,
  "NR": 10778,
  "NRN": 16808,
  "NT": 10779,
  "NTW": 16809,
  "O": 47,
  "OKL": 10781,
  "OM": 10780,
  "P": 48,
  "Pi": 10782,
  "Piracy": 16810,
  "Pl": 8642,
  "Play": 10693,
  "Pre": 10783,
  "Premediation": 16811,
  "Q": 49,
  "Qu": 10784,
  "QuW": 16812,
  "R": 50,
  "RA": 10785,
  "Re": 10786,
  "S": 51,
  "SD": 10787,
  "Sp": 10788,
  "Spokes": 16813,
  "Spokesperson": 16993,
  "SpokespersonMoD": 17004,
  "T": 52,
  "TY": 10789,
  "Top": 10791,
  "Tw": 10790,
  "TwQuW": 16814,
  "U": 53,
  "V": 54,
  "Vis": 10792,
  "W": 55,
  "WER": 10794,
  "Was": 10793,
  "Y": 56,
  "[": 57,
  "\\": 58,
  "]": 59,
  "_": 60,
  "a": 61,
  "ab": 10795,
  "abha": 16815,
  "ac": 7519,
  "acy": 10675,
  "ad": 6270,
  "adeWas": 16556,
  "adeWasCrimeMr": 16952,
  "adgp": 16557,
  "adgpi": 16953,
  "age": 10801,
  "ain": 10798,
  "ainAwarenes": 16816,
  "ak": 10796,
  "al": 4419,
  "ality": 16367,
  "alpass": 10584,
  "an": 4420,
  "ange": 16368,
  "annav": 16370,
  "annot": 16369,
  "app": 10799,
  "ar": 4576,
  "ard": 16388,
  "arenes": 16390,
  "arusan": 16389,
  "as": 4918,
  "ass": 6262,
  "asswor": 16554,
  "astGu": 16433,
  "astGuard": 16944,
  "at": 3995,
  "ate": 16316,
  "ater": 16317,
  "ation": 5491,
  "av": 10797,
  "ave": 10800,
  "ay": 6834,
  "b": 62,
  "bass": 7520,
  "bassy": 8619,
  "c": 63,
  "ce": 7521,
  "ch": 10802,
  "change": 16817,
  "ck": 10803,
  "com": 5822,
  "compet": 16519,
  "cort": 10804,
  "d": 64,
  "de": 10805,
  "df": 10806,
  "dfriends": 16818,
  "di": 4919,
  "diation": 16434,
  "ding": 10808,
  "dv": 10807,
  "dvlotter": 16819,
  "dvlottery": 16994,
  "e": 65,
  "eWas": 10812,
  "ear": 8645,
  "ec": 6835,
  "ect": 8615,
  "edi": 10810,
  "een": 10809,
  "ef": 7522,
  "eft": 16661,
  "em": 7523,
  "embassy": 8620,
  "en": 4275,
  "ence": 16354,
  "end": 7491,
  "ends": 16658,
  "enes": 16353,
  "ensive": 16355,
  "ent": 10583,
  "eop": 10811,
  "ep": 4920,
  "epal": 10604,
  "epen": 16435,
  "er": 4726,
  "es": 6836,
  "eshs": 16598,
  "et": 8643,
  "ex": 8644,
  "f": 66,
  "fect": 10813,
  "flect": 10814,
  "g": 67,
  "gan": 10816,
  "ge": 8646,
  "gion": 10817,
  "gis": 10818,
  "gma": 7525,
  "gmail": 8621,
  "go": 7524,
  "gov": 10676,
  "gp": 10815,
  "h": 68,
  "ha": 10819,
  "har": 10823,
  "hat": 10822,
  "hes": 10824,
  "ho": 10820,
  "hs": 10821,
  "i": 69,
  "ic": 8647,
  "icit": 16718,
  "ig": 7526,
  "igopi": 16662,
  "il": 5200,
  "ilater": 16467,
  "ill": 7498,
  "illion": 10674,
  "in": 4276,
  "ina": 16356,
  "inal": 16357,
  "indi": 16358,
  "indiannav": 16943,
  "indiannavy": 17001,
  "ing": 8585,
  "ion": 4421,
  "is": 5201,
  "ish": 16468,
  "ism": 16469,
  "it": 4921,
  "ith": 6837,
  "iti": 10605,
  "itimeDom": 16780,
  "itter": 16436,
  "ity": 10606,
  "ive": 8648,
  "iz": 10825,
  "ization": 16820,
  "k": 70,
  "kes": 10827,
  "ks": 10826,
  "l": 71,
  "lat": 10830,
  "lation": 10832,
  "lcom": 10833,
  "le": 10828,
  "lect": 8650,
  "let": 10834,
  "li": 8649,
  "llect": 10835,
  "lo": 7527,
  "lom": 10831,
  "lotter": 16663,
  "ly": 10829,
  "m": 72,
  "ma": 6271,
  "mainal": 16558,
  "mainaligopi": 16954,
  "man": 10848,
  "me": 7528,
  "meDom": 16664,
  "meMr": 16665,
  "mediation": 16666,
  "more": 8654,
  "mp": 10836,
  "mà¤¦": 8652,
  "mà¤¨": 2575,
  "mà¤¨à¤ķ": 10841,
  "mà¤ª": 10838,
  "mà¤®": 5494,
  "mà¤¯": 7529,
  "mà¤°": 8651,
  "mà¤²": 2650,
  "mà¤²à¤¨": 10845,
  "mà¤²à¤¬": 10844,
  "mà¤²à¤®": 10843,
  "mà¤²à¤ķ": 8653,
  "mà¤¸": 10837,
  "mà¤¸à¤®": 10842,
  "mà¤¸à¤²": 4922,
  "mà¤¹à¤°": 5495,
  "mà¤Ľ": 10839,
  "mà¤ľà¤¸": 10846,
  "mà¤Ń": 10840,
  "mà¤Ńà¤¦": 10847,
  "n": 73,
  "nal": 10851,
  "nation": 10852,
  "national": 16821,
  "nav": 10853,
  "nep": 6272,
  "nepembassy": 10646,
  "no": 8655,
  "not": 10694,
  "np": 10849,
  "nt": 8656,
  "nà¤¨à¤µ": 10850,
  "o": 74,
  "of": 5823,
  "okes": 10858,
  "ol": 8657,
  "om": 5202,
  "on": 3901,
  "ontin": 16298,
  "ool": 10855,
  "ooper": 10857,
  "op": 6273,
  "oper": 10647,
  "opi": 16559,
  "or": 3902,
  "orce": 16299,
  "ore": 7484,
  "org": 7485,
  "ority": 16300,
  "ort": 8577,
  "other": 10856,
  "ow": 10854,
  "p": 75,
  "pass": 8658,
  "pec": 10860,
  "per": 10859,
  "person": 16822,
  "pet": 10862,
  "plom": 10863,
  "plomacy": 16824,
  "port": 8659,
  "pp": 7530,
  "prad": 10861,
  "pradeshs": 16823,
  "pradeshsabha": 16995,
  "r": 76,
  "racy": 10867,
  "rad": 7531,
  "rade": 10677,
  "ration": 8660,
  "re": 5824,
  "rep": 10864,
  "resen": 16520,
  "rgan": 10868,
  "ri": 6838,
  "riend": 10661,
  "riends": 16791,
  "riority": 16599,
  "riti": 10865,
  "roper": 10866,
  "s": 77,
  "san": 10871,
  "sen": 10870,
  "send": 10872,
  "sive": 10873,
  "son": 10869,
  "st": 6839,
  "state": 16600,
  "t": 78,
  "tGu": 10881,
  "tac": 10879,
  "te": 7532,
  "ted": 16667,
  "teen": 16668,
  "tellect": 16669,
  "ter": 6840,
  "th": 3721,
  "ther": 10554,
  "tin": 10877,
  "tp": 8661,
  "tration": 10880,
  "tter": 10878,
  "ttp": 8662,
  "tu": 10874,
  "tw": 10875,
  "twitter": 16825,
  "ty": 10876,
  "u": 79,
  "uJ": 7533,
  "ual": 10883,
  "ue": 10882,
  "uk": 7534,
  "ulat": 10885,
  "ulative": 16826,
  "ump": 10886,
  "unt": 10884,
  "ur": 8663,
  "urnal": 16719,
  "usan": 10887,
  "utu": 10888,
  "v": 80,
  "ve": 7535,
  "vis": 8664,
  "vit": 10889,
  "w": 81,
  "wor": 10890,
  "ww": 5825,
  "www": 10634,
  "x": 82,
  "y": 83,
  "year": 8665,
  "z": 84,
  "{": 85,
  "|": 86,
  "~": 87,
  "¡": 88,
  "¢": 89,
  "£": 90,
  "¤": 91,
  "¥": 92,
  "¦": 93,
  "§": 94,
  "§§": 10891,
  "¨": 95,
  "©": 96,
  "ª": 97,
  "«": 98,
  "¬": 99,
  "®": 100,
  "¯": 101,
  "°": 102,
  "±": 103,
  "²": 104,
  "µ": 105,
  "¶": 106,
  "·": 107,
  "¸": 108,
  "¹": 109,
  "º": 110,
  "ºà¥ģ": 8666,
  "ºà¥ĭ": 7536,
  "¼": 111,
  "¾": 112,
  "¿": 113,
  "Â": 114,
  "Â¥": 663,
  "Â¥à¥ģ": 14346,
  "Â«": 1993,
  "Â«à¤¾": 15764,
  "Â«à¥ĩ": 15766,
  "Â«à¥ĭ": 6245,
  "Â«à¥į": 15765,
  "Â¬": 5826,
  "Â¬)": 10635,
  "Âģ": 10892,
  "Âį": 10893,
  "ÂŃ": 4923,
  "ÂŃ)": 10607,
  "ÂŃÂŃ)": 10608,
  "Ã": 115,
  "Ã·": 764,
  "ÃĪ": 6274,
  "ÃĪà¤ªà¤Ľ": 16560,
  "ÃĪà¤¯à¤²": 16561,
  "ÃĴ": 8667,
  "Ãľ": 10894,
  "Ãŀ": 6841,
  "Å": 116,
  "ÅĤ": 10895,
  "ÅĴ": 1432,
  "Åĵ": 3425,
  "Åĵà¤¯": 3493,
  "Ì": 117,
  "Ì¸": 10896,
  "à": 118,
  "à¤": 155,
  "à¤¡": 217,
  "à¤¡à¤¡": 2886,
  "à¤¡à¤£": 9225,
  "à¤¡à¤¤": 1660,
  "à¤¡à¤¤à¤°": 12218,
  "à¤¡à¤¥": 12213,
  "à¤¡à¤¦": 2145,
  "à¤¡à¤§": 4633,
  "à¤¡à¤¨": 1004,
  "à¤¡à¤¨à¤¦": 7854,
  "à¤¡à¤¨à¤ªà¤Ľ": 14947,
  "à¤¡à¤¨à¤¬": 9230,
  "à¤¡à¤¨à¤®": 2198,
  "à¤¡à¤¨à¤°": 12229,
  "à¤¡à¤¨à¤²": 3190,
  "à¤¡à¤¨à¤µ": 4047,
  "à¤¡à¤¨à¤¸": 2508,
  "à¤¡à¤¨à¤ķ": 2302,
  "à¤¡à¤¨à¤Ńà¤¨": 14948,
  "à¤¡à¤ª": 2047,
  "à¤¡à¤ªà¤¤": 5002,
  "à¤¡à¤ªà¤¥": 12239,
  "à¤¡à¤ªà¤¥à¤®": 15806,
  "à¤¡à¤ªà¤¬": 7046,
  "à¤¡à¤ªà¤®": 4470,
  "à¤¡à¤ªà¤°": 3137,
  "à¤¡à¤ªà¤ķ": 9227,
  "à¤¡à¤ªà¤Ľ": 7851,
  "à¤¡à¤«": 1186,
  "à¤¡à¤¬": 1080,
  "à¤¡à¤¬à¤¡": 8396,
  "à¤¡à¤¬à¤¨": 12221,
  "à¤¡à¤¬à¤®": 12236,
  "à¤¡à¤¬à¤°": 5959,
  "à¤¡à¤¬à¤²": 4321,
  "à¤¡à¤¬à¤²à¤®": 10200,
  "à¤¡à¤¬à¤²à¤²": 15051,
  "à¤¡à¤¬à¤¹": 12235,
  "à¤¡à¤¬à¤ķ": 15050,
  "à¤¡à¤®": 600,
  "à¤¡à¤®à¤£": 7285,
  "à¤¡à¤®à¤§": 6128,
  "à¤¡à¤®à¤¨": 12227,
  "à¤¡à¤®à¤ªà¤Ľ": 14189,
  "à¤¡à¤®à¤®": 9228,
  "à¤¡à¤®à¤°": 4693,
  "à¤¡à¤®à¤²": 7853,
  "à¤¡à¤®à¤¸à¤®": 14188,
  "à¤¡à¤®à¤¹à¤°": 14187,
  "à¤¡à¤®à¤ķ": 3247,
  "à¤¡à¤®à¤Ľ": 7284,
  "à¤¡à¤®à¤ľà¤¸": 14190,
  "à¤¡à¤¯": 4798,
  "à¤¡à¤¯à¤¤": 12216,
  "à¤¡à¤¯à¤¨": 2421,
  "à¤¡à¤¯à¤¨à¤®à¤¨": 6822,
  "à¤¡à¤¯à¤¨à¤¸": 16004,
  "à¤¡à¤¯à¤¨à¤ķ": 9233,
  "à¤¡à¤¯à¤¯à¤¨": 12234,
  "à¤¡à¤¯à¤²": 12224,
  "à¤¡à¤°": 858,
  "à¤¡à¤°à¤ª": 12233,
  "à¤¡à¤°à¤ªà¤Ľ": 14703,
  "à¤¡à¤°à¤«": 14702,
  "à¤¡à¤°à¤¬": 5958,
  "à¤¡à¤°à¤®": 3519,
  "à¤¡à¤°à¤®à¤§": 12247,
  "à¤¡à¤°à¤²": 2487,
  "à¤¡à¤°à¤²à¤Ĺ": 12245,
  "à¤¡à¤°à¤µ": 12222,
  "à¤¡à¤°à¤¶": 4799,
  "à¤¡à¤°à¤¶à¤Ł": 10598,
  "à¤¡à¤°à¤¶à¤Łà¤®": 10599,
  "à¤¡à¤°à¤¶à¤Łà¤¸": 6823,
  "à¤¡à¤°à¤¶à¤Łà¤ķ": 16419,
  "à¤¡à¤°à¤¸": 2968,
  "à¤¡à¤°à¤¸à¤¨": 8548,
  "à¤¡à¤°à¤¸à¤¨à¤¬": 16163,
  "à¤¡à¤°à¤¸à¤¨à¤²": 6803,
  "à¤¡à¤°à¤¸à¤¨à¤ķ": 10520,
  "à¤¡à¤°à¤¸à¤Łà¤®": 10521,
  "à¤¡à¤°à¤¸à¤Łà¤¸": 8550,
  "à¤¡à¤°à¤¸à¤Łà¤ķ": 8549,
  "à¤¡à¤°à¤¹à¤°": 5293,
  "à¤¡à¤°à¤ħà¤¨": 10090,
  "à¤¡à¤°à¤ķ": 2486,
  "à¤¡à¤°à¤ķà¤ķ": 16044,
  "à¤¡à¤°à¤Ĺ": 10089,
  "à¤¡à¤²": 695,
  "à¤¡à¤²à¤¬": 4319,
  "à¤¡à¤²à¤®": 2199,
  "à¤¡à¤²à¤°": 7310,
  "à¤¡à¤²à¤°à¤²": 9993,
  "à¤¡à¤²à¤°à¤ķ": 14407,
  "à¤¡à¤²à¤²": 2323,
  "à¤¡à¤²à¤¸": 3847,
  "à¤¡à¤²à¤¸à¤®": 14408,
  "à¤¡à¤²à¤¸à¤¹": 14411,
  "à¤¡à¤²à¤¹à¤°": 4878,
  "à¤¡à¤²à¤ħà¤¨": 14410,
  "à¤¡à¤²à¤ķ": 1811,
  "à¤¡à¤²à¤Ĺ": 4320,
  "à¤¡à¤²à¤Łà¤¨à¤ķ": 14412,
  "à¤¡à¤²à¤Ńà¤¨": 14409,
  "à¤¡à¤µ": 1720,
  "à¤¡à¤µà¤¨": 12226,
  "à¤¡à¤µà¤®": 12228,
  "à¤¡à¤µà¤¯": 9229,
  "à¤¡à¤µà¤¯à¤°": 15574,
  "à¤¡à¤µà¤¯à¤°à¤ķ": 10706,
  "à¤¡à¤µà¤°": 12225,
  "à¤¡à¤µà¤¹à¤°": 12241,
  "à¤¡à¤µà¤ķ": 5292,
  "à¤¡à¤¶": 5956,
  "à¤¡à¤¶à¤°à¤®": 16533,
  "à¤¡à¤¶à¤°à¤¸": 16534,
  "à¤¡à¤·": 7849,
  "à¤¡à¤¸": 1115,
  "à¤¡à¤¸à¤¨": 7852,
  "à¤¡à¤¸à¤¨à¤ª": 12251,
  "à¤¡à¤¸à¤®": 2967,
  "à¤¡à¤¸à¤°à¤²": 15088,
  "à¤¡à¤¸à¤°à¤ķ": 12237,
  "à¤¡à¤¸à¤µà¤°": 15089,
  "à¤¡à¤¸à¤¸à¤®": 15087,
  "à¤¡à¤¸à¤¹": 5600,
  "à¤¡à¤¸à¤ľ": 8403,
  "à¤¡à¤¹": 2485,
  "à¤¡à¤¹à¤°": 2301,
  "à¤¡à¤¹à¤°à¤®": 10469,
  "à¤¡à¤¹à¤²": 12232,
  "à¤¡à¤¹à¤²à¤®": 4914,
  "à¤¡à¤ħà¤¨": 2927,
  "à¤¡à¤ħà¤ª": 7855,
  "à¤¡à¤ħà¤«": 12243,
  "à¤¡à¤ħà¤²à¤²": 7856,
  "à¤¡à¤Ĩà¤¯à¤²": 12253,
  "à¤¡à¤Ĩà¤°": 9231,
  "à¤¡à¤Ĩà¤ĩà¤Ł": 12250,
  "à¤¡à¤ĩà¤¨à¤®": 12242,
  "à¤¡à¤ĩà¤ª": 12238,
  "à¤¡à¤Ī": 12214,
  "à¤¡à¤ı": 12212,
  "à¤¡à¤ıà¤¸": 12231,
  "à¤¡à¤ıà¤¸à¤ıà¤²": 12249,
  "à¤¡à¤ķ": 430,
  "à¤¡à¤ķà¤ª": 2259,
  "à¤¡à¤ķà¤ªà¤¬": 13621,
  "à¤¡à¤ķà¤ªà¤®": 3471,
  "à¤¡à¤ķà¤ªà¤²": 9723,
  "à¤¡à¤ķà¤ªà¤²à¤Ĺ": 15912,
  "à¤¡à¤ķà¤ªà¤ķ": 2538,
  "à¤¡à¤ķà¤¬": 8144,
  "à¤¡à¤ķà¤°": 9226,
  "à¤¡à¤ķà¤°à¤ªà¤Ľ": 16742,
  "à¤¡à¤ķà¤°à¤¬": 13619,
  "à¤¡à¤ķà¤°à¤²": 8146,
  "à¤¡à¤ķà¤°à¤ķ": 8145,
  "à¤¡à¤ķà¤²": 3316,
  "à¤¡à¤ķà¤¹à¤°": 7229,
  "à¤¡à¤ķà¤ķ": 4634,
  "à¤¡à¤ķà¤Łà¤²": 13620,
  "à¤¡à¤ĸ": 7850,
  "à¤¡à¤ĸà¤£": 12240,
  "à¤¡à¤Ĺ": 5291,
  "à¤¡à¤Ĺà¤°": 12217,
  "à¤¡à¤Ĺà¤²à¤¸": 12252,
  "à¤¡à¤ĺà¤Ł": 6449,
  "à¤¡à¤ļ": 5957,
  "à¤¡à¤ļà¤¡": 12248,
  "à¤¡à¤ļà¤¢": 16535,
  "à¤¡à¤Ľ": 9224,
  "à¤¡à¤Ľà¤¨": 12220,
  "à¤¡à¤ľ": 2610,
  "à¤¡à¤ľà¤¤": 9232,
  "à¤¡à¤ľà¤®": 12230,
  "à¤¡à¤ľà¤¸": 5599,
  "à¤¡à¤Ŀ": 12219,
  "à¤¡à¤Ł": 5001,
  "à¤¡à¤Łà¤¨à¤ķ": 12244,
  "à¤¡à¤Łà¤ķ": 12223,
  "à¤¡à¤Łà¤ķà¤®": 12246,
  "à¤¡à¤Łà¤ķà¤®à¤¬": 16881,
  "à¤¡à¤ł": 12215,
  "à¤¡à¤Ń": 2558,
  "à¤¡à¤Ńà¤¨": 2584,
  "à¤¢": 265,
  "à¤¢à¤¡": 12743,
  "à¤¢à¤¤": 3198,
  "à¤¢à¤¥": 9406,
  "à¤¢à¤¦": 6506,
  "à¤¢à¤¨": 9403,
  "à¤¢à¤ªà¤¢": 12745,
  "à¤¢à¤ªà¤¢à¤¬": 16892,
  "à¤¢à¤¬": 12742,
  "à¤¢à¤®": 12741,
  "à¤¢à¤¯": 3199,
  "à¤¢à¤°": 12740,
  "à¤¢à¤²": 4064,
  "à¤¢à¤²à¤ªà¤²": 10575,
  "à¤¢à¤µ": 7962,
  "à¤¢à¤¸": 9404,
  "à¤¢à¤¸à¤®": 12744,
  "à¤¢à¤¸à¤¯à¤ķ": 12746,
  "à¤¢à¤ķ": 5324,
  "à¤¢à¤Ĺ": 9405,
  "à¤£": 211,
  "à¤£à¤¢": 7026,
  "à¤£à¤¢à¤²": 12099,
  "à¤£à¤£à¤®": 12091,
  "à¤£à¤¤": 1128,
  "à¤£à¤¤à¤¤": 12090,
  "à¤£à¤¤à¤¯": 4710,
  "à¤£à¤¤à¤°": 3594,
  "à¤£à¤¦": 3593,
  "à¤£à¤¦à¤¤": 12095,
  "à¤£à¤§": 4991,
  "à¤£à¤¨": 1077,
  "à¤£à¤¨à¤¨": 12084,
  "à¤£à¤¨à¤®": 9170,
  "à¤£à¤¨à¤Ĺà¤°": 3244,
  "à¤£à¤¨à¤Ĺà¤°à¤¦": 16212,
  "à¤£à¤¨à¤Ĺà¤°à¤®": 10198,
  "à¤£à¤¨à¤Ĺà¤°à¤ķ": 10199,
  "à¤£à¤ª": 1621,
  "à¤£à¤ªà¤¤": 1508,
  "à¤£à¤ªà¤¨": 2802,
  "à¤£à¤ªà¤°": 12081,
  "à¤£à¤ªà¤¶": 5590,
  "à¤£à¤ªà¤ĸ": 10345,
  "à¤£à¤ªà¤Ľ": 4182,
  "à¤£à¤ªà¤Ł": 12094,
  "à¤£à¤¬": 1774,
  "à¤£à¤¬à¤®": 12093,
  "à¤£à¤¬à¤¹": 1985,
  "à¤£à¤®": 820,
  "à¤£à¤®à¤§": 9173,
  "à¤£à¤®à¤¨": 12086,
  "à¤£à¤®à¤®": 12087,
  "à¤£à¤¯": 550,
  "à¤£à¤¯à¤¤": 9171,
  "à¤£à¤¯à¤¦": 14074,
  "à¤£à¤¯à¤ª": 4377,
  "à¤£à¤¯à¤ªà¤Ľ": 5733,
  "à¤£à¤¯à¤¬": 2746,
  "à¤£à¤¯à¤¬à¤®": 7273,
  "à¤£à¤¯à¤®": 1852,
  "à¤£à¤¯à¤²": 1656,
  "à¤£à¤¯à¤µ": 4040,
  "à¤£à¤¯à¤¸": 3844,
  "à¤£à¤¯à¤¸à¤®": 5732,
  "à¤£à¤¯à¤¸à¤¹": 12097,
  "à¤£à¤¯à¤¹à¤°": 2747,
  "à¤£à¤¯à¤ħà¤¨": 5131,
  "à¤£à¤¯à¤ħà¤ĺ": 14076,
  "à¤£à¤¯à¤īà¤ªà¤°": 14077,
  "à¤£à¤¯à¤ķ": 1919,
  "à¤£à¤¯à¤ķà¤°": 5589,
  "à¤£à¤¯à¤ľà¤¸": 14075,
  "à¤£à¤°": 1452,
  "à¤£à¤°à¤¤": 12080,
  "à¤£à¤°à¤®": 9168,
  "à¤£à¤°à¤¹à¤°": 12085,
  "à¤£à¤²": 1209,
  "à¤£à¤²à¤Ĺ": 5940,
  "à¤£à¤µ": 1399,
  "à¤£à¤µà¤¤": 7027,
  "à¤£à¤µà¤°": 9172,
  "à¤£à¤µà¤¹": 9175,
  "à¤£à¤µà¤ķ": 12083,
  "à¤£à¤¶": 9167,
  "à¤£à¤¶à¤®à¤¶": 4793,
  "à¤£à¤¸": 918,
  "à¤£à¤¸à¤«à¤²à¤¤": 14827,
  "à¤£à¤¸à¤®": 2965,
  "à¤£à¤¸à¤°à¤¸à¤«": 14828,
  "à¤£à¤¸à¤°à¤¹": 14826,
  "à¤£à¤¸à¤¶": 14825,
  "à¤£à¤¸à¤¹": 4792,
  "à¤£à¤¸à¤¹à¤®à¤¤": 16418,
  "à¤£à¤¸à¤¹à¤¯": 12100,
  "à¤£à¤¸à¤Ń": 6434,
  "à¤£à¤¹": 7819,
  "à¤£à¤¹à¤°": 3313,
  "à¤£à¤ħà¤¨": 5939,
  "à¤£à¤ħà¤Ĺ": 12096,
  "à¤£à¤ħà¤ĺ": 12089,
  "à¤£à¤īà¤¦à¤¯": 12101,
  "à¤£à¤Ķà¤·à¤§": 12098,
  "à¤£à¤ķ": 570,
  "à¤£à¤ķà¤°": 7822,
  "à¤£à¤ķà¤²": 12082,
  "à¤£à¤Ĺ": 4039,
  "à¤£à¤Ĺà¤£": 9176,
  "à¤£à¤Ĺà¤¨": 12092,
  "à¤£à¤Ĺà¤°": 7821,
  "à¤£à¤ĺ": 5938,
  "à¤£à¤ļ": 12078,
  "à¤£à¤ļà¤£": 16877,
  "à¤£à¤ļà¤¨": 2803,
  "à¤£à¤ļà¤°": 9174,
  "à¤£à¤Ľ": 12077,
  "à¤£à¤ľ": 7820,
  "à¤£à¤ľà¤¨": 9169,
  "à¤£à¤ľà¤¸": 12088,
  "à¤£à¤ľà¤Ļ": 6435,
  "à¤£à¤Ń": 12079,
  "à¤£à¤Ńà¤¨": 6433,
  "à¤£à¤Ńà¤ķ": 7028,
  "à¤¤": 168,
  "à¤¤à¤¡": 2522,
  "à¤¤à¤¡à¤¸à¤®": 16052,
  "à¤¤à¤£": 5227,
  "à¤¤à¤¤": 749,
  "à¤¤à¤¤à¤¨": 11176,
  "à¤¤à¤¤à¤°": 5228,
  "à¤¤à¤¤à¤²": 11177,
  "à¤¤à¤¤à¤µà¤°à¤¬": 14526,
  "à¤¤à¤¤à¤µà¤°à¤²": 6894,
  "à¤¤à¤¥": 3126,
  "à¤¤à¤¥à¤²": 4597,
  "à¤¤à¤¦": 1636,
  "à¤¤à¤¦à¤°": 11179,
  "à¤¤à¤¦à¤¶à¤ķ": 15534,
  "à¤¤à¤§": 6304,
  "à¤¤à¤§à¤®à¤¨": 10650,
  "à¤¤à¤§à¤°": 11181,
  "à¤¤à¤¨": 359,
  "à¤¤à¤¨à¤¤à¤°": 9611,
  "à¤¤à¤¨à¤¦": 9610,
  "à¤¤à¤¨à¤§": 6063,
  "à¤¤à¤¨à¤ª": 3392,
  "à¤¤à¤¨à¤ªà¤¶": 9613,
  "à¤¤à¤¨à¤ªà¤Ľ": 3206,
  "à¤¤à¤¨à¤¬": 3873,
  "à¤¤à¤¨à¤¬à¤®": 13315,
  "à¤¤à¤¨à¤®": 2271,
  "à¤¤à¤¨à¤®à¤¨à¤¨": 6796,
  "à¤¤à¤¨à¤²": 2041,
  "à¤¤à¤¨à¤µ": 8082,
  "à¤¤à¤¨à¤¶": 3025,
  "à¤¤à¤¨à¤¸": 3608,
  "à¤¤à¤¨à¤¸à¤®": 13310,
  "à¤¤à¤¨à¤¸à¤¹": 13314,
  "à¤¤à¤¨à¤¹": 13309,
  "à¤¤à¤¨à¤¹à¤°": 5078,
  "à¤¤à¤¨à¤ħà¤¨": 13312,
  "à¤¤à¤¨à¤ħà¤ĺ": 13313,
  "à¤¤à¤¨à¤ķ": 1175,
  "à¤¤à¤¨à¤ķà¤²": 15174,
  "à¤¤à¤¨à¤Ĺà¤°": 7189,
  "à¤¤à¤¨à¤Ĺà¤°à¤ķ": 9612,
  "à¤¤à¤¨à¤Ńà¤¨": 13311,
  "à¤¤à¤ª": 802,
  "à¤¤à¤ªà¤¤": 1966,
  "à¤¤à¤ªà¤¨": 11174,
  "à¤¤à¤ªà¤°": 5522,
  "à¤¤à¤ªà¤°à¤¤": 14595,
  "à¤¤à¤ªà¤°à¤ķ": 10060,
  "à¤¤à¤ªà¤¸": 14594,
  "à¤¤à¤ªà¤Ľ": 2722,
  "à¤¤à¤ªà¤Łà¤®": 10061,
  "à¤¤à¤«": 3227,
  "à¤¤à¤¬": 678,
  "à¤¤à¤¬à¤¦": 14385,
  "à¤¤à¤¬à¤®": 8282,
  "à¤¤à¤¬à¤¸": 14384,
  "à¤¤à¤¬à¤¹": 3074,
  "à¤¤à¤¬à¤ļà¤ª": 14386,
  "à¤¤à¤¬à¤Ŀ": 9985,
  "à¤¤à¤®": 396,
  "à¤¤à¤®à¤£": 13499,
  "à¤¤à¤®à¤§": 2517,
  "à¤¤à¤®à¤¨": 5694,
  "à¤¤à¤®à¤¬": 6593,
  "à¤¤à¤®à¤®": 13498,
  "à¤¤à¤®à¤¯": 7207,
  "à¤¤à¤®à¤°": 13497,
  "à¤¤à¤®à¤²": 2059,
  "à¤¤à¤®à¤²à¤Ĺ": 13502,
  "à¤¤à¤®à¤¸": 4228,
  "à¤¤à¤®à¤¹": 8122,
  "à¤¤à¤®à¤¹à¤¨": 13501,
  "à¤¤à¤®à¤¹à¤°": 13500,
  "à¤¤à¤®à¤ķ": 2829,
  "à¤¤à¤¯": 2436,
  "à¤¤à¤¯à¤·": 16013,
  "à¤¤à¤¯à¤¹": 8777,
  "à¤¤à¤°": 295,
  "à¤¤à¤°à¤£": 619,
  "à¤¤à¤°à¤£à¤¤à¤°": 14219,
  "à¤¤à¤°à¤£à¤¦": 14217,
  "à¤¤à¤°à¤£à¤ªà¤Ľ": 14218,
  "à¤¤à¤°à¤£à¤¬": 9928,
  "à¤¤à¤°à¤£à¤®": 2227,
  "à¤¤à¤°à¤£à¤²": 5416,
  "à¤¤à¤°à¤£à¤²à¤Ĺ": 14221,
  "à¤¤à¤°à¤£à¤¸": 6669,
  "à¤¤à¤°à¤£à¤¸à¤®": 9929,
  "à¤¤à¤°à¤£à¤¸à¤¹": 14222,
  "à¤¤à¤°à¤£à¤ķ": 1497,
  "à¤¤à¤°à¤£à¤ķà¤°": 14220,
  "à¤¤à¤°à¤¤": 1068,
  "à¤¤à¤°à¤¤à¤°": 4394,
  "à¤¤à¤°à¤¤à¤°à¤¤": 15021,
  "à¤¤à¤°à¤¤à¤Ĺà¤¤": 15022,
  "à¤¤à¤°à¤¦": 1683,
  "à¤¤à¤°à¤¦à¤ķ": 12955,
  "à¤¤à¤°à¤¨": 5056,
  "à¤¤à¤°à¤¨à¤Ĺà¤°": 12956,
  "à¤¤à¤°à¤¨à¤Ĺà¤°à¤ª": 8016,
  "à¤¤à¤°à¤ª": 2387,
  "à¤¤à¤°à¤ªà¤¨": 12953,
  "à¤¤à¤°à¤ªà¤°": 12950,
  "à¤¤à¤°à¤ªà¤¶": 4835,
  "à¤¤à¤°à¤ªà¤Ľ": 5653,
  "à¤¤à¤°à¤ªà¤Ł": 9480,
  "à¤¤à¤°à¤¬": 2083,
  "à¤¤à¤°à¤¬à¤¹à¤¤": 10435,
  "à¤¤à¤°à¤®": 976,
  "à¤¤à¤°à¤®à¤¨": 8370,
  "à¤¤à¤°à¤®à¤¨à¤²": 14907,
  "à¤¤à¤°à¤®à¤¨à¤ķ": 10146,
  "à¤¤à¤°à¤®à¤¹": 10145,
  "à¤¤à¤°à¤¯": 7138,
  "à¤¤à¤°à¤°": 3258,
  "à¤¤à¤°à¤²": 2042,
  "à¤¤à¤°à¤²à¤¤": 4907,
  "à¤¤à¤°à¤µ": 2846,
  "à¤¤à¤°à¤¶": 9475,
  "à¤¤à¤°à¤¸": 4498,
  "à¤¤à¤°à¤¸à¤§": 16378,
  "à¤¤à¤°à¤¸à¤®": 3143,
  "à¤¤à¤°à¤¸à¤°à¤ķ": 9479,
  "à¤¤à¤°à¤¸à¤¹": 9478,
  "à¤¤à¤°à¤¹": 3000,
  "à¤¤à¤°à¤¹à¤°": 9476,
  "à¤¤à¤°à¤ħà¤¨": 6533,
  "à¤¤à¤°à¤ħà¤ĺ": 5654,
  "à¤¤à¤°à¤Ĩ": 7141,
  "à¤¤à¤°à¤Ĩà¤¬à¤¦": 7515,
  "à¤¤à¤°à¤īà¤¨": 9477,
  "à¤¤à¤°à¤ķ": 864,
  "à¤¤à¤°à¤ķà¤¨": 8333,
  "à¤¤à¤°à¤ķà¤¬": 14718,
  "à¤¤à¤°à¤ķà¤²": 4260,
  "à¤¤à¤°à¤ķà¤²à¤¹": 14721,
  "à¤¤à¤°à¤ķà¤²à¤Ĺ": 14720,
  "à¤¤à¤°à¤ķà¤¸": 14717,
  "à¤¤à¤°à¤ķà¤¹à¤°": 7350,
  "à¤¤à¤°à¤ķà¤ķ": 5757,
  "à¤¤à¤°à¤ķà¤ķà¤°": 14719,
  "à¤¤à¤°à¤Ĺ": 6028,
  "à¤¤à¤°à¤Ĺà¤¤": 5343,
  "à¤¤à¤°à¤Ĺà¤¤à¤ķ": 8015,
  "à¤¤à¤°à¤Ĺà¤¯": 4836,
  "à¤¤à¤°à¤ĺ": 7139,
  "à¤¤à¤°à¤Ļ": 12951,
  "à¤¤à¤°à¤ľ": 5652,
  "à¤¤à¤°à¤ľà¤¸": 12954,
  "à¤¤à¤°à¤ŀ": 12952,
  "à¤¤à¤°à¤Ńà¤¨": 7140,
  "à¤¤à¤²": 431,
  "à¤¤à¤²à¤¤": 7230,
  "à¤¤à¤²à¤¨": 6891,
  "à¤¤à¤²à¤¨à¤¬": 11191,
  "à¤¤à¤²à¤ª": 9724,
  "à¤¤à¤²à¤¬": 11175,
  "à¤¤à¤²à¤¬à¤¨": 13625,
  "à¤¤à¤²à¤¬à¤²": 11188,
  "à¤¤à¤²à¤®": 3228,
  "à¤¤à¤²à¤²": 5861,
  "à¤¤à¤²à¤µ": 13622,
  "à¤¤à¤²à¤¸à¤®": 13624,
  "à¤¤à¤²à¤¹à¤°": 6610,
  "à¤¤à¤²à¤¹à¤°à¤ķ": 13628,
  "à¤¤à¤²à¤ħà¤¨": 13627,
  "à¤¤à¤²à¤ķ": 4151,
  "à¤¤à¤²à¤ĸ": 13623,
  "à¤¤à¤²à¤Ĺ": 3545,
  "à¤¤à¤²à¤Ĺà¤¤": 13626,
  "à¤¤à¤²à¤ļ": 3613,
  "à¤¤à¤µ": 612,
  "à¤¤à¤µà¤¨": 1507,
  "à¤¤à¤µà¤¨à¤ªà¤Ľ": 15454,
  "à¤¤à¤µà¤¨à¤¬": 7424,
  "à¤¤à¤µà¤¨à¤®": 2571,
  "à¤¤à¤µà¤¨à¤²": 6129,
  "à¤¤à¤µà¤¨à¤²à¤Ĺ": 14211,
  "à¤¤à¤µà¤¨à¤¸": 15453,
  "à¤¤à¤µà¤¨à¤ķ": 1965,
  "à¤¤à¤µà¤®": 1327,
  "à¤¤à¤µà¤°": 6305,
  "à¤¤à¤µà¤°à¤£": 8779,
  "à¤¤à¤µà¤°à¤£à¤®": 11190,
  "à¤¤à¤µà¤°à¤¬": 8783,
  "à¤¤à¤µà¤°à¤®": 9921,
  "à¤¤à¤µà¤°à¤²": 6130,
  "à¤¤à¤µà¤²": 5523,
  "à¤¤à¤µà¤²à¤Ĺ": 11192,
  "à¤¤à¤µà¤¹": 14210,
  "à¤¤à¤µà¤ķ": 8776,
  "à¤¤à¤µà¤Ł": 2120,
  "à¤¤à¤¶": 4006,
  "à¤¤à¤¶à¤®": 11178,
  "à¤¤à¤¶à¤®à¤¶": 6307,
  "à¤¤à¤·": 7605,
  "à¤¤à¤¸": 1136,
  "à¤¤à¤¸à¤®": 1780,
  "à¤¤à¤¸à¤®à¤¯à¤Ńà¤¨": 15624,
  "à¤¤à¤¸à¤®à¤¸": 15623,
  "à¤¤à¤¸à¤®à¤ķ": 7611,
  "à¤¤à¤¸à¤°": 7607,
  "à¤¤à¤¸à¤°à¤®": 15134,
  "à¤¤à¤¸à¤°à¤¸": 15135,
  "à¤¤à¤¸à¤°à¤ķ": 11183,
  "à¤¤à¤¸à¤¶à¤ķ": 15136,
  "à¤¤à¤¸à¤¹": 3428,
  "à¤¤à¤¸à¤ŀ": 3715,
  "à¤¤à¤¹": 1158,
  "à¤¤à¤¹à¤¤": 2231,
  "à¤¤à¤¹à¤¤à¤®": 2993,
  "à¤¤à¤¹à¤¤à¤ķ": 2718,
  "à¤¤à¤¹à¤¤à¤Ń": 15902,
  "à¤¤à¤¹à¤®": 7609,
  "à¤¤à¤¹à¤°": 1005,
  "à¤¤à¤¹à¤°à¤ķ": 15159,
  "à¤¤à¤¹à¤¸à¤®": 6212,
  "à¤¤à¤¹à¤Ł": 2072,
  "à¤¤à¤¹à¤Łà¤¤": 15160,
  "à¤¤à¤¹à¤Łà¤¤à¤°": 15811,
  "à¤¤à¤¹à¤Łà¤¬": 10231,
  "à¤¤à¤¹à¤Łà¤®": 4125,
  "à¤¤à¤¹à¤Łà¤²": 3554,
  "à¤¤à¤¹à¤Łà¤ķ": 2393,
  "à¤¤à¤¹à¤Łà¤Ńà¤¨": 15812,
  "à¤¤à¤ħà¤§": 8780,
  "à¤¤à¤ħà¤¨": 3127,
  "à¤¤à¤ħà¤ª": 11186,
  "à¤¤à¤ħà¤²": 4940,
  "à¤¤à¤ħà¤ĺ": 8778,
  "à¤¤à¤ħà¤Ń": 11189,
  "à¤¤à¤Ĩà¤«": 11182,
  "à¤¤à¤ĭà¤·": 11193,
  "à¤¤à¤ıà¤ķ": 8773,
  "à¤¤à¤ĵà¤Ł": 6893,
  "à¤¤à¤ķ": 341,
  "à¤¤à¤ķà¤£": 6053,
  "à¤¤à¤ķà¤¤": 6051,
  "à¤¤à¤ķà¤¦": 9570,
  "à¤¤à¤ķà¤¨": 9569,
  "à¤¤à¤ķà¤ª": 8063,
  "à¤¤à¤ķà¤¬": 6052,
  "à¤¤à¤ķà¤®": 1730,
  "à¤¤à¤ķà¤®à¤§": 15577,
  "à¤¤à¤ķà¤°": 1999,
  "à¤¤à¤ķà¤²": 1738,
  "à¤¤à¤ķà¤¸": 6568,
  "à¤¤à¤ķà¤¸à¤®": 8064,
  "à¤¤à¤ķà¤¹à¤°": 3697,
  "à¤¤à¤ķà¤ķ": 1480,
  "à¤¤à¤ķà¤Ń": 13219,
  "à¤¤à¤ĸ": 4284,
  "à¤¤à¤ĸà¤¤": 11187,
  "à¤¤à¤ĸà¤°": 11180,
  "à¤¤à¤Ĺ": 3651,
  "à¤¤à¤Ĺà¤¢": 5229,
  "à¤¤à¤Ĺà¤£": 8781,
  "à¤¤à¤Ĺà¤¤": 2194,
  "à¤¤à¤Ĺà¤¤à¤§": 15889,
  "à¤¤à¤Ĺà¤¤à¤ķ": 6306,
  "à¤¤à¤Ĺà¤°": 3229,
  "à¤¤à¤Ĺà¤¸": 11185,
  "à¤¤à¤ĺ": 6890,
  "à¤¤à¤ļ": 1520,
  "à¤¤à¤ļà¤¨": 8775,
  "à¤¤à¤ļà¤°": 2500,
  "à¤¤à¤ļà¤°à¤¦": 15467,
  "à¤¤à¤ļà¤°à¤®": 8473,
  "à¤¤à¤ļà¤°à¤²": 10327,
  "à¤¤à¤ļà¤°à¤¸à¤®": 8535,
  "à¤¤à¤ļà¤°à¤¹à¤°": 8474,
  "à¤¤à¤ļà¤°à¤ķ": 8472,
  "à¤¤à¤Ľ": 5521,
  "à¤¤à¤Ľà¤¨": 7606,
  "à¤¤à¤ľ": 1671,
  "à¤¤à¤ľà¤¨": 2759,
  "à¤¤à¤ľà¤¨à¤¤": 8782,
  "à¤¤à¤ľà¤¨à¤²": 7610,
  "à¤¤à¤ľà¤¨à¤¹à¤°": 5810,
  "à¤¤à¤ľà¤¨à¤ķ": 6892,
  "à¤¤à¤ľà¤¸": 4939,
  "à¤¤à¤ľà¤Ĺà¤¤": 15553,
  "à¤¤à¤Ŀ": 8774,
  "à¤¤à¤Ł": 5860,
  "à¤¤à¤Łà¤¸": 11184,
  "à¤¤à¤Ń": 2270,
  "à¤¤à¤Ńà¤£": 8520,
  "à¤¤à¤Ńà¤¨": 3731,
  "à¤¤à¤Ńà¤°": 3364,
  "à¤¤à¤Ńà¤°à¤®": 15921,
  "à¤¤à¤Ńà¤°à¤ķ": 15920,
  "à¤¤à¤Ńà¤µà¤¨": 15923,
  "à¤¤à¤Ńà¤ĩà¤°à¤¹à¤¨": 15927,
  "à¤¤à¤Ńà¤ĩà¤¸à¤ķ": 15924,
  "à¤¤à¤Ńà¤ıà¤ªà¤Ľ": 15925,
  "à¤¤à¤Ńà¤ıà¤°": 15922,
  "à¤¤à¤Ńà¤ıà¤¸": 15926,
  "à¤¤à¤Ńà¤ıà¤ķ": 7608,
  "à¤¥": 204,
  "à¤¥à¤¡": 11953,
  "à¤¥à¤¤": 2253,
  "à¤¥à¤¤à¤¨": 899,
  "à¤¥à¤¤à¤ķ": 11961,
  "à¤¥à¤¦": 7789,
  "à¤¥à¤¨": 891,
  "à¤¥à¤¨à¤ª": 11970,
  "à¤¥à¤¨à¤®": 2467,
  "à¤¥à¤¨à¤²": 4458,
  "à¤¥à¤¨à¤¸": 11962,
  "à¤¥à¤¨à¤¸à¤®": 9115,
  "à¤¥à¤¨à¤¸à¤¹": 11974,
  "à¤¥à¤¨à¤¹à¤°": 14778,
  "à¤¥à¤¨à¤ķ": 3445,
  "à¤¥à¤¨à¤Ĺ": 10106,
  "à¤¥à¤¨à¤Ĺà¤°": 11971,
  "à¤¥à¤¨à¤ľ": 10107,
  "à¤¥à¤¨à¤Ńà¤¨": 10108,
  "à¤¥à¤ª": 1705,
  "à¤¥à¤ªà¤¨": 9108,
  "à¤¥à¤ªà¤°": 11954,
  "à¤¥à¤ªà¤°à¤ķ": 5474,
  "à¤¥à¤ªà¤°à¤ķà¤¤": 16490,
  "à¤¥à¤ªà¤Ľ": 11958,
  "à¤¥à¤«": 6418,
  "à¤¥à¤¬": 2557,
  "à¤¥à¤¬à¤¸": 9117,
  "à¤¥à¤¬à¤¹": 9114,
  "à¤¥à¤®": 554,
  "à¤¥à¤®à¤§": 14082,
  "à¤¥à¤®à¤¨": 1198,
  "à¤¥à¤®à¤²": 5584,
  "à¤¥à¤®à¤ķ": 7791,
  "à¤¥à¤¯": 2698,
  "à¤¥à¤°": 1173,
  "à¤¥à¤°à¤¦": 11959,
  "à¤¥à¤°à¤¨": 11966,
  "à¤¥à¤°à¤¬": 9112,
  "à¤¥à¤°à¤®": 7790,
  "à¤¥à¤°à¤²": 3673,
  "à¤¥à¤°à¤¸à¤ķ": 15172,
  "à¤¥à¤°à¤¹": 11957,
  "à¤¥à¤°à¤ķ": 9107,
  "à¤¥à¤°à¤ĺà¤Ł": 15173,
  "à¤¥à¤²": 710,
  "à¤¥à¤²à¤¤à¤°": 5431,
  "à¤¥à¤²à¤¥": 14448,
  "à¤¥à¤²à¤¦": 6157,
  "à¤¥à¤²à¤¨à¤ľ": 11978,
  "à¤¥à¤²à¤ª": 3976,
  "à¤¥à¤²à¤¬": 2080,
  "à¤¥à¤²à¤®": 1113,
  "à¤¥à¤²à¤®à¤§": 15086,
  "à¤¥à¤²à¤®à¤¯": 15085,
  "à¤¥à¤²à¤¯à¤®": 11969,
  "à¤¥à¤²à¤²": 2629,
  "à¤¥à¤²à¤²à¤Ĺ": 9119,
  "à¤¥à¤²à¤¸": 4628,
  "à¤¥à¤²à¤¸à¤®": 5148,
  "à¤¥à¤²à¤¸à¤¹": 14450,
  "à¤¥à¤²à¤¹à¤°": 2855,
  "à¤¥à¤²à¤ķ": 1590,
  "à¤¥à¤²à¤ķà¤®": 15507,
  "à¤¥à¤²à¤Ĺ": 5585,
  "à¤¥à¤²à¤Ĺà¤¤": 2311,
  "à¤¥à¤²à¤Ĺà¤¤à¤°": 10629,
  "à¤¥à¤²à¤Ń": 8293,
  "à¤¥à¤²à¤Ńà¤¨": 14449,
  "à¤¥à¤µ": 1365,
  "à¤¥à¤µà¤¤": 7792,
  "à¤¥à¤µà¤°": 9110,
  "à¤¥à¤µà¤°à¤¸": 10283,
  "à¤¥à¤µà¤¸": 11956,
  "à¤¥à¤¶": 2215,
  "à¤¥à¤¶à¤¤": 11964,
  "à¤¥à¤¶à¤¤à¤ª": 16876,
  "à¤¥à¤¸": 1910,
  "à¤¥à¤¸à¤®": 5583,
  "à¤¥à¤¸à¤¹": 11968,
  "à¤¥à¤¸à¤ļ": 4985,
  "à¤¥à¤¹": 3754,
  "à¤¥à¤¹à¤°": 3135,
  "à¤¥à¤ħà¤¨": 4175,
  "à¤¥à¤ħà¤Ń": 11972,
  "à¤¥à¤Ĩà¤§": 11975,
  "à¤¥à¤Ĩà¤¶": 11977,
  "à¤¥à¤Ĩà¤īà¤Ł": 11973,
  "à¤¥à¤īà¤ªà¤¯": 11976,
  "à¤¥à¤ı": 11950,
  "à¤¥à¤ıà¤¨": 11963,
  "à¤¥à¤ıà¤ķ": 11951,
  "à¤¥à¤ķ": 810,
  "à¤¥à¤ķà¤¤": 2731,
  "à¤¥à¤ķà¤¦": 14601,
  "à¤¥à¤ķà¤¬": 10062,
  "à¤¥à¤ķà¤®": 9109,
  "à¤¥à¤ķà¤°": 3515,
  "à¤¥à¤ķà¤°à¤¸à¤®": 16255,
  "à¤¥à¤ķà¤²": 3187,
  "à¤¥à¤ķà¤¸": 7793,
  "à¤¥à¤ķà¤¸à¤®": 14603,
  "à¤¥à¤ķà¤¹": 14602,
  "à¤¥à¤ķà¤¹à¤°": 3484,
  "à¤¥à¤ķà¤ķ": 5929,
  "à¤¥à¤ķà¤ľà¤¸": 14604,
  "à¤¥à¤ĸà¤¨": 9118,
  "à¤¥à¤Ĺ": 1572,
  "à¤¥à¤Ĺà¤¤": 9111,
  "à¤¥à¤Ĺà¤¨": 4035,
  "à¤¥à¤Ĺà¤¨à¤®": 10336,
  "à¤¥à¤Ĺà¤¨à¤¸": 15497,
  "à¤¥à¤Ĺà¤¨à¤ķ": 6236,
  "à¤¥à¤ļ": 11952,
  "à¤¥à¤Ľà¤¨": 11960,
  "à¤¥à¤ľ": 7007,
  "à¤¥à¤ľà¤¨": 11955,
  "à¤¥à¤ľà¤®": 11967,
  "à¤¥à¤ľà¤¸": 9113,
  "à¤¥à¤Łà¤¬": 9116,
  "à¤¥à¤Łà¤¬à¤ķ": 10705,
  "à¤¥à¤Ńà¤¨": 4984,
  "à¤¥à¤Ńà¤°": 11965,
  "à¤¦": 176,
  "à¤¦à¤¡": 4951,
  "à¤¦à¤£": 2127,
  "à¤¦à¤¤": 1176,
  "à¤¦à¤¤à¤®": 2357,
  "à¤¦à¤¤à¤°": 5539,
  "à¤¦à¤¤à¤²": 8853,
  "à¤¦à¤¤à¤ķ": 6918,
  "à¤¦à¤¥": 3432,
  "à¤¦à¤¦": 2762,
  "à¤¦à¤¦à¤¨": 11356,
  "à¤¦à¤§": 11347,
  "à¤¦à¤¨": 413,
  "à¤¦à¤¨à¤¤": 13568,
  "à¤¦à¤¨à¤¤à¤°": 7218,
  "à¤¦à¤¨à¤¥": 13570,
  "à¤¦à¤¨à¤¦": 8135,
  "à¤¦à¤¨à¤¨": 5872,
  "à¤¦à¤¨à¤ª": 6603,
  "à¤¦à¤¨à¤ªà¤¤": 7219,
  "à¤¦à¤¨à¤ªà¤Ľ": 5701,
  "à¤¦à¤¨à¤¬": 3787,
  "à¤¦à¤¨à¤®": 1038,
  "à¤¦à¤¨à¤®à¤§": 7376,
  "à¤¦à¤¨à¤°": 13567,
  "à¤¦à¤¨à¤°à¤ª": 13572,
  "à¤¦à¤¨à¤²": 1653,
  "à¤¦à¤¨à¤²à¤Ĺ": 10351,
  "à¤¦à¤¨à¤µ": 13569,
  "à¤¦à¤¨à¤¶": 1426,
  "à¤¦à¤¨à¤¸": 4516,
  "à¤¦à¤¨à¤¸à¤®": 3612,
  "à¤¦à¤¨à¤¹": 6080,
  "à¤¦à¤¨à¤¹à¤°": 3611,
  "à¤¦à¤¨à¤ħà¤¨": 3788,
  "à¤¦à¤¨à¤Ĩà¤ĩà¤«": 13573,
  "à¤¦à¤¨à¤īà¤ªà¤°": 7221,
  "à¤¦à¤¨à¤ķ": 1133,
  "à¤¦à¤¨à¤Ĺà¤°": 9706,
  "à¤¦à¤¨à¤ļ": 13571,
  "à¤¦à¤¨à¤Ńà¤¨": 7220,
  "à¤¦à¤ª": 2043,
  "à¤¦à¤ªà¤¨": 8851,
  "à¤¦à¤ªà¤Ľ": 5538,
  "à¤¦à¤«": 5870,
  "à¤¦à¤¬": 1600,
  "à¤¦à¤¬à¤¢": 15518,
  "à¤¦à¤¬à¤¦": 8856,
  "à¤¦à¤¬à¤²": 6333,
  "à¤¦à¤¬à¤¸": 7645,
  "à¤¦à¤¬à¤¹": 3738,
  "à¤¦à¤¬à¤ķ": 8860,
  "à¤¦à¤¬à¤ļà¤¨": 15519,
  "à¤¦à¤¬à¤ľ": 6923,
  "à¤¦à¤®": 667,
  "à¤¦à¤®à¤¨": 4289,
  "à¤¦à¤®à¤¬": 11363,
  "à¤¦à¤®à¤¬à¤°à¤®": 16853,
  "à¤¦à¤®à¤¯": 8278,
  "à¤¦à¤®à¤²": 11358,
  "à¤¦à¤®à¤ķ": 11353,
  "à¤¦à¤®à¤ķà¤®": 14360,
  "à¤¦à¤¯": 1723,
  "à¤¦à¤¯à¤¤": 8852,
  "à¤¦à¤¯à¤¦": 8859,
  "à¤¦à¤¯à¤¨": 11352,
  "à¤¦à¤¯à¤¬": 8858,
  "à¤¦à¤¯à¤®": 4952,
  "à¤¦à¤¯à¤°": 6921,
  "à¤¦à¤¯à¤²": 5540,
  "à¤¦à¤¯à¤µ": 7644,
  "à¤¦à¤¯à¤¶": 8862,
  "à¤¦à¤¯à¤¸": 6331,
  "à¤¦à¤¯à¤¹à¤°": 8857,
  "à¤¦à¤¯à¤ķ": 5871,
  "à¤¦à¤¯à¤Ĺà¤¤": 15575,
  "à¤¦à¤¯à¤ĺ": 4136,
  "à¤¦à¤°": 522,
  "à¤¦à¤°à¤£": 11348,
  "à¤¦à¤°à¤¤": 2481,
  "à¤¦à¤°à¤¦": 7640,
  "à¤¦à¤°à¤ª": 8218,
  "à¤¦à¤°à¤ªà¤ķ": 14001,
  "à¤¦à¤°à¤¬": 5236,
  "à¤¦à¤°à¤¬à¤¸": 10621,
  "à¤¦à¤°à¤¬à¤ľ": 8863,
  "à¤¦à¤°à¤®": 3003,
  "à¤¦à¤°à¤®à¤£": 11357,
  "à¤¦à¤°à¤²": 2336,
  "à¤¦à¤°à¤²à¤Ĺ": 11373,
  "à¤¦à¤°à¤µ": 6917,
  "à¤¦à¤°à¤¸à¤¨": 11376,
  "à¤¦à¤°à¤¸à¤®": 14000,
  "à¤¦à¤°à¤¸à¤¹": 11372,
  "à¤¦à¤°à¤¹": 4287,
  "à¤¦à¤°à¤¹à¤°": 6332,
  "à¤¦à¤°à¤ķ": 3579,
  "à¤¦à¤°à¤Ĺ": 1676,
  "à¤¦à¤²": 641,
  "à¤¦à¤²à¤®": 4155,
  "à¤¦à¤²à¤¯": 4435,
  "à¤¦à¤²à¤²": 3505,
  "à¤¦à¤²à¤µ": 9946,
  "à¤¦à¤²à¤¹à¤°": 7298,
  "à¤¦à¤²à¤ķ": 4753,
  "à¤¦à¤²à¤Ĺ": 5541,
  "à¤¦à¤²à¤Ŀ": 14286,
  "à¤¦à¤²à¤Ń": 14285,
  "à¤¦à¤µ": 743,
  "à¤¦à¤µà¤¨": 6919,
  "à¤¦à¤µà¤ª": 8854,
  "à¤¦à¤µà¤¬": 10036,
  "à¤¦à¤µà¤®": 11359,
  "à¤¦à¤µà¤°": 11355,
  "à¤¦à¤µà¤²": 1292,
  "à¤¦à¤µà¤²à¤Ĺ": 8438,
  "à¤¦à¤µà¤¸": 5537,
  "à¤¦à¤µà¤¸à¤®": 10038,
  "à¤¦à¤µà¤¸à¤¹": 6924,
  "à¤¦à¤µà¤¹à¤°": 10037,
  "à¤¦à¤µà¤ķ": 2315,
  "à¤¦à¤µà¤ľ": 14517,
  "à¤¦à¤µà¤ľà¤¸": 14519,
  "à¤¦à¤µà¤Ńà¤¨": 14518,
  "à¤¦à¤¶": 2158,
  "à¤¦à¤¶à¤¨": 3294,
  "à¤¦à¤¶à¤¨à¤ªà¤Ľ": 10534,
  "à¤¦à¤¶à¤¨à¤®": 11368,
  "à¤¦à¤¶à¤¨à¤¶": 16216,
  "à¤¦à¤¶à¤¨à¤ķ": 11370,
  "à¤¦à¤¶à¤ª": 11374,
  "à¤¦à¤¶à¤ªà¤Łà¤ķ": 15877,
  "à¤¦à¤¶à¤¬": 11366,
  "à¤¦à¤¶à¤®": 7643,
  "à¤¦à¤¶à¤®à¤¶": 11375,
  "à¤¦à¤¶à¤°à¤¥à¤ľ": 15878,
  "à¤¦à¤¶à¤²": 11364,
  "à¤¦à¤¶à¤µ": 11371,
  "à¤¦à¤¶à¤µà¤°": 15876,
  "à¤¦à¤¶à¤ķ": 7642,
  "à¤¦à¤¶à¤ķà¤ħà¤ĺ": 16691,
  "à¤¦à¤¶à¤Ĺà¤ľ": 10448,
  "à¤¦à¤¶à¤ľà¤¨": 10447,
  "à¤¦à¤¸": 2249,
  "à¤¦à¤¸à¤¤": 8861,
  "à¤¦à¤¸à¤®": 1487,
  "à¤¦à¤¸à¤²": 11354,
  "à¤¦à¤¸à¤¹": 6922,
  "à¤¦à¤¸à¤Ń": 8855,
  "à¤¦à¤¹": 5234,
  "à¤¦à¤¹à¤¡à¤¤": 7501,
  "à¤¦à¤¹à¤°": 2289,
  "à¤¦à¤¹à¤ķ": 11362,
  "à¤¦à¤ħà¤¨": 6920,
  "à¤¦à¤ħà¤°": 11367,
  "à¤¦à¤ĩà¤¸à¤ķ": 11361,
  "à¤¦à¤īà¤¨": 4752,
  "à¤¦à¤ķ": 616,
  "à¤¦à¤ķà¤¤": 2605,
  "à¤¦à¤ķà¤¤à¤²": 9924,
  "à¤¦à¤ķà¤¦à¤²": 14214,
  "à¤¦à¤ķà¤ª": 6131,
  "à¤¦à¤ķà¤ªà¤¦": 9925,
  "à¤¦à¤ķà¤¬": 8249,
  "à¤¦à¤ķà¤®": 7641,
  "à¤¦à¤ķà¤®à¤§": 11377,
  "à¤¦à¤ķà¤°": 4603,
  "à¤¦à¤ķà¤²": 3131,
  "à¤¦à¤ķà¤¸": 5736,
  "à¤¦à¤ķà¤¸à¤®": 9923,
  "à¤¦à¤ķà¤¹à¤°": 4247,
  "à¤¦à¤ķà¤ķ": 4288,
  "à¤¦à¤ķà¤Ł": 9922,
  "à¤¦à¤ķà¤Łà¤²": 14213,
  "à¤¦à¤ĸ": 5235,
  "à¤¦à¤Ĺ": 1816,
  "à¤¦à¤ĺ": 11349,
  "à¤¦à¤Ļ": 11350,
  "à¤¦à¤Ļà¤µ": 6334,
  "à¤¦à¤ļ": 8850,
  "à¤¦à¤ļà¤®": 11365,
  "à¤¦à¤Ľ": 1058,
  "à¤¦à¤Ľà¤¨": 2462,
  "à¤¦à¤ľ": 7639,
  "à¤¦à¤ľà¤¸": 4290,
  "à¤¦à¤Ŀ": 11351,
  "à¤¦à¤Ł": 8849,
  "à¤¦à¤Ń": 2064,
  "à¤¦à¤Ńà¤¨": 4754,
  "à¤¦à¤Ńà¤®": 5873,
  "à¤¦à¤Ńà¤°": 11360,
  "à¤¦à¤Ńà¤²": 11369,
  "à¤¦à¤Ńà¤ıà¤ªà¤Ľ": 15810,
  "à¤§": 198,
  "à¤§à¤¡": 6994,
  "à¤§à¤¤": 660,
  "à¤§à¤¤à¤¨": 11867,
  "à¤§à¤¤à¤°": 6404,
  "à¤§à¤¦": 7770,
  "à¤§à¤¦à¤°": 4625,
  "à¤§à¤¦à¤ķ": 6997,
  "à¤§à¤§à¤°": 5271,
  "à¤§à¤¨": 445,
  "à¤§à¤¨à¤¤": 13683,
  "à¤§à¤¨à¤¤à¤°": 13687,
  "à¤§à¤¨à¤¦": 6614,
  "à¤§à¤¨à¤¨": 11868,
  "à¤§à¤¨à¤ª": 6088,
  "à¤§à¤¨à¤ªà¤¤": 7237,
  "à¤§à¤¨à¤ªà¤Ľ": 3879,
  "à¤§à¤¨à¤¬": 2674,
  "à¤§à¤¨à¤¬à¤¹": 13689,
  "à¤§à¤¨à¤®": 1389,
  "à¤§à¤¨à¤®à¤§": 10291,
  "à¤§à¤¨à¤°à¤¹": 13685,
  "à¤§à¤¨à¤²": 1276,
  "à¤§à¤¨à¤²à¤Ĺ": 4896,
  "à¤§à¤¨à¤²à¤Ĺà¤¤": 10272,
  "à¤§à¤¨à¤µ": 3615,
  "à¤§à¤¨à¤¸": 2922,
  "à¤§à¤¨à¤¸à¤®": 5103,
  "à¤§à¤¨à¤¸à¤¹": 5924,
  "à¤§à¤¨à¤¹à¤°": 3616,
  "à¤§à¤¨à¤ħà¤¨": 13688,
  "à¤§à¤¨à¤Ĩà¤µà¤¦": 13692,
  "à¤§à¤¨à¤īà¤¤": 13691,
  "à¤§à¤¨à¤ķ": 815,
  "à¤§à¤¨à¤Ĺ": 9745,
  "à¤§à¤¨à¤Ĺà¤¢": 8160,
  "à¤§à¤¨à¤Ĺà¤°": 13686,
  "à¤§à¤¨à¤Ĺà¤°à¤®": 13690,
  "à¤§à¤¨à¤ļ": 13684,
  "à¤§à¤¨à¤ľà¤¸": 9746,
  "à¤§à¤¨à¤Ń": 7236,
  "à¤§à¤¨à¤Ńà¤¨": 8159,
  "à¤§à¤ª": 1794,
  "à¤§à¤ªà¤¤": 6996,
  "à¤§à¤ªà¤¨": 11862,
  "à¤§à¤ªà¤¨à¤ķ": 11882,
  "à¤§à¤ªà¤¶": 6406,
  "à¤§à¤ªà¤ķ": 11870,
  "à¤§à¤ªà¤Ľ": 3134,
  "à¤§à¤ªà¤Łà¤ķ": 11878,
  "à¤§à¤ªà¤ł": 15627,
  "à¤§à¤¬": 848,
  "à¤§à¤¬à¤ª": 14692,
  "à¤§à¤¬à¤¹": 9083,
  "à¤§à¤®": 676,
  "à¤§à¤®à¤§": 9984,
  "à¤§à¤®à¤ķ": 11865,
  "à¤§à¤¯": 4306,
  "à¤§à¤¯à¤ķ": 11858,
  "à¤§à¤¯à¤ķà¤®": 7774,
  "à¤§à¤¯à¤ķà¤ķ": 6999,
  "à¤§à¤°": 822,
  "à¤§à¤°à¤£": 6402,
  "à¤§à¤°à¤£à¤¤à¤¯": 16580,
  "à¤§à¤°à¤£à¤²": 5578,
  "à¤§à¤°à¤£à¤¸à¤Ń": 9085,
  "à¤§à¤°à¤£à¤¹à¤°": 7776,
  "à¤§à¤°à¤£à¤ķ": 5272,
  "à¤§à¤°à¤¤": 6995,
  "à¤§à¤°à¤¦": 11864,
  "à¤§à¤°à¤®": 11857,
  "à¤§à¤°à¤®à¤§": 11885,
  "à¤§à¤°à¤²": 2882,
  "à¤§à¤°à¤¸": 11863,
  "à¤§à¤°à¤¹": 11860,
  "à¤§à¤°à¤¹à¤°": 11869,
  "à¤§à¤°à¤ķ": 4624,
  "à¤§à¤²": 1035,
  "à¤§à¤²à¤ķ": 11861,
  "à¤§à¤²à¤Ĺ": 7772,
  "à¤§à¤²à¤Ĺà¤¤": 14997,
  "à¤§à¤µ": 1224,
  "à¤§à¤µà¤¨": 11866,
  "à¤§à¤µà¤ª": 4785,
  "à¤§à¤µà¤°": 9079,
  "à¤§à¤µà¤²": 5270,
  "à¤§à¤µà¤¸": 11859,
  "à¤§à¤µà¤¹à¤°": 15218,
  "à¤§à¤µà¤ķ": 2727,
  "à¤§à¤µà¤ļà¤¨à¤¹à¤°": 15219,
  "à¤§à¤¶": 4623,
  "à¤§à¤¶à¤¤": 11874,
  "à¤§à¤¶à¤¤à¤ķ": 3514,
  "à¤§à¤¶à¤¤à¤ķà¤ª": 10544,
  "à¤§à¤¶à¤¤à¤ķà¤®": 16872,
  "à¤§à¤¶à¤¤à¤ķà¤¸à¤¹": 16254,
  "à¤§à¤¶à¤¤à¤ķà¤ķ": 16397,
  "à¤§à¤¶à¤¥à¤¤à¤ķ": 16398,
  "à¤§à¤¶à¤¨": 11873,
  "à¤§à¤¶à¤®à¤¶": 7775,
  "à¤§à¤¶à¤°à¤£": 11884,
  "à¤§à¤¸": 2696,
  "à¤§à¤¸à¤¤à¤ķ": 8540,
  "à¤§à¤¸à¤®": 3671,
  "à¤§à¤¸à¤®à¤¸": 11887,
  "à¤§à¤¸à¤°à¤¹": 16096,
  "à¤§à¤¸à¤°à¤ķ": 5923,
  "à¤§à¤¸à¤¹": 11877,
  "à¤§à¤¸à¤Ń": 9082,
  "à¤§à¤¹": 9077,
  "à¤§à¤¹à¤°": 2767,
  "à¤§à¤¹à¤¸": 9084,
  "à¤§à¤ħà¤§": 11881,
  "à¤§à¤ħà¤¨": 5921,
  "à¤§à¤ħà¤ĺ": 11876,
  "à¤§à¤Ĩà¤§": 11886,
  "à¤§à¤ĩà¤¤": 11879,
  "à¤§à¤īà¤ªà¤¨": 11888,
  "à¤§à¤Ķ": 11880,
  "à¤§à¤Ķà¤ªà¤¨": 16873,
  "à¤§à¤ķ": 637,
  "à¤§à¤ķà¤¤": 11872,
  "à¤§à¤ķà¤¬": 14281,
  "à¤§à¤ķà¤®": 6405,
  "à¤§à¤ķà¤®à¤§": 9086,
  "à¤§à¤ķà¤°": 3242,
  "à¤§à¤ķà¤²": 4032,
  "à¤§à¤ķà¤µ": 14280,
  "à¤§à¤ķà¤¸": 14279,
  "à¤§à¤ķà¤¹à¤°": 4695,
  "à¤§à¤ķà¤ķ": 3752,
  "à¤§à¤ķà¤Ľà¤¨": 14282,
  "à¤§à¤ĸ": 4031,
  "à¤§à¤Ĺ": 4782,
  "à¤§à¤Ĺà¤®": 11875,
  "à¤§à¤Ĺà¤¯": 5579,
  "à¤§à¤Ĺà¤°": 9078,
  "à¤§à¤Ĺà¤²": 11871,
  "à¤§à¤ĺ": 4784,
  "à¤§à¤Ļ": 6403,
  "à¤§à¤ļ": 6993,
  "à¤§à¤Ľ": 11856,
  "à¤§à¤ľ": 7771,
  "à¤§à¤ľà¤¨": 5577,
  "à¤§à¤ľà¤¯à¤¨": 4307,
  "à¤§à¤ľà¤²": 6998,
  "à¤§à¤ľà¤¸": 9081,
  "à¤§à¤ľà¤¹": 11883,
  "à¤§à¤Ń": 4783,
  "à¤§à¤Ńà¤¤": 7000,
  "à¤§à¤Ńà¤¨": 9080,
  "à¤§à¤Ńà¤°": 5922,
  "à¤§à¤Ńà¤ķ": 7773,
  "à¤¨": 161,
  "à¤¨à¤¡": 1838,
  "à¤¨à¤¡à¤¬": 8711,
  "à¤¨à¤¡à¤®": 11017,
  "à¤¨à¤¡à¤°": 11026,
  "à¤¨à¤¡à¤²": 11022,
  "à¤¨à¤¡à¤¸": 11030,
  "à¤¨à¤¡à¤Ł": 15651,
  "à¤¨à¤¢": 4141,
  "à¤¨à¤¤": 624,
  "à¤¨à¤¤à¤¤": 14239,
  "à¤¨à¤¤à¤¨": 11002,
  "à¤¨à¤¤à¤¨à¤²": 14241,
  "à¤¨à¤¤à¤¬": 9935,
  "à¤¨à¤¤à¤®": 1503,
  "à¤¨à¤¤à¤®à¤®": 15449,
  "à¤¨à¤¤à¤®à¤ķ": 14242,
  "à¤¨à¤¤à¤¯": 14240,
  "à¤¨à¤¤à¤°": 2171,
  "à¤¨à¤¤à¤°à¤£": 11020,
  "à¤¨à¤¤à¤²": 4735,
  "à¤¨à¤¤à¤¸": 9933,
  "à¤¨à¤¤à¤¹": 9934,
  "à¤¨à¤¤à¤ķ": 6857,
  "à¤¨à¤¥": 1363,
  "à¤¨à¤¥à¤ª": 15351,
  "à¤¨à¤¥à¤°": 8713,
  "à¤¨à¤¥à¤²": 5837,
  "à¤¨à¤¦": 902,
  "à¤¨à¤¦à¤¨": 11005,
  "à¤¨à¤¦à¤¯": 14804,
  "à¤¨à¤¦à¤°": 8707,
  "à¤¨à¤¦à¤¹": 8346,
  "à¤¨à¤§": 4929,
  "à¤¨à¤§à¤°": 7570,
  "à¤¨à¤¨": 372,
  "à¤¨à¤¨à¤¨": 7196,
  "à¤¨à¤¨à¤¬à¤¨": 13411,
  "à¤¨à¤¨à¤®": 8702,
  "à¤¨à¤¨à¤¯": 13409,
  "à¤¨à¤¨à¤°": 8102,
  "à¤¨à¤¨à¤°à¤¸": 9651,
  "à¤¨à¤¨à¤²": 10999,
  "à¤¨à¤¨à¤¸": 9649,
  "à¤¨à¤¨à¤¸à¤ķ": 4364,
  "à¤¨à¤¨à¤Ĺà¤°": 3539,
  "à¤¨à¤¨à¤Ĺà¤°à¤¸à¤®": 16257,
  "à¤¨à¤¨à¤Ľ": 13410,
  "à¤¨à¤¨à¤ľ": 9650,
  "à¤¨à¤ª": 735,
  "à¤¨à¤ªà¤¢": 14500,
  "à¤¨à¤ªà¤¤": 3726,
  "à¤¨à¤ªà¤¨": 4142,
  "à¤¨à¤ªà¤°": 2356,
  "à¤¨à¤ªà¤²": 11014,
  "à¤¨à¤ªà¤¶": 6698,
  "à¤¨à¤ªà¤¸": 10027,
  "à¤¨à¤ªà¤¸à¤²": 10030,
  "à¤¨à¤ªà¤¸à¤²à¤®": 14502,
  "à¤¨à¤ªà¤¸à¤²à¤µ": 16765,
  "à¤¨à¤ªà¤¸à¤²à¤¹à¤°": 16766,
  "à¤¨à¤ªà¤¹": 5432,
  "à¤¨à¤ªà¤¹à¤²": 14501,
  "à¤¨à¤ªà¤Ľ": 1627,
  "à¤¨à¤ªà¤ŀ": 10029,
  "à¤¨à¤ªà¤Ł": 10028,
  "à¤¨à¤ªà¤Łà¤ķ": 4737,
  "à¤¨à¤ªà¤Łà¤ķà¤¸à¤®": 8591,
  "à¤¨à¤«": 3566,
  "à¤¨à¤¬": 604,
  "à¤¨à¤¬à¤¤": 4530,
  "à¤¨à¤¬à¤¨": 4734,
  "à¤¨à¤¬à¤®": 2135,
  "à¤¨à¤¬à¤°": 4427,
  "à¤¨à¤¬à¤²": 11015,
  "à¤¨à¤¬à¤¸": 7287,
  "à¤¨à¤¬à¤¹": 2070,
  "à¤¨à¤¬à¤ľ": 14194,
  "à¤¨à¤®": 258,
  "à¤¨à¤®à¤£": 6503,
  "à¤¨à¤®à¤¤": 7955,
  "à¤¨à¤®à¤§": 2704,
  "à¤¨à¤®à¤¨": 410,
  "à¤¨à¤®à¤¨à¤ľ": 13563,
  "à¤¨à¤®à¤®": 7954,
  "à¤¨à¤®à¤°": 3943,
  "à¤¨à¤®à¤²": 6005,
  "à¤¨à¤®à¤¸": 5030,
  "à¤¨à¤®à¤¹": 12687,
  "à¤¨à¤®à¤ķ": 7953,
  "à¤¨à¤®à¤ķà¤µ": 12689,
  "à¤¨à¤®à¤Ĺ": 12688,
  "à¤¨à¤¯": 853,
  "à¤¨à¤¯à¤¤": 3725,
  "à¤¨à¤¯à¤¨": 1848,
  "à¤¨à¤¯à¤¨à¤¦": 15662,
  "à¤¨à¤¯à¤¨à¤ª": 15661,
  "à¤¨à¤¯à¤¨à¤ªà¤¤": 15665,
  "à¤¨à¤¯à¤¨à¤¬": 15663,
  "à¤¨à¤¯à¤¨à¤®": 2265,
  "à¤¨à¤¯à¤¨à¤²": 6174,
  "à¤¨à¤¯à¤¨à¤¸": 8500,
  "à¤¨à¤¯à¤¨à¤¹à¤°": 15664,
  "à¤¨à¤¯à¤¨à¤ħà¤¨": 15667,
  "à¤¨à¤¯à¤¨à¤ķ": 2944,
  "à¤¨à¤¯à¤¨à¤Ńà¤¨": 15666,
  "à¤¨à¤¯à¤ª": 8709,
  "à¤¨à¤¯à¤¬": 5213,
  "à¤¨à¤¯à¤®": 2869,
  "à¤¨à¤¯à¤°": 11010,
  "à¤¨à¤¯à¤²": 3999,
  "à¤¨à¤¯à¤²à¤Ĺ": 11042,
  "à¤¨à¤¯à¤¸": 5504,
  "à¤¨à¤¯à¤¸à¤®": 11018,
  "à¤¨à¤¯à¤ķ": 2868,
  "à¤¨à¤¯à¤Ńà¤¨": 14699,
  "à¤¨à¤°": 556,
  "à¤¨à¤°à¤¡": 14085,
  "à¤¨à¤°à¤¡à¤²": 14088,
  "à¤¨à¤°à¤¡à¤ķ": 14087,
  "à¤¨à¤°à¤¤": 5209,
  "à¤¨à¤°à¤¦": 11000,
  "à¤¨à¤°à¤ª": 8228,
  "à¤¨à¤°à¤¬": 5211,
  "à¤¨à¤°à¤®": 2355,
  "à¤¨à¤°à¤®à¤ªà¤¨": 15975,
  "à¤¨à¤°à¤°": 14083,
  "à¤¨à¤°à¤²": 2754,
  "à¤¨à¤°à¤²à¤µ": 16110,
  "à¤¨à¤°à¤²à¤ķ": 14086,
  "à¤¨à¤°à¤²à¤Ĺ": 8715,
  "à¤¨à¤°à¤µ": 11001,
  "à¤¨à¤°à¤µà¤²": 4585,
  "à¤¨à¤°à¤¸": 4581,
  "à¤¨à¤°à¤¸à¤¬": 10591,
  "à¤¨à¤°à¤¸à¤®": 9883,
  "à¤¨à¤°à¤¸à¤¹": 6862,
  "à¤¨à¤°à¤¹": 6287,
  "à¤¨à¤°à¤¹à¤°": 6860,
  "à¤¨à¤°à¤ķ": 3032,
  "à¤¨à¤°à¤Ĺ": 14084,
  "à¤¨à¤°à¤Ń": 11006,
  "à¤¨à¤²": 256,
  "à¤¨à¤²à¤¨": 9383,
  "à¤¨à¤²à¤¬": 4490,
  "à¤¨à¤²à¤®": 3325,
  "à¤¨à¤²à¤²": 3685,
  "à¤¨à¤²à¤²à¤Ĺ": 12684,
  "à¤¨à¤²à¤¸": 9384,
  "à¤¨à¤²à¤¸à¤¹": 9385,
  "à¤¨à¤²à¤¹à¤°": 12682,
  "à¤¨à¤²à¤ķ": 3058,
  "à¤¨à¤²à¤Ĺ": 2163,
  "à¤¨à¤²à¤Ĺà¤¤": 12683,
  "à¤¨à¤µ": 574,
  "à¤¨à¤µà¤¤": 3795,
  "à¤¨à¤µà¤¤à¤¸": 9897,
  "à¤¨à¤µà¤¦": 9895,
  "à¤¨à¤µà¤§à¤°": 14132,
  "à¤¨à¤µà¤¨": 7566,
  "à¤¨à¤µà¤¬à¤¸": 9898,
  "à¤¨à¤µà¤®": 8706,
  "à¤¨à¤µà¤¯": 11016,
  "à¤¨à¤µà¤¯à¤¤": 14128,
  "à¤¨à¤µà¤¯à¤¨": 9896,
  "à¤¨à¤µà¤°": 3567,
  "à¤¨à¤µà¤°à¤¹": 7276,
  "à¤¨à¤µà¤°à¤ķ": 14126,
  "à¤¨à¤µà¤²": 5507,
  "à¤¨à¤µà¤²à¤ªà¤°": 7506,
  "à¤¨à¤µà¤²à¤®": 14129,
  "à¤¨à¤µà¤²à¤²": 14130,
  "à¤¨à¤µà¤¶": 4244,
  "à¤¨à¤µà¤¸": 3998,
  "à¤¨à¤µà¤¸à¤®": 14127,
  "à¤¨à¤µà¤¸à¤°à¤¹": 16318,
  "à¤¨à¤µà¤¹": 14125,
  "à¤¨à¤µà¤¹à¤°": 8235,
  "à¤¨à¤µà¤ħ": 5133,
  "à¤¨à¤µà¤ħà¤§": 2002,
  "à¤¨à¤µà¤īà¤¦": 14133,
  "à¤¨à¤µà¤ķ": 5506,
  "à¤¨à¤µà¤ľ": 5132,
  "à¤¨à¤µà¤ľà¤Ĺ": 14131,
  "à¤¨à¤µà¤ľà¤Ĺà¤¤à¤ķ": 16926,
  "à¤¨à¤µà¤Ł": 1362,
  "à¤¨à¤¶": 2826,
  "à¤¨à¤¶à¤¨": 5212,
  "à¤¨à¤¶à¤¨à¤¬": 11040,
  "à¤¨à¤¶à¤¨à¤²": 11031,
  "à¤¨à¤¶à¤®": 11011,
  "à¤¨à¤¶à¤®à¤¶": 8720,
  "à¤¨à¤¶à¤ķ": 6858,
  "à¤¨à¤·": 8701,
  "à¤¨à¤¸": 420,
  "à¤¨à¤¸à¤¤": 13594,
  "à¤¨à¤¸à¤¦à¤¸": 9714,
  "à¤¨à¤¸à¤¨": 6859,
  "à¤¨à¤¸à¤¨à¤®": 13598,
  "à¤¨à¤¸à¤¨à¤²": 9712,
  "à¤¨à¤¸à¤¨à¤ķ": 13597,
  "à¤¨à¤¸à¤ª": 13595,
  "à¤¨à¤¸à¤ªà¤Łà¤²à¤®": 6082,
  "à¤¨à¤¸à¤¬": 6607,
  "à¤¨à¤¸à¤®": 825,
  "à¤¨à¤¸à¤®à¤°": 14628,
  "à¤¨à¤¸à¤®à¤ķ": 8320,
  "à¤¨à¤¸à¤¯": 9709,
  "à¤¨à¤¸à¤°": 1566,
  "à¤¨à¤¸à¤°à¤¸à¤®": 15494,
  "à¤¨à¤¸à¤°à¤¹à¤ķ": 13599,
  "à¤¨à¤¸à¤°à¤ķ": 9711,
  "à¤¨à¤¸à¤°à¤ľà¤¨": 15493,
  "à¤¨à¤¸à¤²": 5210,
  "à¤¨à¤¸à¤¸": 9710,
  "à¤¨à¤¸à¤¹": 1952,
  "à¤¨à¤¸à¤¹à¤¨": 4368,
  "à¤¨à¤¸à¤¹à¤ª": 10414,
  "à¤¨à¤¸à¤ķ": 724,
  "à¤¨à¤¸à¤ĸà¤£": 9713,
  "à¤¨à¤¸à¤Ĺ": 13596,
  "à¤¨à¤¸à¤Ń": 1152,
  "à¤¨à¤¹": 1403,
  "à¤¨à¤¹à¤¨": 7568,
  "à¤¨à¤¹à¤ª": 10298,
  "à¤¨à¤¹à¤°": 1013,
  "à¤¨à¤¹à¤²": 11021,
  "à¤¨à¤¹à¤ľ": 5783,
  "à¤¨à¤¹à¤Ł": 15395,
  "à¤¨à¤ħ": 8704,
  "à¤¨à¤ħà¤§": 8714,
  "à¤¨à¤ħà¤¨": 1506,
  "à¤¨à¤ħà¤¨à¤µ": 8469,
  "à¤¨à¤ħà¤¬": 11034,
  "à¤¨à¤ħà¤°": 11028,
  "à¤¨à¤ħà¤Ĺ": 4584,
  "à¤¨à¤ħà¤ĺ": 1646,
  "à¤¨à¤ħà¤Łà¤°": 10698,
  "à¤¨à¤Ĩà¤¤": 8716,
  "à¤¨à¤Ĩà¤¨à¤¨": 8722,
  "à¤¨à¤Ĩà¤«": 11029,
  "à¤¨à¤Ĩà¤µà¤¶": 11043,
  "à¤¨à¤Ĩà¤īà¤¨": 11044,
  "à¤¨à¤Ĩà¤ıà¤ķ": 8717,
  "à¤¨à¤ĩ": 7564,
  "à¤¨à¤ĩà¤²": 11019,
  "à¤¨à¤ĩà¤ķ": 11024,
  "à¤¨à¤ĩà¤ļ": 11041,
  "à¤¨à¤Ī": 2867,
  "à¤¨à¤Īà¤¦": 11036,
  "à¤¨à¤Īà¤¬": 8719,
  "à¤¨à¤Īà¤²": 3906,
  "à¤¨à¤Īà¤¶": 10513,
  "à¤¨à¤Īà¤¸": 11038,
  "à¤¨à¤Īà¤ķ": 4583,
  "à¤¨à¤īà¤¨": 7565,
  "à¤¨à¤īà¤ª": 11033,
  "à¤¨à¤ı": 4426,
  "à¤¨à¤ıà¤¨": 11007,
  "à¤¨à¤ıà¤®": 11023,
  "à¤¨à¤ıà¤µ": 16371,
  "à¤¨à¤ıà¤īà¤Ł": 11039,
  "à¤¨à¤ıà¤ķ": 6286,
  "à¤¨à¤ıà¤ľ": 4930,
  "à¤¨à¤ıà¤ľà¤°": 5197,
  "à¤¨à¤ıà¤ľà¤ķ": 16372,
  "à¤¨à¤ĵà¤ķ": 8718,
  "à¤¨à¤ĵà¤Ł": 11045,
  "à¤¨à¤ĵà¤Ńà¤°": 7572,
  "à¤¨à¤ķ": 240,
  "à¤¨à¤ķà¤¤": 7081,
  "à¤¨à¤ķà¤¨": 4485,
  "à¤¨à¤ķà¤ª": 7923,
  "à¤¨à¤ķà¤®": 9341,
  "à¤¨à¤ķà¤°": 1484,
  "à¤¨à¤ķà¤°à¤£à¤¦": 9342,
  "à¤¨à¤ķà¤²": 7080,
  "à¤¨à¤ķà¤µ": 12565,
  "à¤¨à¤ķà¤¹": 12564,
  "à¤¨à¤ķà¤¹à¤°": 5308,
  "à¤¨à¤ķà¤ħà¤¨": 12569,
  "à¤¨à¤ķà¤ķ": 7922,
  "à¤¨à¤ķà¤ķà¤°": 12568,
  "à¤¨à¤ķà¤ķà¤²": 12567,
  "à¤¨à¤ķà¤ł": 12566,
  "à¤¨à¤ķà¤Ńà¤°": 12570,
  "à¤¨à¤ĸ": 2332,
  "à¤¨à¤ĸà¤¡": 8525,
  "à¤¨à¤ĸà¤°": 11013,
  "à¤¨à¤Ĺ": 2685,
  "à¤¨à¤Ĺà¤¢": 6288,
  "à¤¨à¤Ĺà¤¢à¤®": 16570,
  "à¤¨à¤Ĺà¤£": 11035,
  "à¤¨à¤Ĺà¤¨": 8710,
  "à¤¨à¤Ĺà¤¯": 10504,
  "à¤¨à¤Ĺà¤°": 843,
  "à¤¨à¤Ĺà¤°à¤¡": 14674,
  "à¤¨à¤Ĺà¤°à¤¦": 8329,
  "à¤¨à¤Ĺà¤°à¤¨à¤Ĺà¤°à¤ª": 14679,
  "à¤¨à¤Ĺà¤°à¤ª": 1121,
  "à¤¨à¤Ĺà¤°à¤ªà¤²": 14676,
  "à¤¨à¤Ĺà¤°à¤¬": 4391,
  "à¤¨à¤Ĺà¤°à¤®": 3821,
  "à¤¨à¤Ĺà¤°à¤²": 3125,
  "à¤¨à¤Ĺà¤°à¤µ": 10083,
  "à¤¨à¤Ĺà¤°à¤¸": 5160,
  "à¤¨à¤Ĺà¤°à¤¸à¤®": 14675,
  "à¤¨à¤Ĺà¤°à¤¸à¤¹": 14677,
  "à¤¨à¤Ĺà¤°à¤¸à¤Ń": 14678,
  "à¤¨à¤Ĺà¤°à¤ķ": 2268,
  "à¤¨à¤Ĺà¤°à¤Ń": 5441,
  "à¤¨à¤Ĺà¤°à¤Ńà¤°": 10084,
  "à¤¨à¤Ĺà¤²": 11009,
  "à¤¨à¤Ĺà¤Ī": 16091,
  "à¤¨à¤Ĺà¤ıà¤ªà¤¨": 16093,
  "à¤¨à¤Ĺà¤ıà¤ķ": 16090,
  "à¤¨à¤Ĺà¤ŀ": 16092,
  "à¤¨à¤Ĺà¤łà¤¨": 11027,
  "à¤¨à¤Ĺà¤Ń": 11037,
  "à¤¨à¤ĺ": 8703,
  "à¤¨à¤ĺà¤£": 8721,
  "à¤¨à¤ĺà¤¨à¤²": 11046,
  "à¤¨à¤ĺà¤°": 7571,
  "à¤¨à¤ĺà¤°à¤®": 11032,
  "à¤¨à¤ļ": 1510,
  "à¤¨à¤ļà¤¨": 7567,
  "à¤¨à¤ļà¤°": 4000,
  "à¤¨à¤ļà¤²": 11025,
  "à¤¨à¤ļà¤ķ": 11012,
  "à¤¨à¤Ľ": 2006,
  "à¤¨à¤Ľà¤¨": 4582,
  "à¤¨à¤Ľà¤¹à¤°": 10424,
  "à¤¨à¤Ľà¤ķ": 7454,
  "à¤¨à¤ľ": 1550,
  "à¤¨à¤ľà¤¡": 8480,
  "à¤¨à¤ľà¤¤": 8712,
  "à¤¨à¤ľà¤¨": 2123,
  "à¤¨à¤ľà¤¨à¤ķ": 2787,
  "à¤¨à¤ľà¤¨à¤ķà¤ķ": 16120,
  "à¤¨à¤ľà¤®": 8708,
  "à¤¨à¤ľà¤°": 6861,
  "à¤¨à¤ľà¤¸": 2686,
  "à¤¨à¤ľà¤ķ": 11008,
  "à¤¨à¤ľà¤ķà¤¨": 16844,
  "à¤¨à¤Ŀ": 5505,
  "à¤¨à¤Ł": 3223,
  "à¤¨à¤Łà¤¨": 11003,
  "à¤¨à¤Łà¤®": 4736,
  "à¤¨à¤Łà¤°": 11004,
  "à¤¨à¤Łà¤ķ": 8705,
  "à¤¨à¤Ń": 1388,
  "à¤¨à¤Ńà¤£": 15378,
  "à¤¨à¤Ńà¤¨": 1037,
  "à¤¨à¤Ńà¤°": 2211,
  "à¤¨à¤Ńà¤°à¤®": 15380,
  "à¤¨à¤Ńà¤°à¤ķ": 10289,
  "à¤¨à¤Ńà¤µ": 7569,
  "à¤¨à¤Ńà¤µà¤¨à¤®": 10684,
  "à¤¨à¤Ńà¤µà¤¨à¤²": 16688,
  "à¤¨à¤Ńà¤¸": 15377,
  "à¤¨à¤Ńà¤ĩà¤¸à¤ķ": 15381,
  "à¤¨à¤Ńà¤Ī": 15379,
  "à¤¨à¤Ńà¤ı": 8454,
  "à¤¨à¤Ńà¤ıà¤°": 8455,
  "à¤¨à¤Ńà¤ıà¤ķ": 3285,
  "à¤¨à¤Ńà¤ıà¤Ńà¤¨": 10290,
  "à¤ª": 175,
  "à¤ªm": 2761,
  "à¤ªmà¤¤": 3357,
  "à¤ªmà¤¬": 7473,
  "à¤ªmà¤®": 16116,
  "à¤ªmà¤ķ": 16115,
  "à¤ªmà¤ļ": 16117,
  "à¤ªà¤¡": 2524,
  "à¤ªà¤¡à¤¤": 11342,
  "à¤ªà¤¡à¤ªà¤Ł": 16053,
  "à¤ªà¤¢": 2689,
  "à¤ªà¤£": 757,
  "à¤ªà¤£à¤¦": 14537,
  "à¤ªà¤£à¤ªà¤Ľ": 5154,
  "à¤ªà¤£à¤¬": 14538,
  "à¤ªà¤£à¤®": 5434,
  "à¤ªà¤£à¤°": 14536,
  "à¤ªà¤£à¤²": 6701,
  "à¤ªà¤£à¤µ": 7323,
  "à¤ªà¤£à¤¸": 10044,
  "à¤ªà¤£à¤¸à¤®": 6702,
  "à¤ªà¤£à¤¸à¤¹": 14543,
  "à¤ªà¤£à¤ħà¤¨": 14542,
  "à¤ªà¤£à¤ķ": 3171,
  "à¤ªà¤£à¤ķà¤²": 14540,
  "à¤ªà¤£à¤ľà¤¸": 14541,
  "à¤ªà¤£à¤Ń": 14539,
  "à¤ªà¤¤": 316,
  "à¤ªà¤¤à¤¨": 7154,
  "à¤ªà¤¤à¤®": 6551,
  "à¤ªà¤¤à¤°": 7635,
  "à¤ªà¤¤à¤ķ": 2450,
  "à¤ªà¤¤à¤Ļ": 13085,
  "à¤ªà¤¥": 1284,
  "à¤ªà¤¥à¤ķ": 11335,
  "à¤ªà¤¦": 688,
  "à¤ªà¤¦à¤£": 1142,
  "à¤ªà¤¦à¤ª": 14397,
  "à¤ªà¤¦à¤¯": 6146,
  "à¤ªà¤¦à¤°": 8846,
  "à¤ªà¤¦à¤ķà¤¸": 11345,
  "à¤ªà¤¦à¤Ńà¤¨": 14398,
  "à¤ªà¤§": 6327,
  "à¤ªà¤§à¤°": 11336,
  "à¤ªà¤¨": 286,
  "à¤ªà¤¨à¤¤à¤°": 9462,
  "à¤ªà¤¨à¤¦": 7132,
  "à¤ªà¤¨à¤ªà¤¤": 2424,
  "à¤ªà¤¨à¤ªà¤ķ": 12907,
  "à¤ªà¤¨à¤ªà¤Ľ": 7134,
  "à¤ªà¤¨à¤¬": 3603,
  "à¤ªà¤¨à¤®": 1711,
  "à¤ªà¤¨à¤®à¤§": 15571,
  "à¤ªà¤¨à¤¯": 12903,
  "à¤ªà¤¨à¤¯à¤¨": 12905,
  "à¤ªà¤¨à¤°": 12902,
  "à¤ªà¤¨à¤°à¤¤": 6529,
  "à¤ªà¤¨à¤²": 1840,
  "à¤ªà¤¨à¤²à¤Ĺ": 3992,
  "à¤ªà¤¨à¤µ": 7133,
  "à¤ªà¤¨à¤¸": 5339,
  "à¤ªà¤¨à¤¸à¤®": 3688,
  "à¤ªà¤¨à¤¸à¤¹": 12909,
  "à¤ªà¤¨à¤¸à¤Ĺ": 12911,
  "à¤ªà¤¨à¤¹": 4346,
  "à¤ªà¤¨à¤¹à¤°": 8005,
  "à¤ªà¤¨à¤ħà¤ĺ": 12908,
  "à¤ªà¤¨à¤ķ": 1229,
  "à¤ªà¤¨à¤Ĺà¤°": 12904,
  "à¤ªà¤¨à¤Ĺà¤°à¤ķ": 12910,
  "à¤ªà¤¨à¤Ńà¤¨": 12906,
  "à¤ªà¤ª": 1295,
  "à¤ªà¤ªà¤¤": 11329,
  "à¤ªà¤ªà¤®": 11330,
  "à¤ªà¤ªà¤²à¤ķ": 15302,
  "à¤ªà¤ªà¤²à¤Ĺ": 15303,
  "à¤ªà¤ªà¤¶": 7408,
  "à¤ªà¤ªà¤Ľ": 1546,
  "à¤ªà¤«": 11321,
  "à¤ªà¤¬": 1212,
  "à¤ªà¤¬à¤¤": 15208,
  "à¤ªà¤¬à¤¦": 11334,
  "à¤ªà¤¬à¤°": 11333,
  "à¤ªà¤¬à¤¹": 3504,
  "à¤ªà¤®": 317,
  "à¤ªà¤®à¤¤": 6552,
  "à¤ªà¤®à¤¤à¤¤": 13088,
  "à¤ªà¤®à¤¤à¤ª": 13089,
  "à¤ªà¤®à¤¤à¤®": 5064,
  "à¤ªà¤®à¤¤à¤²": 13087,
  "à¤ªà¤®à¤¤à¤ķ": 5063,
  "à¤ªà¤®à¤§": 8045,
  "à¤ªà¤®à¤ķà¤²": 13086,
  "à¤ªà¤¯": 658,
  "à¤ªà¤¯à¤¤": 7634,
  "à¤ªà¤¯à¤®": 5533,
  "à¤ªà¤¯à¤²": 1637,
  "à¤ªà¤¯à¤ħà¤µà¤¸": 14333,
  "à¤ªà¤¯à¤ķ": 3170,
  "à¤ªà¤°": 251,
  "à¤ªà¤°à¤£": 11323,
  "à¤ªà¤°à¤¤": 3037,
  "à¤ªà¤°à¤¦": 7946,
  "à¤ªà¤°à¤¨": 12652,
  "à¤ªà¤°à¤ª": 9369,
  "à¤ªà¤°à¤«à¤°à¤®": 12658,
  "à¤ªà¤°à¤¬": 3141,
  "à¤ªà¤°à¤®": 2833,
  "à¤ªà¤°à¤®à¤£": 11332,
  "à¤ªà¤°à¤¯": 12653,
  "à¤ªà¤°à¤°": 3684,
  "à¤ªà¤°à¤²": 3322,
  "à¤ªà¤°à¤²à¤Ĺ": 12657,
  "à¤ªà¤°à¤µ": 5027,
  "à¤ªà¤°à¤µà¤°": 12655,
  "à¤ªà¤°à¤¸": 3766,
  "à¤ªà¤°à¤¸à¤¹": 9371,
  "à¤ªà¤°à¤¹": 4488,
  "à¤ªà¤°à¤¹à¤°": 6498,
  "à¤ªà¤°à¤ķ": 2335,
  "à¤ªà¤°à¤ķà¤¤": 15967,
  "à¤ªà¤°à¤ķà¤ª": 15968,
  "à¤ªà¤°à¤Ĺà¤¤": 12656,
  "à¤ªà¤°à¤Ĺà¤°": 12654,
  "à¤ªà¤°à¤ľ": 6497,
  "à¤ªà¤°à¤Ń": 7097,
  "à¤ªà¤°à¤Ńà¤¨": 9370,
  "à¤ªà¤²": 561,
  "à¤ªà¤²à¤¡": 9887,
  "à¤ªà¤²à¤ª": 14093,
  "à¤ªà¤²à¤¬": 7637,
  "à¤ªà¤²à¤®": 5232,
  "à¤ªà¤²à¤°": 14092,
  "à¤ªà¤²à¤°à¤ķ": 14096,
  "à¤ªà¤²à¤²": 1995,
  "à¤ªà¤²à¤²à¤Ĺ": 15768,
  "à¤ªà¤²à¤¹": 14094,
  "à¤ªà¤²à¤ķ": 2525,
  "à¤ªà¤²à¤Ĺ": 4012,
  "à¤ªà¤²à¤Ĺà¤¤": 6652,
  "à¤ªà¤²à¤ľ": 14095,
  "à¤ªà¤²à¤Ł": 4867,
  "à¤ªà¤²à¤Łà¤¤": 14098,
  "à¤ªà¤²à¤Łà¤ªà¤Ľ": 14099,
  "à¤ªà¤²à¤Łà¤ķ": 14097,
  "à¤ªà¤µ": 2723,
  "à¤ªà¤¶": 1331,
  "à¤ªà¤¶à¤ķ": 7636,
  "à¤ªà¤·": 827,
  "à¤ªà¤¸": 1022,
  "à¤ªà¤¸à¤¬": 6916,
  "à¤ªà¤¸à¤®": 1898,
  "à¤ªà¤¸à¤®à¤¯à¤ķ": 15705,
  "à¤ªà¤¸à¤°": 11331,
  "à¤ªà¤¸à¤²": 3087,
  "à¤ªà¤¸à¤²à¤®": 8385,
  "à¤ªà¤¸à¤²à¤¹à¤°": 16192,
  "à¤ªà¤¸à¤²à¤ķ": 14981,
  "à¤ªà¤¸à¤¸": 8848,
  "à¤ªà¤¸à¤¹": 5534,
  "à¤ªà¤¸à¤¹à¤°": 5536,
  "à¤ªà¤¸à¤ķ": 2908,
  "à¤ªà¤¸à¤ĸ": 14980,
  "à¤ªà¤¸à¤Ļ": 10170,
  "à¤ªà¤¹": 1364,
  "à¤ªà¤¹à¤ª": 7410,
  "à¤ªà¤¹à¤ªà¤ķ": 15352,
  "à¤ªà¤¹à¤°": 2248,
  "à¤ªà¤ħ": 11328,
  "à¤ªà¤ħà¤¨": 4950,
  "à¤ªà¤ħà¤°": 7638,
  "à¤ªà¤ħà¤ĺ": 6329,
  "à¤ªà¤Ĩà¤«": 11339,
  "à¤ªà¤īà¤¨": 11322,
  "à¤ªà¤īà¤²": 11341,
  "à¤ªà¤ķ": 393,
  "à¤ªà¤ķà¤¤": 5092,
  "à¤ªà¤ķà¤¦": 13481,
  "à¤ªà¤ķà¤ª": 7205,
  "à¤ªà¤ķà¤¬à¤¹": 13486,
  "à¤ªà¤ķà¤®": 5233,
  "à¤ªà¤ķà¤®à¤²": 1431,
  "à¤ªà¤ķà¤®à¤²à¤¦": 15411,
  "à¤ªà¤ķà¤®à¤²à¤²": 16476,
  "à¤ªà¤ķà¤®à¤²à¤¹à¤°": 15412,
  "à¤ªà¤ķà¤®à¤²à¤ķ": 8601,
  "à¤ªà¤ķà¤¯à¤¨": 13483,
  "à¤ªà¤ķà¤°": 1934,
  "à¤ªà¤ķà¤²": 3130,
  "à¤ªà¤ķà¤¸": 7204,
  "à¤ªà¤ķà¤¸à¤®": 13482,
  "à¤ªà¤ķà¤¹à¤°": 4227,
  "à¤ªà¤ķà¤ħà¤¨": 13484,
  "à¤ªà¤ķà¤ķ": 3293,
  "à¤ªà¤ķà¤ļà¤¨": 9674,
  "à¤ªà¤ķà¤Ł": 9673,
  "à¤ªà¤ķà¤Łà¤²": 13485,
  "à¤ªà¤ĸ": 3292,
  "à¤ªà¤Ĺ": 6914,
  "à¤ªà¤Ĺà¤¨": 11338,
  "à¤ªà¤ĺ": 11325,
  "à¤ªà¤Ļ": 11326,
  "à¤ªà¤ļ": 890,
  "à¤ªà¤ļà¤¨": 8844,
  "à¤ªà¤ļà¤°": 11337,
  "à¤ªà¤Ľ": 293,
  "à¤ªà¤ľ": 3578,
  "à¤ªà¤ľà¤¨": 11324,
  "à¤ªà¤ľà¤¬": 11340,
  "à¤ªà¤ľà¤²": 8847,
  "à¤ªà¤ľà¤¸": 6915,
  "à¤ªà¤ľà¤ķ": 8845,
  "à¤ªà¤Ŀ": 11327,
  "à¤ªà¤ŀ": 2909,
  "à¤ªà¤Ł": 1090,
  "à¤ªà¤Łà¤¨": 4751,
  "à¤ªà¤Łà¤¨à¤®": 4265,
  "à¤ªà¤Łà¤¨à¤²": 6202,
  "à¤ªà¤Łà¤¨à¤µ": 16412,
  "à¤ªà¤Łà¤¨à¤ķ": 7380,
  "à¤ªà¤Łà¤ª": 2862,
  "à¤ªà¤Łà¤ªà¤®": 4708,
  "à¤ªà¤Łà¤ªà¤²": 7382,
  "à¤ªà¤Łà¤ªà¤ķ": 7381,
  "à¤ªà¤Łà¤¬": 5535,
  "à¤ªà¤Łà¤®à¤¯": 11346,
  "à¤ªà¤Łà¤²": 6330,
  "à¤ªà¤Łà¤²à¤®": 5773,
  "à¤ªà¤Łà¤²à¤Ĺ": 15064,
  "à¤ªà¤Łà¤¹à¤°": 15063,
  "à¤ªà¤Łà¤ķ": 656,
  "à¤ªà¤Łà¤ķà¤¨": 14331,
  "à¤ªà¤Łà¤ķà¤ªà¤Łà¤ķ": 14332,
  "à¤ªà¤Łà¤ķà¤®": 4395,
  "à¤ªà¤Łà¤ķà¤ķ": 5423,
  "à¤ªà¤ł": 8843,
  "à¤ªà¤łà¤¨": 11343,
  "à¤ªà¤łà¤¨à¤ª": 16729,
  "à¤ªà¤Ń": 5532,
  "à¤ªà¤Ńà¤¨": 4750,
  "à¤ªà¤Ńà¤°": 6328,
  "à¤ªà¤Ńà¤°à¤ķ": 11344,
  "à¤«": 231,
  "à¤«à¤¡": 12452,
  "à¤«à¤£": 12451,
  "à¤«à¤¤": 615,
  "à¤«à¤¤à¤°": 9306,
  "à¤«à¤¤à¤¸à¤®": 14212,
  "à¤«à¤¦": 1661,
  "à¤«à¤¨": 3016,
  "à¤«à¤¨à¤²": 12453,
  "à¤«à¤ªà¤Ľ": 7901,
  "à¤«à¤¬": 1041,
  "à¤«à¤¬à¤¬": 15000,
  "à¤«à¤®": 1578,
  "à¤«à¤®à¤°": 12459,
  "à¤«à¤¯": 5610,
  "à¤«à¤¯à¤²": 12455,
  "à¤«à¤°": 1238,
  "à¤«à¤°à¤¨à¤²": 15228,
  "à¤«à¤°à¤ª": 5979,
  "à¤«à¤°à¤®": 4643,
  "à¤«à¤°à¤²": 3525,
  "à¤«à¤°à¤µ": 12454,
  "à¤«à¤°à¤¸": 9307,
  "à¤«à¤°à¤¹à¤°": 7902,
  "à¤«à¤°à¤ıà¤«": 8427,
  "à¤«à¤°à¤ķ": 1921,
  "à¤«à¤²": 409,
  "à¤«à¤²à¤¤": 5096,
  "à¤«à¤²à¤ª": 13560,
  "à¤«à¤²à¤«": 13562,
  "à¤«à¤²à¤¬": 7071,
  "à¤«à¤²à¤®": 4812,
  "à¤«à¤²à¤¸": 8134,
  "à¤«à¤²à¤¹": 13561,
  "à¤«à¤²à¤ķ": 4191,
  "à¤«à¤µ": 5611,
  "à¤«à¤·": 6479,
  "à¤«à¤¸": 2344,
  "à¤«à¤¸à¤¬à¤°": 6797,
  "à¤«à¤¸à¤®": 7900,
  "à¤«à¤¸à¤°": 12457,
  "à¤«à¤¸à¤°à¤²": 15972,
  "à¤«à¤¸à¤²": 6480,
  "à¤«à¤¸à¤²à¤®": 4813,
  "à¤«à¤¸à¤²à¤ķ": 3492,
  "à¤«à¤¹à¤°": 5304,
  "à¤«à¤ħà¤¨": 12458,
  "à¤«à¤ħà¤²": 9308,
  "à¤«à¤ķ": 1063,
  "à¤«à¤Ĺ": 12450,
  "à¤«à¤ļ": 9305,
  "à¤«à¤ľ": 5978,
  "à¤«à¤Ł": 5303,
  "à¤«à¤Łà¤ª": 12460,
  "à¤«à¤Ńà¤¨": 12456,
  "à¤¬": 196,
  "à¤¬à¤¡": 3668,
  "à¤¬à¤¢": 2695,
  "à¤¬à¤¢à¤®": 16095,
  "à¤¬à¤¤": 2298,
  "à¤¬à¤¤à¤¬": 6394,
  "à¤¬à¤¤à¤®": 4780,
  "à¤¬à¤¤à¤°": 11806,
  "à¤¬à¤¤à¤²à¤Ĺ": 11833,
  "à¤¬à¤¤à¤¸": 5918,
  "à¤¬à¤¤à¤ķ": 4452,
  "à¤¬à¤¤à¤ľà¤¸": 15952,
  "à¤¬à¤¥": 3750,
  "à¤¬à¤¥à¤¨": 11822,
  "à¤¬à¤¦": 680,
  "à¤¬à¤¦à¤¨": 7756,
  "à¤¬à¤¦à¤²": 9064,
  "à¤¬à¤§": 3441,
  "à¤¬à¤§à¤¨à¤ķ": 11821,
  "à¤¬à¤§à¤®": 11819,
  "à¤¬à¤§à¤¶": 5490,
  "à¤¬à¤¨": 329,
  "à¤¬à¤¨à¤¡": 9561,
  "à¤¬à¤¨à¤¦": 13174,
  "à¤¬à¤¨à¤¨": 8054,
  "à¤¬à¤¨à¤¬": 7170,
  "à¤¬à¤¨à¤®": 3240,
  "à¤¬à¤¨à¤²": 4450,
  "à¤¬à¤¨à¤¸": 7169,
  "à¤¬à¤¨à¤ķ": 4170,
  "à¤¬à¤¨à¤ľ": 13175,
  "à¤¬à¤¨à¤Ł": 9560,
  "à¤¬à¤ª": 11804,
  "à¤¬à¤ªà¤¤": 3841,
  "à¤¬à¤«à¤°": 11825,
  "à¤¬à¤«à¤Ł": 11836,
  "à¤¬à¤¬": 2765,
  "à¤¬à¤¬à¤°": 9062,
  "à¤¬à¤¬à¤°à¤®": 11828,
  "à¤¬à¤¬à¤°à¤®à¤¹à¤²à¤ķ": 16871,
  "à¤¬à¤¬à¤²": 11815,
  "à¤¬à¤¬à¤Ī": 4978,
  "à¤¬à¤®": 1039,
  "à¤¬à¤®à¤§": 7758,
  "à¤¬à¤®à¤¨": 9059,
  "à¤¬à¤®à¤®": 3670,
  "à¤¬à¤®à¤²": 11812,
  "à¤¬à¤®à¤¸": 11820,
  "à¤¬à¤®à¤¹à¤°": 14998,
  "à¤¬à¤®à¤ķ": 4451,
  "à¤¬à¤¯": 11803,
  "à¤¬à¤°": 488,
  "à¤¬à¤°à¤£": 5916,
  "à¤¬à¤°à¤¤": 11805,
  "à¤¬à¤°à¤¦": 4171,
  "à¤¬à¤°à¤¦à¤¤": 11835,
  "à¤¬à¤°à¤¨": 13881,
  "à¤¬à¤°à¤ª": 9809,
  "à¤¬à¤°à¤ªà¤Ľ": 13882,
  "à¤¬à¤°à¤¬": 4779,
  "à¤¬à¤°à¤¬à¤®": 16417,
  "à¤¬à¤°à¤¬à¤¹": 6395,
  "à¤¬à¤°à¤®": 1465,
  "à¤¬à¤°à¤°": 13880,
  "à¤¬à¤°à¤²": 3512,
  "à¤¬à¤°à¤µ": 11809,
  "à¤¬à¤°à¤¸": 9055,
  "à¤¬à¤°à¤¸à¤®": 5117,
  "à¤¬à¤°à¤¸à¤¹": 11829,
  "à¤¬à¤°à¤¹": 7752,
  "à¤¬à¤°à¤¹à¤°": 7755,
  "à¤¬à¤°à¤ķ": 1147,
  "à¤¬à¤°à¤Ĺ": 9810,
  "à¤¬à¤°à¤ľà¤¸": 9811,
  "à¤¬à¤°à¤Ń": 9060,
  "à¤¬à¤°à¤Ńà¤¨": 7258,
  "à¤¬à¤²": 567,
  "à¤¬à¤²à¤¤": 9063,
  "à¤¬à¤²à¤¨": 9057,
  "à¤¬à¤²à¤¨à¤ķ": 14118,
  "à¤¬à¤²à¤ª": 9892,
  "à¤¬à¤²à¤¬": 6392,
  "à¤¬à¤²à¤®": 3047,
  "à¤¬à¤²à¤°": 14114,
  "à¤¬à¤²à¤°à¤®": 14117,
  "à¤¬à¤²à¤°à¤²": 14119,
  "à¤¬à¤²à¤²": 4453,
  "à¤¬à¤²à¤µ": 9893,
  "à¤¬à¤²à¤¸": 14115,
  "à¤¬à¤²à¤¹à¤°": 14116,
  "à¤¬à¤²à¤ķ": 2556,
  "à¤¬à¤²à¤Ĺ": 6393,
  "à¤¬à¤²à¤Ł": 4243,
  "à¤¬à¤²à¤Ńà¤¨": 14120,
  "à¤¬à¤µ": 5914,
  "à¤¬à¤µà¤°": 11810,
  "à¤¬à¤¶": 7750,
  "à¤¬à¤¸": 1138,
  "à¤¬à¤¸à¤¨": 9056,
  "à¤¬à¤¸à¤ª": 7760,
  "à¤¬à¤¸à¤®": 4304,
  "à¤¬à¤¸à¤²": 7754,
  "à¤¬à¤¸à¤¹": 11817,
  "à¤¬à¤¸à¤ķ": 6986,
  "à¤¬à¤¹": 797,
  "à¤¬à¤¹à¤¤": 9066,
  "à¤¬à¤¹à¤ª": 10057,
  "à¤¬à¤¹à¤°": 3669,
  "à¤¬à¤¹à¤¸": 14589,
  "à¤¬à¤¹à¤¸à¤®": 10058,
  "à¤¬à¤¹à¤¸à¤ķ": 14590,
  "à¤¬à¤¹à¤ķ": 11816,
  "à¤¬à¤ħà¤ª": 11827,
  "à¤¬à¤ĩ": 4449,
  "à¤¬à¤ĩà¤¬": 11826,
  "à¤¬à¤ĩà¤®": 6987,
  "à¤¬à¤ĩà¤²": 7757,
  "à¤¬à¤ĩà¤¸à¤®": 11832,
  "à¤¬à¤ĩà¤ķ": 9065,
  "à¤¬à¤Ī": 1056,
  "à¤¬à¤Īà¤¤à¤°": 10180,
  "à¤¬à¤Īà¤¦": 15012,
  "à¤¬à¤Īà¤¬": 4263,
  "à¤¬à¤Īà¤®": 2229,
  "à¤¬à¤Īà¤²": 2766,
  "à¤¬à¤Īà¤²à¤Ĺ": 15015,
  "à¤¬à¤Īà¤µ": 15013,
  "à¤¬à¤Īà¤¸": 8392,
  "à¤¬à¤Īà¤ķ": 2504,
  "à¤¬à¤Īà¤Ńà¤¨": 15014,
  "à¤¬à¤ıà¤¸à¤¸": 11834,
  "à¤¬à¤ķ": 1094,
  "à¤¬à¤ķà¤®": 11808,
  "à¤¬à¤ķà¤°": 11811,
  "à¤¬à¤ķà¤ķ": 9058,
  "à¤¬à¤ĸ": 9054,
  "à¤¬à¤ĸà¤¤": 4305,
  "à¤¬à¤ĸà¤¤à¤®": 16738,
  "à¤¬à¤Ĺà¤¬": 11823,
  "à¤¬à¤Ĺà¤°": 5574,
  "à¤¬à¤Ĺà¤°à¤®": 6988,
  "à¤¬à¤Ĺà¤°à¤²": 9068,
  "à¤¬à¤Ĺà¤°à¤ķ": 9067,
  "à¤¬à¤ĺ": 7751,
  "à¤¬à¤Ļ": 7753,
  "à¤¬à¤ļ": 3933,
  "à¤¬à¤ļà¤¤": 11831,
  "à¤¬à¤ļà¤¨à¤¬": 11830,
  "à¤¬à¤ľ": 1437,
  "à¤¬à¤ľà¤¨": 5917,
  "à¤¬à¤ľà¤°": 7759,
  "à¤¬à¤ľà¤²": 11818,
  "à¤¬à¤ľà¤²à¤²": 15414,
  "à¤¬à¤ľà¤¸": 9061,
  "à¤¬à¤Ŀ": 11807,
  "à¤¬à¤Ł": 4303,
  "à¤¬à¤Łà¤®": 11813,
  "à¤¬à¤Łà¤®à¤²": 16360,
  "à¤¬à¤Łà¤²": 11814,
  "à¤¬à¤Łà¤¸": 11824,
  "à¤¬à¤Łà¤ķ": 6391,
  "à¤¬à¤Ń": 5915,
  "à¤¬à¤Ńà¤¨": 3308,
  "à¤®": 167,
  "à¤®à¤¡": 7595,
  "à¤®à¤¢": 8759,
  "à¤®à¤¢à¤²": 11171,
  "à¤®à¤£": 1003,
  "à¤®à¤£à¤ª": 5767,
  "à¤®à¤£à¤¬": 14944,
  "à¤®à¤£à¤¬à¤¹": 14946,
  "à¤®à¤£à¤®": 11146,
  "à¤®à¤£à¤°": 10160,
  "à¤®à¤£à¤²": 5171,
  "à¤®à¤£à¤µ": 10161,
  "à¤®à¤£à¤¸": 11151,
  "à¤®à¤£à¤¹à¤°": 14945,
  "à¤®à¤£à¤ķ": 11137,
  "à¤®à¤¤": 378,
  "à¤®à¤¤à¤¤": 13428,
  "à¤®à¤¤à¤¤à¤°": 13430,
  "à¤®à¤¤à¤¦": 5089,
  "à¤®à¤¤à¤ª": 7198,
  "à¤®à¤¤à¤ªà¤Ľ": 7199,
  "à¤®à¤¤à¤¬": 5090,
  "à¤®à¤¤à¤®": 3395,
  "à¤®à¤¤à¤°": 3730,
  "à¤®à¤¤à¤²": 2429,
  "à¤®à¤¤à¤µ": 13429,
  "à¤®à¤¤à¤¸": 4672,
  "à¤®à¤¤à¤¸à¤®": 3703,
  "à¤®à¤¤à¤¸à¤¹": 6585,
  "à¤®à¤¤à¤ķ": 1839,
  "à¤®à¤¤à¤Ńà¤¨": 13431,
  "à¤®à¤¥": 2113,
  "à¤®à¤¥à¤¨": 11150,
  "à¤®à¤¥à¤®": 11136,
  "à¤®à¤¥à¤°": 8768,
  "à¤®à¤¥à¤²": 3573,
  "à¤®à¤¥à¤ķ": 11145,
  "à¤®à¤¦": 785,
  "à¤®à¤¦à¤¤": 5156,
  "à¤®à¤¦à¤¨": 3572,
  "à¤®à¤¦à¤¨à¤¦": 8568,
  "à¤®à¤¦à¤¨à¤ķ": 8313,
  "à¤®à¤¦à¤¯": 8312,
  "à¤®à¤¦à¤°": 2954,
  "à¤®à¤¦à¤²": 3085,
  "à¤®à¤¦à¤²à¤²": 14574,
  "à¤®à¤¦à¤²à¤¹à¤°": 16191,
  "à¤®à¤¦à¤µ": 11142,
  "à¤®à¤¦à¤ħà¤²": 14575,
  "à¤®à¤¦à¤ķ": 8763,
  "à¤®à¤§": 683,
  "à¤®à¤§à¤¨": 6886,
  "à¤®à¤§à¤®": 11140,
  "à¤®à¤§à¤°": 14392,
  "à¤®à¤¨": 400,
  "à¤®à¤¨à¤¦": 7209,
  "à¤®à¤¨à¤¨": 11129,
  "à¤®à¤¨à¤ª": 9683,
  "à¤®à¤¨à¤ªà¤ķ": 13511,
  "à¤®à¤¨à¤¬": 8125,
  "à¤®à¤¨à¤®": 4149,
  "à¤®à¤¨à¤®à¤Ĺà¤¨": 10580,
  "à¤®à¤¨à¤°": 4674,
  "à¤®à¤¨à¤°à¤ª": 13513,
  "à¤®à¤¨à¤²": 3823,
  "à¤®à¤¨à¤µ": 9684,
  "à¤®à¤¨à¤µà¤®": 8126,
  "à¤®à¤¨à¤¶": 6076,
  "à¤®à¤¨à¤·": 13509,
  "à¤®à¤¨à¤¸": 3784,
  "à¤®à¤¨à¤¹à¤°": 13510,
  "à¤®à¤¨à¤ķ": 3912,
  "à¤®à¤¨à¤Ĺà¤°": 5094,
  "à¤®à¤¨à¤Ĺà¤°à¤¬": 16456,
  "à¤®à¤¨à¤Ĺà¤°à¤®": 7210,
  "à¤®à¤¨à¤Ĺà¤°à¤¸": 8596,
  "à¤®à¤¨à¤Ĺà¤°à¤ķ": 9686,
  "à¤®à¤¨à¤Ĺà¤²": 9685,
  "à¤®à¤¨à¤ľà¤¸": 13512,
  "à¤®à¤ª": 1047,
  "à¤®à¤ªà¤¤": 4938,
  "à¤®à¤ªà¤¦": 5520,
  "à¤®à¤ªà¤¦à¤ķ": 15004,
  "à¤®à¤ªà¤¨": 1167,
  "à¤®à¤ªà¤°": 7597,
  "à¤®à¤ªà¤¶": 10175,
  "à¤®à¤ªà¤¹": 3808,
  "à¤®à¤ªà¤Ľ": 3824,
  "à¤®à¤ªà¤Ł": 10174,
  "à¤®à¤ªà¤Łà¤ķ": 7601,
  "à¤®à¤«": 3034,
  "à¤®à¤«à¤²": 11132,
  "à¤®à¤«à¤²à¤ķ": 8557,
  "à¤®à¤¬": 647,
  "à¤®à¤¬à¤¦": 8265,
  "à¤®à¤¬à¤¨": 11127,
  "à¤®à¤¬à¤¬": 14307,
  "à¤®à¤¬à¤°": 4432,
  "à¤®à¤¬à¤°à¤£": 14308,
  "à¤®à¤¬à¤²": 4596,
  "à¤®à¤¬à¤¹": 1493,
  "à¤®à¤¬à¤ľ": 8266,
  "à¤®à¤¬à¤Łà¤¨": 14309,
  "à¤®à¤®": 429,
  "à¤®à¤®à¤£": 13618,
  "à¤®à¤®à¤¤": 4595,
  "à¤®à¤®à¤§": 5386,
  "à¤®à¤®à¤¨": 11131,
  "à¤®à¤®à¤¯": 13617,
  "à¤®à¤¯": 1429,
  "à¤®à¤¯à¤£à¤®": 10310,
  "à¤®à¤¯à¤¤": 8760,
  "à¤®à¤¯à¤¦à¤°": 15410,
  "à¤®à¤¯à¤ª": 11139,
  "à¤®à¤¯à¤¬": 11147,
  "à¤®à¤¯à¤®": 7598,
  "à¤®à¤¯à¤¯": 11144,
  "à¤®à¤¯à¤²": 6885,
  "à¤®à¤¯à¤¸à¤®": 11138,
  "à¤®à¤¯à¤ķ": 4742,
  "à¤®à¤°": 775,
  "à¤®à¤°à¤£": 1256,
  "à¤®à¤°à¤£à¤¬": 15274,
  "à¤®à¤°à¤£à¤®": 4745,
  "à¤®à¤°à¤£à¤¯": 8435,
  "à¤®à¤°à¤£à¤°à¤¹": 10266,
  "à¤®à¤°à¤£à¤¶à¤ķ": 3489,
  "à¤®à¤°à¤£à¤¸à¤®": 15276,
  "à¤®à¤°à¤£à¤¹à¤°": 15275,
  "à¤®à¤°à¤£à¤ķ": 6888,
  "à¤®à¤°à¤¤": 5518,
  "à¤®à¤°à¤¦": 11124,
  "à¤®à¤°à¤¨": 6887,
  "à¤®à¤°à¤¨à¤²": 14565,
  "à¤®à¤°à¤¬": 8762,
  "à¤®à¤°à¤®": 6300,
  "à¤®à¤°à¤°": 14563,
  "à¤®à¤°à¤²": 5224,
  "à¤®à¤°à¤¸": 6302,
  "à¤®à¤°à¤¸à¤®": 14564,
  "à¤®à¤°à¤¹": 5855,
  "à¤®à¤°à¤¹à¤ł": 10638,
  "à¤®à¤°à¤ķ": 5517,
  "à¤®à¤°à¤ķà¤Ł": 11157,
  "à¤®à¤°à¤ľà¤¸": 14567,
  "à¤®à¤°à¤Ńà¤¨": 14566,
  "à¤®à¤²": 461,
  "à¤®à¤²à¤¢": 9759,
  "à¤®à¤²à¤¤": 6094,
  "à¤®à¤²à¤¬": 11128,
  "à¤®à¤²à¤®": 6884,
  "à¤®à¤²à¤°": 9757,
  "à¤®à¤²à¤²": 4744,
  "à¤®à¤²à¤²à¤Ĺ": 11161,
  "à¤®à¤²à¤¸": 9758,
  "à¤®à¤²à¤¹à¤°": 13745,
  "à¤®à¤²à¤ķ": 3498,
  "à¤®à¤²à¤ĸà¤¨": 13749,
  "à¤®à¤²à¤Ĺ": 3792,
  "à¤®à¤²à¤ļ": 13744,
  "à¤®à¤²à¤ľà¤²": 13748,
  "à¤®à¤²à¤Ŀ": 13746,
  "à¤®à¤²à¤Ł": 6095,
  "à¤®à¤²à¤Ńà¤¨": 13747,
  "à¤®à¤µ": 1446,
  "à¤®à¤µà¤¤": 8764,
  "à¤®à¤µà¤¦": 11148,
  "à¤®à¤µà¤¬": 11154,
  "à¤®à¤µà¤°": 3363,
  "à¤®à¤µà¤°à¤£": 3500,
  "à¤®à¤µà¤²": 11134,
  "à¤®à¤µà¤¹": 8769,
  "à¤®à¤¶": 1569,
  "à¤®à¤¶à¤®à¤¶": 7603,
  "à¤®à¤¶à¤°à¤£": 2901,
  "à¤®à¤¶à¤°à¤£à¤²": 5789,
  "à¤®à¤¶à¤°à¤£à¤ķ": 15496,
  "à¤®à¤¶à¤ķ": 5857,
  "à¤®à¤¶à¤Ļ": 15495,
  "à¤®à¤·": 5852,
  "à¤®à¤¸": 728,
  "à¤®à¤¸à¤¤": 2205,
  "à¤®à¤¸à¤¨": 5226,
  "à¤®à¤¸à¤¨à¤²": 7318,
  "à¤®à¤¸à¤¨à¤ķ": 14489,
  "à¤®à¤¸à¤®": 1545,
  "à¤®à¤¸à¤®à¤°": 3355,
  "à¤®à¤¸à¤°": 5859,
  "à¤®à¤¸à¤°à¤ķ": 14488,
  "à¤®à¤¸à¤²": 5225,
  "à¤®à¤¸à¤¶à¤ķ": 14490,
  "à¤®à¤¸à¤¹": 4150,
  "à¤®à¤¸à¤ķ": 6301,
  "à¤®à¤¸à¤ķà¤¸": 11167,
  "à¤®à¤¸à¤Ļ": 4701,
  "à¤®à¤¸à¤Ļà¤²": 4389,
  "à¤®à¤¸à¤Ļà¤¸": 14491,
  "à¤®à¤¸à¤Ļà¤ķ": 7319,
  "à¤®à¤¹": 972,
  "à¤®à¤¹à¤¤": 1799,
  "à¤®à¤¹à¤¤à¤²": 6727,
  "à¤®à¤¹à¤¨": 11135,
  "à¤®à¤¹à¤®à¤¦": 11168,
  "à¤®à¤¹à¤°": 1433,
  "à¤®à¤¹à¤°à¤°": 15413,
  "à¤®à¤¹à¤²": 7602,
  "à¤®à¤¹à¤²à¤®": 14903,
  "à¤®à¤¹à¤²à¤¹à¤°": 16690,
  "à¤®à¤¹à¤ķ": 7600,
  "à¤®à¤¹à¤Ļà¤Ĺ": 14904,
  "à¤®à¤ħà¤¨": 3289,
  "à¤®à¤ħà¤ªà¤°": 11164,
  "à¤®à¤ħà¤µà¤¤": 8772,
  "à¤®à¤Ĩà¤¦": 11169,
  "à¤®à¤Ĩà¤¨": 11165,
  "à¤®à¤Ĩà¤²": 7604,
  "à¤®à¤Ĩà¤¶": 11170,
  "à¤®à¤Ĩà¤ıà¤ķ": 11160,
  "à¤®à¤ĩà¤¤": 11149,
  "à¤®à¤ĩà¤¤à¤°": 11173,
  "à¤®à¤īà¤¤": 11155,
  "à¤®à¤ıà¤ķ": 5853,
  "à¤®à¤ıà¤ķà¤¤": 8771,
  "à¤®à¤ıà¤ķà¤µ": 8613,
  "à¤®à¤ıà¤ľ": 11166,
  "à¤®à¤ķ": 330,
  "à¤®à¤ķà¤¤": 3062,
  "à¤®à¤ķà¤¥": 3022,
  "à¤®à¤ķà¤ª": 13177,
  "à¤®à¤ķà¤¬": 9562,
  "à¤®à¤ķà¤®": 11126,
  "à¤®à¤ķà¤®à¤¹à¤²": 16848,
  "à¤®à¤ķà¤°": 2222,
  "à¤®à¤ķà¤°à¤£": 3331,
  "à¤®à¤ķà¤°à¤£à¤¸à¤®": 16221,
  "à¤®à¤ķà¤°à¤£à¤ķ": 6047,
  "à¤®à¤ķà¤²": 11125,
  "à¤®à¤ķà¤¸": 13176,
  "à¤®à¤ķà¤¸à¤®": 13181,
  "à¤®à¤ķà¤¹": 7171,
  "à¤®à¤ķà¤¹à¤°": 13180,
  "à¤®à¤ķà¤Ľ": 13178,
  "à¤®à¤ķà¤Ŀ": 13182,
  "à¤®à¤ķà¤Ń": 13179,
  "à¤®à¤ķà¤Ńà¤¨": 13183,
  "à¤®à¤ĸ": 2904,
  "à¤®à¤ĸà¤¡": 8546,
  "à¤®à¤ĸà¤£": 11156,
  "à¤®à¤ĸà¤®": 11153,
  "à¤®à¤Ĺ": 812,
  "à¤®à¤Ĺà¤¨": 5157,
  "à¤®à¤Ĺà¤¨à¤®": 14609,
  "à¤®à¤Ĺà¤¨à¤²": 6168,
  "à¤®à¤Ĺà¤°": 2828,
  "à¤®à¤Ĺà¤°à¤®": 10063,
  "à¤®à¤Ĺà¤°à¤²": 3552,
  "à¤®à¤Ĺà¤°à¤ķ": 4539,
  "à¤®à¤Ĺà¤ıà¤°": 14610,
  "à¤®à¤Ĺà¤łà¤¬à¤¨": 2871,
  "à¤®à¤ĺ": 2758,
  "à¤®à¤ĺà¤°": 8766,
  "à¤®à¤ĺà¤°à¤ķ": 11159,
  "à¤®à¤ĺà¤Łà¤ķà¤ķ": 16112,
  "à¤®à¤Ļ": 5856,
  "à¤®à¤Ļà¤®": 11152,
  "à¤®à¤ļ": 551,
  "à¤®à¤ļà¤¨": 1896,
  "à¤®à¤ļà¤°": 14078,
  "à¤®à¤ļà¤°à¤£à¤®": 14079,
  "à¤®à¤ļà¤°à¤£à¤ķ": 14080,
  "à¤®à¤ļà¤²": 3623,
  "à¤®à¤Ľ": 5854,
  "à¤®à¤ľ": 1933,
  "à¤®à¤ľà¤¤": 8767,
  "à¤®à¤ľà¤¦": 8765,
  "à¤®à¤ľà¤¨": 4743,
  "à¤®à¤ľà¤¨à¤®": 6889,
  "à¤®à¤ľà¤¨à¤®à¤²": 10597,
  "à¤®à¤ľà¤¨à¤®à¤ľ": 16626,
  "à¤®à¤ľà¤¨à¤²": 8770,
  "à¤®à¤ľà¤¨à¤ķ": 11143,
  "à¤®à¤ľà¤¯à¤¨": 5191,
  "à¤®à¤ľà¤¸": 5519,
  "à¤®à¤ľà¤¹à¤°": 11158,
  "à¤®à¤ľà¤ķ": 11133,
  "à¤®à¤Ŀ": 3226,
  "à¤®à¤ŀ": 4283,
  "à¤®à¤Ł": 4005,
  "à¤®à¤Łà¤¨": 5858,
  "à¤®à¤Łà¤¨à¤¬": 11172,
  "à¤®à¤Łà¤¨à¤®": 11162,
  "à¤®à¤Łà¤¨à¤²": 11163,
  "à¤®à¤Łà¤°": 11130,
  "à¤®à¤Łà¤ķ": 8761,
  "à¤®à¤ł": 7596,
  "à¤®à¤Ń": 2460,
  "à¤®à¤Ńà¤¤": 16029,
  "à¤®à¤Ńà¤¨": 3499,
  "à¤®à¤Ńà¤¯": 11141,
  "à¤®à¤Ńà¤°": 7599,
  "à¤®à¤Ńà¤ıà¤°": 16030,
  "à¤®à¤Ńà¤ķ": 6303,
  "à¤¯": 169,
  "à¤¯mà¤®": 11224,
  "à¤¯à¤¡": 3429,
  "à¤¯à¤¡à¤®": 7616,
  "à¤¯à¤¡à¤ķ": 8787,
  "à¤¯à¤£": 897,
  "à¤¯à¤£à¤ª": 3634,
  "à¤¯à¤£à¤¬": 10112,
  "à¤¯à¤£à¤¬à¤¹": 6180,
  "à¤¯à¤£à¤®": 5863,
  "à¤¯à¤£à¤®à¤§": 14800,
  "à¤¯à¤£à¤²": 3278,
  "à¤¯à¤£à¤²à¤Ĺ": 14799,
  "à¤¯à¤£à¤¸": 6721,
  "à¤¯à¤£à¤¸à¤®": 14798,
  "à¤¯à¤£à¤¹": 3635,
  "à¤¯à¤£à¤¹à¤°": 4886,
  "à¤¯à¤£à¤ķ": 2334,
  "à¤¯à¤£à¤Ĺ": 10111,
  "à¤¯à¤£à¤Ĺà¤¢": 2991,
  "à¤¯à¤£à¤Ĺà¤¢à¤¤à¤°": 16173,
  "à¤¯à¤£à¤Ĺà¤¢à¤¬": 16172,
  "à¤¯à¤£à¤Ĺà¤¢à¤®": 16170,
  "à¤¯à¤£à¤Ĺà¤¢à¤¸": 16171,
  "à¤¯à¤£à¤Ĺà¤¢à¤ķ": 16169,
  "à¤¯à¤£à¤ĺ": 6179,
  "à¤¯à¤£à¤Ł": 8344,
  "à¤¯à¤¤": 287,
  "à¤¯à¤¤à¤¤": 8006,
  "à¤¯à¤¤à¤¤à¤°": 9464,
  "à¤¯à¤¤à¤¥": 2736,
  "à¤¯à¤¤à¤¦": 12912,
  "à¤¯à¤¤à¤¨": 2776,
  "à¤¯à¤¤à¤ª": 5340,
  "à¤¯à¤¤à¤ªà¤Ľ": 9463,
  "à¤¯à¤¤à¤¬": 2308,
  "à¤¯à¤¤à¤¬à¤¶": 10470,
  "à¤¯à¤¤à¤¬à¤¸": 8010,
  "à¤¯à¤¤à¤®": 1183,
  "à¤¯à¤¤à¤®à¤§": 12917,
  "à¤¯à¤¤à¤¯": 2095,
  "à¤¯à¤¤à¤°": 3102,
  "à¤¯à¤¤à¤²": 1067,
  "à¤¯à¤¤à¤²à¤Ĺ": 8009,
  "à¤¯à¤¤à¤µ": 6024,
  "à¤¯à¤¤à¤µà¤¶": 5650,
  "à¤¯à¤¤à¤µà¤¸": 8008,
  "à¤¯à¤¤à¤¸": 2282,
  "à¤¯à¤¤à¤¸à¤¤": 12918,
  "à¤¯à¤¤à¤¸à¤¬": 12916,
  "à¤¯à¤¤à¤¸à¤®": 8007,
  "à¤¯à¤¤à¤¹": 5054,
  "à¤¯à¤¤à¤¹à¤¬": 12919,
  "à¤¯à¤¤à¤¹à¤°": 12913,
  "à¤¯à¤¤à¤¹à¤²": 4070,
  "à¤¯à¤¤à¤¹à¤²à¤Ĺ": 16453,
  "à¤¯à¤¤à¤¹à¤¸à¤®": 12920,
  "à¤¯à¤¤à¤¹à¤ħà¤§": 8595,
  "à¤¯à¤¤à¤¹à¤ķ": 5649,
  "à¤¯à¤¤à¤ħà¤¨": 12915,
  "à¤¯à¤¤à¤Ĩà¤ªà¤°": 12922,
  "à¤¯à¤¤à¤ķ": 590,
  "à¤¯à¤¤à¤ľà¤¸": 12914,
  "à¤¯à¤¤à¤Ńà¤¨": 7135,
  "à¤¯à¤¤à¤Ńà¤°à¤®": 12921,
  "à¤¯à¤¥": 1460,
  "à¤¯à¤¥à¤²à¤¨": 10317,
  "à¤¯à¤¦": 855,
  "à¤¯à¤¦à¤®": 11210,
  "à¤¯à¤¦à¤°": 11206,
  "à¤¯à¤¦à¤²": 2288,
  "à¤¯à¤¦à¤²à¤®": 3803,
  "à¤¯à¤¦à¤²à¤®à¤§": 10560,
  "à¤¯à¤¦à¤²à¤²": 3028,
  "à¤¯à¤¦à¤²à¤¸": 15944,
  "à¤¯à¤¦à¤²à¤¹à¤°": 10464,
  "à¤¯à¤¦à¤²à¤ķ": 3417,
  "à¤¯à¤¦à¤¸": 14701,
  "à¤¯à¤¦à¤ķ": 5524,
  "à¤¯à¤§": 1511,
  "à¤¯à¤§à¤°": 6897,
  "à¤¯à¤¨": 327,
  "à¤¯à¤¨à¤¡": 13168,
  "à¤¯à¤¨à¤¤à¤°": 5359,
  "à¤¯à¤¨à¤¦": 13165,
  "à¤¯à¤¨à¤ª": 9559,
  "à¤¯à¤¨à¤¬": 6562,
  "à¤¯à¤¨à¤®": 2688,
  "à¤¯à¤¨à¤¯": 13164,
  "à¤¯à¤¨à¤°à¤¤": 5066,
  "à¤¯à¤¨à¤²": 2103,
  "à¤¯à¤¨à¤²à¤Ĺ": 15839,
  "à¤¯à¤¨à¤µ": 13166,
  "à¤¯à¤¨à¤¶": 4843,
  "à¤¯à¤¨à¤¸": 2777,
  "à¤¯à¤¨à¤¸à¤®": 7168,
  "à¤¯à¤¨à¤¸à¤¹": 13171,
  "à¤¯à¤¨à¤¹à¤°": 3330,
  "à¤¯à¤¨à¤ķ": 1722,
  "à¤¯à¤¨à¤ľ": 13167,
  "à¤¯à¤¨à¤ľà¤¨": 13169,
  "à¤¯à¤¨à¤ľà¤¨à¤ķ": 13172,
  "à¤¯à¤¨à¤ľà¤°": 2325,
  "à¤¯à¤¨à¤ľà¤¸": 13170,
  "à¤¯à¤¨à¤Ńà¤¨": 8053,
  "à¤¯à¤ª": 626,
  "à¤¯à¤ªà¤¤": 2007,
  "à¤¯à¤ªà¤¦": 4873,
  "à¤¯à¤ªà¤¨": 6895,
  "à¤¯à¤ªà¤°": 1967,
  "à¤¯à¤ªà¤°à¤²": 15740,
  "à¤¯à¤ªà¤°à¤ķ": 6136,
  "à¤¯à¤ªà¤²": 11207,
  "à¤¯à¤ªà¤¶": 4249,
  "à¤¯à¤ªà¤¹": 2748,
  "à¤¯à¤ªà¤ķ": 4746,
  "à¤¯à¤ªà¤Ľ": 3653,
  "à¤¯à¤ªà¤Ł": 9936,
  "à¤¯à¤«": 8784,
  "à¤¯à¤¬": 833,
  "à¤¯à¤¬à¤¦": 3230,
  "à¤¯à¤¬à¤°": 6310,
  "à¤¯à¤¬à¤²": 6311,
  "à¤¯à¤¬à¤²à¤¦": 16572,
  "à¤¯à¤¬à¤²à¤ķ": 14648,
  "à¤¯à¤¬à¤¸": 3219,
  "à¤¯à¤¬à¤¹": 3734,
  "à¤¯à¤¬à¤ķ": 14647,
  "à¤¯à¤®": 269,
  "à¤¯à¤®à¤£": 7109,
  "à¤¯à¤®à¤¤": 5038,
  "à¤¯à¤®à¤¤à¤°": 7111,
  "à¤¯à¤®à¤¦": 4338,
  "à¤¯à¤®à¤§": 4066,
  "à¤¯à¤®à¤¨": 830,
  "à¤¯à¤®à¤¨à¤¤": 12778,
  "à¤¯à¤®à¤¨à¤®": 5639,
  "à¤¯à¤®à¤¨à¤²": 12773,
  "à¤¯à¤®à¤¨à¤¸à¤®": 7967,
  "à¤¯à¤®à¤¨à¤ķ": 3457,
  "à¤¯à¤®à¤ª": 12770,
  "à¤¯à¤®à¤ªà¤Ľ": 7965,
  "à¤¯à¤®à¤¬": 1085,
  "à¤¯à¤®à¤¬à¤¦": 12779,
  "à¤¯à¤®à¤¬à¤®": 12781,
  "à¤¯à¤®à¤®": 1386,
  "à¤¯à¤®à¤®à¤§": 12780,
  "à¤¯à¤®à¤¯": 3385,
  "à¤¯à¤®à¤¯à¤°": 9414,
  "à¤¯à¤®à¤°": 7108,
  "à¤¯à¤®à¤²": 1265,
  "à¤¯à¤®à¤²à¤²": 12775,
  "à¤¯à¤®à¤²à¤Ĺ": 12777,
  "à¤¯à¤®à¤µ": 4339,
  "à¤¯à¤®à¤µà¤°": 4340,
  "à¤¯à¤®à¤¶": 2220,
  "à¤¯à¤®à¤¸": 3456,
  "à¤¯à¤®à¤¸à¤®": 7110,
  "à¤¯à¤®à¤¸à¤°à¤¹": 16244,
  "à¤¯à¤®à¤¹à¤°": 2014,
  "à¤¯à¤®à¤ħà¤¨": 3252,
  "à¤¯à¤®à¤ķ": 1336,
  "à¤¯à¤®à¤ĸ": 12772,
  "à¤¯à¤®à¤Ĺà¤°": 12774,
  "à¤¯à¤®à¤ľà¤¸": 7966,
  "à¤¯à¤®à¤Ń": 12771,
  "à¤¯à¤®à¤Ńà¤¨": 12776,
  "à¤¯à¤¯": 800,
  "à¤¯à¤¯à¤¤": 11195,
  "à¤¯à¤¯à¤¤à¤ķ": 11208,
  "à¤¯à¤¯à¤¨": 674,
  "à¤¯à¤¯à¤¨à¤¤à¤¥": 14382,
  "à¤¯à¤¯à¤¨à¤ª": 9982,
  "à¤¯à¤¯à¤¨à¤ªà¤¤": 14379,
  "à¤¯à¤¯à¤¨à¤ªà¤¶": 9983,
  "à¤¯à¤¯à¤¨à¤ªà¤Ľ": 3798,
  "à¤¯à¤¯à¤¨à¤¬": 4697,
  "à¤¯à¤¯à¤¨à¤®": 2102,
  "à¤¯à¤¯à¤¨à¤°à¤¤": 2154,
  "à¤¯à¤¯à¤¨à¤²": 1539,
  "à¤¯à¤¯à¤¨à¤²à¤Ĺ": 15477,
  "à¤¯à¤¯à¤¨à¤¶": 4112,
  "à¤¯à¤¯à¤¨à¤¸": 14377,
  "à¤¯à¤¯à¤¨à¤¸à¤®": 6684,
  "à¤¯à¤¯à¤¨à¤¸à¤¹": 14381,
  "à¤¯à¤¯à¤¨à¤¹à¤°": 4877,
  "à¤¯à¤¯à¤¨à¤ħà¤¨": 3275,
  "à¤¯à¤¯à¤¨à¤ķ": 1558,
  "à¤¯à¤¯à¤¨à¤ķà¤°": 4117,
  "à¤¯à¤¯à¤¨à¤Ĺà¤°": 14378,
  "à¤¯à¤¯à¤¨à¤Ńà¤¨": 14380,
  "à¤¯à¤¯à¤®": 7614,
  "à¤¯à¤¯à¤®à¤¬": 11215,
  "à¤¯à¤¯à¤®à¤²": 11217,
  "à¤¯à¤¯à¤°à¤¤": 5751,
  "à¤¯à¤¯à¤²": 8786,
  "à¤¯à¤¯à¤µà¤¸": 11197,
  "à¤¯à¤¯à¤¸": 8785,
  "à¤¯à¤¯à¤ķ": 3732,
  "à¤¯à¤¯à¤Ń": 3631,
  "à¤¯à¤°": 475,
  "à¤¯à¤°à¤¡": 3406,
  "à¤¯à¤°à¤¤": 1086,
  "à¤¯à¤°à¤¤à¤°": 3419,
  "à¤¯à¤°à¤¤à¤°à¤¹": 15057,
  "à¤¯à¤°à¤§à¤¨": 6899,
  "à¤¯à¤°à¤¨": 9787,
  "à¤¯à¤°à¤¨à¤¦": 13810,
  "à¤¯à¤°à¤ª": 13805,
  "à¤¯à¤°à¤ªà¤¨": 13807,
  "à¤¯à¤°à¤ªà¤°": 13806,
  "à¤¯à¤°à¤ªà¤Ľ": 9789,
  "à¤¯à¤°à¤«": 9788,
  "à¤¯à¤°à¤¬": 5862,
  "à¤¯à¤°à¤¬à¤ľ": 6313,
  "à¤¯à¤°à¤®": 1764,
  "à¤¯à¤°à¤²": 1372,
  "à¤¯à¤°à¤²à¤Ĺ": 15356,
  "à¤¯à¤°à¤¸": 4008,
  "à¤¯à¤°à¤¸à¤ª": 8580,
  "à¤¯à¤°à¤¸à¤®": 7248,
  "à¤¯à¤°à¤¸à¤¯": 10570,
  "à¤¯à¤°à¤¸à¤¹": 8794,
  "à¤¯à¤°à¤¹": 7615,
  "à¤¯à¤°à¤¹à¤°": 3655,
  "à¤¯à¤°à¤ĩà¤Ł": 13809,
  "à¤¯à¤°à¤ķ": 1595,
  "à¤¯à¤°à¤Ń": 11202,
  "à¤¯à¤°à¤Ńà¤¨": 13808,
  "à¤¯à¤²": 343,
  "à¤¯à¤²à¤¡": 13226,
  "à¤¯à¤²à¤¤à¤¶": 13231,
  "à¤¯à¤²à¤¦": 9576,
  "à¤¯à¤²à¤ª": 13225,
  "à¤¯à¤²à¤«à¤°": 13229,
  "à¤¯à¤²à¤¬": 8065,
  "à¤¯à¤²à¤®": 4007,
  "à¤¯à¤²à¤¯": 3333,
  "à¤¯à¤²à¤¯à¤ª": 9578,
  "à¤¯à¤²à¤¯à¤®": 4505,
  "à¤¯à¤²à¤¯à¤¯à¤²": 16222,
  "à¤¯à¤²à¤¯à¤²": 4665,
  "à¤¯à¤²à¤¯à¤ķ": 5364,
  "à¤¯à¤²à¤¯à¤ľà¤¸": 16223,
  "à¤¯à¤²à¤°": 13224,
  "à¤¯à¤²à¤²": 2223,
  "à¤¯à¤²à¤²à¤Ĺ": 13228,
  "à¤¯à¤²à¤¸": 3391,
  "à¤¯à¤²à¤¹à¤°": 8066,
  "à¤¯à¤²à¤ħà¤ª": 13230,
  "à¤¯à¤²à¤ķ": 2140,
  "à¤¯à¤²à¤Ĺ": 3064,
  "à¤¯à¤²à¤Ĺà¤®": 9577,
  "à¤¯à¤²à¤Ńà¤¨": 13227,
  "à¤¯à¤µ": 517,
  "à¤¯à¤µà¤¤": 8212,
  "à¤¯à¤µà¤¦": 9846,
  "à¤¯à¤µà¤§": 3621,
  "à¤¯à¤µà¤¨": 11198,
  "à¤¯à¤µà¤¨à¤®": 8213,
  "à¤¯à¤µà¤ª": 13983,
  "à¤¯à¤µà¤®": 8788,
  "à¤¯à¤µà¤®à¤¹": 8795,
  "à¤¯à¤µà¤¯à¤¨": 13987,
  "à¤¯à¤µà¤¯à¤¸": 13986,
  "à¤¯à¤µà¤°": 3733,
  "à¤¯à¤µà¤°à¤£": 13985,
  "à¤¯à¤µà¤²": 11203,
  "à¤¯à¤µà¤¶": 3969,
  "à¤¯à¤µà¤¸": 339,
  "à¤¯à¤µà¤¸à¤¯": 13215,
  "à¤¯à¤µà¤¹": 734,
  "à¤¯à¤µà¤¹à¤°": 13984,
  "à¤¯à¤µà¤ķ": 11200,
  "à¤¯à¤¶": 1521,
  "à¤¯à¤¶à¤¨": 11204,
  "à¤¯à¤¶à¤¨à¤²": 11218,
  "à¤¯à¤¶à¤¨à¤¸": 15468,
  "à¤¯à¤¶à¤¨à¤ķ": 6898,
  "à¤¯à¤¶à¤ķ": 3654,
  "à¤¯à¤·": 7612,
  "à¤¯à¤·à¤ķ": 11201,
  "à¤¯à¤¸": 279,
  "à¤¯à¤¸à¤¤": 2811,
  "à¤¯à¤¸à¤¤à¤¯": 12854,
  "à¤¯à¤¸à¤¤à¤°": 2707,
  "à¤¯à¤¸à¤¦": 6521,
  "à¤¯à¤¸à¤¨": 2636,
  "à¤¯à¤¸à¤¨à¤®": 7988,
  "à¤¯à¤¸à¤¨à¤²": 5645,
  "à¤¯à¤¸à¤¨à¤ķ": 4496,
  "à¤¯à¤¸à¤ª": 3101,
  "à¤¯à¤¸à¤ªà¤¶": 7991,
  "à¤¯à¤¸à¤ªà¤¹": 12852,
  "à¤¯à¤¸à¤ªà¤Ľ": 750,
  "à¤¯à¤¸à¤ªà¤Łà¤ķ": 7990,
  "à¤¯à¤¸à¤¬": 909,
  "à¤¯à¤¸à¤¬à¤¬": 14815,
  "à¤¯à¤¸à¤¬à¤ĸà¤¤": 4705,
  "à¤¯à¤¸à¤¬à¤ĸà¤¤à¤ķ": 10118,
  "à¤¯à¤¸à¤®": 601,
  "à¤¯à¤¸à¤®à¤¤": 14191,
  "à¤¯à¤¸à¤®à¤§": 2180,
  "à¤¯à¤¸à¤®à¤¯": 14192,
  "à¤¯à¤¸à¤®à¤ķ": 7286,
  "à¤¯à¤¸à¤¯à¤¤": 3200,
  "à¤¯à¤¸à¤°": 1373,
  "à¤¯à¤¸à¤°à¤¹": 12847,
  "à¤¯à¤¸à¤²": 573,
  "à¤¯à¤¸à¤²à¤Ĺà¤¤": 4690,
  "à¤¯à¤¸à¤µ": 2893,
  "à¤¯à¤¸à¤µà¤°": 7989,
  "à¤¯à¤¸à¤¸": 3255,
  "à¤¯à¤¸à¤¸à¤®": 5644,
  "à¤¯à¤¸à¤¸à¤®à¤¯à¤ķ": 16498,
  "à¤¯à¤¸à¤¸à¤²": 12848,
  "à¤¯à¤¸à¤¸à¤¹": 12850,
  "à¤¯à¤¸à¤¹": 1751,
  "à¤¯à¤¸à¤¹à¤°à¤®": 9441,
  "à¤¯à¤¸à¤¹à¤Ń": 15597,
  "à¤¯à¤¸à¤ħà¤¨": 2403,
  "à¤¯à¤¸à¤ħà¤°": 12851,
  "à¤¯à¤¸à¤ħà¤ĺ": 2280,
  "à¤¯à¤¸à¤Ĩ": 12849,
  "à¤¯à¤¸à¤Ĩà¤ĺ": 16897,
  "à¤¯à¤¸à¤īà¤ª": 12853,
  "à¤¯à¤¸à¤īà¤ªà¤°": 12855,
  "à¤¯à¤¸à¤ķ": 521,
  "à¤¯à¤¸à¤ĸ": 9439,
  "à¤¯à¤¸à¤Ļ": 9440,
  "à¤¯à¤¸à¤ļ": 2671,
  "à¤¯à¤¸à¤ŀ": 7121,
  "à¤¯à¤¸à¤Ń": 1408,
  "à¤¯à¤¸à¤Ńà¤¨": 2637,
  "à¤¯à¤¹": 456,
  "à¤¯à¤¹à¤°": 791,
  "à¤¯à¤¹à¤µà¤¹": 13729,
  "à¤¯à¤¹à¤¹à¤°": 13728,
  "à¤¯à¤¹à¤ķ": 13727,
  "à¤¯à¤ħà¤¡": 11223,
  "à¤¯à¤ħà¤¨": 2905,
  "à¤¯à¤ħà¤«": 11221,
  "à¤¯à¤ħà¤®": 11220,
  "à¤¯à¤ħà¤µà¤¸": 8796,
  "à¤¯à¤ħà¤ĺ": 11205,
  "à¤¯à¤ħà¤Ń": 8793,
  "à¤¯à¤Ĩà¤°": 8791,
  "à¤¯à¤ĩà¤ļ": 11222,
  "à¤¯à¤īà¤¨": 7613,
  "à¤¯à¤īà¤¨à¤ķ": 11214,
  "à¤¯à¤Ĭà¤°": 6900,
  "à¤¯à¤ıà¤¸": 7617,
  "à¤¯à¤ķ": 237,
  "à¤¯à¤ķà¤¤": 758,
  "à¤¯à¤ķà¤¤à¤°": 9327,
  "à¤¯à¤ķà¤¥": 5990,
  "à¤¯à¤ķà¤¦": 12536,
  "à¤¯à¤ķà¤¨": 12534,
  "à¤¯à¤ķà¤¨à¤ķ": 12538,
  "à¤¯à¤ķà¤ª": 12535,
  "à¤¯à¤ķà¤ªà¤°": 12539,
  "à¤¯à¤ķà¤ªà¤ķ": 12541,
  "à¤¯à¤ķà¤¬": 4817,
  "à¤¯à¤ķà¤®": 1976,
  "à¤¯à¤ķà¤®à¤®": 9328,
  "à¤¯à¤ķà¤®à¤ķ": 12540,
  "à¤¯à¤ķà¤°": 803,
  "à¤¯à¤ķà¤°à¤£": 3321,
  "à¤¯à¤ķà¤°à¤£à¤®": 9330,
  "à¤¯à¤ķà¤°à¤£à¤²": 12544,
  "à¤¯à¤ķà¤°à¤£à¤¸": 10536,
  "à¤¯à¤ķà¤°à¤£à¤ķ": 9331,
  "à¤¯à¤ķà¤°à¤¥": 8315,
  "à¤¯à¤ķà¤²": 2130,
  "à¤¯à¤ķà¤²à¤Ĺ": 9329,
  "à¤¯à¤ķà¤µ": 2255,
  "à¤¯à¤ķà¤¸": 4193,
  "à¤¯à¤ķà¤¸à¤®": 6484,
  "à¤¯à¤ķà¤¸à¤¹": 12543,
  "à¤¯à¤ķà¤¹à¤°": 2808,
  "à¤¯à¤ķà¤ħà¤¨": 12542,
  "à¤¯à¤ķà¤ķ": 1623,
  "à¤¯à¤ķà¤ķà¤¹": 12545,
  "à¤¯à¤ķà¤Ĺ": 5621,
  "à¤¯à¤ķà¤ļ": 12537,
  "à¤¯à¤ķà¤Ńà¤¨": 7916,
  "à¤¯à¤ĸ": 6308,
  "à¤¯à¤ĸà¤¸à¤ķ": 16571,
  "à¤¯à¤Ĺ": 3035,
  "à¤¯à¤Ĺà¤¢": 11213,
  "à¤¯à¤Ĺà¤¤": 2790,
  "à¤¯à¤Ĺà¤°": 6896,
  "à¤¯à¤ĺ": 3652,
  "à¤¯à¤ĺà¤£": 10550,
  "à¤¯à¤Ļ": 3913,
  "à¤¯à¤Ļà¤¨": 10566,
  "à¤¯à¤Ļà¤²": 11212,
  "à¤¯à¤ļ": 2830,
  "à¤¯à¤ļà¤¨": 11199,
  "à¤¯à¤ļà¤ķ": 4941,
  "à¤¯à¤ľ": 1800,
  "à¤¯à¤ľà¤¨": 1865,
  "à¤¯à¤ľà¤¨à¤®": 11219,
  "à¤¯à¤ľà¤¨à¤²": 6312,
  "à¤¯à¤ľà¤¨à¤¸": 10399,
  "à¤¯à¤ľà¤¨à¤ķ": 3365,
  "à¤¯à¤ľà¤®": 11209,
  "à¤¯à¤ľà¤²": 8792,
  "à¤¯à¤ľà¤¸": 3574,
  "à¤¯à¤ľà¤Ĩà¤¦": 15631,
  "à¤¯à¤Ŀ": 11196,
  "à¤¯à¤ŀ": 6309,
  "à¤¯à¤Ł": 1096,
  "à¤¯à¤Łà¤¨": 807,
  "à¤¯à¤Łà¤¨à¤¤à¤°": 14596,
  "à¤¯à¤Łà¤¨à¤¬": 5437,
  "à¤¯à¤Łà¤¨à¤®": 3221,
  "à¤¯à¤Łà¤¨à¤®à¤¨": 6203,
  "à¤¯à¤Łà¤¨à¤²": 3158,
  "à¤¯à¤Łà¤¨à¤²à¤Ĺ": 6741,
  "à¤¯à¤Łà¤¨à¤¸": 6167,
  "à¤¯à¤Łà¤¨à¤¸à¤®": 8316,
  "à¤¯à¤Łà¤¨à¤¸à¤¹": 14598,
  "à¤¯à¤Łà¤¨à¤ķ": 1721,
  "à¤¯à¤Łà¤¨à¤ķà¤°": 7384,
  "à¤¯à¤Łà¤¨à¤ľà¤¸": 8317,
  "à¤¯à¤Łà¤¨à¤Ńà¤¨": 14597,
  "à¤¯à¤Łà¤°": 2052,
  "à¤¯à¤Łà¤°à¤®": 11216,
  "à¤¯à¤Łà¤²": 8790,
  "à¤¯à¤Łà¤¸": 10207,
  "à¤¯à¤Łà¤¹à¤°": 15066,
  "à¤¯à¤Łà¤ķ": 894,
  "à¤¯à¤Łà¤ķà¤¦": 14790,
  "à¤¯à¤Łà¤ķà¤¬": 6720,
  "à¤¯à¤Łà¤ķà¤®": 7383,
  "à¤¯à¤Łà¤ķà¤®à¤§": 7385,
  "à¤¯à¤Łà¤ķà¤²": 1812,
  "à¤¯à¤Łà¤ķà¤²à¤Ĺ": 15635,
  "à¤¯à¤Łà¤ķà¤¸": 6719,
  "à¤¯à¤Łà¤ķà¤¹à¤°": 2206,
  "à¤¯à¤Łà¤ķà¤ķ": 2183,
  "à¤¯à¤Łà¤ķà¤ľà¤¸": 14791,
  "à¤¯à¤ł": 11194,
  "à¤¯à¤Ń": 1822,
  "à¤¯à¤Ńà¤¨": 2523,
  "à¤¯à¤Ńà¤°": 8789,
  "à¤¯à¤Ńà¤µà¤¨": 15640,
  "à¤¯à¤Ńà¤ĩà¤°à¤¹": 15641,
  "à¤¯à¤Ńà¤ıà¤ķ": 11211,
  "à¤°": 160,
  "à¤°m": 10953,
  "à¤°mà¤¨": 10987,
  "à¤°mà¤®": 7563,
  "à¤°à¤¡": 3722,
  "à¤°à¤¡à¤¨": 10968,
  "à¤°à¤¡à¤ª": 10980,
  "à¤°à¤¡à¤®": 5208,
  "à¤°à¤¡à¤®à¤®": 10555,
  "à¤°à¤¡à¤®à¤²": 8572,
  "à¤°à¤¡à¤®à¤ķ": 10990,
  "à¤°à¤¡à¤ķ": 3426,
  "à¤°à¤¡à¤Ńà¤¨": 10988,
  "à¤°à¤¢": 10955,
  "à¤°à¤£": 250,
  "à¤°à¤£à¤¤": 12641,
  "à¤°à¤£à¤¤à¤¯": 7945,
  "à¤°à¤£à¤¤à¤°": 12645,
  "à¤°à¤£à¤¦": 7942,
  "à¤°à¤£à¤¦à¤¤": 12648,
  "à¤°à¤£à¤¨": 7095,
  "à¤°à¤£à¤ª": 4648,
  "à¤°à¤£à¤ªà¤Ľ": 7944,
  "à¤°à¤£à¤¬": 2148,
  "à¤°à¤£à¤¬à¤¸": 6496,
  "à¤°à¤£à¤®": 682,
  "à¤°à¤£à¤®à¤§": 6144,
  "à¤°à¤£à¤¯": 4822,
  "à¤°à¤£à¤¯à¤®": 12644,
  "à¤°à¤£à¤¯à¤°à¤¤": 9368,
  "à¤°à¤£à¤¯à¤¹": 12646,
  "à¤°à¤£à¤¯à¤ķ": 9367,
  "à¤°à¤£à¤²": 761,
  "à¤°à¤£à¤²à¤Ĺ": 6001,
  "à¤°à¤£à¤µ": 3683,
  "à¤°à¤£à¤µà¤¶": 6495,
  "à¤°à¤£à¤µà¤¸": 7096,
  "à¤°à¤£à¤¶à¤®à¤¶": 12650,
  "à¤°à¤£à¤¸": 5026,
  "à¤°à¤£à¤¸à¤®": 4201,
  "à¤°à¤£à¤¸à¤®à¤ķ": 12649,
  "à¤°à¤£à¤¸à¤¹": 6002,
  "à¤°à¤£à¤¸à¤Ń": 1998,
  "à¤°à¤£à¤¹à¤°": 2889,
  "à¤°à¤£à¤ħà¤¨": 12647,
  "à¤°à¤£à¤Ĩà¤µà¤¶": 12651,
  "à¤°à¤£à¤īà¤¨": 12643,
  "à¤°à¤£à¤ķ": 865,
  "à¤°à¤£à¤ļ": 7943,
  "à¤°à¤£à¤Ń": 12642,
  "à¤°à¤£à¤Ńà¤¨": 5317,
  "à¤°à¤¤": 238,
  "à¤°à¤¤à¤¤": 3382,
  "à¤°à¤¤à¤¤à¤°": 2734,
  "à¤°à¤¤à¤¨": 9332,
  "à¤°à¤¤à¤ª": 4818,
  "à¤°à¤¤à¤ªà¤°à¤¸": 6487,
  "à¤°à¤¤à¤ªà¤Ľ": 7918,
  "à¤°à¤¤à¤¬": 1215,
  "à¤°à¤¤à¤¬à¤¨": 7077,
  "à¤°à¤¤à¤®": 924,
  "à¤°à¤¤à¤®à¤§": 12549,
  "à¤°à¤¤à¤°": 2162,
  "à¤°à¤¤à¤²": 834,
  "à¤°à¤¤à¤²à¤Ĺ": 7919,
  "à¤°à¤¤à¤µ": 2974,
  "à¤°à¤¤à¤µà¤°": 6486,
  "à¤°à¤¤à¤µà¤°à¤®": 12552,
  "à¤°à¤¤à¤µà¤°à¤²": 12551,
  "à¤°à¤¤à¤¶": 7917,
  "à¤°à¤¤à¤¸": 1293,
  "à¤°à¤¤à¤¸à¤¨": 12547,
  "à¤°à¤¤à¤¸à¤®": 6485,
  "à¤°à¤¤à¤¸à¤®à¤ķ": 5991,
  "à¤°à¤¤à¤¸à¤¹": 9333,
  "à¤°à¤¤à¤ħà¤¨": 12548,
  "à¤°à¤¤à¤ķ": 664,
  "à¤°à¤¤à¤Ĺà¤¤": 12546,
  "à¤°à¤¤à¤ľà¤¸": 4483,
  "à¤°à¤¤à¤Ń": 4645,
  "à¤°à¤¤à¤Ńà¤°": 4819,
  "à¤°à¤¤à¤Ńà¤ķ": 12550,
  "à¤°à¤¥": 1286,
  "à¤°à¤¥à¤¨à¤®": 15295,
  "à¤°à¤¥à¤®": 1316,
  "à¤°à¤¥à¤®à¤¤": 5778,
  "à¤°à¤¥à¤®à¤ķ": 15296,
  "à¤°à¤¥à¤®à¤ĸà¤£": 15313,
  "à¤°à¤¥à¤°": 7562,
  "à¤°à¤¥à¤ķ": 8695,
  "à¤°à¤¥à¤ľ": 15294,
  "à¤°à¤¦": 307,
  "à¤°à¤¦à¤¤": 3863,
  "à¤°à¤¦à¤®": 5660,
  "à¤°à¤¦à¤¯": 13024,
  "à¤°à¤¦à¤¯à¤²": 9509,
  "à¤°à¤¦à¤°": 623,
  "à¤°à¤¦à¤°à¤¹": 13025,
  "à¤°à¤¦à¤²": 7144,
  "à¤°à¤¦à¤¶": 7145,
  "à¤°à¤¦à¤¶à¤¨": 9510,
  "à¤°à¤¦à¤¶à¤°": 8027,
  "à¤°à¤¦à¤¸": 9508,
  "à¤°à¤¦à¤¹": 5661,
  "à¤°à¤¦à¤¹à¤¦": 9512,
  "à¤°à¤¦à¤¹à¤®": 9511,
  "à¤°à¤¦à¤¹à¤²": 13027,
  "à¤°à¤¦à¤¹à¤¸": 8026,
  "à¤°à¤¦à¤¹à¤ķ": 13026,
  "à¤°à¤§": 368,
  "à¤°à¤§à¤¨": 3874,
  "à¤°à¤§à¤°": 9640,
  "à¤°à¤¨": 544,
  "à¤°à¤¨à¤¦": 9870,
  "à¤°à¤¨à¤¨": 10958,
  "à¤°à¤¨à¤ªà¤Ľ": 14046,
  "à¤°à¤¨à¤¬": 14044,
  "à¤°à¤¨à¤®": 4279,
  "à¤°à¤¨à¤°à¤¸": 9873,
  "à¤°à¤¨à¤²": 5502,
  "à¤°à¤¨à¤²à¤Ĺ": 10983,
  "à¤°à¤¨à¤µ": 9871,
  "à¤°à¤¨à¤¸à¤ķ": 14045,
  "à¤°à¤¨à¤¹": 14043,
  "à¤°à¤¨à¤¹à¤°": 8224,
  "à¤°à¤¨à¤ķ": 4577,
  "à¤°à¤¨à¤Ĺà¤°": 2086,
  "à¤°à¤¨à¤Ĺà¤°à¤¤à¤°": 14048,
  "à¤°à¤¨à¤Ĺà¤°à¤¬": 6789,
  "à¤°à¤¨à¤Ĺà¤°à¤®": 5729,
  "à¤°à¤¨à¤Ĺà¤°à¤²": 3970,
  "à¤°à¤¨à¤Ĺà¤°à¤¸": 6788,
  "à¤°à¤¨à¤Ĺà¤°à¤¸à¤®": 7456,
  "à¤°à¤¨à¤Ĺà¤°à¤¸à¤¹": 15826,
  "à¤°à¤¨à¤Ĺà¤°à¤ķ": 3549,
  "à¤°à¤¨à¤ļ": 9872,
  "à¤°à¤¨à¤ľ": 6648,
  "à¤°à¤¨à¤Ńà¤ıà¤°": 14047,
  "à¤°à¤ª": 671,
  "à¤°à¤ªà¤¡": 14365,
  "à¤°à¤ªà¤¤": 541,
  "à¤°à¤ªà¤¥": 4111,
  "à¤°à¤ªà¤¥à¤¬": 9980,
  "à¤°à¤ªà¤¥à¤®": 7305,
  "à¤°à¤ªà¤¥à¤¸": 9979,
  "à¤°à¤ªà¤¥à¤¸à¤®": 16338,
  "à¤°à¤ªà¤¥à¤ķ": 14369,
  "à¤°à¤ªà¤¦": 9978,
  "à¤°à¤ªà¤¨": 6285,
  "à¤°à¤ªà¤°": 4278,
  "à¤°à¤ªà¤²": 8693,
  "à¤°à¤ªà¤¶": 1924,
  "à¤°à¤ªà¤¸": 2679,
  "à¤°à¤ªà¤¹": 14364,
  "à¤°à¤ªà¤¹à¤°": 14366,
  "à¤°à¤ªà¤ħà¤¨": 14368,
  "à¤°à¤ªà¤ķ": 7558,
  "à¤°à¤ªà¤ķà¤ķ": 14367,
  "à¤°à¤ªà¤Ľ": 1877,
  "à¤°à¤ªà¤ŀ": 5146,
  "à¤°à¤ªà¤Ł": 3415,
  "à¤°à¤ªà¤Łà¤ķ": 3649,
  "à¤°à¤ªà¤Łà¤ķà¤¸à¤®": 8570,
  "à¤°à¤«": 1227,
  "à¤°à¤«à¤®": 15221,
  "à¤°à¤«à¤°": 15220,
  "à¤°à¤«à¤²": 2651,
  "à¤°à¤«à¤²à¤®": 2752,
  "à¤°à¤«à¤²à¤®à¤§": 16109,
  "à¤°à¤«à¤²à¤ķ": 6756,
  "à¤°à¤«à¤²à¤Ńà¤¨": 16084,
  "à¤°à¤¬": 364,
  "à¤°à¤¬à¤¢": 13363,
  "à¤°à¤¬à¤¤": 13361,
  "à¤°à¤¬à¤¦": 2895,
  "à¤°à¤¬à¤¦à¤²": 3337,
  "à¤°à¤¬à¤¦à¤²à¤¬": 16140,
  "à¤°à¤¬à¤¦à¤²à¤®": 16138,
  "à¤°à¤¬à¤¦à¤²à¤²": 16139,
  "à¤°à¤¬à¤¦à¤²à¤¸à¤®": 16225,
  "à¤°à¤¬à¤¦à¤²à¤ķ": 10514,
  "à¤°à¤¬à¤¨": 1353,
  "à¤°à¤¬à¤¬à¤¹": 9633,
  "à¤°à¤¬à¤®": 9629,
  "à¤°à¤¬à¤°": 2178,
  "à¤°à¤¬à¤²": 2980,
  "à¤°à¤¬à¤²à¤²": 9630,
  "à¤°à¤¬à¤²à¤ķ": 8095,
  "à¤°à¤¬à¤¹": 989,
  "à¤°à¤¬à¤¹à¤¨": 9631,
  "à¤°à¤¬à¤¹à¤¨à¤²à¤Ĺ": 14933,
  "à¤°à¤¬à¤¹à¤¨à¤ķ": 8376,
  "à¤°à¤¬à¤¹à¤ķ": 9632,
  "à¤°à¤¬à¤ķ": 6066,
  "à¤°à¤¬à¤ľ": 4080,
  "à¤°à¤¬à¤Ł": 13362,
  "à¤°à¤®": 229,
  "à¤°à¤®à¤£": 422,
  "à¤°à¤®à¤£à¤¤": 8139,
  "à¤°à¤®à¤£à¤¦": 13601,
  "à¤°à¤®à¤£à¤¦à¤²à¤®": 13607,
  "à¤°à¤®à¤£à¤¨": 9716,
  "à¤°à¤®à¤£à¤ª": 7224,
  "à¤°à¤®à¤£à¤ªà¤¶": 8140,
  "à¤°à¤®à¤£à¤ªà¤Ľ": 2779,
  "à¤°à¤®à¤£à¤¬": 1804,
  "à¤°à¤®à¤£à¤®": 999,
  "à¤°à¤®à¤£à¤®à¤§": 13606,
  "à¤°à¤®à¤£à¤®à¤ķ": 13603,
  "à¤°à¤®à¤£à¤²": 1361,
  "à¤°à¤®à¤£à¤²à¤Ĺ": 13605,
  "à¤°à¤®à¤£à¤²à¤Ĺà¤¤": 7409,
  "à¤°à¤®à¤£à¤µ": 6084,
  "à¤°à¤®à¤£à¤¸": 6083,
  "à¤°à¤®à¤£à¤¸à¤®": 6608,
  "à¤°à¤®à¤£à¤¹à¤°": 6085,
  "à¤°à¤®à¤£à¤ħà¤ĺ": 9717,
  "à¤°à¤®à¤£à¤ķ": 779,
  "à¤°à¤®à¤£à¤ľà¤¸": 13604,
  "à¤°à¤®à¤£à¤Ł": 13602,
  "à¤°à¤®à¤£à¤Ńà¤¤": 9718,
  "à¤°à¤®à¤£à¤Ńà¤¨": 7225,
  "à¤°à¤®à¤¤": 5976,
  "à¤°à¤®à¤¤à¤¯": 12435,
  "à¤°à¤®à¤¦": 4189,
  "à¤°à¤®à¤§": 2363,
  "à¤°à¤®à¤¨": 1682,
  "à¤°à¤®à¤¨à¤®": 12425,
  "à¤°à¤®à¤¨à¤ķ": 12424,
  "à¤°à¤®à¤ª": 4475,
  "à¤°à¤®à¤ªà¤¨": 12427,
  "à¤°à¤®à¤ªà¤Ľ": 5015,
  "à¤°à¤®à¤¬": 1869,
  "à¤°à¤®à¤¬à¤¦": 9298,
  "à¤°à¤®à¤¬à¤§": 15679,
  "à¤°à¤®à¤¬à¤¹": 12433,
  "à¤°à¤®à¤¬à¤ľ": 9299,
  "à¤°à¤®à¤®": 447,
  "à¤°à¤®à¤®à¤§": 9747,
  "à¤°à¤®à¤®à¤¨": 7891,
  "à¤°à¤®à¤®à¤¬": 13696,
  "à¤°à¤®à¤®à¤®": 12430,
  "à¤°à¤®à¤¯": 4811,
  "à¤°à¤®à¤°": 4810,
  "à¤°à¤®à¤°à¤¤": 7890,
  "à¤°à¤®à¤°à¤ª": 9297,
  "à¤°à¤®à¤²": 1116,
  "à¤°à¤®à¤µ": 5014,
  "à¤°à¤®à¤¶": 1288,
  "à¤°à¤®à¤¶à¤ķ": 7067,
  "à¤°à¤®à¤¸": 2667,
  "à¤°à¤®à¤¸à¤®": 3849,
  "à¤°à¤®à¤¸à¤¹": 4477,
  "à¤°à¤®à¤¸à¤¹à¤ļ": 10587,
  "à¤°à¤®à¤¹à¤°": 1706,
  "à¤°à¤®à¤ħà¤¨": 3054,
  "à¤°à¤®à¤ħà¤µà¤¶": 12438,
  "à¤°à¤®à¤ħà¤ĺ": 7893,
  "à¤°à¤®à¤Ĩà¤īà¤¨": 12437,
  "à¤°à¤®à¤īà¤ªà¤°": 12436,
  "à¤°à¤®à¤ķ": 882,
  "à¤°à¤®à¤ķà¤¤": 12431,
  "à¤°à¤®à¤ĸ": 9296,
  "à¤°à¤®à¤ĸà¤ķ": 12434,
  "à¤°à¤®à¤Ĺà¤¤": 12429,
  "à¤°à¤®à¤Ĺà¤°": 12428,
  "à¤°à¤®à¤ľ": 4476,
  "à¤°à¤®à¤ľà¤¸": 7892,
  "à¤°à¤®à¤ŀ": 12426,
  "à¤°à¤®à¤Ń": 3939,
  "à¤°à¤®à¤Ńà¤°": 12432,
  "à¤°à¤®à¤Ńà¤Ļ": 5817,
  "à¤°à¤¯": 375,
  "à¤°à¤¯à¤£": 13422,
  "à¤°à¤¯à¤¤": 1499,
  "à¤°à¤¯à¤¥": 13421,
  "à¤°à¤¯à¤¦": 9652,
  "à¤°à¤¯à¤®": 5833,
  "à¤°à¤¯à¤²": 8691,
  "à¤°à¤¯à¤²à¤²": 10984,
  "à¤°à¤¯à¤µ": 13420,
  "à¤°à¤¯à¤¶à¤ķ": 13424,
  "à¤°à¤¯à¤¸": 7557,
  "à¤°à¤¯à¤ķà¤°": 10963,
  "à¤°à¤¯à¤ķà¤²": 10982,
  "à¤°à¤¯à¤ĺ": 13423,
  "à¤°à¤°": 1001,
  "à¤°à¤°à¤£": 8690,
  "à¤°à¤°à¤£à¤ķ": 10965,
  "à¤°à¤°à¤¤": 4730,
  "à¤°à¤°à¤®": 10954,
  "à¤°à¤°à¤®à¤£": 7559,
  "à¤°à¤°à¤²": 10956,
  "à¤°à¤°à¤¹": 3820,
  "à¤°à¤°à¤ķ": 8688,
  "à¤°à¤°à¤ŀ": 14942,
  "à¤°à¤²": 284,
  "à¤°à¤²à¤¨": 12894,
  "à¤°à¤²à¤¯": 9459,
  "à¤°à¤²à¤¯à¤ªà¤Ľ": 12896,
  "à¤°à¤²à¤°": 12893,
  "à¤°à¤²à¤²": 8001,
  "à¤°à¤²à¤¹à¤°": 12895,
  "à¤°à¤²à¤ķ": 4928,
  "à¤°à¤²à¤Ĺ": 1949,
  "à¤°à¤µ": 338,
  "à¤°à¤µà¤£": 3866,
  "à¤°à¤µà¤£à¤¶à¤ķ": 8576,
  "à¤°à¤µà¤£à¤ľà¤¸": 16288,
  "à¤°à¤µà¤¤": 5362,
  "à¤°à¤µà¤¦": 1339,
  "à¤°à¤µà¤¦à¤°": 13213,
  "à¤°à¤µà¤§": 7175,
  "à¤°à¤µà¤¨": 4075,
  "à¤°à¤µà¤ª": 5363,
  "à¤°à¤µà¤¬": 6048,
  "à¤°à¤µà¤¬à¤¹": 6049,
  "à¤°à¤µà¤®": 9565,
  "à¤°à¤µà¤®à¤¯": 5674,
  "à¤°à¤µà¤°": 1395,
  "à¤°à¤µà¤²": 2709,
  "à¤°à¤µà¤µ": 13211,
  "à¤°à¤µà¤¶": 5673,
  "à¤°à¤µà¤¸": 4578,
  "à¤°à¤µà¤¹": 4664,
  "à¤°à¤µà¤¹à¤¨": 2847,
  "à¤°à¤µà¤¹à¤¨à¤®": 10596,
  "à¤°à¤µà¤¹à¤¨à¤¸à¤®": 16132,
  "à¤°à¤µà¤¹à¤¨à¤¸à¤¹": 16402,
  "à¤°à¤µà¤¹à¤¨à¤ķ": 9566,
  "à¤°à¤µà¤ķ": 988,
  "à¤°à¤µà¤Ĺ": 8061,
  "à¤°à¤µà¤ļà¤¨": 3536,
  "à¤°à¤µà¤ļà¤¨à¤®": 13214,
  "à¤°à¤µà¤ļà¤¨à¤¹à¤°": 10545,
  "à¤°à¤µà¤ľ": 7174,
  "à¤°à¤µà¤ŀ": 13212,
  "à¤°à¤µà¤Ł": 1697,
  "à¤°à¤¶": 424,
  "à¤°à¤¶à¤¨": 4679,
  "à¤°à¤¶à¤®": 6086,
  "à¤°à¤¶à¤®à¤£": 9719,
  "à¤°à¤¶à¤®à¤¶": 3470,
  "à¤°à¤¶à¤®à¤¸": 8141,
  "à¤°à¤¶à¤°": 13609,
  "à¤°à¤¶à¤¸": 1370,
  "à¤°à¤¶à¤ķ": 5835,
  "à¤°à¤·": 701,
  "à¤°à¤·à¤£à¤²": 10977,
  "à¤°à¤¸": 306,
  "à¤°à¤¸à¤¤": 9502,
  "à¤°à¤¸à¤¦": 9504,
  "à¤°à¤¸à¤¦à¤¸": 13023,
  "à¤°à¤¸à¤¨": 3259,
  "à¤°à¤¸à¤¨à¤²": 13017,
  "à¤°à¤¸à¤ª": 9503,
  "à¤°à¤¸à¤«": 13016,
  "à¤°à¤¸à¤¬": 5348,
  "à¤°à¤¸à¤®": 876,
  "à¤°à¤¸à¤®à¤£": 6176,
  "à¤°à¤¸à¤®à¤°": 14745,
  "à¤°à¤¸à¤®à¤ķ": 4704,
  "à¤°à¤¸à¤¯": 13015,
  "à¤°à¤¸à¤¯à¤¦": 13021,
  "à¤°à¤¸à¤°": 1315,
  "à¤°à¤¸à¤°à¤¤": 3770,
  "à¤°à¤¸à¤°à¤¦": 13019,
  "à¤°à¤¸à¤°à¤¬": 9505,
  "à¤°à¤¸à¤°à¤®": 8025,
  "à¤°à¤¸à¤°à¤²": 5349,
  "à¤°à¤¸à¤°à¤¸à¤®": 13022,
  "à¤°à¤¸à¤°à¤¹à¤°": 9507,
  "à¤°à¤¸à¤°à¤ķ": 1376,
  "à¤°à¤¸à¤²": 3954,
  "à¤°à¤¸à¤µ": 3459,
  "à¤°à¤¸à¤µà¤ķ": 9506,
  "à¤°à¤¸à¤¸": 4213,
  "à¤°à¤¸à¤¹": 1641,
  "à¤°à¤¸à¤¹à¤ľ": 15535,
  "à¤°à¤¸à¤ķ": 2552,
  "à¤°à¤¸à¤ĺ": 13018,
  "à¤°à¤¸à¤Ļ": 3260,
  "à¤°à¤¸à¤ļ": 8024,
  "à¤°à¤¸à¤ľà¤¸": 13020,
  "à¤°à¤¸à¤ŀ": 1538,
  "à¤°à¤¹": 272,
  "à¤°à¤¹à¤£": 1394,
  "à¤°à¤¹à¤£à¤ª": 15383,
  "à¤°à¤¹à¤£à¤®": 9423,
  "à¤°à¤¹à¤£à¤¶": 10292,
  "à¤°à¤¹à¤£à¤¸à¤¹": 15386,
  "à¤°à¤¹à¤£à¤ķ": 3946,
  "à¤°à¤¹à¤£à¤Ĺ": 15384,
  "à¤°à¤¹à¤£à¤ľà¤¸": 15385,
  "à¤°à¤¹à¤¤": 3857,
  "à¤°à¤¹à¤¦": 7972,
  "à¤°à¤¹à¤¦à¤¶": 7117,
  "à¤°à¤¹à¤¨": 862,
  "à¤°à¤¹à¤¨à¤¨": 12794,
  "à¤°à¤¹à¤¨à¤ªà¤°": 14713,
  "à¤°à¤¹à¤ª": 6015,
  "à¤°à¤¹à¤ªà¤Ľ": 7115,
  "à¤°à¤¹à¤¬": 7973,
  "à¤°à¤¹à¤®": 2511,
  "à¤°à¤¹à¤°": 374,
  "à¤°à¤¹à¤°à¤£": 13418,
  "à¤°à¤¹à¤°à¤£à¤ķ": 13419,
  "à¤°à¤¹à¤°à¤²": 13416,
  "à¤°à¤¹à¤°à¤¹": 13417,
  "à¤°à¤¹à¤°à¤ķ": 7114,
  "à¤°à¤¹à¤²": 3253,
  "à¤°à¤¹à¤µ": 2305,
  "à¤°à¤¹à¤µà¤¨": 9420,
  "à¤°à¤¹à¤¸": 7971,
  "à¤°à¤¹à¤¸à¤¨": 7116,
  "à¤°à¤¹à¤¸à¤¨à¤²": 12795,
  "à¤°à¤¹à¤¸à¤®": 5640,
  "à¤°à¤¹à¤¸à¤¹": 9422,
  "à¤°à¤¹à¤¹à¤°": 7974,
  "à¤°à¤¹à¤ħà¤¨": 7975,
  "à¤°à¤¹à¤ķ": 2612,
  "à¤°à¤¹à¤Ĺà¤°": 12793,
  "à¤°à¤¹à¤ľ": 9419,
  "à¤°à¤¹à¤Ń": 12792,
  "à¤°à¤¹à¤Ńà¤¨": 9421,
  "à¤°à¤ħ": 2998,
  "à¤°à¤ħà¤§": 10972,
  "à¤°à¤ħà¤¨": 2244,
  "à¤°à¤ħà¤ª": 8696,
  "à¤°à¤ħà¤°": 4140,
  "à¤°à¤ħà¤°à¤®": 16178,
  "à¤°à¤ħà¤µ": 10525,
  "à¤°à¤ħà¤µà¤¸à¤°": 16180,
  "à¤°à¤ħà¤µà¤ľ": 16179,
  "à¤°à¤ħà¤¸": 10978,
  "à¤°à¤ħà¤¸à¤«à¤²": 10997,
  "à¤°à¤ħà¤¹": 10975,
  "à¤°à¤ħà¤¹à¤°": 16177,
  "à¤°à¤ħà¤ķ": 16176,
  "à¤°à¤ħà¤ĺ": 5503,
  "à¤°à¤ħà¤Ń": 10976,
  "à¤°à¤Ĩ": 3723,
  "à¤°à¤Ĩà¤«": 10969,
  "à¤°à¤Ĩà¤¬": 10979,
  "à¤°à¤Ĩà¤®": 3997,
  "à¤°à¤Ĩà¤°": 10962,
  "à¤°à¤Ĩà¤µ": 911,
  "à¤°à¤Ĩà¤µà¤¸": 4915,
  "à¤°à¤Ĩà¤īà¤¨": 16276,
  "à¤°à¤Ĩà¤ĸ": 5815,
  "à¤°à¤ĩà¤²": 8694,
  "à¤°à¤ĩà¤Ń": 10973,
  "à¤°à¤ĩà¤Ńà¤ķ": 10995,
  "à¤°à¤Īà¤¸": 10985,
  "à¤°à¤īà¤¡": 8697,
  "à¤°à¤īà¤¤": 10974,
  "à¤°à¤īà¤¨": 8689,
  "à¤°à¤īà¤¨à¤ķ": 10967,
  "à¤°à¤īà¤ªà¤°": 10989,
  "à¤°à¤īà¤ªà¤°à¤ķ": 10998,
  "à¤°à¤ıà¤¨": 4139,
  "à¤°à¤ıà¤¨à¤¹à¤°": 10579,
  "à¤°à¤ıà¤¨à¤ı": 4580,
  "à¤°à¤ıà¤¨à¤ıà¤®": 8699,
  "à¤°à¤ıà¤¨à¤ıà¤²": 8700,
  "à¤°à¤ıà¤¨à¤ıà¤ķ": 6856,
  "à¤°à¤ıà¤¨à¤ķ": 10992,
  "à¤°à¤ıà¤ªà¤Ľ": 10960,
  "à¤°à¤ıà¤¬": 10986,
  "à¤°à¤ıà¤ķ": 7556,
  "à¤°à¤ĵà¤Ł": 10994,
  "à¤°à¤Ķ": 10966,
  "à¤°à¤ķ": 226,
  "à¤°à¤ķà¤£": 12411,
  "à¤°à¤ķà¤¤": 12409,
  "à¤°à¤ķà¤¤à¤¤": 7886,
  "à¤°à¤ķà¤¨": 7882,
  "à¤°à¤ķà¤¬": 7883,
  "à¤°à¤ķà¤®": 2561,
  "à¤°à¤ķà¤®à¤§": 9292,
  "à¤°à¤ķà¤®à¤ķ": 12413,
  "à¤°à¤ķà¤°": 1501,
  "à¤°à¤ķà¤°à¤£": 3599,
  "à¤°à¤ķà¤°à¤£à¤ªà¤Ľ": 16267,
  "à¤°à¤ķà¤°à¤£à¤¬": 5302,
  "à¤°à¤ķà¤°à¤£à¤®": 2146,
  "à¤°à¤ķà¤°à¤£à¤²": 4641,
  "à¤°à¤ķà¤°à¤£à¤¸": 10548,
  "à¤°à¤ķà¤°à¤£à¤¸à¤®": 16266,
  "à¤°à¤ķà¤°à¤£à¤¹à¤°": 12416,
  "à¤°à¤ķà¤°à¤£à¤ķ": 3600,
  "à¤°à¤ķà¤°à¤®": 12412,
  "à¤°à¤ķà¤°à¤ķ": 7884,
  "à¤°à¤ķà¤²": 2237,
  "à¤°à¤ķà¤µ": 6475,
  "à¤°à¤ķà¤¶": 12410,
  "à¤°à¤ķà¤¸": 6474,
  "à¤°à¤ķà¤¸à¤¨": 12414,
  "à¤°à¤ķà¤¹": 9290,
  "à¤°à¤ķà¤¹à¤°": 4474,
  "à¤°à¤ķà¤ķ": 2972,
  "à¤°à¤ķà¤Ł": 1535,
  "à¤°à¤ķà¤Łà¤¨": 7885,
  "à¤°à¤ķà¤Łà¤°": 12415,
  "à¤°à¤ķà¤Ńà¤¨": 9291,
  "à¤°à¤ĸ": 1010,
  "à¤°à¤ĸà¤£": 6735,
  "à¤°à¤ĸà¤§à¤¨": 10168,
  "à¤°à¤ĸà¤ª": 7372,
  "à¤°à¤ĸà¤ªà¤¤": 14970,
  "à¤°à¤ĸà¤°": 4732,
  "à¤°à¤ĸà¤°à¤¤": 10167,
  "à¤°à¤ĸà¤¹à¤°": 14969,
  "à¤°à¤ĸà¤ķ": 7560,
  "à¤°à¤Ĺ": 1344,
  "à¤°à¤Ĺà¤¢": 4733,
  "à¤°à¤Ĺà¤¤": 1042,
  "à¤°à¤Ĺà¤¤à¤°": 15340,
  "à¤°à¤Ĺà¤¨": 1837,
  "à¤°à¤Ĺà¤®à¤¨": 7561,
  "à¤°à¤Ĺà¤®à¤¨à¤®": 8698,
  "à¤°à¤Ĺà¤®à¤¨à¤ķ": 10981,
  "à¤°à¤Ĺà¤°": 4731,
  "à¤°à¤Ĺà¤°à¤²": 15339,
  "à¤°à¤Ĺà¤ŀ": 3123,
  "à¤°à¤ĺ": 2210,
  "à¤°à¤ĺà¤°": 10964,
  "à¤°à¤Ļ": 1772,
  "à¤°à¤Ļà¤®": 3284,
  "à¤°à¤Ļà¤²": 3724,
  "à¤°à¤Ļà¤¸": 15613,
  "à¤°à¤Ļà¤¸à¤®": 10383,
  "à¤°à¤Ļà¤ķ": 2374,
  "à¤°à¤Ļà¤Ĺ": 10382,
  "à¤°à¤Ļà¤Ĺà¤¤": 15614,
  "à¤°à¤ļ": 691,
  "à¤°à¤ļà¤¢": 3157,
  "à¤°à¤ļà¤£": 1228,
  "à¤°à¤ļà¤¨": 686,
  "à¤°à¤ļà¤¨à¤²": 5428,
  "à¤°à¤ļà¤¨à¤ķ": 9992,
  "à¤°à¤ļà¤°": 14401,
  "à¤°à¤ļà¤²": 2019,
  "à¤°à¤ļà¤²à¤¨": 1744,
  "à¤°à¤ļà¤²à¤¨à¤¬": 15589,
  "à¤°à¤ļà¤²à¤¨à¤®": 3799,
  "à¤°à¤ļà¤²à¤¨à¤²": 6147,
  "à¤°à¤ļà¤²à¤¨à¤¸à¤®": 15591,
  "à¤°à¤ļà¤²à¤¨à¤¹à¤°": 15590,
  "à¤°à¤ļà¤²à¤¨à¤ħà¤¨": 7440,
  "à¤°à¤ļà¤²à¤¨à¤ķ": 8285,
  "à¤°à¤Ľ": 4729,
  "à¤°à¤Ľà¤¹": 16411,
  "à¤°à¤ľ": 679,
  "à¤°à¤ľà¤¤": 14387,
  "à¤°à¤ľà¤¨": 1807,
  "à¤°à¤ľà¤¨à¤¨": 2683,
  "à¤°à¤ľà¤¨à¤¨à¤¸à¤®": 15634,
  "à¤°à¤ľà¤¨à¤¬": 15633,
  "à¤°à¤ľà¤¨à¤²": 3996,
  "à¤°à¤ľà¤¨à¤¸": 10385,
  "à¤°à¤ľà¤¨à¤ķ": 6685,
  "à¤°à¤ľà¤®": 10961,
  "à¤°à¤ľà¤¯": 14388,
  "à¤°à¤ľà¤²": 4579,
  "à¤°à¤ľà¤¸": 2435,
  "à¤°à¤ľà¤¸à¤®à¤ķ": 9987,
  "à¤°à¤ľà¤¹": 9986,
  "à¤°à¤ľà¤¹à¤°": 3975,
  "à¤°à¤ľà¤ķ": 5836,
  "à¤°à¤ľà¤Ĺà¤¤": 14389,
  "à¤°à¤ľà¤Ĺà¤ľ": 10996,
  "à¤°à¤Ŀ": 5834,
  "à¤°à¤Ŀà¤²": 10991,
  "à¤°à¤ŀ": 1514,
  "à¤°à¤Ł": 5501,
  "à¤°à¤Łà¤¨": 10957,
  "à¤°à¤Łà¤«": 10970,
  "à¤°à¤Łà¤°": 8692,
  "à¤°à¤Łà¤°à¤ķ": 10971,
  "à¤°à¤ł": 6284,
  "à¤°à¤łà¤®": 10959,
  "à¤°à¤łà¤Ĺ": 10993,
  "à¤°à¤Ń": 426,
  "à¤°à¤Ńà¤¨": 1463,
  "à¤°à¤Ńà¤°": 1779,
  "à¤°à¤Ńà¤°à¤¬": 7228,
  "à¤°à¤Ńà¤°à¤ķ": 3149,
  "à¤°à¤Ńà¤²": 8143,
  "à¤°à¤Ńà¤²à¤Ĺ": 13612,
  "à¤°à¤Ńà¤ıà¤ªà¤¨": 13613,
  "à¤°à¤Ńà¤ķ": 4854,
  "à¤°à¤Ńà¤Ĺà¤µà¤¤": 13614,
  "à¤±": 10931,
  "à¤²": 166,
  "à¤²à¤¡": 2903,
  "à¤²à¤¡à¤ª": 11117,
  "à¤²à¤¡à¤®à¤¨": 16142,
  "à¤²à¤¡à¤²": 11108,
  "à¤²à¤¢": 5850,
  "à¤²à¤£": 7586,
  "à¤²à¤¤": 549,
  "à¤²à¤¤ÅĴ": 14073,
  "à¤²à¤¤ÅĴà¤µ": 16925,
  "à¤²à¤¤à¤¤": 14068,
  "à¤²à¤¤à¤¦": 4866,
  "à¤²à¤¤à¤¨": 11102,
  "à¤²à¤¤à¤ª": 4689,
  "à¤²à¤¤à¤ªà¤¤": 5731,
  "à¤²à¤¤à¤¬": 2069,
  "à¤²à¤¤à¤®": 1055,
  "à¤²à¤¤à¤°": 2952,
  "à¤²à¤¤à¤²": 1031,
  "à¤²à¤¤à¤²à¤Ĺ": 8388,
  "à¤²à¤¤à¤¸": 14069,
  "à¤²à¤¤à¤¸à¤®": 5130,
  "à¤²à¤¤à¤¸à¤®à¤ķ": 6121,
  "à¤²à¤¤à¤¹à¤°": 9882,
  "à¤²à¤¤à¤ħà¤¨": 14072,
  "à¤²à¤¤à¤ķ": 1051,
  "à¤²à¤¤à¤ķà¤°": 15010,
  "à¤²à¤¤à¤ľà¤¸": 14071,
  "à¤²à¤¤à¤Ń": 5730,
  "à¤²à¤¤à¤Ńà¤¨": 14070,
  "à¤²à¤¥": 4146,
  "à¤²à¤¥à¤²": 11109,
  "à¤²à¤¦": 1201,
  "à¤²à¤¦à¤¤": 11114,
  "à¤²à¤¦à¤Ļ": 15196,
  "à¤²à¤§": 2620,
  "à¤²à¤¨": 370,
  "à¤²à¤¨à¤¤": 6068,
  "à¤²à¤¨à¤¤à¤°": 13402,
  "à¤²à¤¨à¤¦": 7195,
  "à¤²à¤¨à¤¨": 13398,
  "à¤²à¤¨à¤ª": 3782,
  "à¤²à¤¨à¤ªà¤¶": 8101,
  "à¤²à¤¨à¤ªà¤Ľ": 2896,
  "à¤²à¤¨à¤¬": 2405,
  "à¤²à¤¨à¤®": 694,
  "à¤²à¤¨à¤®à¤£": 14406,
  "à¤²à¤¨à¤¯": 13399,
  "à¤²à¤¨à¤¯à¤¤": 8100,
  "à¤²à¤¨à¤°": 13397,
  "à¤²à¤¨à¤°à¤¤": 2981,
  "à¤²à¤¨à¤°à¤²": 13401,
  "à¤²à¤¨à¤²": 1251,
  "à¤²à¤¨à¤²à¤Ĺ": 8434,
  "à¤²à¤¨à¤²à¤Ĺà¤¤": 15273,
  "à¤²à¤¨à¤µ": 5086,
  "à¤²à¤¨à¤¸": 3781,
  "à¤²à¤¨à¤¸à¤®": 4513,
  "à¤²à¤¨à¤¹à¤°": 4363,
  "à¤²à¤¨à¤ħà¤¨": 13403,
  "à¤²à¤¨à¤ķ": 793,
  "à¤²à¤¨à¤ķà¤°": 14583,
  "à¤²à¤¨à¤Ĺà¤°": 9647,
  "à¤²à¤¨à¤Ĺà¤°à¤ķ": 13404,
  "à¤²à¤¨à¤ľ": 6069,
  "à¤²à¤¨à¤Ł": 13400,
  "à¤²à¤¨à¤Ń": 9646,
  "à¤²à¤¨à¤Ńà¤°": 9648,
  "à¤²à¤ª": 1046,
  "à¤²à¤ªà¤¤": 1272,
  "à¤²à¤ªà¤¨": 8748,
  "à¤²à¤ªà¤®": 7588,
  "à¤²à¤ªà¤¹": 15003,
  "à¤²à¤ªà¤ķ": 8752,
  "à¤²à¤ªà¤Ľ": 1791,
  "à¤²à¤ªà¤Ł": 10173,
  "à¤²à¤«": 3571,
  "à¤²à¤¬": 355,
  "à¤²à¤¬à¤¦": 4509,
  "à¤²à¤¬à¤¦à¤²": 13297,
  "à¤²à¤¬à¤¨": 3288,
  "à¤²à¤¬à¤¬": 3871,
  "à¤²à¤¬à¤®": 2593,
  "à¤²à¤¬à¤®à¤§": 13298,
  "à¤²à¤¬à¤°": 5075,
  "à¤²à¤¬à¤²": 1599,
  "à¤²à¤¬à¤µ": 6577,
  "à¤²à¤¬à¤¸": 3111,
  "à¤²à¤¬à¤¸à¤¹": 5076,
  "à¤²à¤¬à¤¹": 1727,
  "à¤²à¤¬à¤¹à¤°": 5678,
  "à¤²à¤¬à¤ķ": 1662,
  "à¤²à¤¬à¤Ĺà¤²à¤®": 13299,
  "à¤²à¤¬à¤ļ": 3335,
  "à¤²à¤¬à¤ľ": 4848,
  "à¤²à¤¬à¤ľà¤¸": 13296,
  "à¤²à¤¬à¤Ł": 13295,
  "à¤²à¤®": 291,
  "à¤²à¤®à¤¡": 12928,
  "à¤²à¤®à¤£": 5651,
  "à¤²à¤®à¤¤": 9467,
  "à¤²à¤®à¤§": 5341,
  "à¤²à¤®à¤¨": 4834,
  "à¤²à¤®à¤ª": 12926,
  "à¤²à¤®à¤®": 4347,
  "à¤²à¤®à¤¯": 7136,
  "à¤²à¤®à¤°": 12925,
  "à¤²à¤®à¤°à¤²": 9469,
  "à¤²à¤®à¤²": 3860,
  "à¤²à¤®à¤¸": 8011,
  "à¤²à¤®à¤¸à¤¨à¤²": 12932,
  "à¤²à¤®à¤¸à¤®": 12930,
  "à¤²à¤®à¤¸à¤²": 12931,
  "à¤²à¤®à¤¹": 9468,
  "à¤²à¤®à¤ķ": 6025,
  "à¤²à¤®à¤ĸ": 6026,
  "à¤²à¤®à¤Ł": 12927,
  "à¤²à¤®à¤ł": 12929,
  "à¤²à¤¯": 441,
  "à¤²à¤¯à¤¤": 4431,
  "à¤²à¤¯à¤¤à¤°": 6883,
  "à¤²à¤¯à¤¤à¤¸": 11118,
  "à¤²à¤¯à¤¦": 3399,
  "à¤²à¤¯à¤¨": 2788,
  "à¤²à¤¯à¤¨à¤²": 13667,
  "à¤²à¤¯à¤ª": 4091,
  "à¤²à¤¯à¤ªà¤Ľ": 8156,
  "à¤²à¤¯à¤¬": 1454,
  "à¤²à¤¯à¤®": 704,
  "à¤²à¤¯à¤®à¤§": 4881,
  "à¤²à¤¯à¤®à¤®": 14433,
  "à¤²à¤¯à¤¯à¤²": 13669,
  "à¤²à¤¯à¤°": 13665,
  "à¤²à¤¯à¤²": 622,
  "à¤²à¤¯à¤²à¤®": 13668,
  "à¤²à¤¯à¤²à¤²": 14238,
  "à¤²à¤¯à¤²à¤ķ": 9741,
  "à¤²à¤¯à¤²à¤Ĺ": 4533,
  "à¤²à¤¯à¤µ": 7233,
  "à¤²à¤¯à¤µà¤°": 13670,
  "à¤²à¤¯à¤¸": 2212,
  "à¤²à¤¯à¤¸à¤®": 3400,
  "à¤²à¤¯à¤¸à¤®à¤¯": 16239,
  "à¤²à¤¯à¤¸à¤®à¤ķ": 6613,
  "à¤²à¤¯à¤¸à¤°à¤ķ": 15896,
  "à¤²à¤¯à¤¸à¤¹": 6881,
  "à¤²à¤¯à¤¹à¤°": 1462,
  "à¤²à¤¯à¤ħà¤¨": 3401,
  "à¤²à¤¯à¤ħà¤Ĺ": 13674,
  "à¤²à¤¯à¤ħà¤ĺ": 13672,
  "à¤²à¤¯à¤ıà¤®": 13673,
  "à¤²à¤¯à¤ķ": 592,
  "à¤²à¤¯à¤ķà¤°": 14170,
  "à¤²à¤¯à¤ļ": 13666,
  "à¤²à¤¯à¤ľà¤¸": 5706,
  "à¤²à¤¯à¤Ń": 4092,
  "à¤²à¤¯à¤Ńà¤¨": 6087,
  "à¤²à¤¯à¤Ńà¤°": 13671,
  "à¤²à¤°": 770,
  "à¤²à¤°à¤¦": 8749,
  "à¤²à¤°à¤¬": 8751,
  "à¤²à¤°à¤®": 3362,
  "à¤²à¤°à¤²": 3427,
  "à¤²à¤°à¤µ": 11100,
  "à¤²à¤°à¤¸": 11099,
  "à¤²à¤°à¤¸à¤®": 14553,
  "à¤²à¤°à¤¹": 3225,
  "à¤²à¤°à¤¹à¤°": 7590,
  "à¤²à¤°à¤ķ": 3166,
  "à¤²à¤°à¤ŀ": 14554,
  "à¤²à¤²": 349,
  "à¤²à¤²à¤²": 9589,
  "à¤²à¤²à¤ķ": 8747,
  "à¤²à¤²à¤Ĺ": 2068,
  "à¤²à¤µ": 717,
  "à¤²à¤µà¤¨": 11101,
  "à¤²à¤µà¤ª": 11106,
  "à¤²à¤µà¤ªà¤¥": 16847,
  "à¤²à¤µà¤¬": 14466,
  "à¤²à¤µà¤®": 6879,
  "à¤²à¤µà¤°": 4936,
  "à¤²à¤µà¤²": 4148,
  "à¤²à¤µà¤¶": 14467,
  "à¤²à¤µà¤¸": 2499,
  "à¤²à¤µà¤¹": 14464,
  "à¤²à¤µà¤¹à¤°": 10007,
  "à¤²à¤µà¤ķ": 3911,
  "à¤²à¤µà¤ľ": 14465,
  "à¤²à¤¶": 3570,
  "à¤²à¤¶à¤¨": 11104,
  "à¤²à¤·": 8745,
  "à¤²à¤·à¤£à¤ķ": 11112,
  "à¤²à¤¸": 646,
  "à¤²à¤¸à¤¡à¤ķ": 9957,
  "à¤²à¤¸à¤¨": 8750,
  "à¤²à¤¸à¤ªà¤Ľ": 14306,
  "à¤²à¤¸à¤®": 867,
  "à¤²à¤¸à¤®à¤ķ": 8334,
  "à¤²à¤¸à¤°": 11103,
  "à¤²à¤¸à¤°à¤¹": 14305,
  "à¤²à¤¸à¤²": 5223,
  "à¤²à¤¸à¤²à¤Ĺ": 11119,
  "à¤²à¤¸à¤¸": 14303,
  "à¤²à¤¸à¤¸à¤®": 14304,
  "à¤²à¤¸à¤¹": 2245,
  "à¤²à¤¸à¤ķ": 3497,
  "à¤²à¤¸à¤ĸ": 6678,
  "à¤²à¤¸à¤ľ": 8264,
  "à¤²à¤¹": 2333,
  "à¤²à¤¹à¤¡à¤¬": 15966,
  "à¤²à¤¹à¤¨": 7592,
  "à¤²à¤¹à¤¬": 11116,
  "à¤²à¤¹à¤°": 1323,
  "à¤²à¤¹à¤ķ": 11105,
  "à¤²à¤ħà¤§": 8755,
  "à¤²à¤ħà¤¨": 4282,
  "à¤²à¤ħà¤ª": 8756,
  "à¤²à¤ħà¤µà¤§": 11123,
  "à¤²à¤ħà¤¸": 7594,
  "à¤²à¤ħà¤Ĺ": 8758,
  "à¤²à¤ħà¤ĺ": 5851,
  "à¤²à¤ħà¤Ń": 8757,
  "à¤²à¤Ĩà¤¦": 11120,
  "à¤²à¤Ĩà¤ī": 11121,
  "à¤²à¤Ī": 5222,
  "à¤²à¤īà¤¦": 6299,
  "à¤²à¤īà¤ªà¤°": 5516,
  "à¤²à¤ıà¤ķ": 11098,
  "à¤²à¤ķ": 275,
  "à¤²à¤ķà¤£": 2513,
  "à¤²à¤ķà¤¤": 2706,
  "à¤²à¤ķà¤¥": 9425,
  "à¤²à¤ķà¤¨": 6016,
  "à¤²à¤ķà¤¬": 4341,
  "à¤²à¤ķà¤¬à¤¹": 12811,
  "à¤²à¤ķà¤®": 3686,
  "à¤²à¤ķà¤®à¤§": 12810,
  "à¤²à¤ķà¤®à¤²": 9427,
  "à¤²à¤ķà¤°": 2563,
  "à¤²à¤ķà¤°à¤²": 9426,
  "à¤²à¤ķà¤°à¤ķ": 12808,
  "à¤²à¤ķà¤²": 1750,
  "à¤²à¤ķà¤µ": 9424,
  "à¤²à¤ķà¤¸": 12806,
  "à¤²à¤ķà¤¸à¤®": 6512,
  "à¤²à¤ķà¤¸à¤¹": 6513,
  "à¤²à¤ķà¤¹": 12807,
  "à¤²à¤ķà¤¹à¤°": 2306,
  "à¤²à¤ķà¤ķ": 2149,
  "à¤²à¤ķà¤Ŀ": 12809,
  "à¤²à¤ķà¤Ńà¤°": 7977,
  "à¤²à¤ĸ": 2077,
  "à¤²à¤ĸà¤£": 2186,
  "à¤²à¤ĸà¤¨": 7593,
  "à¤²à¤ĸà¤¨à¤ī": 16689,
  "à¤²à¤ĸà¤¬à¤¨": 10432,
  "à¤²à¤ĸà¤¬à¤°": 8514,
  "à¤²à¤Ĺ": 508,
  "à¤²à¤Ĺà¤¢": 8206,
  "à¤²à¤Ĺà¤£": 9839,
  "à¤²à¤Ĺà¤¤": 2021,
  "à¤²à¤Ĺà¤¨": 1978,
  "à¤²à¤Ĺà¤¨à¤¶": 10420,
  "à¤²à¤Ĺà¤®": 7591,
  "à¤²à¤Ĺà¤®à¤§": 11122,
  "à¤²à¤Ĺà¤°": 7587,
  "à¤²à¤Ĺà¤µ": 13954,
  "à¤²à¤Ĺà¤¸à¤¹": 13956,
  "à¤²à¤Ĺà¤ĩà¤¨à¤®": 13958,
  "à¤²à¤Ĺà¤Ĺà¤¤": 13955,
  "à¤²à¤Ĺà¤ŀ": 3548,
  "à¤²à¤Ĺà¤Ńà¤Ĺ": 13957,
  "à¤²à¤ĺ": 4147,
  "à¤²à¤ĺà¤°": 11111,
  "à¤²à¤Ļ": 3033,
  "à¤²à¤Ļà¤ķ": 11107,
  "à¤²à¤Ļà¤Ĺà¤¨": 16186,
  "à¤²à¤ļ": 2076,
  "à¤²à¤ļÅĵà¤¯": 15816,
  "à¤²à¤ļà¤¨": 4937,
  "à¤²à¤ļà¤®": 6880,
  "à¤²à¤ļà¤²": 11110,
  "à¤²à¤ļà¤²à¤¨": 5799,
  "à¤²à¤ļà¤²à¤¨à¤ķ": 15815,
  "à¤²à¤ļà¤¸": 11115,
  "à¤²à¤ļà¤ķ": 6297,
  "à¤²à¤Ľ": 8746,
  "à¤²à¤ľ": 2603,
  "à¤²à¤ľà¤¡": 16078,
  "à¤²à¤ľà¤¨": 5849,
  "à¤²à¤ľà¤¯": 6298,
  "à¤²à¤ľà¤¸": 2621,
  "à¤²à¤Ŀ": 3910,
  "à¤²à¤ŀ": 6878,
  "à¤²à¤Ł": 2269,
  "à¤²à¤Łà¤®": 8753,
  "à¤²à¤Łà¤ķ": 7589,
  "à¤²à¤Łà¤Ńà¤¨": 10460,
  "à¤²à¤ł": 4594,
  "à¤²à¤Ń": 1239,
  "à¤²à¤Ńà¤¤": 15229,
  "à¤²à¤Ńà¤¨": 2953,
  "à¤²à¤Ńà¤ª": 10252,
  "à¤²à¤Ńà¤®à¤§": 15233,
  "à¤²à¤Ńà¤°": 2789,
  "à¤²à¤Ńà¤°à¤ª": 6882,
  "à¤²à¤Ńà¤°à¤ķ": 10253,
  "à¤²à¤Ńà¤²": 11113,
  "à¤²à¤Ńà¤¸": 15230,
  "à¤²à¤Ńà¤ı": 15231,
  "à¤²à¤Ńà¤ķ": 8754,
  "à¤²à¤Ńà¤Ń": 15232,
  "à¤µ": 178,
  "à¤µà¤¡": 1302,
  "à¤µà¤¡à¤²": 11413,
  "à¤µà¤¡à¤ķ": 7659,
  "à¤µà¤¢": 11407,
  "à¤µà¤£": 6336,
  "à¤µà¤£à¤²": 7660,
  "à¤µà¤£à¤¸à¤®": 11433,
  "à¤µà¤£à¤¸à¤®à¤¶": 16855,
  "à¤µà¤£à¤¹à¤¤": 16574,
  "à¤µà¤¤": 661,
  "à¤µà¤¤à¤¤à¤¨": 14342,
  "à¤µà¤¤à¤¨": 784,
  "à¤µà¤¤à¤¨à¤²": 7300,
  "à¤µà¤¤à¤¨à¤ķ": 5424,
  "à¤µà¤¤à¤ªà¤Ľ": 14340,
  "à¤µà¤¤à¤«": 14338,
  "à¤µà¤¤à¤¬": 5145,
  "à¤µà¤¤à¤®": 3739,
  "à¤µà¤¤à¤¯": 3625,
  "à¤µà¤¤à¤°": 3830,
  "à¤µà¤¤à¤°à¤£à¤ķ": 11428,
  "à¤µà¤¤à¤²": 4605,
  "à¤µà¤¤à¤²à¤Ĺ": 11434,
  "à¤µà¤¤à¤¸": 14335,
  "à¤µà¤¤à¤¸à¤®": 14339,
  "à¤µà¤¤à¤¹à¤®": 14343,
  "à¤µà¤¤à¤¹à¤°": 14337,
  "à¤µà¤¤à¤ķ": 3367,
  "à¤µà¤¤à¤Ń": 14336,
  "à¤µà¤¤à¤Ńà¤¨": 14341,
  "à¤µà¤¥": 4436,
  "à¤µà¤¦": 840,
  "à¤µà¤¦à¤£": 14664,
  "à¤µà¤¦à¤¤": 14661,
  "à¤µà¤¦à¤¦": 14663,
  "à¤µà¤¦à¤¨": 5544,
  "à¤µà¤¦à¤°": 8884,
  "à¤µà¤¦à¤²": 4959,
  "à¤µà¤¦à¤¸": 14662,
  "à¤µà¤¦à¤¹": 7339,
  "à¤µà¤¦à¤¹à¤ķ": 10081,
  "à¤µà¤¦à¤ķ": 8887,
  "à¤µà¤§": 910,
  "à¤µà¤§à¤¨": 6341,
  "à¤µà¤§à¤¨à¤ħà¤¨": 16575,
  "à¤µà¤§à¤¨à¤ķ": 8889,
  "à¤µà¤§à¤°": 5546,
  "à¤µà¤¨": 353,
  "à¤µà¤¨à¤¤": 8077,
  "à¤µà¤¨à¤¤à¤®": 13279,
  "à¤µà¤¨à¤¦": 8078,
  "à¤µà¤¨à¤¦à¤°": 13280,
  "à¤µà¤¨à¤¦à¤¶": 13286,
  "à¤µà¤¨à¤ª": 4846,
  "à¤µà¤¨à¤ªà¤¦": 6575,
  "à¤µà¤¨à¤ªà¤°": 8079,
  "à¤µà¤¨à¤ªà¤¶": 13284,
  "à¤µà¤¨à¤ªà¤Ľ": 6059,
  "à¤µà¤¨à¤¬": 4220,
  "à¤µà¤¨à¤¬à¤¸": 13282,
  "à¤µà¤¨à¤¬à¤¹": 9599,
  "à¤µà¤¨à¤®": 1303,
  "à¤µà¤¨à¤®à¤°à¤£à¤ķ": 15308,
  "à¤µà¤¨à¤¯": 3537,
  "à¤µà¤¨à¤°": 5072,
  "à¤µà¤¨à¤°à¤ķ": 5367,
  "à¤µà¤¨à¤²": 1866,
  "à¤µà¤¨à¤²à¤Ĺ": 15678,
  "à¤µà¤¨à¤µ": 7180,
  "à¤µà¤¨à¤¶": 1708,
  "à¤µà¤¨à¤¸": 2096,
  "à¤µà¤¨à¤¸à¤®": 9597,
  "à¤µà¤¨à¤¸à¤®à¤ķ": 13285,
  "à¤µà¤¨à¤¹à¤°": 13276,
  "à¤µà¤¨à¤ħà¤§": 13283,
  "à¤µà¤¨à¤ķ": 1313,
  "à¤µà¤¨à¤ķà¤¥": 10275,
  "à¤µà¤¨à¤Ĺ": 7181,
  "à¤µà¤¨à¤Ĺà¤°": 9598,
  "à¤µà¤¨à¤ļà¤°": 13281,
  "à¤µà¤¨à¤ļà¤ķ": 5368,
  "à¤µà¤¨à¤ľ": 6058,
  "à¤µà¤¨à¤ľà¤¨": 13277,
  "à¤µà¤¨à¤ľà¤Ļ": 13287,
  "à¤µà¤¨à¤Ł": 13275,
  "à¤µà¤¨à¤Ń": 9596,
  "à¤µà¤¨à¤Ńà¤¨": 13278,
  "à¤µà¤¨à¤Ńà¤°": 4077,
  "à¤µà¤ª": 584,
  "à¤µà¤ªà¤¤": 5880,
  "à¤µà¤ªà¤¦": 14152,
  "à¤µà¤ªà¤¨": 8882,
  "à¤µà¤ªà¤°": 5879,
  "à¤µà¤ªà¤°à¤°": 4960,
  "à¤µà¤ªà¤¶": 4692,
  "à¤µà¤ªà¤ķ": 6340,
  "à¤µà¤ªà¤Ľ": 3004,
  "à¤µà¤ªà¤ŀ": 7282,
  "à¤µà¤ªà¤Ł": 14153,
  "à¤µà¤«": 11406,
  "à¤µà¤¬": 1296,
  "à¤µà¤¬à¤¨": 6928,
  "à¤µà¤¬à¤®": 11422,
  "à¤µà¤¬à¤¹": 4759,
  "à¤µà¤¬à¤ľ": 5779,
  "à¤µà¤®": 469,
  "à¤µà¤®à¤£": 6098,
  "à¤µà¤®à¤§": 6622,
  "à¤µà¤®à¤¨": 3433,
  "à¤µà¤®à¤¯": 8172,
  "à¤µà¤®à¤¹": 4096,
  "à¤µà¤®à¤ŀ": 13775,
  "à¤µà¤¯": 571,
  "à¤µà¤¯à¤¤": 7657,
  "à¤µà¤¯à¤¨": 707,
  "à¤µà¤¯à¤¨à¤¤à¤°": 5745,
  "à¤µà¤¯à¤¨à¤ª": 14435,
  "à¤µà¤¯à¤¨à¤ªà¤Ľ": 14438,
  "à¤µà¤¯à¤¨à¤¬": 6154,
  "à¤µà¤¯à¤¨à¤®": 1218,
  "à¤µà¤¯à¤¨à¤²": 4379,
  "à¤µà¤¯à¤¨à¤²à¤Ĺ": 14124,
  "à¤µà¤¯à¤¨à¤¸": 4387,
  "à¤µà¤¯à¤¨à¤¸à¤®": 7313,
  "à¤µà¤¯à¤¨à¤¸à¤¹": 9999,
  "à¤µà¤¯à¤¨à¤¹": 14436,
  "à¤µà¤¯à¤¨à¤ħà¤¨": 14439,
  "à¤µà¤¯à¤¨à¤ķ": 1241,
  "à¤µà¤¯à¤¨à¤ķà¤°": 15235,
  "à¤µà¤¯à¤¨à¤Ĺà¤°": 9998,
  "à¤µà¤¯à¤¨à¤ļ": 14437,
  "à¤µà¤¯à¤¬": 9894,
  "à¤µà¤¯à¤®": 1606,
  "à¤µà¤¯à¤®à¤®": 11425,
  "à¤µà¤¯à¤®à¤¸": 6771,
  "à¤µà¤¯à¤¯": 14123,
  "à¤µà¤¯à¤²": 5238,
  "à¤µà¤¯à¤¸": 11408,
  "à¤µà¤¯à¤¸à¤®": 8233,
  "à¤µà¤¯à¤ķ": 2654,
  "à¤µà¤¯à¤ķà¤°": 8888,
  "à¤µà¤¯à¤Ĺà¤°": 8234,
  "à¤µà¤°": 351,
  "à¤µà¤°à¤£": 589,
  "à¤µà¤°à¤£à¤¤à¤°": 14163,
  "à¤µà¤°à¤£à¤¨": 14160,
  "à¤µà¤°à¤£à¤ª": 14161,
  "à¤µà¤°à¤£à¤ªà¤Ľ": 14162,
  "à¤µà¤°à¤£à¤¬": 6124,
  "à¤µà¤°à¤£à¤®": 1836,
  "à¤µà¤°à¤£à¤®à¤¨": 5137,
  "à¤µà¤°à¤£à¤²": 3478,
  "à¤µà¤°à¤£à¤²à¤Ĺ": 14165,
  "à¤µà¤°à¤£à¤µ": 8243,
  "à¤µà¤°à¤£à¤¸": 6657,
  "à¤µà¤°à¤£à¤¸à¤®": 6126,
  "à¤µà¤°à¤£à¤¸à¤¹": 9911,
  "à¤µà¤°à¤£à¤¹à¤°": 6125,
  "à¤µà¤°à¤£à¤ħà¤¨": 4380,
  "à¤µà¤°à¤£à¤Ĩà¤¦": 14166,
  "à¤µà¤°à¤£à¤ķ": 2569,
  "à¤µà¤°à¤£à¤ľà¤¸": 14164,
  "à¤µà¤°à¤¤": 3088,
  "à¤µà¤°à¤¥": 13261,
  "à¤µà¤°à¤¦": 6927,
  "à¤µà¤°à¤ª": 4076,
  "à¤µà¤°à¤ªà¤°à¤ķ": 13266,
  "à¤µà¤°à¤ªà¤Ľ": 13264,
  "à¤µà¤°à¤¬": 2815,
  "à¤µà¤°à¤®": 1781,
  "à¤µà¤°à¤®à¤§": 7442,
  "à¤µà¤°à¤¯": 13259,
  "à¤µà¤°à¤°": 8073,
  "à¤µà¤°à¤²": 1427,
  "à¤µà¤°à¤²à¤Ĺ": 6233,
  "à¤µà¤°à¤µ": 7658,
  "à¤µà¤°à¤¸": 3580,
  "à¤µà¤°à¤¸à¤¤": 16263,
  "à¤µà¤°à¤¸à¤®": 6573,
  "à¤µà¤°à¤¸à¤¹": 8893,
  "à¤µà¤°à¤¹": 4758,
  "à¤µà¤°à¤¹à¤°": 3776,
  "à¤µà¤°à¤ķ": 1619,
  "à¤µà¤°à¤ĸà¤£": 13265,
  "à¤µà¤°à¤ļà¤¨": 9591,
  "à¤µà¤°à¤ľ": 13260,
  "à¤µà¤°à¤ľà¤¸": 9592,
  "à¤µà¤°à¤ŀ": 13263,
  "à¤µà¤°à¤Ń": 13262,
  "à¤µà¤°à¤Ńà¤¨": 9590,
  "à¤µà¤²": 462,
  "à¤µà¤²à¤¡": 13754,
  "à¤µà¤²à¤¤": 8168,
  "à¤µà¤²à¤¨": 3234,
  "à¤µà¤²à¤¨à¤¶": 16211,
  "à¤µà¤²à¤ª": 13751,
  "à¤µà¤²à¤¬": 8883,
  "à¤µà¤²à¤®": 2526,
  "à¤µà¤²à¤¯": 11410,
  "à¤µà¤²à¤²": 2955,
  "à¤µà¤²à¤²à¤¨": 16159,
  "à¤µà¤²à¤¸": 13750,
  "à¤µà¤²à¤ĭà¤·": 13755,
  "à¤µà¤²à¤ķ": 4156,
  "à¤µà¤²à¤Ĺ": 4094,
  "à¤µà¤²à¤Ĺà¤¤": 9760,
  "à¤µà¤²à¤ļ": 13753,
  "à¤µà¤²à¤ľ": 13752,
  "à¤µà¤µ": 746,
  "à¤µà¤µà¤¤": 5545,
  "à¤µà¤µà¤ª": 8885,
  "à¤µà¤µà¤°": 2877,
  "à¤µà¤µà¤ľ": 14522,
  "à¤µà¤¶": 971,
  "à¤µà¤¶à¤¤": 5883,
  "à¤µà¤¶à¤¨à¤²": 14902,
  "à¤µà¤¶à¤¬": 11420,
  "à¤µà¤¶à¤®à¤¶": 8894,
  "à¤µà¤¶à¤°": 14900,
  "à¤µà¤¶à¤°à¤£": 14901,
  "à¤µà¤¶à¤²": 6345,
  "à¤µà¤¶à¤¸": 8891,
  "à¤µà¤¶à¤ķ": 3662,
  "à¤µà¤·": 11403,
  "à¤µà¤¸": 260,
  "à¤µà¤¸à¤¤": 5321,
  "à¤µà¤¸à¤¦à¤¸": 9388,
  "à¤µà¤¸à¤§": 7957,
  "à¤µà¤¸à¤¨": 1567,
  "à¤µà¤¸à¤¨à¤ķ": 12696,
  "à¤µà¤¸à¤«à¤²": 12698,
  "à¤µà¤¸à¤¬": 7956,
  "à¤µà¤¸à¤®": 1435,
  "à¤µà¤¸à¤®à¤ķ": 10311,
  "à¤µà¤¸à¤°": 4062,
  "à¤µà¤¸à¤°à¤¹": 12697,
  "à¤µà¤¸à¤°à¤ķ": 12694,
  "à¤µà¤¸à¤²": 3250,
  "à¤µà¤¸à¤²à¤Ĺ": 12699,
  "à¤µà¤¸à¤¸": 12693,
  "à¤µà¤¸à¤¹": 2931,
  "à¤µà¤¸à¤¹à¤®à¤¤": 6802,
  "à¤µà¤¸à¤¹à¤®à¤¤à¤²": 16151,
  "à¤µà¤¸à¤¹à¤°": 12695,
  "à¤µà¤¸à¤¹à¤¸à¤ļ": 16150,
  "à¤µà¤¸à¤ħà¤ĺ": 12700,
  "à¤µà¤¸à¤ķ": 1638,
  "à¤µà¤¸à¤ļ": 4491,
  "à¤µà¤¸à¤Ń": 4825,
  "à¤µà¤¹": 1357,
  "à¤µà¤¹à¤¤": 11416,
  "à¤µà¤¹à¤¨": 11412,
  "à¤µà¤¹à¤¨à¤ķ": 15349,
  "à¤µà¤¹à¤°": 1581,
  "à¤µà¤ħà¤¡": 11435,
  "à¤µà¤ħà¤¤": 11432,
  "à¤µà¤ħà¤§": 2724,
  "à¤µà¤ħà¤¨": 3506,
  "à¤µà¤ħà¤¨à¤¶à¤¨à¤ķ": 16253,
  "à¤µà¤ħà¤°": 5239,
  "à¤µà¤ħà¤²à¤°": 7663,
  "à¤µà¤ħà¤µà¤¸": 11436,
  "à¤µà¤ħà¤ĺ": 6343,
  "à¤µà¤Ĩ": 6339,
  "à¤µà¤Ĩà¤¦à¤°": 6829,
  "à¤µà¤Ĩà¤ª": 11437,
  "à¤µà¤Ĩà¤¯": 11429,
  "à¤µà¤Ĩà¤°": 6344,
  "à¤µà¤Ĩà¤ĩà¤ľ": 11430,
  "à¤µà¤ĩà¤¨": 4015,
  "à¤µà¤ĩà¤¬": 11424,
  "à¤µà¤ĩà¤®": 11418,
  "à¤µà¤ĩà¤²": 8886,
  "à¤µà¤ĩà¤ļ": 11431,
  "à¤µà¤Ī": 5543,
  "à¤µà¤Īà¤®": 11426,
  "à¤µà¤Īà¤²": 11415,
  "à¤µà¤Īà¤ķ": 11417,
  "à¤µà¤īà¤ª": 5884,
  "à¤µà¤īà¤ªà¤ª": 6931,
  "à¤µà¤īà¤ªà¤®à¤¹": 11439,
  "à¤µà¤īà¤ªà¤°": 7662,
  "à¤µà¤īà¤ªà¤ķ": 6346,
  "à¤µà¤Ĭà¤°": 8895,
  "à¤µà¤ıà¤Ĩà¤ĩà¤ľ": 11438,
  "à¤µà¤ıà¤ķ": 11404,
  "à¤µà¤ķ": 367,
  "à¤µà¤ķà¤¤": 3780,
  "à¤µà¤ķà¤¦": 13383,
  "à¤µà¤ķà¤§": 13386,
  "à¤µà¤ķà¤ª": 2201,
  "à¤µà¤ķà¤ªà¤¬": 13390,
  "à¤µà¤ķà¤ªà¤®": 4081,
  "à¤µà¤ķà¤ªà¤²": 13389,
  "à¤µà¤ķà¤ªà¤¸à¤®": 8099,
  "à¤µà¤ķà¤ªà¤ħà¤Ĺ": 15890,
  "à¤µà¤ķà¤ªà¤ķ": 5689,
  "à¤µà¤ķà¤¬": 13385,
  "à¤µà¤ķà¤®": 4957,
  "à¤µà¤ķà¤¯": 8098,
  "à¤µà¤ķà¤°": 1915,
  "à¤µà¤ķà¤°à¤£": 9638,
  "à¤µà¤ķà¤²": 1829,
  "à¤µà¤ķà¤µ": 13384,
  "à¤µà¤ķà¤¸": 4512,
  "à¤µà¤ķà¤¸à¤®": 13387,
  "à¤µà¤ķà¤¸à¤¹": 9639,
  "à¤µà¤ķà¤¹à¤°": 2740,
  "à¤µà¤ķà¤ķ": 1962,
  "à¤µà¤ķà¤ķà¤°": 13388,
  "à¤µà¤ĸ": 4956,
  "à¤µà¤ĸà¤¤": 8892,
  "à¤µà¤Ĺ": 2653,
  "à¤µà¤Ĺà¤£à¤ķ": 16086,
  "à¤µà¤Ĺà¤¤": 6338,
  "à¤µà¤Ĺà¤¨": 6930,
  "à¤µà¤Ĺà¤¨à¤ķ": 8539,
  "à¤µà¤Ĺà¤°": 6337,
  "à¤µà¤Ĺà¤Ńà¤°": 16085,
  "à¤µà¤ĺ": 3829,
  "à¤µà¤Ļ": 7656,
  "à¤µà¤ļ": 1434,
  "à¤µà¤ļà¤¨": 4958,
  "à¤µà¤ļà¤¨à¤®": 11419,
  "à¤µà¤ļà¤¨à¤ķ": 11423,
  "à¤µà¤ļà¤°": 8890,
  "à¤µà¤Ľ": 11405,
  "à¤µà¤ľ": 1927,
  "à¤µà¤ľà¤¨": 506,
  "à¤µà¤ľà¤¨à¤®": 9837,
  "à¤µà¤ľà¤°": 11414,
  "à¤µà¤ľà¤¶": 11427,
  "à¤µà¤ľà¤¸": 5882,
  "à¤µà¤ľà¤¹à¤°": 7661,
  "à¤µà¤ľà¤ķ": 11411,
  "à¤µà¤Ŀ": 11409,
  "à¤µà¤Ł": 946,
  "à¤µà¤Łà¤¦": 10135,
  "à¤µà¤Łà¤¬": 10136,
  "à¤µà¤Łà¤®": 6342,
  "à¤µà¤Łà¤¯": 14868,
  "à¤µà¤Łà¤°": 5881,
  "à¤µà¤Łà¤°à¤¬": 14870,
  "à¤µà¤Łà¤°à¤²": 6188,
  "à¤µà¤Łà¤°à¤ķ": 10137,
  "à¤µà¤Łà¤²": 6929,
  "à¤µà¤Łà¤²à¤Ĺ": 14871,
  "à¤µà¤Łà¤¸": 6725,
  "à¤µà¤Łà¤¸à¤®": 14869,
  "à¤µà¤Łà¤ķ": 3297,
  "à¤µà¤Ń": 1012,
  "à¤µà¤Ńà¤¨": 3831,
  "à¤µà¤Ńà¤°": 1522,
  "à¤µà¤Ńà¤°à¤¬": 4707,
  "à¤µà¤Ńà¤°à¤®": 10169,
  "à¤µà¤Ńà¤°à¤²": 14972,
  "à¤µà¤Ńà¤°à¤ķ": 2520,
  "à¤µà¤Ńà¤ķ": 11421,
  "à¤¶": 206,
  "à¤¶à¤£": 7794,
  "à¤¶à¤£à¤ķ": 9130,
  "à¤¶à¤¤": 493,
  "à¤¶à¤¤à¤¤": 13894,
  "à¤¶à¤¤à¤¦": 8190,
  "à¤¶à¤¤à¤¨": 7011,
  "à¤¶à¤¤à¤¬": 3968,
  "à¤¶à¤¤à¤®": 1561,
  "à¤¶à¤¤à¤¯": 13895,
  "à¤¶à¤¤à¤°": 7009,
  "à¤¶à¤¤à¤²": 1257,
  "à¤¶à¤¤à¤µ": 9814,
  "à¤¶à¤¤à¤¸à¤®": 1941,
  "à¤¶à¤¤à¤¹à¤®": 13898,
  "à¤¶à¤¤à¤ħà¤¨": 13896,
  "à¤¶à¤¤à¤ħà¤°": 13899,
  "à¤¶à¤¤à¤ķ": 1786,
  "à¤¶à¤¤à¤ľà¤¤": 13900,
  "à¤¶à¤¤à¤Ń": 7260,
  "à¤¶à¤¤à¤Ńà¤¨": 1651,
  "à¤¶à¤¤à¤Ńà¤ıà¤ķ": 13897,
  "à¤¶à¤¥": 11981,
  "à¤¶à¤¦": 1719,
  "à¤¶à¤¦à¤¤": 9133,
  "à¤¶à¤¦à¤®": 11997,
  "à¤¶à¤¦à¤°": 11995,
  "à¤¶à¤¨": 472,
  "à¤¶à¤¨à¤¦": 6625,
  "à¤¶à¤¨à¤§": 13784,
  "à¤¶à¤¨à¤¨": 11990,
  "à¤¶à¤¨à¤ªà¤¶": 5716,
  "à¤¶à¤¨à¤ªà¤Ľ": 3617,
  "à¤¶à¤¨à¤¬": 2406,
  "à¤¶à¤¨à¤¬à¤®": 13789,
  "à¤¶à¤¨à¤®": 1105,
  "à¤¶à¤¨à¤®à¤¨": 11991,
  "à¤¶à¤¨à¤°": 6099,
  "à¤¶à¤¨à¤°à¤¤": 7246,
  "à¤¶à¤¨à¤²": 1287,
  "à¤¶à¤¨à¤²à¤ª": 15298,
  "à¤¶à¤¨à¤²à¤²": 5457,
  "à¤¶à¤¨à¤²à¤¸": 15297,
  "à¤¶à¤¨à¤²à¤ķ": 10273,
  "à¤¶à¤¨à¤µ": 7245,
  "à¤¶à¤¨à¤¶": 13785,
  "à¤¶à¤¨à¤¸": 4311,
  "à¤¶à¤¨à¤¸à¤®": 3404,
  "à¤¶à¤¨à¤¹à¤°": 4370,
  "à¤¶à¤¨à¤¹à¤¶": 13791,
  "à¤¶à¤¨à¤ħà¤¨": 4522,
  "à¤¶à¤¨à¤ħà¤²": 13790,
  "à¤¶à¤¨à¤ħà¤ĺ": 13788,
  "à¤¶à¤¨à¤ķ": 1174,
  "à¤¶à¤¨à¤Ĺà¤°": 9773,
  "à¤¶à¤¨à¤ľà¤¸": 13787,
  "à¤¶à¤¨à¤Ń": 13786,
  "à¤¶à¤¨à¤Ńà¤¨": 9774,
  "à¤¶à¤ª": 2044,
  "à¤¶à¤ªà¤°": 9124,
  "à¤¶à¤ªà¤¶": 9134,
  "à¤¶à¤ªà¤Ľ": 3188,
  "à¤¶à¤¬": 888,
  "à¤¶à¤¬à¤£": 14777,
  "à¤¶à¤¬à¤¨": 7797,
  "à¤¶à¤¬à¤ª": 14776,
  "à¤¶à¤¬à¤®": 14775,
  "à¤¶à¤¬à¤¹": 4313,
  "à¤¶à¤¬à¤ķ": 14774,
  "à¤¶à¤®": 484,
  "à¤¶à¤®à¤£": 13859,
  "à¤¶à¤®à¤§": 3117,
  "à¤¶à¤®à¤¨": 1532,
  "à¤¶à¤®à¤¬à¤¹": 9800,
  "à¤¶à¤®à¤²": 11993,
  "à¤¶à¤®à¤²à¤Ĺ": 12005,
  "à¤¶à¤®à¤µà¤¹": 13862,
  "à¤¶à¤®à¤¶": 2595,
  "à¤¶à¤®à¤¸": 13857,
  "à¤¶à¤®à¤ķ": 7798,
  "à¤¶à¤®à¤ĸ": 13860,
  "à¤¶à¤®à¤ľ": 13858,
  "à¤¶à¤®à¤ľà¤¨": 13861,
  "à¤¶à¤¯": 2320,
  "à¤¶à¤¯à¤¤": 5930,
  "à¤¶à¤¯à¤ª": 7801,
  "à¤¶à¤¯à¤¬": 4788,
  "à¤¶à¤¯à¤®": 7008,
  "à¤¶à¤¯à¤¯": 2923,
  "à¤¶à¤¯à¤²": 7010,
  "à¤¶à¤¯à¤µ": 9129,
  "à¤¶à¤¯à¤¹à¤°": 12001,
  "à¤¶à¤¯à¤ķ": 4986,
  "à¤¶à¤¯à¤ľà¤¨": 12003,
  "à¤¶à¤°": 1680,
  "à¤¶à¤°à¤£": 2175,
  "à¤¶à¤°à¤£à¤®": 11998,
  "à¤¶à¤°à¤¬à¤¹": 9132,
  "à¤¶à¤°à¤²": 11985,
  "à¤¶à¤°à¤ľ": 4312,
  "à¤¶à¤°à¤ŀ": 6422,
  "à¤¶à¤²": 666,
  "à¤¶à¤²à¤¤": 3048,
  "à¤¶à¤²à¤¦": 14358,
  "à¤¶à¤²à¤¨": 11989,
  "à¤¶à¤²à¤ª": 9974,
  "à¤¶à¤²à¤²": 9127,
  "à¤¶à¤²à¤ķ": 9126,
  "à¤¶à¤²à¤Ĺ": 7012,
  "à¤¶à¤²à¤Ł": 14359,
  "à¤¶à¤µ": 1243,
  "à¤¶à¤µà¤ª": 7800,
  "à¤¶à¤µà¤¬": 15239,
  "à¤¶à¤µà¤°": 9128,
  "à¤¶à¤µà¤²": 7799,
  "à¤¶à¤µà¤¸": 11983,
  "à¤¶à¤µà¤ķ": 4987,
  "à¤¶à¤µà¤ľ": 15238,
  "à¤¶à¤¶": 9123,
  "à¤¶à¤¶à¤®": 11994,
  "à¤¶à¤¶à¤°à¤£": 3446,
  "à¤¶à¤¶à¤ķ": 11986,
  "à¤¶à¤¸": 939,
  "à¤¶à¤¸à¤¤": 14859,
  "à¤¶à¤¸à¤®": 3008,
  "à¤¶à¤¸à¤°à¤ķ": 14860,
  "à¤¶à¤¸à¤²": 11987,
  "à¤¶à¤¸à¤¹": 5931,
  "à¤¶à¤¸à¤ķ": 6420,
  "à¤¶à¤¸à¤ļ": 9131,
  "à¤¶à¤¸à¤Ń": 962,
  "à¤¶à¤¹": 5279,
  "à¤¶à¤¹à¤¤": 12000,
  "à¤¶à¤¹à¤°": 1130,
  "à¤¶à¤¹à¤µ": 12004,
  "à¤¶à¤ħà¤§": 12002,
  "à¤¶à¤ħà¤¨": 3674,
  "à¤¶à¤Ĩà¤ļ": 12007,
  "à¤¶à¤īà¤¨": 11982,
  "à¤¶à¤īà¤ªà¤°à¤ķ": 12008,
  "à¤¶à¤ıà¤¨à¤²": 12006,
  "à¤¶à¤ķ": 346,
  "à¤¶à¤ķà¤¦": 4508,
  "à¤¶à¤ķà¤¬": 5069,
  "à¤¶à¤ķà¤®": 2580,
  "à¤¶à¤ķà¤°": 7178,
  "à¤¶à¤ķà¤²": 1282,
  "à¤¶à¤ķà¤²à¤²": 15292,
  "à¤¶à¤ķà¤²à¤Ĺ": 15293,
  "à¤¶à¤ķà¤µ": 9586,
  "à¤¶à¤ķà¤¸": 5068,
  "à¤¶à¤ķà¤¸à¤®": 8068,
  "à¤¶à¤ķà¤¸à¤®à¤ķ": 8069,
  "à¤¶à¤ķà¤¸à¤¹": 13245,
  "à¤¶à¤ķà¤¹à¤°": 2388,
  "à¤¶à¤ķà¤ķ": 1481,
  "à¤¶à¤Ĺ": 4176,
  "à¤¶à¤Ĺà¤¤": 11988,
  "à¤¶à¤ĺ": 11984,
  "à¤¶à¤Ļ": 7796,
  "à¤¶à¤ļ": 7795,
  "à¤¶à¤ļà¤¨": 3311,
  "à¤¶à¤ľ": 4177,
  "à¤¶à¤ľà¤¨": 9125,
  "à¤¶à¤ľà¤¨à¤ķ": 11999,
  "à¤¶à¤ľà¤²": 11996,
  "à¤¶à¤ľà¤¸": 6421,
  "à¤¶à¤ľà¤ķ": 11992,
  "à¤¶à¤Ł": 11980,
  "à¤¶à¤Ń": 1359,
  "à¤¶à¤Ńà¤¨": 4787,
  "à¤¶à¤Ńà¤°": 1591,
  "à¤¶à¤Ńà¤°à¤¬": 4406,
  "à¤¶à¤Ńà¤°à¤®": 8448,
  "à¤¶à¤Ńà¤°à¤ķ": 2137,
  "à¤¶à¤Ńà¤ķ": 2340,
  "à¤¶à¤Ńà¤ķà¤¤": 15350,
  "à¤·": 197,
  "à¤·à¤¢": 11839,
  "à¤·à¤£": 354,
  "à¤·à¤£à¤¤": 13288,
  "à¤·à¤£à¤¤à¤°": 9602,
  "à¤·à¤£à¤¦": 8080,
  "à¤·à¤£à¤ª": 13289,
  "à¤·à¤£à¤ªà¤¤": 5074,
  "à¤·à¤£à¤ªà¤Ľ": 4358,
  "à¤·à¤£à¤¬": 2493,
  "à¤·à¤£à¤®": 1217,
  "à¤·à¤£à¤¯": 5073,
  "à¤·à¤£à¤°à¤¹": 9601,
  "à¤·à¤£à¤²": 1642,
  "à¤·à¤£à¤²à¤Ĺ": 6060,
  "à¤·à¤£à¤µ": 4847,
  "à¤·à¤£à¤¸": 3606,
  "à¤·à¤£à¤¸à¤®": 4221,
  "à¤·à¤£à¤¸à¤¹": 7182,
  "à¤·à¤£à¤¹à¤°": 3263,
  "à¤·à¤£à¤ħà¤¨": 5677,
  "à¤·à¤£à¤ħà¤Ń": 13293,
  "à¤·à¤£à¤Ĩà¤¦": 13294,
  "à¤·à¤£à¤ķ": 965,
  "à¤·à¤£à¤ķà¤°": 6576,
  "à¤·à¤£à¤Ĺ": 9600,
  "à¤·à¤£à¤Ĺà¤°": 13290,
  "à¤·à¤£à¤ľà¤¸": 13291,
  "à¤·à¤£à¤Ńà¤¨": 9603,
  "à¤·à¤£à¤Ńà¤°": 13292,
  "à¤·à¤£à¤Ńà¤°à¤®": 6061,
  "à¤·à¤¤": 602,
  "à¤·à¤¤à¤¬": 14193,
  "à¤·à¤¤à¤®": 9073,
  "à¤·à¤¤à¤°": 2318,
  "à¤·à¤¤à¤µ": 3971,
  "à¤·à¤¤à¤ķ": 11840,
  "à¤·à¤¦": 580,
  "à¤·à¤¦à¤¦": 9904,
  "à¤·à¤¦à¤¬": 4869,
  "à¤·à¤¦à¤®": 4108,
  "à¤·à¤¦à¤°": 4622,
  "à¤·à¤¦à¤²": 3341,
  "à¤·à¤¦à¤²à¤ķ": 14148,
  "à¤·à¤¦à¤¸": 7280,
  "à¤·à¤¦à¤¸à¤®": 14147,
  "à¤·à¤¦à¤ķ": 2192,
  "à¤·à¤¦à¤ĸ": 14146,
  "à¤·à¤§": 776,
  "à¤·à¤§à¤°": 2750,
  "à¤·à¤§à¤°à¤¤": 6165,
  "à¤·à¤§à¤°à¤ªà¤ŀ": 14569,
  "à¤·à¤§à¤°à¤¬": 14568,
  "à¤·à¤§à¤°à¤²": 5435,
  "à¤·à¤§à¤°à¤¹à¤°": 7325,
  "à¤·à¤§à¤°à¤ķ": 10049,
  "à¤·à¤§à¤ķ": 5269,
  "à¤·à¤¨": 9069,
  "à¤·à¤ª": 2233,
  "à¤·à¤ªà¤¤": 7763,
  "à¤·à¤ªà¤¨": 6990,
  "à¤·à¤ªà¤¶": 11849,
  "à¤·à¤ªà¤¹": 4030,
  "à¤·à¤ªà¤ķ": 9072,
  "à¤·à¤ªà¤Ľ": 1261,
  "à¤·à¤¬": 1172,
  "à¤·à¤¬à¤¢": 6752,
  "à¤·à¤¬à¤®": 11846,
  "à¤·à¤¬à¤¹": 6401,
  "à¤·à¤®": 465,
  "à¤·à¤®à¤£": 3965,
  "à¤·à¤®à¤¤": 706,
  "à¤·à¤®à¤¤à¤®": 14434,
  "à¤·à¤®à¤§": 9766,
  "à¤·à¤®à¤®": 9074,
  "à¤·à¤®à¤¯": 8171,
  "à¤·à¤®à¤°": 13768,
  "à¤·à¤®à¤²": 7766,
  "à¤·à¤®à¤ķ": 5920,
  "à¤·à¤¯": 518,
  "à¤·à¤¯à¤¤": 1909,
  "à¤·à¤¯à¤¤à¤°": 10409,
  "à¤·à¤¯à¤¦": 13988,
  "à¤·à¤¯à¤ª": 5405,
  "à¤·à¤¯à¤¬": 3883,
  "à¤·à¤¯à¤¬à¤¸": 5125,
  "à¤·à¤¯à¤®": 509,
  "à¤·à¤¯à¤®à¤§": 13959,
  "à¤·à¤¯à¤°": 3183,
  "à¤·à¤¯à¤²": 935,
  "à¤·à¤¯à¤²à¤Ĺ": 14854,
  "à¤·à¤¯à¤µ": 6400,
  "à¤·à¤¯à¤µà¤¸": 1851,
  "à¤·à¤¯à¤¸": 3751,
  "à¤·à¤¯à¤¸à¤®": 6116,
  "à¤·à¤¯à¤¸à¤¹": 7769,
  "à¤·à¤¯à¤¹": 9075,
  "à¤·à¤¯à¤¹à¤°": 2167,
  "à¤·à¤¯à¤īà¤ªà¤°": 13991,
  "à¤·à¤¯à¤ķ": 1448,
  "à¤·à¤¯à¤Ĺà¤¤": 2261,
  "à¤·à¤¯à¤Ĺà¤¤à¤®": 13989,
  "à¤·à¤¯à¤Ĺà¤¤à¤ķ": 13990,
  "à¤·à¤¯à¤Ĺà¤¤à¤ķà¤°": 16917,
  "à¤·à¤¯à¤ļ": 8214,
  "à¤·à¤¯à¤ľà¤¸": 9847,
  "à¤·à¤¯à¤Ńà¤¨": 6641,
  "à¤·à¤°": 1110,
  "à¤·à¤°à¤£": 9071,
  "à¤·à¤°à¤¤": 2528,
  "à¤·à¤°à¤¤à¤¹à¤°": 16054,
  "à¤·à¤°à¤ªà¤Ľ": 8401,
  "à¤·à¤°à¤¬": 6397,
  "à¤·à¤°à¤®": 4029,
  "à¤·à¤°à¤²": 5576,
  "à¤·à¤°à¤²à¤Ĺ": 11851,
  "à¤·à¤°à¤¶": 4979,
  "à¤·à¤°à¤¸": 5267,
  "à¤·à¤°à¤¸à¤®": 11845,
  "à¤·à¤°à¤¹": 5919,
  "à¤·à¤°à¤¹à¤°": 11843,
  "à¤·à¤°à¤ķ": 4781,
  "à¤·à¤°à¤ķà¤°": 7768,
  "à¤·à¤°à¤ľ": 11844,
  "à¤·à¤°à¤Ńà¤¨": 15084,
  "à¤·à¤²": 767,
  "à¤·à¤²à¤Ĺ": 6992,
  "à¤·à¤µ": 3842,
  "à¤·à¤µà¤¦": 9076,
  "à¤·à¤µà¤®à¤¨": 11852,
  "à¤·à¤µà¤°": 7764,
  "à¤·à¤µà¤¸": 11838,
  "à¤·à¤¶": 7761,
  "à¤·à¤¸": 1868,
  "à¤·à¤¸à¤®": 1125,
  "à¤·à¤¸à¤®à¤ķ": 15104,
  "à¤·à¤¸à¤°à¤¹": 7449,
  "à¤·à¤¸à¤²": 11841,
  "à¤·à¤¸à¤¹": 3513,
  "à¤·à¤¸à¤ķ": 11837,
  "à¤·à¤¹à¤°": 1281,
  "à¤·à¤ħà¤¨": 6399,
  "à¤·à¤ħà¤¸à¤°": 11854,
  "à¤·à¤ħà¤Ĺ": 3241,
  "à¤·à¤ħà¤ĺ": 1057,
  "à¤·à¤Ĩà¤«": 11847,
  "à¤·à¤Ĩà¤°à¤®": 11853,
  "à¤·à¤īà¤¤": 11848,
  "à¤·à¤īà¤®": 11850,
  "à¤·à¤ıà¤µà¤®": 11855,
  "à¤·à¤ķ": 415,
  "à¤·à¤ķà¤£à¤ķ": 13581,
  "à¤·à¤ķà¤¤": 8136,
  "à¤·à¤ķà¤¤à¤°": 8137,
  "à¤·à¤ķà¤¦": 4853,
  "à¤·à¤ķà¤¨à¤¬": 13582,
  "à¤·à¤ķà¤ª": 13575,
  "à¤·à¤ķà¤¬": 5382,
  "à¤·à¤ķà¤¬à¤¨": 13579,
  "à¤·à¤ķà¤®": 1918,
  "à¤·à¤ķà¤®à¤§": 10410,
  "à¤·à¤ķà¤°": 7765,
  "à¤·à¤ķà¤°à¤ķ": 13578,
  "à¤·à¤ķà¤²": 1543,
  "à¤·à¤ķà¤²à¤Ĺ": 15482,
  "à¤·à¤ķà¤µ": 13577,
  "à¤·à¤ķà¤¸": 6604,
  "à¤·à¤ķà¤¸à¤®": 6605,
  "à¤·à¤ķà¤¸à¤®à¤ķ": 13584,
  "à¤·à¤ķà¤¹": 13576,
  "à¤·à¤ķà¤¹à¤°": 1635,
  "à¤·à¤ķà¤¹à¤²": 13583,
  "à¤·à¤ķà¤ħà¤¨": 9707,
  "à¤·à¤ķà¤ķ": 1442,
  "à¤·à¤ķà¤ķà¤ķ": 15422,
  "à¤·à¤ķà¤Ĺà¤¤": 13580,
  "à¤·à¤ĸ": 9070,
  "à¤·à¤Ĺ": 5575,
  "à¤·à¤Ĺà¤¤": 11842,
  "à¤·à¤Ĺà¤°": 1773,
  "à¤·à¤ĺ": 6396,
  "à¤·à¤ļ": 7762,
  "à¤·à¤ļà¤¨": 6398,
  "à¤·à¤ľ": 1335,
  "à¤·à¤ľà¤¤": 7767,
  "à¤·à¤ľà¤¨": 6989,
  "à¤·à¤ľà¤¨à¤ķ": 2796,
  "à¤·à¤ľà¤¸": 5268,
  "à¤·à¤ľà¤¸à¤°": 15323,
  "à¤·à¤Ŀ": 6991,
  "à¤·à¤Ń": 1242,
  "à¤·à¤Ńà¤¤": 15236,
  "à¤·à¤Ńà¤¨": 1801,
  "à¤·à¤Ńà¤°": 2881,
  "à¤·à¤Ńà¤°à¤®": 15237,
  "à¤·à¤Ńà¤°à¤ķ": 8428,
  "à¤¸": 172,
  "à¤¸à¤¡": 4152,
  "à¤¸à¤¡à¤¬": 8823,
  "à¤¸à¤¡à¤°": 7625,
  "à¤¸à¤¡à¤ķ": 3128,
  "à¤¸à¤¡à¤ķà¤®": 7489,
  "à¤¸à¤¡à¤ķà¤²": 11261,
  "à¤¸à¤¡à¤ķà¤¸": 8558,
  "à¤¸à¤¡à¤ķà¤ķ": 8582,
  "à¤¸à¤¡à¤Łà¤ķà¤®": 16341,
  "à¤¸à¤¢": 4748,
  "à¤¸à¤£": 8808,
  "à¤¸à¤¤": 1259,
  "à¤¸à¤¤à¤¤": 11251,
  "à¤¸à¤¤à¤¤à¤°": 15277,
  "à¤¸à¤¤à¤¬": 5529,
  "à¤¸à¤¤à¤®": 2126,
  "à¤¸à¤¤à¤°": 4601,
  "à¤¸à¤¤à¤²": 6905,
  "à¤¸à¤¤à¤²à¤ľ": 16627,
  "à¤¸à¤¤à¤ķ": 5528,
  "à¤¸à¤¥à¤²": 8819,
  "à¤¸à¤¦": 435,
  "à¤¸à¤¦à¤¤": 9727,
  "à¤¸à¤¦à¤¦": 9728,
  "à¤¸à¤¦à¤¨": 8815,
  "à¤¸à¤¦à¤ª": 13639,
  "à¤¸à¤¦à¤¬": 4232,
  "à¤¸à¤¦à¤®": 1728,
  "à¤¸à¤¦à¤®à¤§": 9733,
  "à¤¸à¤¦à¤°à¤®": 9731,
  "à¤¸à¤¦à¤²": 1563,
  "à¤¸à¤¦à¤²à¤Ĺ": 9732,
  "à¤¸à¤¦à¤µ": 5704,
  "à¤¸à¤¦à¤¸": 3114,
  "à¤¸à¤¦à¤¸à¤®": 13640,
  "à¤¸à¤¦à¤¹à¤°": 1489,
  "à¤¸à¤¦à¤¹à¤²": 13643,
  "à¤¸à¤¦à¤¹à¤¹à¤°": 13644,
  "à¤¸à¤¦à¤ķ": 1485,
  "à¤¸à¤¦à¤ľ": 9729,
  "à¤¸à¤¦à¤ľà¤¸": 13642,
  "à¤¸à¤¦à¤Ń": 9730,
  "à¤¸à¤¦à¤Ńà¤¨": 13641,
  "à¤¸à¤§": 5526,
  "à¤¸à¤¨": 357,
  "à¤¸à¤¨à¤¤": 13301,
  "à¤¸à¤¨à¤¤à¤¨": 13304,
  "à¤¸à¤¨à¤¤à¤°": 7184,
  "à¤¸à¤¨à¤¤à¤ķ": 13303,
  "à¤¸à¤¨à¤¦": 5077,
  "à¤¸à¤¨à¤¦à¤°": 13305,
  "à¤¸à¤¨à¤¨à¤¹": 13306,
  "à¤¸à¤¨à¤ª": 4510,
  "à¤¸à¤¨à¤ªà¤¦": 9608,
  "à¤¸à¤¨à¤ªà¤Ľ": 5681,
  "à¤¸à¤¨à¤ªà¤Ł": 7188,
  "à¤¸à¤¨à¤¬": 2389,
  "à¤¸à¤¨à¤®": 1150,
  "à¤¸à¤¨à¤®à¤¨": 6318,
  "à¤¸à¤¨à¤¯": 8081,
  "à¤¸à¤¨à¤¯à¤¨": 7185,
  "à¤¸à¤¨à¤°": 5679,
  "à¤¸à¤¨à¤²": 824,
  "à¤¸à¤¨à¤²à¤¦": 14626,
  "à¤¸à¤¨à¤²à¤ª": 10067,
  "à¤¸à¤¨à¤²à¤¬": 10068,
  "à¤¸à¤¨à¤²à¤®": 10066,
  "à¤¸à¤¨à¤²à¤²": 3553,
  "à¤¸à¤¨à¤²à¤¸": 7333,
  "à¤¸à¤¨à¤²à¤¹à¤°": 14627,
  "à¤¸à¤¨à¤²à¤ķ": 3802,
  "à¤¸à¤¨à¤²à¤Ĺ": 6170,
  "à¤¸à¤¨à¤µ": 3264,
  "à¤¸à¤¨à¤¶": 9604,
  "à¤¸à¤¨à¤¸": 3146,
  "à¤¸à¤¨à¤¸à¤¤": 4849,
  "à¤¸à¤¨à¤¸à¤®": 4222,
  "à¤¸à¤¨à¤¸à¤®à¤ķ": 9609,
  "à¤¸à¤¨à¤¸à¤¹": 7187,
  "à¤¸à¤¨à¤¸à¤ķ": 13302,
  "à¤¸à¤¨à¤¹": 3607,
  "à¤¸à¤¨à¤¹à¤°": 5680,
  "à¤¸à¤¨à¤¹à¤¸": 3872,
  "à¤¸à¤¨à¤ħà¤¨": 9607,
  "à¤¸à¤¨à¤ķ": 871,
  "à¤¸à¤¨à¤ķà¤°": 7351,
  "à¤¸à¤¨à¤ļ": 9605,
  "à¤¸à¤¨à¤ľ": 5370,
  "à¤¸à¤¨à¤ľà¤¸": 7186,
  "à¤¸à¤¨à¤Ń": 6062,
  "à¤¸à¤¨à¤Ńà¤¨": 9606,
  "à¤¸à¤ª": 983,
  "à¤¸à¤ªà¤¤": 11242,
  "à¤¸à¤ªà¤¨": 6904,
  "à¤¸à¤ªà¤°": 4434,
  "à¤¸à¤ªà¤¶": 14923,
  "à¤¸à¤ªà¤Ľ": 3291,
  "à¤¸à¤ªà¤Ł": 14922,
  "à¤¸à¤«": 2141,
  "à¤¸à¤«à¤°": 3086,
  "à¤¸à¤«à¤°à¤¬": 15867,
  "à¤¸à¤«à¤°à¤®": 10444,
  "à¤¸à¤«à¤°à¤ķ": 6908,
  "à¤¸à¤«à¤²": 6317,
  "à¤¸à¤«à¤²à¤®": 15866,
  "à¤¸à¤«à¤²à¤ķ": 15865,
  "à¤¸à¤¬": 662,
  "à¤¸à¤¬à¤¨": 11243,
  "à¤¸à¤¬à¤®": 14344,
  "à¤¸à¤¬à¤°": 3502,
  "à¤¸à¤¬à¤¹": 9964,
  "à¤¸à¤¬à¤ħà¤²": 14345,
  "à¤¸à¤¬à¤ķ": 6142,
  "à¤¸à¤¬à¤Ńà¤¨": 9965,
  "à¤¸à¤®": 254,
  "à¤¸à¤®à¤¤": 9380,
  "à¤¸à¤®à¤¤à¤²": 12676,
  "à¤¸à¤®à¤§": 5320,
  "à¤¸à¤®à¤¨": 4489,
  "à¤¸à¤®à¤¬": 7952,
  "à¤¸à¤®à¤®": 2532,
  "à¤¸à¤®à¤¯": 4203,
  "à¤¸à¤®à¤¯à¤¦": 12678,
  "à¤¸à¤®à¤¯à¤ªà¤Ľ": 12680,
  "à¤¸à¤®à¤¯à¤®": 4061,
  "à¤¸à¤®à¤¯à¤²": 12675,
  "à¤¸à¤®à¤¯à¤¸": 12674,
  "à¤¸à¤®à¤¯à¤ķ": 9381,
  "à¤¸à¤®à¤¯à¤Ń": 12679,
  "à¤¸à¤®à¤°": 6502,
  "à¤¸à¤®à¤°à¤®": 12671,
  "à¤¸à¤®à¤²": 4649,
  "à¤¸à¤®à¤µ": 5319,
  "à¤¸à¤®à¤¸": 3528,
  "à¤¸à¤®à¤¸à¤®": 12673,
  "à¤¸à¤®à¤ħà¤¨": 12677,
  "à¤¸à¤®à¤ķ": 1536,
  "à¤¸à¤®à¤Ĺ": 6004,
  "à¤¸à¤®à¤ľà¤¨": 12672,
  "à¤¸à¤®à¤Ŀà¤¦": 9382,
  "à¤¸à¤¯": 3036,
  "à¤¸à¤¯à¤¤": 7622,
  "à¤¸à¤¯à¤¬": 8821,
  "à¤¸à¤¯à¤®": 8809,
  "à¤¸à¤¯à¤¯": 6320,
  "à¤¸à¤¯à¤²": 11244,
  "à¤¸à¤¯à¤¸à¤®": 11248,
  "à¤¸à¤¯à¤¹à¤°": 11252,
  "à¤¸à¤¯à¤ķ": 4600,
  "à¤¸à¤¯à¤ķà¤¡": 10593,
  "à¤¸à¤¯à¤Ńà¤¨": 11259,
  "à¤¸à¤°": 392,
  "à¤¸à¤°à¤£": 4942,
  "à¤¸à¤°à¤¤": 3914,
  "à¤¸à¤°à¤¦": 8810,
  "à¤¸à¤°à¤ª": 6591,
  "à¤¸à¤°à¤ªà¤Ľ": 6074,
  "à¤¸à¤°à¤¬": 3431,
  "à¤¸à¤°à¤®": 1878,
  "à¤¸à¤°à¤®à¤§": 5794,
  "à¤¸à¤°à¤®à¤¯": 15690,
  "à¤¸à¤°à¤¯": 11245,
  "à¤¸à¤°à¤°": 13475,
  "à¤¸à¤°à¤²": 2832,
  "à¤¸à¤°à¤²à¤Ĺ": 6322,
  "à¤¸à¤°à¤µ": 8811,
  "à¤¸à¤°à¤¶": 13477,
  "à¤¸à¤°à¤¸": 4010,
  "à¤¸à¤°à¤¸à¤«": 16321,
  "à¤¸à¤°à¤¸à¤®": 4850,
  "à¤¸à¤°à¤¸à¤°": 8824,
  "à¤¸à¤°à¤¸à¤¹": 8826,
  "à¤¸à¤°à¤¹": 3736,
  "à¤¸à¤°à¤¹à¤¦": 16277,
  "à¤¸à¤°à¤¹à¤°": 5231,
  "à¤¸à¤°à¤¹à¤ķ": 6909,
  "à¤¸à¤°à¤ħà¤¨": 13479,
  "à¤¸à¤°à¤ķ": 1079,
  "à¤¸à¤°à¤ķà¤°": 6201,
  "à¤¸à¤°à¤Ĺà¤°à¤®": 13480,
  "à¤¸à¤°à¤ľ": 13476,
  "à¤¸à¤°à¤ľà¤¨": 9672,
  "à¤¸à¤°à¤ľà¤¸": 8119,
  "à¤¸à¤°à¤Ń": 5378,
  "à¤¸à¤°à¤Ńà¤¨": 13478,
  "à¤¸à¤²": 348,
  "à¤¸à¤²à¤¤": 13248,
  "à¤¸à¤²à¤¦": 6571,
  "à¤¸à¤²à¤ªà¤¨": 6572,
  "à¤¸à¤²à¤¬": 13250,
  "à¤¸à¤²à¤®": 2142,
  "à¤¸à¤²à¤°": 5070,
  "à¤¸à¤²à¤°à¤²": 8072,
  "à¤¸à¤²à¤°à¤¸à¤¹": 13253,
  "à¤¸à¤²à¤°à¤ķ": 13251,
  "à¤¸à¤²à¤²": 5366,
  "à¤¸à¤²à¤²à¤Ĺ": 13252,
  "à¤¸à¤²à¤¹": 13249,
  "à¤¸à¤²à¤Ĺ": 3205,
  "à¤¸à¤²à¤Ł": 8071,
  "à¤¸à¤µ": 922,
  "à¤¸à¤µà¤¡à¤ı": 14844,
  "à¤¸à¤µà¤¬": 8354,
  "à¤¸à¤µà¤®": 1809,
  "à¤¸à¤µà¤®à¤¯": 10386,
  "à¤¸à¤µà¤°": 3366,
  "à¤¸à¤µà¤²": 3659,
  "à¤¸à¤µà¤¸": 11240,
  "à¤¸à¤µà¤¹à¤°": 10128,
  "à¤¸à¤µà¤ħà¤¨": 14843,
  "à¤¸à¤µà¤ķ": 1792,
  "à¤¸à¤µà¤ľà¤¸": 14842,
  "à¤¸à¤µà¤Ł": 8353,
  "à¤¸à¤¶": 2272,
  "à¤¸à¤¶à¤¸": 7627,
  "à¤¸à¤¸": 788,
  "à¤¸à¤¸à¤¬": 7624,
  "à¤¸à¤¸à¤®": 2008,
  "à¤¸à¤¸à¤®à¤°": 15777,
  "à¤¸à¤¸à¤°à¤¹": 14578,
  "à¤¸à¤¸à¤²": 3233,
  "à¤¸à¤¸à¤¸": 10053,
  "à¤¸à¤¸à¤¹": 2873,
  "à¤¸à¤¸à¤¹à¤°": 4256,
  "à¤¸à¤¸à¤ķ": 2907,
  "à¤¸à¤¸à¤ķà¤°": 10515,
  "à¤¸à¤¸à¤Ĺà¤°": 14579,
  "à¤¸à¤¸à¤Ń": 11249,
  "à¤¸à¤¹": 605,
  "à¤¸à¤¹à¤¤": 9915,
  "à¤¸à¤¹à¤¨": 8816,
  "à¤¸à¤¹à¤®à¤¤": 6661,
  "à¤¸à¤¹à¤¯": 4531,
  "à¤¸à¤¹à¤°": 970,
  "à¤¸à¤¹à¤°à¤¦": 14898,
  "à¤¸à¤¹à¤°à¤¬": 8368,
  "à¤¸à¤¹à¤°à¤®": 10142,
  "à¤¸à¤¹à¤°à¤²": 8367,
  "à¤¸à¤¹à¤°à¤¹à¤°": 6189,
  "à¤¸à¤¹à¤°à¤ķ": 6660,
  "à¤¸à¤¹à¤°à¤Ń": 14899,
  "à¤¸à¤¹à¤¸à¤ļ": 9916,
  "à¤¸à¤¹à¤ķ": 7623,
  "à¤¸à¤¹à¤ķà¤°": 14195,
  "à¤¸à¤¹à¤ľ": 6659,
  "à¤¸à¤¹à¤ľà¤¤": 14196,
  "à¤¸à¤¹à¤Ń": 4109,
  "à¤¸à¤ħà¤¦": 11260,
  "à¤¸à¤ħà¤§": 11254,
  "à¤¸à¤ħà¤¨": 4153,
  "à¤¸à¤ħà¤ª": 6321,
  "à¤¸à¤ħà¤ªà¤²": 11264,
  "à¤¸à¤ħà¤ªà¤ľà¤¸": 16573,
  "à¤¸à¤ħà¤«": 2023,
  "à¤¸à¤ħà¤°": 5530,
  "à¤¸à¤ħà¤ĺ": 8817,
  "à¤¸à¤Ĩà¤¦": 11262,
  "à¤¸à¤ĩà¤¨": 11241,
  "à¤¸à¤ĩà¤«": 8825,
  "à¤¸à¤ĩà¤¬": 11257,
  "à¤¸à¤ı": 4747,
  "à¤¸à¤ıà¤ª": 4285,
  "à¤¸à¤ıà¤ªà¤²": 7493,
  "à¤¸à¤ıà¤ªà¤ķ": 6821,
  "à¤¸à¤ıà¤²": 8820,
  "à¤¸à¤ıà¤²à¤ķ": 8827,
  "à¤¸à¤ıà¤ķ": 8807,
  "à¤¸à¤ĵà¤¨": 11263,
  "à¤¸à¤ĵà¤°": 8828,
  "à¤¸à¤ķ": 248,
  "à¤¸à¤ķà¤¤": 12625,
  "à¤¸à¤ķà¤¨": 12624,
  "à¤¸à¤ķà¤ª": 12626,
  "à¤¸à¤ķà¤¬": 5023,
  "à¤¸à¤ķà¤®": 5999,
  "à¤¸à¤ķà¤®à¤§": 7941,
  "à¤¸à¤ķà¤®à¤²": 12628,
  "à¤¸à¤ķà¤°": 6493,
  "à¤¸à¤ķà¤²": 1592,
  "à¤¸à¤ķà¤µ": 7938,
  "à¤¸à¤ķà¤¸": 3197,
  "à¤¸à¤ķà¤¸à¤¦": 9360,
  "à¤¸à¤ķà¤¸à¤¨à¤ľ": 9361,
  "à¤¸à¤ķà¤¸à¤ªà¤Ľ": 16205,
  "à¤¸à¤ķà¤¸à¤¬": 12629,
  "à¤¸à¤ķà¤¸à¤®": 7940,
  "à¤¸à¤ķà¤¸à¤¹": 7092,
  "à¤¸à¤ķà¤¸à¤ķ": 7939,
  "à¤¸à¤ķà¤¹à¤°": 1564,
  "à¤¸à¤ķà¤ķ": 1526,
  "à¤¸à¤ķà¤ķà¤¹": 12630,
  "à¤¸à¤ķà¤ľà¤¸": 12627,
  "à¤¸à¤ĸ": 3656,
  "à¤¸à¤ĸà¤°": 11247,
  "à¤¸à¤Ĺ": 4433,
  "à¤¸à¤Ĺà¤¢": 4602,
  "à¤¸à¤Ĺà¤¢à¤®": 16391,
  "à¤¸à¤Ĺà¤¨": 7626,
  "à¤¸à¤Ĺà¤°": 1515,
  "à¤¸à¤Ĺà¤°à¤®": 6907,
  "à¤¸à¤Ĺà¤ŀ": 10585,
  "à¤¸à¤ĺ": 5527,
  "à¤¸à¤ĺà¤²": 11253,
  "à¤¸à¤Ļ": 2831,
  "à¤¸à¤Ļà¤²": 11250,
  "à¤¸à¤ļ": 856,
  "à¤¸à¤ļà¤¨": 4943,
  "à¤¸à¤ļà¤°": 8822,
  "à¤¸à¤ļà¤ķ": 8818,
  "à¤¸à¤ľ": 3576,
  "à¤¸à¤ľà¤¨": 3735,
  "à¤¸à¤ľà¤¨à¤®": 11256,
  "à¤¸à¤ľà¤¨à¤²": 7628,
  "à¤¸à¤ľà¤¨à¤µ": 10556,
  "à¤¸à¤ľà¤¨à¤¹à¤°": 10557,
  "à¤¸à¤ľà¤¨à¤ķ": 6319,
  "à¤¸à¤ľà¤¸": 3658,
  "à¤¸à¤ŀ": 2396,
  "à¤¸à¤Ł": 2063,
  "à¤¸à¤Łà¤¨": 8813,
  "à¤¸à¤Łà¤¨à¤ķ": 11258,
  "à¤¸à¤Łà¤ª": 11255,
  "à¤¸à¤Łà¤°": 8814,
  "à¤¸à¤Łà¤²": 6906,
  "à¤¸à¤Łà¤ķ": 8812,
  "à¤¸à¤ł": 6316,
  "à¤¸à¤Ń": 655,
  "à¤¸à¤Ńà¤¨": 3657,
  "à¤¸à¤Ńà¤°": 11246,
  "à¤¸à¤Ńà¤ıà¤ķ": 14330,
  "à¤¹": 177,
  "à¤¹à¤¡": 3827,
  "à¤¹à¤¡à¤¤": 8879,
  "à¤¹à¤£": 1381,
  "à¤¹à¤£à¤¦": 15370,
  "à¤¹à¤£à¤¦à¤²à¤²": 8450,
  "à¤¹à¤£à¤¦à¤²à¤ķ": 15374,
  "à¤¹à¤£à¤ªà¤Ľ": 8449,
  "à¤¹à¤£à¤®": 4291,
  "à¤¹à¤£à¤²": 4955,
  "à¤¹à¤£à¤¸": 8874,
  "à¤¹à¤£à¤¸à¤¹": 15373,
  "à¤¹à¤£à¤¹à¤°": 15371,
  "à¤¹à¤£à¤ħà¤ĺ": 15372,
  "à¤¹à¤£à¤ķ": 2159,
  "à¤¹à¤¤": 756,
  "à¤¹à¤¤à¤¨": 11382,
  "à¤¹à¤¤à¤¬": 11397,
  "à¤¹à¤¤à¤®": 4953,
  "à¤¹à¤¤à¤°": 6925,
  "à¤¹à¤¤à¤°à¤®": 10042,
  "à¤¹à¤¤à¤µ": 11391,
  "à¤¹à¤¤à¤¸": 6163,
  "à¤¹à¤¤à¤¸à¤®": 10043,
  "à¤¹à¤¤à¤ķ": 3172,
  "à¤¹à¤¥": 7646,
  "à¤¹à¤¦": 1253,
  "à¤¹à¤¦à¤¤": 8877,
  "à¤¹à¤¦à¤¬": 10265,
  "à¤¹à¤¦à¤°à¤¬": 1716,
  "à¤¹à¤¦à¤°à¤µ": 2823,
  "à¤¹à¤¦à¤²": 11392,
  "à¤¹à¤¦à¤¸à¤®": 7405,
  "à¤¹à¤¨": 500,
  "à¤¹à¤¨à¤¤": 1964,
  "à¤¹à¤¨à¤¤à¤ªà¤Ľ": 10415,
  "à¤¹à¤¨à¤¤à¤¬": 13935,
  "à¤¹à¤¨à¤¤à¤®": 13933,
  "à¤¹à¤¨à¤¤à¤²": 13934,
  "à¤¹à¤¨à¤¤à¤¸": 8203,
  "à¤¹à¤¨à¤¤à¤ħà¤¨": 10416,
  "à¤¹à¤¨à¤¤à¤ķ": 4527,
  "à¤¹à¤¨à¤¦": 8202,
  "à¤¹à¤¨à¤ª": 8201,
  "à¤¹à¤¨à¤¬": 7262,
  "à¤¹à¤¨à¤¬à¤¹": 7263,
  "à¤¹à¤¨à¤®": 5237,
  "à¤¹à¤¨à¤®à¤£": 16477,
  "à¤¹à¤¨à¤°": 8200,
  "à¤¹à¤¨à¤²": 4013,
  "à¤¹à¤¨à¤µ": 6109,
  "à¤¹à¤¨à¤¶à¤®à¤¶": 7264,
  "à¤¹à¤¨à¤¸": 8869,
  "à¤¹à¤¨à¤¸à¤®": 13932,
  "à¤¹à¤¨à¤¹": 13931,
  "à¤¹à¤¨à¤ķ": 2690,
  "à¤¹à¤¨à¤ķà¤°": 7654,
  "à¤¹à¤¨à¤Ĺà¤°": 5122,
  "à¤¹à¤¨à¤ļà¤¨": 9833,
  "à¤¹à¤¨à¤ľ": 9832,
  "à¤¹à¤ª": 2143,
  "à¤¹à¤ªà¤¥à¤ķ": 15869,
  "à¤¹à¤ªà¤¨": 8865,
  "à¤¹à¤ªà¤¶": 8878,
  "à¤¹à¤ªà¤ķ": 8868,
  "à¤¹à¤ªà¤Ľ": 3295,
  "à¤¹à¤ªà¤ŀ": 15868,
  "à¤¹à¤¬": 1757,
  "à¤¹à¤¬à¤¦": 8872,
  "à¤¹à¤¬à¤®": 8876,
  "à¤¹à¤¬à¤°à¤®": 7653,
  "à¤¹à¤¬à¤²": 8871,
  "à¤¹à¤®": 762,
  "à¤¹à¤®à¤£": 14546,
  "à¤¹à¤®à¤¦": 3630,
  "à¤¹à¤®à¤¦à¤¨": 14547,
  "à¤¹à¤®à¤¦à¤¨à¤ķ": 14548,
  "à¤¹à¤®à¤¦à¤²": 8305,
  "à¤¹à¤®à¤¦à¤ķ": 10045,
  "à¤¹à¤®à¤§": 6926,
  "à¤¹à¤®à¤¨": 1347,
  "à¤¹à¤®à¤¬": 11393,
  "à¤¹à¤®à¤²": 11387,
  "à¤¹à¤®à¤ķ": 8866,
  "à¤¹à¤¯": 2623,
  "à¤¹à¤°": 228,
  "à¤¹à¤°à¤£": 981,
  "à¤¹à¤°à¤£à¤¬": 6729,
  "à¤¹à¤°à¤£à¤®": 3014,
  "à¤¹à¤°à¤£à¤²": 8373,
  "à¤¹à¤°à¤£à¤¸": 7889,
  "à¤¹à¤°à¤£à¤¸à¤®": 10150,
  "à¤¹à¤°à¤£à¤¸à¤¹": 14917,
  "à¤¹à¤°à¤£à¤¹à¤°": 6730,
  "à¤¹à¤°à¤£à¤ķ": 1562,
  "à¤¹à¤°à¤£à¤Ľà¤¨": 14916,
  "à¤¹à¤°à¤¤": 12420,
  "à¤¹à¤°à¤¥": 12422,
  "à¤¹à¤°à¤¦": 9295,
  "à¤¹à¤°à¤¨": 9294,
  "à¤¹à¤°à¤ª": 7066,
  "à¤¹à¤°à¤¬": 7888,
  "à¤¹à¤°à¤®": 4327,
  "à¤¹à¤°à¤°": 12419,
  "à¤¹à¤°à¤²": 2774,
  "à¤¹à¤°à¤¸": 7887,
  "à¤¹à¤°à¤¸à¤®": 12423,
  "à¤¹à¤°à¤¹": 12421,
  "à¤¹à¤°à¤ķ": 3916,
  "à¤¹à¤²": 669,
  "à¤¹à¤²à¤¤": 4954,
  "à¤¹à¤²à¤ª": 1956,
  "à¤¹à¤²à¤¬": 11381,
  "à¤¹à¤²à¤®": 4756,
  "à¤¹à¤²à¤®à¤¯": 16414,
  "à¤¹à¤²à¤¯": 11385,
  "à¤¹à¤²à¤¯à¤ķ": 11390,
  "à¤¹à¤²à¤²": 8867,
  "à¤¹à¤²à¤µ": 9975,
  "à¤¹à¤²à¤¸": 7652,
  "à¤¹à¤²à¤¸à¤®": 14362,
  "à¤¹à¤²à¤ķ": 6335,
  "à¤¹à¤²à¤ĸ": 9976,
  "à¤¹à¤²à¤Ĺ": 5876,
  "à¤¹à¤µ": 2624,
  "à¤¹à¤µà¤°": 11380,
  "à¤¹à¤µà¤°à¤®": 5878,
  "à¤¹à¤µà¤²": 11388,
  "à¤¹à¤¶": 11378,
  "à¤¹à¤¶à¤®à¤¶": 11402,
  "à¤¹à¤¸": 1195,
  "à¤¹à¤¸à¤ª": 8875,
  "à¤¹à¤¸à¤¬": 11395,
  "à¤¹à¤¸à¤®": 3661,
  "à¤¹à¤¸à¤²": 7648,
  "à¤¹à¤¸à¤¸": 8873,
  "à¤¹à¤¸à¤¹": 7651,
  "à¤¹à¤¸à¤ķ": 5542,
  "à¤¹à¤¸à¤ļ": 5877,
  "à¤¹à¤¸à¤ľà¤¸": 15194,
  "à¤¹à¤¸à¤Ń": 11394,
  "à¤¹à¤¹à¤°": 2376,
  "à¤¹à¤ħà¤¨": 3828,
  "à¤¹à¤ħà¤µà¤°": 8881,
  "à¤¹à¤ħà¤Ĺ": 7655,
  "à¤¹à¤ħà¤ĺ": 11389,
  "à¤¹à¤ĩ": 11379,
  "à¤¹à¤ķ": 579,
  "à¤¹à¤ķà¤¤": 11386,
  "à¤¹à¤ķà¤¬": 6656,
  "à¤¹à¤ķà¤®": 4014,
  "à¤¹à¤ķà¤®à¤§": 8880,
  "à¤¹à¤ķà¤°": 11383,
  "à¤¹à¤ķà¤²": 1488,
  "à¤¹à¤ķà¤¸": 8241,
  "à¤¹à¤ķà¤¸à¤®": 14144,
  "à¤¹à¤ķà¤¸à¤®à¤ķ": 14145,
  "à¤¹à¤ķà¤¹à¤°": 2711,
  "à¤¹à¤ķà¤ķ": 2415,
  "à¤¹à¤Ĺ": 4604,
  "à¤¹à¤Ĺà¤¢": 11400,
  "à¤¹à¤Ĺà¤¤": 4757,
  "à¤¹à¤Ļ": 8864,
  "à¤¹à¤Ļà¤ķ": 11398,
  "à¤¹à¤Ļà¤ķà¤Ļ": 16854,
  "à¤¹à¤ļ": 5874,
  "à¤¹à¤ļà¤°à¤£à¤®": 10639,
  "à¤¹à¤ļà¤°à¤£à¤ķ": 10640,
  "à¤¹à¤ľ": 2503,
  "à¤¹à¤ľà¤¨à¤ķ": 3296,
  "à¤¹à¤ľà¤°": 11399,
  "à¤¹à¤ľà¤¸": 5875,
  "à¤¹à¤Ł": 2502,
  "à¤¹à¤Łà¤¬": 11401,
  "à¤¹à¤Łà¤®": 7650,
  "à¤¹à¤Łà¤°": 11384,
  "à¤¹à¤Łà¤²": 8870,
  "à¤¹à¤Łà¤¸à¤¹": 16047,
  "à¤¹à¤Łà¤ķ": 7647,
  "à¤¹à¤Ń": 4755,
  "à¤¹à¤Ńà¤¨": 7649,
  "à¤¹à¤Ńà¤ıà¤ķ": 11396,
  "à¤¹à¤Ńà¤Ļ": 16413,
  "à¤¼": 2996,
  "à¤¼à¤¾": 8553,
  "à¤¼à¤¿": 8554,
  "à¤¼à¥Ģ": 6806,
  "à¤¼à¥ģ": 10522,
  "à¤¼à¥Ī": 10523,
  "à¤¼à¥Į": 10524,
  "à¤¼à¥į": 16175,
  "à¤¾": 158,
  "à¤¾!": 3904,
  "à¤¾!,âĢĻ": 16305,
  "à¤¾!?": 16304,
  "à¤¾!âĢĻ": 8579,
  "à¤¾'": 2997,
  "à¤¾',": 6851,
  "à¤¾','": 16623,
  "à¤¾(": 3165,
  "à¤¾)": 1034,
  "à¤¾),": 3349,
  "à¤¾)-": 6199,
  "à¤¾)âĢĵ": 7375,
  "à¤¾)âĢĶ": 4262,
  "à¤¾)âĢĻà¥¤": 14996,
  "à¤¾,": 326,
  "à¤¾,'": 13163,
  "à¤¾,âĢĻ": 4217,
  "à¤¾-": 1926,
  "à¤¾.": 595,
  "à¤¾.,": 14173,
  "à¤¾...": 4529,
  "à¤¾...)": 16381,
  "à¤¾...âĢĻ": 16382,
  "à¤¾/": 2314,
  "à¤¾:": 5497,
  "à¤¾?": 1505,
  "à¤¾?'": 15451,
  "à¤¾?)": 15452,
  "à¤¾]": 10933,
  "à¤¾Â¥": 4277,
  "à¤¾Ã·": 2267,
  "à¤¾à¤¾": 2139,
  "à¤¾à¤¾à¤ģ": 10934,
  "à¤¾à¤¾à¥Īà¤Ĥ": 10936,
  "à¤¾à¤¿": 2949,
  "à¤¾à¤ģ": 242,
  "à¤¾à¤ģ(": 7086,
  "à¤¾à¤ģ)": 3018,
  "à¤¾à¤ģ),": 12585,
  "à¤¾à¤ģ,": 2530,
  "à¤¾à¤ģ/": 9349,
  "à¤¾à¤ģ?": 7087,
  "à¤¾à¤ģÃ·": 12583,
  "à¤¾à¤ģà¤ģ": 3019,
  "à¤¾à¤ģà¤ģ)": 16184,
  "à¤¾à¤ģà¤ģà¥¤": 12584,
  "à¤¾à¤ģà¤Ĥ": 3055,
  "à¤¾à¤ģà¥¤": 4647,
  "à¤¾à¤ģà¥Ī": 2032,
  "à¤¾à¤ģà¥Ī,": 7088,
  "à¤¾à¤ģà¥Ī?": 15795,
  "à¤¾à¤ģà¥Ī?âĢĻ": 15797,
  "à¤¾à¤ģà¥Īà¤Ĥ": 12582,
  "à¤¾à¤ģà¥Īà¥¤": 9350,
  "à¤¾à¤ģà¥Īà¥¤âĢĻ": 15796,
  "à¤¾à¤ģà¥ĪâĢĻà¤Ĥ": 15798,
  "à¤¾à¤ģâĢĵ": 3056,
  "à¤¾à¤ģâĢĻ": 3851,
  "à¤¾à¤ģâĢĻ,": 7926,
  "à¤¾à¤Ĥ": 328,
  "à¤¾à¤Ĥ:": 13173,
  "à¤¾à¤Ĥà¤ģ": 6563,
  "à¤¾à¤Ĥà¤Ĥ": 4218,
  "à¤¾à¤Ĥà¥Ī": 2221,
  "à¤¾à¤Ĥà¥Ī'": 15897,
  "à¤¾à¤Ĥà¥Ī,": 5360,
  "à¤¾à¤Ĥà¥Ī,âĢĻ": 8518,
  "à¤¾à¤Ĥà¥Ī?": 15898,
  "à¤¾à¤Ĥà¥Īà¥¤": 6046,
  "à¤¾à¤Ĥà¥Īà¥¤âĢĻ": 15900,
  "à¤¾à¤Ĥà¥ĪâĢĻ": 15899,
  "à¤¾à¤ĥ": 2521,
  "à¤¾à¤ĥ,": 10493,
  "à¤¾à¤ĥâĢĻ": 16051,
  "à¤¾à¥¤": 1029,
  "à¤¾à¥¤'": 6737,
  "à¤¾à¥¤âĢĻ": 4424,
  "à¤¾à¥Ģ": 6278,
  "à¤¾à¥ģ": 5498,
  "à¤¾à¥ĥ": 10935,
  "à¤¾à¥ĥà¥ĩ": 16842,
  "à¤¾à¥ĩ": 651,
  "à¤¾à¥ĩ!": 14318,
  "à¤¾à¥ĩ'": 14319,
  "à¤¾à¥ĩ',": 14323,
  "à¤¾à¥ĩ,": 3819,
  "à¤¾à¥ĩ-": 14320,
  "à¤¾à¥ĩ/": 14321,
  "à¤¾à¥ĩ?": 9960,
  "à¤¾à¥ĩà¤Ĥ": 7299,
  "à¤¾à¥ĩà¤Ĥ-": 16650,
  "à¤¾à¥ĩà¤Ĥà¥Ī": 14324,
  "à¤¾à¥ĩà¥¤": 1670,
  "à¤¾à¥ĩà¥¤'": 15551,
  "à¤¾à¥ĩà¥¤à¥¤": 15552,
  "à¤¾à¥ĩà¥ĩà¥¤": 14322,
  "à¤¾à¥ĩâĢĵ": 8269,
  "à¤¾à¥ĩâĢĻ": 8268,
  "à¤¾à¥Ī": 1894,
  "à¤¾à¥Ī,": 7549,
  "à¤¾à¥Ī,âĢĻ": 6782,
  "à¤¾à¥Ī,âĢĿ": 16686,
  "à¤¾à¥Īà¤ģ": 2331,
  "à¤¾à¥Īà¤ģ,": 5805,
  "à¤¾à¥Īà¤ģà¥¤": 15964,
  "à¤¾à¥Īà¤ģà¥¤âĢĻ": 15965,
  "à¤¾à¥Īà¤ģâĢĵ": 8524,
  "à¤¾à¥Īà¤Ĥ": 1371,
  "à¤¾à¥Īà¤Ĥ,": 5461,
  "à¤¾à¥Īà¤Ĥ,âĢĻ": 4898,
  "à¤¾à¥Īà¤Ĥ-": 5178,
  "à¤¾à¥Īà¤Ĥ/": 15354,
  "à¤¾à¥Īà¤Ĥà¥¤": 3716,
  "à¤¾à¥Īà¤Ĥà¥¤'": 15355,
  "à¤¾à¥Īà¤Ĥà¥¤âĢĻ": 4407,
  "à¤¾à¥Īà¤ĤâĢĵ": 6762,
  "à¤¾à¥Īà¤ĤâĢĻ": 10285,
  "à¤¾à¥Īà¥¤âĢĻ": 10403,
  "à¤¾à¥ĪâĢĮ": 5190,
  "à¤¾à¥ĪâĢĮ,âĢĻ": 8600,
  "à¤¾à¥ĭ": 5206,
  "à¤¾à¥į": 3564,
  "à¤¾à¥įà¥Īà¤Ĥ": 10547,
  "à¤¾à¥įà¥Īà¤Ĥ,'": 16777,
  "à¤¾à¥įà¥Īà¤Ĥ,âĢĻ": 16776,
  "à¤¾âĢĮ": 10937,
  "à¤¾âĢĮà¤Ĥ": 7550,
  "à¤¾âĢį": 8684,
  "à¤¾âĢį.": 16726,
  "à¤¾âĢĵ": 677,
  "à¤¾âĢĵâĢĵ": 8281,
  "à¤¾âĢĶ": 3031,
  "à¤¾âĢĶâĢĶ": 16185,
  "à¤¾âĢĺ": 6279,
  "à¤¾âĢĻ": 844,
  "à¤¾âĢĻ,": 2266,
  "à¤¾âĢĻà¥¤": 14680,
  "à¤¾âĢľ": 2074,
  "à¤¾âĢĿ": 5499,
  "à¤¿": 162,
  "à¤¿!": 2755,
  "à¤¿!âĢĻ": 8543,
  "à¤¿'": 5214,
  "à¤¿',": 11047,
  "à¤¿(": 5838,
  "à¤¿)": 2087,
  "à¤¿),": 4428,
  "à¤¿)âĢĻ": 15827,
  "à¤¿,": 575,
  "à¤¿,'": 9899,
  "à¤¿,âĢĻ": 5215,
  "à¤¿-": 5508,
  "à¤¿.": 2020,
  "à¤¿.)": 15791,
  "à¤¿...": 5841,
  "à¤¿...?": 10637,
  "à¤¿...à¥¤âĢĻ": 16524,
  "à¤¿...âĢĻ": 11049,
  "à¤¿/": 4931,
  "à¤¿:": 8723,
  "à¤¿?": 1294,
  "à¤¿?'": 15301,
  "à¤¿?âĢĻ": 7407,
  "à¤¿Â¥": 5216,
  "à¤¿Â«": 6865,
  "à¤¿Ã·": 4586,
  "à¤¿à¤¾": 2756,
  "à¤¿à¤¿": 5839,
  "à¤¿à¤ģ": 391,
  "à¤¿à¤ģ,": 13472,
  "à¤¿à¤ģ?": 8118,
  "à¤¿à¤ģà¤ģ": 13474,
  "à¤¿à¤ģà¤Ĥ": 4084,
  "à¤¿à¤ģà¥į": 13473,
  "à¤¿à¤Ĥ": 486,
  "à¤¿à¤Ĥ)": 9802,
  "à¤¿à¤Ĥ,": 9803,
  "à¤¿à¤Ĥ.": 9804,
  "à¤¿à¤Ĥà¤ģ": 3620,
  "à¤¿à¤Ĥà¤Ĥ": 8186,
  "à¤¿à¤ĥ": 990,
  "à¤¿à¤ĥâĢĻ": 14934,
  "à¤¿à¥¤": 1580,
  "à¤¿à¥¤(": 15502,
  "à¤¿à¥¤à¥¤à¥¤": 15503,
  "à¤¿à¥¤âĢĻ": 6289,
  "à¤¿à¥¤âĢĿ": 10338,
  "à¤¿à¥Ģ": 5509,
  "à¤¿à¥ģ": 4280,
  "à¤¿à¥ĥ": 5840,
  "à¤¿à¥ĩ": 4001,
  "à¤¿à¥ĭ": 6863,
  "à¤¿à¥į": 1808,
  "à¤¿âĢ": 6864,
  "à¤¿âĢ°": 16624,
  "à¤¿âĢºà¥ĭ": 8616,
  "à¤¿âĢĮ": 11048,
  "à¤¿âĢĮà¤Ĥ": 6866,
  "à¤¿âĢĮâĢĮ": 16845,
  "à¤¿âĢĵ": 1475,
  "à¤¿âĢĺ": 7574,
  "à¤¿âĢĻ": 1737,
  "à¤¿âĢĻ,": 5510,
  "à¤¿âĢľ": 7575,
  "à¤¿âĢĿ": 7573,
  "à¤ģ": 201,
  "à¤ģ!": 11915,
  "à¤ģ'": 9095,
  "à¤ģ',": 7004,
  "à¤ģ)": 7785,
  "à¤ģ,": 1411,
  "à¤ģ,'": 8459,
  "à¤ģ,âĢĻ": 2797,
  "à¤ģ-": 9096,
  "à¤ģ/": 4456,
  "à¤ģ?": 11916,
  "à¤ģ?âĢĿ": 11925,
  "à¤ģÃ·": 4983,
  "à¤ģà¤¿": 11917,
  "à¤ģà¤ģ": 4034,
  "à¤ģà¤ģà¤ģà¤ģ": 10571,
  "à¤ģà¤ģà¤ģà¤ģà¤ģà¤ģ": 16779,
  "à¤ģà¤Ĥ": 2251,
  "à¤ģà¤Ĥ,": 15909,
  "à¤ģà¤Ĥà¥¤": 15910,
  "à¤ģà¥¤": 1264,
  "à¤ģà¥¤'": 6223,
  "à¤ģà¥¤âĢĻ": 4309,
  "à¤ģà¥¤âĢĿ": 8436,
  "à¤ģà¥ģ": 1471,
  "à¤ģà¥ģà¤ģ": 11918,
  "à¤ģà¥ģà¤Ĥ": 11922,
  "à¤ģà¥ģà¥¤": 11923,
  "à¤ģà¥ĩ": 7003,
  "à¤ģà¥ĩ,": 11919,
  "à¤ģà¥ĩ,âĢĻ": 11924,
  "à¤ģà¥ĩà¥¤": 11920,
  "à¤ģà¥ĩâĢĵ": 9098,
  "à¤ģà¥Ī": 1758,
  "à¤ģà¥Īà¤Ĥ": 11921,
  "à¤ģà¥į": 5276,
  "à¤ģâĢĵ": 2729,
  "à¤ģâĢĻ": 3186,
  "à¤ģâĢĻ,": 7786,
  "à¤ģâĢĿ": 9097,
  "à¤Ĥ": 207,
  "à¤Ĥ)": 12009,
  "à¤Ĥ,": 3516,
  "à¤Ĥ,âĢĻ": 12012,
  "à¤Ĥ.": 1466,
  "à¤Ĥ.,": 15440,
  "à¤Ĥ.à¥¤)": 15441,
  "à¤Ĥ?": 9135,
  "à¤Ĥà¤¾": 7802,
  "à¤Ĥà¤¿": 9136,
  "à¤Ĥà¤ģ": 3243,
  "à¤Ĥà¤ģà¥ģ": 12015,
  "à¤Ĥà¤Ĥ": 2581,
  "à¤Ĥà¤Ĥ.": 12014,
  "à¤Ĥà¥¤": 4789,
  "à¤Ĥà¥¤'": 12016,
  "à¤Ĥà¥ģ": 7013,
  "à¤Ĥà¥ĩà¥¤": 6423,
  "à¤Ĥà¥Ī": 2468,
  "à¤Ĥà¥Īà¤Ĥ": 12011,
  "à¤Ĥà¥į": 12010,
  "à¤ĤâĢĵ": 9137,
  "à¤ĤâĢĻ": 7014,
  "à¤ĤâĢĻ,": 12013,
  "à¤ĥ": 407,
  "à¤ĥ,": 7216,
  "à¤ĥà¥¤": 13558,
  "à¤ĥà¥ģ": 13557,
  "à¤ĥâĢĻ": 7217,
  "à¤ħ": 314,
  "à¤ħà¤¡": 4074,
  "à¤ħà¤¡à¤°à¤ķ": 13080,
  "à¤ħà¤¢": 13060,
  "à¤ħà¤£": 13057,
  "à¤ħà¤¤": 2936,
  "à¤ħà¤¥à¤°": 9533,
  "à¤ħà¤¥à¤µ": 13078,
  "à¤ħà¤¦": 3204,
  "à¤ħà¤§": 1178,
  "à¤ħà¤§à¤ķ": 13073,
  "à¤ħà¤§à¤ķà¤Ł": 16901,
  "à¤ħà¤¨": 459,
  "à¤ħà¤¨à¤§": 13737,
  "à¤ħà¤¨à¤¨": 7151,
  "à¤ħà¤¨à¤ª": 13734,
  "à¤ħà¤¨à¤¬": 13736,
  "à¤ħà¤¨à¤®": 8037,
  "à¤ħà¤¨à¤¯": 13733,
  "à¤ħà¤¨à¤²": 4350,
  "à¤ħà¤¨à¤²à¤ķ": 13082,
  "à¤ħà¤¨à¤¸": 8038,
  "à¤ħà¤¨à¤¸à¤¨": 13738,
  "à¤ħà¤¨à¤ķ": 9525,
  "à¤ħà¤¨à¤Ł": 13735,
  "à¤ħà¤ª": 1401,
  "à¤ħà¤ªà¤¡": 8457,
  "à¤ħà¤ªà¤¨": 13062,
  "à¤ħà¤ªà¤ªà¤Ľ": 15391,
  "à¤ħà¤ªà¤°": 3061,
  "à¤ħà¤ªà¤²": 8039,
  "à¤ħà¤ªà¤µ": 7417,
  "à¤ħà¤ªà¤¸à¤¹": 15392,
  "à¤ħà¤ªà¤¹à¤°à¤£": 15393,
  "à¤ħà¤ªà¤¹à¤°à¤£à¤®": 15394,
  "à¤ħà¤ªà¤ķ": 13068,
  "à¤ħà¤ªà¤Ľ": 13063,
  "à¤ħà¤«": 1752,
  "à¤ħà¤«à¤®": 3461,
  "à¤ħà¤«à¤²": 13069,
  "à¤ħà¤«à¤¸": 8493,
  "à¤ħà¤«à¤ķ": 13075,
  "à¤ħà¤«à¤Ĺ": 8494,
  "à¤ħà¤¬": 1574,
  "à¤ħà¤¬à¤¦": 9531,
  "à¤ħà¤¬à¤¸": 13076,
  "à¤ħà¤¬à¤ķ": 4215,
  "à¤ħà¤¬à¤ļ": 15498,
  "à¤ħà¤®": 1633,
  "à¤ħà¤®à¤°": 8041,
  "à¤ħà¤®à¤°à¤ª": 15533,
  "à¤ħà¤®à¤²": 9530,
  "à¤ħà¤¯": 3773,
  "à¤ħà¤°": 957,
  "à¤ħà¤°à¤¨": 7153,
  "à¤ħà¤°à¤¬": 5666,
  "à¤ħà¤°à¤¬à¤¬": 16501,
  "à¤ħà¤°à¤¬à¤¸": 16500,
  "à¤ħà¤°à¤¬à¤ķ": 16499,
  "à¤ħà¤°à¤®": 13059,
  "à¤ħà¤°à¤²": 5353,
  "à¤ħà¤°à¤¸": 13064,
  "à¤ħà¤°à¤¹à¤°": 13067,
  "à¤ħà¤°à¤ķ": 5665,
  "à¤ħà¤²": 1459,
  "à¤ħà¤²à¤ªà¤¤": 9534,
  "à¤ħà¤²à¤®": 9528,
  "à¤ħà¤²à¤®à¤²": 13083,
  "à¤ħà¤²à¤°": 5355,
  "à¤ħà¤²à¤²": 6042,
  "à¤ħà¤²à¤ķ": 13061,
  "à¤ħà¤²à¤Ĺ": 4351,
  "à¤ħà¤µ": 3105,
  "à¤ħà¤µà¤¤": 8040,
  "à¤ħà¤µà¤¤à¤°à¤£": 5811,
  "à¤ħà¤µà¤¤à¤°à¤£à¤®": 16195,
  "à¤ħà¤µà¤¤à¤°à¤£à¤ķ": 16194,
  "à¤ħà¤µà¤§": 6550,
  "à¤ħà¤µà¤°": 5062,
  "à¤ħà¤µà¤²": 6549,
  "à¤ħà¤µà¤²à¤®": 13081,
  "à¤ħà¤µà¤¶": 9532,
  "à¤ħà¤µà¤¸": 4840,
  "à¤ħà¤µà¤¸à¤°": 8044,
  "à¤ħà¤µà¤¸à¤°à¤ķ": 16426,
  "à¤ħà¤µà¤¹": 9535,
  "à¤ħà¤¶": 8035,
  "à¤ħà¤·": 6041,
  "à¤ħà¤¸": 1844,
  "à¤ħà¤¸à¤¤": 13077,
  "à¤ħà¤¸à¤¦": 7152,
  "à¤ħà¤¸à¤¦à¤²": 8043,
  "à¤ħà¤¸à¤¦à¤ķ": 6043,
  "à¤ħà¤¸à¤¨": 13066,
  "à¤ħà¤¸à¤«à¤²": 7447,
  "à¤ħà¤¸à¤«à¤²à¤¤": 7448,
  "à¤ħà¤¸à¤®": 9527,
  "à¤ħà¤¸à¤°": 9529,
  "à¤ħà¤¸à¤²": 5354,
  "à¤ħà¤¸à¤¹à¤®à¤¤": 13084,
  "à¤ħà¤¸à¤¹à¤ľ": 9536,
  "à¤ħà¤¹": 1416,
  "à¤ħà¤¹à¤°": 13058,
  "à¤ħà¤¹à¤°à¤£à¤ķ": 13079,
  "à¤ħà¤ķ": 3460,
  "à¤ħà¤ķà¤¬à¤°à¤¨": 16245,
  "à¤ħà¤ķà¤®": 13065,
  "à¤ħà¤ĸ": 8036,
  "à¤ħà¤Ĺ": 1659,
  "à¤ħà¤Ĺà¤²": 13070,
  "à¤ħà¤ĺ": 513,
  "à¤ħà¤ļ": 4839,
  "à¤ħà¤ļà¤²": 8042,
  "à¤ħà¤ľ": 6040,
  "à¤ħà¤ľà¤®": 13072,
  "à¤ħà¤ľà¤°": 13074,
  "à¤ħà¤Ŀ": 4660,
  "à¤ħà¤Ł": 3774,
  "à¤ħà¤Łà¤²": 13071,
  "à¤ħà¤ł": 9526,
  "à¤ħà¤Ń": 1611,
  "à¤Ĩ": 361,
  "à¤Ĩà¤¤": 1977,
  "à¤Ĩà¤¤à¤®": 9624,
  "à¤Ĩà¤¤à¤²": 13325,
  "à¤Ĩà¤¦": 3698,
  "à¤Ĩà¤¦à¤°à¤£": 16271,
  "à¤Ĩà¤§": 2848,
  "à¤Ĩà¤¨": 3065,
  "à¤Ĩà¤¨à¤¨": 5684,
  "à¤Ĩà¤¨à¤²": 9617,
  "à¤Ĩà¤¨à¤ķ": 9615,
  "à¤Ĩà¤ª": 5080,
  "à¤Ĩà¤ªà¤¤": 9620,
  "à¤Ĩà¤ªà¤°": 9616,
  "à¤Ĩà¤ªà¤¸": 8087,
  "à¤Ĩà¤ªà¤¸à¤®": 13342,
  "à¤Ĩà¤«": 1076,
  "à¤Ĩà¤«à¤¨": 5452,
  "à¤Ĩà¤¬": 1961,
  "à¤Ĩà¤®": 1789,
  "à¤Ĩà¤®à¤¨": 13324,
  "à¤Ĩà¤®à¤µ": 13340,
  "à¤Ĩà¤®à¤¸": 9625,
  "à¤Ĩà¤®à¤¸à¤ŀ": 10710,
  "à¤Ĩà¤®à¤¹": 9626,
  "à¤Ĩà¤®à¤¹à¤¡": 10711,
  "à¤Ĩà¤®à¤ļ": 13328,
  "à¤Ĩà¤®à¤ľà¤¨à¤¤": 15625,
  "à¤Ĩà¤¯": 1903,
  "à¤Ĩà¤¯à¤®": 9618,
  "à¤Ĩà¤¯à¤²": 9621,
  "à¤Ĩà¤¯à¤ķà¤°": 13335,
  "à¤Ĩà¤°": 621,
  "à¤Ĩà¤°à¤§": 13322,
  "à¤Ĩà¤°à¤ª": 5418,
  "à¤Ĩà¤°à¤¬": 4667,
  "à¤Ĩà¤°à¤®": 5683,
  "à¤Ĩà¤°à¤°à¤ıà¤¬": 14237,
  "à¤Ĩà¤°à¤²": 4362,
  "à¤Ĩà¤°à¤²à¤Ĺ": 13343,
  "à¤Ĩà¤°à¤¸": 5082,
  "à¤Ĩà¤°à¤Ĩà¤°": 6134,
  "à¤Ĩà¤°à¤Ĩà¤ĩà¤Ł": 14234,
  "à¤Ĩà¤°à¤Ĩà¤Ī": 3343,
  "à¤Ĩà¤°à¤Ĩà¤Īà¤¬": 16233,
  "à¤Ĩà¤°à¤Ĩà¤Īà¤¸": 16232,
  "à¤Ĩà¤°à¤Ĩà¤Īà¤ıà¤¸": 16234,
  "à¤Ĩà¤°à¤Ĩà¤Īà¤ķ": 6673,
  "à¤Ĩà¤°à¤Ī": 14229,
  "à¤Ĩà¤°à¤Īà¤²": 14231,
  "à¤Ĩà¤°à¤ıà¤¨": 14230,
  "à¤Ĩà¤°à¤ıà¤¨à¤¡": 14235,
  "à¤Ĩà¤°à¤ıà¤«": 4248,
  "à¤Ĩà¤°à¤ıà¤«à¤¯": 16350,
  "à¤Ĩà¤°à¤ıà¤«à¤¸": 14232,
  "à¤Ĩà¤°à¤ıà¤«à¤Ĩà¤ĩà¤¡": 8584,
  "à¤Ĩà¤°à¤ıà¤²": 6672,
  "à¤Ĩà¤°à¤ıà¤¸": 5419,
  "à¤Ĩà¤°à¤ıà¤¸à¤¡": 16488,
  "à¤Ĩà¤°à¤ıà¤¸à¤²": 14233,
  "à¤Ĩà¤°à¤ıà¤¸à¤ıà¤¸": 10627,
  "à¤Ĩà¤°à¤ķ": 4360,
  "à¤Ĩà¤°à¤ľ": 4383,
  "à¤Ĩà¤°à¤Ł": 8251,
  "à¤Ĩà¤°à¤łà¤¦": 14236,
  "à¤Ĩà¤²": 5371,
  "à¤Ĩà¤µ": 872,
  "à¤Ĩà¤µà¤¤": 13330,
  "à¤Ĩà¤µà¤¦": 13336,
  "à¤Ĩà¤µà¤°": 13321,
  "à¤Ĩà¤µà¤°à¤£": 13329,
  "à¤Ĩà¤µà¤¶": 3633,
  "à¤Ĩà¤¶": 3699,
  "à¤Ĩà¤¶à¤®": 8084,
  "à¤Ĩà¤¶à¤²": 13331,
  "à¤Ĩà¤¸": 4359,
  "à¤Ĩà¤¸à¤¨": 9622,
  "à¤Ĩà¤¹": 9614,
  "à¤Ĩà¤Ĩà¤«": 9627,
  "à¤Ĩà¤ĩ": 1987,
  "à¤Ĩà¤ĩà¤¡": 3466,
  "à¤Ĩà¤ĩà¤¤à¤¬": 6243,
  "à¤Ĩà¤ĩà¤¨": 9619,
  "à¤Ĩà¤ĩà¤¨à¤ľ": 16750,
  "à¤Ĩà¤ĩà¤¨à¤ľà¤¸": 13344,
  "à¤Ĩà¤ĩà¤ª": 1675,
  "à¤Ĩà¤ĩà¤«": 8088,
  "à¤Ĩà¤ĩà¤«à¤²": 15747,
  "à¤Ĩà¤ĩà¤¬": 4079,
  "à¤Ĩà¤ĩà¤°à¤¨": 15749,
  "à¤Ĩà¤ĩà¤°à¤¹": 9623,
  "à¤Ĩà¤ĩà¤µ": 5685,
  "à¤Ĩà¤ĩà¤µà¤¬à¤²": 16503,
  "à¤Ĩà¤ĩà¤¸": 2258,
  "à¤Ĩà¤ĩà¤¸à¤«à¤²": 15911,
  "à¤Ĩà¤ĩà¤¸à¤¬": 15750,
  "à¤Ĩà¤ĩà¤¹": 13341,
  "à¤Ĩà¤ĩà¤¹à¤¬": 16904,
  "à¤Ĩà¤ĩà¤Ĩ": 10421,
  "à¤Ĩà¤ĩà¤Ĩà¤°": 8508,
  "à¤Ĩà¤ĩà¤Ĩà¤ĩ": 15752,
  "à¤Ĩà¤ĩà¤Ĩà¤ĩà¤®": 16773,
  "à¤Ĩà¤ĩà¤Ĩà¤ĩà¤²": 16772,
  "à¤Ĩà¤ĩà¤ĩà¤Ī": 6784,
  "à¤Ĩà¤ĩà¤ı": 3960,
  "à¤Ĩà¤ĩà¤ıà¤¨": 5795,
  "à¤Ĩà¤ĩà¤ıà¤¨à¤¬": 16515,
  "à¤Ĩà¤ĩà¤ıà¤¨à¤ıà¤¸": 16516,
  "à¤Ĩà¤ĩà¤ıà¤¨à¤ľ": 8510,
  "à¤Ĩà¤ĩà¤ıà¤ª": 16307,
  "à¤Ĩà¤ĩà¤ıà¤«": 6244,
  "à¤Ĩà¤ĩà¤ıà¤«à¤²": 16308,
  "à¤Ĩà¤ĩà¤ıà¤«à¤¸": 15754,
  "à¤Ĩà¤ĩà¤ıà¤«à¤¸à¤¹": 16552,
  "à¤Ĩà¤ĩà¤ıà¤«à¤¹à¤°": 16551,
  "à¤Ĩà¤ĩà¤ıà¤«à¤ķ": 16309,
  "à¤Ĩà¤ĩà¤ıà¤«à¤ľ": 15759,
  "à¤Ĩà¤ĩà¤ıà¤®": 7452,
  "à¤Ĩà¤ĩà¤ıà¤®à¤¸": 15755,
  "à¤Ĩà¤ĩà¤ıà¤®à¤ĩ": 16656,
  "à¤Ĩà¤ĩà¤ıà¤®à¤Ī": 15757,
  "à¤Ĩà¤ĩà¤ıà¤®à¤ıà¤¸": 15753,
  "à¤Ĩà¤ĩà¤ıà¤®à¤ĵ": 15758,
  "à¤Ĩà¤ĩà¤ıà¤²": 15751,
  "à¤Ĩà¤ĩà¤ıà¤²à¤ĵ": 15760,
  "à¤Ĩà¤ĩà¤ıà¤¸": 3898,
  "à¤Ĩà¤ĩà¤ıà¤¸à¤ı": 15756,
  "à¤Ĩà¤ĩà¤ıà¤¸à¤ĵ": 10562,
  "à¤Ĩà¤ĩà¤ıà¤¸à¤Ł": 16297,
  "à¤Ĩà¤ĩà¤ıà¤ĩà¤ı": 16310,
  "à¤Ĩà¤ĩà¤ıà¤ķ": 6578,
  "à¤Ĩà¤ĩà¤ĵà¤ıà¤®": 15761,
  "à¤Ĩà¤ĩà¤ĵà¤ıà¤¸": 8509,
  "à¤Ĩà¤ĩà¤ķ": 13333,
  "à¤Ĩà¤ĩà¤ķà¤¨": 15748,
  "à¤Ĩà¤ĩà¤ľ": 2351,
  "à¤Ĩà¤ĩà¤Ł": 3701,
  "à¤Ĩà¤ĩà¤Ń": 5372,
  "à¤Ĩà¤Ī": 1396,
  "à¤Ĩà¤Īà¤¤à¤¬": 10295,
  "à¤Ĩà¤Īà¤ª": 4129,
  "à¤Ĩà¤Īà¤¬": 7416,
  "à¤Ĩà¤Īà¤²": 3702,
  "à¤Ĩà¤Īà¤¸": 5782,
  "à¤Ĩà¤Īà¤Ĩà¤°à¤ıà¤«": 15388,
  "à¤Ĩà¤Īà¤ı": 7415,
  "à¤Ĩà¤Īà¤ıà¤²": 10296,
  "à¤Ĩà¤Īà¤ıà¤¸": 10294,
  "à¤Ĩà¤Īà¤ıà¤¸à¤¦": 16655,
  "à¤Ĩà¤Īà¤ıà¤¸à¤ķ": 10297,
  "à¤Ĩà¤Īà¤ıà¤¸à¤Ł": 15389,
  "à¤Ĩà¤Īà¤ıà¤ķ": 10293,
  "à¤Ĩà¤Īà¤ĵà¤ıà¤¸": 15387,
  "à¤Ĩà¤Īà¤ķ": 4078,
  "à¤Ĩà¤Īà¤ľ": 5463,
  "à¤Ĩà¤Īà¤Ł": 6230,
  "à¤Ĩà¤Īà¤Ń": 6231,
  "à¤Ĩà¤ī": 3700,
  "à¤Ĩà¤īà¤¨": 4361,
  "à¤Ĩà¤īà¤Ł": 1733,
  "à¤Ĩà¤īà¤Łà¤ķ": 6259,
  "à¤Ĩà¤ı": 13319,
  "à¤Ĩà¤ıà¤®à¤ıà¤«": 13345,
  "à¤Ĩà¤ıà¤ķ": 2033,
  "à¤Ĩà¤ĵ": 4668,
  "à¤Ĩà¤ĵà¤¨": 16403,
  "à¤Ĩà¤ķ": 3393,
  "à¤Ĩà¤ķà¤°": 13323,
  "à¤Ĩà¤ķà¤²à¤¨à¤Ĺà¤°": 13346,
  "à¤Ĩà¤ķà¤¸": 8086,
  "à¤Ĩà¤ĸ": 8083,
  "à¤Ĩà¤Ĺ": 3336,
  "à¤Ĩà¤Ĺà¤¤à¤ķ": 13338,
  "à¤Ĩà¤Ĺà¤¨": 7191,
  "à¤Ĩà¤Ĺà¤®": 13327,
  "à¤Ĩà¤Ĺà¤®à¤¨": 13337,
  "à¤Ĩà¤Ĺà¤²": 13326,
  "à¤Ĩà¤Ĺà¤ľà¤¨": 16224,
  "à¤Ĩà¤Ļ": 6064,
  "à¤Ĩà¤Ļà¤²": 13332,
  "à¤Ĩà¤Ļà¤¸": 8089,
  "à¤Ĩà¤ļ": 7190,
  "à¤Ĩà¤ľ": 1667,
  "à¤Ĩà¤ľà¤¦": 13334,
  "à¤Ĩà¤ľà¤®": 8085,
  "à¤Ĩà¤ľà¤¸à¤®": 7435,
  "à¤Ĩà¤ľà¤ķ": 3609,
  "à¤Ĩà¤ľà¤ķà¤²": 13339,
  "à¤Ĩà¤ľà¤ķà¤²à¤ķ": 16268,
  "à¤Ĩà¤ľà¤Ń": 10356,
  "à¤Ĩà¤ľà¤Ńà¤¨": 10357,
  "à¤Ĩà¤Ł": 13318,
  "à¤Ĩà¤ł": 5081,
  "à¤Ĩà¤łà¤Ķà¤°": 16455,
  "à¤Ĩà¤łà¤ľà¤¨": 16454,
  "à¤Ĩà¤Ń": 13320,
  "à¤ĩ": 225,
  "à¤ĩà¤¡": 980,
  "à¤ĩà¤¡à¤¬": 14910,
  "à¤ĩà¤¡à¤¬à¤¡": 14915,
  "à¤ĩà¤¡à¤®": 3848,
  "à¤ĩà¤¡à¤°": 2509,
  "à¤ĩà¤¡à¤°à¤®": 8372,
  "à¤ĩà¤¡à¤°à¤²": 14911,
  "à¤ĩà¤¡à¤°à¤¹à¤°": 14912,
  "à¤ĩà¤¡à¤²": 4051,
  "à¤ĩà¤¡à¤µ": 14909,
  "à¤ĩà¤¡à¤¸": 7370,
  "à¤ĩà¤¡à¤¸à¤¹": 14914,
  "à¤ĩà¤¡à¤ĩà¤«": 10149,
  "à¤ĩà¤¡à¤ķ": 3013,
  "à¤ĩà¤¡à¤ľà¤¸": 14913,
  "à¤ĩà¤£": 5297,
  "à¤ĩà¤¤": 880,
  "à¤ĩà¤¤à¤¬": 5011,
  "à¤ĩà¤¤à¤°": 6468,
  "à¤ĩà¤¤à¤°à¤ķ": 12392,
  "à¤ĩà¤¤à¤²": 6470,
  "à¤ĩà¤¤à¤µ": 12383,
  "à¤ĩà¤¤à¤ħà¤¨": 14760,
  "à¤ĩà¤¤à¤ķ": 12373,
  "à¤ĩà¤¥": 7059,
  "à¤ĩà¤¦": 654,
  "à¤ĩà¤¦à¤²": 12384,
  "à¤ĩà¤§": 9273,
  "à¤ĩà¤§à¤°": 12391,
  "à¤ĩà¤¨": 308,
  "à¤ĩà¤¨à¤¤": 13028,
  "à¤ĩà¤¨à¤¨": 1360,
  "à¤ĩà¤¨à¤ª": 5059,
  "à¤ĩà¤¨à¤ªà¤Ľ": 9514,
  "à¤ĩà¤¨à¤«": 5662,
  "à¤ĩà¤¨à¤«à¤°": 9516,
  "à¤ĩà¤¨à¤¬": 2425,
  "à¤ĩà¤¨à¤¬à¤¦": 13032,
  "à¤ĩà¤¨à¤®": 1681,
  "à¤ĩà¤¨à¤®à¤§": 10362,
  "à¤ĩà¤¨à¤¯": 13029,
  "à¤ĩà¤¨à¤°": 3533,
  "à¤ĩà¤¨à¤°à¤¹à¤°": 7146,
  "à¤ĩà¤¨à¤°à¤ķ": 9513,
  "à¤ĩà¤¨à¤²": 852,
  "à¤ĩà¤¨à¤²à¤¬": 14696,
  "à¤ĩà¤¨à¤²à¤®": 1291,
  "à¤ĩà¤¨à¤²à¤²": 7345,
  "à¤ĩà¤¨à¤²à¤¸à¤®": 6173,
  "à¤ĩà¤¨à¤²à¤ħà¤ĺ": 14698,
  "à¤ĩà¤¨à¤²à¤ķ": 2781,
  "à¤ĩà¤¨à¤²à¤Ĺ": 7346,
  "à¤ĩà¤¨à¤²à¤Ńà¤¨": 14697,
  "à¤ĩà¤¨à¤µ": 6543,
  "à¤ĩà¤¨à¤¸": 3771,
  "à¤ĩà¤¨à¤¸à¤®": 6545,
  "à¤ĩà¤¨à¤¸à¤¹": 9515,
  "à¤ĩà¤¨à¤¸à¤ķ": 6544,
  "à¤ĩà¤¨à¤¹": 8028,
  "à¤ĩà¤¨à¤¹à¤°": 5060,
  "à¤ĩà¤¨à¤ħà¤¨": 8030,
  "à¤ĩà¤¨à¤ħà¤ª": 13033,
  "à¤ĩà¤¨à¤ħà¤Ł": 13035,
  "à¤ĩà¤¨à¤ķ": 1817,
  "à¤ĩà¤¨à¤ķà¤°à¤ª": 15637,
  "à¤ĩà¤¨à¤ĸà¤¬à¤°": 13034,
  "à¤ĩà¤¨à¤Ĺ": 13030,
  "à¤ĩà¤¨à¤ľà¤¸": 7147,
  "à¤ĩà¤¨à¤Ł": 13031,
  "à¤ĩà¤¨à¤Ń": 5350,
  "à¤ĩà¤¨à¤Ńà¤¨": 8029,
  "à¤ĩà¤ª": 1097,
  "à¤ĩà¤ªà¤¡à¤ķ": 15069,
  "à¤ĩà¤ªà¤¬": 7386,
  "à¤ĩà¤ªà¤®": 5606,
  "à¤ĩà¤ªà¤°": 4806,
  "à¤ĩà¤ªà¤°à¤¥": 6824,
  "à¤ĩà¤ªà¤°à¤¥à¤°": 16421,
  "à¤ĩà¤ªà¤°à¤Ł": 16420,
  "à¤ĩà¤ªà¤²": 2633,
  "à¤ĩà¤ªà¤¶": 15067,
  "à¤ĩà¤ªà¤¸": 12396,
  "à¤ĩà¤ªà¤ķ": 4640,
  "à¤ĩà¤ªà¤ĸ": 15068,
  "à¤ĩà¤ªà¤Ľ": 5298,
  "à¤ĩà¤ªà¤Łà¤ķ": 12385,
  "à¤ĩà¤«": 1375,
  "à¤ĩà¤«à¤¡à¤ķ": 15360,
  "à¤ĩà¤«à¤®": 15357,
  "à¤ĩà¤«à¤²": 4807,
  "à¤ĩà¤«à¤²à¤®": 15358,
  "à¤ĩà¤«à¤²à¤¸": 16422,
  "à¤ĩà¤«à¤¸": 2947,
  "à¤ĩà¤«à¤¸à¤¬": 15361,
  "à¤ĩà¤«à¤¸à¤²": 15359,
  "à¤ĩà¤«à¤¸à¤ķ": 5462,
  "à¤ĩà¤«à¤ķ": 7880,
  "à¤ĩà¤«à¤Ł": 4556,
  "à¤ĩà¤¬": 1385,
  "à¤ĩà¤¬à¤®": 12397,
  "à¤ĩà¤¬à¤°": 1936,
  "à¤ĩà¤¬à¤°à¤¦": 15375,
  "à¤ĩà¤¬à¤°à¤¬": 7414,
  "à¤ĩà¤¬à¤°à¤®": 6229,
  "à¤ĩà¤¬à¤°à¤¯": 8451,
  "à¤ĩà¤¬à¤°à¤²": 3985,
  "à¤ĩà¤¬à¤°à¤ķ": 5012,
  "à¤ĩà¤¬à¤²": 4809,
  "à¤ĩà¤¬à¤²à¤®": 7413,
  "à¤ĩà¤¬à¤²à¤²": 10288,
  "à¤ĩà¤¬à¤²à¤ķ": 7412,
  "à¤ĩà¤¬à¤¹": 6472,
  "à¤ĩà¤®": 873,
  "à¤ĩà¤®à¤§": 12386,
  "à¤ĩà¤®à¤¨": 3938,
  "à¤ĩà¤®à¤¬": 9283,
  "à¤ĩà¤®à¤®": 7878,
  "à¤ĩà¤®à¤°": 5301,
  "à¤ĩà¤®à¤°à¤ķ": 14728,
  "à¤ĩà¤®à¤²": 5973,
  "à¤ĩà¤®à¤¸": 12388,
  "à¤ĩà¤®à¤ķ": 9277,
  "à¤ĩà¤¯": 1008,
  "à¤ĩà¤¯à¤¨": 12372,
  "à¤ĩà¤¯à¤¨à¤ķ": 14962,
  "à¤ĩà¤¯à¤°": 12377,
  "à¤ĩà¤°": 751,
  "à¤ĩà¤°à¤¨": 12380,
  "à¤ĩà¤°à¤¨à¤ķ": 14527,
  "à¤ĩà¤°à¤¬": 12375,
  "à¤ĩà¤°à¤®": 12366,
  "à¤ĩà¤°à¤¯": 9279,
  "à¤ĩà¤°à¤²": 2422,
  "à¤ĩà¤°à¤²à¤¬": 16006,
  "à¤ĩà¤°à¤²à¤µ": 16005,
  "à¤ĩà¤°à¤²à¤ķ": 5433,
  "à¤ĩà¤°à¤²à¤ľà¤¸": 16007,
  "à¤ĩà¤°à¤²à¤Ńà¤ıà¤ķ": 16008,
  "à¤ĩà¤°à¤¸": 1861,
  "à¤ĩà¤°à¤¸à¤¬": 6781,
  "à¤ĩà¤°à¤¸à¤®": 14528,
  "à¤ĩà¤°à¤¸à¤²": 3815,
  "à¤ĩà¤°à¤¸à¤²à¤Ĺ": 15676,
  "à¤ĩà¤°à¤¸à¤¸à¤®": 15675,
  "à¤ĩà¤°à¤¸à¤¹à¤°": 8501,
  "à¤ĩà¤°à¤¸à¤ķ": 3344,
  "à¤ĩà¤°à¤¸à¤ľà¤¨": 15674,
  "à¤ĩà¤°à¤¹": 383,
  "à¤ĩà¤°à¤¹à¤¦": 9662,
  "à¤ĩà¤°à¤¹à¤¨": 1482,
  "à¤ĩà¤°à¤¹à¤¨à¤®": 13445,
  "à¤ĩà¤°à¤¹à¤²": 13444,
  "à¤ĩà¤°à¤¹à¤ķ": 9661,
  "à¤ĩà¤°à¤ķ": 12365,
  "à¤ĩà¤°à¤Łà¤¹à¤°": 14529,
  "à¤ĩà¤²": 610,
  "à¤ĩà¤²à¤¦": 14203,
  "à¤ĩà¤²à¤¨": 4639,
  "à¤ĩà¤²à¤¨à¤®": 4870,
  "à¤ĩà¤²à¤¬": 2971,
  "à¤ĩà¤²à¤¬à¤¢": 4567,
  "à¤ĩà¤²à¤®": 1761,
  "à¤ĩà¤²à¤®à¤®": 15602,
  "à¤ĩà¤²à¤®à¤ķ": 10376,
  "à¤ĩà¤²à¤°": 6664,
  "à¤ĩà¤²à¤°à¤ķ": 14204,
  "à¤ĩà¤²à¤²": 3678,
  "à¤ĩà¤²à¤²à¤Ĺ": 12403,
  "à¤ĩà¤²à¤¸": 9920,
  "à¤ĩà¤²à¤¸à¤®": 14205,
  "à¤ĩà¤²à¤¹à¤°": 4532,
  "à¤ĩà¤²à¤ħà¤ĺ": 14208,
  "à¤ĩà¤²à¤ķ": 2489,
  "à¤ĩà¤²à¤ķà¤°": 10490,
  "à¤ĩà¤²à¤ķà¤¹à¤°": 12405,
  "à¤ĩà¤²à¤Ĺ": 5299,
  "à¤ĩà¤²à¤Ĺà¤®": 14207,
  "à¤ĩà¤²à¤Ĺà¤²": 14206,
  "à¤ĩà¤²à¤Ł": 2570,
  "à¤ĩà¤²à¤Łà¤²": 5415,
  "à¤ĩà¤²à¤Łà¤ķ": 6665,
  "à¤ĩà¤µ": 1797,
  "à¤ĩà¤µà¤°": 7877,
  "à¤ĩà¤µà¤°à¤ķ": 12400,
  "à¤ĩà¤µà¤²à¤ķ": 15628,
  "à¤ĩà¤µà¤Ł": 7063,
  "à¤ĩà¤¶": 9274,
  "à¤ĩà¤¶à¤ķ": 12374,
  "à¤ĩà¤¸": 885,
  "à¤ĩà¤¸à¤¤": 14767,
  "à¤ĩà¤¸à¤¤à¤°": 14770,
  "à¤ĩà¤¸à¤§": 10104,
  "à¤ĩà¤¸à¤¨": 6469,
  "à¤ĩà¤¸à¤¨à¤ķ": 12393,
  "à¤ĩà¤¸à¤¬": 7879,
  "à¤ĩà¤¸à¤®": 3012,
  "à¤ĩà¤¸à¤°": 9280,
  "à¤ĩà¤¸à¤°à¤¬": 14772,
  "à¤ĩà¤¸à¤°à¤²": 14769,
  "à¤ĩà¤¸à¤°à¤ķ": 7354,
  "à¤ĩà¤¸à¤²": 3757,
  "à¤ĩà¤¸à¤¸à¤ķ": 14768,
  "à¤ĩà¤¸à¤¹": 12382,
  "à¤ĩà¤¸à¤ķ": 526,
  "à¤ĩà¤¸à¤ķà¤ªà¤Ľ": 14009,
  "à¤ĩà¤¸à¤ļà¤°": 10105,
  "à¤ĩà¤¸à¤Ńà¤¨": 14771,
  "à¤ĩà¤¹": 1622,
  "à¤ĩà¤¹à¤ª": 15530,
  "à¤ĩà¤¹à¤°": 2928,
  "à¤ĩà¤ħà¤¨": 4808,
  "à¤ĩà¤ħà¤²": 9285,
  "à¤ĩà¤ħà¤²à¤°": 6473,
  "à¤ĩà¤ħà¤ķ": 9288,
  "à¤ĩà¤ħà¤ĺ": 12379,
  "à¤ĩà¤Ĩ": 9278,
  "à¤ĩà¤Ĩà¤®": 12401,
  "à¤ĩà¤Ĩà¤ĩà¤°à¤¹à¤¨": 16743,
  "à¤ĩà¤Ĩà¤ĩà¤ı": 9289,
  "à¤ĩà¤Ĩà¤ĩà¤ıà¤«": 12408,
  "à¤ĩà¤Ĩà¤ıà¤ķ": 12402,
  "à¤ĩà¤ĩ": 6467,
  "à¤ĩà¤ĩà¤ª": 12398,
  "à¤ĩà¤ĩà¤ķà¤°": 12406,
  "à¤ĩà¤Ī": 4188,
  "à¤ĩà¤ı": 1732,
  "à¤ĩà¤ıà¤¦": 10367,
  "à¤ĩà¤ıà¤¨": 2324,
  "à¤ĩà¤ıà¤¨à¤ıà¤¨": 15961,
  "à¤ĩà¤ıà¤ªà¤¨": 5975,
  "à¤ĩà¤ıà¤ªà¤Ľ": 2888,
  "à¤ĩà¤ıà¤«à¤ı": 12407,
  "à¤ĩà¤ıà¤¬": 7438,
  "à¤ĩà¤ıà¤®": 3679,
  "à¤ĩà¤ıà¤°": 12371,
  "à¤ĩà¤ıà¤°à¤¸": 15581,
  "à¤ĩà¤ıà¤²": 5974,
  "à¤ĩà¤ıà¤¸": 9282,
  "à¤ĩà¤ıà¤¸à¤®": 15580,
  "à¤ĩà¤ıà¤¸à¤ķ": 15579,
  "à¤ĩà¤ıà¤ħà¤¨": 10370,
  "à¤ĩà¤ıà¤ķ": 417,
  "à¤ĩà¤ıà¤ļà¤ıà¤¸": 10371,
  "à¤ĩà¤ıà¤Ľ": 7439,
  "à¤ĩà¤ıà¤ľà¤¸": 10369,
  "à¤ĩà¤ıà¤Ŀ": 10368,
  "à¤ĩà¤ĵ": 2342,
  "à¤ĩà¤ĵà¤²": 9287,
  "à¤ĩà¤ĵà¤¹à¤°": 8526,
  "à¤ĩà¤ĵà¤Ĩà¤Ī": 10471,
  "à¤ĩà¤ĵà¤ıà¤®": 15970,
  "à¤ĩà¤ĵà¤ķ": 12404,
  "à¤ĩà¤ķ": 733,
  "à¤ĩà¤ķà¤¨": 3319,
  "à¤ĩà¤ķà¤®": 7876,
  "à¤ĩà¤ķà¤°": 2929,
  "à¤ĩà¤ķà¤°à¤£à¤ķ": 12390,
  "à¤ĩà¤ķà¤°à¤²": 10026,
  "à¤ĩà¤ķà¤°à¤ķ": 14497,
  "à¤ĩà¤ķà¤²": 1338,
  "à¤ĩà¤ķà¤²à¤ª": 15327,
  "à¤ĩà¤ķà¤²à¤¬": 15328,
  "à¤ĩà¤ķà¤²à¤®": 3482,
  "à¤ĩà¤ķà¤²à¤¯": 15326,
  "à¤ĩà¤ķà¤²à¤²": 5781,
  "à¤ĩà¤ķà¤²à¤¸à¤®": 15329,
  "à¤ĩà¤ķà¤²à¤¸à¤¹": 15330,
  "à¤ĩà¤ķà¤²à¤ķ": 3217,
  "à¤ĩà¤ķà¤¸": 12387,
  "à¤ĩà¤ķà¤¹à¤°": 14498,
  "à¤ĩà¤ķà¤ķ": 5607,
  "à¤ĩà¤ķà¤Łà¤ķ": 14499,
  "à¤ĩà¤ĸ": 9275,
  "à¤ĩà¤ĸà¤°": 12381,
  "à¤ĩà¤Ĺ": 3522,
  "à¤ĩà¤Ĺà¤¡": 2560,
  "à¤ĩà¤Ĺà¤¨": 12394,
  "à¤ĩà¤Ĺà¤®": 12378,
  "à¤ĩà¤Ĺà¤°": 3249,
  "à¤ĩà¤Ĺà¤°à¤²": 5609,
  "à¤ĩà¤Ĺà¤°à¤ķ": 7881,
  "à¤ĩà¤ĺ": 12367,
  "à¤ĩà¤Ļ": 2703,
  "à¤ĩà¤Ļà¤¦": 16099,
  "à¤ĩà¤Ļà¤¬": 9286,
  "à¤ĩà¤Ļà¤®": 12395,
  "à¤ĩà¤Ļà¤°": 16098,
  "à¤ĩà¤Ļà¤²": 5300,
  "à¤ĩà¤Ļà¤¸": 7064,
  "à¤ĩà¤Ļà¤ķ": 6471,
  "à¤ĩà¤ļ": 2586,
  "à¤ĩà¤ļà¤¢": 10497,
  "à¤ĩà¤ļà¤¸": 12399,
  "à¤ĩà¤Ľ": 7060,
  "à¤ĩà¤Ľà¤¨": 12370,
  "à¤ĩà¤ľ": 866,
  "à¤ĩà¤ľà¤¤": 14722,
  "à¤ĩà¤ľà¤¨": 7061,
  "à¤ĩà¤ľà¤®": 5010,
  "à¤ĩà¤ľà¤°": 2634,
  "à¤ĩà¤ľà¤°à¤¸à¤¹": 10095,
  "à¤ĩà¤ľà¤°à¤ķ": 5759,
  "à¤ĩà¤ľà¤²": 9281,
  "à¤ĩà¤ľà¤¸": 12376,
  "à¤ĩà¤ľà¤¹": 5758,
  "à¤ĩà¤ľà¤¹à¤°": 14723,
  "à¤ĩà¤ľà¤ħà¤¨": 6717,
  "à¤ĩà¤ľà¤ķ": 5972,
  "à¤ĩà¤Ŀ": 12369,
  "à¤ĩà¤ŀ": 12368,
  "à¤ĩà¤Ł": 714,
  "à¤ĩà¤Łà¤¥": 8294,
  "à¤ĩà¤Łà¤¨": 7062,
  "à¤ĩà¤Łà¤¨à¤²": 7314,
  "à¤ĩà¤Łà¤¬": 4388,
  "à¤ĩà¤Łà¤®": 2093,
  "à¤ĩà¤Łà¤®à¤§": 10438,
  "à¤ĩà¤Łà¤°": 3318,
  "à¤ĩà¤Łà¤°à¤®": 14454,
  "à¤ĩà¤Łà¤°à¤ķ": 14453,
  "à¤ĩà¤Łà¤²": 2773,
  "à¤ĩà¤Łà¤²à¤¸à¤¹": 16119,
  "à¤ĩà¤Łà¤²à¤¹à¤°": 16118,
  "à¤ĩà¤Łà¤²à¤ķ": 14456,
  "à¤ĩà¤Łà¤²à¤Ĺ": 14459,
  "à¤ĩà¤Łà¤¸": 6693,
  "à¤ĩà¤Łà¤¸à¤®": 14455,
  "à¤ĩà¤Łà¤¸à¤¹": 10002,
  "à¤ĩà¤Łà¤¹": 14452,
  "à¤ĩà¤Łà¤¹à¤°": 6158,
  "à¤ĩà¤Łà¤ħà¤¨": 14458,
  "à¤ĩà¤Łà¤ķ": 3053,
  "à¤ĩà¤Łà¤Ŀ": 8295,
  "à¤ĩà¤Łà¤Ńà¤¨": 14457,
  "à¤ĩà¤ł": 9276,
  "à¤ĩà¤Ń": 1214,
  "à¤ĩà¤Ńà¤¨": 4050,
  "à¤ĩà¤Ńà¤®": 9284,
  "à¤ĩà¤Ńà¤¯": 12389,
  "à¤ĩà¤Ńà¤°": 2343,
  "à¤ĩà¤Ńà¤°à¤²": 7401,
  "à¤ĩà¤Ńà¤°à¤ķ": 8424,
  "à¤ĩà¤Ńà¤°à¤ľà¤¨": 15971,
  "à¤ĩà¤Ńà¤²": 5013,
  "à¤ĩà¤Ńà¤²à¤ķ": 8425,
  "à¤ĩà¤Ńà¤¸": 15211,
  "à¤ĩà¤Ńà¤ķ": 5608,
  "à¤ĩà¤Ńà¤Ł": 15212,
  "à¤Ī": 214,
  "à¤Īà¤¡": 4467,
  "à¤Īà¤¡à¤°": 7040,
  "à¤Īà¤¡à¤ķ": 12163,
  "à¤Īà¤¢": 12155,
  "à¤Īà¤¤": 1858,
  "à¤Īà¤¤à¤°": 5594,
  "à¤Īà¤¤à¤²": 7843,
  "à¤Īà¤¤à¤¹à¤ķ": 15672,
  "à¤Īà¤¥": 4317,
  "à¤Īà¤¥à¤°": 4999,
  "à¤Īà¤¦": 1760,
  "à¤Īà¤¦à¤²": 12167,
  "à¤Īà¤§": 12151,
  "à¤Īà¤§à¤°": 9205,
  "à¤Īà¤¨": 1472,
  "à¤Īà¤¨à¤¨": 9201,
  "à¤Īà¤¨à¤¬": 12166,
  "à¤Īà¤¨à¤®": 6444,
  "à¤Īà¤¨à¤²": 4996,
  "à¤Īà¤¨à¤²à¤®": 9212,
  "à¤Īà¤¨à¤²à¤ķ": 7847,
  "à¤Īà¤¨à¤ķ": 5951,
  "à¤Īà¤¨à¤Ń": 12182,
  "à¤Īà¤ª": 2966,
  "à¤Īà¤ªà¤¦": 12169,
  "à¤Īà¤ªà¤°": 12154,
  "à¤Īà¤ªà¤²": 7039,
  "à¤Īà¤ªà¤ķ": 3845,
  "à¤Īà¤ªà¤Ľ": 12157,
  "à¤Īà¤ªà¤Łà¤ķ": 2300,
  "à¤Īà¤ªà¤Łà¤ķà¤ķ": 10467,
  "à¤Īà¤ªà¤Łà¤ķà¤Ńà¤¨": 10468,
  "à¤Īà¤«": 5950,
  "à¤Īà¤«à¤°": 12179,
  "à¤Īà¤«à¤²": 12162,
  "à¤Īà¤«à¤ķ": 12175,
  "à¤Īà¤¬": 2469,
  "à¤Īà¤¬à¤¸": 7846,
  "à¤Īà¤¬à¤¹": 12172,
  "à¤Īà¤®": 1444,
  "à¤Īà¤®à¤¤": 5596,
  "à¤Īà¤®à¤§": 3677,
  "à¤Īà¤®à¤¹": 12174,
  "à¤Īà¤®à¤Ŀ": 15429,
  "à¤Īà¤¯": 5593,
  "à¤Īà¤¯à¤¤": 12156,
  "à¤Īà¤°": 3518,
  "à¤Īà¤°à¤¹": 3676,
  "à¤Īà¤°à¤¹à¤¨": 9206,
  "à¤Īà¤²": 742,
  "à¤Īà¤²à¤¬": 12159,
  "à¤Īà¤²à¤®": 5952,
  "à¤Īà¤²à¤®à¤§": 12189,
  "à¤Īà¤²à¤ķ": 9200,
  "à¤Īà¤²à¤Ĺ": 4998,
  "à¤Īà¤µ": 5948,
  "à¤Īà¤µà¤°": 6445,
  "à¤Īà¤µà¤¸": 7037,
  "à¤Īà¤µà¤Ł": 1534,
  "à¤Īà¤¶": 4796,
  "à¤Īà¤·": 12150,
  "à¤Īà¤¸": 2322,
  "à¤Īà¤¸à¤¤": 12180,
  "à¤Īà¤¸à¤¦": 12164,
  "à¤Īà¤¸à¤¨": 12160,
  "à¤Īà¤¸à¤®": 3596,
  "à¤Īà¤¸à¤®à¤°": 16265,
  "à¤Īà¤¸à¤°": 12161,
  "à¤Īà¤¸à¤µà¤Ł": 12191,
  "à¤Īà¤¸à¤¹": 5597,
  "à¤Īà¤¸à¤¹à¤°à¤®": 12192,
  "à¤Īà¤¸à¤ķ": 4044,
  "à¤Īà¤¸à¤Ń": 12168,
  "à¤Īà¤¹": 7841,
  "à¤Īà¤¹à¤ª": 12184,
  "à¤Īà¤¹à¤°": 2420,
  "à¤Īà¤¹à¤ľ": 12185,
  "à¤Īà¤ħà¤¨": 9202,
  "à¤Īà¤ħà¤®": 9207,
  "à¤Īà¤ħà¤°": 12173,
  "à¤Īà¤ħà¤¸": 12183,
  "à¤Īà¤Ĩà¤¤": 9209,
  "à¤Īà¤Ĩà¤¶": 12187,
  "à¤Īà¤Ĩà¤ľà¤ķ": 12186,
  "à¤Īà¤ĩà¤ļ": 9211,
  "à¤Īà¤īà¤¤": 12181,
  "à¤Īà¤īà¤ªà¤²à¤¬": 12190,
  "à¤Īà¤ı": 9199,
  "à¤Īà¤ıà¤®": 12171,
  "à¤Īà¤ıà¤¸": 9204,
  "à¤Īà¤ıà¤¸à¤Ĩà¤°": 16741,
  "à¤Īà¤ıà¤ķ": 2092,
  "à¤Īà¤ıà¤ķà¤Ĩà¤ªà¤¸à¤®": 15828,
  "à¤Īà¤ĵ": 7844,
  "à¤Īà¤ĵà¤Ł": 12188,
  "à¤Īà¤ķ": 773,
  "à¤Īà¤ķà¤¨": 4797,
  "à¤Īà¤ķà¤°": 5953,
  "à¤Īà¤ķà¤²": 4468,
  "à¤Īà¤ķà¤²à¤²": 10586,
  "à¤Īà¤ķà¤Łà¤ķ": 14555,
  "à¤Īà¤ĸ": 12153,
  "à¤Īà¤Ĺ": 5949,
  "à¤Īà¤Ĺà¤¦": 12170,
  "à¤Īà¤Ĺà¤®": 12165,
  "à¤Īà¤ĺ": 3011,
  "à¤Īà¤ĺà¤£": 10527,
  "à¤Īà¤ļ": 3450,
  "à¤Īà¤ļà¤¸": 12177,
  "à¤Īà¤Ľ": 12152,
  "à¤Īà¤ľ": 3098,
  "à¤Īà¤ľà¤¨": 2484,
  "à¤Īà¤ľà¤¨à¤¤": 9208,
  "à¤Īà¤ľà¤¬": 12176,
  "à¤Īà¤ľà¤°": 6446,
  "à¤Īà¤ľà¤²": 7845,
  "à¤Īà¤ľà¤¸": 7038,
  "à¤Īà¤ľà¤¹": 5598,
  "à¤Īà¤ľà¤ķ": 4997,
  "à¤Īà¤Ŀ": 12158,
  "à¤Īà¤Ł": 2217,
  "à¤Īà¤Łà¤®": 5954,
  "à¤Īà¤Łà¤¸": 12178,
  "à¤Īà¤Łà¤ķ": 7842,
  "à¤Īà¤Ń": 4318,
  "à¤Īà¤Ńà¤¨": 5595,
  "à¤Īà¤Ńà¤°": 9203,
  "à¤Īà¤Ńà¤°à¤²": 9213,
  "à¤Īà¤Ńà¤¸": 9210,
  "à¤ī": 219,
  "à¤īà¤¡": 1495,
  "à¤īà¤¡à¤¬": 7863,
  "à¤īà¤¡à¤®": 2443,
  "à¤īà¤¡à¤°": 4636,
  "à¤īà¤¡à¤²": 9246,
  "à¤īà¤¡à¤¸": 5005,
  "à¤īà¤¡à¤ķ": 2470,
  "à¤īà¤£": 1945,
  "à¤īà¤¤": 1328,
  "à¤īà¤¤à¤²": 2055,
  "à¤īà¤¤à¤²à¤Ĺ": 8513,
  "à¤īà¤¤à¤µ": 12288,
  "à¤īà¤¤à¤¸": 6460,
  "à¤īà¤¤à¤¹à¤°": 12296,
  "à¤īà¤¤à¤¹à¤¸à¤®": 9251,
  "à¤īà¤¤à¤ķ": 4323,
  "à¤īà¤¥": 1974,
  "à¤īà¤¥à¤²": 7051,
  "à¤īà¤¥à¤µ": 7052,
  "à¤īà¤¥à¤¸": 12297,
  "à¤īà¤¥à¤¹": 3643,
  "à¤īà¤¥à¤¹à¤®": 15746,
  "à¤īà¤¥à¤ķ": 12294,
  "à¤īà¤¦": 1018,
  "à¤īà¤¦à¤¯": 8383,
  "à¤īà¤¦à¤¯à¤ª": 6196,
  "à¤īà¤¦à¤²": 5966,
  "à¤īà¤¦à¤¸": 14975,
  "à¤īà¤¦à¤ķ": 12289,
  "à¤īà¤§à¤¨": 5965,
  "à¤īà¤§à¤¨à¤¸": 12299,
  "à¤īà¤§à¤¨à¤ķ": 9247,
  "à¤īà¤¨": 234,
  "à¤īà¤¨à¤¤": 4814,
  "à¤īà¤¨à¤¤à¤°": 7906,
  "à¤īà¤¨à¤¥": 12480,
  "à¤īà¤¨à¤¦": 5614,
  "à¤īà¤¨à¤¨": 12475,
  "à¤īà¤¨à¤ªà¤¨": 7905,
  "à¤īà¤¨à¤ªà¤°": 7073,
  "à¤īà¤¨à¤ªà¤Ł": 12488,
  "à¤īà¤¨à¤¬": 3601,
  "à¤īà¤¨à¤¬à¤¹": 12487,
  "à¤īà¤¨à¤®": 2218,
  "à¤īà¤¨à¤¯": 12476,
  "à¤īà¤¨à¤°": 9311,
  "à¤īà¤¨à¤²": 1445,
  "à¤īà¤¨à¤µ": 12477,
  "à¤īà¤¨à¤¸": 5981,
  "à¤īà¤¨à¤¸à¤®": 3139,
  "à¤īà¤¨à¤¸à¤ķ": 3759,
  "à¤īà¤¨à¤¹à¤²à¤®": 9312,
  "à¤īà¤¨à¤ħ": 12484,
  "à¤īà¤¨à¤ħà¤¸à¤®à¤°": 16885,
  "à¤īà¤¨à¤ħà¤ĺ": 12486,
  "à¤īà¤¨à¤ĵà¤²": 12489,
  "à¤īà¤¨à¤ķ": 978,
  "à¤īà¤¨à¤Ĺ": 12478,
  "à¤īà¤¨à¤Ĺà¤°": 12483,
  "à¤īà¤¨à¤ļ": 12481,
  "à¤īà¤¨à¤Ł": 12479,
  "à¤īà¤¨à¤Ń": 12482,
  "à¤īà¤¨à¤Ńà¤¨": 12485,
  "à¤īà¤ª": 1556,
  "à¤īà¤ªà¤¡": 3987,
  "à¤īà¤ªà¤¤": 5964,
  "à¤īà¤ªà¤¦": 6457,
  "à¤īà¤ªà¤¦à¤«": 16582,
  "à¤īà¤ªà¤§": 10333,
  "à¤īà¤ªà¤¨": 5963,
  "à¤īà¤ªà¤¨à¤®": 15487,
  "à¤īà¤ªà¤ª": 2970,
  "à¤īà¤ªà¤®": 6455,
  "à¤īà¤ªà¤®à¤¹": 10654,
  "à¤īà¤ªà¤¯": 3248,
  "à¤īà¤ªà¤°": 2666,
  "à¤īà¤ªà¤°à¤ķ": 8482,
  "à¤īà¤ªà¤²à¤¬": 6768,
  "à¤īà¤ªà¤¶": 9249,
  "à¤īà¤ªà¤¸": 7862,
  "à¤īà¤ªà¤¸à¤ļ": 15489,
  "à¤īà¤ªà¤¸à¤Ń": 10335,
  "à¤īà¤ªà¤ķ": 5295,
  "à¤īà¤ªà¤ķà¤°à¤£": 10623,
  "à¤īà¤ªà¤Ĺ": 5182,
  "à¤īà¤ªà¤ļ": 6459,
  "à¤īà¤ªà¤Ľ": 12280,
  "à¤īà¤ªà¤ľ": 8481,
  "à¤īà¤ªà¤ľà¤ķ": 15488,
  "à¤īà¤ªà¤ł": 10334,
  "à¤īà¤ªà¤Ń": 5183,
  "à¤īà¤¬": 2969,
  "à¤īà¤¬à¤¸": 9248,
  "à¤īà¤®": 1405,
  "à¤īà¤®à¤§": 12291,
  "à¤īà¤®à¤°": 12292,
  "à¤īà¤¯": 12276,
  "à¤īà¤°": 1576,
  "à¤īà¤°à¤®": 7861,
  "à¤īà¤²": 1254,
  "à¤īà¤²à¤¬": 12283,
  "à¤īà¤²à¤²": 9242,
  "à¤īà¤µ": 929,
  "à¤īà¤¶": 12277,
  "à¤īà¤¸": 1824,
  "à¤īà¤¸à¤¦": 12286,
  "à¤īà¤¸à¤¨": 12284,
  "à¤īà¤¸à¤«": 6778,
  "à¤īà¤¸à¤¬": 9245,
  "à¤īà¤¸à¤®": 3520,
  "à¤īà¤¸à¤°": 9243,
  "à¤īà¤¸à¤²": 2632,
  "à¤īà¤¸à¤¸": 12293,
  "à¤īà¤¸à¤¸à¤®": 10387,
  "à¤īà¤¸à¤¹à¤°": 12295,
  "à¤īà¤¸à¤ķ": 2665,
  "à¤īà¤¸à¤Ń": 12290,
  "à¤īà¤¹": 2235,
  "à¤īà¤¹à¤°": 6453,
  "à¤īà¤Ĩà¤¦": 12300,
  "à¤īà¤Ĩà¤®": 9250,
  "à¤īà¤Īà¤ļà¤¸": 12302,
  "à¤īà¤ıà¤¨à¤®": 12301,
  "à¤īà¤ıà¤°": 12282,
  "à¤īà¤ĵà¤ķ": 12298,
  "à¤īà¤ķ": 1220,
  "à¤īà¤ĸ": 4186,
  "à¤īà¤ĸà¤°": 12287,
  "à¤īà¤Ĺ": 4635,
  "à¤īà¤Ļ": 12278,
  "à¤īà¤ļ": 2887,
  "à¤īà¤ļà¤ķ": 6456,
  "à¤īà¤Ľ": 2529,
  "à¤īà¤Ľà¤¨": 2732,
  "à¤īà¤ľ": 2341,
  "à¤īà¤ľà¤°": 6458,
  "à¤īà¤ľà¤°à¤¹à¤°": 15969,
  "à¤īà¤ľà¤²": 5604,
  "à¤īà¤ľà¤¸": 9244,
  "à¤īà¤Ŀ": 12281,
  "à¤īà¤ŀ": 12279,
  "à¤īà¤Ł": 421,
  "à¤īà¤Łà¤°": 7050,
  "à¤īà¤Łà¤²": 9715,
  "à¤īà¤Łà¤¹à¤²": 13600,
  "à¤īà¤Łà¤ķ": 4802,
  "à¤īà¤ł": 6454,
  "à¤īà¤Ń": 3756,
  "à¤īà¤Ńà¤¨": 12285,
  "à¤Ĭ": 1184,
  "à¤Ĭà¤¨": 2286,
  "à¤Ĭà¤ª": 6213,
  "à¤Ĭà¤®": 10237,
  "à¤Ĭà¤°": 4714,
  "à¤Ĭà¤¸": 15182,
  "à¤Ĭà¤ĵà¤²": 10238,
  "à¤Ĭà¤ķ": 15181,
  "à¤ĭ": 5205,
  "à¤ĭà¤£": 10619,
  "à¤ĭà¤£à¤®": 16475,
  "à¤ĭà¤·": 7500,
  "à¤ı": 187,
  "à¤ıl": 11635,
  "à¤ıà¤¡": 2878,
  "à¤ıà¤¡à¤¬": 8985,
  "à¤ıà¤¡à¤ľà¤¸": 16135,
  "à¤ıà¤£": 11638,
  "à¤ıà¤¤": 3005,
  "à¤ıà¤¤à¤¥": 16183,
  "à¤ıà¤¤à¤¨": 11643,
  "à¤ıà¤¤à¤°": 11642,
  "à¤ıà¤¤à¤²": 11645,
  "à¤ıà¤¤à¤ķ": 4770,
  "à¤ıà¤¥": 5896,
  "à¤ıà¤¦": 4968,
  "à¤ıà¤¨": 434,
  "à¤ıà¤¨à¤¡": 3877,
  "à¤ıà¤¨à¤¨": 1030,
  "à¤ıà¤¨à¤ª": 3211,
  "à¤ıà¤¨à¤¬": 9725,
  "à¤ıà¤¨à¤®": 6958,
  "à¤ıà¤¨à¤²": 4164,
  "à¤ıà¤¨à¤¸": 3435,
  "à¤ıà¤¨à¤ħ": 13631,
  "à¤ıà¤¨à¤Ĩà¤°": 1834,
  "à¤ıà¤¨à¤Ĩà¤°à¤ıà¤¨": 3641,
  "à¤ıà¤¨à¤Ĩà¤°à¤ıà¤¨à¤®": 15647,
  "à¤ıà¤¨à¤Ĩà¤°à¤ıà¤¨à¤²": 8499,
  "à¤ıà¤¨à¤Ĩà¤°à¤ıà¤¨à¤ı": 2185,
  "à¤ıà¤¨à¤Ĩà¤°à¤ıà¤¨à¤ķ": 10390,
  "à¤ıà¤¨à¤Ĩà¤°à¤ıà¤ı": 10391,
  "à¤ıà¤¨à¤ı": 1424,
  "à¤ıà¤¨à¤ıà¤¦": 15405,
  "à¤ıà¤¨à¤ıà¤¨": 8148,
  "à¤ıà¤¨à¤ıà¤¨à¤²": 10309,
  "à¤ıà¤¨à¤ıà¤¨à¤¸": 15407,
  "à¤ıà¤¨à¤ıà¤«": 13633,
  "à¤ıà¤¨à¤ıà¤«à¤¡": 9726,
  "à¤ıà¤¨à¤ıà¤¬": 10308,
  "à¤ıà¤¨à¤ıà¤®": 3069,
  "à¤ıà¤¨à¤ıà¤®à¤§": 15408,
  "à¤ıà¤¨à¤ıà¤®à¤¸": 16190,
  "à¤ıà¤¨à¤ıà¤®à¤ı": 13637,
  "à¤ıà¤¨à¤ıà¤²": 3878,
  "à¤ıà¤¨à¤ıà¤¸": 8149,
  "à¤ıà¤¨à¤ıà¤¸à¤®": 15406,
  "à¤ıà¤¨à¤ıà¤¸à¤ľ": 13636,
  "à¤ıà¤¨à¤ıà¤¸à¤Ł": 13638,
  "à¤ıà¤¨à¤ıà¤ķ": 3546,
  "à¤ıà¤¨à¤ıà¤ļà¤¸": 8462,
  "à¤ıà¤¨à¤ıà¤ļà¤ıà¤¸à¤ª": 15409,
  "à¤ıà¤¨à¤ĵà¤¸": 13634,
  "à¤ıà¤¨à¤ĵà¤ķ": 13635,
  "à¤ıà¤¨à¤ķ": 4163,
  "à¤ıà¤¨à¤ľ": 2939,
  "à¤ıà¤¨à¤Ł": 5101,
  "à¤ıà¤¨à¤Ńà¤¨": 13632,
  "à¤ıà¤ª": 2914,
  "à¤ıà¤ªà¤¨": 1639,
  "à¤ıà¤ªà¤«à¤²": 16144,
  "à¤ıà¤ªà¤«à¤ķ": 16145,
  "à¤ıà¤ªà¤¶": 6376,
  "à¤ıà¤ªà¤Ľ": 532,
  "à¤ıà¤«": 1246,
  "à¤ıà¤«à¤¡": 4126,
  "à¤ıà¤«à¤¡à¤¬": 8429,
  "à¤ıà¤«à¤¥": 15240,
  "à¤ıà¤«à¤ª": 2680,
  "à¤ıà¤«à¤«à¤°à¤ıà¤«": 15250,
  "à¤ıà¤«à¤¬": 6375,
  "à¤ıà¤«à¤°": 11651,
  "à¤ıà¤«à¤²": 2250,
  "à¤ıà¤«à¤µ": 10254,
  "à¤ıà¤«à¤¸": 3162,
  "à¤ıà¤«à¤¸à¤¹": 15242,
  "à¤ıà¤«à¤Ĩà¤°": 10255,
  "à¤ıà¤«à¤Ĩà¤ĩà¤¡": 10256,
  "à¤ıà¤«à¤Ĩà¤Ī": 15244,
  "à¤ıà¤«à¤ı": 6219,
  "à¤ıà¤«à¤ıà¤¨à¤ıà¤¸": 15249,
  "à¤ıà¤«à¤ıà¤«à¤ı": 15247,
  "à¤ıà¤«à¤ıà¤®": 15243,
  "à¤ıà¤«à¤ıà¤²à¤ıà¤«": 10257,
  "à¤ıà¤«à¤ıà¤ķ": 5173,
  "à¤ıà¤«à¤ıà¤Ł": 15246,
  "à¤ıà¤«à¤ĵ": 15241,
  "à¤ıà¤«à¤ĵà¤²": 15245,
  "à¤ıà¤«à¤ĵà¤Ĩà¤°": 15248,
  "à¤ıà¤«à¤ĵà¤Ĩà¤°à¤ĩà¤ıà¤¨à¤ıà¤¨": 16936,
  "à¤ıà¤«à¤ķ": 2276,
  "à¤ıà¤«à¤ľ": 5777,
  "à¤ıà¤«à¤Ł": 7402,
  "à¤ıà¤¬": 2379,
  "à¤ıà¤¬à¤®": 6374,
  "à¤ıà¤¬à¤²": 6372,
  "à¤ıà¤¬à¤²à¤¹à¤°": 16577,
  "à¤ıà¤®": 720,
  "à¤ıà¤®à¤¡": 7317,
  "à¤ıà¤®à¤¡à¤¬": 14472,
  "à¤ıà¤®à¤ª": 10008,
  "à¤ıà¤®à¤¬": 2692,
  "à¤ıà¤®à¤®": 4298,
  "à¤ıà¤®à¤²": 4609,
  "à¤ıà¤®à¤¸": 3628,
  "à¤ıà¤®à¤¹à¤°": 14469,
  "à¤ıà¤®à¤Ĩ": 10010,
  "à¤ıà¤®à¤Ĩà¤°": 14470,
  "à¤ıà¤®à¤Ĩà¤°à¤¦": 16762,
  "à¤ıà¤®à¤Ĩà¤°à¤²": 14476,
  "à¤ıà¤®à¤Ĩà¤°à¤Ł": 14477,
  "à¤ıà¤®à¤Ĩà¤ĩà¤¯": 16763,
  "à¤ıà¤®à¤Ĩà¤ĩà¤ıà¤¸": 6694,
  "à¤ıà¤®à¤Ĩà¤ĩà¤Ł": 10015,
  "à¤ıà¤®à¤Ĩà¤Ī": 10014,
  "à¤ıà¤®à¤Ĩà¤Īà¤Ł": 10016,
  "à¤ıà¤®à¤Ī": 4538,
  "à¤ıà¤®à¤Īà¤²": 8297,
  "à¤ıà¤®à¤Īà¤ķ": 14471,
  "à¤ıà¤®à¤ı": 2943,
  "à¤ıà¤®à¤ıà¤¨": 10011,
  "à¤ıà¤®à¤ıà¤¨à¤ĵ": 16764,
  "à¤ıà¤®à¤ıà¤«": 10013,
  "à¤ıà¤®à¤ıà¤®": 10012,
  "à¤ıà¤®à¤ıà¤²": 4115,
  "à¤ıà¤®à¤ıà¤²à¤ıà¤¨à¤ķ": 16339,
  "à¤ıà¤®à¤ıà¤²à¤ķ": 14473,
  "à¤ıà¤®à¤ıà¤¸": 2544,
  "à¤ıà¤®à¤ıà¤¸à¤¬": 16061,
  "à¤ıà¤®à¤ıà¤¸à¤²": 8547,
  "à¤ıà¤®à¤ıà¤¸à¤ķ": 14474,
  "à¤ıà¤®à¤ıà¤¸à¤Ł": 16060,
  "à¤ıà¤®à¤ıà¤¸à¤Ń": 16062,
  "à¤ıà¤®à¤ıà¤Ĩà¤°à¤Ł": 16157,
  "à¤ıà¤®à¤ıà¤ķ": 7316,
  "à¤ıà¤®à¤ĵ": 5149,
  "à¤ıà¤®à¤ĵà¤¡": 10616,
  "à¤ıà¤®à¤ĵà¤¯": 10615,
  "à¤ıà¤®à¤ĵà¤²à¤Ĺ": 16466,
  "à¤ıà¤®à¤ĵà¤ıà¤¸": 14475,
  "à¤ıà¤®à¤ķ": 4769,
  "à¤ıà¤®à¤ľ": 6159,
  "à¤ıà¤®à¤Ł": 10009,
  "à¤ıà¤¯à¤¤": 7710,
  "à¤ıà¤¯à¤°": 7712,
  "à¤ıà¤¯à¤°à¤²": 6960,
  "à¤ıà¤¯à¤°à¤ķ": 8988,
  "à¤ıà¤°": 311,
  "à¤ıà¤°à¤¤": 11639,
  "à¤ıà¤°à¤ªà¤Ľ": 13043,
  "à¤ıà¤°à¤¬": 13041,
  "à¤ıà¤°à¤®": 4768,
  "à¤ıà¤°à¤²": 11641,
  "à¤ıà¤°à¤¸": 8982,
  "à¤ıà¤°à¤¸à¤®": 13042,
  "à¤ıà¤°à¤¹": 11640,
  "à¤ıà¤°à¤īà¤¦": 13044,
  "à¤ıà¤°à¤ıà¤¨": 8032,
  "à¤ıà¤°à¤ķ": 8980,
  "à¤ıà¤°à¤Ńà¤¨": 9517,
  "à¤ıà¤²": 818,
  "à¤ıà¤²à¤¡": 14616,
  "à¤ıà¤²à¤¬": 6371,
  "à¤ıà¤²à¤®": 2658,
  "à¤ıà¤²à¤²": 4444,
  "à¤ıà¤²à¤¸": 2440,
  "à¤ıà¤²à¤Ĩà¤°": 14619,
  "à¤ıà¤²à¤ĩà¤¡": 6705,
  "à¤ıà¤²à¤ı": 5438,
  "à¤ıà¤²à¤ıà¤¨": 14618,
  "à¤ıà¤²à¤ıà¤«": 10065,
  "à¤ıà¤²à¤ıà¤®": 14621,
  "à¤ıà¤²à¤ıà¤¸": 14620,
  "à¤ıà¤²à¤ıà¤¸à¤²": 14623,
  "à¤ıà¤²à¤ıà¤ıà¤¸à¤¸": 7505,
  "à¤ıà¤²à¤ĵ": 7332,
  "à¤ıà¤²à¤ĵà¤ķ": 14622,
  "à¤ıà¤²à¤ķ": 2274,
  "à¤ıà¤²à¤Ĺà¤¤": 2856,
  "à¤ıà¤²à¤ľ": 10064,
  "à¤ıà¤²à¤Ł": 6704,
  "à¤ıà¤²à¤Ń": 14617,
  "à¤ıà¤µ": 5247,
  "à¤ıà¤µà¤®": 11646,
  "à¤ıà¤¶à¤¨": 8983,
  "à¤ıà¤¶à¤¨à¤ķ": 8986,
  "à¤ıà¤¶à¤ľ": 11658,
  "à¤ıà¤·": 11636,
  "à¤ıà¤¸": 644,
  "à¤ıà¤¸à¤¡": 6141,
  "à¤ıà¤¸à¤¤à¤°": 14291,
  "à¤ıà¤¸à¤§": 8261,
  "à¤ıà¤¸à¤¨": 2275,
  "à¤ıà¤¸à¤¨à¤¬": 15936,
  "à¤ıà¤¸à¤¨à¤²": 4875,
  "à¤ıà¤¸à¤¨à¤²à¤Ĺ": 9952,
  "à¤ıà¤¸à¤¨à¤¸": 15935,
  "à¤ıà¤¸à¤¨à¤ķ": 3215,
  "à¤ıà¤¸à¤ª": 1307,
  "à¤ıà¤¸à¤ªà¤Ľ": 9949,
  "à¤ıà¤¸à¤¬": 4696,
  "à¤ıà¤¸à¤®": 1908,
  "à¤ıà¤¸à¤®à¤ı": 15714,
  "à¤ıà¤¸à¤¯": 14288,
  "à¤ıà¤¸à¤°": 11644,
  "à¤ıà¤¸à¤°à¤¹": 14290,
  "à¤ıà¤¸à¤°à¤¹à¤ķ": 14296,
  "à¤ıà¤¸à¤²": 3586,
  "à¤ıà¤¸à¤²à¤Ĺ": 6961,
  "à¤ıà¤¸à¤µ": 14289,
  "à¤ıà¤¸à¤¸": 3551,
  "à¤ıà¤¸à¤¸à¤®": 9948,
  "à¤ıà¤¸à¤ħà¤¨": 14292,
  "à¤ıà¤¸à¤Ĩà¤°": 14293,
  "à¤ıà¤¸à¤Ĩà¤°à¤¬": 14299,
  "à¤ıà¤¸à¤Ĩà¤°à¤²": 9954,
  "à¤ıà¤¸à¤Ĩà¤ĩà¤Ĩà¤°": 9956,
  "à¤ıà¤¸à¤Ĩà¤ĩà¤Ĩà¤°à¤ĵ": 10715,
  "à¤ıà¤¸à¤Ĩà¤Ī": 9951,
  "à¤ıà¤¸à¤ĩà¤ĩ": 8263,
  "à¤ıà¤¸à¤ĩà¤Ī": 9953,
  "à¤ıà¤¸à¤ĩà¤ķ": 14294,
  "à¤ıà¤¸à¤Īà¤ı": 14300,
  "à¤ıà¤¸à¤Īà¤ıà¤®": 14301,
  "à¤ıà¤¸à¤ı": 3708,
  "à¤ıà¤¸à¤ıà¤¡": 14298,
  "à¤ıà¤¸à¤ıà¤¡à¤²": 16273,
  "à¤ıà¤¸à¤ıà¤¡à¤²à¤Ĺ": 16928,
  "à¤ıà¤¸à¤ıà¤¦": 16272,
  "à¤ıà¤¸à¤ıà¤«à¤¬": 16274,
  "à¤ıà¤¸à¤ıà¤®": 2431,
  "à¤ıà¤¸à¤ıà¤®à¤ı": 16011,
  "à¤ıà¤¸à¤ıà¤®à¤ıà¤¸": 10484,
  "à¤ıà¤¸à¤ıà¤²": 3481,
  "à¤ıà¤¸à¤ıà¤²à¤¬": 10552,
  "à¤ıà¤¸à¤ıà¤²à¤®": 14297,
  "à¤ıà¤¸à¤ıà¤²à¤¸": 8262,
  "à¤ıà¤¸à¤ıà¤²à¤Ĩà¤°": 16250,
  "à¤ıà¤¸à¤ıà¤²à¤ıà¤«à¤ª": 16251,
  "à¤ıà¤¸à¤ıà¤²à¤ķ": 14295,
  "à¤ıà¤¸à¤ıà¤¸": 9950,
  "à¤ıà¤¸à¤ıà¤¸à¤ª": 5742,
  "à¤ıà¤¸à¤ıà¤¸à¤¬": 9955,
  "à¤ıà¤¸à¤ıà¤Ĩà¤ĩà¤¡": 16275,
  "à¤ıà¤¸à¤ıà¤ķ": 5141,
  "à¤ıà¤¸à¤ıà¤ļ": 6677,
  "à¤ıà¤¸à¤ĵà¤ıà¤ļ": 14302,
  "à¤ıà¤¸à¤ĵà¤ıà¤ļà¤Ĩà¤°": 16929,
  "à¤ıà¤¸à¤ķ": 2296,
  "à¤ıà¤¸à¤ľ": 2942,
  "à¤ıà¤¸à¤Ł": 4535,
  "à¤ıà¤ħà¤¨": 2527,
  "à¤ıà¤ħà¤°": 11649,
  "à¤ıà¤Ĩà¤°": 3836,
  "à¤ıà¤Ĩà¤°à¤®": 11661,
  "à¤ıà¤Ĩà¤°à¤²": 7718,
  "à¤ıà¤Ĩà¤°à¤ĵ": 4571,
  "à¤ıà¤Ĩà¤ĩà¤ľ": 7716,
  "à¤ıà¤Ĩà¤Ī": 11653,
  "à¤ıà¤Ĩà¤Īà¤Ł": 11662,
  "à¤ıà¤ĩ": 4162,
  "à¤ıà¤ĩà¤ªà¤Ľ": 16344,
  "à¤ıà¤ĩà¤¬": 11652,
  "à¤ıà¤ĩà¤®": 5560,
  "à¤ıà¤ĩà¤²": 8984,
  "à¤ıà¤ĩà¤ķ": 6373,
  "à¤ıà¤Ī": 1017,
  "à¤ıà¤Īà¤¬": 3981,
  "à¤ıà¤Īà¤®": 1589,
  "à¤ıà¤Īà¤²": 2317,
  "à¤ıà¤Īà¤¸": 6736,
  "à¤ıà¤Īà¤ķ": 1601,
  "à¤ıà¤Īà¤Ńà¤°": 14974,
  "à¤ıà¤īà¤¨": 8981,
  "à¤ıà¤īà¤Ł": 2360,
  "à¤ıà¤ı": 7708,
  "à¤ıà¤ıà¤¨à¤ı": 8987,
  "à¤ıà¤ıà¤¨à¤ıà¤²": 8989,
  "à¤ıà¤ıà¤¨à¤ıà¤²à¤Ł": 10701,
  "à¤ıà¤ıà¤«": 7715,
  "à¤ıà¤ıà¤«à¤¡": 11657,
  "à¤ıà¤ıà¤«à¤ª": 7717,
  "à¤ıà¤ıà¤«à¤¯": 10686,
  "à¤ıà¤ıà¤²": 7714,
  "à¤ıà¤ıà¤²à¤²": 11659,
  "à¤ıà¤ıà¤²à¤µ": 16692,
  "à¤ıà¤ıà¤²à¤ķ": 11655,
  "à¤ıà¤ıà¤¸": 5248,
  "à¤ıà¤ıà¤¸à¤¬": 11660,
  "à¤ıà¤ıà¤¸à¤²": 11656,
  "à¤ıà¤ıà¤¸à¤ıà¤¸": 16478,
  "à¤ıà¤ıà¤ķ": 11637,
  "à¤ıà¤ĵ": 11647,
  "à¤ıà¤ķ": 203,
  "à¤ıà¤ķà¤¢": 11941,
  "à¤ıà¤ķà¤¤": 4457,
  "à¤ıà¤ķà¤¤à¤°": 11944,
  "à¤ıà¤ķà¤¦": 9104,
  "à¤ıà¤ķà¤¦à¤®": 9105,
  "à¤ıà¤ķà¤¨à¤ıà¤ķ": 11948,
  "à¤ıà¤ķà¤ªà¤Ľ": 11943,
  "à¤ıà¤ķà¤ªà¤Łà¤ķ": 11946,
  "à¤ıà¤ķà¤°": 7788,
  "à¤ıà¤ķà¤²": 6416,
  "à¤ıà¤ķà¤²à¤ķ": 11942,
  "à¤ıà¤ķà¤µà¤°": 11945,
  "à¤ıà¤ķà¤µà¤Ł": 9106,
  "à¤ıà¤ķà¤¸": 11940,
  "à¤ıà¤ķà¤¹à¤¦à¤¸à¤®": 11949,
  "à¤ıà¤ķà¤Ĩà¤ĩà¤ıà¤¸": 11947,
  "à¤ıà¤ķà¤ķ": 9103,
  "à¤ıà¤ķà¤ľà¤¨": 6417,
  "à¤ıà¤Ĺ": 4608,
  "à¤ıà¤ĺ": 6959,
  "à¤ıà¤ļ": 1766,
  "à¤ıà¤ļà¤¡": 3812,
  "à¤ıà¤ļà¤ª": 5793,
  "à¤ıà¤ļà¤¬": 11654,
  "à¤ıà¤ļà¤¸": 11650,
  "à¤ıà¤ļà¤Ĩà¤°à¤²": 10381,
  "à¤ıà¤ļà¤Ĩà¤ĩà¤Ń": 15610,
  "à¤ıà¤ļà¤Ĩà¤Īà¤ı": 15611,
  "à¤ıà¤ļà¤ı": 10378,
  "à¤ıà¤ļà¤ıà¤«": 10379,
  "à¤ıà¤ļà¤ıà¤®": 15606,
  "à¤ıà¤ļà¤ıà¤®à¤®": 15609,
  "à¤ıà¤ļà¤ıà¤²": 8495,
  "à¤ıà¤ļà¤ıà¤²à¤¸": 15607,
  "à¤ıà¤ļà¤ıà¤¸": 4561,
  "à¤ıà¤ļà¤ıà¤¸à¤²": 15608,
  "à¤ıà¤ļà¤ıà¤¸à¤Ĩà¤Īà¤ıà¤¸à¤Ł": 16387,
  "à¤ıà¤ļà¤ĵ": 5475,
  "à¤ıà¤ļà¤ĵà¤²": 6777,
  "à¤ıà¤ļà¤ĵà¤ķ": 10380,
  "à¤ıà¤ļà¤ķ": 5897,
  "à¤ıà¤ļà¤ľ": 15605,
  "à¤ıà¤ļà¤Ł": 15604,
  "à¤ıà¤Ľ": 3434,
  "à¤ıà¤Ľà¤¨": 3508,
  "à¤ıà¤ľ": 3178,
  "à¤ıà¤ľà¤¸": 2794,
  "à¤ıà¤Ŀ": 3090,
  "à¤ıà¤ŀ": 7709,
  "à¤ıà¤Ł": 2838,
  "à¤ıà¤Łà¤®": 7711,
  "à¤ıà¤Łà¤¯": 16128,
  "à¤ıà¤Łà¤°": 2960,
  "à¤ıà¤Łà¤°à¤¦": 16129,
  "à¤ıà¤Łà¤°à¤®": 3587,
  "à¤ıà¤Łà¤°à¤²": 4771,
  "à¤ıà¤Łà¤°à¤ķ": 4610,
  "à¤ıà¤Łà¤²": 11648,
  "à¤ıà¤Ń": 4025,
  "à¤ıà¤Ńà¤¨": 4165,
  "à¤ıà¤Ńà¤°": 7713,
  "à¤Ĳ": 2457,
  "à¤Ĳà¤¤": 4564,
  "à¤Ĳà¤¨": 5808,
  "à¤Ĳà¤¨à¤²": 16027,
  "à¤Ĳà¤¨à¤ķ": 16026,
  "à¤Ĳà¤¯": 16024,
  "à¤Ĳà¤°": 16023,
  "à¤Ĳà¤°à¤²": 8532,
  "à¤Ĳà¤¶": 4137,
  "à¤Ĳà¤ķ": 10485,
  "à¤Ĳà¤Ĺ": 16025,
  "à¤Ĵ": 4423,
  "à¤ĵ": 483,
  "à¤ĵà¤¡": 13834,
  "à¤ĵà¤¢": 6629,
  "à¤ĵà¤¤": 6105,
  "à¤ĵà¤¨": 6104,
  "à¤ĵà¤¨à¤°à¤¸": 9797,
  "à¤ĵà¤¨à¤²": 13836,
  "à¤ĵà¤¨à¤Ŀ": 13853,
  "à¤ĵà¤ª": 4239,
  "à¤ĵà¤ªà¤¨": 5400,
  "à¤ĵà¤ªà¤¸à¤¨": 10582,
  "à¤ĵà¤«à¤²": 13839,
  "à¤ĵà¤¬": 4240,
  "à¤ĵà¤¬à¤°": 13840,
  "à¤ĵà¤®": 3793,
  "à¤ĵà¤®à¤°": 9796,
  "à¤ĵà¤®à¤Ńà¤ķ": 16285,
  "à¤ĵà¤°": 4098,
  "à¤ĵà¤²": 1754,
  "à¤ĵà¤²à¤®": 8182,
  "à¤ĵà¤²à¤¸": 13842,
  "à¤ĵà¤²à¤Ĺ": 13841,
  "à¤ĵà¤µ": 596,
  "à¤ĵà¤¶": 8181,
  "à¤ĵà¤¸": 1604,
  "à¤ĵà¤¸à¤ķ": 13835,
  "à¤ĵà¤¹": 9794,
  "à¤ĵà¤¹à¤°": 7253,
  "à¤ĵà¤Ĩà¤°": 6630,
  "à¤ĵà¤Ĩà¤°à¤¬": 9798,
  "à¤ĵà¤Ĩà¤°à¤ķ": 13851,
  "à¤ĵà¤Ĩà¤°à¤Ńà¤¨": 16590,
  "à¤ĵà¤Ĩà¤ĩà¤ª": 7254,
  "à¤ĵà¤ĩà¤¨": 13837,
  "à¤ĵà¤ĩà¤¸": 13844,
  "à¤ĵà¤ıà¤¨à¤®": 13854,
  "à¤ĵà¤ıà¤¨à¤ıà¤«": 13856,
  "à¤ĵà¤ıà¤¨à¤ıà¤®": 8184,
  "à¤ĵà¤ıà¤¨à¤ľ": 13850,
  "à¤ĵà¤ıà¤®": 13843,
  "à¤ĵà¤ıà¤®à¤ıà¤¸à¤²": 13855,
  "à¤ĵà¤ıà¤®à¤ľ": 9799,
  "à¤ĵà¤ıà¤¸": 2897,
  "à¤ĵà¤ıà¤¸à¤®": 13848,
  "à¤ĵà¤ıà¤¸à¤¸": 16141,
  "à¤ĵà¤ıà¤¸à¤ķ": 13849,
  "à¤ĵà¤ıà¤ıà¤¸": 13852,
  "à¤ĵà¤ıà¤ļ": 13846,
  "à¤ĵà¤ĵà¤¸": 13845,
  "à¤ĵà¤ķ": 2226,
  "à¤ĵà¤ķà¤°": 13838,
  "à¤ĵà¤Ĺ": 13832,
  "à¤ĵà¤Ĺà¤Ł": 13847,
  "à¤ĵà¤Ľ": 9795,
  "à¤ĵà¤ľ": 13833,
  "à¤ĵà¤Ŀ": 8183,
  "à¤ĵà¤Ł": 5115,
  "à¤ĵà¤Ń": 5718,
  "à¤ĵà¤Ńà¤°": 5116,
  "à¤ĵà¤Ńà¤°à¤¹": 16506,
  "à¤ĵà¤Ńà¤°à¤ıà¤ķ": 16461,
  "à¤ĵà¤Ńà¤°à¤Ł": 16460,
  "à¤Ķ": 949,
  "à¤Ķà¤¦": 5763,
  "à¤Ķà¤ªà¤ļ": 14874,
  "à¤Ķà¤°": 14872,
  "à¤Ķà¤²": 14873,
  "à¤Ķà¤·à¤§": 2412,
  "à¤Ķà¤·à¤§à¤¸à¤¹": 7467,
  "à¤Ķà¤·à¤§à¤ķ": 6726,
  "à¤Ķà¤¸à¤¤": 8361,
  "à¤Ķà¤¸à¤¤à¤®": 14875,
  "à¤ķ": 163,
  "à¤ķà¤¡": 1798,
  "à¤ķà¤¡à¤®": 5513,
  "à¤ķà¤¡à¤®à¤¬": 16492,
  "à¤ķà¤¡à¤®à¤®": 15630,
  "à¤ķà¤¡à¤ħ": 15629,
  "à¤ķà¤¡à¤Ń": 4904,
  "à¤ķà¤¢": 6290,
  "à¤ķà¤£": 4738,
  "à¤ķà¤£à¤ķ": 11056,
  "à¤ķà¤¤": 460,
  "à¤ķà¤¤à¤¥": 8167,
  "à¤ķà¤¤à¤¨": 831,
  "à¤ķà¤¤à¤ªà¤Ľ": 13741,
  "à¤ķà¤¤à¤®": 1864,
  "à¤ķà¤¤à¤°": 2652,
  "à¤ķà¤¤à¤²": 6871,
  "à¤ķà¤¤à¤µ": 13739,
  "à¤ķà¤¤à¤µà¤°à¤²": 13743,
  "à¤ķà¤¤à¤¹à¤¦": 13742,
  "à¤ķà¤¤à¤¹à¤°": 13740,
  "à¤ķà¤¤à¤ķ": 6869,
  "à¤ķà¤¥": 1709,
  "à¤ķà¤¥à¤¨": 6873,
  "à¤ķà¤¥à¤°": 6874,
  "à¤ķà¤¥à¤²": 11060,
  "à¤ķà¤¦": 1551,
  "à¤ķà¤¦à¤®": 8732,
  "à¤ķà¤¦à¤°": 3908,
  "à¤ķà¤¦à¤²": 8731,
  "à¤ķà¤¦à¤²à¤¹à¤°": 11080,
  "à¤ķà¤§": 5512,
  "à¤ķà¤§à¤®": 7579,
  "à¤ķà¤¨": 534,
  "à¤ķà¤¨à¤¨": 11052,
  "à¤ķà¤¨à¤ªà¤ķ": 9860,
  "à¤ķà¤¨à¤ªà¤Ľ": 4688,
  "à¤ķà¤¨à¤¬": 8219,
  "à¤ķà¤¨à¤®": 2950,
  "à¤ķà¤¨à¤°à¤¤": 14027,
  "à¤ķà¤¨à¤²": 4281,
  "à¤ķà¤¨à¤¸": 8730,
  "à¤ķà¤¨à¤¸à¤®": 5727,
  "à¤ķà¤¨à¤¸à¤¹": 6295,
  "à¤ķà¤¨à¤¹à¤°": 5126,
  "à¤ķà¤¨à¤ķ": 1895,
  "à¤ķà¤¨à¤ķà¤°": 4430,
  "à¤ķà¤¨à¤Ĺ": 4374,
  "à¤ķà¤¨à¤Ĺà¤°": 14028,
  "à¤ķà¤¨à¤ľà¤¸": 9861,
  "à¤ķà¤¨à¤Ńà¤ıà¤ķ": 14029,
  "à¤ķà¤ª": 687,
  "à¤ķà¤ªà¤¡": 4113,
  "à¤ķà¤ªà¤¨": 6868,
  "à¤ķà¤ªà¤¨à¤¬": 11077,
  "à¤ķà¤ªà¤¨à¤ķ": 14395,
  "à¤ķà¤ªà¤ª": 14394,
  "à¤ķà¤ªà¤°": 8724,
  "à¤ķà¤ªà¤°à¤®": 9989,
  "à¤ķà¤ªà¤²": 11055,
  "à¤ķà¤ªà¤ķ": 8729,
  "à¤ķà¤ªà¤Ľ": 4741,
  "à¤ķà¤ªà¤ŀ": 14396,
  "à¤ķà¤ªà¤Ł": 6145,
  "à¤ķà¤ªà¤Łà¤ķ": 11057,
  "à¤ķà¤«": 2687,
  "à¤ķà¤«à¤°": 3287,
  "à¤ķà¤«à¤Łà¤®": 10505,
  "à¤ķà¤¬": 1002,
  "à¤ķà¤¬à¤¡": 7371,
  "à¤ķà¤¬à¤¢": 14943,
  "à¤ķà¤¬à¤¨": 8727,
  "à¤ķà¤¬à¤¹": 2480,
  "à¤ķà¤¬à¤ķ": 10159,
  "à¤ķà¤®": 320,
  "à¤ķà¤®à¤£": 5356,
  "à¤ķà¤®à¤¤": 13114,
  "à¤ķà¤®à¤¦": 13116,
  "à¤ķà¤®à¤§": 3261,
  "à¤ķà¤®à¤¨": 13113,
  "à¤ķà¤®à¤¬": 8047,
  "à¤ķà¤®à¤®": 5667,
  "à¤ķà¤®à¤¯": 13115,
  "à¤ķà¤®à¤°": 3604,
  "à¤ķà¤®à¤°à¤¨": 13118,
  "à¤ķà¤®à¤²": 1021,
  "à¤ķà¤®à¤µ": 9545,
  "à¤ķà¤®à¤¸": 6557,
  "à¤ķà¤®à¤¸à¤®à¤ķ": 13121,
  "à¤ķà¤®à¤¸à¤²": 13117,
  "à¤ķà¤®à¤¸à¤¹": 13119,
  "à¤ķà¤®à¤¹à¤¤": 13120,
  "à¤ķà¤®à¤ķ": 1856,
  "à¤ķà¤®à¤Ĺ": 9546,
  "à¤ķà¤®à¤ľ": 2814,
  "à¤ķà¤¯": 4143,
  "à¤ķà¤¯à¤¤": 11050,
  "à¤ķà¤°": 382,
  "à¤ķà¤°à¤£": 438,
  "à¤ķà¤°à¤£à¤¤": 8151,
  "à¤ķà¤°à¤£à¤¤à¤°": 5390,
  "à¤ķà¤°à¤£à¤¦": 8152,
  "à¤ķà¤°à¤£à¤ª": 13650,
  "à¤ķà¤°à¤£à¤ªà¤¶": 13654,
  "à¤ķà¤°à¤£à¤ªà¤Ľ": 4089,
  "à¤ķà¤°à¤£à¤¬": 2594,
  "à¤ķà¤°à¤£à¤¬à¤¢": 16074,
  "à¤ķà¤°à¤£à¤®": 1518,
  "à¤ķà¤°à¤£à¤¯": 9735,
  "à¤ķà¤°à¤£à¤²": 1200,
  "à¤ķà¤°à¤£à¤²à¤Ĺ": 6611,
  "à¤ķà¤°à¤£à¤µ": 5705,
  "à¤ķà¤°à¤£à¤¸": 3212,
  "à¤ķà¤°à¤£à¤¸à¤®": 4088,
  "à¤ķà¤°à¤£à¤¹à¤°": 9736,
  "à¤ķà¤°à¤£à¤ħà¤¨": 9737,
  "à¤ķà¤°à¤£à¤ħà¤ĺ": 13653,
  "à¤ķà¤°à¤£à¤īà¤ªà¤°": 13655,
  "à¤ķà¤°à¤£à¤ķ": 821,
  "à¤ķà¤°à¤£à¤ķà¤°": 13652,
  "à¤ķà¤°à¤£à¤ľà¤¸": 7232,
  "à¤ķà¤°à¤£à¤Ń": 7231,
  "à¤ķà¤°à¤£à¤Ńà¤¨": 13651,
  "à¤ķà¤°à¤¦": 5218,
  "à¤ķà¤°à¤¦à¤¤": 11079,
  "à¤ķà¤°à¤ª": 5691,
  "à¤ķà¤°à¤¬": 3907,
  "à¤ķà¤°à¤¬à¤°": 3728,
  "à¤ķà¤°à¤¬à¤¹": 11068,
  "à¤ķà¤°à¤®": 3286,
  "à¤ķà¤°à¤®à¤£": 11054,
  "à¤ķà¤°à¤®à¤¨": 11074,
  "à¤ķà¤°à¤°": 9658,
  "à¤ķà¤°à¤²": 2124,
  "à¤ķà¤°à¤²à¤Ĺ": 11075,
  "à¤ķà¤°à¤µà¤°": 5514,
  "à¤ķà¤°à¤¶": 5692,
  "à¤ķà¤°à¤¶à¤®à¤¶": 13443,
  "à¤ķà¤°à¤¸": 4588,
  "à¤ķà¤°à¤¸à¤®": 13441,
  "à¤ķà¤°à¤¸à¤¹": 11073,
  "à¤ķà¤°à¤¹": 8725,
  "à¤ķà¤°à¤¹à¤¨": 11062,
  "à¤ķà¤°à¤¹à¤°": 3496,
  "à¤ķà¤°à¤ķ": 2088,
  "à¤ķà¤°à¤Ĺ": 13440,
  "à¤ķà¤°à¤ļ": 8107,
  "à¤ķà¤°à¤ľ": 9659,
  "à¤ķà¤°à¤ľà¤¸": 13442,
  "à¤ķà¤°à¤Ń": 6588,
  "à¤ķà¤°à¤Ńà¤¨": 9660,
  "à¤ķà¤²": 318,
  "à¤ķà¤²à¤¤": 9537,
  "à¤ķà¤²à¤¨": 881,
  "à¤ķà¤²à¤¨à¤ªà¤Ľ": 14762,
  "à¤ķà¤²à¤¨à¤¬": 9540,
  "à¤ķà¤²à¤¨à¤®": 3145,
  "à¤ķà¤²à¤¨à¤²": 9538,
  "à¤ķà¤²à¤¨à¤¸à¤¹": 13104,
  "à¤ķà¤²à¤¨à¤¹à¤°": 14761,
  "à¤ķà¤²à¤¨à¤ħà¤¨": 14763,
  "à¤ķà¤²à¤¨à¤ķ": 2257,
  "à¤ķà¤²à¤¨à¤ķà¤°": 13103,
  "à¤ķà¤²à¤¨à¤Ĺà¤°": 13102,
  "à¤ķà¤²à¤ª": 13092,
  "à¤ķà¤²à¤¬": 4352,
  "à¤ķà¤²à¤¬à¤¹": 9542,
  "à¤ķà¤²à¤®": 4003,
  "à¤ķà¤²à¤¯": 13091,
  "à¤ķà¤²à¤¯à¤¸": 13098,
  "à¤ķà¤²à¤¯à¤ķ": 13097,
  "à¤ķà¤²à¤°": 13090,
  "à¤ķà¤²à¤°à¤¸": 9539,
  "à¤ķà¤²à¤°à¤¹à¤°": 13101,
  "à¤ķà¤²à¤°à¤ķ": 13095,
  "à¤ķà¤²à¤²": 6553,
  "à¤ķà¤²à¤µ": 6554,
  "à¤ķà¤²à¤¸": 2426,
  "à¤ķà¤²à¤¸à¤¹": 9541,
  "à¤ķà¤²à¤¹": 13093,
  "à¤ķà¤²à¤¹à¤°": 13096,
  "à¤ķà¤²à¤ķ": 4740,
  "à¤ķà¤²à¤ķà¤¹à¤°": 6875,
  "à¤ķà¤²à¤ķà¤ķ": 11076,
  "à¤ķà¤²à¤Ĺ": 2813,
  "à¤ķà¤²à¤Ļ": 13099,
  "à¤ķà¤²à¤ļà¤¨": 13100,
  "à¤ķà¤²à¤ľ": 13094,
  "à¤ķà¤²à¤Ŀ": 7155,
  "à¤ķà¤µ": 1211,
  "à¤ķà¤µà¤°": 11051,
  "à¤ķà¤µà¤¸": 7576,
  "à¤ķà¤µà¤ļà¤ķ": 15207,
  "à¤ķà¤¶": 2075,
  "à¤ķà¤¶à¤§": 15813,
  "à¤ķà¤¶à¤ªà¤®": 15814,
  "à¤ķà¤·": 5511,
  "à¤ķà¤·à¤£": 5845,
  "à¤ķà¤·à¤£à¤ķ": 8733,
  "à¤ķà¤·à¤°": 6293,
  "à¤ķà¤·à¤ķ": 6870,
  "à¤ķà¤¸": 696,
  "à¤ķà¤¸à¤¤": 4698,
  "à¤ķà¤¸à¤¨": 7578,
  "à¤ķà¤¸à¤¨à¤²": 14414,
  "à¤ķà¤¸à¤¨à¤ľ": 8735,
  "à¤ķà¤¸à¤ª": 5744,
  "à¤ķà¤¸à¤ªà¤®": 7311,
  "à¤ķà¤¸à¤ªà¤ķ": 14416,
  "à¤ķà¤¸à¤®": 2172,
  "à¤ķà¤¸à¤®à¤ķ": 6294,
  "à¤ķà¤¸à¤°": 3727,
  "à¤ķà¤¸à¤°à¤¹": 8289,
  "à¤ķà¤¸à¤²": 4429,
  "à¤ķà¤¸à¤¸": 9994,
  "à¤ķà¤¸à¤¹": 3224,
  "à¤ķà¤¸à¤ķ": 4002,
  "à¤ķà¤¸à¤Ļ": 14415,
  "à¤ķà¤¸à¤ļ": 14413,
  "à¤ķà¤¸à¤Ń": 6292,
  "à¤ķà¤¹": 1378,
  "à¤ķà¤¹à¤¡à¤¤": 15364,
  "à¤ķà¤¹à¤°": 851,
  "à¤ķà¤¹à¤°à¤ķ": 15363,
  "à¤ķà¤¹à¤²": 11058,
  "à¤ķà¤ħ": 3569,
  "à¤ķà¤ħà¤¨": 2039,
  "à¤ķà¤ħà¤ª": 2375,
  "à¤ķà¤ħà¤ªà¤ªà¤Ľ": 10476,
  "à¤ķà¤ħà¤ªà¤¬": 16262,
  "à¤ķà¤ħà¤ªà¤®": 5196,
  "à¤ķà¤ħà¤ªà¤²": 8567,
  "à¤ķà¤ħà¤ªà¤¸": 16261,
  "à¤ķà¤ħà¤ªà¤ķ": 6815,
  "à¤ķà¤ħà¤«": 8734,
  "à¤ķà¤ħà¤°": 11066,
  "à¤ķà¤ħà¤Ń": 11072,
  "à¤ķà¤Ĩà¤¦": 11078,
  "à¤ķà¤īà¤¤": 11071,
  "à¤ķà¤īà¤µ": 11064,
  "à¤ķà¤Ĭ": 11070,
  "à¤ķà¤ıà¤ķ": 6867,
  "à¤ķà¤ĵà¤Ńà¤°": 6876,
  "à¤ķà¤Ķ": 11065,
  "à¤ķà¤ķ": 376,
  "à¤ķà¤ķà¤¥": 3961,
  "à¤ķà¤ķà¤¬": 8103,
  "à¤ķà¤ķà¤®": 6291,
  "à¤ķà¤ķà¤°": 2741,
  "à¤ķà¤ķà¤°à¤£": 13426,
  "à¤ķà¤ķà¤°à¤£à¤ķ": 13427,
  "à¤ķà¤ķà¤²": 3495,
  "à¤ķà¤ķà¤¸": 9653,
  "à¤ķà¤ķà¤¸à¤®": 9654,
  "à¤ķà¤ķà¤ķ": 7197,
  "à¤ķà¤ķà¤ł": 13425,
  "à¤ķà¤ĸ": 5842,
  "à¤ķà¤Ĺ": 2827,
  "à¤ķà¤Ĺà¤¢": 4589,
  "à¤ķà¤Ĺà¤£": 4933,
  "à¤ķà¤Ĺà¤¤": 7577,
  "à¤ķà¤Ĺà¤¨": 11063,
  "à¤ķà¤ĺ": 3822,
  "à¤ķà¤Ļ": 5217,
  "à¤ķà¤Ļà¤®": 11067,
  "à¤ķà¤ļ": 4739,
  "à¤ķà¤ļà¤¨": 8728,
  "à¤ķà¤ļà¤²": 11061,
  "à¤ķà¤ļà¤ķ": 6872,
  "à¤ķà¤ļà¤ķà¤ļ": 16625,
  "à¤ķà¤Ľ": 3568,
  "à¤ķà¤ľ": 2576,
  "à¤ķà¤ľà¤¨": 5843,
  "à¤ķà¤ľà¤µ": 11069,
  "à¤ķà¤ľà¤¸": 3083,
  "à¤ķà¤Ŀ": 8726,
  "à¤ķà¤ŀ": 5844,
  "à¤ķà¤Ł": 782,
  "à¤ķà¤Łà¤¤": 3076,
  "à¤ķà¤Łà¤¤à¤®": 4255,
  "à¤ķà¤Łà¤¦": 14571,
  "à¤ķà¤Łà¤¦à¤°": 14573,
  "à¤ķà¤Łà¤¨": 4932,
  "à¤ķà¤Łà¤ª": 8310,
  "à¤ķà¤Łà¤ªà¤®": 10051,
  "à¤ķà¤Łà¤¬": 4254,
  "à¤ķà¤Łà¤®": 1994,
  "à¤ķà¤Łà¤®à¤¯": 15767,
  "à¤ķà¤Łà¤°": 11053,
  "à¤ķà¤Łà¤²": 3084,
  "à¤ķà¤Łà¤µà¤°": 10052,
  "à¤ķà¤Łà¤¸": 5155,
  "à¤ķà¤Łà¤¸à¤¬à¤¨": 10617,
  "à¤ķà¤Łà¤¸à¤®": 10050,
  "à¤ķà¤Łà¤¹à¤°": 8311,
  "à¤ķà¤Łà¤ķ": 1828,
  "à¤ķà¤Łà¤ķà¤°": 15644,
  "à¤ķà¤Łà¤Ĺ": 7326,
  "à¤ķà¤Łà¤ł": 14572,
  "à¤ķà¤ł": 4587,
  "à¤ķà¤łà¤ª": 10592,
  "à¤ķà¤Ń": 1906,
  "à¤ķà¤Ńà¤¨": 2951,
  "à¤ķà¤Ńà¤°": 2459,
  "à¤ķà¤Ńà¤°à¤¬": 15712,
  "à¤ķà¤Ńà¤°à¤®": 10406,
  "à¤ķà¤Ńà¤°à¤ķ": 4906,
  "à¤ķà¤Ńà¤ıà¤ķ": 11059,
  "à¤ĸ": 220,
  "à¤ĸà¤¡": 3138,
  "à¤ĸà¤£": 1400,
  "à¤ĸà¤¤": 1584,
  "à¤ĸà¤¤à¤ª": 12325,
  "à¤ĸà¤¤à¤®": 12317,
  "à¤ĸà¤¤à¤°": 12307,
  "à¤ĸà¤¤à¤°à¤¨": 12337,
  "à¤ĸà¤¤à¤²": 6462,
  "à¤ĸà¤¤à¤¸à¤®": 8484,
  "à¤ĸà¤¤à¤¹à¤°": 12329,
  "à¤ĸà¤¤à¤ķ": 6461,
  "à¤ĸà¤¦": 1190,
  "à¤ĸà¤¦à¤°": 7869,
  "à¤ĸà¤¦à¤¹": 15184,
  "à¤ĸà¤§à¤°": 12326,
  "à¤ĸà¤¨": 1155,
  "à¤ĸà¤¨à¤¦": 12328,
  "à¤ĸà¤¨à¤¨": 1440,
  "à¤ĸà¤¨à¤¨à¤¬": 15417,
  "à¤ĸà¤¨à¤¨à¤®": 5454,
  "à¤ĸà¤¨à¤¨à¤²": 6749,
  "à¤ĸà¤¨à¤¨à¤¸à¤®": 15418,
  "à¤ĸà¤¨à¤¨à¤ķ": 4400,
  "à¤ĸà¤¨à¤ª": 12324,
  "à¤ĸà¤¨à¤¬": 9260,
  "à¤ĸà¤¨à¤®": 3100,
  "à¤ĸà¤¨à¤²": 4324,
  "à¤ĸà¤¨à¤²à¤Ĺ": 12333,
  "à¤ĸà¤¨à¤µ": 7055,
  "à¤ĸà¤¨à¤¶": 15157,
  "à¤ĸà¤¨à¤¶à¤ķ": 15158,
  "à¤ĸà¤¨à¤¸": 12318,
  "à¤ĸà¤¨à¤¸à¤®": 7057,
  "à¤ĸà¤¨à¤ķ": 3051,
  "à¤ĸà¤¨à¤ľ": 15156,
  "à¤ĸà¤ª": 4187,
  "à¤ĸà¤ªà¤¢": 5007,
  "à¤ĸà¤ªà¤¢à¤ª": 16450,
  "à¤ĸà¤ªà¤¢à¤®": 16449,
  "à¤ĸà¤ªà¤¤": 12310,
  "à¤ĸà¤ªà¤°": 12305,
  "à¤ĸà¤ªà¤ķ": 12316,
  "à¤ĸà¤¬": 2176,
  "à¤ĸà¤¬à¤¦": 12323,
  "à¤ĸà¤¬à¤¨": 9259,
  "à¤ĸà¤¬à¤°": 3598,
  "à¤ĸà¤¬à¤¹": 6463,
  "à¤ĸà¤®": 1045,
  "à¤ĸà¤®à¤§": 4805,
  "à¤ĸà¤®à¤¨": 7868,
  "à¤ĸà¤®à¤¯": 8389,
  "à¤ĸà¤¯": 7864,
  "à¤ĸà¤¯à¤¤": 9258,
  "à¤ĸà¤°": 557,
  "à¤ĸà¤°à¤£": 9255,
  "à¤ĸà¤°à¤¤": 7053,
  "à¤ĸà¤°à¤¤à¤°": 9262,
  "à¤ĸà¤°à¤ª": 9884,
  "à¤ĸà¤°à¤¬": 7867,
  "à¤ĸà¤°à¤®": 2806,
  "à¤ĸà¤°à¤²": 5605,
  "à¤ĸà¤°à¤µ": 12311,
  "à¤ĸà¤°à¤¸": 12308,
  "à¤ĸà¤°à¤¸à¤®": 9885,
  "à¤ĸà¤°à¤¹à¤°": 12314,
  "à¤ĸà¤°à¤ıà¤ķ": 14089,
  "à¤ĸà¤°à¤ķ": 5006,
  "à¤ĸà¤°à¤ļà¤¨": 9886,
  "à¤ĸà¤°à¤Ńà¤°": 12331,
  "à¤ĸà¤²": 937,
  "à¤ĸà¤²à¤¤": 7870,
  "à¤ĸà¤²à¤¨": 3452,
  "à¤ĸà¤²à¤¨à¤²": 10131,
  "à¤ĸà¤²à¤¨à¤µ": 16243,
  "à¤ĸà¤²à¤¨à¤ķ": 7871,
  "à¤ĸà¤²à¤¬à¤¨": 14858,
  "à¤ĸà¤²à¤Ĺ": 4804,
  "à¤ĸà¤µ": 5967,
  "à¤ĸà¤¶": 9254,
  "à¤ĸà¤¸": 2585,
  "à¤ĸà¤¸à¤®": 1946,
  "à¤ĸà¤¸à¤®à¤ķ": 9261,
  "à¤ĸà¤¸à¤¯à¤²": 16072,
  "à¤ĸà¤¸à¤¯à¤²à¤®": 16073,
  "à¤ĸà¤¸à¤¹": 5296,
  "à¤ĸà¤¸à¤ļ": 12327,
  "à¤ĸà¤¹à¤°": 2105,
  "à¤ĸà¤¹à¤ķ": 12322,
  "à¤ĸà¤ħ": 12309,
  "à¤ĸà¤ħà¤¤": 12335,
  "à¤ĸà¤ħà¤¥": 16883,
  "à¤ĸà¤ħà¤¨": 12319,
  "à¤ĸà¤ħà¤ĺ": 12321,
  "à¤ĸà¤Ĩ": 12313,
  "à¤ĸà¤Ĩà¤¦": 12336,
  "à¤ĸà¤Ĩà¤¯": 12332,
  "à¤ĸà¤Ĩà¤ħà¤§": 16884,
  "à¤ĸà¤ı": 12303,
  "à¤ĸà¤ıà¤ķ": 9253,
  "à¤ĸà¤ķ": 811,
  "à¤ĸà¤ķà¤¦": 14605,
  "à¤ĸà¤ķà¤¬": 8318,
  "à¤ĸà¤ķà¤®": 7866,
  "à¤ĸà¤ķà¤°": 12315,
  "à¤ĸà¤ķà¤²": 3317,
  "à¤ĸà¤ķà¤²à¤Ĺ": 12334,
  "à¤ĸà¤ķà¤·": 14606,
  "à¤ĸà¤ķà¤¸": 7056,
  "à¤ĸà¤ķà¤¸à¤®": 8319,
  "à¤ĸà¤ķà¤¹à¤°": 4702,
  "à¤ĸà¤ķà¤ķ": 3052,
  "à¤ĸà¤ķà¤ľà¤¸": 14608,
  "à¤ĸà¤ķà¤Ń": 14607,
  "à¤ĸà¤ĸ": 12304,
  "à¤ĸà¤ĸà¤¨": 12330,
  "à¤ĸà¤Ĺ": 4637,
  "à¤ĸà¤Ĺà¤¨": 5968,
  "à¤ĸà¤Ĺà¤°": 12306,
  "à¤ĸà¤ĺ": 9257,
  "à¤ĸà¤ļ": 4803,
  "à¤ĸà¤ľ": 7865,
  "à¤ĸà¤ľà¤¨": 9256,
  "à¤ĸà¤ľà¤¸": 7054,
  "à¤ĸà¤Ł": 9252,
  "à¤ĸà¤Łà¤ķ": 12312,
  "à¤ĸà¤Ń": 3937,
  "à¤ĸà¤Ńà¤¨": 1912,
  "à¤ĸà¤Ńà¤°": 12320,
  "à¤Ĺ": 182,
  "à¤Ĺà¤¡": 1425,
  "à¤Ĺà¤¡à¤®": 8927,
  "à¤Ĺà¤¡à¤²": 6942,
  "à¤Ĺà¤¢": 845,
  "à¤Ĺà¤¢à¤¬": 10085,
  "à¤Ĺà¤¢à¤®": 14683,
  "à¤Ĺà¤¢à¤²": 14682,
  "à¤Ĺà¤¢à¤µ": 14684,
  "à¤Ĺà¤¢à¤ķ": 14681,
  "à¤Ĺà¤¢à¤Ńà¤¨": 14685,
  "à¤Ĺà¤£": 1712,
  "à¤Ĺà¤£à¤¤": 8931,
  "à¤Ĺà¤£à¤¤à¤¨": 4903,
  "à¤Ĺà¤£à¤¤à¤¨à¤¤": 16430,
  "à¤Ĺà¤£à¤¦": 15572,
  "à¤Ĺà¤£à¤¨": 2606,
  "à¤Ĺà¤£à¤ªà¤¤": 11516,
  "à¤Ĺà¤£à¤®": 4761,
  "à¤Ĺà¤£à¤²": 8932,
  "à¤Ĺà¤£à¤¹à¤°": 15573,
  "à¤Ĺà¤£à¤ķ": 7684,
  "à¤Ĺà¤¤": 352,
  "à¤Ĺà¤¤à¤¤à¤°": 5071,
  "à¤Ĺà¤¤à¤¦": 3024,
  "à¤Ĺà¤¤à¤¨": 13267,
  "à¤Ĺà¤¤à¤ª": 8075,
  "à¤Ĺà¤¤à¤¬": 6574,
  "à¤Ĺà¤¤à¤®": 914,
  "à¤Ĺà¤¤à¤®à¤§": 9595,
  "à¤Ĺà¤¤à¤¯": 3870,
  "à¤Ĺà¤¤à¤°": 2655,
  "à¤Ĺà¤¤à¤°à¤¤": 13268,
  "à¤Ĺà¤¤à¤²": 4845,
  "à¤Ĺà¤¤à¤µà¤°": 13270,
  "à¤Ĺà¤¤à¤¸": 8074,
  "à¤Ĺà¤¤à¤¸à¤®": 9593,
  "à¤Ĺà¤¤à¤¸à¤¹": 9594,
  "à¤Ĺà¤¤à¤¹à¤ª": 8076,
  "à¤Ĺà¤¤à¤¹à¤°": 7179,
  "à¤Ĺà¤¤à¤ħà¤®": 13273,
  "à¤Ĺà¤¤à¤īà¤ľ": 13274,
  "à¤Ĺà¤¤à¤ķ": 942,
  "à¤Ĺà¤¤à¤ľà¤®": 13272,
  "à¤Ĺà¤¤à¤ľà¤¸": 13271,
  "à¤Ĺà¤¤à¤Ŀ": 13269,
  "à¤Ĺà¤¤à¤Ńà¤¨": 4357,
  "à¤Ĺà¤¥": 11493,
  "à¤Ĺà¤¦": 713,
  "à¤Ĺà¤¦à¤¤": 14451,
  "à¤Ĺà¤¦à¤¨": 6356,
  "à¤Ĺà¤¦à¤°": 2656,
  "à¤Ĺà¤¦à¤°à¤¬": 10001,
  "à¤Ĺà¤§": 11492,
  "à¤Ĺà¤§à¤¨": 3174,
  "à¤Ĺà¤¨": 926,
  "à¤Ĺà¤¨à¤ª": 7685,
  "à¤Ĺà¤¨à¤ªà¤Ľ": 14845,
  "à¤Ĺà¤¨à¤¬": 8928,
  "à¤Ĺà¤¨à¤®": 3040,
  "à¤Ĺà¤¨à¤°": 8926,
  "à¤Ĺà¤¨à¤²": 4020,
  "à¤Ĺà¤¨à¤²à¤Ĺ": 8936,
  "à¤Ĺà¤¨à¤¸à¤®": 8930,
  "à¤Ĺà¤¨à¤¸à¤¹": 8934,
  "à¤Ĺà¤¨à¤Ĩà¤¦": 14846,
  "à¤Ĺà¤¨à¤ķ": 3299,
  "à¤Ĺà¤ª": 1957,
  "à¤Ĺà¤ªà¤¤": 2437,
  "à¤Ĺà¤ªà¤¨": 8924,
  "à¤Ĺà¤ªà¤°à¤°": 11523,
  "à¤Ĺà¤ªà¤¶": 11514,
  "à¤Ĺà¤ªà¤Ľ": 4293,
  "à¤Ĺà¤«": 6940,
  "à¤Ĺà¤«à¤²": 3370,
  "à¤Ĺà¤«à¤²à¤ķ": 11525,
  "à¤Ĺà¤¬": 900,
  "à¤Ĺà¤¬à¤£": 3279,
  "à¤Ĺà¤¬à¤¤": 14803,
  "à¤Ĺà¤¬à¤¨": 2358,
  "à¤Ĺà¤¬à¤®": 8345,
  "à¤Ĺà¤¬à¤¹": 2359,
  "à¤Ĺà¤¬à¤ľ": 5443,
  "à¤Ĺà¤®": 495,
  "à¤Ĺà¤®à¤¤": 1530,
  "à¤Ĺà¤®à¤¦": 13914,
  "à¤Ĺà¤®à¤§": 5722,
  "à¤Ĺà¤®à¤¨": 908,
  "à¤Ĺà¤®à¤¨à¤¦": 14809,
  "à¤Ĺà¤®à¤¨à¤ªà¤¶": 14814,
  "à¤Ĺà¤®à¤¨à¤ªà¤Ľ": 5167,
  "à¤Ĺà¤®à¤¨à¤¬": 10117,
  "à¤Ĺà¤®à¤¨à¤®": 2675,
  "à¤Ĺà¤®à¤¨à¤²": 2745,
  "à¤Ĺà¤®à¤¨à¤µ": 10116,
  "à¤Ĺà¤®à¤¨à¤¸": 14808,
  "à¤Ĺà¤®à¤¨à¤¸à¤®": 6182,
  "à¤Ĺà¤®à¤¨à¤¸à¤¹": 14813,
  "à¤Ĺà¤®à¤¨à¤ħà¤¨": 14812,
  "à¤Ĺà¤®à¤¨à¤ķ": 2109,
  "à¤Ĺà¤®à¤¨à¤ķà¤°": 5723,
  "à¤Ĺà¤®à¤¨à¤ľà¤¸": 14811,
  "à¤Ĺà¤®à¤¨à¤Ńà¤¨": 14810,
  "à¤Ĺà¤®à¤ª": 13913,
  "à¤Ĺà¤®à¤¬": 9824,
  "à¤Ĺà¤®à¤®": 3664,
  "à¤Ĺà¤®à¤¯": 8196,
  "à¤Ĺà¤®à¤°": 6635,
  "à¤Ĺà¤®à¤²": 1701,
  "à¤Ĺà¤®à¤¸": 4859,
  "à¤Ĺà¤®à¤¹à¤²": 9825,
  "à¤Ĺà¤®à¤ķ": 1982,
  "à¤Ĺà¤®à¤Ĺà¤¢": 13915,
  "à¤Ĺà¤®à¤ŀ": 4685,
  "à¤Ĺà¤¯": 3369,
  "à¤Ĺà¤°": 292,
  "à¤Ĺà¤°à¤£": 2911,
  "à¤Ĺà¤°à¤£à¤¬": 11520,
  "à¤Ĺà¤°à¤£à¤®": 11506,
  "à¤Ĺà¤°à¤£à¤²": 11507,
  "à¤Ĺà¤°à¤£à¤¸": 16143,
  "à¤Ĺà¤°à¤£à¤ķ": 3918,
  "à¤Ĺà¤°à¤¤": 8922,
  "à¤Ĺà¤°à¤¤à¤°": 8935,
  "à¤Ĺà¤°à¤¦": 8012,
  "à¤Ĺà¤°à¤ª": 6027,
  "à¤Ĺà¤°à¤¬": 8013,
  "à¤Ĺà¤°à¤¬à¤°": 12937,
  "à¤Ĺà¤°à¤®": 993,
  "à¤Ĺà¤°à¤²": 1383,
  "à¤Ĺà¤°à¤¸": 12933,
  "à¤Ĺà¤°à¤¸à¤®": 6532,
  "à¤Ĺà¤°à¤¹": 8923,
  "à¤Ĺà¤°à¤¹à¤°": 12935,
  "à¤Ĺà¤°à¤ķ": 1146,
  "à¤Ĺà¤°à¤Ľ": 12934,
  "à¤Ĺà¤°à¤ľà¤¸": 12936,
  "à¤Ĺà¤²": 453,
  "à¤Ĺà¤²à¤¤": 6091,
  "à¤Ĺà¤²à¤¤à¤°": 6092,
  "à¤Ĺà¤²à¤¦": 13709,
  "à¤Ĺà¤²à¤¨à¤ľ": 11526,
  "à¤Ĺà¤²à¤ªà¤¨": 8164,
  "à¤Ĺà¤²à¤ªà¤¨à¤ķ": 13717,
  "à¤Ĺà¤²à¤«": 13711,
  "à¤Ĺà¤²à¤¬": 886,
  "à¤Ĺà¤²à¤¬à¤ľ": 6718,
  "à¤Ĺà¤²à¤®": 1935,
  "à¤Ĺà¤²à¤®à¤¯": 15724,
  "à¤Ĺà¤²à¤°": 9749,
  "à¤Ĺà¤²à¤°à¤¬": 13714,
  "à¤Ĺà¤²à¤°à¤²": 13712,
  "à¤Ĺà¤²à¤²": 2834,
  "à¤Ĺà¤²à¤µ": 3791,
  "à¤Ĺà¤²à¤µà¤¨": 13713,
  "à¤Ĺà¤²à¤¸": 5107,
  "à¤Ĺà¤²à¤¸à¤®": 8163,
  "à¤Ĺà¤²à¤¹à¤°": 9751,
  "à¤Ĺà¤²à¤ķ": 2338,
  "à¤Ĺà¤²à¤ķà¤²": 8933,
  "à¤Ĺà¤²à¤Ĺ": 3403,
  "à¤Ĺà¤²à¤ľà¤¸": 13715,
  "à¤Ĺà¤²à¤Ł": 9750,
  "à¤Ĺà¤²à¤Ń": 13710,
  "à¤Ĺà¤²à¤Ńà¤°": 13716,
  "à¤Ĺà¤µ": 2173,
  "à¤Ĺà¤µà¤£": 4909,
  "à¤Ĺà¤µà¤¤": 4439,
  "à¤Ĺà¤µà¤¤à¤®": 10450,
  "à¤Ĺà¤µà¤¤à¤®à¤¯": 10451,
  "à¤Ĺà¤µà¤¨": 7683,
  "à¤Ĺà¤µà¤°": 8925,
  "à¤Ĺà¤µà¤°à¤ªà¤°": 10700,
  "à¤Ĺà¤µà¤¶": 6357,
  "à¤Ĺà¤µà¤¸": 11496,
  "à¤Ĺà¤¶": 1231,
  "à¤Ĺà¤¶à¤¤": 11502,
  "à¤Ĺà¤¸": 1350,
  "à¤Ĺà¤¸à¤¬": 4760,
  "à¤Ĺà¤¸à¤®": 2066,
  "à¤Ĺà¤¸à¤®à¤ķ": 7686,
  "à¤Ĺà¤¸à¤¹": 3175,
  "à¤Ĺà¤¸à¤Ĺ": 15342,
  "à¤Ĺà¤¹": 6354,
  "à¤Ĺà¤¹à¤£": 11515,
  "à¤Ĺà¤¹à¤¨": 4438,
  "à¤Ĺà¤¹à¤°": 1382,
  "à¤Ĺà¤¹à¤µ": 11522,
  "à¤Ĺà¤ħà¤¨": 2316,
  "à¤Ĺà¤ħà¤Ĺ": 11519,
  "à¤Ĺà¤ħà¤ĺ": 11503,
  "à¤Ĺà¤ħà¤Ń": 11518,
  "à¤Ĺà¤Ĩà¤°": 11504,
  "à¤Ĺà¤Ĩà¤Īà¤²": 11524,
  "à¤Ĺà¤ĩà¤¤": 11509,
  "à¤Ĺà¤ĩà¤ļ": 11521,
  "à¤Ĺà¤īà¤¦": 11511,
  "à¤Ĺà¤ı": 11491,
  "à¤Ĺà¤ıà¤°": 11499,
  "à¤Ĺà¤ıà¤ķ": 7681,
  "à¤Ĺà¤Ĳà¤¤": 6943,
  "à¤Ĺà¤ķ": 428,
  "à¤Ĺà¤ķà¤¤": 9722,
  "à¤Ĺà¤ķà¤®": 7682,
  "à¤Ĺà¤ķà¤°": 1027,
  "à¤Ĺà¤ķà¤²": 11500,
  "à¤Ĺà¤ĸ": 11495,
  "à¤Ĺà¤Ĺ": 6355,
  "à¤Ĺà¤Ĺà¤¤": 11501,
  "à¤Ĺà¤Ĺà¤¨": 11510,
  "à¤Ĺà¤Ĺà¤°": 5889,
  "à¤Ĺà¤ĺà¤¨": 11517,
  "à¤Ĺà¤ļ": 2295,
  "à¤Ĺà¤ļà¤°": 11508,
  "à¤Ĺà¤ļà¤²à¤¨": 5803,
  "à¤Ĺà¤ļà¤²à¤¨à¤®": 15951,
  "à¤Ĺà¤Ľ": 11494,
  "à¤Ĺà¤ľ": 1366,
  "à¤Ĺà¤ľà¤¤": 11512,
  "à¤Ĺà¤ľà¤ªà¤¤": 3079,
  "à¤Ĺà¤ľà¤¬": 11513,
  "à¤Ĺà¤ľà¤®": 2956,
  "à¤Ĺà¤ľà¤²": 8929,
  "à¤Ĺà¤ľà¤¸": 4965,
  "à¤Ĺà¤ľà¤¹à¤°": 10284,
  "à¤Ĺà¤ľà¤ķ": 4437,
  "à¤Ĺà¤ľà¤ľà¤¨": 15353,
  "à¤Ĺà¤Ŀ": 11498,
  "à¤Ĺà¤ŀ": 11497,
  "à¤Ĺà¤Ł": 1793,
  "à¤Ĺà¤Łà¤¨": 4964,
  "à¤Ĺà¤ł": 689,
  "à¤Ĺà¤łà¤¨": 943,
  "à¤Ĺà¤łà¤¨à¤¤": 14399,
  "à¤Ĺà¤łà¤¨à¤¤à¤°": 14862,
  "à¤Ĺà¤łà¤¨à¤¦": 14400,
  "à¤Ĺà¤łà¤¨à¤ª": 9991,
  "à¤Ĺà¤łà¤¨à¤¬": 5427,
  "à¤Ĺà¤łà¤¨à¤®": 2496,
  "à¤Ĺà¤łà¤¨à¤®à¤§": 10491,
  "à¤Ĺà¤łà¤¨à¤²": 1875,
  "à¤Ĺà¤łà¤¨à¤¸": 6687,
  "à¤Ĺà¤łà¤¨à¤¹à¤°": 2859,
  "à¤Ĺà¤łà¤¨à¤ħà¤¨": 10133,
  "à¤Ĺà¤łà¤¨à¤ķ": 1473,
  "à¤Ĺà¤łà¤¨à¤ļ": 14861,
  "à¤Ĺà¤łà¤¨à¤ľà¤¸": 10132,
  "à¤Ĺà¤łà¤¨à¤Ń": 4392,
  "à¤Ĺà¤łà¤¨à¤Ńà¤¨": 14863,
  "à¤Ĺà¤łà¤¬à¤¨": 2819,
  "à¤Ĺà¤łà¤ķ": 9990,
  "à¤Ĺà¤Ń": 2010,
  "à¤Ĺà¤Ńà¤¨": 3663,
  "à¤Ĺà¤Ńà¤°": 6941,
  "à¤Ĺà¤Ńà¤¶": 15779,
  "à¤Ĺà¤Ńà¤ıà¤ªà¤Ľ": 15780,
  "à¤Ĺà¤Ńà¤ıà¤ķ": 11505,
  "à¤Ĺà¤Ńà¤Ļ": 5796,
  "à¤ĺ": 263,
  "à¤ĺà¤¡": 7103,
  "à¤ĺà¤£": 4827,
  "à¤ĺà¤¤": 5635,
  "à¤ĺà¤¤à¤°": 12717,
  "à¤ĺà¤¦": 4205,
  "à¤ĺà¤¨": 1527,
  "à¤ĺà¤¨à¤¤": 4650,
  "à¤ĺà¤¨à¤«": 15475,
  "à¤ĺà¤¨à¤®": 9394,
  "à¤ĺà¤¨à¤®à¤§": 12733,
  "à¤ĺà¤¨à¤²": 7104,
  "à¤ĺà¤¨à¤¶": 15474,
  "à¤ĺà¤¨à¤¸à¤®": 12726,
  "à¤ĺà¤¨à¤ķ": 4335,
  "à¤ĺà¤¨à¤ķà¤°": 12730,
  "à¤ĺà¤¬": 3059,
  "à¤ĺà¤¬à¤¹": 12725,
  "à¤ĺà¤¬à¤ķ": 12728,
  "à¤ĺà¤®": 1673,
  "à¤ĺà¤®à¤£": 9401,
  "à¤ĺà¤®à¤®": 7961,
  "à¤ĺà¤°": 837,
  "à¤ĺà¤°à¤¤": 6010,
  "à¤ĺà¤°à¤¦": 7960,
  "à¤ĺà¤°à¤¬": 5034,
  "à¤ĺà¤°à¤®": 1537,
  "à¤ĺà¤°à¤²": 4336,
  "à¤ĺà¤°à¤¸": 7105,
  "à¤ĺà¤°à¤¹à¤°": 12719,
  "à¤ĺà¤°à¤ķ": 1802,
  "à¤ĺà¤°à¤ĺà¤°à¤®": 7338,
  "à¤ĺà¤°à¤ľ": 12724,
  "à¤ĺà¤°à¤Ń": 9397,
  "à¤ĺà¤²": 987,
  "à¤ĺà¤²à¤Ĺ": 5035,
  "à¤ĺà¤µ": 6008,
  "à¤ĺà¤µà¤¦": 12727,
  "à¤ĺà¤µà¤ª": 12723,
  "à¤ĺà¤µà¤°": 12718,
  "à¤ĺà¤¶": 12714,
  "à¤ĺà¤·": 5032,
  "à¤ĺà¤·à¤¬": 12729,
  "à¤ĺà¤·à¤°à¤¤": 12732,
  "à¤ĺà¤·à¤¶": 16452,
  "à¤ĺà¤·à¤ķ": 12720,
  "à¤ĺà¤¸": 1449,
  "à¤ĺà¤¸à¤®": 5636,
  "à¤ĺà¤¸à¤®à¤ķ": 12731,
  "à¤ĺà¤¸à¤¸": 4337,
  "à¤ĺà¤¸à¤¹": 9398,
  "à¤ĺà¤¹à¤°": 6009,
  "à¤ĺà¤ħà¤¨": 5323,
  "à¤ĺà¤ħà¤ªà¤°": 12734,
  "à¤ĺà¤ħà¤ĺ": 12721,
  "à¤ĺà¤ķ": 634,
  "à¤ĺà¤ĸ": 12715,
  "à¤ĺà¤Ĺà¤¨": 9400,
  "à¤ĺà¤ĺ": 9395,
  "à¤ĺà¤Ļ": 12716,
  "à¤ĺà¤Ļà¤²": 9399,
  "à¤ĺà¤ļ": 3529,
  "à¤ĺà¤ľ": 9393,
  "à¤ĺà¤ľà¤¸": 6504,
  "à¤ĺà¤Ł": 2279,
  "à¤ĺà¤Łà¤¨": 849,
  "à¤ĺà¤Łà¤¨à¤ªà¤Ľ": 8330,
  "à¤ĺà¤Łà¤¨à¤®": 8522,
  "à¤ĺà¤Łà¤¨à¤¸à¤®": 14694,
  "à¤ĺà¤Łà¤¨à¤īà¤¨": 14693,
  "à¤ĺà¤Łà¤¨à¤ķ": 5036,
  "à¤ĺà¤Łà¤²": 12722,
  "à¤ĺà¤Łà¤ķ": 9396,
  "à¤ĺà¤łà¤¨": 9402,
  "à¤ĺà¤Ń": 5033,
  "à¤Ļ": 282,
  "à¤Ļà¤¡": 7126,
  "à¤Ļà¤¤": 5646,
  "à¤Ļà¤¤à¤°": 1883,
  "à¤Ļà¤¥": 7125,
  "à¤Ļà¤¦": 2812,
  "à¤Ļà¤§à¤°": 9450,
  "à¤Ļà¤§à¤ķ": 12874,
  "à¤Ļà¤¨": 5050,
  "à¤Ļà¤¨à¤ľ": 12880,
  "à¤Ļà¤ª": 3201,
  "à¤Ļà¤ªà¤Ļ": 16206,
  "à¤Ļà¤ªà¤Ľ": 5334,
  "à¤Ļà¤«": 6020,
  "à¤Ļà¤«à¤¸": 7129,
  "à¤Ļà¤¬": 1603,
  "à¤Ļà¤¬à¤®": 9451,
  "à¤Ļà¤¬à¤ľ": 5053,
  "à¤Ļà¤®": 982,
  "à¤Ļà¤®à¤¤": 9446,
  "à¤Ļà¤®à¤§": 9448,
  "à¤Ļà¤®à¤¯": 14918,
  "à¤Ļà¤®à¤¯à¤®": 14920,
  "à¤Ļà¤®à¤¯à¤²": 14921,
  "à¤Ļà¤®à¤¯à¤ķ": 14919,
  "à¤Ļà¤®à¤°": 12876,
  "à¤Ļà¤®à¤¸": 7128,
  "à¤Ļà¤¯": 2404,
  "à¤Ļà¤¯à¤ķà¤®": 12882,
  "à¤Ļà¤°": 3949,
  "à¤Ļà¤²": 711,
  "à¤Ļà¤²à¤°": 10000,
  "à¤Ļà¤²à¤Ĺ": 3950,
  "à¤Ļà¤µ": 2614,
  "à¤Ļà¤µà¤°à¤ķ": 7996,
  "à¤Ļà¤µà¤°à¤ķà¤ķ": 16705,
  "à¤Ļà¤¸": 1855,
  "à¤Ļà¤¸à¤¤": 12878,
  "à¤Ļà¤¸à¤®": 3858,
  "à¤Ļà¤¸à¤²": 12870,
  "à¤Ļà¤¸à¤¹": 4069,
  "à¤Ļà¤¸à¤Ł": 15671,
  "à¤Ļà¤¸à¤Ń": 12875,
  "à¤Ļà¤¹": 4211,
  "à¤Ļà¤¹à¤®": 9449,
  "à¤Ļà¤¹à¤°": 4068,
  "à¤Ļà¤ħà¤¨": 12872,
  "à¤Ļà¤ħà¤ĺ": 9447,
  "à¤Ļà¤Ĩà¤ľ": 12881,
  "à¤Ļà¤ĩà¤Ļ": 9454,
  "à¤Ļà¤ĩà¤Ļà¤²": 12883,
  "à¤Ļà¤ķ": 684,
  "à¤Ļà¤ķà¤¨": 6524,
  "à¤Ļà¤ķà¤®": 12869,
  "à¤Ļà¤ķà¤°": 7995,
  "à¤Ļà¤ķà¤²": 12868,
  "à¤Ļà¤ķà¤²à¤¨": 12877,
  "à¤Ļà¤ķà¤¸": 14393,
  "à¤Ļà¤ķà¤Ł": 8283,
  "à¤Ļà¤ĸ": 4833,
  "à¤Ļà¤ĸà¤£": 9452,
  "à¤Ļà¤ĸà¤²": 6525,
  "à¤Ļà¤Ĺ": 2514,
  "à¤Ļà¤Ĺà¤°à¤ª": 12884,
  "à¤Ļà¤Ĺà¤°à¤²": 12879,
  "à¤Ļà¤Ĺà¤²": 6523,
  "à¤Ļà¤Ĺà¤²à¤²": 16049,
  "à¤Ļà¤Ĺà¤ķ": 12871,
  "à¤Ļà¤ĺ": 5647,
  "à¤Ļà¤ĺà¤®": 9453,
  "à¤Ļà¤ļ": 5051,
  "à¤Ļà¤ľ": 3142,
  "à¤Ļà¤ľà¤¸": 5052,
  "à¤Ļà¤ľà¤Ĺ": 12873,
  "à¤Ļà¤Ŀ": 9445,
  "à¤Ļà¤Ł": 1632,
  "à¤Ļà¤Łà¤¨": 3256,
  "à¤Ļà¤Łà¤¨à¤¬": 16215,
  "à¤Ļà¤Łà¤¨à¤®": 8488,
  "à¤Ļà¤Łà¤¨à¤²": 15532,
  "à¤Ļà¤Łà¤¨à¤¸": 16214,
  "à¤Ļà¤Ń": 7127,
  "à¤Ļà¤Ńà¤¨": 7994,
  "à¤ļ": 213,
  "à¤ļà¤¡": 3314,
  "à¤ļà¤¡à¤ķ": 12129,
  "à¤ļà¤¡à¤Ĺ": 8564,
  "à¤ļà¤¤": 2663,
  "à¤ļà¤¤à¤¤": 7035,
  "à¤ļà¤¤à¤¨": 6440,
  "à¤ļà¤¤à¤®": 2885,
  "à¤ļà¤¤à¤°": 4794,
  "à¤ļà¤¤à¤²": 12130,
  "à¤ļà¤¤à¤¹à¤®": 16088,
  "à¤ļà¤¤à¤¹à¤¸à¤®": 12149,
  "à¤ļà¤¤à¤ķ": 12127,
  "à¤ļà¤¥": 2925,
  "à¤ļà¤¥à¤°": 2197,
  "à¤ļà¤¥à¤°à¤¬": 16149,
  "à¤ļà¤¥à¤°à¤®": 6801,
  "à¤ļà¤¥à¤°à¤²": 10517,
  "à¤ļà¤¥à¤°à¤ķ": 3358,
  "à¤ļà¤¦": 3377,
  "à¤ļà¤¦à¤°": 12134,
  "à¤ļà¤¦à¤°à¤ķ": 16236,
  "à¤ļà¤§": 9184,
  "à¤ļà¤¨": 366,
  "à¤ļà¤¨à¤¤": 5688,
  "à¤ļà¤¨à¤¤à¤¨": 13378,
  "à¤ļà¤¨à¤¤à¤°": 9637,
  "à¤ļà¤¨à¤¦": 9636,
  "à¤ļà¤¨à¤¨": 13372,
  "à¤ļà¤¨à¤ª": 1714,
  "à¤ļà¤¨à¤ªà¤¤": 13376,
  "à¤ļà¤¨à¤ªà¤¶": 8096,
  "à¤ļà¤¨à¤ªà¤¹": 13380,
  "à¤ļà¤¨à¤ªà¤Ľ": 2106,
  "à¤ļà¤¨à¤¬": 2132,
  "à¤ļà¤¨à¤®": 874,
  "à¤ļà¤¨à¤®à¤£": 14730,
  "à¤ļà¤¨à¤®à¤¯": 14729,
  "à¤ļà¤¨à¤¯à¤¤": 13374,
  "à¤ļà¤¨à¤°": 9635,
  "à¤ļà¤¨à¤²": 1832,
  "à¤ļà¤¨à¤²à¤Ĺà¤¤": 6242,
  "à¤ļà¤¨à¤µ": 13373,
  "à¤ļà¤¨à¤¶à¤ķ": 13377,
  "à¤ļà¤¨à¤¸": 3778,
  "à¤ļà¤¨à¤¸à¤¬à¤¨": 16284,
  "à¤ļà¤¨à¤¸à¤®": 4224,
  "à¤ļà¤¨à¤¹à¤°": 4511,
  "à¤ļà¤¨à¤ħà¤Ĺ": 13381,
  "à¤ļà¤¨à¤ħà¤ĺ": 3779,
  "à¤ļà¤¨à¤Ĩà¤¦": 13382,
  "à¤ļà¤¨à¤Ĩà¤¯": 8097,
  "à¤ļà¤¨à¤ķ": 1070,
  "à¤ļà¤¨à¤ķà¤µà¤²à¤¯": 15023,
  "à¤ļà¤¨à¤ķà¤µà¤²à¤¯à¤¹": 16934,
  "à¤ļà¤¨à¤Ĺà¤°": 13375,
  "à¤ļà¤¨à¤ľ": 4223,
  "à¤ļà¤¨à¤Ńà¤¨": 6582,
  "à¤ļà¤¨à¤Ńà¤¯": 13379,
  "à¤ļà¤ª": 2804,
  "à¤ļà¤ªà¤¡": 12147,
  "à¤ļà¤ªà¤¦": 3449,
  "à¤ļà¤ªà¤¦à¤®": 16124,
  "à¤ļà¤ªà¤¦à¤¸": 3562,
  "à¤ļà¤ªà¤°": 9185,
  "à¤ļà¤ªà¤Ľ": 6439,
  "à¤ļà¤ªà¤Łà¤ķ": 9192,
  "à¤ļà¤ªà¤Łà¤ķà¤¸à¤®": 16740,
  "à¤ļà¤«": 7834,
  "à¤ļà¤¬": 1467,
  "à¤ļà¤¬à¤°": 9189,
  "à¤ļà¤¬à¤¹": 12137,
  "à¤ļà¤®": 705,
  "à¤ļà¤®à¤§": 7839,
  "à¤ļà¤®à¤¹": 9997,
  "à¤ļà¤¯": 1337,
  "à¤ļà¤¯à¤¨": 7836,
  "à¤ļà¤¯à¤¨à¤ķ": 15325,
  "à¤ļà¤¯à¤ªà¤¤": 2900,
  "à¤ļà¤¯à¤¬": 9194,
  "à¤ļà¤¯à¤®": 5943,
  "à¤ļà¤¯à¤µ": 12133,
  "à¤ļà¤¯à¤¸": 7835,
  "à¤ļà¤¯à¤¸à¤®": 12135,
  "à¤ļà¤¯à¤¹": 12132,
  "à¤ļà¤¯à¤ķ": 4630,
  "à¤ļà¤¯à¤ķà¤°": 12138,
  "à¤ļà¤¯à¤Ń": 15324,
  "à¤ļà¤°": 854,
  "à¤ļà¤°à¤£": 5942,
  "à¤ļà¤°à¤£à¤®": 7838,
  "à¤ļà¤°à¤£à¤ķ": 12141,
  "à¤ļà¤°à¤¦": 9186,
  "à¤ļà¤°à¤¨": 6442,
  "à¤ļà¤°à¤¬": 5945,
  "à¤ļà¤°à¤®": 3315,
  "à¤ļà¤°à¤°": 7347,
  "à¤ļà¤°à¤²": 3448,
  "à¤ļà¤°à¤²à¤Ĺ": 9198,
  "à¤ļà¤°à¤¸": 12126,
  "à¤ļà¤°à¤¸à¤®": 14700,
  "à¤ļà¤°à¤¸à¤¹": 9196,
  "à¤ļà¤°à¤¹à¤°": 5288,
  "à¤ļà¤°à¤ķ": 2321,
  "à¤ļà¤°à¤ļà¤¨": 12136,
  "à¤ļà¤°à¤ľà¤¨": 10086,
  "à¤ļà¤²": 817,
  "à¤ļà¤²à¤¨": 2805,
  "à¤ļà¤²à¤¨à¤®": 6443,
  "à¤ļà¤²à¤¨à¤²": 7331,
  "à¤ļà¤²à¤¨à¤¸": 16125,
  "à¤ļà¤²à¤¨à¤ķ": 5947,
  "à¤ļà¤²à¤¬": 7837,
  "à¤ļà¤²à¤®": 5287,
  "à¤ļà¤²à¤²": 4795,
  "à¤ļà¤²à¤¸": 5289,
  "à¤ļà¤²à¤¸à¤®": 14614,
  "à¤ļà¤²à¤ķ": 3595,
  "à¤ļà¤²à¤Ĺ": 9190,
  "à¤ļà¤²à¤ļ": 4257,
  "à¤ļà¤²à¤Ń": 14613,
  "à¤ļà¤²à¤Ńà¤¨": 14615,
  "à¤ļà¤µ": 2609,
  "à¤ļà¤µà¤°": 4043,
  "à¤ļà¤µà¤Ł": 2664,
  "à¤ļà¤¶": 2926,
  "à¤ļà¤¸": 1188,
  "à¤ļà¤¸à¤¦": 12131,
  "à¤ļà¤¸à¤®": 3379,
  "à¤ļà¤¸à¤¯": 6214,
  "à¤ļà¤¸à¤¯à¤Ńà¤¨": 15183,
  "à¤ļà¤¸à¤¹": 7034,
  "à¤ļà¤¹à¤ª": 12146,
  "à¤ļà¤¹à¤°": 3378,
  "à¤ļà¤¹à¤°à¤Ńà¤¨": 16237,
  "à¤ļà¤ħà¤§": 12142,
  "à¤ļà¤ħà¤¨": 6441,
  "à¤ļà¤ħà¤Ĺ": 12144,
  "à¤ļà¤Ĩà¤¦": 12148,
  "à¤ļà¤ıà¤¸": 9191,
  "à¤ļà¤ıà¤¸à¤ª": 12143,
  "à¤ļà¤Ķ": 9195,
  "à¤ļà¤ķ": 552,
  "à¤ļà¤ķà¤¤": 5946,
  "à¤ļà¤ķà¤¨": 5591,
  "à¤ļà¤ķà¤®": 4631,
  "à¤ļà¤ķà¤®à¤§": 7840,
  "à¤ļà¤ķà¤°": 9187,
  "à¤ļà¤ķà¤²": 5944,
  "à¤ļà¤ķà¤¸": 14081,
  "à¤ļà¤ķà¤¸à¤®": 7274,
  "à¤ļà¤ķà¤¹à¤°": 4105,
  "à¤ļà¤ķà¤ķ": 4466,
  "à¤ļà¤ĸ": 4042,
  "à¤ļà¤ĸà¤ªà¤¨": 16325,
  "à¤ļà¤ĸà¤ªà¤¨à¤²": 10573,
  "à¤ļà¤ĸà¤ªà¤¨à¤ķ": 10572,
  "à¤ļà¤Ĺ": 4041,
  "à¤ļà¤Ĺà¤¢": 12140,
  "à¤ļà¤Ĺà¤¤": 12128,
  "à¤ļà¤Ĺà¤®à¤¨": 7036,
  "à¤ļà¤Ĺà¤®à¤¨à¤¤": 7514,
  "à¤ļà¤Ĺà¤®à¤¨à¤ķ": 12145,
  "à¤ļà¤ĺ": 12124,
  "à¤ļà¤ĺà¤°": 12139,
  "à¤ļà¤ĺà¤°à¤®": 5592,
  "à¤ļà¤ĺà¤°à¤²à¤Ĺ": 16879,
  "à¤ļà¤ĺà¤°à¤ķ": 9197,
  "à¤ļà¤Ļ": 7032,
  "à¤ļà¤ļ": 12122,
  "à¤ļà¤ľ": 7833,
  "à¤ļà¤ľà¤¨": 3245,
  "à¤ļà¤ľà¤¨à¤ĺà¤¨à¤¤": 16213,
  "à¤ļà¤ľà¤¸": 7033,
  "à¤ļà¤ŀ": 12125,
  "à¤ļà¤Ł": 7832,
  "à¤ļà¤Łà¤®": 9188,
  "à¤ļà¤ł": 12123,
  "à¤ļà¤Ń": 7031,
  "à¤ļà¤Ńà¤¨": 4995,
  "à¤ļà¤Ńà¤ıà¤ķ": 9193,
  "à¤Ľ": 210,
  "à¤Ľà¤¡": 2507,
  "à¤Ľà¤¤": 4181,
  "à¤Ľà¤¤à¤°": 12073,
  "à¤Ľà¤¦": 3050,
  "à¤Ľà¤¨": 309,
  "à¤Ľà¤ª": 7817,
  "à¤Ľà¤ªà¤ķ": 12074,
  "à¤Ľà¤¬": 12069,
  "à¤Ľà¤®": 7816,
  "à¤Ľà¤®à¤²": 9166,
  "à¤Ľà¤¯": 9161,
  "à¤Ľà¤°": 2700,
  "à¤Ľà¤°à¤¤": 9163,
  "à¤Ľà¤°à¤®": 12071,
  "à¤Ľà¤°à¤²": 12072,
  "à¤Ľà¤²": 5286,
  "à¤Ľà¤²à¤«": 7818,
  "à¤Ľà¤²à¤«à¤²": 7504,
  "à¤Ľà¤²à¤«à¤²à¤¬": 16700,
  "à¤Ľà¤²à¤«à¤²à¤®": 16698,
  "à¤Ľà¤²à¤«à¤²à¤²": 16699,
  "à¤Ľà¤²à¤Ĺ": 12076,
  "à¤Ľà¤µ": 2608,
  "à¤Ľà¤¸": 5937,
  "à¤Ľà¤¸à¤®": 9164,
  "à¤Ľà¤ħà¤¨": 12075,
  "à¤Ľà¤ķ": 2964,
  "à¤Ľà¤Ļ": 9165,
  "à¤Ľà¤ļ": 12070,
  "à¤Ľà¤ľà¤¸": 6432,
  "à¤Ľà¤Ł": 9162,
  "à¤Ľà¤Ńà¤¨": 7025,
  "à¤ľ": 194,
  "à¤ľÃŀ": 7747,
  "à¤ľÃŀà¤²": 16695,
  "à¤ľÃŀà¤ķ": 16694,
  "à¤ľÃŀà¤Ĺ": 16696,
  "à¤ľà¤¡": 3748,
  "à¤ľà¤¡à¤ľ": 11772,
  "à¤ľà¤¡à¤Łà¤ķà¤®": 16281,
  "à¤ľà¤¤": 1089,
  "à¤ľà¤¤à¤¨": 1554,
  "à¤ľà¤¤à¤ªà¤¤": 7379,
  "à¤ľà¤¤à¤¬": 11765,
  "à¤ľà¤¤à¤®": 9041,
  "à¤ľà¤¤à¤°": 6981,
  "à¤ľà¤¤à¤²": 4776,
  "à¤ľà¤¤à¤ķ": 6982,
  "à¤ľà¤¦": 744,
  "à¤ľà¤¦à¤¬": 14520,
  "à¤ľà¤¦à¤°": 2104,
  "à¤ľà¤¦à¤°à¤¬": 4253,
  "à¤ľà¤¦à¤°à¤®": 3629,
  "à¤ľà¤¦à¤°à¤µ": 14521,
  "à¤ľà¤¦à¤°à¤ķ": 5153,
  "à¤ľà¤§": 741,
  "à¤ľà¤§à¤°": 8303,
  "à¤ľà¤¨": 253,
  "à¤ľà¤¨à¤¤": 1902,
  "à¤ľà¤¨à¤¤à¤°": 9374,
  "à¤ľà¤¨à¤¦": 6003,
  "à¤ľà¤¨à¤¨": 5029,
  "à¤ľà¤¨à¤ª": 4823,
  "à¤ľà¤¨à¤ªà¤Ľ": 4824,
  "à¤ľà¤¨à¤ªà¤Łà¤ķ": 12666,
  "à¤ľà¤¨à¤¬": 3767,
  "à¤ľà¤¨à¤®": 1346,
  "à¤ľà¤¨à¤®à¤¤à¤¸": 12670,
  "à¤ľà¤¨à¤®à¤§": 12667,
  "à¤ľà¤¨à¤¯": 3323,
  "à¤ľà¤¨à¤°": 5028,
  "à¤ľà¤¨à¤°à¤®à¤£": 9376,
  "à¤ľà¤¨à¤°à¤²": 12663,
  "à¤ľà¤¨à¤²": 1407,
  "à¤ľà¤¨à¤²à¤Ĺ": 9379,
  "à¤ľà¤¨à¤µ": 7948,
  "à¤ľà¤¨à¤µà¤°": 9375,
  "à¤ľà¤¨à¤¶": 2890,
  "à¤ľà¤¨à¤¶à¤ķ": 12664,
  "à¤ľà¤¨à¤¸": 3324,
  "à¤ľà¤¨à¤¸à¤¤": 6500,
  "à¤ľà¤¨à¤¸à¤®": 5631,
  "à¤ľà¤¨à¤¸à¤°": 12665,
  "à¤ľà¤¨à¤¸à¤°à¤ķ": 7099,
  "à¤ľà¤¨à¤¸à¤¹": 5318,
  "à¤ľà¤¨à¤¹": 12662,
  "à¤ľà¤¨à¤¹à¤°": 5630,
  "à¤ľà¤¨à¤ħà¤¨": 9378,
  "à¤ľà¤¨à¤Ĩà¤¨": 12669,
  "à¤ľà¤¨à¤Ĩà¤¸": 7951,
  "à¤ľà¤¨à¤ĩà¤ļ": 12668,
  "à¤ľà¤¨à¤ķ": 755,
  "à¤ľà¤¨à¤ķà¤ª": 3120,
  "à¤ľà¤¨à¤ķà¤°": 14534,
  "à¤ľà¤¨à¤ķà¤Ł": 14535,
  "à¤ľà¤¨à¤ĺà¤¨à¤¤": 6501,
  "à¤ľà¤¨à¤ļ": 7949,
  "à¤ľà¤¨à¤ľ": 4202,
  "à¤ľà¤¨à¤ľà¤¤": 7950,
  "à¤ľà¤¨à¤ľà¤¸": 9377,
  "à¤ľà¤¨à¤Ńà¤¨": 2669,
  "à¤ľà¤ª": 927,
  "à¤ľà¤ªà¤¡à¤¤": 14848,
  "à¤ľà¤ªà¤¤": 2880,
  "à¤ľà¤ªà¤¥": 14847,
  "à¤ľà¤ªà¤®": 11757,
  "à¤ľà¤ªà¤°": 4619,
  "à¤ľà¤ªà¤Ľ": 5568,
  "à¤ľà¤«": 4301,
  "à¤ľà¤¬": 1164,
  "à¤ľà¤¬à¤¡": 10233,
  "à¤ľà¤¬à¤¨": 7740,
  "à¤ľà¤¬à¤°": 6983,
  "à¤ľà¤¬à¤°à¤ľà¤¸": 10671,
  "à¤ľà¤¬à¤¸à¤®": 10234,
  "à¤ľà¤¬à¤¹": 3749,
  "à¤ľà¤¬à¤ķ": 4777,
  "à¤ľà¤¬à¤ľ": 6751,
  "à¤ľà¤®": 594,
  "à¤ľà¤®à¤£": 5138,
  "à¤ľà¤®à¤¤": 11760,
  "à¤ľà¤®à¤§": 8245,
  "à¤ľà¤®à¤¨à¤®": 14171,
  "à¤ľà¤®à¤¬à¤°": 14172,
  "à¤ľà¤®à¤®": 7742,
  "à¤ľà¤®à¤°": 3479,
  "à¤ľà¤®à¤²": 5572,
  "à¤ľà¤®à¤¹à¤²": 8246,
  "à¤ľà¤®à¤¹à¤²à¤ķ": 9913,
  "à¤ľà¤®à¤ķ": 5263,
  "à¤ľà¤®à¤ľ": 9912,
  "à¤ľà¤¯": 796,
  "à¤ľà¤¯à¤¤": 11756,
  "à¤ľà¤¯à¤¨": 3306,
  "à¤ľà¤¯à¤¨à¤Ĺà¤°": 8563,
  "à¤ľà¤¯à¤ª": 3510,
  "à¤ľà¤¯à¤ªà¤¶": 10543,
  "à¤ľà¤¯à¤ªà¤Ľ": 5750,
  "à¤ľà¤¯à¤¬": 8314,
  "à¤ľà¤¯à¤¬à¤¹": 7328,
  "à¤ľà¤¯à¤®": 5909,
  "à¤ľà¤¯à¤¯": 14585,
  "à¤ľà¤¯à¤°": 7743,
  "à¤ľà¤¯à¤°à¤¤": 14586,
  "à¤ľà¤¯à¤²": 3239,
  "à¤ľà¤¯à¤µ": 11762,
  "à¤ľà¤¯à¤¶à¤®à¤¶": 14588,
  "à¤ľà¤¯à¤¸": 11754,
  "à¤ľà¤¯à¤¸à¤¹": 11769,
  "à¤ľà¤¯à¤ķ": 1688,
  "à¤ľà¤¯à¤ķà¤¹": 15558,
  "à¤ľà¤¯à¤ĸà¤°": 14587,
  "à¤ľà¤¯à¤ļà¤¨": 10055,
  "à¤ľà¤¯à¤ľ": 7327,
  "à¤ľà¤¯à¤Ńà¤ıà¤ķ": 10056,
  "à¤ľà¤°": 732,
  "à¤ľà¤°à¤¨": 11763,
  "à¤ľà¤°à¤¨à¤ķ": 14496,
  "à¤ľà¤°à¤ªà¤Ľ": 8301,
  "à¤ľà¤°à¤¬": 6389,
  "à¤ľà¤°à¤®": 4448,
  "à¤ľà¤°à¤²": 1959,
  "à¤ľà¤°à¤¸": 5569,
  "à¤ľà¤°à¤¹à¤°": 11759,
  "à¤ľà¤°à¤ķ": 2115,
  "à¤ľà¤°à¤ľà¤¸": 8302,
  "à¤ľà¤°à¤Ń": 2921,
  "à¤ľà¤²": 635,
  "à¤ľà¤²à¤¨": 11758,
  "à¤ľà¤²à¤ª": 14269,
  "à¤ľà¤²à¤ªà¤Ľ": 14271,
  "à¤ľà¤²à¤¬": 9040,
  "à¤ľà¤²à¤®": 5911,
  "à¤ľà¤²à¤²": 5570,
  "à¤ľà¤²à¤µ": 6140,
  "à¤ľà¤²à¤µà¤Ł": 14273,
  "à¤ľà¤²à¤¸": 5740,
  "à¤ľà¤²à¤¸à¤®": 9944,
  "à¤ľà¤²à¤¸à¤ķ": 14270,
  "à¤ľà¤²à¤ķ": 5910,
  "à¤ľà¤²à¤Ĺ": 5264,
  "à¤ľà¤²à¤ļà¤°": 14272,
  "à¤ľà¤µ": 1044,
  "à¤ľà¤µà¤²": 4976,
  "à¤ľà¤µà¤²à¤¤": 16445,
  "à¤ľà¤µà¤ķ": 7741,
  "à¤ľà¤¶": 1457,
  "à¤ľà¤¸": 454,
  "à¤ľà¤¸à¤®": 2661,
  "à¤ľà¤¸à¤®à¤ķ": 7746,
  "à¤ľà¤¸à¤°": 3931,
  "à¤ľà¤¸à¤²": 3180,
  "à¤ľà¤¸à¤¸": 13718,
  "à¤ľà¤¸à¤¹": 5710,
  "à¤ľà¤¸à¤ķ": 4775,
  "à¤ľà¤¸à¤ľ": 5391,
  "à¤ľà¤¸à¤Ń": 13719,
  "à¤ľà¤¹": 2114,
  "à¤ľà¤¹à¤°": 1609,
  "à¤ľà¤¹à¤µ": 15850,
  "à¤ľà¤ħà¤¨": 4302,
  "à¤ľà¤ħà¤ª": 11768,
  "à¤ľà¤īà¤¡": 7745,
  "à¤ľà¤īà¤ªà¤°à¤ķ": 11777,
  "à¤ľà¤ķ": 442,
  "à¤ľà¤ķà¤¤": 1588,
  "à¤ľà¤ķà¤¬": 8157,
  "à¤ľà¤ķà¤®": 1850,
  "à¤ľà¤ķà¤®à¤§": 10396,
  "à¤ľà¤ķà¤°": 6390,
  "à¤ľà¤ķà¤²": 1439,
  "à¤ľà¤ķà¤¸": 5707,
  "à¤ľà¤ķà¤¸à¤®": 7234,
  "à¤ľà¤ķà¤¸à¤¹": 9742,
  "à¤ľà¤ķà¤¹à¤°": 3402,
  "à¤ľà¤ķà¤ķ": 2054,
  "à¤ľà¤ķà¤ķà¤²": 13675,
  "à¤ľà¤ķà¤Ńà¤¨": 13676,
  "à¤ľà¤ĸ": 9037,
  "à¤ľà¤ĸà¤¨": 11767,
  "à¤ľà¤ĸà¤¬": 11771,
  "à¤ľà¤ĸà¤¬à¤°": 9045,
  "à¤ľà¤ĸà¤¬à¤°à¤²": 16870,
  "à¤ľà¤Ĺ": 617,
  "à¤ľà¤Ĺà¤¡": 14215,
  "à¤ľà¤Ĺà¤¢": 3411,
  "à¤ľà¤Ĺà¤¢à¤®": 6257,
  "à¤ľà¤Ĺà¤¢à¤²": 16242,
  "à¤ľà¤Ĺà¤¢à¤¸à¤®": 10541,
  "à¤ľà¤Ĺà¤¢à¤ķ": 16241,
  "à¤ľà¤Ĺà¤¤": 9039,
  "à¤ľà¤Ĺà¤¤à¤¬à¤¹": 16737,
  "à¤ľà¤Ĺà¤¤à¤®": 11766,
  "à¤ľà¤Ĺà¤¦": 6667,
  "à¤ľà¤Ĺà¤¨": 4871,
  "à¤ľà¤Ĺà¤ªà¤¤": 9926,
  "à¤ľà¤Ĺà¤®": 7744,
  "à¤ľà¤Ĺà¤°": 6980,
  "à¤ľà¤Ĺà¤²": 9042,
  "à¤ľà¤Ĺà¤ľ": 6668,
  "à¤ľà¤Ĺà¤ŀ": 4694,
  "à¤ľà¤ĺ": 7739,
  "à¤ľà¤ĺà¤°à¤ķ": 11770,
  "à¤ľà¤Ļ": 5262,
  "à¤ľà¤Ļà¤ĸ": 11776,
  "à¤ľà¤ļà¤²": 9043,
  "à¤ľà¤ļà¤²à¤²": 11775,
  "à¤ľà¤ľ": 9036,
  "à¤ľà¤ľà¤¨": 9038,
  "à¤ľà¤ľà¤¸": 3839,
  "à¤ľà¤ľà¤¸à¤²": 11773,
  "à¤ľà¤ŀ": 11755,
  "à¤ľà¤Ł": 6979,
  "à¤ľà¤Łà¤¹": 11774,
  "à¤ľà¤Ń": 1972,
  "à¤ľà¤Ńà¤£": 2684,
  "à¤ľà¤Ńà¤¤": 10418,
  "à¤ľà¤Ńà¤¨": 5571,
  "à¤ľà¤Ńà¤°": 11761,
  "à¤ľà¤Ńà¤µ": 11764,
  "à¤ľà¤Ńà¤ķ": 9044,
  "à¤Ŀ": 303,
  "à¤Ŀà¤¡": 12992,
  "à¤Ŀà¤£": 4499,
  "à¤Ŀà¤¦": 1390,
  "à¤Ŀà¤¨": 1170,
  "à¤Ŀà¤¨à¤¯": 9494,
  "à¤Ŀà¤¨à¤²": 6537,
  "à¤Ŀà¤¨à¤¹à¤°": 12996,
  "à¤Ŀà¤ª": 4837,
  "à¤Ŀà¤ªà¤ĸ": 6539,
  "à¤Ŀà¤ªà¤ļ": 12995,
  "à¤Ŀà¤ªà¤Ł": 6032,
  "à¤Ŀà¤«": 9491,
  "à¤Ŀà¤¬": 2708,
  "à¤Ŀà¤¬à¤Ŀ": 16100,
  "à¤Ŀà¤®": 4658,
  "à¤Ŀà¤®à¤ķ": 6538,
  "à¤Ŀà¤®à¤ķà¤ķ": 10656,
  "à¤Ŀà¤®à¤ķà¤ľà¤¸": 16588,
  "à¤Ŀà¤°": 5656,
  "à¤Ŀà¤°à¤¨": 12994,
  "à¤Ŀà¤²": 3689,
  "à¤Ŀà¤µ": 12991,
  "à¤Ŀà¤¸": 8022,
  "à¤Ŀà¤¸à¤®": 3953,
  "à¤Ŀà¤¹à¤°": 12993,
  "à¤Ŀà¤ĵà¤¸": 12998,
  "à¤Ŀà¤ķ": 3144,
  "à¤Ŀà¤ĸà¤°": 9493,
  "à¤Ŀà¤Ĺà¤¡": 5657,
  "à¤Ŀà¤Ŀà¤²": 9496,
  "à¤Ŀà¤Ł": 2151,
  "à¤Ŀà¤Łà¤ª": 12997,
  "à¤Ŀà¤Łà¤¬": 9495,
  "à¤Ŀà¤Łà¤®": 5346,
  "à¤Ŀà¤Łà¤°à¤¹": 15872,
  "à¤Ŀà¤Łà¤²": 9492,
  "à¤Ŀà¤Łà¤¸à¤®": 12999,
  "à¤Ŀà¤Łà¤ķ": 8023,
  "à¤ŀ": 285,
  "à¤ŀà¤¡": 12898,
  "à¤ŀà¤¤": 2366,
  "à¤ŀà¤¤à¤°": 9460,
  "à¤ŀà¤¦": 8002,
  "à¤ŀà¤¨": 12897,
  "à¤ŀà¤ª": 992,
  "à¤ŀà¤ªà¤ª": 14935,
  "à¤ŀà¤ªà¤°": 12899,
  "à¤ŀà¤¬": 8003,
  "à¤ŀà¤¬à¤¹": 7131,
  "à¤ŀà¤®": 7130,
  "à¤ŀà¤®à¤£": 12901,
  "à¤ŀà¤°": 6527,
  "à¤ŀà¤²": 1788,
  "à¤ŀà¤µ": 1624,
  "à¤ŀà¤µà¤²": 9461,
  "à¤ŀà¤¶": 8004,
  "à¤ŀà¤¶à¤²": 6023,
  "à¤ŀà¤¶à¤ķ": 6528,
  "à¤ŀà¤¸": 3859,
  "à¤ŀà¤¸à¤®": 6022,
  "à¤ŀà¤¸à¤¹": 4345,
  "à¤ŀà¤¹à¤°": 1479,
  "à¤ŀà¤ķ": 2056,
  "à¤ŀà¤ľà¤¸": 12900,
  "à¤Ł": 186,
  "à¤Łà¤¡": 3042,
  "à¤Łà¤¡à¤°": 11619,
  "à¤Łà¤¢": 11607,
  "à¤Łà¤¤": 1928,
  "à¤Łà¤¤à¤¨": 5246,
  "à¤Łà¤¤à¤®": 8973,
  "à¤Łà¤¤à¤°": 8969,
  "à¤Łà¤¥": 11603,
  "à¤Łà¤¦": 2836,
  "à¤Łà¤§": 6954,
  "à¤Łà¤¨": 369,
  "à¤Łà¤¨à¤¡": 9643,
  "à¤Łà¤¨à¤¢": 13393,
  "à¤Łà¤¨à¤¤": 9641,
  "à¤Łà¤¨à¤¤à¤°": 9645,
  "à¤Łà¤¨à¤¦": 13391,
  "à¤Łà¤¨à¤ªà¤¨": 13394,
  "à¤Łà¤¨à¤ªà¤Ľ": 9644,
  "à¤Łà¤¨à¤¬": 4082,
  "à¤Łà¤¨à¤®": 2725,
  "à¤Łà¤¨à¤°": 3467,
  "à¤Łà¤¨à¤°à¤²": 5376,
  "à¤Łà¤¨à¤°à¤¸": 6583,
  "à¤Łà¤¨à¤°à¤ķ": 5085,
  "à¤Łà¤¨à¤°à¤Ĺà¤°": 16247,
  "à¤Łà¤¨à¤°à¤Ńà¤¨": 13395,
  "à¤Łà¤¨à¤²": 2913,
  "à¤Łà¤¨à¤²à¤Ĺ": 11624,
  "à¤Łà¤¨à¤µ": 9642,
  "à¤Łà¤¨à¤¸": 5690,
  "à¤Łà¤¨à¤¸à¤¤": 6584,
  "à¤Łà¤¨à¤¸à¤®": 13392,
  "à¤Łà¤¨à¤¹à¤°": 6067,
  "à¤Łà¤¨à¤ķ": 1842,
  "à¤Łà¤¨à¤Ĺà¤°": 1387,
  "à¤Łà¤¨à¤Ĺà¤°à¤¤à¤°": 13396,
  "à¤Łà¤¨à¤Ĺà¤°à¤¦": 8452,
  "à¤Łà¤¨à¤Ĺà¤°à¤¬": 3986,
  "à¤Łà¤¨à¤Ĺà¤°à¤®": 3265,
  "à¤Łà¤¨à¤Ĺà¤°à¤²": 2641,
  "à¤Łà¤¨à¤Ĺà¤°à¤µ": 8453,
  "à¤Łà¤¨à¤Ĺà¤°à¤¸": 4899,
  "à¤Łà¤¨à¤Ĺà¤°à¤¸à¤®": 15376,
  "à¤Łà¤¨à¤Ĺà¤°à¤ķ": 2515,
  "à¤Łà¤¨à¤ľ": 5084,
  "à¤Łà¤ª": 1341,
  "à¤Łà¤ªà¤¤": 8971,
  "à¤Łà¤ªà¤®": 11610,
  "à¤Łà¤ªà¤°": 11606,
  "à¤Łà¤ªà¤°à¤¸": 11629,
  "à¤Łà¤ªà¤²": 11614,
  "à¤Łà¤ªà¤Ľ": 2439,
  "à¤Łà¤ªà¤Ł": 7705,
  "à¤Łà¤ªà¤Łà¤ķ": 5559,
  "à¤Łà¤«": 1098,
  "à¤Łà¤«à¤°": 3487,
  "à¤Łà¤«à¤²": 6955,
  "à¤Łà¤«à¤ķ": 11622,
  "à¤Łà¤¬": 966,
  "à¤Łà¤¬à¤¨": 1552,
  "à¤Łà¤¬à¤°": 11612,
  "à¤Łà¤¬à¤²": 1104,
  "à¤Łà¤¬à¤²à¤ª": 4709,
  "à¤Łà¤¬à¤²à¤¬": 8366,
  "à¤Łà¤¬à¤²à¤®": 2860,
  "à¤Łà¤¬à¤²à¤°": 6742,
  "à¤Łà¤¬à¤²à¤°à¤¹à¤°": 10214,
  "à¤Łà¤¬à¤²à¤°à¤ķ": 15074,
  "à¤Łà¤¬à¤²à¤²": 4546,
  "à¤Łà¤¬à¤²à¤¸": 10213,
  "à¤Łà¤¬à¤²à¤ķ": 1736,
  "à¤Łà¤¬à¤²à¤ķà¤°": 15588,
  "à¤Łà¤¬à¤²à¤Ń": 15073,
  "à¤Łà¤¬à¤²à¤Ńà¤¨": 15075,
  "à¤Łà¤¬à¤¹": 7704,
  "à¤Łà¤®": 467,
  "à¤Łà¤®à¤£": 13771,
  "à¤Łà¤®à¤§": 4095,
  "à¤Łà¤®à¤¨": 5895,
  "à¤Łà¤®à¤ª": 9768,
  "à¤Łà¤®à¤ªà¤Ľ": 13773,
  "à¤Łà¤®à¤¬": 5713,
  "à¤Łà¤®à¤®": 3585,
  "à¤Łà¤®à¤¯": 6097,
  "à¤Łà¤®à¤°": 9767,
  "à¤Łà¤®à¤²": 4607,
  "à¤Łà¤®à¤µ": 13770,
  "à¤Łà¤®à¤¸": 13769,
  "à¤Łà¤®à¤¸à¤¹": 13774,
  "à¤Łà¤®à¤ķ": 3744,
  "à¤Łà¤®à¤Ń": 13772,
  "à¤Łà¤¯": 3238,
  "à¤Łà¤°": 386,
  "à¤Łà¤°à¤¤": 11605,
  "à¤Łà¤°à¤¦": 5558,
  "à¤Łà¤°à¤¨": 889,
  "à¤Łà¤°à¤¨à¤°": 13456,
  "à¤Łà¤°à¤¨à¤²": 6589,
  "à¤Łà¤°à¤ª": 2617,
  "à¤Łà¤°à¤ªà¤¨": 8110,
  "à¤Łà¤°à¤ªà¤®": 13455,
  "à¤Łà¤°à¤«": 2117,
  "à¤Łà¤°à¤¬": 2160,
  "à¤Łà¤°à¤®": 1093,
  "à¤Łà¤°à¤®à¤§": 15065,
  "à¤Łà¤°à¤°": 13454,
  "à¤Łà¤°à¤²": 1436,
  "à¤Łà¤°à¤²à¤ķ": 8109,
  "à¤Łà¤°à¤²à¤Ĺ": 7420,
  "à¤Łà¤°à¤µ": 8972,
  "à¤Łà¤°à¤µà¤ķ": 11621,
  "à¤Łà¤°à¤¸": 1461,
  "à¤Łà¤°à¤¸à¤®": 3026,
  "à¤Łà¤°à¤¸à¤¹": 4718,
  "à¤Łà¤°à¤¹": 11608,
  "à¤Łà¤°à¤¹à¤°": 2027,
  "à¤Łà¤°à¤ħà¤Ĺ": 9667,
  "à¤Łà¤°à¤ķ": 1168,
  "à¤Łà¤°à¤ķà¤¨": 7397,
  "à¤Łà¤°à¤Ĺ": 8108,
  "à¤Łà¤°à¤ļ": 9666,
  "à¤Łà¤°à¤ľà¤¡": 13457,
  "à¤Łà¤°à¤ľà¤¸": 8111,
  "à¤Łà¤°à¤Ł": 2816,
  "à¤Łà¤°à¤Ń": 5091,
  "à¤Łà¤°à¤Ńà¤¨": 3266,
  "à¤Łà¤²": 529,
  "à¤Łà¤²à¤¦": 9855,
  "à¤Łà¤²à¤¨": 4297,
  "à¤Łà¤²à¤¨à¤ķ": 14013,
  "à¤Łà¤²à¤¬": 4024,
  "à¤Łà¤²à¤®": 1740,
  "à¤Łà¤²à¤®à¤§": 8492,
  "à¤Łà¤²à¤°": 14011,
  "à¤Łà¤²à¤°à¤¬": 14014,
  "à¤Łà¤²à¤°à¤²": 4862,
  "à¤Łà¤²à¤°à¤ķ": 9856,
  "à¤Łà¤²à¤²": 3372,
  "à¤Łà¤²à¤µ": 14012,
  "à¤Łà¤²à¤¸": 6117,
  "à¤Łà¤²à¤¸à¤®": 7269,
  "à¤Łà¤²à¤¸à¤¹": 14016,
  "à¤Łà¤²à¤¹à¤°": 3707,
  "à¤Łà¤²à¤ħà¤¨": 14015,
  "à¤Łà¤²à¤ķ": 2078,
  "à¤Łà¤²à¤ķà¤ľ": 10433,
  "à¤Łà¤²à¤Ĺ": 3924,
  "à¤Łà¤²à¤Ĺà¤¤": 9857,
  "à¤Łà¤µ": 1092,
  "à¤Łà¤µà¤¨": 11611,
  "à¤Łà¤µà¤°": 1654,
  "à¤Łà¤µà¤°à¤ªà¤°": 15546,
  "à¤Łà¤µà¤²": 1849,
  "à¤Łà¤µà¤²à¤¦": 15668,
  "à¤Łà¤µà¤²à¤¬": 8400,
  "à¤Łà¤µà¤²à¤®": 4396,
  "à¤Łà¤µà¤²à¤²": 8399,
  "à¤Łà¤µà¤²à¤ķ": 4266,
  "à¤Łà¤µà¤ķ": 7703,
  "à¤Łà¤µà¤Ł": 8978,
  "à¤Łà¤¶": 8967,
  "à¤Łà¤¸": 1208,
  "à¤Łà¤¸à¤¨à¤²": 11617,
  "à¤Łà¤¸à¤¬": 8976,
  "à¤Łà¤¸à¤®": 1783,
  "à¤Łà¤¸à¤²": 2959,
  "à¤Łà¤¸à¤²à¤®": 7400,
  "à¤Łà¤¸à¤²à¤²": 16160,
  "à¤Łà¤¸à¤²à¤ķ": 7399,
  "à¤Łà¤¸à¤¸": 11616,
  "à¤Łà¤¸à¤¸à¤®": 15204,
  "à¤Łà¤¸à¤¹": 3089,
  "à¤Łà¤¸à¤ķ": 5245,
  "à¤Łà¤¸à¤Ńà¤¨": 15205,
  "à¤Łà¤¹": 3743,
  "à¤Łà¤¹à¤°": 1275,
  "à¤Łà¤¹à¤Ł": 7706,
  "à¤Łà¤ħ": 8970,
  "à¤Łà¤ħà¤¨": 3177,
  "à¤Łà¤ħà¤ª": 3925,
  "à¤Łà¤ħà¤ªà¤®": 16733,
  "à¤Łà¤ħà¤ªà¤ķ": 16734,
  "à¤Łà¤ħà¤ĺ": 8974,
  "à¤Łà¤Ĩà¤¨": 11627,
  "à¤Łà¤Ĩà¤°à¤ķ": 11630,
  "à¤Łà¤Ĩà¤µ": 11620,
  "à¤Łà¤Ĩà¤īà¤Ł": 3926,
  "à¤Łà¤Ĩà¤īà¤Łà¤®": 4572,
  "à¤Łà¤Ĩà¤īà¤Łà¤ķ": 6370,
  "à¤Łà¤ĩà¤¨": 11609,
  "à¤Łà¤īà¤¨": 11604,
  "à¤Łà¤īà¤ªà¤°": 11626,
  "à¤Łà¤īà¤ªà¤Ĺ": 7707,
  "à¤Łà¤īà¤ł": 11633,
  "à¤Łà¤ı": 11602,
  "à¤Łà¤ıà¤¡à¤Ń": 16863,
  "à¤Łà¤ıà¤«": 8979,
  "à¤Łà¤ıà¤¯à¤°à¤²": 11634,
  "à¤Łà¤ĵà¤ķ": 11625,
  "à¤Łà¤ķ": 342,
  "à¤Łà¤ķà¤¤à¤°": 13221,
  "à¤Łà¤ķà¤ª": 9571,
  "à¤Łà¤ķà¤ªà¤Ľ": 13220,
  "à¤Łà¤ķà¤ªà¤Łà¤ķ": 13222,
  "à¤Łà¤ķà¤¬": 9572,
  "à¤Łà¤ķà¤®": 2213,
  "à¤Łà¤ķà¤°": 3262,
  "à¤Łà¤ķà¤²": 3043,
  "à¤Łà¤ķà¤¸": 5675,
  "à¤Łà¤ķà¤¹": 6569,
  "à¤Łà¤ķà¤¹à¤°": 5676,
  "à¤Łà¤ķà¤ħà¤¨": 9574,
  "à¤Łà¤ķà¤ķ": 2131,
  "à¤Łà¤ķà¤ĺà¤°": 7176,
  "à¤Łà¤ķà¤ĺà¤°à¤®": 6054,
  "à¤Łà¤ķà¤ĺà¤°à¤²": 7177,
  "à¤Łà¤ķà¤ĺà¤°à¤ķ": 9575,
  "à¤Łà¤ķà¤ľà¤¤": 13223,
  "à¤Łà¤ķà¤Ńà¤¨": 9573,
  "à¤Łà¤ĸ": 7700,
  "à¤Łà¤ĸà¤¬à¤°": 11628,
  "à¤Łà¤Ĺ": 4966,
  "à¤Łà¤Ĺà¤¢": 6368,
  "à¤Łà¤Ĺà¤¤": 5894,
  "à¤Łà¤Ĺà¤¤à¤²à¤Ĺ": 16531,
  "à¤Łà¤Ĺà¤°": 5893,
  "à¤Łà¤Ĺà¤°à¤¬": 16530,
  "à¤Łà¤ĺ": 1597,
  "à¤Łà¤ĺà¤ķà¤°": 15516,
  "à¤Łà¤Ļ": 7701,
  "à¤Łà¤Ļà¤ķ": 11615,
  "à¤Łà¤ļ": 4023,
  "à¤Łà¤ļà¤¨": 7702,
  "à¤Łà¤ļà¤¨à¤²": 6956,
  "à¤Łà¤ļà¤°": 11618,
  "à¤Łà¤Ľ": 8968,
  "à¤Łà¤Ľà¤²": 11632,
  "à¤Łà¤ľ": 6953,
  "à¤Łà¤ľà¤¤": 11623,
  "à¤Łà¤ľà¤®": 8975,
  "à¤Łà¤ľà¤°à¤²": 6957,
  "à¤Łà¤ľà¤¸": 4606,
  "à¤Łà¤ľà¤Ļ": 11631,
  "à¤Łà¤Ł": 4967,
  "à¤Łà¤Ń": 3584,
  "à¤Łà¤Ńà¤¨": 2837,
  "à¤Łà¤Ńà¤¯": 8977,
  "à¤Łà¤Ńà¤°": 11613,
  "à¤Łà¤Ńà¤Ł": 6369,
  "à¤ł": 246,
  "à¤łà¤¡": 12610,
  "à¤łà¤¡à¤®": 12617,
  "à¤łà¤¤": 2842,
  "à¤łà¤¤à¤®": 5626,
  "à¤łà¤¦": 5315,
  "à¤łà¤¨": 2562,
  "à¤łà¤¨à¤®": 5625,
  "à¤łà¤¨à¤²": 5624,
  "à¤łà¤¨à¤¸": 12616,
  "à¤łà¤¨à¤ķ": 4332,
  "à¤łà¤¨à¤ľ": 12620,
  "à¤łà¤ª": 5314,
  "à¤łà¤ªà¤Ľ": 12613,
  "à¤łà¤¬": 4198,
  "à¤łà¤¬à¤¨": 12615,
  "à¤łà¤®": 390,
  "à¤łà¤®à¤¡": 7203,
  "à¤łà¤®à¤£": 3962,
  "à¤łà¤®à¤§": 13471,
  "à¤łà¤®à¤¯": 13470,
  "à¤łà¤¯": 7091,
  "à¤łà¤°": 2531,
  "à¤łà¤°à¤¸": 12614,
  "à¤łà¤°à¤¸à¤ªà¤¨": 16891,
  "à¤łà¤²": 906,
  "à¤łà¤²à¤Ĺ": 5627,
  "à¤łà¤µ": 7934,
  "à¤łà¤¶": 3941,
  "à¤łà¤¸": 3763,
  "à¤łà¤¸à¤®": 4487,
  "à¤łà¤¸à¤®à¤ķ": 12619,
  "à¤łà¤¸à¤²": 4059,
  "à¤łà¤¸à¤¹": 5628,
  "à¤łà¤¹à¤°": 3854,
  "à¤łà¤īà¤¤": 9356,
  "à¤łà¤ķ": 700,
  "à¤łà¤ķà¤¦": 9995,
  "à¤łà¤ķà¤ª": 12618,
  "à¤łà¤ķà¤ªà¤Ľ": 4386,
  "à¤łà¤ķà¤¬": 2182,
  "à¤łà¤ķà¤®": 1032,
  "à¤łà¤ķà¤²": 1020,
  "à¤łà¤ķà¤²à¤Ĺ": 8384,
  "à¤łà¤ķà¤¸": 5997,
  "à¤łà¤ķà¤¸à¤¬à¤¨": 16537,
  "à¤łà¤ķà¤¸à¤®": 6691,
  "à¤łà¤ķà¤¸à¤®à¤ķ": 8290,
  "à¤łà¤ķà¤¹à¤°": 3276,
  "à¤łà¤ķà¤ħà¤Ĺ": 14425,
  "à¤łà¤ķà¤ħà¤ĺ": 6153,
  "à¤łà¤ķà¤ķ": 1648,
  "à¤łà¤ķà¤ķà¤¹": 15543,
  "à¤łà¤ķà¤ķà¤ķ": 15542,
  "à¤łà¤ĸ": 12611,
  "à¤łà¤Ĺ": 4331,
  "à¤łà¤Ĺà¤°": 12612,
  "à¤łà¤ľà¤¸": 7935,
  "à¤łà¤Ł": 9355,
  "à¤łà¤Ń": 1672,
  "à¤Ń": 218,
  "à¤Ńà¤¡à¤¹à¤²à¤®": 5962,
  "à¤Ńà¤¡à¤ķ": 6452,
  "à¤Ńà¤£": 7857,
  "à¤Ńà¤¤": 2702,
  "à¤Ńà¤¤à¤¥": 16097,
  "à¤Ńà¤¦": 2769,
  "à¤Ńà¤§": 4800,
  "à¤Ńà¤¨": 358,
  "à¤Ńà¤¨à¤®": 2488,
  "à¤Ńà¤¨à¤°": 5682,
  "à¤Ńà¤¨à¤°à¤¦": 13307,
  "à¤Ńà¤¨à¤°à¤¹à¤°": 13308,
  "à¤Ńà¤¨à¤²": 12256,
  "à¤Ńà¤¨à¤ķ": 9236,
  "à¤Ńà¤ª": 5601,
  "à¤Ńà¤ªà¤¤": 1859,
  "à¤Ńà¤ªà¤¤à¤¨": 2073,
  "à¤Ńà¤ªà¤¤à¤¨à¤¬": 10398,
  "à¤Ńà¤ªà¤¤à¤¨à¤²": 6780,
  "à¤Ńà¤ªà¤¤à¤¨à¤¸à¤®": 15673,
  "à¤Ńà¤ªà¤¤à¤¨à¤ķ": 5189,
  "à¤Ńà¤ªà¤¨": 12258,
  "à¤Ńà¤ªà¤²": 12267,
  "à¤Ńà¤ªà¤²à¤ªà¤®": 16882,
  "à¤Ńà¤¬": 4048,
  "à¤Ńà¤¬à¤¹": 7048,
  "à¤Ńà¤¬à¤¹à¤°": 12274,
  "à¤Ńà¤®": 954,
  "à¤Ńà¤®à¤§": 7860,
  "à¤Ńà¤®à¤®": 12263,
  "à¤Ńà¤®à¤²": 12265,
  "à¤Ńà¤¯": 739,
  "à¤Ńà¤¯à¤¤": 9237,
  "à¤Ńà¤°": 512,
  "à¤Ńà¤°à¤£": 5960,
  "à¤Ńà¤°à¤£à¤®": 12268,
  "à¤Ńà¤°à¤£à¤ķ": 12269,
  "à¤Ńà¤°à¤¤": 2254,
  "à¤Ńà¤°à¤¥": 13971,
  "à¤Ńà¤°à¤¨à¤¸": 13974,
  "à¤Ńà¤°à¤ª": 1990,
  "à¤Ńà¤°à¤ªà¤°": 13972,
  "à¤Ńà¤°à¤¬": 9238,
  "à¤Ńà¤°à¤®": 3755,
  "à¤Ńà¤°à¤²": 3936,
  "à¤Ńà¤°à¤¸": 5003,
  "à¤Ńà¤°à¤¹": 12257,
  "à¤Ńà¤°à¤ķ": 2770,
  "à¤Ńà¤°à¤ĸà¤°": 13975,
  "à¤Ńà¤°à¤Łà¤°": 13973,
  "à¤Ńà¤²": 1161,
  "à¤Ńà¤²à¤¦": 15162,
  "à¤Ńà¤²à¤ªà¤®": 2433,
  "à¤Ńà¤²à¤ªà¤®à¤¨": 16012,
  "à¤Ńà¤²à¤ªà¤°": 15163,
  "à¤Ńà¤²à¤ªà¤°à¤²": 15166,
  "à¤Ńà¤²à¤ªà¤°à¤µ": 15167,
  "à¤Ńà¤²à¤¬": 12260,
  "à¤Ńà¤²à¤¬à¤ľ": 12275,
  "à¤Ńà¤²à¤®": 3451,
  "à¤Ńà¤²à¤²": 7047,
  "à¤Ńà¤²à¤µà¤®": 15165,
  "à¤Ńà¤²à¤¸à¤®": 12270,
  "à¤Ńà¤²à¤ķ": 4185,
  "à¤Ńà¤²à¤Ĺ": 12266,
  "à¤Ńà¤²à¤Ńà¤¨": 15164,
  "à¤Ńà¤µ": 563,
  "à¤Ńà¤µà¤¤": 1486,
  "à¤Ńà¤µà¤¥": 14105,
  "à¤Ńà¤µà¤¦": 14104,
  "à¤Ńà¤µà¤¨": 4471,
  "à¤Ńà¤µà¤ª": 7275,
  "à¤Ńà¤µà¤ªà¤Ľ": 14107,
  "à¤Ńà¤µà¤¬": 4242,
  "à¤Ńà¤µà¤¬à¤¨": 14108,
  "à¤Ńà¤µà¤®": 3381,
  "à¤Ńà¤µà¤¯": 14103,
  "à¤Ńà¤µà¤²": 2840,
  "à¤Ńà¤µà¤²à¤Ĺ": 16130,
  "à¤Ńà¤µà¤²à¤Ĺà¤¤": 16131,
  "à¤Ńà¤µà¤¶": 8230,
  "à¤Ńà¤µà¤¸": 5961,
  "à¤Ńà¤µà¤¸à¤®": 8231,
  "à¤Ńà¤µà¤¸à¤¹": 12273,
  "à¤Ńà¤µà¤¹": 9889,
  "à¤Ńà¤µà¤¹à¤°": 5412,
  "à¤Ńà¤µà¤ķ": 2771,
  "à¤Ńà¤µà¤ļ": 9890,
  "à¤Ńà¤µà¤Ľ": 14106,
  "à¤Ńà¤µà¤ľà¤¸": 14109,
  "à¤Ńà¤¶": 9234,
  "à¤Ńà¤¸": 2161,
  "à¤Ńà¤¸à¤®": 4801,
  "à¤Ńà¤¸à¤°": 9239,
  "à¤Ńà¤¸à¤°à¤¹": 15879,
  "à¤Ńà¤¸à¤¹": 9241,
  "à¤Ńà¤¸à¤Ļ": 15880,
  "à¤Ńà¤¹": 5602,
  "à¤Ńà¤¹à¤°": 6450,
  "à¤Ńà¤ħà¤¨": 12264,
  "à¤Ńà¤ĩ": 12255,
  "à¤Ńà¤ĩà¤°à¤¹": 12262,
  "à¤Ńà¤ĩà¤°à¤¹à¤¨": 12272,
  "à¤Ńà¤ĩà¤¸à¤ķ": 9240,
  "à¤Ńà¤ĩà¤¹": 7049,
  "à¤Ńà¤Ī": 12254,
  "à¤Ńà¤ı": 4322,
  "à¤Ńà¤ıà¤¨": 1920,
  "à¤Ńà¤ıà¤ªà¤Ľ": 5294,
  "à¤Ńà¤ıà¤¯": 16361,
  "à¤Ńà¤ıà¤°": 7859,
  "à¤Ńà¤ıà¤ķ": 672,
  "à¤Ńà¤ıà¤Ľ": 5004,
  "à¤Ńà¤ķ": 991,
  "à¤Ńà¤ķà¤°": 3192,
  "à¤Ńà¤ķà¤°à¤¬": 8377,
  "à¤Ńà¤ķà¤°à¤¸à¤®": 16204,
  "à¤Ńà¤ķà¤°à¤ķ": 6191,
  "à¤Ńà¤ķà¤ķ": 12261,
  "à¤Ńà¤Ĺ": 1345,
  "à¤Ńà¤Ĺà¤¤": 12259,
  "à¤Ńà¤Ĺà¤µ": 8445,
  "à¤Ńà¤Ĺà¤µà¤¤": 15341,
  "à¤Ńà¤ļ": 3597,
  "à¤Ńà¤ľ": 5603,
  "à¤Ńà¤ľà¤¨": 7858,
  "à¤Ńà¤ľà¤¨à¤®": 12271,
  "à¤Ńà¤ŀ": 4049,
  "à¤Ńà¤Ł": 3191,
  "à¤Ńà¤Ń": 9235,
  "à¤Ńà¤Ńà¤¨": 6451,
  "à¥": 156,
  "à¥¤": 179,
  "à¥¤\"": 11440,
  "à¥¤'": 1478,
  "à¥¤)": 6347,
  "à¥¤à¥¤": 7664,
  "à¥¤âĢ²": 11442,
  "à¥¤âĢĵ": 5547,
  "à¥¤âĢĺ": 3368,
  "à¥¤âĢĻ": 542,
  "à¥¤âĢĻâĢĻ": 9868,
  "à¥¤âĢľ": 11441,
  "à¥¤âĢĿ": 1717,
  "à¥¦": 261,
  "à¥¦à¥¦": 1598,
  "à¥¦à¥¦à¥¦": 3988,
  "à¥¦à¥¦à¥«": 15517,
  "à¥¦à¥§": 5322,
  "à¥¦à¥§à¥©": 12704,
  "à¥¦à¥§à¥«": 12701,
  "à¥¦à¥§à¥®": 12703,
  "à¥¦à¥§à¥¯": 12702,
  "à¥¦à¥§à¥Ń": 9390,
  "à¥¦à¥¨": 7958,
  "à¥¦à¥©": 7102,
  "à¥¦à¥©à¥§à¥§à¥ª": 16642,
  "à¥¦à¥©à¥©": 12710,
  "à¥¦à¥©à¥«": 12706,
  "à¥¦à¥ª": 7101,
  "à¥¦à¥ªà¥ª": 12709,
  "à¥¦à¥«": 7100,
  "à¥¦à¥«à¥§": 12708,
  "à¥¦à¥«à¥¨": 12711,
  "à¥¦à¥«à¥®": 12712,
  "à¥¦à¥«à¥¯": 12713,
  "à¥¦à¥«à¥Ń": 12707,
  "à¥¦à¥¬": 4492,
  "à¥¦à¥¬à¥©": 2976,
  "à¥¦à¥¬à¥ª": 9391,
  "à¥¦à¥¬à¥¬": 10588,
  "à¥¦à¥¬à¥®": 12705,
  "à¥¦à¥¬à¥Ń": 8587,
  "à¥¦à¥®": 9389,
  "à¥¦à¥¯": 6007,
  "à¥¦à¥Ń": 2932,
  "à¥¦à¥Ńà¥§": 16152,
  "à¥¦à¥Ńà¥¨": 7474,
  "à¥¦à¥Ńà¥©": 7475,
  "à¥¦à¥Ńà¥ª": 5633,
  "à¥¦à¥Ńà¥«": 5634,
  "à¥¦à¥Ńà¥¬": 4826,
  "à¥¦à¥Ńà¥®": 16153,
  "à¥¦à¥Ńà¥¯": 16154,
  "à¥§": 360,
  "à¥§à¥¦": 1674,
  "à¥§à¥¦à¥¦": 5079,
  "à¥§à¥¦à¥¨": 6773,
  "à¥§à¥¦à¥¯": 10359,
  "à¥§à¥¦à¥¯à¥§à¥¯à¥§": 16771,
  "à¥§à¥¦à¥Ń": 15554,
  "à¥§à¥§": 1698,
  "à¥§à¥§à¥¦": 13316,
  "à¥§à¥§à¥ª": 15563,
  "à¥§à¥§à¥«": 10364,
  "à¥§à¥§à¥¬à¥©": 15565,
  "à¥§à¥§à¥¯": 15564,
  "à¥§à¥¨": 1951,
  "à¥§à¥¨à¥¦à¥¦": 13317,
  "à¥§à¥¨à¥§": 10412,
  "à¥§à¥¨à¥ª": 10413,
  "à¥§à¥¨à¥¬": 15730,
  "à¥§à¥©": 2536,
  "à¥§à¥ª": 2428,
  "à¥§à¥ªà¥¦": 16009,
  "à¥§à¥ªà¥ª": 16010,
  "à¥§à¥«": 1778,
  "à¥§à¥«à¥¦": 15622,
  "à¥§à¥«à¥¯": 10384,
  "à¥§à¥¬": 1932,
  "à¥§à¥¬à¥¦à¥«": 15723,
  "à¥§à¥¬à¥ªà¥¯": 15722,
  "à¥§à¥®": 2049,
  "à¥§à¥¯": 2017,
  "à¥§à¥¯à¥§": 15786,
  "à¥§à¥¯à¥«": 8512,
  "à¥§à¥¯à¥®à¥¦": 15788,
  "à¥§à¥¯à¥¯à¥¦": 15790,
  "à¥§à¥¯à¥¯à¥¯": 15789,
  "à¥§à¥¯à¥Ńà¥ª": 15787,
  "à¥§à¥Ń": 2097,
  "à¥§à¥Ńà¥¦à¥¦": 15833,
  "à¥§à¥Ńà¥§à¥¦à¥Ń": 15834,
  "à¥§à¥Ńà¥¬": 15832,
  "à¥¨": 404,
  "à¥¨à¥¦": 1072,
  "à¥¨à¥¦à¥¦": 3892,
  "à¥¨à¥¦à¥¦à¥§": 16291,
  "à¥¨à¥¦à¥¦à¥©": 16294,
  "à¥¨à¥¦à¥¦à¥ª": 16293,
  "à¥¨à¥¦à¥¦à¥«": 16292,
  "à¥¨à¥¦à¥¦à¥«à¥¬à¥¬": 16296,
  "à¥¨à¥¦à¥¦à¥¯": 16295,
  "à¥¨à¥¦à¥¦à¥Ń": 8394,
  "à¥¨à¥¦à¥§à¥¦": 15028,
  "à¥¨à¥¦à¥§à¥§": 10185,
  "à¥¨à¥¦à¥§à¥¨": 8393,
  "à¥¨à¥¦à¥§à¥©": 6738,
  "à¥¨à¥¦à¥§à¥ª": 10188,
  "à¥¨à¥¦à¥§à¥«": 7377,
  "à¥¨à¥¦à¥§à¥¬": 4891,
  "à¥¨à¥¦à¥§à¥®": 4264,
  "à¥¨à¥¦à¥§à¥¯": 5771,
  "à¥¨à¥¦à¥§à¥Ń": 3983,
  "à¥¨à¥¦à¥¨à¥«": 15029,
  "à¥¨à¥¦à¥¨à¥¬": 15031,
  "à¥¨à¥¦à¥©à¥¦": 10187,
  "à¥¨à¥¦à¥©à¥ª": 6739,
  "à¥¨à¥¦à¥ªà¥¦": 10190,
  "à¥¨à¥¦à¥ªà¥¬": 15035,
  "à¥¨à¥¦à¥ªà¥®": 15036,
  "à¥¨à¥¦à¥ªà¥Ń": 10194,
  "à¥¨à¥¦à¥«": 15026,
  "à¥¨à¥¦à¥«à¥§": 15033,
  "à¥¨à¥¦à¥«à¥«": 10191,
  "à¥¨à¥¦à¥«à¥¬": 15030,
  "à¥¨à¥¦à¥«à¥®": 10193,
  "à¥¨à¥¦à¥«à¥Ń": 15032,
  "à¥¨à¥¦à¥¬à¥§": 15038,
  "à¥¨à¥¦à¥¬à¥¨": 6200,
  "à¥¨à¥¦à¥¬à¥©": 10186,
  "à¥¨à¥¦à¥¬à¥ª": 10192,
  "à¥¨à¥¦à¥¬à¥«": 15037,
  "à¥¨à¥¦à¥¬à¥¬": 15040,
  "à¥¨à¥¦à¥¬à¥Ń": 15039,
  "à¥¨à¥¦à¥Ń": 15027,
  "à¥¨à¥¦à¥Ńà¥¦": 8395,
  "à¥¨à¥¦à¥Ńà¥§": 15034,
  "à¥¨à¥¦à¥Ńà¥¨": 7378,
  "à¥¨à¥¦à¥Ńà¥©": 10189,
  "à¥¨à¥¦à¥Ńà¥ª": 3893,
  "à¥¨à¥¦à¥Ńà¥«": 5451,
  "à¥¨à¥§": 2778,
  "à¥¨à¥§à¥§": 9699,
  "à¥¨à¥§à¥¨": 13541,
  "à¥¨à¥§à¥ª": 13542,
  "à¥¨à¥§à¥ªà¥¨": 16908,
  "à¥¨à¥¨": 2984,
  "à¥¨à¥©": 3066,
  "à¥¨à¥ª": 3147,
  "à¥¨à¥«": 1806,
  "à¥¨à¥«à¥©": 15632,
  "à¥¨à¥¬": 3543,
  "à¥¨à¥¬à¥©": 13540,
  "à¥¨à¥®": 3339,
  "à¥¨à¥®à¥¦": 16226,
  "à¥¨à¥®à¥§": 16227,
  "à¥¨à¥®à¥¨": 16228,
  "à¥¨à¥®à¥®": 16229,
  "à¥¨à¥¯": 4086,
  "à¥¨à¥¯à¥©": 16335,
  "à¥¨à¥¯à¥¬": 16334,
  "à¥¨à¥¯à¥®": 10577,
  "à¥¨à¥¯à¥®à¥¯": 16336,
  "à¥¨à¥¯à¥Ń": 16333,
  "à¥¨à¥Ń": 3542,
  "à¥¨à¥Ńà¥¯": 16258,
  "à¥©": 452,
  "à¥©à¥¦": 1989,
  "à¥©à¥¦à¥¦": 8162,
  "à¥©à¥¦à¥¦à¥¦": 13708,
  "à¥©à¥§": 4369,
  "à¥©à¥§à¥ª": 13703,
  "à¥©à¥¨": 7238,
  "à¥©à¥¨à¥¦": 6615,
  "à¥©à¥¨à¥§": 13705,
  "à¥©à¥©": 4234,
  "à¥©à¥©à¥¦": 5709,
  "à¥©à¥©à¥®à¥ªà¥«": 16348,
  "à¥©à¥ª": 5105,
  "à¥©à¥ªà¥«": 13706,
  "à¥©à¥«": 3880,
  "à¥©à¥«à¥¦": 13704,
  "à¥©à¥«à¥«": 13707,
  "à¥©à¥¬": 3964,
  "à¥©à¥¬à¥«": 16311,
  "à¥©à¥®": 5106,
  "à¥©à¥®à¥¦": 9748,
  "à¥©à¥®à¥©": 16459,
  "à¥©à¥¯": 7239,
  "à¥©à¥¯à¥®": 16644,
  "à¥©à¥Ń": 5104,
  "à¥©à¥Ńà¥§à¥¦": 16457,
  "à¥©à¥Ńà¥¨à¥«à¥©": 16458,
  "à¥ª": 432,
  "à¥ªà¥¦": 3398,
  "à¥ªà¥¦à¥¦": 8147,
  "à¥ªà¥§": 5387,
  "à¥ªà¥¨": 4855,
  "à¥ªà¥¨à¥§": 13629,
  "à¥ªà¥©": 4681,
  "à¥ªà¥ª": 4231,
  "à¥ªà¥ªà¥ª": 10581,
  "à¥ªà¥«": 3068,
  "à¥ªà¥«à¥¬": 7478,
  "à¥ªà¥«à¥¯": 16189,
  "à¥ªà¥¬": 4518,
  "à¥ªà¥¬à¥§": 8588,
  "à¥ªà¥¬à¥Ń": 16379,
  "à¥ªà¥®": 4856,
  "à¥ªà¥¯": 5388,
  "à¥ªà¥¯à¥©": 16486,
  "à¥ªà¥Ń": 5100,
  "à¥«": 371,
  "à¥«à¥¦": 2566,
  "à¥«à¥¦à¥¦": 5088,
  "à¥«à¥¦à¥¦à¥¦": 13408,
  "à¥«à¥§": 4225,
  "à¥«à¥¨": 4669,
  "à¥«à¥¨à¥¦": 13405,
  "à¥«à¥¨à¥¦à¥ªà¥¯à¥©": 16907,
  "à¥«à¥©": 6070,
  "à¥«à¥©à¥«": 13406,
  "à¥«à¥©à¥¬": 13407,
  "à¥«à¥ª": 5087,
  "à¥«à¥«": 3468,
  "à¥«à¥¬": 3394,
  "à¥«à¥¬à¥¬": 10538,
  "à¥«à¥®": 4670,
  "à¥«à¥¯": 5377,
  "à¥«à¥Ń": 4083,
  "à¥¬": 427,
  "à¥¬à¥¦": 3544,
  "à¥¬à¥§": 5384,
  "à¥¬à¥§à¥Ń": 13615,
  "à¥¬à¥¨": 3789,
  "à¥¬à¥¨à¥¨": 13616,
  "à¥¬à¥©": 1735,
  "à¥¬à¥ª": 3790,
  "à¥¬à¥«": 5099,
  "à¥¬à¥¬": 5703,
  "à¥¬à¥®": 3876,
  "à¥¬à¥®à¥¯": 16289,
  "à¥¬à¥¯": 5385,
  "à¥¬à¥Ń": 5702,
  "à¥®": 507,
  "à¥®à¥¦": 4100,
  "à¥®à¥¦à¥¦": 13947,
  "à¥®à¥¦à¥Ń": 13950,
  "à¥®à¥§": 6112,
  "à¥®à¥§à¥§": 13948,
  "à¥®à¥§à¥¨": 13949,
  "à¥®à¥§à¥¬à¥©": 16542,
  "à¥®à¥¨": 9838,
  "à¥®à¥©": 6113,
  "à¥®à¥©à¥«": 13952,
  "à¥®à¥ª": 6639,
  "à¥®à¥ªà¥«": 13951,
  "à¥®à¥ªà¥®": 13953,
  "à¥®à¥«": 5724,
  "à¥®à¥«à¥§à¥§à¥¯": 16511,
  "à¥®à¥¬": 6638,
  "à¥®à¥¬à¥§à¥¨": 16591,
  "à¥®à¥®": 6114,
  "à¥®à¥¯": 7266,
  "à¥®à¥Ń": 8205,
  "à¥¯": 524,
  "à¥¯à¥¦": 4686,
  "à¥¯à¥§": 5725,
  "à¥¯à¥¨": 9851,
  "à¥¯à¥¨à¥ª": 14006,
  "à¥¯à¥¨à¥¯à¥®": 14008,
  "à¥¯à¥©": 9852,
  "à¥¯à¥ª": 5726,
  "à¥¯à¥ªà¥«": 14005,
  "à¥¯à¥«": 4687,
  "à¥¯à¥«à¥Ń": 14007,
  "à¥¯à¥¬": 6644,
  "à¥¯à¥®": 14003,
  "à¥¯à¥¯": 4528,
  "à¥¯à¥¯à¥¬": 16380,
  "à¥¯à¥¯à¥¯": 10589,
  "à¥¯à¥Ń": 14002,
  "à¥¯à¥Ńà¥ª": 14004,
  "à¥Ģ": 171,
  "à¥Ģ!": 8801,
  "à¥Ģ'": 2022,
  "à¥Ģ')": 15792,
  "à¥Ģ',": 11236,
  "à¥Ģ'?": 15793,
  "à¥Ģ(": 3575,
  "à¥Ģ)": 868,
  "à¥Ģ),": 3029,
  "à¥Ģ)-": 14724,
  "à¥Ģ)à¥¤": 14725,
  "à¥Ģ)âĢĵ": 10097,
  "à¥Ģ)âĢĶ": 8335,
  "à¥Ģ)âĢĻ": 10096,
  "à¥Ģ,": 379,
  "à¥Ģ,'": 13432,
  "à¥Ģ,,": 13433,
  "à¥Ģ,âĢĻ": 8104,
  "à¥Ģ-": 2501,
  "à¥Ģ.": 4009,
  "à¥Ģ.)": 16319,
  "à¥Ģ.,": 16320,
  "à¥Ģ..": 11235,
  "à¥Ģ...": 6903,
  "à¥Ģ...âĢĻ": 7621,
  "à¥Ģ/": 2872,
  "à¥Ģ:": 3430,
  "à¥Ģ;": 11232,
  "à¥Ģ?": 3168,
  "à¥Ģ?âĢĻ": 8806,
  "à¥ĢÂ¬)": 11239,
  "à¥ĢÂŃ": 11238,
  "à¥ĢÃ·": 3232,
  "à¥Ģà¤¿": 8802,
  "à¥Ģà¤ģ": 1073,
  "à¥Ģà¤ģ,": 10195,
  "à¥Ģà¤ģÃ·": 15042,
  "à¥Ģà¤ģâĢĵ": 15041,
[...]
