{
  "version": "1.0",
  "truncation": null,
  "padding": null,
  "added_tokens": [
    {
      "id": 0,
      "content": "[UNK]",
      "single_word": false,
      "lstrip": false,
      "rstrip": false,
      "normalized": false,
      "special": true
    },
    {
      "id": 1,
      "content": "[CLS]",
      "single_word": false,
      "lstrip": false,
      "rstrip": false,
      "normalized": false,
      "special": true
    },
    {
      "id": 2,
      "content": "[SEP]",
      "single_word": false,
      "lstrip": false,
      "rstrip": false,
      "normalized": false,
      "special": true
    },
    {
      "id": 3,
      "content": "[PAD]",
      "single_word": false,
      "lstrip": false,
      "rstrip": false,
      "normalized": false,
      "special": true
    },
    {
      "id": 4,
      "content": "[MASK]",
      "single_word": false,
      "lstrip": false,
      "rstrip": false,
      "normalized": false,
      "special": true
    }
  ],
  "normalizer": null,
  "pre_tokenizer": null,
  "post_processor": null,
  "decoder": null,
  "model": {
    "type": "BPE",
    "dropout": null,
    "unk_token": "[UNK]",
    "continuing_subword_prefix": null,
    "end_of_word_suffix": null,
    "fuse_unk": false,
    "vocab": {
      "[UNK]": 0,
      "[CLS]": 1,
      "[SEP]": 2,
      "[PAD]": 3,
      "[MASK]": 4,
      "\n": 5,
      "\r": 6,
      " ": 7,
      "'": 8,
      "(": 9,
      ")": 10,
      ",": 11,
      ".": 12,
      "0": 13,
      "1": 14,
      "2": 15,
      "3": 16,
      "4": 17,
      "5": 18,
      "6": 19,
      "7": 20,
      "8": 21,
      "9": 22,
      ":": 23,
      "ँ": 24,
      "ं": 25,
      "ः": 26,
      "अ": 27,
      "आ": 28,
      "इ": 29,
      "ई": 30,
      "उ": 31,
      "ऊ": 32,
      "ऋ": 33,
      "ए": 34,
      "ऐ": 35,
      "ऒ": 36,
      "ओ": 37,
      "औ": 38,
      "क": 39,
      "ख": 40,
      "ग": 41,
      "घ": 42,
      "ङ": 43,
      "च": 44,
      "छ": 45,
      "ज": 46,
      "झ": 47,
      "ञ": 48,
      "ट": 49,
      "ठ": 50,
      "ड": 51,
      "ढ": 52,
      "ण": 53,
      "त": 54,
      "थ": 55,
      "द": 56,
      "ध": 57,
      "न": 58,
      "प": 59,
      "फ": 60,
      "ब": 61,
      "भ": 62,
      "म": 63,
      "य": 64,
      "र": 65,
      "ल": 66,
      "व": 67,
      "श": 68,
      "ष": 69,
      "स": 70,
      "ह": 71,
      "ा": 72,
      "ि": 73,
      "ी": 74,
      "ु": 75,
      "ू": 76,
      "ृ": 77,
      "े": 78,
      "ै": 79,
      "ो": 80,
      "ौ": 81,
      "्": 82,
      "।": 83,
      "०": 84,
      "१": 85,
      "२": 86,
      "३": 87,
      "४": 88,
      "५": 89,
      "६": 90,
      "७": 91,
      "८": 92,
      "९": 93,
      "‍": 94,
      "﻿": 95,
      "ा ": 96,
      "र्": 97,
      "्र": 98,
      " स": 99,
      "को": 100,
      "्य": 101,
      " प": 102,
      " ग": 103,
      " क": 104,
      " व": 105,
      "ने": 106,
      "मा ": 107,
      "िक": 108,
      "ार": 109,
      "को ": 110,
      "रु": 111,
      "्त": 112,
      "ाल": 113,
      "्ष": 114,
      " प्र": 115,
      " र": 116,
      "ान": 117,
      "हरु": 118,
      "ला": 119,
      "। ": 120,
      " गर": 121,
      "\r\n": 122,
      "्थ": 123,
      "ी ": 124,
      "ार्": 125,
      "ास": 126,
      "ित": 127,
      " त": 128,
      "छ। ": 129,
      "19": 130,
      "नि": 131,
      "न्": 132,
      "जन": 133,
      "यो": 134,
      "का ": 135,
      " गर्": 136,
      " अ": 137,
      "ार्य": 138,
      "ेत": 139,
      "ति": 140,
      " आ": 141,
      " उ": 142,
      "त्": 143,
      "194": 144,
      "स्थ": 145,
      " ब": 146,
      "था ": 147,
      "्ध": 148,
      "िने": 149,
      "लाई": 150,
      " कार्य": 151,
      "ेत्र": 152,
      "्षेत्र": 153,
      " \r\n": 154,
      " सम": 155,
      "्रम": 156,
      "िकास": 157,
      " वि": 158,
      "स्त": 159,
      "नु": 160,
      " म": 161,
      " क्षेत्र": 162,
      " ह": 163,
      "क्ष": 164,
      "ाउ": 165,
      "ाव": 166,
      "्व": 167,
      " भ": 168,
      " न": 169,
      " द": 170,
      " तथा ": 171,
      "योजन": 172,
      " विकास": 173,
      "क्रम": 174,
      "ाय": 175,
      "ाप": 176,
      " व्य": 177,
      "वि": 178,
      "द्ध": 179,
      " सं": 180,
      "ात": 181,
      "ाट": 182,
      " ज": 183,
      "द्य": 184,
      "्ग": 185,
      "ले": 186,
      "ष्": 187,
      " गरिने": 188,
      "धार": 189,
      "194ङ": 190,
      "्च": 191,
      " नि": 192,
      "वस्थ": 193,
      "न्त": 194,
      "कार": 195,
      " गर्ने": 196,
      " कार्यक्रम": 197,
      "रि": 198,
      "ाद": 199,
      "ालन": 200,
      "ीय": 201,
      "194ङ्ग": 202,
      "ाम": 203,
      "छ। \r\n": 204,
      "ाइ": 205,
      "रुप": 206,
      " ल": 207,
      "ेश": 208,
      "त्प": 209,
      "प्र": 210,
      "रण": 211,
      "मा स": 212,
      " हु": 213,
      "एको ": 214,
      "लाग": 215,
      "त्पाद": 216,
      "ृष": 217,
      " गर्न": 218,
      "यस": 219,
      "ाई": 220,
      "ता ": 221,
      "म्": 222,
      " व्यवस्थ": 223,
      " स्थ": 224,
      " योजन": 225,
      " सु": 226,
      "धि": 227,
      "बाट": 228,
      "क्त": 229,
      " प्रति": 230,
      "ुल": 231,
      "ाथ": 232,
      "ञ्च": 233,
      " ए": 234,
      "ष्ट": 235,
      "ाहरु": 236,
      "योग": 237,
      "ृद्ध": 238,
      "ूल": 239,
      "लागि": 240,
      "छ।": 241,
      "ाग": 242,
      "िल": 243,
      " श": 244,
      " ख": 245,
      "त्पादन": 246,
      "ृषि": 247,
      "ृद्धि": 248,
      "्यक": 249,
      "न्ध": 250,
      "ेव": 251,
      " उप": 252,
      "मा": 253,
      "गर": 254,
      " सम्": 255,
      "देश": 256,
      "ूर्": 257,
      "हे": 258,
      "ाउने": 259,
      "ाली": 260,
      "श्यक": 261,
      "195": 262,
      " अनु": 263,
      "को स": 264,
      "ञ्चालन": 265,
      " पु": 266,
      "भाव": 267,
      "वश्यक": 268,
      "न्द": 269,
      "ोग": 270,
      "भि": 271,
      "ीक": 272,
      "वं": 273,
      "ध्य": 274,
      " परि": 275,
      "को अ": 276,
      "ाउन": 277,
      "ामा ": 278,
      "ाह": 279,
      " गरी ": 280,
      "रकार": 281,
      "िम": 282,
      " गरि": 283,
      " कृषि": 284,
      "ापन": 285,
      "शत": 286,
      "ीति": 287,
      "रुपमा ": 288,
      "गत": 289,
      "र्थ": 290,
      "के": 291,
      " प्रतिशत": 292,
      " जन": 293,
      "मिक": 294,
      "ष्टि": 295,
      "ा स": 296,
      "उप": 297,
      "न्न": 298,
      " रा": 299,
      "िक्ष": 300,
      "दै": 301,
      " गरी": 302,
      "ौं": 303,
      "यन": 304,
      "ी क्षेत्र": 305,
      "तथा ": 306,
      "दि": 307,
      " निर्": 308,
      "ेख": 309,
      "्न": 310,
      " स्व": 311,
      "र्ने": 312,
      " संस्थ": 313,
      "र्‍": 314,
      "194्र": 315,
      " सञ्चालन": 316,
      "ालाई": 317,
      "  ": 318,
      "वस": 319,
      " उत्पादन": 320,
      "का लागि": 321,
      " व्यवस्था ": 322,
      "क्": 323,
      "जार": 324,
      "रा": 325,
      "्या": 326,
      " एवं": 327,
      ", ": 328,
      "र्ष": 329,
      "ौं योजन": 330,
      " बढ": 331,
      "को आ": 332,
      "द्योग": 333,
      "नेप": 334,
      "ाइने": 335,
      " आवश्यक": 336,
      " हुने": 337,
      "हरुको": 338,
      "कार्य": 339,
      "हरुलाई": 340,
      "पूर्": 341,
      "का स": 342,
      " सेव": 343,
      " गरिनेछ। ": 344,
      "मान": 345,
      "्रो": 346,
      "मि": 347,
      "िय": 348,
      "ृत": 349,
      "ानी": 350,
      " दि": 351,
      "हु": 352,
      "माण": 353,
      "र्थिक": 354,
      "अनु": 355,
      "लग": 356,
      "ाको": 357,
      "स्तर": 358,
      "इने": 359,
      "यात": 360,
      "चालन": 361,
      "धिक": 362,
      "ेखि": 363,
      "दान": 364,
      " गरिनेछ। \r\n": 365,
      "194र्‍": 366,
      "ोड": 367,
      " के": 368,
      "ास्थ": 369,
      "यु": 370,
      "। \r\n": 371,
      "ोज": 372,
      "194र्‍य": 373,
      "क्षण": 374,
      "मु": 375,
      "धन": 376,
      " नीति": 377,
      "न्द्र": 378,
      "हरुमा ": 379,
      " विश": 380,
      "ास्थ्य": 381,
      "स्": 382,
      " वृद्धि": 383,
      "ा अ": 384,
      " सह": 385,
      "िति": 386,
      " च": 387,
      "ा प": 388,
      "ाथै": 389,
      "बन्ध": 390,
      "ालय": 391,
      " लग": 392,
      "००": 393,
      "ीकरण": 394,
      " विद्य": 395,
      "त्य": 396,
      "िल्": 397,
      "न्य": 398,
      "क्ष्य": 399,
      " स्थान": 400,
      "सार": 401,
      "वार": 402,
      "ाथमिक": 403,
      " २": 404,
      "मूल": 405,
      " १": 406,
      "ात्": 407,
      " रहे": 408,
      " भए": 409,
      "विध": 410,
      " हुन": 411,
      "सं": 412,
      "भिन्न": 413,
      " सि": 414,
      "न्त्र": 415,
      "ालिम": 416,
      "धिमा ": 417,
      " शिक्ष": 418,
      "ता": 419,
      " क्षेत्रमा ": 420,
      "छ। यस": 421,
      "हरुको ": 422,
      "194्रय": 423,
      ": ": 424,
      "त्व": 425,
      "्तर": 426,
      "स्ता ": 427,
      " साम": 428,
      "ष्टि194्रय": 429,
      "र्ज": 430,
      " वर्ष": 431,
      "्रोत": 432,
      "गार": 433,
      "वर्": 434,
      "मक": 435,
      "द्": 436,
      "ोजगार": 437,
      "नेपाल": 438,
      "दर": 439,
      "ान्व": 440,
      "युक्त": 441,
      "भाग": 442,
      "195ङ": 443,
      "सम्": 444,
      "र्य": 445,
      " प्रभाव": 446,
      "ँच": 447,
      " पनि": 448,
      "ा र": 449,
      "स्तार": 450,
      "ात्मक": 451,
      "ंक": 452,
      "ेष": 453,
      "र्फ": 454,
      "रिक": 455,
      "को विकास": 456,
      "जी क्षेत्र": 457,
      "क्ति": 458,
      "न्तर्": 459,
      "ान्वयन": 460,
      "री": 461,
      "वृद्धि": 462,
      "भू": 463,
      "विधि": 464,
      "निर्": 465,
      "धारण": 466,
      "दा ": 467,
      "स्तु": 468,
      "्रिय": 469,
      "उत्पादन": 470,
      "ा,": 471,
      "ाज": 472,
      "च्च": 473,
      " केन्द्र": 474,
      " संर": 475,
      " यस": 476,
      "ामी": 477,
      "वसाय": 478,
      "ाले": 479,
      " ९": 480,
      "वा": 481,
      "लब": 482,
      " स्थानीय": 483,
      "गम": 484,
      "रहे": 485,
      " आर्थिक": 486,
      "ावरण": 487,
      "व्य": 488,
      "ुन": 489,
      "ग्र": 490,
      "गरिने": 491,
      "ुत्": 492,
      " कार्यक्रमहरु": 493,
      " मह": 494,
      "ी तथा ": 495,
      " सा": 496,
      " प्राथमिक": 497,
      " वन": 498,
      "ामीण": 499,
      "ी ब": 500,
      " स्वास्थ्य": 501,
      " निर्माण": 502,
      " प्रण": 503,
      " : ": 504,
      " लक्ष्य": 505,
      " आयोजन": 506,
      "ख्य": 507,
      " सरकार": 508,
      "पत": 509,
      "ातावरण": 510,
      "कार्यक्रम": 511,
      " कम": 512,
      "विद्य": 513,
      "टन": 514,
      "ा प्र": 515,
      " वित": 516,
      " भएको ": 517,
      " पूर्": 518,
      " ग्र": 519,
      " व्यवस्थापन": 520,
      " रुपमा ": 521,
      "दाय": 522,
      "लब्ध": 523,
      " छ": 524,
      "को लागि": 525,
      " तालिम": 526,
      "ा ग": 527,
      "एका ": 528,
      "वौं योजन": 529,
      " कार्यान्वयन": 530,
      " ला": 531,
      "ात्र": 532,
      "1951": 533,
      "देखि": 534,
      " स्रोत": 535,
      "ा अव": 536,
      "एको": 537,
      "ाप्त": 538,
      "द्धन": 539,
      "मा प": 540,
      "चार": 541,
      "ठौं योजन": 542,
      "र्च": 543,
      " पु194र्‍य": 544,
      " बजार": 545,
      "क्षेत्र": 546,
      "क्रिय": 547,
      " व्यवसाय": 548,
      "िल्ला": 549,
      "िन": 550,
      "काली": 551,
      " मूल": 552,
      "ाको ": 553,
      " एक": 554,
      "ेको ": 555,
      "ैर": 556,
      "त्स": 557,
      "शक्ति": 558,
      "ाँ": 559,
      " य": 560,
      "सन्ध": 561,
      " उद्योग": 562,
      "कालीन": 563,
      " संरक्षण": 564,
      "सन्धान": 565,
      "बढ": 566,
      "्ने": 567,
      "पूर्ति": 568,
      "ँचाइ": 569,
      " पह": 570,
      "द्देश": 571,
      " गरिनेछ।": 572,
      "चन": 573,
      " प्रविधि": 574,
      " सम्बन्ध": 575,
      " प्रभावकार": 576,
      "र्घ": 577,
      " गर्दै": 578,
      "द्देश्य": 579,
      "यार": 580,
      " सुविध": 581,
      "ाक": 582,
      " (": 583,
      "्ञ": 584,
      " प्रणाली": 585,
      " गु": 586,
      "वन": 587,
      "मा आ": 588,
      " तथा स": 589,
      " घ": 590,
      "त्साह": 591,
      " पर्य": 592,
      " कर": 593,
      " परिचालन": 594,
      " गरिएको ": 595,
      "िकाय": 596,
      " विस्तार": 597,
      " स्थापन": 598,
      " राख": 599,
      "ेर": 600,
      " विभिन्न": 601,
      "ागत": 602,
      "वाट": 603,
      " वातावरण": 604,
      "ीर्घ": 605,
      "तर्फ": 606,
      "नीति": 607,
      "षण": 608,
      " विशेष": 609,
      "मुख": 610,
      "ँग": 611,
      "तिक": 612,
      "विकास": 613,
      "ा तथा ": 614,
      " समेत": 615,
      "ध्ययन": 616,
      " स्थिति": 617,
      " ग्रामीण": 618,
      "दृ": 619,
      " अव": 620,
      "ल्": 621,
      " गर्नु": 622,
      " क्ष": 623,
      "त्पादक": 624,
      "ृषक": 625,
      " संस्थाहरु": 626,
      " दिइने": 627,
      "ीर्घकालीन": 628,
      "ी,": 629,
      " खा": 630,
      "सम्म": 631,
      "ाजिक": 632,
      "को रुपमा ": 633,
      "र्जन": 634,
      "न्तर्गत": 635,
      " भू": 636,
      "ण्": 637,
      "वे": 638,
      "क्ने": 639,
      "195ङ्ध": 640,
      "टर": 641,
      " निय": 642,
      "को प्र": 643,
      "ियो": 644,
      "र्न": 645,
      "ज्य": 646,
      "पन": 647,
      " बन": 648,
      "बी": 649,
      "मा क": 650,
      "19514": 651,
      "ैन": 652,
      " स्तर": 653,
      " रोजगार": 654,
      "छ।  \r\n": 655,
      "मित": 656,
      " सुधार": 657,
      "ावि": 658,
      "195141": 659,
      "छन्": 660,
      "मह": 661,
      "वाह": 662,
      "ुर": 663,
      "का साथै": 664,
      "डक": 665,
      " गराउने": 666,
      " खर्च": 667,
      "लव": 668,
      "न्व": 669,
      "पर्ने": 670,
      "ैंक": 671,
      "वर्द्धन": 672,
      "गमन": 673,
      " ट": 674,
      "्क": 675,
      "ोत्साह": 676,
      "एक": 677,
      "फल": 678,
      "ापार": 679,
      "मा प्र": 680,
      "भागित": 681,
      "ा अवधिमा ": 682,
      " औ": 683,
      "शु": 684,
      "शिक्ष": 685,
      " सी": 686,
      "वाधार": 687,
      "ुत््": 688,
      "्ति": 689,
      "ुलन": 690,
      "ी नि": 691,
      "ालिक": 692,
      "ाविधिक": 693,
      "ऋण": 694,
      " क्रम": 695,
      " राष्टि194्रय": 696,
      " निजी क्षेत्र": 697,
      "र्जु": 698,
      " गुण": 699,
      " देश": 700,
      " प्रोत्साह": 701,
      "लव्ध": 702,
      " २०": 703,
      "ष्ठ": 704,
      "पर्": 705,
      " भने": 706,
      "पूर्ण": 707,
      "कि": 708,
      "ोल": 709,
      " कार": 710,
      " अन्य": 711,
      " उद्देश्य": 712,
      "थप": 713,
      " कि": 714,
      "्तीय": 715,
      "ी आ": 716,
      "केको ": 717,
      "ाने": 718,
      "ूह": 719,
      " देखि": 720,
      " नेपाल": 721,
      "स्व": 722,
      "ु194र्‍य": 723,
      "दृढ": 724,
      "थियो": 725,
      " कुल": 726,
      " क्षम": 727,
      "का अ": 728,
      " हे": 729,
      " निकाय": 730,
      " अनुसन्धान": 731,
      "ाड": 732,
      "ुदाय": 733,
      "राष्टि194्रय": 734,
      "त्पादकत्व": 735,
      "न्वय": 736,
      "क्षित": 737,
      "अनुरुप": 738,
      "लग्न": 739,
      "जी": 740,
      "सरकार": 741,
      " जिल्ला": 742,
      " साधन": 743,
      "सँग": 744,
      " पर्ने": 745,
      " व्यवस्था गरिने": 746,
      "स्य": 747,
      " प्रवर्द्धन": 748,
      "हर": 749,
      "ाउँ": 750,
      " ४": 751,
      " जस्ता ": 752,
      "को आधार": 753,
      "मा ज": 754,
      "एवं": 755,
      " उच्च": 756,
      "गरी": 757,
      " पुग": 758,
      " गैर": 759,
      "वसर": 760,
      "न्त्रण": 761,
      "ज्ञ": 762,
      "छैन": 763,
      "ायम": 764,
      "ता दि": 765,
      " आदि": 766,
      " विदेश": 767,
      " सिँचाइ": 768,
      "ंग": 769,
      "ुधार": 770,
      " मे": 771,
      " रहेको ": 772,
      " सम्भाव": 773,
      "वारण": 774,
      " वस्तु": 775,
      " गुणस्तर": 776,
      " 194ङ्ग": 777,
      "र्त": 778,
      "  \r\n": 779,
      "लन": 780,
      "श्च": 781,
      " सडक": 782,
      " मूल्य": 783,
      "ाको अ": 784,
      "ी र": 785,
      " गराइने": 786,
      " कार्यक्रम सञ्चालन": 787,
      " ३": 788,
      "दो": 789,
      "उपयोग": 790,
      " वै": 791,
      " बैंक": 792,
      " गर्ने,": 793,
      "चित": 794,
      " पूर्वाधार": 795,
      "द्र": 796,
      "मार्": 797,
      "ून": 798,
      "ाठ": 799,
      "ण्ड": 800,
      "र्जुमा ": 801,
      "मूलक": 802,
      " समन्वय": 803,
      "ृतिक": 804,
      " करोड": 805,
      "ीहरु": 806,
      " साथै": 807,
      "भिवृद्धि": 808,
      " जनशक्ति": 809,
      " कृषक": 810,
      " सुदृढ": 811,
      "ेट": 812,
      "२०": 813,
      "स्थान": 814,
      " :  \r\n": 815,
      "ल्य": 816,
      " सम्प": 817,
      "    ": 818,
      "याताय": 819,
      " प्राप्त": 820,
      "ध्यम": 821,
      " लगानी": 822,
      "न्तर": 823,
      " सामाजिक": 824,
      "यातायात": 825,
      " गराउन": 826,
      " दृ": 827,
      " लि": 828,
      "हुने": 829,
      " सहयोग": 830,
      "ार्थ": 831,
      "परि": 832,
      "ित्व": 833,
      " तयार": 834,
      "रुपमा स": 835,
      "गरी ": 836,
      "देशिक": 837,
      " उपलब्ध": 838,
      " सम्व": 839,
      " उपयुक्त": 840,
      " सेवा ": 841,
      " गर्न स": 842,
      "ीकृत": 843,
      " पो": 844,
      " वृद्धिदर": 845,
      "कृषि": 846,
      "ां": 847,
      " पक्ष": 848,
      " प्राविधिक": 849,
      "द्योगिक": 850,
      "195ङ्ग": 851,
      "कम": 852,
      "० ": 853,
      "र्म": 854,
      "नवौं योजन": 855,
      "वास": 856,
      "ोड दिइने": 857,
      "ा पु194र्‍य": 858,
      "ेल": 859,
      " आधार": 860,
      " ्": 861,
      "निक": 862,
      " दृष्टि": 863,
      "चत": 864,
      "शी": 865,
      " विश्व": 866,
      "संख्य": 867,
      " ५": 868,
      "खा": 869,
      " सू": 870,
      " संचालन": 871,
      " मात्र": 872,
      "हभागित": 873,
      "ा त": 874,
      " दीर्घकालीन": 875,
      " नस": 876,
      "्या195141": 877,
      " प्रक्रिय": 878,
      "ापक": 879,
      " ल्य": 880,
      " उपयोग": 881,
      "रु.": 882,
      "निजी क्षेत्र": 883,
      " गरिब": 884,
      " वित्तीय": 885,
      "विक": 886,
      " ब्य": 887,
      " नै": 888,
      "म्व": 889,
      " कायम": 890,
      "ी निवारण": 891,
      " छ। ": 892,
      "ुट": 893,
      " तह": 894,
      "लगानी": 895,
      " रहेको": 896,
      "शो": 897,
      "न्तरिक": 898,
      "निर्माण": 899,
      " लाख": 900,
      " प्रदान": 901,
      " समूह": 902,
      " प्रयोग": 903,
      "मा अ": 904,
      "ासिल": 905,
      " पर्यटन": 906,
      " ऋण": 907,
      "आधार": 908,
      "ोक्त": 909,
      " नवौं योजन": 910,
      " संस्थान": 911,
      " रह": 912,
      " गराई": 913,
      "ित्र": 914,
      " आठौं योजन": 915,
      "सर": 916,
      "िला": 917,
      "उपलब्ध": 918,
      " भइ": 919,
      " अनुगमन": 920,
      "िल्ल": 921,
      "पत्र": 922,
      " गर्दा ": 923,
      "लेख": 924,
      " त्य": 925,
      "मा सुधार": 926,
      " व्यवस्था मि": 927,
      "०००": 928,
      " खाद्य": 929,
      "व्यवस्थ": 930,
      "दु": 931,
      "मा वि": 932,
      "ान्त": 933,
      "डि": 934,
      "तम": 935,
      "ा भ": 936,
      " आय": 937,
      " दिने": 938,
      "भोक्त": 939,
      "एको छ। ": 940,
      " ध": 941,
      "तालाई": 942,
      " पुँ": 943,
      "क्टर": 944,
      "भार": 945,
      "ौतिक": 946,
      "मा सम": 947,
      "ुक": 948,
      "निम": 949,
      "िर": 950,
      " विक": 951,
      "उद्योग": 952,
      "िलो": 953,
      " प्रोत्साहित": 954,
      " पशु": 955,
      " क्षेत्रीय": 956,
      " संस्थागत": 957,
      " भएको": 958,
      "रू": 959,
      "िच": 960,
      "ी अ": 961,
      " अध्ययन": 962,
      "ठन": 963,
      "निय": 964,
      " अर्": 965,
      "194रू": 966,
      "अनुसार": 967,
      "स्पर्": 968,
      "रहेको ": 969,
      "ेक": 970,
      " मा": 971,
      "मा सं": 972,
      " हुन स": 973,
      "शोधन": 974,
      " ६": 975,
      " प्रसार": 976,
      "ी भ": 977,
      " बी": 978,
      " अनुमान": 979,
      " भएका ": 980,
      " व्यवस्था मिला": 981,
      " समिति": 982,
      " व्यापार": 983,
      "वै": 984,
      "ा ज": 985,
      "ान्न": 986,
      "म्प": 987,
      " पु194र्‍याउने": 988,
      "यास": 989,
      "ाति": 990,
      "को अनु": 991,
      " विद्युत््": 992,
      "टक": 993,
      "हो": 994,
      "। यस": 995,
      " मल": 996,
      " गर्ने र": 997,
      " प्रतिशतले": 998,
      "ी बन": 999,
      "सम": 1000,
      " सर": 1001,
      "195र्‍": 1002,
      "छ र": 1003,
      " सीप": 1004,
      "शील": 1005,
      "न्छ। ": 1006,
      "आठौं योजन": 1007,
      "ानुन": 1008,
      " हासिल": 1009,
      "अन्य": 1010,
      "ाधन": 1011,
      "स्तो": 1012,
      "ायत": 1013,
      "सम्बन्ध": 1014,
      "गति": 1015,
      "ही": 1016,
      " आपूर्ति": 1017,
      " उत्पादकत्व": 1018,
      "कारी": 1019,
      " लगिने": 1020,
      "िचान": 1021,
      "छन": 1022,
      " हजार": 1023,
      " वितरण": 1024,
      " नियन्त्रण": 1025,
      " पर": 1026,
      "म्न": 1027,
      "न्दा ": 1028,
      " को": 1029,
      "को ब": 1030,
      " उपलव्ध": 1031,
      "न्तर्राष्टि194्रय": 1032,
      " रोजगारी": 1033,
      ", क": 1034,
      "किने": 1035,
      "राज्य": 1036,
      " हेक्टर": 1037,
      " सूचन": 1038,
      " लाग": 1039,
      " दु": 1040,
      " जाने": 1041,
      "घि": 1042,
      "याँ": 1043,
      "ा आ": 1044,
      " निर्यात": 1045,
      "ाइनेछ। \r\n": 1046,
      "उच्च": 1047,
      "र्श": 1048,
      "195र्‍ार": 1049,
      "को त": 1050,
      " विकास कार्यक्रम": 1051,
      " सुर": 1052,
      "योगदान": 1053,
      " सिर्जन": 1054,
      " विदेशी ": 1055,
      " थप": 1056,
      ", स": 1057,
      "नी": 1058,
      " पार": 1059,
      " अन्तर्गत": 1060,
      " गरिनेछ। यस": 1061,
      "गरि": 1062,
      "नै": 1063,
      "लगान": 1064,
      " समुदाय": 1065,
      "स्तै": 1066,
      "धिराज्य": 1067,
      "२.": 1068,
      " सो": 1069,
      " कर्ज": 1070,
      " वढ": 1071,
      " सम्वन्ध": 1072,
      "्प": 1073,
      " वा": 1074,
      "को म": 1075,
      "तर": 1076,
      " जल": 1077,
      " कारण": 1078,
      "ंच": 1079,
      "ती": 1080,
      "ूर": 1081,
      " बाली": 1082,
      "क्षम": 1083,
      " गैरसरकार": 1084,
      " यातायात": 1085,
      "का": 1086,
      "विभिन्न": 1087,
      "मूल्य": 1088,
      "ऐन": 1089,
      "रोजगार": 1090,
      "ोक": 1091,
      " श्रम": 1092,
      "्यु": 1093,
      "ावधिमा ": 1094,
      "ाहरुलाई": 1095,
      " पहिचान": 1096,
      " ७": 1097,
      "३.": 1098,
      "ाली ": 1099,
      " मान": 1100,
      "गो": 1101,
      "ष्य": 1102,
      " बि": 1103,
      " संलग्न": 1104,
      " क्षमता ": 1105,
      " प्रतिस्पर्": 1106,
      "स्क": 1107,
      "वद्ध": 1108,
      "शास": 1109,
      "्री ": 1110,
      " सर्": 1111,
      " तथ": 1112,
      " समस्य": 1113,
      "्यांक": 1114,
      "जी ": 1115,
      "दार": 1116,
      "ा गरिने": 1117,
      " प्रयास": 1118,
      "तालिम": 1119,
      "भित्र": 1120,
      ".मि": 1121,
      "ालित": 1122,
      " परिवार": 1123,
      "विद्यालय": 1124,
      "तामा ": 1125,
      "ितो": 1126,
      " तथा प्र": 1127,
      " विद्यालय": 1128,
      " व्यवस्था मिलाइने": 1129,
      "ाका ": 1130,
      "५ ": 1131,
      "ापनि": 1132,
      " प्रभावकारी ": 1133,
      "ध्यान": 1134,
      "ा गर्ने": 1135,
      "ाको अन्त": 1136,
      "तन्त्र": 1137,
      "शः": 1138,
      "षय": 1139,
      "स्थ्य": 1140,
      " गरिनेछ।  \r\n": 1141,
      " सामग्र": 1142,
      "भूत": 1143,
      " सम्भाव्य": 1144,
      ".मि.": 1145,
      "बत": 1146,
      "वित": 1147,
      "सक्ने": 1148,
      " न्य": 1149,
      " कार्यक्रमलाई": 1150,
      " उपभोक्त": 1151,
      "को सरकार": 1152,
      "स्थानीय": 1153,
      "अन्तर्गत": 1154,
      "लि": 1155,
      "५ प्रतिशत": 1156,
      "ा ब": 1157,
      " कानुन": 1158,
      " अवस्थ": 1159,
      " गर्ने। \r\n": 1160,
      " लाभ": 1161,
      "ज्ञान": 1162,
      " मे.": 1163,
      " फ": 1164,
      "हुन": 1165,
      "को आधारमा ": 1166,
      "भर": 1167,
      "को प": 1168,
      "को उ": 1169,
      "नुपर्ने": 1170,
      "छ। साथै": 1171,
      "माध्यम": 1172,
      "ध्ये": 1173,
      " प्राथमिकता दि": 1174,
      "कार्यक्रमहरु": 1175,
      "श्चित": 1176,
      "शेष": 1177,
      "षिक": 1178,
      "म्पन": 1179,
      " वैदेशिक": 1180,
      "फत": 1181,
      "र्ग": 1182,
      " गरे": 1183,
      " जनसंख्य": 1184,
      " मे.टन": 1185,
      "० प्रतिशत": 1186,
      " अस": 1187,
      "प्रति": 1188,
      "ा सम": 1189,
      "श्रम": 1190,
      " तर्जुमा ": 1191,
      "५३": 1192,
      "मा १": 1193,
      "ार्षिक": 1194,
      " अप": 1195,
      " समय": 1196,
      "ष्ट194्र": 1197,
      "त्वपूर्ण": 1198,
      "भूमि": 1199,
      "थियो। ": 1200,
      " रु.": 1201,
      "ंदै": 1202,
      "िँचाइ": 1203,
      "मा वृद्धि": 1204,
      "ानु": 1205,
      "रीक्षण": 1206,
      "रहेका ": 1207,
      " सम्पन्न": 1208,
      "लक्ष्य": 1209,
      "साय": 1210,
      " निकास": 1211,
      "ध्यमिक": 1212,
      "न्त्रालय": 1213,
      "बीच": 1214,
      "छन्। ": 1215,
      "दीर्घकालीन": 1216,
      "४९": 1217,
      "ा क": 1218,
      "को उत्पादन": 1219,
      "हरुको स": 1220,
      "ी ज": 1221,
      " अर्थ": 1222,
      "क्षिक": 1223,
      "राख": 1224,
      "विद्युत््": 1225,
      " गरिबी निवारण": 1226,
      "्री ५ ": 1227,
      "कत": 1228,
      "छ भने": 1229,
      "भल": 1230,
      "ैक्षिक": 1231,
      "्द": 1232,
      "ेती": 1233,
      " व्यापक": 1234,
      " जनस": 1235,
      "उपलव्ध": 1236,
      " गर्नुपर्ने": 1237,
      " खानेप": 1238,
      " ढ": 1239,
      "ठूल": 1240,
      "धान": 1241,
      "ी.": 1242,
      "मा ब": 1243,
      " प्रत्य": 1244,
      "स्थापन": 1245,
      " बचत": 1246,
      " विविध": 1247,
      " अनुरुप": 1248,
      " राज": 1249,
      " कि.मि.": 1250,
      "केको छैन": 1251,
      " पोषण": 1252,
      " न्यून": 1253,
      "भन्दा ": 1254,
      "मा उ": 1255,
      " तापनि": 1256,
      "छ। य": 1257,
      " बाल": 1258,
      "ुलुक": 1259,
      "को आवश्यक": 1260,
      "स्पत": 1261,
      " शिक्षा ": 1262,
      "आर्थिक": 1263,
      "१.": 1264,
      "्री": 1265,
      "हरुले": 1266,
      " मार्": 1267,
      " हो": 1268,
      " निर्धारण": 1269,
      " कार्यक्रमहरु सञ्चालन": 1270,
      " आयोजनाहरु": 1271,
      "ा गर्न": 1272,
      " ध्यान": 1273,
      "ावसाय": 1274,
      "्वास्थ्य": 1275,
      " गर्ने कार्य": 1276,
      "ता र": 1277,
      "्री ५ को सरकार": 1278,
      "ँदा ": 1279,
      "दर्श": 1280,
      "रन्तर": 1281,
      "सित": 1282,
      "्स": 1283,
      "ी म": 1284,
      "को आर्थिक": 1285,
      " विद्यमान": 1286,
      "स्पताल": 1287,
      "गैर": 1288,
      "हाल": 1289,
      " हाल": 1290,
      " सरकारी": 1291,
      ", म": 1292,
      "स्रो": 1293,
      "ारी": 1294,
      "ार्ह": 1295,
      "ासाय": 1296,
      " महिल": 1297,
      "ुदायिक": 1298,
      " वर्ग": 1299,
      " तर्फ": 1300,
      "विस्तार": 1301,
      "ेवा पु194र्‍य": 1302,
      "ितोपत्र": 1303,
      "ासायनिक": 1304,
      " सुरु": 1305,
      " पहाड": 1306,
      " औद्योगिक": 1307,
      " रुप": 1308,
      "णि": 1309,
      "लाप": 1310,
      " स्थल": 1311,
      " शहर": 1312,
      "ा सं": 1313,
      " बढी": 1314,
      "मुद्र": 1315,
      "ासायनिक मल": 1316,
      ",०००": 1317,
      "बन": 1318,
      "बै": 1319,
      "८.": 1320,
      " जिल्ल": 1321,
      "ाकृतिक": 1322,
      " अवधारण": 1323,
      " सुदृढीकरण": 1324,
      "णिज्य": 1325,
      "आवश्यक": 1326,
      "जाति": 1327,
      "भच": 1328,
      "४.": 1329,
      " सघ": 1330,
      " प्रवाह": 1331,
      "ाना ": 1332,
      "का आधार": 1333,
      " अभि": 1334,
      " आन्तरिक": 1335,
      " व्यवस्था गरिनेछ। \r\n": 1336,
      "कुल": 1337,
      "हित": 1338,
      "ेप": 1339,
      "्छ": 1340,
      "ारे": 1341,
      "ी न": 1342,
      "तिरिक": 1343,
      " क्षेत्रको": 1344,
      " भै": 1345,
      " बढाउन": 1346,
      "भूमिक": 1347,
      "तिरिक्त": 1348,
      "ोर": 1349,
      "नुका साथै": 1350,
      " निम्न": 1351,
      " गर्ने लक्ष्य": 1352,
      " पुन": 1353,
      " कृषि योजन": 1354,
      " किस": 1355,
      " सुरक्ष": 1356,
      "ावसायिक": 1357,
      " रुपमा स": 1358,
      "ोप": 1359,
      " सन्त": 1360,
      " गति": 1361,
      "िका ": 1362,
      " र ": 1363,
      " तथा प": 1364,
      "केन्द्र": 1365,
      "उपयुक्त": 1366,
      " प्रभावकारी": 1367,
      " घट": 1368,
      "छन ्": 1369,
      "ख्या": 1370,
      "दार्थ": 1371,
      "र्भ": 1372,
      " गरेको ": 1373,
      " आयात": 1374,
      "निर्यात": 1375,
      " प्राथमिकता ": 1376,
      "शिक्षण": 1377,
      "का अवसर": 1378,
      "फूल": 1379,
      "लित": 1380,
      "षध": 1381,
      "ुत": 1382,
      "४८": 1383,
      "५.": 1384,
      "५४": 1385,
      "कोण": 1386,
      " क्रिय": 1387,
      "निज": 1388,
      " अभिवृद्धि": 1389,
      " जोड दिइने": 1390,
      " निज": 1391,
      "ाकलाप": 1392,
      "्या195141न": 1393,
      "ान्तरण": 1394,
      " मा ": 1395,
      "धारित": 1396,
      "क्स": 1397,
      "ग्रामीण": 1398,
      " ऐन": 1399,
      "ताको": 1400,
      "दिने": 1401,
      "ा विकास": 1402,
      " गार्ह": 1403,
      " करि": 1404,
      " अधिक": 1405,
      "केट": 1406,
      "ोड दि": 1407,
      "एर": 1408,
      "पात": 1409,
      "ैज": 1410,
      "्ट": 1411,
      "६.": 1412,
      "र्गम": 1413,
      " काम": 1414,
      "हरुबाट": 1415,
      " विषय": 1416,
      " मु": 1417,
      "एको छ।": 1418,
      "स्तरीय": 1419,
      "वर्त": 1420,
      " गर्दै लगिने": 1421,
      " प्रोत्साहन": 1422,
      "करण": 1423,
      "छि": 1424,
      "जेट": 1425,
      "वर्ष": 1426,
      "ृति": 1427,
      " प्रमुख": 1428,
      "स्थल": 1429,
      "योजनाहरु": 1430,
      "ामाजिक": 1431,
      "िम वर्ष": 1432,
      "त्यस": 1433,
      "ाउँदै": 1434,
      "मा समेत": 1435,
      "बि": 1436,
      "सत": 1437,
      " कम्पन": 1438,
      " रोग": 1439,
      " अन्तर्राष्टि194्रय": 1440,
      " मन्त्रालय": 1441,
      " भौतिक": 1442,
      " नभ": 1443,
      "प्राथमिक": 1444,
      " अनुसार": 1445,
      "हरुको विकास": 1446,
      "मिन": 1447,
      "वेद": 1448,
      "खाद्य": 1449,
      ".व": 1450,
      "औद्योगिक": 1451,
      "गर्ने": 1452,
      "लम्व": 1453,
      "सफ": 1454,
      "ौग": 1455,
      " अघि": 1456,
      " बस्तु": 1457,
      " योजना अवधिमा ": 1458,
      "ाख": 1459,
      "ावेश": 1460,
      "म्म": 1461,
      "को अव": 1462,
      " सम्बन्धित": 1463,
      "महिल": 1464,
      "पनि": 1465,
      "भव": 1466,
      "मात्र": 1467,
      "रे": 1468,
      "को सम": 1469,
      " वा ": 1470,
      "को माध्यम": 1471,
      " अधिराज्य": 1472,
      "ेतन": 1473,
      " क्षेत्रको ": 1474,
      "ावश्यक": 1475,
      "ाटो": 1476,
      " विद्युत्": 1477,
      " गरिएको छ। ": 1478,
      "ंश": 1479,
      "ाब": 1480,
      "ीन": 1481,
      "्ले": 1482,
      "५०": 1483,
      " प्रगति": 1484,
      "का प": 1485,
      " विकासमा ": 1486,
      "न्नत": 1487,
      " सुविधा ": 1488,
      " सम्भावन": 1489,
      " गार्हस्थ्य": 1490,
      "टा ": 1491,
      "ी ख": 1492,
      "ल्लेख": 1493,
      "ुलनात्मक": 1494,
      " क्रमशः": 1495,
      " प्रतिस्पर्ध": 1496,
      ".व.": 1497,
      " थ": 1498,
      "कर्ष": 1499,
      "चभ": 1500,
      "७.": 1501,
      " पार्": 1502,
      " तथा मूल": 1503,
      "ायित्व": 1504,
      " खास": 1505,
      " राष्ट194्र": 1506,
      "ाइनेछ। ": 1507,
      " चाल": 1508,
      "ल्प": 1509,
      "ोलिक": 1510,
      " ब्यवस्थ": 1511,
      "्यांकन": 1512,
      "लम्वन": 1513,
      "यर": 1514,
      "ावाट": 1515,
      "द्यम": 1516,
      "लागू": 1517,
      "कार्यान्वयन": 1518,
      "र्मत": 1519,
      " त्यस": 1520,
      " खाद्यान्न": 1521,
      "ष्यल": 1522,
      "ग्ग": 1523,
      "त्तर": 1524,
      "बालिक": 1525,
      "साधन": 1526,
      "को स्थापन": 1527,
      " गरिबी": 1528,
      " आवश्यक पर्ने": 1529,
      "ृत्ति": 1530,
      "द्द": 1531,
      " व्यवसायिक": 1532,
      " दृष्टिगत": 1533,
      " विश्वविद्यालय": 1534,
      " बीउ": 1535,
      "स्कृतिक": 1536,
      ", द": 1537,
      "नीय": 1538,
      "वजन": 1539,
      "ाबाट": 1540,
      "ृष्ठ": 1541,
      "ेक्षित": 1542,
      "ा \r\n": 1543,
      " वार्षिक": 1544,
      "मा भ": 1545,
      "ी एवं": 1546,
      "ाउने,": 1547,
      ", च": 1548,
      "देखिन्": 1549,
      " राखि": 1550,
      "मा जोड दिइने": 1551,
      " पुग्ने": 1552,
      "काश": 1553,
      "न। ": 1554,
      "र्द्धन": 1555,
      " क्षेत्रको विकास": 1556,
      "एको छ। \r\n": 1557,
      " सम्म": 1558,
      " सहभागित": 1559,
      " किसिम": 1560,
      "गु": 1561,
      "दू": 1562,
      "पु": 1563,
      "ुक्त": 1564,
      "्म": 1565,
      "०.": 1566,
      " अन्त": 1567,
      " अवसर": 1568,
      " ज्ञ": 1569,
      " अनुदान": 1570,
      " सामुदायिक": 1571,
      "निम्ति": 1572,
      "ौगोलिक": 1573,
      ", र": 1574,
      "तः": 1575,
      "त्र": 1576,
      "बजार": 1577,
      "वा ": 1578,
      " सञ्च": 1579,
      " गर्ने नीति": 1580,
      " लैज": 1581,
      "को आपूर्ति": 1582,
      "ा अवधि": 1583,
      " सम्बन्धी": 1584,
      " बनाउन": 1585,
      "फलफूल": 1586,
      "मा संलग्न": 1587,
      " इ": 1588,
      " छ।": 1589,
      ", त": 1590,
      "जि": 1591,
      "लभ": 1592,
      " सक्षम": 1593,
      "न्मुख": 1594,
      "जन्य": 1595,
      " विभाग": 1596,
      " मौ": 1597,
      " क्षेत्रहरुमा ": 1598,
      " नगर": 1599,
      "अनुसन्धान": 1600,
      " संरचन": 1601,
      " उद्देश्यले": 1602,
      " ल्याउन": 1603,
      "निमय": 1604,
      "सफाइ": 1605,
      ":  ": 1606,
      "चय": 1607,
      "िछ": 1608,
      "मा ल्य": 1609,
      "ार्वजन": 1610,
      "स्तान्तरण": 1611,
      " भार": 1612,
      " लगान": 1613,
      " हुन नस": 1614,
      "ा प्रदान": 1615,
      " एकीकृत": 1616,
      "ालिका ": 1617,
      "मार्ग": 1618,
      "ार्वजनिक": 1619,
      "री ": 1620,
      "श्व": 1621,
      "्दो": 1622,
      " काठ": 1623,
      " प्रशोधन": 1624,
      " भई": 1625,
      "छन्। \r\n": 1626,
      " क्रियाकलाप": 1627,
      "्लेषण": 1628,
      "िछडि": 1629,
      "मै": 1630,
      "शहर": 1631,
      "िस": 1632,
      "ोट": 1633,
      " तथा अ": 1634,
      "को सहभागित": 1635,
      "को अभाव": 1636,
      "ताको ": 1637,
      " केन्द्रीय": 1638,
      "स्वास्थ्य": 1639,
      ", प": 1640,
      "मौ": 1641,
      "को सं": 1642,
      " र त": 1643,
      " नयाँ": 1644,
      " संघ": 1645,
      "ता अ": 1646,
      " परिष": 1647,
      " माध्यमिक": 1648,
      " छ। \r\n": 1649,
      "हार": 1650,
      "हयोग": 1651,
      "ह194रू": 1652,
      " कुर": 1653,
      "।  \r\n": 1654,
      " गर्द": 1655,
      " विनिमय": 1656,
      " क्षेत्रका ": 1657,
      "मा सरकार": 1658,
      " आवश्यकता ": 1659,
      "मा पनि": 1660,
      " पर्यटक": 1661,
      " भूमिक": 1662,
      " नियम": 1663,
      " मानव": 1664,
      " राजस्व": 1665,
      "पक्ष": 1666,
      "मध्ये": 1667,
      "हन": 1668,
      "ा195ङ्ध": 1669,
      "ौट": 1670,
      " प्रशिक्षण": 1671,
      "जनसंख्य": 1672,
      " कार्यालय": 1673,
      "ष्अ": 1674,
      "ामित्व": 1675,
      "ुल्य": 1676,
      "ेवा ": 1677,
      "त्यावश्यक": 1678,
      "संग": 1679,
      " प्रभावकारी बन": 1680,
      " वातावरणीय": 1681,
      " भूमि": 1682,
      " गैरसरकारी": 1683,
      "वातावरण": 1684,
      "शाल": 1685,
      "ाधारण": 1686,
      "ीहरुलाई": 1687,
      " गठन": 1688,
      " कु": 1689,
      "ालो": 1690,
      " प्रव": 1691,
      " प्राकृतिक": 1692,
      "ागरिक": 1693,
      " संस्थाहरुलाई": 1694,
      "वेक्षण": 1695,
      "ाठ्य": 1696,
      " दृष्टिकोण": 1697,
      "खानेप": 1698,
      " सरल": 1699,
      "चालित": 1700,
      "जल": 1701,
      " सक्ने": 1702,
      "मा राख": 1703,
      "ाउनु": 1704,
      "ातृ": 1705,
      " जी": 1706,
      "कारण": 1707,
      "म्मा ": 1708,
      "ाथि": 1709,
      " शैक्षिक": 1710,
      " अवधिमा ": 1711,
      "ुलनामा ": 1712,
      " सम्पद": 1713,
      " रहेकोमा ": 1714,
      "्पष्ट": 1715,
      "शासन": 1716,
      "ृष्ठभूमि": 1717,
      "निकास": 1718,
      "वस्तु": 1719,
      "ीप": 1720,
      " प्रचार": 1721,
      " कार्यलाई": 1722,
      " दक्ष": 1723,
      " विकासका लागि": 1724,
      " संसाधन": 1725,
      " आयोजना ": 1726,
      " पुगेको ": 1727,
      "र्मचार": 1728,
      "भअ": 1729,
      "ा ख": 1730,
      " आफ": 1731,
      " कार्यमा ": 1732,
      "कारात्मक": 1733,
      " गर्न र": 1734,
      "माड": 1735,
      " परिप": 1736,
      "ा गरि": 1737,
      "ेरोजगार": 1738,
      " पुँजी": 1739,
      " गार्हस्थ्य उत्पादन": 1740,
      ", व": 1741,
      ", कृषि": 1742,
      "उन": 1743,
      "बल": 1744,
      "यस्ता ": 1745,
      "को र": 1746,
      " अपन": 1747,
      " आर्जन": 1748,
      "द्धति": 1749,
      "मा सञ्चालन": 1750,
      "एको छ। यस": 1751,
      "म्बन्ध": 1752,
      "ञ्चल": 1753,
      "न्दर्भ": 1754,
      "ाह्य": 1755,
      " जनालाई": 1756,
      " महिला": 1757,
      " स्वास्थ्य सेव": 1758,
      ".व. २०": 1759,
      "खाद": 1760,
      "घर": 1761,
      "्ल": 1762,
      "को व्यवस्था ": 1763,
      " पूर": 1764,
      " विगत": 1765,
      " दर": 1766,
      " विकासको ": 1767,
      " हुनु": 1768,
      " खेती": 1769,
      " स्वदेश": 1770,
      " सहकारी": 1771,
      "वर्ग": 1772,
      " स्थानीय निकाय": 1773,
      " पूर्ण": 1774,
      "वेल": 1775,
      " प्राथमिकता दिइने": 1776,
      "गैरसरकार": 1777,
      ", ब": 1778,
      "जिल्ला": 1779,
      "२ प्रतिशत": 1780,
      "को च": 1781,
      "निश्चित": 1782,
      "का विभिन्न": 1783,
      "ीकर्त": 1784,
      " सहाय": 1785,
      "195141लन": 1786,
      "का अतिरिक्त": 1787,
      "जीवन": 1788,
      "ठूलो": 1789,
      " भारत": 1790,
      "पालिक": 1791,
      "भोग": 1792,
      " रकम": 1793,
      "क्षर": 1794,
      "ता ल्य": 1795,
      "न्यून": 1796,
      "संख्या": 1797,
      ":  \r\n": 1798,
      " पु194र्‍याउन": 1799,
      " गराइनेछ। \r\n": 1800,
      "      ": 1801,
      " भएकोले": 1802,
      "चेतन": 1803,
      "भौतिक": 1804,
      " गाउँ": 1805,
      "जनशक्ति": 1806,
      " व्यक्ति": 1807,
      "रिद": 1808,
      "म्भ": 1809,
      "को सि": 1810,
      "दै ग": 1811,
      " बढी ": 1812,
      " विश्लेषण": 1813,
      " लिइ": 1814,
      " वाणिज्य": 1815,
      " रुपले": 1816,
      "िछडिएका ": 1817,
      "च्छ": 1818,
      "वाई": 1819,
      "ीहरुको": 1820,
      "ुचित": 1821,
      "ोवार": 1822,
      "ा एवं": 1823,
      " सकि": 1824,
      "मा र": 1825,
      " अस्पताल": 1826,
      " समावेश": 1827,
      " माग": 1828,
      " तथा अन्य": 1829,
      "एको छैन": 1830,
      "्याके": 1831,
      " निजी क्षेत्रलाई": 1832,
      "ेलु": 1833,
      "वर्तन": 1834,
      ") ": 1835,
      "उने": 1836,
      "झै": 1837,
      "पुर": 1838,
      "ष्त": 1839,
      "ृह": 1840,
      "ेन्": 1841,
      "ेक्ष": 1842,
      " गराइ": 1843,
      "वि.": 1844,
      "ाहरुको": 1845,
      " गरिएका ": 1846,
      "ा सु": 1847,
      "त्यस्तै": 1848,
      "रहेको": 1849,
      "को प्रयोग": 1850,
      "महिला": 1851,
      "म्पर": 1852,
      "को माग": 1853,
      "भलत": 1854,
      " योगदान": 1855,
      "रक्षण": 1856,
      "ही ": 1857,
      "िकित": 1858,
      "को ख": 1859,
      "को उपयोग": 1860,
      " तर": 1861,
      " आवद्ध": 1862,
      " क्षेत्रलाई": 1863,
      " भवन": 1864,
      " तथा म": 1865,
      "ापित": 1866,
      "को अधिक": 1867,
      "ी क्षेत्रमा ": 1868,
      " नीति तथा ": 1869,
      "ा प्रण": 1870,
      "बढी": 1871,
      " ब्यापार": 1872,
      " नवौं योजनामा ": 1873,
      " निकासी": 1874,
      "को आवश्यकता ": 1875,
      "िकित्स": 1876,
      " यो": 1877,
      "गावाट": 1878,
      "तथ": 1879,
      " कार्यहरु": 1880,
      " द्द": 1881,
      "विदेश": 1882,
      " संक": 1883,
      "को साथै": 1884,
      "स्तरमा ": 1885,
      "ता,": 1886,
      "मा आधारित": 1887,
      "द्रिक": 1888,
      " रहने": 1889,
      " धितोपत्र": 1890,
      " तथ्या195141": 1891,
      " खानेपानी": 1892,
      "ए तापनि": 1893,
      "रो": 1894,
      "लो": 1895,
      "ाँच": 1896,
      "को निर्माण": 1897,
      " रासायनिक मल": 1898,
      "ानी तथा ": 1899,
      " भन्": 1900,
      " जि": 1901,
      " श्री ५ को सरकार": 1902,
      "ाइनेछ।": 1903,
      " रहेका ": 1904,
      " महत्वपूर्ण": 1905,
      " छन्": 1906,
      " नियमित": 1907,
      " मेगावाट": 1908,
      " लागत": 1909,
      "वित्तीय": 1910,
      "खास": 1911,
      "दी": 1912,
      "ल्या": 1913,
      "शक्त": 1914,
      "ोषण": 1915,
      "को नि": 1916,
      " नागरिक": 1917,
      " व्यावसायिक": 1918,
      " निरन्तर": 1919,
      "ुल्क": 1920,
      "योग्य": 1921,
      " गरिएको": 1922,
      "दिन": 1923,
      " दिन": 1924,
      " दिगो": 1925,
      "ी बजार": 1926,
      " पूर्व": 1927,
      " स्तरमा ": 1928,
      " लिइने": 1929,
      " प्रत्येक": 1930,
      ".वि.": 1931,
      "उद्देश्य": 1932,
      "कूल": 1933,
      "टेवा पु194र्‍य": 1934,
      "त्त": 1935,
      "स्रोत": 1936,
      "ैंच": 1937,
      " स्य": 1938,
      " र अन्य": 1939,
      " जमिन": 1940,
      " व्यवस्थित": 1941,
      "मार्फत": 1942,
      "ा तयार": 1943,
      "व्यवस्थापन": 1944,
      " विदेशी मुद्र": 1945,
      " अर्थतन्त्र": 1946,
      "स्रो वर्ष": 1947,
      " करिव": 1948,
      " ठ": 1949,
      "काले": 1950,
      "घाउ": 1951,
      "बाली": 1952,
      "९.": 1953,
      "ान्तर": 1954,
      " बृद्धि": 1955,
      " मुलुक": 1956,
      " विकासका ": 1957,
      "द्धार": 1958,
      "ीक्षेत्र": 1959,
      " परिमाण": 1960,
      "उपचार": 1961,
      ", ध": 1962,
      "हुनु": 1963,
      "नवौं योजनामा ": 1964,
      "नियमित": 1965,
      "ज्ञानिक": 1966,
      "ुलनात्मक लाभ": 1967,
      "आय": 1968,
      "ढढ": 1969,
      "तह": 1970,
      "ब ": 1971,
      "सके": 1972,
      "ाच": 1973,
      "ा बढ": 1974,
      " सान": 1975,
      "को स्थिति": 1976,
      "हरुमा स": 1977,
      " बै": 1978,
      "विशेष": 1979,
      " गर्न आवश्यक": 1980,
      "छ। यसै": 1981,
      "ुनिक": 1982,
      " प्राथमिकता": 1983,
      "ाडि": 1984,
      "्याकेज": 1985,
      "इन": 1986,
      "बच": 1987,
      "सकेको ": 1988,
      "हाय": 1989,
      "४ प्रतिशत": 1990,
      " पृष्ठभूमि": 1991,
      " पद्धति": 1992,
      " क्य": 1993,
      "को भूमिक": 1994,
      " तुल्य": 1995,
      " अन्तर": 1996,
      " जस्त": 1997,
      "ष्टिगत": 1998,
      "ाको विकास": 1999,
      "संस्थ": 2000,
      " राख्न": 2001,
      " हे.": 2002,
      " हुन सकेको छैन": 2003,
      "सम्बन्धी": 2004,
      "195र्‍ारा ": 2005,
      " सर्वस": 2006,
      " जनसंख्या ": 2007,
      "म्मेव": 2008,
      "गद": 2009,
      "दक्ष": 2010,
      "यी": 2011,
      "ेड": 2012,
      "५२": 2013,
      " र स": 2014,
      " उन्नत": 2015,
      "लाई अ": 2016,
      "स्तृत": 2017,
      " स्थिर": 2018,
      " पुर": 2019,
      " हुने अनुमान": 2020,
      "ुनौ": 2021,
      " घर": 2022,
      " औषध": 2023,
      " आधारभूत": 2024,
      " दीर्घकालीन कृषि योजन": 2025,
      " पुँजी ": 2026,
      "भारत": 2027,
      "काशन": 2028,
      "या ": 2029,
      "शि": 2030,
      "१ प्रतिशत": 2031,
      "ा गर": 2032,
      " हस्तान्तरण": 2033,
      "ुलिय": 2034,
      " खुल": 2035,
      "स्प": 2036,
      "मा कम": 2037,
      " औसत": 2038,
      " अनुगमन तथा मूल": 2039,
      " हासिल गर्न": 2040,
      " लागू": 2041,
      " प्रतिस्पर्धात्मक": 2042,
      " लैजाने": 2043,
      " परिषद्": 2044,
      " :  ": 2045,
      "झौ": 2046,
      "लम्": 2047,
      "९ प्रतिशत": 2048,
      " सक्रिय": 2049,
      " गरेर": 2050,
      " क्षेत्रगत": 2051,
      "क्षेप": 2052,
      " हुन्": 2053,
      " जनतालाई": 2054,
      "मानस्थल": 2055,
      "ुनै": 2056,
      "ाकाल": 2057,
      "मा आवश्यक": 2058,
      " विदेशी": 2059,
      "म्वन्ध": 2060,
      " बीच": 2061,
      "गरिब": 2062,
      "म्परागत": 2063,
      "काल": 2064,
      "खभ": 2065,
      "ञ्": 2066,
      "देख": 2067,
      "नो": 2068,
      "नगर": 2069,
      "बद्ध": 2070,
      "व्र": 2071,
      "स.": 2072,
      "हरी": 2073,
      "ुख": 2074,
      " सन्": 2075,
      " पकेट": 2076,
      "ारक": 2077,
      "जनजाति": 2078,
      " जरु": 2079,
      "ष्ल": 2080,
      " लक्षित": 2081,
      " हुँदा ": 2082,
      " सम्पूर्ण": 2083,
      "मुदाय": 2084,
      " नीतिगत": 2085,
      "विद्युत्": 2086,
      " घाट": 2087,
      "दृष्टि": 2088,
      "महत्वपूर्ण": 2089,
      "र्तमान": 2090,
      "ाठ्यक्रम": 2091,
      "माडौं": 2092,
      " छ। यस": 2093,
      "तालिका ": 2094,
      "पछि": 2095,
      "सि": 2096,
      "ा, ": 2097,
      "७ प्रतिशत": 2098,
      "्रि": 2099,
      " पाइ": 2100,
      " प्रजन": 2101,
      "ी उत्पादन": 2102,
      "योजना अवधिमा ": 2103,
      " विकास समिति": 2104,
      "त्पादित": 2105,
      "ाउने र": 2106,
      "भाव्य": 2107,
      " कृषि उत्पादन": 2108,
      " आर्थिक वृद्धिदर": 2109,
      " सरकारी क्षेत्र": 2110,
      "विद्यमान": 2111,
      "क्षेत्रमा ": 2112,
      "एकीकृत": 2113,
      " गर्न सकिने": 2114,
      " प्रतिशतले बढ": 2115,
      " कोष": 2116,
      " सम्वन्धित": 2117,
      " जनसहभागित": 2118,
      "दर्शन": 2119,
      " जीवन": 2120,
      "ामा स": 2121,
      "िट": 2122,
      "ीच": 2123,
      " साल": 2124,
      " सकिने": 2125,
      "्यो": 2126,
      "निव": 2127,
      "जनस": 2128,
      "यो। ": 2129,
      "का प्र": 2130,
      " असर": 2131,
      " आकर्ष": 2132,
      " बजेट": 2133,
      " निक": 2134,
      " जड": 2135,
      "ञ्चार": 2136,
      "ाह194रू": 2137,
      "मानव": 2138,
      " केही": 2139,
      "ा परि": 2140,
      " शिक्षक": 2141,
      " सामान": 2142,
      "व्यवसाय": 2143,
      " पहिलो": 2144,
      "मा कुल": 2145,
      " सीमित": 2146,
      "दुर्गम": 2147,
      "को माध्यमबाट": 2148,
      "जात": 2149,
      "दम": 2150,
      "धुनिक": 2151,
      "ीक्ष": 2152,
      "ुद": 2153,
      "र्दा ": 2154,
      " कच्च": 2155,
      "ारम्भ": 2156,
      "ानी ": 2157,
      " सम्भार": 2158,
      "दिगो": 2159,
      "क्नु": 2160,
      "ा पनि": 2161,
      " प्रणालीलाई": 2162,
      "मित्त": 2163,
      " कारोवार": 2164,
      "को तुलनामा ": 2165,
      " मार्फत": 2166,
      "दण्ड": 2167,
      "सो": 2168,
      "ुव": 2169,
      "२५": 2170,
      " परीक्षण": 2171,
      "का क": 2172,
      " उनी": 2173,
      " उद्यम": 2174,
      " हट": 2175,
      " विकास र": 2176,
      " गरिनेछ र": 2177,
      "मा सिँचाइ": 2178,
      " प्रतिफल": 2179,
      "हुँदा ": 2180,
      "क्षेत्रीय": 2181,
      " राख्ने": 2182,
      " अवलम्वन": 2183,
      " गर्नुका साथै": 2184,
      "मा कृषि": 2185,
      "ण्डार": 2186,
      "रोजगारी": 2187,
      " सामग्री": 2188,
      " प्रत्यक्ष": 2189,
      "णनीति": 2190,
      "सेव": 2191,
      "ेन्द्र": 2192,
      "ेयर": 2193,
      "्रय": 2194,
      " सार्वजनिक": 2195,
      "को गुणस्तर": 2196,
      " पै": 2197,
      " पश्च": 2198,
      " वर्तमान": 2199,
      " ती": 2200,
      "स्थिति": 2201,
      "योजना ": 2202,
      " संख्य": 2203,
      " ज्य": 2204,
      " जान": 2205,
      " कार्यक्रमहरुलाई": 2206,
      " कार्यक्रम संचालन": 2207,
      " स्थायित्व": 2208,
      "भावकार": 2209,
      " कृषि अनुसन्धान": 2210,
      " विद्युत": 2211,
      " सां": 2212,
      "देखिन्छ। ": 2213,
      " यथ": 2214,
      " यस्ता ": 2215,
      " ग्रामीण क्षेत्रमा ": 2216,
      "ष्ठान": 2217,
      " प्रक्रियालाई": 2218,
      "विकसित": 2219,
      " अर्ब": 2220,
      " व्यवस्था मिलाइनेछ। \r\n": 2221,
      " ध्यानमा राख": 2222,
      "खाद्यान्न": 2223,
      "निकासी": 2224,
      "निवार्य": 2225,
      "गाडि": 2226,
      "ट्ट": 2227,
      "बर्द्धन": 2228,
      "सु": 2229,
      "ोख": 2230,
      "३ प्रतिशत": 2231,
      "र्व": 2232,
      "मा यस": 2233,
      "को ज": 2234,
      " भौगोलिक": 2235,
      " कार्यक्रम \r\n": 2236,
      "ता प्र": 2237,
      " गरी ज": 2238,
      "केा ": 2239,
      "ेखाम": 2240,
      "मुख्य": 2241,
      " चरण": 2242,
      " चुनौ": 2243,
      "हरुको उत्पादन": 2244,
      "ा प्रवाह": 2245,
      "मा परि": 2246,
      " निकायहरु": 2247,
      "ाको अन्त्य": 2248,
      "्मारक": 2249,
      "ता अध्ययन": 2250,
      "जनसंख्या ": 2251,
      "को अधिकतम": 2252,
      "ल्याण": 2253,
      " ८": 2254,
      "आन्तरिक": 2255,
      "ऊर्ज": 2256,
      "कर्त": 2257,
      "गच": 2258,
      "घन": 2259,
      "नयाँ": 2260,
      "पर्य": 2261,
      "सुल": 2262,
      "ीत": 2263,
      " सके": 2264,
      "को कम": 2265,
      " कदम": 2266,
      " विस्तृत": 2267,
      " क्षेत्रबाट": 2268,
      " तथा उप": 2269,
      "ष्लन": 2270,
      " नियोजन": 2271,
      "ाम्रो": 2272,
      "ुलित": 2273,
      "हेक": 2274,
      "का लागि आवश्यक": 2275,
      "अनुदान": 2276,
      " गरिनेछ। साथै": 2277,
      " सुविधा पु194र्‍य": 2278,
      " गर्न सकि": 2279,
      " रहन": 2280,
      "ाको अन्तिम वर्ष": 2281,
      " बालबालिक": 2282,
      " मार्ग": 2283,
      " सन्तुलन": 2284,
      "िका लागि": 2285,
      "वेदन": 2286,
      "को अवधारण": 2287,
      "लम्बन": 2288,
      "यच": 2289,
      "यल": 2290,
      "श्री ५ को सरकार": 2291,
      "ैविक": 2292,
      "१०": 2293,
      "ा न": 2294,
      "्रास": 2295,
      " पिछडिएका ": 2296,
      "निम्न": 2297,
      "का निम्ति": 2298,
      " अत्यावश्यक": 2299,
      " आवास": 2300,
      " समीक्ष": 2301,
      " विव": 2302,
      "ावधि": 2303,
      " विकास बैंक": 2304,
      " सुलभ": 2305,
      " खरिद": 2306,
      " उपकरण": 2307,
      "ा सञ्चालन": 2308,
      " सञ्चालन गरिने": 2309,
      "का साथ": 2310,
      " प्रणाली ": 2311,
      " सम्बन्धी ": 2312,
      " क्रममा ": 2313,
      " जिल्लामा ": 2314,
      "वासी तथा ": 2315,
      "व्यवस्थित": 2316,
      "बतष्यल": 2317,
      " कानुनी": 2318,
      "दूषण": 2319,
      " परिपाट": 2320,
      "ुलियत": 2321,
      "कै": 2322,
      "गर्न": 2323,
      "भम": 2324,
      " सबै": 2325,
      " कर्मचार": 2326,
      "तिप": 2327,
      "लाई दृष्टिगत": 2328,
      "योजनावधिमा ": 2329,
      " प्रतिष्ठान": 2330,
      "ञ्चित": 2331,
      " उपभोग": 2332,
      "राज": 2333,
      "पत्ति": 2334,
      " भएको छ। ": 2335,
      "बढी ": 2336,
      "नीतिगत": 2337,
      " गराइनेछ। ": 2338,
      "मार्जन": 2339,
      "     ": 2340,
      " दीर्घकालीन अवधारण": 2341,
      " प्रोत्साहित गरिनेछ। \r\n": 2342,
      "नियन्त्रण": 2343,
      " उत्पादकत्व वृद्धि": 2344,
      " कर्जा ": 2345,
      "ल्लेखनीय": 2346,
      " प्रचार प्रसार": 2347,
      " सांस्कृतिक": 2348,
      "कर": 2349,
      "ूच": 2350,
      "्ा": 2351,
      "र्वेद": 2352,
      " पानी": 2353,
      " उत्प": 2354,
      " द्ध": 2355,
      "ापदण्ड": 2356,
      " जोड दि": 2357,
      " निश्चित": 2358,
      " गर्नेतर्फ": 2359,
      "को स्तर": 2360,
      "्नात": 2361,
      "को आय": 2362,
      "कार्यनीति": 2363,
      "ृत्यु": 2364,
      "हुँच": 2365,
      "युर्वेद": 2366,
      " हुनसक्ने": 2367,
      "एकोले": 2368,
      " गरिएको छ। \r\n": 2369,
      " देखिन्": 2370,
      " प्रयोगशाल": 2371,
      "का अवसरहरु": 2372,
      " पार्ने": 2373,
      " भन्ने": 2374,
      "म्मेवार": 2375,
      ", न": 2376,
      "घाट": 2377,
      "बृद्धि": 2378,
      "भक": 2379,
      "यस्तो": 2380,
      "लक्षित": 2381,
      "हक": 2382,
      "ा गरी": 2383,
      "कोप": 2384,
      " वट": 2385,
      "मा निजी क्षेत्र": 2386,
      " बाट": 2387,
      " जोड": 2388,
      " हुँ": 2389,
      " परिप्र": 2390,
      "को अंश": 2391,
      "अनुगमन": 2392,
      "लगायत": 2393,
      " चौ": 2394,
      " साधारण": 2395,
      "को रुपमा विकास": 2396,
      "र्जुमा": 2397,
      " वैज्ञानिक": 2398,
      " प्राप्त हुने": 2399,
      "ांश": 2400,
      "ा तर्जुमा ": 2401,
      " प्रसारण": 2402,
      " प्रतिस्पर्द्ध": 2403,
      " सघन": 2404,
      "निजीकरण": 2405,
      " पर्यटकीय": 2406,
      "तिपय": 2407,
      " रु": 2408,
      "उत्पादकत्व": 2409,
      "कास": 2410,
      "पालन": 2411,
      "बाल": 2412,
      "श्र": 2413,
      "शुल्क": 2414,
      "ाधिक": 2415,
      "ूचन": 2416,
      "ेको": 2417,
      "६ प्रतिशत": 2418,
      "र्ण": 2419,
      "कोष": 2420,
      " पाउने": 2421,
      " पदार्थ": 2422,
      " प्रशासन": 2423,
      " समेट": 2424,
      " देख": 2425,
      "पूर्वाधार": 2426,
      " शिक्षाको": 2427,
      " वित्त": 2428,
      " पर्याप्त": 2429,
      "बीउ": 2430,
      " व्यवस्था गरिनेछ। ": 2431,
      "मा विशेष": 2432,
      " विकेन्द्र": 2433,
      " माध्यम": 2434,
      "न्दर्भमा ": 2435,
      "जी बजार": 2436,
      "ट194्र": 2437,
      "थो": 2438,
      "ध्": 2439,
      "ब्": 2440,
      "हने": 2441,
      "ाका लागि": 2442,
      "ेसम": 2443,
      " स195141लन": 2444,
      "को संरक्षण": 2445,
      "को कारण": 2446,
      " गो": 2447,
      " किलो": 2448,
      " वटा ": 2449,
      "िक्री": 2450,
      " प्रदूषण": 2451,
      "ी त": 2452,
      "194ट्ट": 2453,
      "्रमुख": 2454,
      " हवाई": 2455,
      " दू": 2456,
      " जग्ग": 2457,
      "न्तुलन": 2458,
      "194ङ्ग देश": 2459,
      "ाहरुको ": 2460,
      " खाल": 2461,
      " खात": 2462,
      " चाह": 2463,
      " लगायत": 2464,
      " हुन ग": 2465,
      "संरक्षण": 2466,
      " स्थापना गर्ने": 2467,
      " ट194्र": 2468,
      "परिचालन": 2469,
      " दुर्गम": 2470,
      " सुरक्षित": 2471,
      "ा गरिनेछ। \r\n": 2472,
      " पुनर्": 2473,
      "ा प्रणाली": 2474,
      "ानी तथा सर": 2475,
      "कु": 2476,
      "घट": 2477,
      "ठित": 2478,
      "रोग": 2479,
      "ुग": 2480,
      "ुरु": 2481,
      "ुनि": 2482,
      "ा अनुरुप": 2483,
      "को वृद्धिदर": 2484,
      " पर्न": 2485,
      " र व": 2486,
      "स्थित": 2487,
      " बहु": 2488,
      " विमानस्थल": 2489,
      "स्तक": 2490,
      " मध्य": 2491,
      " दलित": 2492,
      " तथा क": 2493,
      " विकास,": 2494,
      " कार्यक्रममा ": 2495,
      "ाम्प": 2496,
      " अनुकूल": 2497,
      " परिवर्तन": 2498,
      " सञ्चालन गरिनेछ। \r\n": 2499,
      " बढाउने": 2500,
      " चिकित्स": 2501,
      " यी": 2502,
      "बढ्दो": 2503,
      " बनाई": 2504,
      " ४.": 2505,
      "लगानीकर्त": 2506,
      " अवस्थामा ": 2507,
      "को उत्पादकत्व": 2508,
      "ानुसार": 2509,
      "ा कृषक": 2510,
      " निजीकरण": 2511,
      "गुण": 2512,
      " नगरपालिक": 2513,
      "वासी तथा जनजाति": 2514,
      ", भ": 2515,
      "अप": 2516,
      "त्यक": 2517,
      "पन्न": 2518,
      "सान": 2519,
      "ेद": 2520,
      "ेका ": 2521,
      "८ प्रतिशत": 2522,
      "र्ता ": 2523,
      " स194ङ": 2524,
      " पालन": 2525,
      " प्याकेज": 2526,
      "मा व": 2527,
      "मा ह": 2528,
      " तरकार": 2529,
      "निरन्तर": 2530,
      " क्षेत्रहरु": 2531,
      " विकासको": 2532,
      "विश्व": 2533,
      " कार्यक्रमअन्तर्गत": 2534,
      "एको थियो। ": 2535,
      "केही": 2536,
      " जनता": 2537,
      " राष्टि": 2538,
      "वर्त्य": 2539,
      "निर्भर": 2540,
      " कमज": 2541,
      "चारिक": 2542,
      " मूल्या195141न": 2543,
      " एकाइ": 2544,
      "ेरित": 2545,
      " भूउपयोग": 2546,
      "मा प्राथमिक": 2547,
      " परम्परागत": 2548,
      " शहरी क्षेत्र": 2549,
      "का आधारमा ": 2550,
      " मुख्य": 2551,
      " चालू": 2552,
      "को सिर्जन": 2553,
      "ेखामुनि": 2554,
      "यान": 2555,
      "लोक": 2556,
      "ाफ": 2557,
      "ुह": 2558,
      "१८": 2559,
      "६०": 2560,
      " स्पष्ट": 2561,
      "को कुल": 2562,
      "को रुपमा स": 2563,
      " प्रच": 2564,
      " प्रकार": 2565,
      " रणनीति": 2566,
      "लाधार": 2567,
      " उदार": 2568,
      "िनेछ। \r\n": 2569,
      " समष्टिगत": 2570,
      "ावधान": 2571,
      "ादै": 2572,
      "माञ्चल": 2573,
      "को अन्त": 2574,
      " गरी आ": 2575,
      " गरिए": 2576,
      "उपभोक्त": 2577,
      "्नो": 2578,
      "नेपाली": 2579,
      " सहकार": 2580,
      " शिक्षा,": 2581,
      " घढढ": 2582,
      " वातावरण संरक्षण": 2583,
      "को प्रमुख": 2584,
      " क्रमिक": 2585,
      " विकसित": 2586,
      "को अनुगमन": 2587,
      "सम्बन्धी ": 2588,
      " कम्पनी": 2589,
      "न्यूनतम": 2590,
      " वाणिज्य बैंक": 2591,
      "क्षेपण": 2592,
      " परिप्रे": 2593,
      " डि": 2594,
      ", सामाजिक": 2595,
      "गठन": 2596,
      "पयोग": 2597,
      "ब्य": 2598,
      "बवेल": 2599,
      "रत": 2600,
      "लम": 2601,
      "शैक्षिक": 2602,
      "शाख": 2603,
      "सिय": 2604,
      "ृध्": 2605,
      " सवार": 2606,
      " पर्": 2607,
      " कुनै": 2608,
      " कल्याण": 2609,
      "मा हुने": 2610,
      " र यस": 2611,
      "ासिक": 2612,
      " आ.व. २०": 2613,
      " बेरोजगार": 2614,
      "ावट": 2615,
      "द्धान्त": 2616,
      "ातर्फ": 2617,
      "ले गर्दा ": 2618,
      "ामी ": 2619,
      "मा सघाउ": 2620,
      "ता बढ": 2621,
      " योजना ": 2622,
      " उपचार": 2623,
      "को स्व": 2624,
      " परिमार्जन": 2625,
      "दैन": 2626,
      "्न ग": 2627,
      " सेवालाई": 2628,
      " केह": 2629,
      "भागी": 2630,
      " कार्यक्रमहरु \r\n": 2631,
      "छन्।": 2632,
      "ी निय": 2633,
      "ता दिइने": 2634,
      " समन्वयात्मक": 2635,
      " पोख": 2636,
      " आठौं योजनाको": 2637,
      " माछ": 2638,
      "को अनुपात": 2639,
      " अधिकार": 2640,
      " काठमाडौं": 2641,
      " कदम चाल": 2642,
      " विवरण": 2643,
      "ानी तथा सरसफाइ": 2644,
      " परिप्रेक्ष्य": 2645,
      "ृध्दि": 2646,
      " फलफूल": 2647,
      "अघि": 2648,
      "अधिराज्य": 2649,
      "औषध": 2650,
      "खर्च": 2651,
      "दस्य": 2652,
      "राव": 2653,
      "ामा सुधार": 2654,
      "िए": 2655,
      "ैले": 2656,
      "१५": 2657,
      "ा लागि": 2658,
      "ा गरी ": 2659,
      "को कार्यान्वयन": 2660,
      "को परिचालन": 2661,
      "ी हुने": 2662,
      "ास्त": 2663,
      "का कारण": 2664,
      "तिर": 2665,
      " क्षेत्रफल": 2666,
      " भण्डार": 2667,
      " विकास तथा ": 2668,
      "लागत": 2669,
      "बाट हुने": 2670,
      " एव": 2671,
      "ूलक": 2672,
      "माध्यमिक": 2673,
      " गरिव": 2674,
      " कृषि वस्तु": 2675,
      "क्क": 2676,
      "ाइनेछ। यस": 2677,
      "का सं": 2678,
      "का सम्": 2679,
      " सेवाहरु": 2680,
      " भएकाले": 2681,
      " स्थानीय विकास": 2682,
      " गुरु": 2683,
      " क्षमतामा ": 2684,
      " रहेको छ। ": 2685,
      " पशुपक्ष": 2686,
      " हुन सके": 2687,
      "ातिर": 2688,
      "ा समूह": 2689,
      " अपा195ङ्ध": 2690,
      " न्यूनतम": 2691,
      " सघाउ": 2692,
      " गतिविधि": 2693,
      "स्पति": 2694,
      "ैविक विविध": 2695,
      ", ज": 2696,
      "अय": 2697,
      "क्र": 2698,
      "कल्प": 2699,
      "खान": 2700,
      "जु": 2701,
      "त्या": 2702,
      "पह": 2703,
      "मेर": 2704,
      "माथि": 2705,
      " सवै": 2706,
      "को भ": 2707,
      " र कृषि": 2708,
      " अति": 2709,
      " उन्मुख": 2710,
      "स्ताव": 2711,
      "ामान": 2712,
      "रुपले": 2713,
      " व्यवस्थालाई": 2714,
      " योजनावधिमा ": 2715,
      " शि": 2716,
      "को अध्ययन": 2717,
      " सेवाको": 2718,
      " १.": 2719,
      " सरकारी ": 2720,
      " सरकारले": 2721,
      "ा गर्": 2722,
      "ाँक": 2723,
      " बनाउने": 2724,
      "मा जोड दि": 2725,
      " कार्यक्रम सञ्चालन गरिनेछ। \r\n": 2726,
      "ायत्त": 2727,
      "छनौट": 2728,
      "वितरण": 2729,
      " गरेका ": 2730,
      " सुविधा उपलब्ध": 2731,
      "एको छैन। \r\n": 2732,
      "विदेशी ": 2733,
      "ञ्ज": 2734,
      "कल्पिक": 2735,
      "चाल": 2736,
      "तस": 2737,
      "निकाय": 2738,
      "ाएर": 2739,
      "िण": 2740,
      "ेष्ठ": 2741,
      "्दै ग": 2742,
      "१३": 2743,
      "६नो": 2744,
      "को कार्य": 2745,
      "को विस्तार": 2746,
      "मा मात्र": 2747,
      "मा टेवा पु194र्‍य": 2748,
      "हरुका लागि": 2749,
      "ार्म": 2750,
      "ित हुने": 2751,
      "न्स": 2752,
      " उठ": 2753,
      " विकासको लागि": 2754,
      " गर्ने उद्देश्यले": 2755,
      "मा सह": 2756,
      " एउ": 2757,
      " खेत": 2758,
      "को आयात": 2759,
      "त्यक्ष": 2760,
      " महत्व": 2761,
      " महसुल": 2762,
      " तथा सामाजिक": 2763,
      " स्तरीय": 2764,
      " टेवा पु194र्‍य": 2765,
      "शिक्षक": 2766,
      "पर्दो": 2767,
      " कुल गार्हस्थ्य उत्पादन": 2768,
      "दुपयोग": 2769,
      "वैदेशिक": 2770,
      " जलविद्युत््": 2771,
      " प्रभावकारी रुपमा ": 2772,
      " ज्ञान": 2773,
      " मानवीय": 2774,
      " जिम्मेवार": 2775,
      ".वि.स.": 2776,
      "ब ि": 2777,
      "ाम्पस": 2778,
      ", अ": 2779,
      ", आर्थिक": 2780,
      "कृषक": 2781,
      "गैंच": 2782,
      "गामी ": 2783,
      "न ्": 2784,
      "मोज": 2785,
      "वल": 2786,
      "शल": 2787,
      "१४": 2788,
      "र्ड": 2789,
      "हरु र": 2790,
      "जनसंख्या": 2791,
      "का रुपमा ": 2792,
      "तिह": 2793,
      " समग्र": 2794,
      "क्रमशः": 2795,
      " संचालित": 2796,
      " जुट": 2797,
      "एको छ।  \r\n": 2798,
      " योजनामा ": 2799,
      " योजनाले": 2800,
      " जनजाति": 2801,
      " सञ्चालन गर्न": 2802,
      "ाइनेछ।  \r\n": 2803,
      "ा रहे": 2804,
      " सरकारी,": 2805,
      " भएको छ। \r\n": 2806,
      " छैन": 2807,
      " स्रोत र": 2808,
      "ाँस": 2809,
      "ेरै": 2810,
      "केको देखि": 2811,
      " व्यवस्था गरिनेछ।": 2812,
      "मूलक तालिम": 2813,
      " सूच": 2814,
      " पहिचान गरी ": 2815,
      "दीर्घकालीन कृषि योजन": 2816,
      " जिल्ला ": 2817,
      "ी निकाय": 2818,
      " मुद्र": 2819,
      "को समुचित": 2820,
      "र्मत सम्भार": 2821,
      "ुक्तानी": 2822,
      " विनिमयदर": 2823,
      "खानेपानी": 2824,
      "गैरसरकारी": 2825,
      "जीवनस्तर": 2826,
      "क्षरता ": 2827,
      " सर्वसाधारण": 2828,
      " जरुरी ": 2829,
      " रहन ग": 2830,
      "लोकन": 2831,
      " ऊर्ज": 2832,
      "66": 2833,
      "उँ": 2834,
      "बा": 2835,
      "मो": 2836,
      "हि": 2837,
      "ीमा ": 2838,
      "ेन": 2839,
      "ेस": 2840,
      "ेस्रो वर्ष": 2841,
      "।४९": 2842,
      "५१": 2843,
      " सकेको छैन": 2844,
      "को संलग्न": 2845,
      " पुल": 2846,
      " प्रथ": 2847,
      " प्रारम्भ": 2848,
      "ासु": 2849,
      " तरिक": 2850,
      " आव": 2851,
      " उचित": 2852,
      " बा": 2853,
      " माटो": 2854,
      " भित्र": 2855,
      " तथा ब": 2856,
      " तथा वित्तीय": 2857,
      " संयुक्त": 2858,
      "ेशन": 2859,
      " योजनाको": 2860,
      " सुनिश्चित": 2861,
      "ागि": 2862,
      " शहरी": 2863,
      " उपत्यक": 2864,
      "को अवस्थ": 2865,
      "र्थतन्त्र": 2866,
      "िक्षेप": 2867,
      " स्वरोजगार": 2868,
      " उत्पादनशील": 2869,
      "ा अभिवृद्धि": 2870,
      " १०": 2871,
      "रीक्ष": 2872,
      "व्यापक": 2873,
      " वनाउन": 2874,
      " लक्ष्य राखि": 2875,
      " भएको छ।": 2876,
      "195166": 2877,
      " गरिएको छ।": 2878,
      " तहमा ": 2879,
      " अर्को": 2880,
      " सरसफाइ": 2881,
      " जलस्रोत": 2882,
      " परिवार नियोजन": 2883,
      " अपेक्ष": 2884,
      " रु. १": 2885,
      "४८।४९": 2886,
      " करिब": 2887,
      " गर्दै लगिनेछ। \r\n": 2888,
      "देखिन्छ।": 2889,
      " नीति तथा कार्यनीति": 2890,
      "तसर्थ": 2891,
      "मोजिम": 2892,
      "उद्यम": 2893,
      "औसत": 2894,
      "घु": 2895,
      "जिल्ल": 2896,
      "थालन": 2897,
      "पचारिक": 2898,
      "भा": 2899,
      "वढ": 2900,
      "ीर": 2901,
      "ेष्ट": 2902,
      "ोस": 2903,
      " गा": 2904,
      "को मूल्य": 2905,
      "ार्मिक": 2906,
      " अग्र": 2907,
      "त्म": 2908,
      "स्थापित": 2909,
      " तथा विकास": 2910,
      "रिव": 2911,
      "प्रवाह": 2912,
      " खड": 2913,
      " सम्पत्ति": 2914,
      "को सहयोग": 2915,
      "केह": 2916,
      " जनसंख्या": 2917,
      "दै आ": 2918,
      "हरुको संरक्षण": 2919,
      " दिइ": 2920,
      "ा पदार्थ": 2921,
      " २५": 2922,
      " छात्र": 2923,
      " व्यवसाय प्रवर्द्धन": 2924,
      "ाँड": 2925,
      "सम्ममा ": 2926,
      "मा प्रति": 2927,
      "थियो।": 2928,
      "थियो। यस": 2929,
      "परिवेक्षण": 2930,
      "नवौं योजना अवधिमा ": 2931,
      " आय आर्जन": 2932,
      "आठौं योजना अवधिमा ": 2933,
      "्छित": 2934,
      "छन ्। ": 2935,
      " भौतिक पूर्वाधार": 2936,
      "पुग": 2937,
      " प्रवृत्ति": 2938,
      "घरेलु": 2939,
      " स्याउ": 2940,
      "ृत्युदर": 2941,
      "(तालिका ": 2942,
      ", आ": 2943,
      "पश्च": 2944,
      "भए": 2945,
      "भु": 2946,
      "मुलुक": 2947,
      "यथ": 2948,
      "सरी": 2949,
      "ीब": 2950,
      "ेग": 2951,
      "ा निर्": 2952,
      " वृद्ध": 2953,
      " प्रक": 2954,
      " रेसम": 2955,
      "जनक": 2956,
      " उत्तर": 2957,
      " उत्पादित": 2958,
      "लाई पनि": 2959,
      "लाई प्रोत्साहित": 2960,
      " व्याज": 2961,
      " जात": 2962,
      " जस्तै": 2963,
      " कार्यक्रम अन्तर्गत": 2964,
      "एको र": 2965,
      "म्ब": 2966,
      " खण्ड": 2967,
      " अनुपात": 2968,
      "न्दर": 2969,
      " स्वामित्व": 2970,
      " स्वायत्त": 2971,
      " उत्पादन र": 2972,
      "राकरण": 2973,
      "का सम": 2974,
      " कार्यक्रमहरु संचालन": 2975,
      "ी बढ": 2976,
      " आयोजनाको": 2977,
      " पु194र्‍याइनेछ। \r\n": 2978,
      " ट्यु": 2979,
      " मूल्यमा ": 2980,
      " विक्री": 2981,
      "194रूप": 2982,
      "को अनुमान": 2983,
      "ाना उद्योग": 2984,
      " तराई": 2985,
      "ी नियन्त्रण": 2986,
      ", सु": 2987,
      "जस्ता ": 2988,
      "ती ": 2989,
      "पर": 2990,
      "फो": 2991,
      "यिन": 2992,
      "वहन": 2993,
      "ीहरुको ": 2994,
      "।५४": 2995,
      "१२": 2996,
      "ा उत्पादन": 2997,
      "को क": 2998,
      "को व": 2999,
      " पेश": 3000,
      " प्रदर्शन": 3001,
      "न्ज": 3002,
      " विज्ञान": 3003,
      "स्ता स": 3004,
      "ावधिक": 3005,
      " तथा आर्थिक": 3006,
      " व्यव": 3007,
      "विविध": 3008,
      "ाइन": 3009,
      " योजनाको ": 3010,
      "ाहरुले": 3011,
      " गरी यस": 3012,
      " सञ्चालन गरिनेछ। ": 3013,
      ", नेपाल": 3014,
      " नीतिहरु": 3015,
      "व्यक्ति": 3016,
      " उद्योग,": 3017,
      " साधन र": 3018,
      " गर्न सक्ने": 3019,
      " पक्षलाई": 3020,
      " पुँजी बजार": 3021,
      "तराई": 3022,
      " श्रमिक": 3023,
      "शासनिक": 3024,
      " गरेको": 3025,
      "५३।५४": 3026,
      "ी जिल्ला": 3027,
      "ी मोल": 3028,
      " जोड दिइनेछ। \r\n": 3029,
      "मा जोड दिइनेछ। \r\n": 3030,
      " सामुदायिक वन": 3031,
      " मौद्रिक": 3032,
      " घरेलु": 3033,
      " परिपाटी": 3034,
      "      द्द": 3035,
      "र्जुमा,": 3036,
      " विकेन्द्रीकरण": 3037,
      " दूध": 3038,
      "चि": 3039,
      "णय": 3040,
      "तयार": 3041,
      "तर्जुमा ": 3042,
      "पोषण": 3043,
      "भएका ": 3044,
      "ीउ": 3045,
      "ौथो": 3046,
      "ा कार्यक्रम": 3047,
      "र्युक्त": 3048,
      " अनिवार्य": 3049,
      " समाज": 3050,
      " क्षेत्रमा स": 3051,
      " भन्दा ": 3052,
      " नव": 3053,
      " नहुनु": 3054,
      " तथा आ": 3055,
      " विकास गर्न": 3056,
      "194ङ्ग कृषि": 3057,
      " हुन्छ। ": 3058,
      " स्थापित": 3059,
      " जनचेतन": 3060,
      "्या194ङ": 3061,
      " सेवा पु194र्‍य": 3062,
      " १९": 3063,
      "दरले": 3064,
      "ेषण": 3065,
      "ग्रह": 3066,
      " मूल्यांकन": 3067,
      " राखी": 3068,
      "मुखी": 3069,
      "थियो भने": 3070,
      " 194ङ्ग कृषि": 3071,
      " कृषक समूह": 3072,
      "रुपमा सञ्चालन": 3073,
      " हजार मे.टन": 3074,
      " विदेशी लगानी": 3075,
      " पारदर्श": 3076,
      " समस्याहरु": 3077,
      " असन्तुलन": 3078,
      " पुनः": 3079,
      " रुपमा सञ्चालन": 3080,
      "द्दत": 3081,
      " पृष्ठभूमि \r\n": 3082,
      " पहिलो वर्ष": 3083,
      " कच्चा पदार्थ": 3084,
      " संख्या ": 3085,
      " ज्यादै": 3086,
      ",४": 3087,
      "ऐतिह": 3088,
      "जित": 3089,
      "ञ्छित": 3090,
      "ताले": 3091,
      "नव": 3092,
      "पु194र्‍य": 3093,
      "भ०": 3094,
      "म ": 3095,
      "माग": 3096,
      "िमाञ्चल": 3097,
      "ु194ट्ट": 3098,
      "ेज": 3099,
      "ैयार": 3100,
      "्र्य": 3101,
      "१९": 3102,
      "्यवस्थ": 3103,
      "मा स्थानीय": 3104,
      "मा रहेका ": 3105,
      " प्रावधान": 3106,
      " र प": 3107,
      "ी हुन": 3108,
      "िता ": 3109,
      " तय": 3110,
      " तो": 3111,
      " तुलनात्मक लाभ": 3112,
      "लाई समेत": 3113,
      " समस": 3114,
      " माथि": 3115,
      "ाउंदै": 3116,
      " तथा वन": 3117,
      "योजनाको": 3118,
      " विकासलाई": 3119,
      " विकास खर्च": 3120,
      " जानु": 3121,
      " निष्": 3122,
      "ामूलक": 3123,
      " गर्नका लागि": 3124,
      " व्यवस्था,": 3125,
      "ुलभ": 3126,
      " खोप": 3127,
      "माछ": 3128,
      "भावन": 3129,
      " गरियो": 3130,
      "ा सिँचाइ": 3131,
      "ा स्वास्थ्य": 3132,
      "पूर्तिक": 3133,
      " के.": 3134,
      "ा अन्तर्गत": 3135,
      "छ। यसका लागि": 3136,
      "वाणिज्य": 3137,
      "व्यावसायिक": 3138,
      " लाइन": 3139,
      " उद्देश्य \r\n": 3140,
      " देखिन्छ। ": 3141,
      " उपलब्ध गराउने": 3142,
      "रहेको छ। ": 3143,
      " ६.": 3144,
      "म्प्यु": 3145,
      " सम्वन्धी": 3146,
      "स्कृति": 3147,
      "को पाइ": 3148,
      "रेका ": 3149,
      "ी खर्च": 3150,
      " अन्तिम वर्ष": 3151,
      " हुन नसके": 3152,
      " प्रभावकारी बनाउन": 3153,
      "ा सुविध": 3154,
      " तथा उपेक्षित": 3155,
      " प्रतिस्पर्द्धात्मक": 3156,
      "ऐतिहासिक": 3157,
      "म्प्युटर": 3158,
      " ठूलो": 3159,
      "जग्ग": 3160,
      "ठिन": 3161,
      "धितोपत्र": 3162,
      "रपर्दो": 3163,
      "वृत्ति": 3164,
      "ोन्मुख": 3165,
      "्नु": 3166,
      "ा हुन": 3167,
      " सँग": 3168,
      " सेयर": 3169,
      " स्मारक": 3170,
      " कतिपय": 3171,
      " वहु": 3172,
      "मा उत्पादन": 3173,
      "मा एक": 3174,
      " र ब": 3175,
      "लाई ध्यानमा राख": 3176,
      " समा": 3177,
      "ायुक्त": 3178,
      " उपज": 3179,
      " गरी उ": 3180,
      "दिष्ट": 3181,
      " व्यवस्था गर्ने": 3182,
      " सेवा र": 3183,
      "मान्त": 3184,
      " वन क्षेत्र": 3185,
      "ा प्रदाय": 3186,
      "क्षेत्रहरुमा ": 3187,
      " गर्दै लैजाने": 3188,
      "किंग": 3189,
      "ता दिई": 3190,
      " आदिवासी तथा जनजाति": 3191,
      " ३.": 3192,
      "ांस्कृतिक": 3193,
      " ल्याउने": 3194,
      " नवौं योजना अवधिमा ": 3195,
      " आठौं योजनामा ": 3196,
      " पारि": 3197,
      "ंचाइ": 3198,
      " सर्वेक्षण": 3199,
      "५३195ङ्ग": 3200,
      " ढुव": 3201,
      " महिला ": 3202,
      " अघि बढ": 3203,
      " सञ्चार": 3204,
      " सञ्चालित": 3205,
      "मौद्रिक": 3206,
      " गैरसरकारी संस्थ": 3207,
      "भअत": 3208,
      "को चाप": 3209,
      "संस्थागत": 3210,
      "कालागि": 3211,
      " प्रजनन": 3212,
      " आकर्षित": 3213,
      "पर्यटन": 3214,
      "राजस्व": 3215,
      " चाहिने": 3216,
      ",९": 3217,
      ", प्र": 3218,
      ".ए": 3219,
      "उय": 3220,
      "काम": 3221,
      "जाने": 3222,
      "बारे": 3223,
      "मे": 3224,
      "वेश": 3225,
      "वधारण": 3226,
      "्ड": 3227,
      "५००": 3228,
      " प्रक्षेपण": 3229,
      " र क": 3230,
      " र अ": 3231,
      "ानी आ": 3232,
      "लाभ": 3233,
      "जनचेतन": 3234,
      "का कार्यक्रम": 3235,
      "का कार्यक्रमहरु": 3236,
      " अझै": 3237,
      " अगाडि": 3238,
      "तिन": 3239,
      " आधुनिक": 3240,
      " उत्पादक": 3241,
      "िनेछ। ": 3242,
      "लाई कम": 3243,
      " मध्ये": 3244,
      " भाग": 3245,
      " नहुने": 3246,
      "योजना": 3247,
      "ष्खभ": 3248,
      " निजी": 3249,
      "प्रविधि": 3250,
      "ृषिक": 3251,
      " गर्न नस": 3252,
      "ता पनि": 3253,
      "म्मा १": 3254,
      " एक्स": 3255,
      " परिवर्त्य": 3256,
      " बढाई": 3257,
      " आवश्यकता": 3258,
      " दिश": 3259,
      "ोजी": 3260,
      " २.": 3261,
      " १३": 3262,
      " शिक्षालाई": 3263,
      "निर्धारण": 3264,
      " केन्द्रित": 3265,
      " महिन": 3266,
      "ा प्रति": 3267,
      " अवलम्बन": 3268,
      " क्षमता": 3269,
      "का अन्य": 3270,
      " जिल्लाहरुमा ": 3271,
      " सम्वर्द्धन": 3272,
      " त्यस्ता ": 3273,
      "मा विभिन्न": 3274,
      "िरो": 3275,
      " हुन सक्ने": 3276,
      " प्रतिशतले वृद्धि": 3277,
      "आठौं योजनामा ": 3278,
      " उपलव्ध गराउने": 3279,
      " विदेशी लगान": 3280,
      "ा समेत": 3281,
      "श्रमिक": 3282,
      " हो। ": 3283,
      " प्रवाहित": 3284,
      " अभिप्र": 3285,
      "शहरी क्षेत्र": 3286,
      " गाउँ विकास समिति": 3287,
      " भवन निर्माण": 3288,
      " मेगावाट)": 3289,
      "को निमित्त": 3290,
      " अनुगमन तथा मूल्या195141न": 3291,
      "जनसहभागित": 3292,
      "ास्तविक": 3293,
      " गा.वि.स.": 3294,
      ", वन": 3295,
      "34": 3296,
      "आदि": 3297,
      "तय": 3298,
      "नौ": 3299,
      "लु": 3300,
      "ला ज": 3301,
      "ोष": 3302,
      "ोरी": 3303,
      "१ करोड": 3304,
      "ा घाट": 3305,
      "को व्यवस्थापन": 3306,
      "्यू": 3307,
      " वैंक": 3308,
      "मा लगानी": 3309,
      "मा रहेको ": 3310,
      "िकल": 3311,
      "को एक": 3312,
      " प्रकोप": 3313,
      "्थान": 3314,
      " मातृ": 3315,
      "ावार": 3316,
      " तथा ज": 3317,
      " जारी": 3318,
      "ले पनि": 3319,
      " गर्ने, ": 3320,
      " गर्ने उद्देश्य": 3321,
      "मा स्व": 3322,
      " गर्नस": 3323,
      "ता तथा ": 3324,
      " प्रतिवेदन": 3325,
      "ेवाहरु": 3326,
      " अनुकुल": 3327,
      "को अवसर": 3328,
      "दैन। ": 3329,
      " दिई": 3330,
      " सहुलियत": 3331,
      "त्यस्ता ": 3332,
      "त्येक": 3333,
      " स्थान विशेष": 3334,
      " १२": 3335,
      " शिक्षा तथा ": 3336,
      " कमी": 3337,
      "195134": 3338,
      " उद्योग व्यवसाय": 3339,
      " तथा साना उद्योग": 3340,
      "त्साहित": 3341,
      " वातावरण सिर्जन": 3342,
      "महत्व": 3343,
      " देशमा ": 3344,
      "पर्क": 3345,
      " उपलब्धि": 3346,
      " ५०": 3347,
      " मात्रामा ": 3348,
      " ल्याई": 3349,
      " आठौं योजना अवधिमा ": 3350,
      " आयमूलक": 3351,
      " व्यापारिक": 3352,
      "होरो": 3353,
      "। यसै": 3354,
      " मलखाद": 3355,
      " परेको ": 3356,
      " समस्या ": 3357,
      "मा बृद्धि": 3358,
      "छ। यस्तो": 3359,
      " निजीक्षेत्र": 3360,
      "को रेखामुनि": 3361,
      "गरिबी निवारण": 3362,
      "सोवास": 3363,
      " दीर्घकालीन अवधारणा \r\n": 3364,
      " चौक": 3365,
      "ेष्ठ नागरिक": 3366,
      "ौथो वर्ष": 3367,
      " लेख": 3368,
      ", बजार": 3369,
      "ंदा ": 3370,
      "अत": 3371,
      "अभिवृद्धि": 3372,
      "गर्": 3373,
      "जाइन": 3374,
      "त्थान": 3375,
      "मति": 3376,
      "लैंच": 3377,
      "ववेल": 3378,
      "हासिल": 3379,
      "िंग": 3380,
      "ीको": 3381,
      "ु195ङ्ध": 3382,
      "्टक": 3383,
      "ा ९": 3384,
      " पटक": 3385,
      " वारे": 3386,
      " प्रबर्द्धन": 3387,
      " र म": 3388,
      " र बजार": 3389,
      " र विस्तार": 3390,
      "लाइ": 3391,
      " त्रि": 3392,
      " कार्य सम्पन्न": 3393,
      " क्षेत्र र": 3394,
      "ावा ": 3395,
      " तथा विस्तार": 3396,
      "विभाग": 3397,
      " निजी ": 3398,
      "न्तुलित": 3399,
      " कार्यक्रमहरुमा ": 3400,
      " कार्यक्रम कार्यान्वयन": 3401,
      " हुनुपर्ने": 3402,
      " एसिय": 3403,
      " सम्झौ": 3404,
      "को स्वास्थ्य": 3405,
      "ाहित": 3406,
      " गरी अ": 3407,
      " गरिनुका साथै": 3408,
      "दिइने": 3409,
      " निर्देश": 3410,
      "्याज": 3411,
      " आवश्यक छ। ": 3412,
      "स्ट": 3413,
      "स्स": 3414,
      "ा पुग": 3415,
      " सिञ्चित": 3416,
      "छ। यसबाट": 3417,
      " वर्षमा ": 3418,
      "स्तुत": 3419,
      "को लागि आवश्यक": 3420,
      " तालिम केन्द्र": 3421,
      " यस्तो": 3422,
      " दिइनेछ। \r\n": 3423,
      "थियो। \r\n": 3424,
      " सडक निर्माण": 3425,
      " वैकल्पिक": 3426,
      " समन्वय कायम": 3427,
      " सेवा उपलब्ध": 3428,
      "195ङ्ग४९": 3429,
      "ा भएका ": 3430,
      "शोधनान्तर": 3431,
      " दुई": 3432,
      " गैरसरकारी तथा ": 3433,
      " क्षमता विकास": 3434,
      " जनसमुदाय": 3435,
      " ढंग": 3436,
      " गर्ने लक्ष्य राखि": 3437,
      "४८195ङ्ग४९": 3438,
      "मौसम": 3439,
      " आफ्नो": 3440,
      " निकै": 3441,
      "गुणस्तर": 3442,
      " गुरुयोजन": 3443,
      " पशुपक्षी": 3444,
      " व्यवहार": 3445,
      " ने": 3446,
      ") \r\n": 3447,
      ", पशु": 3448,
      "खु": 3449,
      "चेन्": 3450,
      "छ  \r\n": 3451,
      "न र": 3452,
      "फार": 3453,
      "बक": 3454,
      "यं": 3455,
      "यिक": 3456,
      "यी ": 3457,
      "रल": 3458,
      "सिक": 3459,
      "सनीय": 3460,
      "ीण": 3461,
      "ैया ": 3462,
      "ोर्ड": 3463,
      "७५": 3464,
      "ा हुने": 3465,
      " सकारात्मक": 3466,
      "को क्षेत्रमा ": 3467,
      "को समेत": 3468,
      " पहुँच": 3469,
      " कफ": 3470,
      "मा योगदान": 3471,
      "मा नै": 3472,
      " र उत्पादन": 3473,
      "ास्": 3474,
      "न्ट": 3475,
      " आत्म": 3476,
      "स्थागत": 3477,
      " बे": 3478,
      " बाटो": 3479,
      " मापदण्ड": 3480,
      " विकास \r\n": 3481,
      "विष्य": 3482,
      "ातात्": 3483,
      "194ङग": 3484,
      " गर्ने तथा ": 3485,
      " गर्ने व्यवस्था मिलाइने": 3486,
      " कार्यक्रमहरुको": 3487,
      "194ङ्ग नेपाल": 3488,
      "मा सहयोग": 3489,
      " सुन्त": 3490,
      " प्रति हेक्टर": 3491,
      " सम्भव": 3492,
      "195ि": 3493,
      "ा सम्बन्ध": 3494,
      "राष्टि": 3495,
      "कार्यहरु": 3496,
      "कार्यरत": 3497,
      " सेवा प्रदान": 3498,
      "मिगत": 3499,
      " विद्यार्थ": 3500,
      "त्यधिक": 3501,
      " १५": 3502,
      " ९चभ": 3503,
      " स्थानीय स्रोत": 3504,
      "व्यापार": 3505,
      " प्रणाल": 3506,
      " लक्ष्य रहेकोमा ": 3507,
      " कार्यान्वयनमा ल्य": 3508,
      "19515": 3509,
      " बजारमा ": 3510,
      " संरक्षण र": 3511,
      " प्रविधिको विकास": 3512,
      " परिचालन गर्न": 3513,
      " स्थापना गरिने": 3514,
      "तिकूल": 3515,
      " गर्नु पर्ने": 3516,
      " देशको": 3517,
      "स्वामित्व": 3518,
      " पुग्न": 3519,
      " प्रक्रियामा ": 3520,
      " प्रदान गर्ने": 3521,
      "आधारित": 3522,
      "होर": 3523,
      " सीपमूलक तालिम": 3524,
      " श्रमशक्ति": 3525,
      " पहिचान गरी": 3526,
      " सम्भाव्यता अध्ययन": 3527,
      "लिइ": 3528,
      " असहाय": 3529,
      " राजमार्ग": 3530,
      "छन ्।": 3531,
      "ाबद्ध": 3532,
      "दूध": 3533,
      "पुस्तक": 3534,
      "जिनिय": 3535,
      " लगानीकर्त": 3536,
      "ाउनु पर्ने": 3537,
      " संकलन": 3538,
      " जडान": 3539,
      " तीव्र": 3540,
      " समीक्षा \r\n": 3541,
      " खाता घाट": 3542,
      " कमजोर": 3543,
      "ृषिक्षेत्र": 3544,
      "चेन्ज": 3545,
      " को ": 3546,
      "  गरिनेछ। \r\n": 3547,
      " छ।  \r\n": 3548,
      ", ग": 3549,
      "अर्": 3550,
      "कायम": 3551,
      "खुल": 3552,
      "छात्र": 3553,
      "वीच": 3554,
      "सञ्चार": 3555,
      "िड": 3556,
      "िष्ट": 3557,
      "ैं": 3558,
      "ैय": 3559,
      "ोपन": 3560,
      "ा :  \r\n": 3561,
      " स195ङ्ध": 3562,
      "को संस्थागत": 3563,
      " पाठ्यक्रम": 3564,
      " कठिन": 3565,
      "मा ३": 3566,
      "मा रहे": 3567,
      " प्रयोजन": 3568,
      " प्रस्ताव": 3569,
      " रोक": 3570,
      " र त्यस": 3571,
      "हरु,": 3572,
      "हरु निर्माण": 3573,
      "हरुवाट": 3574,
      "हरुसँग": 3575,
      " तैयार": 3576,
      "निमित्त": 3577,
      " अरु": 3578,
      " आठ": 3579,
      " आयोग": 3580,
      " आयुर्वेद": 3581,
      " उमेर": 3582,
      " समुचित": 3583,
      " विध": 3584,
      " विर": 3585,
      " विरु": 3586,
      " विपन्न": 3587,
      "स्ती": 3588,
      " नगद": 3589,
      "ले आ": 3590,
      " कार्यक्रम :  \r\n": 3591,
      "रि195ङ्ध": 3592,
      "194ङ्ग ": 3593,
      "194ङ्ग पर्यटन": 3594,
      "ामुदायिक": 3595,
      " लिन": 3596,
      "ञ्चालित": 3597,
      " सम्पर्क": 3598,
      "ाउने। \r\n": 3599,
      " पुस्त": 3600,
      " गरी आवश्यक": 3601,
      " स्वतन्त्र": 3602,
      " स्वच्छ": 3603,
      " सञ्चालन हुने": 3604,
      "र्षक": 3605,
      " बढ्दो": 3606,
      " हुनेछ। ": 3607,
      " सेवा तथा ": 3608,
      "मिटर": 3609,
      "स्तरसम्म": 3610,
      " भए तापनि": 3611,
      "हरुको निर्माण": 3612,
      "भूति": 3613,
      " ९.": 3614,
      " आयोजनाको ": 3615,
      " सरकारी तथा ": 3616,
      "दायित्व": 3617,
      "मा पर्ने": 3618,
      "ाँट": 3619,
      " प्रणालीमा ": 3620,
      "मा आठौं योजन": 3621,
      " विशेषज्ञ": 3622,
      " सीमान्त": 3623,
      "दृढीकरण": 3624,
      " जिल्लाका ": 3625,
      "मा जोड": 3626,
      " गराइनेछ।": 3627,
      " जनशक्ति उत्पादन": 3628,
      "ेलि": 3629,
      " ५.": 3630,
      " वित्तीय संस्थाहरु": 3631,
      " अध्ययन संस्थान": 3632,
      " तथ्यांक": 3633,
      "प्रतिशत": 3634,
      "कतझ": 3635,
      "महिला ": 3636,
      " खासगरी": 3637,
      "वातावरणीय": 3638,
      "       द्द": 3639,
      " लिइनेछ। \r\n": 3640,
      " पैठ": 3641,
      "ोखिम": 3642,
      "ुहावट": 3643,
      "चालू": 3644,
      " अर्कोतिर": 3645,
      "का समस्य": 3646,
      "५३195ङ्ग५४": 3647,
      "ातात्विक": 3648,
      " ओ": 3649,
      ", ग्रामीण": 3650,
      "अतः": 3651,
      "उन्नत": 3652,
      "एकेा ": 3653,
      "चब": 3654,
      "चर": 3655,
      "चिय": 3656,
      "टि": 3657,
      "तानुसार": 3658,
      "नगद": 3659,
      "पास": 3660,
      "बस्तु": 3661,
      "से": 3662,
      "सम्वन्ध": 3663,
      "हट": 3664,
      "ा.": 3665,
      "ाण": 3666,
      "ीमित": 3667,
      "ुम": 3668,
      "ृण": 3669,
      "ैतिक": 3670,
      "ोस्रो वर्ष": 3671,
      "११": 3672,
      "र् ": 3673,
      "कोे": 3674,
      " वाह्य": 3675,
      "िकै": 3676,
      " र द": 3677,
      " र स्थानीय": 3678,
      " र प्रविधि": 3679,
      " अंग": 3680,
      "लाई सुदृढ": 3681,
      "्रमण": 3682,
      "स्ता प": 3683,
      " मन": 3684,
      " दायित्व": 3685,
      " तथा सं": 3686,
      " तथा रोजगार": 3687,
      " तथा ग्रामीण": 3688,
      " विकास गरी ": 3689,
      "ायु": 3690,
      "ाप्र": 3691,
      " संस्कृति": 3692,
      " गर्ने व्यवस्था ": 3693,
      " कार्यक्रमले": 3694,
      " कार्यक्रम : ": 3695,
      "रिएर": 3696,
      "ादन": 3697,
      "194ङ्ग उच्च": 3698,
      "प्रसार": 3699,
      " व्यवस्थापक": 3700,
      "ागम": 3701,
      "को सेव": 3702,
      "ीकृति": 3703,
      " कृषि क्षेत्रमा ": 3704,
      "द्योगीकरण": 3705,
      "हुँ": 3706,
      " विशिष्ट": 3707,
      " चिय": 3708,
      " १७": 3709,
      "भूउपयोग": 3710,
      "मा पु194र्‍य": 3711,
      " सुविधाहरु": 3712,
      " सुविधायुक्त": 3713,
      " परिचालन गरी": 3714,
      " खर्चिलो": 3715,
      "शिक्षा ": 3716,
      "ष्ठ वन": 3717,
      "स्वरुप": 3718,
      " गुणस्तरीय": 3719,
      "ाठय": 3720,
      "ेटो": 3721,
      "परिवार": 3722,
      "मा विदेश": 3723,
      "ा आदि": 3724,
      "नीहरुलाई": 3725,
      " सोच": 3726,
      " सम्भाव्यता ": 3727,
      " प्राथमिकता दिई": 3728,
      " अपेक्षित": 3729,
      "१. पृष्ठभूमि \r\n": 3730,
      " सरकारी संस्थाहरु": 3731,
      " महिला स": 3732,
      " वर्गीकरण": 3733,
      " जोड दिइनेछ। ": 3734,
      "जन्य उद्योग": 3735,
      "ता ल्याउन": 3736,
      " श्री ५ को सरकारले": 3737,
      " छन्। ": 3738,
      "शक्तीकरण": 3739,
      " हुन सकेको छैन। ": 3740,
      " विदेशी विनिमय": 3741,
      " पैद": 3742,
      "को अधिकतम उपयोग": 3743,
      "बालबालिक": 3744,
      "ाफिक": 3745,
      " पोखर": 3746,
      "रावलोकन": 3747,
      " स्रोत र साधन": 3748,
      "भुवन": 3749,
      " व्याजदर": 3750,
      "ी मोल जाने": 3751,
      " एक्सचेन्ज": 3752,
      " अभिप्रेरित": 3753,
      " लाई": 3754,
      " ले": 3755,
      " यु": 3756,
      " ्क": 3757,
      " नेपाली": 3758,
      ",७": 3759,
      "खाल": 3760,
      "टान": 3761,
      "डिन": 3762,
      "तृ": 3763,
      "ताहरु": 3764,
      "तरकार": 3765,
      "दी नियन्त्रण": 3766,
      "नीहरु": 3767,
      "फत्": 3768,
      "भी.": 3769,
      "मीन": 3770,
      "शक": 3771,
      "ाको स": 3772,
      "ाको लागि": 3773,
      "ाको आधार": 3774,
      "ेदार": 3775,
      "ेस्रो": 3776,
      "्दै": 3777,
      "१६": 3778,
      "१००": 3779,
      "३३": 3780,
      " स्नात": 3781,
      "कोत्तर": 3782,
      " पछि": 3783,
      "को न": 3784,
      " प्रवि": 3785,
      "ी (": 3786,
      "ी तालिम": 3787,
      "ासम्बन्ध": 3788,
      " उल्लेख": 3789,
      "लाई ": 3790,
      "लाई एक": 3791,
      " समान": 3792,
      "स्ता सं": 3793,
      "क्ष्": 3794,
      " जैविक विविध": 3795,
      " निरु": 3796,
      " गर्ने तर्फ": 3797,
      "ामर्श": 3798,
      "प्रकार": 3799,
      " हुंदै": 3800,
      " शाख": 3801,
      " कृषि क्षेत्र": 3802,
      " एवं अन्य": 3803,
      " बढावा ": 3804,
      "धिकार": 3805,
      " केही ": 3806,
      " चेतन": 3807,
      " ९उ": 3808,
      " आर्थिक वृद्धि": 3809,
      " कम गर्न": 3810,
      "विद्यार्थ": 3811,
      " गर्दै जाने": 3812,
      " प्रणालीको विकास": 3813,
      " अवधि": 3814,
      "को रुपमा विकसित": 3815,
      " बनाइ": 3816,
      "मा प्रभावकार": 3817,
      "ी आदि": 3818,
      " वस्तुहरुको": 3819,
      " कार्यक्रम सञ्चालन गरिनेछ। ": 3820,
      "२०४९": 3821,
      " प्राप्त गर्न": 3822,
      " तयार गरी ": 3823,
      "० लाई": 3824,
      "आधारभूत": 3825,
      " भइरहेको ": 3826,
      "दुई": 3827,
      " प्रोत्साहित गरिनेछ। ": 3828,
      "ा जस्ता ": 3829,
      "हो। ": 3830,
      "समेत": 3831,
      " हजार हेक्टर": 3832,
      "को तर्जुमा ": 3833,
      " कर्जा प्रवाह": 3834,
      "काष्ठ वन": 3835,
      " तर्जुमा गरी": 3836,
      " कार्यक्रमहरु सञ्चालन गरिनेछ। \r\n": 3837,
      " गर्ने लक्ष्य रहेकोमा ": 3838,
      " कम्पनीहरु": 3839,
      " पार्न": 3840,
      " खासगरी ": 3841,
      "यरोग": 3842,
      "त्रि": 3843,
      " भूमिका ख": 3844,
      " सहायक": 3845,
      "उद्देश्यीय": 3846,
      " सन्धि": 3847,
      " साधारण खर्च": 3848,
      " किलोमिटर": 3849,
      " राष्टि्रय": 3850,
      " पर्द": 3851,
      "का सम्पूर्ण": 3852,
      " नीति तथा कार्यनीति \r\n": 3853,
      "ा निर्वाह": 3854,
      "ु194ट्टै": 3855,
      "पूर्तिका लागि": 3856,
      "नौपचारिक": 3857,
      "्टक एक्सचेन्ज": 3858,
      "तृत्व": 3859,
      " झ": 3860,
      " ड": 3861,
      " ०": 3862,
      ",६": 3863,
      ", सीप": 3864,
      "अज": 3865,
      "ऋृण": 3866,
      "एउ": 3867,
      "गर्दा ": 3868,
      "चष्": 3869,
      "झेदार": 3870,
      "तुलनामा ": 3871,
      "थाम": 3872,
      "थिए": 3873,
      "दाम": 3874,
      "धात्मक": 3875,
      "फर": 3876,
      "बर": 3877,
      "मेल": 3878,
      "राल": 3879,
      "वृद्ध": 3880,
      "वुट": 3881,
      "सुधार": 3882,
      "ाध": 3883,
      "ुले": 3884,
      "ोध": 3885,
      "२७": 3886,
      "४०": 3887,
      "८८": 3888,
      " सन्दर्भमा ": 3889,
      " पत्र": 3890,
      "मा २": 3891,
      "को मूल": 3892,
      "को ऋण": 3893,
      "को दृष्टि": 3894,
      " र अन्तिम वर्ष": 3895,
      "ार्ने": 3896,
      " तिन": 3897,
      "निजी ": 3898,
      "न्म": 3899,
      "का कृषि": 3900,
      " आहार": 3901,
      " उक्त": 3902,
      " उल्लेखनीय": 3903,
      " बलम": 3904,
      "िनेछ।": 3905,
      " ह्रास": 3906,
      " भु": 3907,
      " विकास कार्यक्रमहरु": 3908,
      " विकास तालिम": 3909,
      " संशोधन": 3910,
      " जम्मा ": 3911,
      " गर्ने प्रयास": 3912,
      "194ङ्ग स्थानीय": 3913,
      "194ङ्ग विभिन्न": 3914,
      "ता दिने": 3915,
      " व्यवस्थाहरु": 3916,
      " योजना अवधि": 3917,
      " सुपरिवेक्षण": 3918,
      " प्रतिवर्ष": 3919,
      " खपत": 3920,
      "ूर्त": 3921,
      "को स्रोत": 3922,
      "न्दिर": 3923,
      " परियोजनाहरु": 3924,
      "िमेक": 3925,
      "ा संच": 3926,
      "दै लगिने": 3927,
      " निर्दिष्ट": 3928,
      ", यातायात": 3929,
      "हरुको स्थापन": 3930,
      " वृद्धि गर्न": 3931,
      " हुनाले": 3932,
      " शिक्षण": 3933,
      "ान्वित": 3934,
      "व्याप": 3935,
      " महा": 3936,
      " वनस्पति": 3937,
      " स्वास्थ्य,": 3938,
      " व्यवस्थापन,": 3939,
      " व्यवस्थापन र": 3940,
      " छन": 3941,
      " लाने": 3942,
      "एकोछ। ": 3943,
      " व्यवसायीकरण": 3944,
      "ेको छ। ": 3945,
      " गर्दै आ": 3946,
      " पर्यावरण": 3947,
      "नीति तथा ": 3948,
      " क्षमताको": 3949,
      " ४०": 3950,
      " सडक यातायात": 3951,
      " कृषकहरुलाई": 3952,
      " सामाजिक सुरक्ष": 3953,
      " सहयोग पु194र्‍याउने": 3954,
      "ांच": 3955,
      " दृष्टिले": 3956,
      " संस्थानहरु": 3957,
      "मा सुधार ल्याउन": 3958,
      "मा संचालित": 3959,
      "ा जल": 3960,
      "हीन": 3961,
      " रोजगारीका अवसरहरु": 3962,
      " सूचना ": 3963,
      " कारणले": 3964,
      "तीव्र": 3965,
      "ा समिति": 3966,
      "उपलव्ध गराउने": 3967,
      "भन्दा बढी": 3968,
      " शिक्षा कार्यक्रम": 3969,
      " कार्यक्रमहरु सञ्चालन गरिने": 3970,
      " अभियान": 3971,
      " सन्तुलित": 3972,
      "ा विकास समिति": 3973,
      "त्यसैले": 3974,
      "बिध": 3975,
      "महिला स": 3976,
      " अधिराज्यका ": 3977,
      ", चौथो वर्ष": 3978,
      "देखिन्छ। \r\n": 3979,
      " परिषद": 3980,
      " मानव संसाधन": 3981,
      " दृष्टिकोणले": 3982,
      " स्यालो": 3983,
      "हायक": 3984,
      " क्याम्पस": 3985,
      " जस्ता प": 3986,
      " हुन सकेको छैन। \r\n": 3987,
      " सर्वसुलभ": 3988,
      " दीर्घकालीन कृषि योजनाले": 3989,
      "शिशु": 3990,
      " उनीहरुलाई": 3991,
      "ता प्रदान": 3992,
      " चुनौती ": 3993,
      " कर्मचारी": 3994,
      " उत्पन्न": 3995,
      " गोष्ठ": 3996,
      " पुनर्स्थापन": 3997,
      " दलित तथा उपेक्षित": 3998,
      " आठौं योजनाको समीक्षा \r\n": 3999,
      "जुदा ": 4000,
      "ाँडफ": 4001,
      " समस्या": 4002,
      "ोषजनक": 4003,
      " पैदावार": 4004,
      "ंै": 4005,
      "अन्तर्राष्टि194्रय": 4006,
      "कृ": 4007,
      "तभच": 4008,
      "थकतझ": 4009,
      "पस": 4010,
      "पो": 4011,
      "भए तापनि": 4012,
      "मध्य": 4013,
      "य्": 4014,
      "यन्त्र": 4015,
      "यां": 4016,
      "ला ": 4017,
      "शय": 4018,
      "िर्जन": 4019,
      "ीकार": 4020,
      "४६": 4021,
      "५९": 4022,
      "र्सरी": 4023,
      "्रे": 4024,
      "कोले": 4025,
      " पाँच": 4026,
      " कालो": 4027,
      " वजार": 4028,
      " वसोवास": 4029,
      "मा झ": 4030,
      "मा न": 4031,
      "को दीर्घकालीन": 4032,
      "को थालन": 4033,
      " प्रकाशन": 4034,
      " र उच्च": 4035,
      "हरुका ": 4036,
      "निजी": 4037,
      "योजित": 4038,
      "का दरले": 4039,
      " अंश": 4040,
      " उकास": 4041,
      " बाली ": 4042,
      " मि": 4043,
      " मद्दत": 4044,
      "क्षय": 4045,
      "ाउनुपर्ने": 4046,
      " भुक्तानी": 4047,
      " भरपर्दो": 4048,
      " निक्षेप": 4049,
      " विकास क्षेत्रमा ": 4050,
      " गर्ने कार्यक्रम": 4051,
      "ादि": 4052,
      " लिने": 4053,
      "प्रयोग": 4054,
      "प्राविधिक": 4055,
      "एको छ भने": 4056,
      " योजना तर्जुमा ": 4057,
      "बाटै": 4058,
      " शो": 4059,
      "देशमा ": 4060,
      "को सन्दर्भमा ": 4061,
      "उपर्युक्त": 4062,
      "दिई": 4063,
      " स्वस्थ": 4064,
      " स्वीकृत": 4065,
      " उत्पादन,": 4066,
      "कार्यालय": 4067,
      "ियम": 4068,
      "मुह": 4069,
      "वारे": 4070,
      " २२": 4071,
      " वर्ष २०": 4072,
      "नेपाली ": 4073,
      " यस अवधिमा ": 4074,
      " भएको छ भने": 4075,
      " पूर्ति": 4076,
      " छुट": 4077,
      " तालिम दिने": 4078,
      " पु194र्‍याइने": 4079,
      " यिन": 4080,
      " प्रविधि विकास": 4081,
      " प्रभावकारित": 4082,
      " प्रणालीको": 4083,
      "ी आवश्यक": 4084,
      "सँग आवद्ध": 4085,
      " रहेको छ।": 4086,
      " मूल्य अभिवृद्धि": 4087,
      " विश्वसनीय": 4088,
      " कायम गर्न": 4089,
      "ा भए": 4090,
      " ६०": 4091,
      " सिर्जना गर्न": 4092,
      " बिस्तार": 4093,
      " तथ्य": 4094,
      " सामग्रीहरु": 4095,
      " वैदेशिक सहाय": 4096,
      "ी जस्ता ": 4097,
      " खानेपानी तथा सरसफाइ": 4098,
      " गरेको छ। ": 4099,
      "निजीक्षेत्र": 4100,
      "को अवलम्वन": 4101,
      " थाले": 4102,
      "ोटो": 4103,
      "को सहभागितामा ": 4104,
      " गर्दा स": 4105,
      " भारतीय": 4106,
      "       ज्ञ": 4107,
      " उन्नत बीउ": 4108,
      " अनुगमन तथा मूल्यांकन": 4109,
      " घाटा ": 4110,
      "को कमी": 4111,
      "विश्वविद्यालय": 4112,
      " परिप्रेक्ष्यमा ": 4113,
      " एवम्": 4114,
      " एउट": 4115,
      "गामी २०": 4116,
      " प्रथम": 4117,
      "िता ल्य": 4118,
      " गर्नसकिने": 4119,
      "ु195ङ्धे": 4120,
      "फारिस": 4121,
      " ि": 4122,
      ",२": 4123,
      ", अनुसन्धान": 4124,
      "ःशुल्क": 4125,
      "अव": 4126,
      "आ.व. २०": 4127,
      "कन": 4128,
      "ग्ध": 4129,
      "णत": 4130,
      "दूर": 4131,
      "बार": 4132,
      "राई": 4133,
      "री भ": 4134,
      "रासायनिक मल": 4135,
      "लिने": 4136,
      "सकेको छैन": 4137,
      "ौल": 4138,
      "१७": 4139,
      " साना ": 4140,
      " सकेको देखि": 4141,
      "कोट": 4142,
      " का ": 4143,
      "मा उद्योग": 4144,
      "मा व्यापक": 4145,
      "को योगदान": 4146,
      "को नियमित": 4147,
      " प्रशासनिक": 4148,
      " र अनुगमन": 4149,
      "ास्तर": 4150,
      "ासँग": 4151,
      " तत्व": 4152,
      "यो।": 4153,
      " अभाव": 4154,
      "नुरुप": 4155,
      "नु पर्ने": 4156,
      " क्षेत्रभित्र": 4157,
      " नदी": 4158,
      " तथा व्यवस्थापन": 4159,
      " संग": 4160,
      " संभार": 4161,
      " संभाव्य": 4162,
      " संगठन": 4163,
      "ष्क्क": 4164,
      " निरीक्षण": 4165,
      " कार्यक्रमहरुको ": 4166,
      "ादेखि": 4167,
      "194ङ्ग ग्रामीण": 4168,
      "ामयिक": 4169,
      "प्रद": 4170,
      "प्राप्त": 4171,
      "मा सु": 4172,
      "ता कायम": 4173,
      " योजना आ": 4174,
      " उपाय": 4175,
      "ाहस्थ्य": 4176,
      " व्यवस्था गर्न": 4177,
      "का स्वास्थ्य": 4178,
      "ा पालन": 4179,
      "०० हेक्टर": 4180,
      " स्थानमा ": 4181,
      " सिंचाइ": 4182,
      " शिक्षामा ": 4183,
      " शिक्षा र": 4184,
      " वर्षे": 4185,
      "र्यटन": 4186,
      "र्याप्त": 4187,
      " ९अ": 4188,
      " आर्थिक विकास": 4189,
      "ी बीउ": 4190,
      " क्षति": 4191,
      "ता दिन": 4192,
      " रहेको छ। \r\n": 4193,
      " रहेको छ। यस": 4194,
      " ३०": 4195,
      "दोस्रो": 4196,
      " कायम राख्न": 4197,
      " भइसकेको ": 4198,
      "मा विस्तार": 4199,
      " धान्न": 4200,
      " धेरै": 4201,
      " पारवहन": 4202,
      "गरिबी": 4203,
      "ा गरिनेछ।": 4204,
      "छन्।  \r\n": 4205,
      "भन्दा बढी ": 4206,
      " निम्न अनुसार": 4207,
      " अधिकांश": 4208,
      " मौरी": 4209,
      "श्वास": 4210,
      " नियमन": 4211,
      " गैरसरकारी संस्थाहरु": 4212,
      " प्रवेश": 4213,
      "जिल्लाहरुमा ": 4214,
      " रासायनिक मलखाद": 4215,
      " तुल्याउन": 4216,
      " आकर्षण": 4217,
      "मानवीय": 4218,
      "मानव संसाधन": 4219,
      " हटाउन": 4220,
      " पश्चिम": 4221,
      " जानकारी": 4222,
      "त्याभूति": 4223,
      " शिशु": 4224,
      "ीबुट": 4225,
      " खण्डास्": 4226,
      " ट्युबवेल": 4227,
      " निष्काशन": 4228,
      "मेरिक": 4229,
      " निरुत्साहित": 4230,
      " ८.": 4231,
      " ष्ल": 4232,
      ",३": 4233,
      ", ह": 4234,
      ", उद्योग": 4235,
      "ँु": 4236,
      "अध्ययन": 4237,
      "आठ": 4238,
      "आयोजन": 4239,
      "आयोजनाहरु": 4240,
      "उठ": 4241,
      "खात": 4242,
      "ख्यक": 4243,
      "टौ": 4244,
      "डी": 4245,
      "थ०": 4246,
      "दे": 4247,
      "न।": 4248,
      "न। \r\n": 4249,
      "बद": 4250,
      "बेरोजगार": 4251,
      "भत": 4252,
      "भौगोलिक": 4253,
      "मल": 4254,
      "मृत्युदर": 4255,
      "रचन": 4256,
      "लर": 4257,
      "वार्षिक": 4258,
      "श्ल": 4259,
      "ाका साथै": 4260,
      "ाअनुरुप": 4261,
      "ीको ": 4262,
      "९ करोड": 4263,
      "र्वा": 4264,
      " सात": 4265,
      " सफल": 4266,
      " सशक्त": 4267,
      " सदस्य": 4268,
      " स्टक एक्सचेन्ज": 4269,
      " पछ": 4270,
      " वास्तविक": 4271,
      "मा ग": 4272,
      " र व्यवस्थापन": 4273,
      "ानो": 4274,
      "ान्ति": 4275,
      "। 194ङ्ग": 4276,
      "ास्क": 4277,
      " तालिका ": 4278,
      "निवारण": 4279,
      "न्जिनिय": 4280,
      "का र": 4281,
      " आउन": 4282,
      " आउँ": 4283,
      " बिक्री": 4284,
      "लाई प्रोत्साहन": 4285,
      " कार्यमा संलग्न": 4286,
      " विष": 4287,
      "ापेक्ष": 4288,
      " व्यहो": 4289,
      "ष््क": 4290,
      " गरिने छ। ": 4291,
      " गर्ने जस्ता ": 4292,
      "मा स्वास्थ्य": 4293,
      "ता वृद्धि": 4294,
      " योजनाहरु": 4295,
      " शुल्क": 4296,
      " खुद": 4297,
      "देशको ": 4298,
      " अनुभव": 4299,
      " कृषि विकास": 4300,
      " कृषि सडक": 4301,
      " जनताको ": 4302,
      "ा सेव": 4303,
      "उपभोग": 4304,
      " राजन": 4305,
      " गरी कुल": 4306,
      " गरी सो": 4307,
      " बढाउँदै": 4308,
      "अनुमान": 4309,
      "धनान्तर": 4310,
      " सहभाग": 4311,
      " सहभागी": 4312,
      " चाप": 4313,
      " २०००": 4314,
      "नेपालको ": 4315,
      "ाज्ञ": 4316,
      " यसबाट": 4317,
      " यस क्षेत्रमा ": 4318,
      "विद्युत": 4319,
      "ा प्रविधि": 4320,
      "देखि नै": 4321,
      " स्रोत केन्द्र": 4322,
      "एकोमा ": 4323,
      " पु194र्‍याई": 4324,
      " बजारमुख": 4325,
      " एकातिर": 4326,
      " पहिल": 4327,
      " तथा सुधार": 4328,
      " गरिएको थियो। ": 4329,
      " स्थापना गर्न": 4330,
      " स्थितिमा ": 4331,
      "ल्ट": 4332,
      "को रुपमा स्थापित": 4333,
      "को प्रवर्द्धन": 4334,
      "ैनिक": 4335,
      " स्तरका ": 4336,
      "न्वेषण": 4337,
      " टेव": 4338,
      "मा प्रयोग": 4339,
      " गुणात्मक": 4340,
      " साधनहरु": 4341,
      "सँग सम्बन्धित": 4342,
      " गुणस्तरयुक्त": 4343,
      " तयारी": 4344,
      " सेवा विस्तार": 4345,
      " सेवा केन्द्र": 4346,
      " गर्न सघाउ": 4347,
      "निकै": 4348,
      " नसके": 4349,
      " प्रदान गर्न": 4350,
      " रह्यो": 4351,
      "पत्रे": 4352,
      "मा समावेश": 4353,
      "नियन्त्र": 4354,
      " सरदर": 4355,
      " परामर्श": 4356,
      "को बजार": 4357,
      "लगानी ": 4358,
      " वाञ्छित": 4359,
      " मान्य": 4360,
      " उपभोक्ता समूह": 4361,
      "स्थानीय निकाय": 4362,
      " अवस्था ": 4363,
      " फार्म": 4364,
      "माध्यमबाट": 4365,
      "कतत्व": 4366,
      " विविधीकरण": 4367,
      " कि.मि. (": 4368,
      "छ। यस्ता ": 4369,
      "छन ्। \r\n": 4370,
      "ग्रामीण क्षेत्रमा ": 4371,
      " अघि वढ": 4372,
      "को समग्र": 4373,
      "कर्षित": 4374,
      " राष्ट194्र बैंक": 4375,
      " लैजान": 4376,
      ", तेस्रो वर्ष": 4377,
      " तथा अन्तर्राष्टि194्रय": 4378,
      " कुरा ": 4379,
      "पक्षीय": 4380,
      "खानेपानी तथा सरसफाइ": 4381,
      "ातृ संस्थाहरु": 4382,
      " पुगेको छ। ": 4383,
      "तथ्या195141": 4384,
      "योग्य बस्तु": 4385,
      " बैकिंग": 4386,
      " जरुरी भ": 4387,
      "ा परिचालन": 4388,
      "व्यवसायिक": 4389,
      " गरी जम्मा ": 4390,
      "श्री ५ को सरकारले": 4391,
      "श्रित": 4392,
      "को अन्त्य": 4393,
      " गरिवी निवारण": 4394,
      " मानवीय संसाधन": 4395,
      " प्रारम्भिक": 4396,
      " तरिकाले": 4397,
      "५३।५४ मा ": 4398,
      "ग्रहालय": 4399,
      " व्यवस्थापकीय": 4400,
      " छनौट": 4401,
      "य्.": 4402,
      " शोधनान्तर": 4403,
      " खण्डास्मित": 4404,
      " ,": 4405,
      " लागि": 4406,
      " मा कुल": 4407,
      ",०": 4408,
      ", स्थानीय": 4409,
      "आवास": 4410,
      "उक्त": 4411,
      "क ": 4412,
      "खित": 4413,
      "चरण": 4414,
      "ठोस": 4415,
      "तार": 4416,
      "दा स": 4417,
      "पार": 4418,
      "फार्म": 4419,
      "बिल": 4420,
      "बैंक": 4421,
      "भएको ": 4422,
      "यत": 4423,
      "या": 4424,
      "वाल": 4425,
      "वा र": 4426,
      "शहरी": 4427,
      "साइ": 4428,
      "साना ": 4429,
      "सामाजिक": 4430,
      "सूच": 4431,
      "हण": 4432,
      "ाष": 4433,
      "ाको आधारमा ": 4434,
      "ीड": 4435,
      "ैयाँ": 4436,
      "ोवास": 4437,
      "१)": 4438,
      "२३": 4439,
      "४७": 4440,
      "ा स्थापन": 4441,
      " परीक्ष": 4442,
      "मा रु.": 4443,
      "िक्र": 4444,
      "को लक्ष्य": 4445,
      " प्रष्ट": 4446,
      " प्रस्तुत": 4447,
      " र विकास": 4448,
      " र ग्रामीण": 4449,
      " र गैर": 4450,
      " र आपूर्ति": 4451,
      "ान्स": 4452,
      "लाक": 4453,
      "ी ल्य": 4454,
      " ति": 4455,
      " असार": 4456,
      " अ195ङ्ध": 4457,
      " उड": 4458,
      " बगैंच": 4459,
      "नुको साथै": 4460,
      " हिम": 4461,
      "ाउनुका साथै": 4462,
      " तथा कृषि": 4463,
      " तथा उच्च": 4464,
      "योजनाको ": 4465,
      " निगम": 4466,
      " निवारण": 4467,
      " गर्ने व्यवस्था मिलाइनेछ। \r\n": 4468,
      " कार्यक्रम तर्जुमा ": 4469,
      " योजनाकाल": 4470,
      " योजनाको अन्तिम वर्ष": 4471,
      " योजनावधि": 4472,
      " प्रतिनि": 4473,
      " शक्ति": 4474,
      "माधान": 4475,
      " सम्बर्द्धन": 4476,
      "भिबृद्धि": 4477,
      " परिपूर्ति": 4478,
      "ामा वृद्धि": 4479,
      " गरी आर्थिक": 4480,
      " गरीव": 4481,
      " निर्देशिक": 4482,
      " सञ्चालन गरिनेछ।": 4483,
      " उत्पादन गर्न": 4484,
      "राष्ट194्र": 4485,
      " एवं ": 4486,
      " सेवामा ": 4487,
      " सेवाको ": 4488,
      "अनुकूल": 4489,
      "मुन": 4490,
      " नीतिअनुरुप": 4491,
      "०० हे.": 4492,
      " स्थानहरुमा ": 4493,
      " १८": 4494,
      "को विकास गरी": 4495,
      " ९क": 4496,
      " ९्क": 4497,
      " ९अय": 4498,
      " कार्यक्रमहरु :  \r\n": 4499,
      " प्राथमिक विद्यालय": 4500,
      " आयोजनाह194रू": 4501,
      " छ भने": 4502,
      " छिट": 4503,
      " उद्योगहरु": 4504,
      " गर्दै लग": 4505,
      " तथा सु": 4506,
      " तथा सेव": 4507,
      "छन्। यस": 4508,
      "एकाले": 4509,
      " देशको ": 4510,
      "ोलु195ङ्धे": 4511,
      " नेपाली ": 4512,
      " साधन परिचालन": 4513,
      " उच्च शिक्ष": 4514,
      " उच्च माध्यमिक": 4515,
      " वस्तुहरु": 4516,
      " वस्तुहरुको ": 4517,
      " कार्यक्रम सञ्चालन गरिनेछ।": 4518,
      "दोहोरो": 4519,
      " पूर्वाधारहरु": 4520,
      " पूर्वाधार विकास": 4521,
      " जनशक्ति तयार": 4522,
      "ेट194्र": 4523,
      "देशिक ब्यापार": 4524,
      "० मा ": 4525,
      "निजी क्षेत्रलाई": 4526,
      " गराईने": 4527,
      "उपलब्ध गराउने": 4528,
      " उपलव्धि": 4529,
      " रोजगारी सिर्जन": 4530,
      " रोजगारीका अवसर": 4531,
      " बाली संरक्षण": 4532,
      "ा बजार": 4533,
      "छ। यी": 4534,
      "ी मुलुक": 4535,
      " शहरीकरण": 4536,
      "ा संलग्न": 4537,
      " घटाउन": 4538,
      " प्राथमिकता दिने": 4539,
      " गर्दै लगिनेछ।": 4540,
      "प्राथमिकता ": 4541,
      " अघि बढाउन": 4542,
      " अधिराज्यभर": 4543,
      "ी खेती": 4544,
      " थलो": 4545,
      " ब्यवस्थापन": 4546,
      " पुग्ने अनुमान": 4547,
      " सञ्चय": 4548,
      "को संख्य": 4549,
      " सम्पदाको": 4550,
      " प्राथमिकता दिइनेछ। \r\n": 4551,
      "गैरसरकारी क्षेत्र": 4552,
      "ेन्ट": 4553,
      "ा प्रणाली ": 4554,
      " ठाउँ": 4555,
      "द्धारा ": 4556,
      " :   \r\n": 4557,
      " आर्थिक वृद्धिदर हासिल": 4558,
      " सरकारी क्षेत्रबाट": 4559,
      " चुनौती": 4560,
      "ाको अन्त्यसम्म": 4561,
      "गचष्क्क": 4562,
      " सुविधा पु194र्‍याउने": 4563,
      " प्रचलन": 4564,
      " प्रकारका ": 4565,
      " समष्टिगत आर्थिक": 4566,
      " क्रमिक रुपमा ": 4567,
      "र्जुमा, कार्यान्वयन": 4568,
      " ढुवानी": 4569,
      "ला जात": 4570,
      " आत्मनिर्भर": 4571,
      "ाठयक्रम": 4572,
      "ा संचिति": 4573,
      "ाँडफाँट": 4574,
      "कृष्ट": 4575,
      " कालोपत्रे": 4576,
      "ाज्ञिक": 4577,
      "य्.द्ध": 4578,
      "ोलु195ङ्धे पुल": 4579,
      ", तालिम": 4580,
      ", भू": 4581,
      ", क्षेत्रीय": 4582,
      "उदार": 4583,
      "क०": 4584,
      "घाँस": 4585,
      "चिकित्स": 4586,
      "ढी": 4587,
      "दलित": 4588,
      "बअप": 4589,
      "भन्द": 4590,
      "मझौ": 4591,
      "रक्ष": 4592,
      "र कार्यान्वयन": 4593,
      "वर": 4594,
      "हवाई": 4595,
      "ाए": 4596,
      "ेबाली": 4597,
      "ैठ": 4598,
      "५८": 4599,
      "ा (": 4600,
      " स्ट": 4601,
      " सदुपयोग": 4602,
      "को गठन": 4603,
      "्याउ": 4604,
      " गृह": 4605,
      " कक्ष": 4606,
      " कम्प्युटर": 4607,
      "िका स": 4608,
      "ारी ": 4609,
      "को लगानी": 4610,
      "्तु": 4611,
      " र राष्टि194्रय": 4612,
      " र सामाजिक": 4613,
      " र उत्पादकत्व": 4614,
      "ानकार": 4615,
      "लाम": 4616,
      " तीन": 4617,
      "न्छ।": 4618,
      "का े": 4619,
      " अझ": 4620,
      " उचय": 4621,
      " उनीहरु": 4622,
      "त्मक": 4623,
      "लाई क्रमशः": 4624,
      " मस": 4625,
      " हि": 4626,
      " तथा बजार": 4627,
      "विषय": 4628,
      " जमीन": 4629,
      "द्यावधिक": 4630,
      "ष्क": 4631,
      "194ङ्": 4632,
      " कार्यक्रमबाट": 4633,
      "194ङ्ग राष्टि194्रय": 4634,
      " गर्न ": 4635,
      "ता आ": 4636,
      " प्रतिस्थापन": 4637,
      "ागव": 4638,
      "को सञ्चालन": 4639,
      "न्दी": 4640,
      "ाह्र": 4641,
      " गरी त": 4642,
      " गरी उत्पादन": 4643,
      " राज्य": 4644,
      " संस्था तथा ": 4645,
      " सञ्चालन गर्ने": 4646,
      "वसोवास": 4647,
      "का लागि उपयुक्त": 4648,
      "राक": 4649,
      "्यायो": 4650,
      ", इ": 4651,
      ", झ": 4652,
      ", ट": 4653,
      " आवश्यक कदम चाल": 4654,
      " हुनेछ। \r\n": 4655,
      " हुने गरी": 4656,
      "पूर्व": 4657,
      "का साधन": 4658,
      " सेवा सुविध": 4659,
      " गरिनेछ। यस्ता ": 4660,
      "ोडेटो": 4661,
      " नीति र": 4662,
      " १६": 4663,
      " सिद्धान्त": 4664,
      "ात्मक सुधार": 4665,
      "को विकास गर्न": 4666,
      "को विकासका लागि": 4667,
      " स्वास्थ्य केन्द्र": 4668,
      "कार्यक्रमहरुलाई": 4669,
      " कम खर्चिलो": 4670,
      "ा प्राप्त": 4671,
      "ाको रुपमा ": 4672,
      " (ख": 4673,
      "नीतिहरु": 4674,
      " विशेष ध्यान": 4675,
      "ल्लो": 4676,
      "195ङ्धीण": 4677,
      " बनाउँदै": 4678,
      " टेवा ": 4679,
      "फलस्वरुप": 4680,
      "मा प्रत्यक्ष": 4681,
      "कि195ङ्ध": 4682,
      "ी आधार": 4683,
      "ी आर्थिक": 4684,
      " देखिएका ": 4685,
      " व्यवस्था गरिनेछ।  \r\n": 4686,
      "ाको अवधारण": 4687,
      " आधारमा ": 4688,
      " नसक्नु": 4689,
      " धान": 4690,
      "ी अध्ययन": 4691,
      "ी अभिवृद्धि": 4692,
      "ा जुट": 4693,
      " पु194र्‍याउने लक्ष्य": 4694,
      "ी बनाउन": 4695,
      " सूचना प्रवाह": 4696,
      " समुदायलाई": 4697,
      "२. आठौं योजनाको समीक्षा \r\n": 4698,
      " क्षमता वृद्धि": 4699,
      "ा गरिनेछ। ": 4700,
      " व्यवस्था मिलाइनेछ।": 4701,
      " प्रभावकारी ढ": 4702,
      " उपभोक्ता ": 4703,
      "को पाठ्यक्रम": 4704,
      "को उद्देश्य": 4705,
      " असुल": 4706,
      " असमान": 4707,
      "ठूला ": 4708,
      "मा उल्लेखनीय": 4709,
      "ी मात्र": 4710,
      " पहाडी क्षेत्र": 4711,
      "मुद्रा प्रदाय": 4712,
      " किसान": 4713,
      " कामदार": 4714,
      " नभई": 4715,
      "ाब्य": 4716,
      " सम्भावना ": 4717,
      " सम्भावना रहे": 4718,
      ", दोस्रो वर्ष": 4719,
      " अवसरहरु": 4720,
      " लगानी ": 4721,
      "को संयुक्त": 4722,
      "ता अभिवृद्धि": 4723,
      " दक्षिण": 4724,
      " विगतका ": 4725,
      " विकासको मूल": 4726,
      " प्राथमिकता दिइनेछ। ": 4727,
      "ृहत्": 4728,
      "त्तिकै": 4729,
      "तह सिँचाइ": 4730,
      "छ। यसैगरी": 4731,
      " पुरातात्विक": 4732,
      " प्रतिशतले बढेको ": 4733,
      " निकु": 4734,
      " सामान्य": 4735,
      " पश्चिमाञ्चल": 4736,
      " यथार्थ": 4737,
      " यथेष्ट": 4738,
      " प्रसारण लाइन": 4739,
      " सवारी": 4740,
      "पहाड": 4741,
      "मा जोड दिई": 4742,
      " टेवा पु194र्‍याउने": 4743,
      "बाहेक": 4744,
      " अग्रसर": 4745,
      "चिव": 4746,
      " ०.": 4747,
      ", प्रशोधन": 4748,
      "आयात": 4749,
      "उल्लेख": 4750,
      "घढढ": 4751,
      "च \r\n": 4752,
      "टिल": 4753,
      "तापनि": 4754,
      "ब्र": 4755,
      "बास": 4756,
      "भन": 4757,
      "म.": 4758,
      "मभ": 4759,
      "मन्त्रालय": 4760,
      "रन": 4761,
      "वधिक": 4762,
      "सिला": 4763,
      "हिम": 4764,
      "हाड": 4765,
      "ा194ङ": 4766,
      "ाएको ": 4767,
      "ाशील": 4768,
      "े्र": 4769,
      "३०": 4770,
      "३ करोड": 4771,
      "४ करोड": 4772,
      "९०": 4773,
      "र्प": 4774,
      "र्वस": 4775,
      "र्ता": 4776,
      "र्सि": 4777,
      "को कार्यक्रम": 4778,
      "को वृद्धि": 4779,
      " वे": 4780,
      "मा ख": 4781,
      "मा म": 4782,
      "मा लक्ष्य": 4783,
      "को उच्च": 4784,
      "को उपयुक्त": 4785,
      "ालमेल": 4786,
      " र आ": 4787,
      " र सु": 4788,
      "ित र": 4789,
      "जनता": 4790,
      "योडिन": 4791,
      "का निमित्त": 4792,
      " अल्प": 4793,
      " आउने": 4794,
      "लाई नियन्त्रण": 4795,
      "लाई निरन्तर": 4796,
      " मै": 4797,
      "ाउं": 4798,
      " नप": 4799,
      " तथा व": 4800,
      " तथा अनुसन्धान": 4801,
      "योजना अवधि": 4802,
      " संयन्त्र": 4803,
      " निराकरण": 4804,
      "ामिक": 4805,
      "प्रत्यक्ष": 4806,
      " गर्नसक्ने": 4807,
      "म्भाव्य": 4808,
      "ष्टिक": 4809,
      "िलसिला": 4810,
      " शुरु": 4811,
      "को सामाजिक": 4812,
      "न्दु": 4813,
      " परियोजन": 4814,
      "ाहन": 4815,
      " कृषि ऋण": 4816,
      " जनता ": 4817,
      " जनताको": 4818,
      " जनस्वास्थ्य": 4819,
      "उपाय": 4820,
      " निर्वाह": 4821,
      " निर्णय": 4822,
      " स्वास्थ": 4823,
      " स्वयं": 4824,
      "का लागि आवश्यक पर्ने": 4825,
      " व्यवस्था विभाग": 4826,
      " बढाइ": 4827,
      "को आन्तरिक": 4828,
      "हरुको विस्तार": 4829,
      "का सवै": 4830,
      " सेवा": 4831,
      " सेवा,": 4832,
      "अनुभव": 4833,
      "स्फ": 4834,
      " चुहावट": 4835,
      " १३.": 4836,
      " हुन जाने": 4837,
      " शिक्षालय": 4838,
      "रीव": 4839,
      "वृद्धिदर": 4840,
      "निर्धारित": 4841,
      "वाञ्चल": 4842,
      " साक्षर": 4843,
      " साक्षरता ": 4844,
      " वनाउने": 4845,
      " निर्माण कार्य": 4846,
      "कार्यक्रमलाई": 4847,
      " भएको र": 4848,
      " भएको छ। यस": 4849,
      "देखिएका ": 4850,
      "एको पाइ": 4851,
      " संरक्षण,": 4852,
      " प्रविधि प्याकेज": 4853,
      " (तालिका ": 4854,
      "मा आवद्ध": 4855,
      " समेतलाई": 4856,
      " ग्रामीण सडक": 4857,
      "ण्ट": 4858,
      " निजी क्षेत्रबाट": 4859,
      "पर्द": 4860,
      "ोलियम": 4861,
      " कारक": 4862,
      "ी आपूर्ति": 4863,
      " देखिएको छ। ": 4864,
      "सँग समन्वय": 4865,
      "ाको अवसर": 4866,
      " बैंकिंग": 4867,
      " पूर्वाधार निर्माण": 4868,
      " कृषकहरु": 4869,
      " लिई": 4870,
      " प्राविधिक सहयोग": 4871,
      " गरिबी ": 4872,
      " ब्यवसाय": 4873,
      " कायमै": 4874,
      " तहका ": 4875,
      " तहसम्म": 4876,
      " आठौं योजनाको ": 4877,
      " खाद्य सुरक्ष": 4878,
      " क्षेत्रीय विकास": 4879,
      "ी भेग": 4880,
      "म्पन्न": 4881,
      "को अनुभव": 4882,
      "ी बनाई": 4883,
      " सूचना तथा ": 4884,
      " दुवै": 4885,
      " गरिनेछ। यसै": 4886,
      " वढाउन": 4887,
      "ोकथाम": 4888,
      " ७.": 4889,
      "३.२.": 4890,
      " क्षमता बढ": 4891,
      " तथाच": 4892,
      "को उचित": 4893,
      " वैदेशिक व्यापार": 4894,
      "्दात": 4895,
      " ढल": 4896,
      " पोषणस्थिति": 4897,
      "भन्दा बढ": 4898,
      "हालसम्म": 4899,
      "ा संचालन": 4900,
      ",००० हे.": 4901,
      " सन्तोषजनक": 4902,
      " तथा पशु": 4903,
      "५. उद्देश्य \r\n": 4904,
      "त्यसै": 4905,
      " मन्त्रालयले": 4906,
      "का प्रमुख": 4907,
      " गरिबीको रेखामुनि": 4908,
      " गरिबीनिवारण": 4909,
      "मा जोड दिइनेछ। ": 4910,
      "मा जोड दिइनेछ।": 4911,
      " सहभागितामा ": 4912,
      " किसिमका ": 4913,
      " किसिमले": 4914,
      " अन्त्य": 4915,
      " हुन नसक्नु": 4916,
      " संघ संस्थाहरु": 4917,
      " कुरामा ": 4918,
      " कुशल": 4919,
      "ाठ्यपुस्तक": 4920,
      " पूरा भ": 4921,
      "को सिद्धान्त": 4922,
      " सकिएको छैन। \r\n": 4923,
      "महिलाहरुलाई": 4924,
      " संकाय": 4925,
      " भन्सार": 4926,
      "खासगरी ": 4927,
      "सकेका ": 4928,
      "छ। यसैगरी ": 4929,
      " प्राथमिकताका साथ": 4930,
      "को भूमिकालाई": 4931,
      " जीवनस्तर": 4932,
      " गर्न सकिएको छैन। \r\n": 4933,
      "लाई दृष्टिगत गरी ": 4934,
      " देखिन्छ। \r\n": 4935,
      " जोड दिने": 4936,
      "को कारणले": 4937,
      "ी तरकार": 4938,
      " पर्न ग": 4939,
      "स्थितिक": 4940,
      "मा हस्तान्तरण": 4941,
      "ता बढाउन": 4942,
      "दैन।": 4943,
      " क्षमतामा वृद्धि": 4944,
      " एउटा ": 4945,
      " आवधिक": 4946,
      " वृद्धिका लागि": 4947,
      " विक्री वितरण": 4948,
      " साधन र स्रोत": 4949,
      " मौद्रिक नीति": 4950,
      " के.भी.": 4951,
      " समायोजन": 4952,
      " पैठारी": 4953,
      "ागमन": 4954,
      " योजना आयोग": 4955,
      "ेट194्रोलियम": 4956,
      "राकिलो": 4957,
      "चिवालय": 4958,
      " े": 4959,
      " ्य": 4960,
      ") र": 4961,
      ",८": 4962,
      ", ए": 4963,
      ", उत्पादन": 4964,
      "ंस": 4965,
      "अभ": 4966,
      "आफ": 4967,
      "खन": 4968,
      "खभच": 4969,
      "ग्": 4970,
      "चग": 4971,
      "चाप": 4972,
      "चष्अ": 4973,
      "ज्दात": 4974,
      "टेव": 4975,
      "ढल": 4976,
      "दनुरुप": 4977,
      "पि": 4978,
      "पी.": 4979,
      "बम": 4980,
      "बचत": 4981,
      "भएको": 4982,
      "भाब्य": 4983,
      "मग": 4984,
      "मून": 4985,
      "मध्यम": 4986,
      "यि": 4987,
      "यापन": 4988,
      "रदर": 4989,
      "रेको ": 4990,
      "रितो": 4991,
      "ली": 4992,
      "वालिक": 4993,
      "सन": 4994,
      "ह्र": 4995,
      "हकारी": 4996,
      "ाअन्तर्गत": 4997,
      "ाक्षरता ": 4998,
      "।।": 4999,
      "२२": 5000,
      "२८": 5001,
      "२ करोड": 5002,
      "४५": 5003,
      "५ करोड": 5004,
      "ा कम": 5005,
      "कोच": 5006,
      "को समन्वय": 5007,
      "को व्यवस्था गरिनेछ। \r\n": 5008,
      "को परिमाण": 5009,
      "्यालो": 5010,
      "्याम्पस": 5011,
      " कथकतझ": 5012,
      " वा अ": 5013,
      "मा तालिम": 5014,
      "को १": 5015,
      "को उपलब्ध": 5016,
      "को बढ्दो": 5017,
      "को महत्व": 5018,
      "्त्र": 5019,
      " प्रमाण": 5020,
      " प्राधिक": 5021,
      " प्रतिकूल": 5022,
      " र ज": 5023,
      " र निजी क्षेत्र": 5024,
      " र २०": 5025,
      "हरुको आ": 5026,
      "लाह": 5027,
      "ासम्म": 5028,
      " तुलनात्मक": 5029,
      " आ६नो": 5030,
      " आपस": 5031,
      "स्थायित्व": 5032,
      " बमोजिम": 5033,
      " बोर्ड": 5034,
      "लाई पूर्ण": 5035,
      " विचार": 5036,
      " मिला": 5037,
      " मर्मत": 5038,
      " मन्दिर": 5039,
      " क्षेत्रतर्फ": 5040,
      "क्ष्म": 5041,
      "ावन": 5042,
      " भि": 5043,
      " तथा तालिम": 5044,
      " तथा वितरण": 5045,
      " विकास : ": 5046,
      "ातिक": 5047,
      " जस": 5048,
      "कारोवार": 5049,
      " कार्यक्रम र": 5050,
      " लान": 5051,
      "प्रभावकार": 5052,
      "लाग्ने": 5053,
      " योजनाको अन्त": 5054,
      "बाट प्राप्त": 5055,
      "ाहरुमा ": 5056,
      " उपत्य": 5057,
      "ाउने कार्य": 5058,
      " कृषि व्यवसाय प्रवर्द्धन": 5059,
      "ा समाधान": 5060,
      " निर्धारित": 5061,
      "्न जाने": 5062,
      " स्वीकृति": 5063,
      " उत्पादनमूलक": 5064,
      "राबर": 5065,
      ", ड": 5066,
      ", फ": 5067,
      ", २०": 5068,
      " बढेको ": 5069,
      " बढी भ": 5070,
      " बढाइनेछ। \r\n": 5071,
      " हुनेछ।": 5072,
      " हुने गरी ": 5073,
      " सेवाट": 5074,
      "यात्र": 5075,
      "धिकांश": 5076,
      "ा अपन": 5077,
      "ा अस्पताल": 5078,
      " सहज": 5079,
      "मूल्यांकन": 5080,
      " सिं": 5081,
      " सिफारिस": 5082,
      "ताका साथ": 5083,
      "हरुको ख": 5084,
      "दरमु": 5085,
      " प्रभावित": 5086,
      "निर्णय": 5087,
      " ९द": 5088,
      " वन पैदावार": 5089,
      " कार्यान्वयनबाट": 5090,
      " स्रोत साधन": 5091,
      " पु194र्‍याइनेछ। ": 5092,
      "क्षेत्रहरु": 5093,
      "क्षेत्रगत": 5094,
      " व्यवसायी": 5095,
      " उद्योगलाई": 5096,
      " पहिरो": 5097,
      "मा आर्थिक": 5098,
      " तथा स्व": 5099,
      " परिचालन गरिनेछ। \r\n": 5100,
      " राखी ": 5101,
      " वातावरणको सिर्जन": 5102,
      "तिकुल": 5103,
      " दिइनेछ। ": 5104,
      "को रुपमा रहेको ": 5105,
      "को प्रक्रिय": 5106,
      " औद्योगीकरण": 5107,
      " सीमा": 5108,
      " देशको आर्थिक": 5109,
      " अनुसन्धान केन्द्र": 5110,
      "सँग सम्वन्धित": 5111,
      " प्रवर्द्धन गर्न": 5112,
      " जस्ता कार्य": 5113,
      " जस्ता कार्यक्रमहरु": 5114,
      "मा जल": 5115,
      " गराइनेछ।  \r\n": 5116,
      " कार्यक्रम सञ्चालन गर्न": 5117,
      " पूर्वाधारहरुको विकास": 5118,
      " तयार गरी": 5119,
      "कृषि विकास": 5120,
      " पक्षहरु": 5121,
      " विश्वास": 5122,
      " समूहलाई": 5123,
      " आठौं योजनावधिमा ": 5124,
      " त्यति": 5125,
      "दुवै": 5126,
      "तालाई दृष्टिगत": 5127,
      " विकट": 5128,
      " पशुपालन": 5129,
      " समिति गठन": 5130,
      " उपलव्ध गराउन": 5131,
      "को तथ": 5132,
      " गरिनेछ। यसका लागि": 5133,
      "ूरक": 5134,
      " बिजन": 5135,
      " बिभिन्न": 5136,
      "शास्त्र": 5137,
      "ाका आधार": 5138,
      " उपभोक्ताहरु": 5139,
      " उपभोक्ता समिति": 5140,
      "को उर्व": 5141,
      " जनसंख्यालाई": 5142,
      "ंदैन। ": 5143,
      "हरुको सहभागित": 5144,
      " अर्थव्यवस्थ": 5145,
      "मा उत्पादित": 5146,
      " सरकारी संस्थान": 5147,
      "ारीरिक": 5148,
      " स्थलहरुमा ": 5149,
      ",००० हेक्टर": 5150,
      " अभिबृद्धि": 5151,
      "हित संरक्षण": 5152,
      "ी नदी": 5153,
      " पुनरावलोकन": 5154,
      " जोड दिइनेछ।": 5155,
      " अधिकृत": 5156,
      " नभएका ": 5157,
      " क्षेत्रको योगदान": 5158,
      "का पकेट": 5159,
      " तथा मूल्यांकन": 5160,
      "लागू गरिनेछ। \r\n": 5161,
      "मा भने": 5162,
      "काशित": 5163,
      "मा ल्याउने": 5164,
      "ा प्रदान गर्न": 5165,
      "िसाव": 5166,
      " आवश्यकता अनुसार": 5167,
      " भूमिका र": 5168,
      "कारात्मक प्रभाव": 5169,
      "को व्यवस्था गर्ने": 5170,
      "च्छेद": 5171,
      "तथ्यांक": 5172,
      " जस्ता स": 5173,
      "मा कमी आ": 5174,
      "म्वन्धित": 5175,
      "देखाप": 5176,
      " पकेट क्षेत्र": 5177,
      " जडीबुट": 5178,
      " उनीहरुको": 5179,
      " गरी जम्मा १": 5180,
      "कर्ताहरुलाई": 5181,
      " जोड दिई": 5182,
      " किलोवाट": 5183,
      " कमजोरी": 5184,
      " प्रचलित": 5185,
      " काठमाडौं उपत्यक": 5186,
      "मा प्रतिस्पर्": 5187,
      " घरेलु तथा साना उद्योग": 5188,
      "वाणिज्य बैंक": 5189,
      "उयचत": 5190,
      " आठौ": 5191,
      "मा जोड दिने": 5192,
      " भुमिगत": 5193,
      " महाशाख": 5194,
      "र्वा195ङ्धीण": 5195,
      "नियन्त्रित": 5196,
      "ीडित": 5197,
      " मसान्त": 5198,
      "ी मात्रामा ": 5199,
      " प्राधिकरण": 5200,
      ", श": 5201,
      ", रोजगार": 5202,
      ", पर्यटन": 5203,
      ", अनुगमन": 5204,
      ", विद्युत": 5205,
      "अत्यावश्यक": 5206,
      "क)": 5207,
      "कष्": 5208,
      "कुर": 5209,
      "ख्त": 5210,
      "गाह": 5211,
      "गचभ": 5212,
      "ङ्ध": 5213,
      "छ तर": 5214,
      "टी.": 5215,
      "णाली": 5216,
      "दय": 5217,
      "धेरै": 5218,
      "नज": 5219,
      "नशील": 5220,
      "बष्": 5221,
      "भे": 5222,
      "माटो": 5223,
      "लिन": 5224,
      "लघु": 5225,
      "वात": 5226,
      "वन्ध": 5227,
      "सूचन": 5228,
      "हार्य": 5229,
      "हजार": 5230,
      "ाभ": 5231,
      "ाएका ": 5232,
      "िएका ": 5233,
      "ि195ङ्ध": 5234,
      "। साथै": 5235,
      "२६": 5236,
      "७३": 5237,
      "ा वृद्धि": 5238,
      " से": 5239,
      " सकेको ": 5240,
      "को पहिचान": 5241,
      "को सुरक्ष": 5242,
      "को करिव": 5243,
      "्यापार": 5244,
      " गलैंच": 5245,
      " कन्ट": 5246,
      " कृषिक्षेत्र": 5247,
      " वाली": 5248,
      " वा स": 5249,
      "मा त": 5250,
      "मा थप": 5251,
      "मा नियन्त्रण": 5252,
      "मा निरन्तर": 5253,
      "िकरण": 5254,
      "को ह": 5255,
      "को शिक्ष": 5256,
      "को निम्ति": 5257,
      "को ठूलो": 5258,
      "को भौतिक": 5259,
      "को महत्वपूर्ण": 5260,
      "को हक": 5261,
      "्त्": 5262,
      "ालबालिक": 5263,
      " प्रजात": 5264,
      " र आवश्यक": 5265,
      " र आर्थिक": 5266,
      " र सीप": 5267,
      " राम्रो": 5268,
      " र उत्पादकत्व वृद्धि": 5269,
      "हरुमध्ये": 5270,
      "ी रुपमा ": 5271,
      "ी नीति": 5272,
      "ितरण": 5273,
      "जन्तु": 5274,
      "का दृष्टि": 5275,
      "का विविध": 5276,
      " अब": 5277,
      " उत्थान": 5278,
      "त्र्": 5279,
      "स्थिर": 5280,
      " बर्ष": 5281,
      " बारे": 5282,
      " क्षेत्रमा सिँचाइ": 5283,
      "ावाप": 5284,
      "ावद्ध": 5285,
      " नदिन": 5286,
      " तथा संरक्षण": 5287,
      "क्रमिक": 5288,
      "ापालन": 5289,
      "ापदार्थ": 5290,
      " संच": 5291,
      "ाटनगर": 5292,
      " गरिनेछ": 5293,
      "194ङख्य": 5294,
      " गर्ने क्रम": 5295,
      "रिय": 5296,
      "194ङ्ग विशेष": 5297,
      "194ङ्ग क्षेत्रीय": 5298,
      "194ङ्ग हाल": 5299,
      "ामग्र": 5300,
      "एको अ": 5301,
      "यसलाई": 5302,
      "ता संरक्षण": 5303,
      "ता हासिल": 5304,
      " व्यवस्थामा ": 5305,
      " योजना तयार": 5306,
      " योजनाबद्ध": 5307,
      " प्रतिवद्ध": 5308,
      " शी": 5309,
      "माच": 5310,
      "ाउने उद्देश्यले": 5311,
      "195त्र्": 5312,
      "भिलेख": 5313,
      "को अन्तर": 5314,
      "को अतिरिक्त": 5315,
      " कृषि व्यवसाय": 5316,
      "दिइ": 5317,
      "क्ला": 5318,
      " एवं आर्थिक": 5319,
      ", २": 5320,
      ", ३": 5321,
      "ाइनेछ। साथै": 5322,
      "का सामान": 5323,
      " नीति,": 5324,
      " सहायत": 5325,
      " २६": 5326,
      " १६.": 5327,
      "संख्यक": 5328,
      "ताबाट": 5329,
      "र्जित": 5330,
      " वर्षहरुमा ": 5331,
      "नेपालमा ": 5332,
      "नेपालले": 5333,
      "निर्देश": 5334,
      " यसलाई": 5335,
      "ी तथा प्रविधि": 5336,
      " स्वास्थ्य चौक": 5337,
      " लक्ष्य रहेको": 5338,
      " सरकारी खर्च": 5339,
      " कमी आ": 5340,
      " ग्राहस्थ्य": 5341,
      " छन ्": 5342,
      " छिमेक": 5343,
      " यी क्षेत्र": 5344,
      " सुविधा र": 5345,
      " विस्तार गर्न": 5346,
      " स्थापना भ": 5347,
      " वातावरण तयार": 5348,
      "ा तथा स": 5349,
      " ग्रामीण क्षेत्र": 5350,
      "को प्रवाह": 5351,
      " बनाइनेछ। \r\n": 5352,
      " कारखान": 5353,
      "ी आकर्षित": 5354,
      "ाको अभाव": 5355,
      " गराइनेछ। यस": 5356,
      "ाठमाडौं": 5357,
      "परिहार्य": 5358,
      " उपयुक्त प्रविधि": 5359,
      " पोष": 5360,
      "ांै": 5361,
      "नवौं योजनाको ": 5362,
      "ेलमार्ग": 5363,
      " ल्याइ": 5364,
      " व्यवस्था मिलाई": 5365,
      "मा समन्वय": 5366,
      "मा संचालन": 5367,
      " हुन सकेको देखि": 5368,
      " व्यवस्था मिलाउने": 5369,
      "आठौं योजनावधिमा ": 5370,
      " सूचना प्रणाली": 5371,
      " दुर्": 5372,
      "ा आर्जन": 5373,
      "नीहरुको ": 5374,
      " कर्जाको": 5375,
      " वढी": 5376,
      " सम्वन्धी ": 5377,
      "को मौ": 5378,
      " बाली सघन": 5379,
      " गैरसरकारी क्षेत्र": 5380,
      " ७०": 5381,
      " तथा प्रविधि": 5382,
      " तथा प्रशोधन": 5383,
      " उपभोक्ता स": 5384,
      "लिखित": 5385,
      "उपलव्धि": 5386,
      "को आवश्यकता": 5387,
      " विद्यमान चुनौती ": 5388,
      ", मौ": 5389,
      "ोपण": 5390,
      "केन्द्रीय": 5391,
      "र्भिक": 5392,
      " क्रियाशील": 5393,
      " गर्दै लगिनेछ। ": 5394,
      "वर्षहरुमा ": 5395,
      "ाख्र": 5396,
      ", तरकार": 5397,
      "शहरी क्षेत्रमा ": 5398,
      "को अभावमा ": 5399,
      "मा सरकारी क्षेत्र": 5400,
      " प्रशिक्षण केन्द्र": 5401,
      " भूमिगत": 5402,
      " प्रवन्ध": 5403,
      "भअय": 5404,
      " अपनाई": 5405,
      " पूरा गर्न": 5406,
      " व्यक्तिगत": 5407,
      " बढी मूल्य": 5408,
      ") लाई": 5409,
      " छन्। \r\n": 5410,
      "त्ता ": 5411,
      " विदेशी मुद्रा संचिति": 5412,
      ", धितोपत्र": 5413,
      "ा बढाउन": 5414,
      " क्यू": 5415,
      " औषधी": 5416,
      "देखा प": 5417,
      "नगरपालिक": 5418,
      " उद्यमी": 5419,
      "ता प्राप्त": 5420,
      "बतष्यल०": 5421,
      " वटा स": 5422,
      "ाधिकार": 5423,
      " शिक्षाको गुणस्तर": 5424,
      " माध्यमबाट": 5425,
      " गोदाम": 5426,
      " प्रदूषण नियन्त्रण": 5427,
      " ट194्राफिक": 5428,
      " र वाह्य": 5429,
      " मध्यस्थ": 5430,
      "लगानीकर्ताहरु": 5431,
      "मा ह्रास": 5432,
      "दैन। \r\n": 5433,
      "ामान्य": 5434,
      " सरकारी, गैरसरकारी तथा ": 5435,
      "दीर्घकालीन कृषि योजनाले": 5436,
      "यथार्थ": 5437,
      "न्दरगाह": 5438,
      "फोन": 5439,
      "मौद्रिक नीति": 5440,
      "ाहित्य": 5441,
      "शोधनान्तर स्थिति": 5442,
      "मौसमी तरकार": 5443,
      " सुन्तला जात": 5444,
      "195िङ्ध": 5445,
      " प्रस्तावित": 5446,
      " रोक्न": 5447,
      "मा विदेशी ": 5448,
      "काष्ठ वन उपज": 5449,
      "मलखाद": 5450,
      "ान्सफर": 5451,
      " छिटो": 5452,
      "दरमुकाम": 5453,
      "ख्तिय": 5454,
      " :": 5455,
      "((": 5456,
      ", ल": 5457,
      ",००": 5458,
      ",५००": 5459,
      "आपूर्ति": 5460,
      "ऊनी": 5461,
      "कपुर": 5462,
      "खुर": 5463,
      "गट": 5464,
      "गामी": 5465,
      "गृह": 5466,
      "छ \r\n": 5467,
      "ज वृद्धि": 5468,
      "जाज": 5469,
      "ठ  \r\n": 5470,
      "धुर": 5471,
      "धबच": 5472,
      "नावश्यक": 5473,
      "प्त": 5474,
      "बी निवारण": 5475,
      "बाली ": 5476,
      "बजेट": 5477,
      "यत्": 5478,
      "यस्तै": 5479,
      "लफल": 5480,
      "शात": 5481,
      "िभ": 5482,
      "ृय": 5483,
      "ैां": 5484,
      "्दा ": 5485,
      "४४": 5486,
      "५५": 5487,
      "६ट": 5488,
      "ा व": 5489,
      "ा क्षेत्र": 5490,
      " सज": 5491,
      " सन्दर्भ": 5492,
      "को प्रभाव": 5493,
      " वीच": 5494,
      " वमोजिम": 5495,
      "नेछ। ": 5496,
      "नेतृत्व": 5497,
      "मा केह": 5498,
      "को २": 5499,
      "को निर्यात": 5500,
      "को मुख्य": 5501,
      "को छनौट": 5502,
      "्ती": 5503,
      " प्रश": 5504,
      " प्रयत्": 5505,
      " र प्राविधिक": 5506,
      " र सरल": 5507,
      "लाउने": 5508,
      "लाशय": 5509,
      "ी भूमिक": 5510,
      " तोक": 5511,
      "न्धि": 5512,
      "न्सार": 5513,
      "यो। यस": 5514,
      " अतिरिक्त": 5515,
      " आबद्ध": 5516,
      "त्काल": 5517,
      " बराबर": 5518,
      "लाई बजार": 5519,
      "लाई बढी": 5520,
      "लाई निरुत्साहित": 5521,
      " कार्यमूलक": 5522,
      " वि.": 5523,
      " विन": 5524,
      "नु आवश्यक": 5525,
      " मध्यम": 5526,
      " हाम्रो": 5527,
      "ाउदै": 5528,
      "ाउरा": 5529,
      " नी": 5530,
      " दो": 5531,
      " दशक": 5532,
      " तथा सम्": 5533,
      " तथा भौतिक": 5534,
      " तथा संस्थागत": 5535,
      "योजना त": 5536,
      "योजनाको अन्तिम वर्ष": 5537,
      " विकास गरी": 5538,
      " विकास केन्द्र": 5539,
      "ापरीक्षण": 5540,
      "द्धिक": 5541,
      " जटिल": 5542,
      "रिब": 5543,
      "194ङ्ग श्रम": 5544,
      "मा सो": 5545,
      "मा समा": 5546,
      "मा स्पष्ट": 5547,
      " गर्न पाउने": 5548,
      "ता प": 5549,
      "बाट मात्र": 5550,
      " खोज": 5551,
      " खोल": 5552,
      "ेवल": 5553,
      "गरपालिक": 5554,
      " सम्भाब्य": 5555,
      "को सह": 5556,
      "को सफल": 5557,
      "को साधन": 5558,
      "को सघन": 5559,
      "को सन्तुलित": 5560,
      "भावकारी": 5561,
      "ाहिर": 5562,
      " गरियो। ": 5563,
      " कृषि प्रसार": 5564,
      "उपज": 5565,
      "दैनिक": 5566,
      " गरी राष्टि194्रय": 5567,
      "्न सक्ने": 5568,
      " उत्पादन गर्ने": 5569,
      ", डि": 5570,
      ", फलफूल": 5571,
      "हरुलाई पनि": 5572,
      "का सबै": 5573,
      " सेवा सञ्चालन": 5574,
      "धिकतम": 5575,
      " के क": 5576,
      " नीति अवलम्वन": 5577,
      " चल": 5578,
      " चार": 5579,
      " चक्र": 5580,
      "त्यस्तो": 5581,
      "न्यजन्तु": 5582,
      " १२.": 5583,
      " १७.": 5584,
      " हुनसकेको छैन": 5585,
      " शिक्षा परि": 5586,
      "हरुको हक": 5587,
      "र्यटक": 5588,
      " प्रभाव पार्ने": 5589,
      "ँचाई": 5590,
      " ९ध": 5591,
      " आर्थिक तथा सामाजिक": 5592,
      "ग्रसर": 5593,
      " साझेदार": 5594,
      "ी बस्तु": 5595,
      "ी ब्यवस्थ": 5596,
      " स्वास्थ्यसेव": 5597,
      " निर्माण,": 5598,
      " सरकारी निकाय": 5599,
      "कार्यक्रम सञ्चालन": 5600,
      " भएको देखि": 5601,
      " छरितो": 5602,
      " स्रोत परिचालन": 5603,
      "क्रियाकलाप": 5604,
      " यी ": 5605,
      "्ने अनुमान": 5606,
      "र्घटन": 5607,
      " सुविधाको": 5608,
      "वन निर्माण": 5609,
      " घुम": 5610,
      " परिचालन गरी ": 5611,
      " गरिएको छ। यस": 5612,
      " राखिने": 5613,
      " दिइनेछ।": 5614,
      " भूभाग": 5615,
      " स्तरयुक्त": 5616,
      " गराउने र": 5617,
      "शुरु": 5618,
      " २०४९": 5619,
      "किसान": 5620,
      " नेपालको": 5621,
      " जिल्लास्तरीय": 5622,
      " पुग्न ग": 5623,
      " गैर सरकारी संस्थाहरु": 5624,
      "छैन। ": 5625,
      "ी रोग": 5626,
      " प्राप्ति": 5627,
      "परिपूर्ति": 5628,
      " सम्वद्ध": 5629,
      "नवौं योजनावधिमा ": 5630,
      "नवौं योजना :  \r\n": 5631,
      " लाख ४": 5632,
      " ऋण प्रवाह": 5633,
      " रहनु": 5634,
      " भइरहेका ": 5635,
      "िल्ला ": 5636,
      " क्षेत्रीय असन्तुलन": 5637,
      " भएकोमा ": 5638,
      " अर्ध": 5639,
      " अर्व": 5640,
      "ा जग": 5641,
      "ा जिल्ला": 5642,
      "हो।": 5643,
      " प्रतिशतले मात्र": 5644,
      "आठौं योजना अवधि": 5645,
      " लगिनेछ। \r\n": 5646,
      " को स्थिर": 5647,
      "को ब्यवस्थ": 5648,
      " रोजगारीको अवसर": 5649,
      " दुग्ध": 5650,
      "उच्च माध्यमिक": 5651,
      " सोही ": 5652,
      "को मात्र": 5653,
      "तीन": 5654,
      " ७५": 5655,
      " मानसिक": 5656,
      " तथा प्राथमिक": 5657,
      " व्यवस्था मिलाइनेछ। ": 5658,
      " प्रभावकारी रुपमा सञ्चालन": 5659,
      " सम्भाव्यता": 5660,
      "ा समस्य": 5661,
      " तर्जुमा गरी ": 5662,
      " खानेपानी आ": 5663,
      "भन्दा कम": 5664,
      "छ। यस्तै": 5665,
      " स्थलगत": 5666,
      "कुल गार्हस्थ्य उत्पादन": 5667,
      " गतिशील": 5668,
      " घटाउने": 5669,
      " निजी तथा ": 5670,
      " अधिकतम": 5671,
      "प्राथमिकता": 5672,
      "को माध्यमवाट": 5673,
      " क्षेत्रको दीर्घकालीन": 5674,
      "ी खेत": 5675,
      " तथा मूल्या195141न": 5676,
      "मा भएको": 5677,
      " गर्ने नीति लिइने": 5678,
      "स्वास्थ्य चौक": 5679,
      " र तिन": 5680,
      "मा सरकारी": 5681,
      "वातावरण संरक्षण": 5682,
      " कुरा": 5683,
      " कुखुर": 5684,
      " प्राकृतिक प्रकोप": 5685,
      " सरल र": 5686,
      "जलविद्युत््": 5687,
      " आयोजना (": 5688,
      "उनीहरु": 5689,
      " स्वदेशी": 5690,
      " स्वदेशी ": 5691,
      " भएकोले यस": 5692,
      "एको छैन। ": 5693,
      " योगदान पु194र्‍याउने": 5694,
      " तथा मर्मत": 5695,
      " प्रत्येक वर्ष": 5696,
      ", धार्मिक": 5697,
      "म्मेवारी": 5698,
      "दक्षिण": 5699,
      "ेडियो": 5700,
      "भारतीय": 5701,
      "मा कमी ल्य": 5702,
      " सन् १९": 5703,
      " प्रजनन्दर": 5704,
      "दुर्गम क्षेत्र": 5705,
      " उद्यमशील": 5706,
      " ज्येष्ठ नागरिक": 5707,
      " सुविधा पु194र्‍याउन": 5708,
      "वेदनशील": 5709,
      "यच्क": 5710,
      "      ज्ञ": 5711,
      " हवाई यातायात": 5712,
      " खालका ": 5713,
      " चिकित्सालय": 5714,
      " घढढ  \r\n": 5715,
      " डिजाइन": 5716,
      "मा सघाउ पु194र्‍याउने": 5717,
      "औषधी": 5718,
      "का संस्थान": 5719,
      " हुन सकेन। ": 5720,
      " सघाउ पु194र्‍याउने": 5721,
      "विदेशी लगानी": 5722,
      "ेनर": 5723,
      " अपेक्षा गरि": 5724,
      " प्रकृति": 5725,
      " रेसम खेती": 5726,
      "फोहर": 5727,
      "यिनै": 5728,
      " नवौ": 5729,
      "्या194ङ्क": 5730,
      " तोकि": 5731,
      "्डयन": 5732,
      " एसियाली": 5733,
      "४८195ङ्ग४९ को स्थिर": 5734,
      " व्यवहारिक": 5735,
      " प्रणाली अ": 5736,
      " विराटनगर": 5737,
      "ेलिफोन": 5738,
      " प्रविधिमा ": 5739,
      "मा प्रभावकारिता ल्य": 5740,
      "एउटा ": 5741,
      "ाधीन": 5742,
      " जस्ता पक्ष": 5743,
      "ास्कृतिक": 5744,
      " राजनैतिक": 5745,
      " २००० सम्म": 5746,
      "ागवानी": 5747,
      "्यायोचित": 5748,
      " कन्टेनर": 5749,
      " विद्यमान चुनौती \r\n": 5750,
      "जाजत": 5751,
      ", सडक": 5752,
      ", बि": 5753,
      "उत्प": 5754,
      "उत्पादक": 5755,
      "उचित": 5756,
      "उत्तर": 5757,
      "उन्मुख": 5758,
      "एका स": 5759,
      "किन": 5760,
      "कभलत": 5761,
      "खर": 5762,
      "खाना ": 5763,
      "गाउँ": 5764,
      "चल": 5765,
      "चबत": 5766,
      "चलित": 5767,
      "छाल": 5768,
      "छुट": 5769,
      "छ भन्ने": 5770,
      "जोड दिइने": 5771,
      "झदार": 5772,
      "झभलत": 5773,
      "टवर्": 5774,
      "ढी,": 5775,
      "ढाँच": 5776,
      "धित्व": 5777,
      "ध्द": 5778,
      "पान": 5779,
      "पशु": 5780,
      "ब०": 5781,
      "यी क्षेत्र": 5782,
      "रक": 5783,
      "रा ": 5784,
      "वाद": 5785,
      "श्लेषण": 5786,
      "ष्ष": 5787,
      "सहित": 5788,
      "हाँ": 5789,
      "ाा": 5790,
      "ुँ": 5791,
      "ुरा": 5792,
      "ेह": 5793,
      "ेरी": 5794,
      "ोबार": 5795,
      "ौष्टिक": 5796,
      "्र्": 5797,
      "२)": 5798,
      "५६": 5799,
      "६७": 5800,
      "७०": 5801,
      "ा राख": 5802,
      "र्वाधार": 5803,
      "र्वेक्षण": 5804,
      "्रिम": 5805,
      " सेन्": 5806,
      " सापेक्ष": 5807,
      "को व्यवस्थ": 5808,
      "को परि": 5809,
      "को विभिन्न": 5810,
      "को समस्य": 5811,
      "को वार्षिक": 5812,
      " पद": 5813,
      " पू": 5814,
      " गोर": 5815,
      "को द": 5816,
      "को नीति": 5817,
      "को जीवनस्तर": 5818,
      "को औसत": 5819,
      " प्रत्याभूति": 5820,
      " र वातावरण": 5821,
      " र वितरण": 5822,
      " रोपन": 5823,
      "ान्": 5824,
      "ानकारी": 5825,
      "हरु सञ्चालन": 5826,
      " गराउनु": 5827,
      " तल": 5828,
      "नियोजन": 5829,
      "नियोजित": 5830,
      "जनतालाई": 5831,
      "जनताको ": 5832,
      " अनौपचारिक": 5833,
      " अन्वेषण": 5834,
      " आज": 5835,
      " आयु": 5836,
      " बाख्र": 5837,
      "लाई आवश्यक": 5838,
      "लाई विशेष": 5839,
      "लाई न्यून": 5840,
      " कार्यनीति": 5841,
      " समाप्त": 5842,
      " मृत्युदर": 5843,
      " हर": 5844,
      " भ्रमण": 5845,
      " नद": 5846,
      " नगरी ": 5847,
      " नक्स": 5848,
      " नदिने": 5849,
      " नपुग": 5850,
      " दैनिक": 5851,
      " तथा न": 5852,
      " तथा वि": 5853,
      " तथा व्यवस्थ": 5854,
      " तथा उत्पादकत्व": 5855,
      "योजनावधि": 5856,
      " विकास कार्य": 5857,
      " विकास गर्ने": 5858,
      " विकास एवं": 5859,
      " विकास निर्माण": 5860,
      " विकास :  \r\n": 5861,
      " विकास कोष": 5862,
      "ापत": 5863,
      "ापी": 5864,
      "विगत": 5865,
      "विधिक": 5866,
      " जस्तो": 5867,
      " जलाधार": 5868,
      " जोखिम": 5869,
      " गर्ने ": 5870,
      " गर्नेछ। ": 5871,
      " गर्ने \r\n": 5872,
      " कार्यक्रम,": 5873,
      " कार्यक्रमह194रू": 5874,
      "194ङ्ग विश्वविद्यालय": 5875,
      "194ङ्ग आदिवासी तथा जनजाति": 5876,
      "194ङ्ग दलित तथा उपेक्षित": 5877,
      "प्रदान": 5878,
      "प्रयास": 5879,
      "मा सडक": 5880,
      "मा स्नात": 5881,
      "मा सञ्चालित": 5882,
      "एको देखि": 5883,
      "यसै": 5884,
      " व्यवस्था सु": 5885,
      " शैया ": 5886,
      " उपेक्षित": 5887,
      "हेर": 5888,
      " अनुु": 5889,
      "को सक्रिय": 5890,
      "को सर्वा195ङ्धीण": 5891,
      "ीकर": 5892,
      "को अस": 5893,
      " कृषि तथा वन": 5894,
      "दै जाने": 5895,
      " गरी स": 5896,
      " गरी विभिन्न": 5897,
      " व्यवस्था र": 5898,
      " व्यवस्था \r\n": 5899,
      " व्यवस्था गरि": 5900,
      "क्दा ": 5901,
      " एवं सामाजिक": 5902,
      " बढी मोल जाने": 5903,
      "हरुको कार्य": 5904,
      "हरुको व्यवस्थापन": 5905,
      "हरुको सुदृढीकरण": 5906,
      " गरिनेछ। 194ङ्ग": 5907,
      "ृत्रिम": 5908,
      " नीति एवं": 5909,
      "वारिक": 5910,
      " ११": 5911,
      " १००": 5912,
      " १ लाख": 5913,
      " १९.": 5914,
      " भएका स": 5915,
      "छ। यसका अतिरिक्त": 5916,
      "हरुको म": 5917,
      "हरुको लागि": 5918,
      "ंकन": 5919,
      "भूस्वामित्व": 5920,
      " स्थानीय विकास कार्यक्रम": 5921,
      " स्थानीय स्तरमा ": 5922,
      " आर्थिक क्रियाकलाप": 5923,
      " लक्ष्यहरु": 5924,
      " लक्ष्य \r\n": 5925,
      " आयोजना,": 5926,
      " आयोजना अन्तर्गत": 5927,
      " भएको थियो। ": 5928,
      " भएको देखिन्छ।": 5929,
      " ग्रहण": 5930,
      " रुपमा अघि": 5931,
      " छरिएर": 5932,
      " छु194ट्टै": 5933,
      "को लागि आवश्यक पर्ने": 5934,
      " तालिम,": 5935,
      " तालिम प्रदान": 5936,
      "मा पर्न": 5937,
      "मा पुग": 5938,
      " बजारबाट": 5939,
      " उद्योगहरुलाई": 5940,
      " सम्बन्धमा ": 5941,
      " तथा सीप": 5942,
      " घोडेटो": 5943,
      " ग्रामीण पूर्वाधार": 5944,
      " संस्थाहरुले": 5945,
      "को रुपमा लि": 5946,
      "को प्रयास": 5947,
      "ज्येष्ठ नागरिक": 5948,
      "एकाइ": 5949,
      "एकातिर": 5950,
      "शिक्षा,": 5951,
      "ष्ठरोग": 5952,
      "ोलियो": 5953,
      " नेपालको ": 5954,
      " क्षमतालाई": 5955,
      "सरकारी": 5956,
      " गैरकृषि": 5957,
      " सिँचाइ आयोजनाहरु": 5958,
      " सिँचाइ विभाग": 5959,
      "ंगले": 5960,
      " रहेको र": 5961,
      " सम्भावित": 5962,
      " गुणस्तर नियमन": 5963,
      " कार्यक्रम सञ्चालन गरिने": 5964,
      " ३७": 5965,
      " प्राप्तिका लागि": 5966,
      " उपलब्ध गराई": 5967,
      " गर्न सके": 5968,
      "निजी क्षेत्रबाट": 5969,
      " नवौं योजनाको ": 5970,
      " त्यस्तो": 5971,
      "दुषण": 5972,
      " पशु स्वास्थ्य": 5973,
      "ी भर्न": 5974,
      " विद्युत्््": 5975,
      " विद्युत्् महसुल": 5976,
      " सराइ": 5977,
      "छ र यस": 5978,
      ", कानुन": 5979,
      " लाग्ने": 5980,
      "ा आपूर्ति": 5981,
      "को तालिम": 5982,
      ", सञ्चार": 5983,
      " प्रयासहरु": 5984,
      " परिवारलाई": 5985,
      "छ। साथै,": 5986,
      "श्रमशक्ति": 5987,
      "ी.ए": 5988,
      " बालश्रम": 5989,
      " हो।": 5990,
      " वर्गलाई": 5991,
      " औद्योगिक विकास": 5992,
      "ा संरक्षण": 5993,
      " जिल्ला विकास समिति": 5994,
      "आवश्यकता ": 5995,
      "ारेज": 5996,
      " निम्नानुसार": 5997,
      " घटाउँदै": 5998,
      " सुविधा उपलव्ध": 5999,
      ", दक्ष": 6000,
      "मा भएको ": 6001,
      " अनुदान आयोग": 6002,
      " संरचनामा ": 6003,
      " र तराई": 6004,
      " संघसंस्थ": 6005,
      "हारिक": 6006,
      " गैरसरकारी संस्थाहरुलाई": 6007,
      " प्राकृतिक स्रोत": 6008,
      "खानेपानी आ": 6009,
      " प्रचारप्रसार": 6010,
      " आयोजना कार्यान्वयन": 6011,
      " आफू": 6012,
      " आफ्न": 6013,
      " अपनाइ": 6014,
      "मा सञ्चालन हुने": 6015,
      " प्राथमिकता दिइनेछ।": 6016,
      "ष्तथ": 6017,
      "ृहत": 6018,
      "विदेशी": 6019,
      " छन्।": 6020,
      "ुलनात्मक लाभका ": 6021,
      "आयामिक": 6022,
      "को भूमिका ": 6023,
      "दक्ष जनशक्ति": 6024,
      " हुने अनुमान छ। ": 6025,
      " पुँजी उठ": 6026,
      " पुँजी खात": 6027,
      " सालमा ": 6028,
      "दुर्गम क्षेत्रमा ": 6029,
      " कच्चापदार्थ": 6030,
      " विद्युतीकरण": 6031,
      "सुस": 6032,
      " निकायहरुबीच": 6033,
      "ाको अन्त्यसम्ममा ": 6034,
      " प्रणाली ९": 6035,
      "राजमार्ग": 6036,
      " कर्जा उपयोग": 6037,
      " जोड्ने": 6038,
      " देखाप": 6039,
      " बहुउद्देश्यीय": 6040,
      " शिक्षा, स्वास्थ्य": 6041,
      "ब्यापार": 6042,
      "मा सघाउ पु194र्‍याउन": 6043,
      "रावर": 6044,
      "को भौगोलिक": 6045,
      "ाँकी": 6046,
      " सुविधा उपलब्ध गराउने": 6047,
      "ञ्जस्य": 6048,
      " मुद्रा प्रदाय": 6049,
      " सकेको छैन। ": 6050,
      "्या194ङकन": 6051,
      " सँगठन": 6052,
      " निर्देशित": 6053,
      " स195ङ्धठन": 6054,
      "का समस्याहरु": 6055,
      " ओगट": 6056,
      "त्रिभुवन": 6057,
      "को दृष्टिकोण": 6058,
      " उकास्न": 6059,
      " गरीवी निवारण": 6060,
      "वरले": 6061,
      "र्वसाधारण": 6062,
      " भिन्न": 6063,
      "195िङ्धक": 6064,
      " 195166": 6065,
      ", उ": 6066,
      ", तथा ": 6067,
      ", ख": 6068,
      ", सिँचाइ": 6069,
      ", मूल्य": 6070,
      ", अनुगमन तथा मूल्या195141न": 6071,
      ", असहाय": 6072,
      "ँक": 6073,
      "अति": 6074,
      "अष्": 6075,
      "अन्तर": 6076,
      "अस्पताल": 6077,
      "इराल": 6078,
      "ऊन": 6079,
      "औजार": 6080,
      "करिव": 6081,
      "चेत": 6082,
      "चस्वास्थ्य": 6083,
      "छरिएर": 6084,
      "जमिन": 6085,
      "जम्मा ": 6086,
      "ञग": 6087,
      "टबन्ध": 6088,
      "ट्यु": 6089,
      "डिकल": 6090,
      "णाम": 6091,
      "तया ": 6092,
      "ताप्र": 6093,
      "दुर": 6094,
      "दर्ता ": 6095,
      "धित": 6096,
      "धार्मिक": 6097,
      "न.": 6098,
      "नदी": 6099,
      "बे": 6100,
      "बहु": 6101,
      "बृत्ति": 6102,
      "भने": 6103,
      "भर्न": 6104,
      "भविष्य": 6105,
      "म.ए": 6106,
      "यलभ": 6107,
      "श्य": 6108,
      "शाक": 6109,
      "षित": 6110,
      "सल": 6111,
      "साल": 6112,
      "सकि": 6113,
      "सिँचाइ": 6114,
      "सेवा ": 6115,
      "हरि": 6116,
      "हाम्रो": 6117,
      "िर्ता ": 6118,
      "ीका ": 6119,
      "ुप": 6120,
      "ेलन": 6121,
      "ोकि": 6122,
      "ोल्प": 6123,
      "०२": 6124,
      "२९": 6125,
      "३)": 6126,
      "३४": 6127,
      "३८": 6128,
      "५ हेक्टर": 6129,
      "६४": 6130,
      "६ करोड": 6131,
      "६नै": 6132,
      "७४": 6133,
      "ा हु": 6134,
      " सिलसिला": 6135,
      "को पनि": 6136,
      "को क्रम": 6137,
      "को प्रतिफल": 6138,
      "को व्यवस्था मिलाइनेछ। \r\n": 6139,
      "को व्यवस्था गरिनेछ।": 6140,
      " पाउन": 6141,
      " गै": 6142,
      " कार्": 6143,
      " क्व": 6144,
      " कुन": 6145,
      " किन": 6146,
      "मा बढ": 6147,
      "मा उपलब्ध": 6148,
      "मा महिला": 6149,
      "मा खास": 6150,
      "मा तीव्र": 6151,
      "को लेख": 6152,
      "को भार": 6153,
      "ालि": 6154,
      " प्रधान": 6155,
      " प्राज्ञिक": 6156,
      " प्रकाशित": 6157,
      " रेखामुनि": 6158,
      "ानगरपालिक": 6159,
      "लाउन": 6160,
      "लाजात": 6161,
      "लायच्क": 6162,
      "ार्क": 6163,
      "ार्न": 6164,
      " तालमेल": 6165,
      " तवरले": 6166,
      "न्छ। यस": 6167,
      "यो। \r\n": 6168,
      "यो अनुपात": 6169,
      " आई": 6170,
      " आम": 6171,
      " आएको छ। ": 6172,
      " आलु": 6173,
      " उत्साह": 6174,
      " उबिल": 6175,
      " बाह्य": 6176,
      "लाई म": 6177,
      "लाई सु": 6178,
      "लाई आवश्यक पर्ने": 6179,
      " कार्यक": 6180,
      " कार्यका लागि": 6181,
      "्रमाण": 6182,
      " विधि": 6183,
      "स्तक्षेप": 6184,
      " मो": 6185,
      " मर्मत सम्भार": 6186,
      " हित": 6187,
      " हात": 6188,
      "ावहारिक": 6189,
      "्वर": 6190,
      " भविष्य": 6191,
      " नश्ल": 6192,
      " तथा रोजगारी": 6193,
      " तथा खान": 6194,
      " तथा नगद": 6195,
      " विकास प्रक्रियालाई": 6196,
      "ापखाल": 6197,
      " संवेदनशील": 6198,
      " जन्म": 6199,
      "ष्ख": 6200,
      "194ङ्ग अन्तर्राष्टि194्रय": 6201,
      "194ङ्ग विकेन्द्रीकरण": 6202,
      " लु": 6203,
      " लै": 6204,
      " लघु": 6205,
      "रणनीति": 6206,
      "मा सेव": 6207,
      "मा सबै": 6208,
      "मा सम्पन्न": 6209,
      "एको थियो।": 6210,
      " गर्न विभिन्न": 6211,
      " गर्न प्रोत्साहित": 6212,
      "ाईने": 6213,
      "ता एवं": 6214,
      " व्यवस्थाको": 6215,
      "बाट प्राप्त हुने": 6216,
      "ुलो": 6217,
      "ागज": 6218,
      " श्र": 6219,
      "न्धन": 6220,
      "माज": 6221,
      " सम्ब": 6222,
      " सम्बद्ध": 6223,
      "देशको": 6224,
      " अनुत्पादक": 6225,
      " अनुमति": 6226,
      "को सचिवालय": 6227,
      " पुय": 6228,
      " पुर्वाधार": 6229,
      "भिजन": 6230,
      " परिस्थिति": 6231,
      "ाहक": 6232,
      " गरी थप": 6233,
      " गरी त्यस": 6234,
      " गरिए तापनि": 6235,
      "केही ": 6236,
      " जना ": 6237,
      " जन्य": 6238,
      " जनकपुर": 6239,
      "ा स्व": 6240,
      "न्नति": 6241,
      " गरी कार्यान्वयन": 6242,
      " गरी ग्रामीण": 6243,
      " निर्भर": 6244,
      " उत्पादनको ": 6245,
      " व्यवस्था गर": 6246,
      ", १": 6247,
      " बढ्दै ग": 6248,
      " हुने र": 6249,
      "हुनुपर्ने": 6250,
      " नीति लिइने": 6251,
      "स्कार": 6252,
      " वृद्धि दर": 6253,
      " लगाउने": 6254,
      "ीकरण र": 6255,
      "मूलतः": 6256,
      " ११.": 6257,
      " रहेको अनुमान": 6258,
      " भए पनि": 6259,
      " हुन आउँ": 6260,
      " शिक्षाको ": 6261,
      " क्षेत्रमा मात्र": 6262,
      "नेपालको": 6263,
      "दरवार": 6264,
      "को विकास गरिनेछ। \r\n": 6265,
      "ा, स": 6266,
      " यसले": 6267,
      " ९त": 6268,
      "ी तथा अन्य": 6269,
      " साँ": 6270,
      " निर्माण सामग्र": 6271,
      " :  योजना अवधिमा ": 6272,
      " लक्ष्यअनुरुप": 6273,
      " लक्ष्य लिइ": 6274,
      "कार्यक्रमहरुको": 6275,
      " व्यवस्थापन तथा ": 6276,
      " रुपमा विकास": 6277,
      " छोटो": 6278,
      " एकीकरण": 6279,
      "ेको छ।": 6280,
      "त्स्य": 6281,
      "मा आन्तरिक": 6282,
      " तथा सञ्चार": 6283,
      " विस्तारित": 6284,
      " विस्तार गरिनेछ। \r\n": 6285,
      " राखिनेछ। \r\n": 6286,
      "तर्फ पनि": 6287,
      " विशेषतः": 6288,
      "विकास खर्च": 6289,
      "ल्ा": 6290,
      " क्षयरोग": 6291,
      "को रुपमा अ": 6292,
      "को रुपमा परिचालन": 6293,
      " भूस्वामित्व": 6294,
      " भूक्षय": 6295,
      "को प्राविधिक": 6296,
      " बनाइने": 6297,
      "मा कृषक": 6298,
      "मा कायम": 6299,
      " रोजगारी र": 6300,
      " सुधार गर्न": 6301,
      " सुधार गरी": 6302,
      "लवायु": 6303,
      "मा प्राविधिक": 6304,
      "मा प्रवेश": 6305,
      " राष्टि194्रय निकु": 6306,
      " निजी क्षेत्रका ": 6307,
      " २०५३": 6308,
      " उद्देश्यहरु": 6309,
      " किटान": 6310,
      "ाडापखाल": 6311,
      "जी.": 6312,
      "एवं कार्यान्वयन": 6313,
      "छैनन्": 6314,
      " मेडिकल": 6315,
      "मार्फत्": 6316,
      " गराउन आवश्यक": 6317,
      "परिवर्तन": 6318,
      " सम्वेद": 6319,
      " पोशाक": 6320,
      " प्राविधिक एवं": 6321,
      "195ङ्ग५": 6322,
      "ा तालिम": 6323,
      " दीर्घकालीन दृष्टिकोण": 6324,
      "निजी क्षेत्रको सहभागित": 6325,
      " गरिब परिवार": 6326,
      " प्रदान गरिने": 6327,
      "मा अभिवृद्धि": 6328,
      " नवौं योजनाले": 6329,
      " नवौं योजना अवधि": 6330,
      " विकल्प": 6331,
      " अध्ययन अनुसन्धान": 6332,
      " अर्क": 6333,
      " अनुमान गरिएको ": 6334,
      " व्यापार घाट": 6335,
      " सीपयुक्त": 6336,
      " सूचना प्रविधि": 6337,
      "195र्‍ारा आ": 6338,
      "नीहरुको": 6339,
      " अन्तर्गतका ": 6340,
      "ती वन": 6341,
      "३. दीर्घकालीन अवधारणा \r\n": 6342,
      "ष्यलब": 6343,
      " संलग्नतामा ": 6344,
      " क्षमता अभिवृद्धि": 6345,
      " समस्या समाधान": 6346,
      " प्रयास गरिनेछ। \r\n": 6347,
      " तथा प्राविधिक": 6348,
      " प्रभावकारी हुन": 6349,
      " फराकिलो": 6350,
      "हुनाले": 6351,
      "को पृष्ठभूमि": 6352,
      "को पहुँच": 6353,
      " वैदेशिक ऋण": 6354,
      "मा वृद्धि ल्याउन": 6355,
      " व्यापकरुपमा ": 6356,
      " ढा": 6357,
      " होट": 6358,
      " हालसम्म": 6359,
      " रुपैयाँ": 6360,
      "४. दीर्घकालीन अवधारणा \r\n": 6361,
      " आन्तरिक ऋण": 6362,
      "ोपवे": 6363,
      "केन्द्रित": 6364,
      " प्राथमिकता क्षेत्र": 6365,
      "पातिक": 6366,
      " अन्तर्राष्टि194्रय विमानस्थल": 6367,
      " नभए": 6368,
      " नभएको": 6369,
      " बस्तुहरु": 6370,
      " विद्युत्ीकरण": 6371,
      " गार्हस्थ्य बचत": 6372,
      "कर्षण": 6373,
      " पुग्नेछ। \r\n": 6374,
      "जन्य पदार्थ": 6375,
      ":   \r\n": 6376,
      " हुन नसक": 6377,
      " हुन नसकेको ": 6378,
      "िसाब": 6379,
      "मौरी": 6380,
      " नियमाव": 6381,
      "संग आवद्ध": 6382,
      " दृष्टिकोणबाट": 6383,
      "जलस्रोत": 6384,
      "वस्तुहरु": 6385,
      " दक्ष जनशक्ति": 6386,
      " आयोजना :": 6387,
      "कारात्मक असर": 6388,
      " परिपे्र": 6389,
      "मा सञ्चालन गरिने": 6390,
      "म्बन्धित": 6391,
      " महिलाहरुलाई": 6392,
      " सहकारी संस्थाहरु": 6393,
      "भौतिक लक्ष्य": 6394,
      "को खपत": 6395,
      "को खोजी": 6396,
      " तथा मध्यम": 6397,
      " निकासी प्रवर्द्धन": 6398,
      "को आवश्यकता अनुरुप": 6399,
      " धितोपत्र बजार": 6400,
      "रोध": 6401,
      " ठोस": 6402,
      " पृष्ठभूमिमा ": 6403,
      "लाई अझ": 6404,
      " हुन्छ। \r\n": 6405,
      "सिद्ध": 6406,
      "का प्राविधिक": 6407,
      "दिगोपन": 6408,
      "सोबास": 6409,
      " जानकार": 6410,
      "मा परिणत": 6411,
      "कर्ताहरु": 6412,
      "ष्लन०": 6413,
      " सन्तुलन कायम": 6414,
      " पिछडिएका क्षेत्र": 6415,
      " सञ्चालन गरिनेछन्। \r\n": 6416,
      "लाई दृष्टिगत गरी": 6417,
      " जोड दिइ": 6418,
      "एकोले यस": 6419,
      " देखिन्छ।": 6420,
      " हुँदै ग": 6421,
      "श्रण": 6422,
      " हुन गई": 6423,
      "कुशल": 6424,
      " घढढ \r\n": 6425,
      "को स्वामित्व": 6426,
      " सेवाको विस्तार": 6427,
      " खेती,": 6428,
      "को अवस्थामा ": 6429,
      " छात्रव": 6430,
      "घरेलु उद्योग": 6431,
      "घरेलु तथा साना उद्योग": 6432,
      "नवौ": 6433,
      "नवीकरण": 6434,
      "योजनाको पहिलो वर्ष": 6435,
      "व्यावसायिक तालिम": 6436,
      "लाई ध्यानमा राखी": 6437,
      " समाधान": 6438,
      " पारिवारिक": 6439,
      "योजनाअन्तर्गत": 6440,
      " आवश्यकताअनुसार": 6441,
      " तथा जलाधार": 6442,
      "्याजदर": 6443,
      " पशुपक्षी पालन": 6444,
      "195िर्‍": 6445,
      "195153": 6446,
      "चालू खाता घाट": 6447,
      "ासम्बन्धी": 6448,
      "स्ता संस्थ": 6449,
      " भूमिका खेल": 6450,
      "वृद्धिका लागि": 6451,
      " स्यालो ट्युबवेल": 6452,
      "मा झार्ने": 6453,
      "को थालनी": 6454,
      " वर्ष २०४८।४९": 6455,
      "मानवीय संसाधन": 6456,
      "टौती": 6457,
      "न्जिनियरि": 6458,
      " प्रतिनिधित्व": 6459,
      "वसोवास गर्ने": 6460,
      " अल्पकालीन": 6461,
      " उपत्यका ": 6462,
      "ऊनी गलैंच": 6463,
      "मा समाहित": 6464,
      " सेन्टर": 6465,
      " ाय": 6466,
      " योग्य": 6467,
      ") को": 6468,
      ",च": 6469,
      ", गुणस्तर": 6470,
      ", उपयुक्त": 6471,
      ", समुदाय": 6472,
      ", नियम": 6473,
      "ंज": 6474,
      "अन्त": 6475,
      "अपन": 6476,
      "इरहेको ": 6477,
      "उचय": 6478,
      "उभअ": 6479,
      "कुट": 6480,
      "क तह": 6481,
      "कृषिक्षेत्र": 6482,
      "खुद": 6483,
      "गल": 6484,
      "गिक": 6485,
      "गान": 6486,
      "घ \r\n": 6487,
      "च्": 6488,
      "छु194ट्टै": 6489,
      "जय": 6490,
      "ठी": 6491,
      "ठाउँ": 6492,
      "डलर": 6493,
      "ताव": 6494,
      "ती नदी": 6495,
      "थम": 6496,
      "दात": 6497,
      "दसम्म": 6498,
      "नस": 6499,
      "नर्सरी": 6500,
      "पेक्षित": 6501,
      "भइ": 6502,
      "भह": 6503,
      "म्य": 6504,
      "म ्": 6505,
      "य्क": 6506,
      "रहित": 6507,
      "रहने": 6508,
      "लगत": 6509,
      "लैज": 6510,
      "लीब": 6511,
      "वाइ": 6512,
      "वा,": 6513,
      "वा तथा ": 6514,
      "सञ्चालन": 6515,
      "सडक": 6516,
      "सहाय": 6517,
      "हुलियत": 6518,
      "ाभित्र": 6519,
      "ीज": 6520,
      "ी, ": 6521,
      "ीमा प": 6522,
      "ेक्": 6523,
      "ेडि": 6524,
      "ोत्स": 6525,
      "ौन": 6526,
      "ौद्धिक": 6527,
      "१ कि.मि.": 6528,
      "३५": 6529,
      "४२ प्रतिशत": 6530,
      "७६": 6531,
      "८०": 6532,
      "८५": 6533,
      "८ करोड": 6534,
      "ा अनुसार": 6535,
      "ा विश्वविद्यालय": 6536,
      "को वितरण": 6537,
      "को सुदृढीकरण": 6538,
      "को व्यवस्था गरिनेछ। ": 6539,
      "्याई": 6540,
      " पाठयक्रम": 6541,
      " पाठ्यपुस्तक": 6542,
      " गत": 6543,
      " काय": 6544,
      " कर्ण": 6545,
      " वरावर": 6546,
      "मा पूर्ण": 6547,
      "मा रहेको": 6548,
      "ारिक": 6549,
      "को राष्टि194्रय": 6550,
      "को जि": 6551,
      "को न्यूनतम": 6552,
      " र च": 6553,
      " र २": 6554,
      " र अनुसन्धान": 6555,
      " र सो": 6556,
      "ानुक": 6557,
      "हरु अ": 6558,
      "हरु तयार": 6559,
      "हरुको आर्थिक": 6560,
      "ी ९": 6561,
      "ी डलर": 6562,
      "ार्द्ध": 6563,
      "ासम": 6564,
      " तेस्रो": 6565,
      " तल्लो": 6566,
      "यो कार्यक्रम": 6567,
      "का कार्यहरु": 6568,
      " आउ": 6569,
      " उत्तिकै": 6570,
      " बच": 6571,
      " बिकास": 6572,
      "लाई व्यवस्थित": 6573,
      " समुह": 6574,
      " मज": 6575,
      " मासु": 6576,
      " क्षेत्रले": 6577,
      " हक": 6578,
      " हेत": 6579,
      " भर्न": 6580,
      " नपर्ने": 6581,
      " नयां": 6582,
      " तथा गैर": 6583,
      " तथा क्षेत्रीय": 6584,
      " तथा अनुगमन": 6585,
      "योजनाबद्ध": 6586,
      " व्यावहारिक": 6587,
      "विमानस्थल": 6588,
      "द्ध  \r\n": 6589,
      " संचार": 6590,
      " संचय": 6591,
      " जिल्": 6592,
      " जाति": 6593,
      "द्यार्थ": 6594,
      " गरिने,": 6595,
      "वस्थामा ": 6596,
      " गर्ने व्यवस्था गरिनेछ। \r\n": 6597,
      "ादित": 6598,
      "194ङ्ग आर्थिक": 6599,
      "194ङ्ग प्राविधिक": 6600,
      "194ङ्ग अपा195ङ्ध": 6601,
      "ामिन": 6602,
      "ामध्ये": 6603,
      "प्रणाली": 6604,
      "मा सार्वजनिक": 6605,
      "मा सीमित": 6606,
      "एको हुँदा ": 6607,
      "ता ९": 6608,
      " स्थित": 6609,
      " योजना त": 6610,
      " सुन": 6611,
      " सुह": 6612,
      " सुगम": 6613,
      "बाट आयात": 6614,
      " प्रतिव्यक्ति": 6615,
      "ाहरुबाट": 6616,
      " श्रोत": 6617,
      " शोषण": 6618,
      " शैय": 6619,
      " उपक्षेत्र": 6620,
      " उपर्युक्त": 6621,
      " अनुशासन": 6622,
      "को सीप": 6623,
      "को सदस्य": 6624,
      "भावक": 6625,
      "भियान": 6626,
      "ध्यावधिक": 6627,
      " परियोजना ": 6628,
      "को अला": 6629,
      "को अत्यधिक": 6630,
      " गरी एक": 6631,
      " गरी उपयुक्त": 6632,
      " गरी निर्यात": 6633,
      " कृषि,": 6634,
      " कृषि विकासमा ": 6635,
      " कृषि सामग्री": 6636,
      " कृषि विकास बैंक": 6637,
      " कृषिजन्य उद्योग": 6638,
      "र्थव्यवस्थ": 6639,
      " जनताले": 6640,
      "ा स्रोत": 6641,
      "ा सेवा ": 6642,
      "ा सिर्जन": 6643,
      "ा सदरमुकाम": 6644,
      " संस्थालाई": 6645,
      " संस्था,": 6646,
      " उत्पादन वृद्धि": 6647,
      "का लागि ": 6648,
      " एवं स": 6649,
      " बढाएर": 6650,
      "हरुको गुणस्तर": 6651,
      "हरुको पहिचान": 6652,
      "हरुको पहुँच": 6653,
      "कार्य सम्पन्न": 6654,
      "का स्मारक": 6655,
      " गरिनेछ। उच्च": 6656,
      "मियो": 6657,
      "अनुकुल": 6658,
      "स्तरका ": 6659,
      " नीति लिइनेछ। \r\n": 6660,
      "हरुमा प्र": 6661,
      " वृद्धि हुने": 6662,
      " २८": 6663,
      " २००": 6664,
      "मूलभूत": 6665,
      " १०.": 6666,
      " भएपछि": 6667,
      " हुनग": 6668,
      "हरुको उपयोग": 6669,
      "हरुको उपचार": 6670,
      " सामाग": 6671,
      " वर्षसम्म": 6672,
      " वर्षको अव": 6673,
      "युक्ति": 6674,
      "ँचो": 6675,
      "ा रोजगार": 6676,
      "को विकासबाट": 6677,
      "को विकासको लागि": 6678,
      " केन्द्रलाई": 6679,
      " यसै": 6680,
      " ९न": 6681,
      " ९म": 6682,
      " ९बन": 6683,
      " ९ष्ल": 6684,
      " स्थानीय तहमा ": 6685,
      "ी तथा यातायात": 6686,
      " वन व्यवस्थापन": 6687,
      "ी ब्यापार": 6688,
      "ी बितरण": 6689,
      " स्वास्थ्य संस्थाहरु": 6690,
      " सरकारी र": 6691,
      " भएको छ": 6692,
      " भएको हुँदा ": 6693,
      " भएको देखिन्छ। ": 6694,
      " रुपमा अ": 6695,
      " तालिम र": 6696,
      " लामो": 6697,
      " व्यवसायीहरुलाई": 6698,
      "ैरह": 6699,
      "बढी मोल जाने": 6700,
      " प्रविधि र": 6701,
      " गर्दै जानु": 6702,
      " प्रणालीमा सुधार": 6703,
      "मा आइ": 6704,
      "मा आएको": 6705,
      " घड": 6706,
      " घाँस": 6707,
      " करार": 6708,
      " परिचालन गर्ने": 6709,
      " स्थापना गरी": 6710,
      "ा तथा प्र": 6711,
      "ा तथा मझौ": 6712,
      " स्थितिमा सुधार": 6713,
      " गर्नुको साथै": 6714,
      "ण्डक": 6715,
      "वेयर": 6716,
      " बनाइनेछ।": 6717,
      "मा कुनै": 6718,
      " स्तरसम्म": 6719,
      "ुरक्ष": 6720,
      " टयु": 6721,
      " टोल": 6722,
      "शिक्षा र": 6723,
      "शिक्षा तथा ": 6724,
      "ी निजी क्षेत्र": 6725,
      "ी निजी ": 6726,
      " राष्टि194्रय योजना आयोग": 6727,
      " कारकतत्व": 6728,
      " कारोबार": 6729,
      " नेपालमा ": 6730,
      " नेपाल राष्ट194्र बैंक": 6731,
      "मा जाने": 6732,
      " उच्चस्तरीय": 6733,
      " रहेको थियो। ": 6734,
      "चित्र": 6735,
      " उपलब्ध गराइ": 6736,
      " सेवा \r\n": 6737,
      " पक्षमा ": 6738,
      " प्राविधिक जनशक्ति": 6739,
      " रहेको पाइ": 6740,
      " संस्थानहरुलाई": 6741,
      "िल्लो": 6742,
      "मा विविध": 6743,
      "ा भई": 6744,
      " आयकर": 6745,
      " पुँज": 6746,
      " विक्रि": 6747,
      " अर्द्ध": 6748,
      " व्यवस्था मिलाइ": 6749,
      "ा जाग": 6750,
      "समूह": 6751,
      " सीप र": 6752,
      " सीप विकास तालिम": 6753,
      "ानुनी": 6754,
      " परेका ": 6755,
      " रोजगारी प्रवर्द्धन": 6756,
      "र्शन": 6757,
      " सोझै": 6758,
      " कर्जामा ": 6759,
      " कर्जाको ": 6760,
      " वाध्य": 6761,
      "को मर्मत": 6762,
      " यातायात व्यवस्था विभाग": 6763,
      "गोष्ठ": 6764,
      " सर्भे": 6765,
      " समस्यालाई": 6766,
      " तथा प्राकृतिक": 6767,
      " प्रभावकारी रुपले": 6768,
      "लिप": 6769,
      "ा बन": 6770,
      " फो": 6771,
      "प्रतिस्पर्": 6772,
      " तर्जुमा गरि": 6773,
      " समयमै": 6774,
      " रु. ३": 6775,
      " अर्थात्": 6776,
      " हो। यस": 6777,
      "को आर्थिक वृद्धिदर": 6778,
      " शहरी क्षेत्रमा ": 6779,
      "बनभ": 6780,
      " अभिलेख": 6781,
      " भैरहेका ": 6782,
      " रुपमा सं": 6783,
      " अभिवृद्धि गर्न": 6784,
      " प्रोत्साहन गरिनेछ। \r\n": 6785,
      " बस्तुहरुको ": 6786,
      " सम्बन्धित निकाय": 6787,
      "महिला संलग्न": 6788,
      " अधिराज्यका विभिन्न": 6789,
      " विकासमा टेवा पु194र्‍य": 6790,
      " सुविधा विस्तार": 6791,
      " ब्यवस्था ": 6792,
      "ष्यल०": 6793,
      "पुँ": 6794,
      " इन्ज": 6795,
      " कुराहरु": 6796,
      "ा195ङ्धारिक": 6797,
      " कुपोषण": 6798,
      " जीवित": 6799,
      " विकासका लागि आवश्यक": 6800,
      " आफैले": 6801,
      " परिपूरक": 6802,
      "को रकम": 6803,
      "एको छ। यसै": 6804,
      " विगतमा ": 6805,
      "वर्गलाई": 6806,
      " स्थानीय निकायहरुलाई": 6807,
      " विश्लेषण गर्दा ": 6808,
      "च्छिक": 6809,
      " गरिएका थिए": 6810,
      "को निराकरण": 6811,
      "ा तयार गरी ": 6812,
      " बृद्धिदर": 6813,
      "आयमूलक": 6814,
      " सानो": 6815,
      " प्राथमिकताका ": 6816,
      "सकेको र": 6817,
      " अन्तरक्रिय": 6818,
      " जनसंख्या वृद्धि": 6819,
      " औषधी ": 6820,
      "शिष्ट": 6821,
      "ा गराई": 6822,
      " हुन्छ।": 6823,
      " आर्थिक वृद्धिदर हासिल गर्न": 6824,
      "्यो। ": 6825,
      "ारम्भिक": 6826,
      " कृषि अनुसन्धान परिषद्": 6827,
      " सकेका ": 6828,
      "भम०": 6829,
      "लाई दृष्टिगत गर्दा ": 6830,
      " उत्प्र": 6831,
      " देखा प": 6832,
      "को संरक्षण र": 6833,
      " जग्गा ": 6834,
      " दुर्गम क्षेत्रमा ": 6835,
      " रणनीति \r\n": 6836,
      " कुनै पनि": 6837,
      " बेरोजगारी": 6838,
      "पहिचान": 6839,
      " महत्वका ": 6840,
      "वैदेशिक व्यापार": 6841,
      " छैन। ": 6842,
      "हिले": 6843,
      " लक्ष्य राखिएको छ। ": 6844,
      "जिल्ला ": 6845,
      "पश्चात्": 6846,
      "पश्चिमाञ्चल": 6847,
      " ट्युववेल": 6848,
      " पेशागत": 6849,
      "पु194र्‍याउने": 6850,
      "ा प्रतिशत": 6851,
      " लेखापरीक्षण": 6852,
      "ा पुग्ने": 6853,
      " सिञ्चित क्षेत्रमा ": 6854,
      "राष्टि्र्य": 6855,
      " विरुवा ": 6856,
      " पुस्ताका ": 6857,
      " मनन": 6858,
      " भूमिका खे": 6859,
      ", सीप र": 6860,
      "को ऋण सहयोग": 6861,
      " पर्यावरणीय": 6862,
      " संभाव्यता अध्ययन": 6863,
      "मेरिकी डलर": 6864,
      "डीवुट": 6865,
      "बेरोजगारी": 6866,
      " सातौं योजन": 6867,
      " उड्डयन": 6868,
      "ाह्रै": 6869,
      "िसावले": 6870,
      " भूमिका रहने": 6871,
      " संचिति": 6872,
      "ी तथा प्रविधि हस्तान्तरण": 6873,
      "ख्तियार": 6874,
      " प्रयत्न": 6875,
      "झदारी": 6876,
      "लायच्कबतष्यल": 6877,
      " सम्वेदनशील": 6878,
      " परिपे्रक्ष्य": 6879,
      "लीबस": 6880,
      " धारण": 6881,
      "  द्ध": 6882,
      "),": 6883,
      ", क्षेत्र": 6884,
      ", स्वास्थ्य": 6885,
      ",२०": 6886,
      ", वा": 6887,
      ", नयाँ": 6888,
      "अर्थतन्त्र": 6889,
      "उत": 6890,
      "एसिय": 6891,
      "कम्पन": 6892,
      "कृति": 6893,
      "कष्त": 6894,
      "क तत्व": 6895,
      "ग)": 6896,
      "चच": 6897,
      "चु": 6898,
      "चौ": 6899,
      "चलन": 6900,
      "जग": 6901,
      "जो": 6902,
      "जुल": 6903,
      "ठ मन्दिर": 6904,
      "ड \r\n": 6905,
      "ढ \r\n": 6906,
      "णन": 6907,
      "थर": 6908,
      "दर्": 6909,
      "दलि": 6910,
      "धै": 6911,
      "नागरिक": 6912,
      "पद": 6913,
      "पा195ङ्ध": 6914,
      "प्रमुख": 6915,
      "बग": 6916,
      "बृध्दि": 6917,
      "भ्": 6918,
      "भएकोले": 6919,
      "ला र": 6920,
      "वी": 6921,
      "वान": 6922,
      "वृध्दि": 6923,
      "सद": 6924,
      "साथ": 6925,
      "साथै": 6926,
      "सीप": 6927,
      "हं": 6928,
      "ह्रास": 6929,
      "ाश": 6930,
      "ाधान": 6931,
      "ामा समेत": 6932,
      "िञ्चित": 6933,
      "ीम": 6934,
      "ुद्ध": 6935,
      "ृक्षर": 6936,
      "ेय": 6937,
      "ेर्न": 6938,
      "ैध": 6939,
      "ैल": 6940,
      "ोन": 6941,
      "ोद्धार": 6942,
      "ोल्ट": 6943,
      "्नुपर्ने": 6944,
      "३२": 6945,
      "७७": 6946,
      "९१": 6947,
      "्रुत": 6948,
      " सँ": 6949,
      " सबल": 6950,
      "को क्षमता ": 6951,
      "को सुरु": 6952,
      "को गति": 6953,
      "को प्रभावकारी": 6954,
      "्याथ": 6955,
      "्याउने": 6956,
      " पठ": 6957,
      " पिछडि": 6958,
      " पानी ": 6959,
      " गन्त": 6960,
      " गाई": 6961,
      " कागज": 6962,
      " वाट": 6963,
      " वोर्ड": 6964,
      "मा ओ": 6965,
      "मा ट": 6966,
      "मा नेपाल": 6967,
      "मा उपयुक्त": 6968,
      "मा विद्यमान": 6969,
      "मा केही": 6970,
      "ारदर्श": 6971,
      "को रुप": 6972,
      "को उपचार": 6973,
      "को ढाँच": 6974,
      "ाली तथा ": 6975,
      " प्रशिक्षक": 6976,
      " र गुणस्तर": 6977,
      " र प्रभावकारी": 6978,
      " र व्यवसायिक": 6979,
      " र शहरी क्षेत्र": 6980,
      " रेडियो": 6981,
      "ाना जल": 6982,
      "लादेश": 6983,
      "लाइने": 6984,
      "ित्त": 6985,
      "ित्र्य": 6986,
      "का थप": 6987,
      "का  लागि": 6988,
      "का वर्षहरुमा ": 6989,
      " गर्र्ने": 6990,
      " अलग": 6991,
      " अद्यावधिक": 6992,
      " अपरिहार्य": 6993,
      " आगामी २०": 6994,
      " आयोडिन": 6995,
      "त्ब्": 6996,
      " बाँडफाँट": 6997,
      "लाई नै": 6998,
      "लाई प्रभावकारी": 6999,
      "लाई बढावा ": 7000,
      " कार्यहरुमा ": 7001,
      " विनियोजन": 7002,
      "स्ता अ": 7003,
      " क्षेत्र,": 7004,
      " हृ": 7005,
      " भाष": 7006,
      " भोल्ट": 7007,
      " नदी नियन्त्रण": 7008,
      " दातृ संस्थाहरु": 7009,
      " तथा त": 7010,
      " तथा उत्पादन": 7011,
      " तथा स्थानीय": 7012,
      " तथा औद्योगिक": 7013,
      "योजनामा ": 7014,
      "योजना तर्जुमा ": 7015,
      " व्यब": 7016,
      "विन्दु": 7017,
      " संख्या": 7018,
      " जुन": 7019,
      "लेस": 7020,
      "लेख्य": 7021,
      " गर्ने।  \r\n": 7022,
      "194ङ्ग निजी क्षेत्र": 7023,
      "194ङ्ग सरकारी": 7024,
      "ामक": 7025,
      " लक्ष": 7026,
      "ेश्वर": 7027,
      "प्रत्येक": 7028,
      "मा सक्रिय": 7029,
      "मा सवै": 7030,
      " हुनुका साथै": 7031,
      "एको छ": 7032,
      "एको छ र": 7033,
      " गर्न लग": 7034,
      " गर्न विशेष": 7035,
      " गर्न गराउन": 7036,
      " गर्न उपयुक्त": 7037,
      "ता विकास": 7038,
      " सुबिध": 7039,
      "बाट ": 7040,
      "क्तपुर": 7041,
      " प्रति एकाइ": 7042,
      "ेवाली": 7043,
      "मा)": 7044,
      "ूर्ति": 7045,
      "हेरी": 7046,
      "भिि": 7047,
      " परिवर्त": 7048,
      " परिलक्षित": 7049,
      "ामा आधारित": 7050,
      " गरी उच्च": 7051,
      " कृषि उद्योग": 7052,
      " कृषि, वन": 7053,
      "ापनक्स": 7054,
      "र्थ्य": 7055,
      "ा सम्वन्ध": 7056,
      "उपकरण": 7057,
      "दै जानु": 7058,
      " निर्वा": 7059,
      " स्वरुप": 7060,
      " संस्था र": 7061,
      " सञ्चालन गरी ": 7062,
      " सञ्चालन गरिनेछ।  \r\n": 7063,
      "ालाई सुदृढ": 7064,
      " उत्पादन कार्यक्रम": 7065,
      "का लागि विशेष": 7066,
      " व्यवस्था :  \r\n": 7067,
      "क्श": 7068,
      "क्ब्": 7069,
      "्याँ": 7070,
      "्याक्स": 7071,
      ", औद्योगिक": 7072,
      " बढ्न": 7073,
      "का स्रोत": 7074,
      "का सम्बन्ध": 7075,
      " गरिनेछ। यस्तो": 7076,
      "िया,": 7077,
      "ृत्त": 7078,
      "माण्ड": 7079,
      "लगाउने": 7080,
      "दान प्रदान": 7081,
      " नीति निर्माण": 7082,
      " नीति लिइ": 7083,
      "हरुमा आवश्यक": 7084,
      " सहित": 7085,
      "ा पह": 7086,
      "ा पद्धति": 7087,
      " २४": 7088,
      "मूल्या195141न": 7089,
      " १४": 7090,
      " १४.": 7091,
      " भएतापनि": 7092,
      "भिन्न अ195ङ्ध": 7093,
      " शिक्षा": 7094,
      " शिक्षित": 7095,
      " शिक्षाको अवसर": 7096,
      " क्षेत्रमा लगानी": 7097,
      "छ। यसरी": 7098,
      "हरुको तुलनामा ": 7099,
      "ान्वित हुने": 7100,
      " पनि यस": 7101,
      "को विकास र": 7102,
      "को विकास र विस्तार": 7103,
      " केन्द्रको स्थापन": 7104,
      "वाञ्छित": 7105,
      " स्थानीयस्तरमा ": 7106,
      " आर्थिक नीति": 7107,
      " आर्थिक विकासको ": 7108,
      "ुनर्": 7109,
      "गरिनेछ। ": 7110,
      " प्राथमिक स्वास्थ्य": 7111,
      " प्राथमिक तह": 7112,
      " प्राथमिक शिक्षक": 7113,
      " वन क्षेत्रमा ": 7114,
      "ी बाली": 7115,
      " स्वास्थ्य अनुसन्धान": 7116,
      " आयोजना सञ्चालन": 7117,
      " आयोजनाअन्तर्गत": 7118,
      " पूर्वाञ्चल": 7119,
      " व्यवस्थापनलाई": 7120,
      " छड": 7121,
      "ा गर्दा ": 7122,
      "देखिएको छ। ": 7123,
      " स्रोतबाट": 7124,
      " स्रोत संरक्षण": 7125,
      " पु194र्‍याइ": 7126,
      " बजार केन्द्र": 7127,
      "ाको उत्पादन": 7128,
      " एक195र्‍ार": 7129,
      " प्रविधिहरु": 7130,
      " गर्दै लाने": 7131,
      " तथा सरकार": 7132,
      " तथा स्रोत": 7133,
      " गरिएको छ।  \r\n": 7134,
      " गरिएको छ भने": 7135,
      " स्थापना र": 7136,
      " स्थापना गरि": 7137,
      " राखेको ": 7138,
      " विभिन्न प्रकारका ": 7139,
      "ा तथा अन्य": 7140,
      "ल्लाह": 7141,
      "ी, अ": 7142,
      "को रुपमा रहेका ": 7143,
      " बनाइनेछ। ": 7144,
      "मा करिव": 7145,
      " स्तरमा राख": 7146,
      " सुधार र": 7147,
      " सुधार ल्याउन": 7148,
      "मा प्रवाह": 7149,
      "शिक्षाको": 7150,
      " सीमा ": 7151,
      " राष्टि194्रय विकास": 7152,
      " निजी क्षेत्रमा हस्तान्तरण": 7153,
      " २०.": 7154,
      " २० प्रतिशत": 7155,
      " कारखाना ": 7156,
      "ूहिक": 7157,
      " नेपाल स्टक एक्सचेन्ज": 7158,
      " क्षमताको ": 7159,
      " हेर्दा ": 7160,
      " निकायहरुलाई": 7161,
      " अनुसन्धान कार्य": 7162,
      " प्रवर्द्धनका लागि": 7163,
      "ज्ञ \r\n": 7164,
      "ता दिइ": 7165,
      " रहेको हुँदा ": 7166,
      " वस्तुहरुको उत्पादन": 7167,
      "ाको अव": 7168,
      "ाको अनु": 7169,
      " वैद्य": 7170,
      "ण्डै": 7171,
      " जनशक्तिलाई": 7172,
      " कृषकलाई": 7173,
      "२०५२": 7174,
      " सम्पादन": 7175,
      " सामाजिक तथा आर्थिक": 7176,
      "रुपमा सं": 7177,
      " उपलब्ध गराउन": 7178,
      " उपलब्ध गराइनेछ। \r\n": 7179,
      " प्राविधिक सेवा ": 7180,
      " आधार मान": 7181,
      "शीत": 7182,
      "शीर्षक": 7183,
      " नसक्ने": 7184,
      " नसकि": 7185,
      " नसकेको ": 7186,
      " वित्तीय साधन": 7187,
      " रहेकोले": 7188,
      " लाख ५०": 7189,
      " प्रयोगमा ल्य": 7190,
      "मा अध्ययन": 7191,
      "मा अधिराज्य": 7192,
      " पर्यटन प्रवर्द्धन": 7193,
      " पर्यटन स्थल": 7194,
      " ऋण लगानी": 7195,
      " आठौं योजना अवधि": 7196,
      " आठौं योजनाकाल": 7197,
      " भइरहे": 7198,
      " अनुगमन र": 7199,
      "मा विश्व": 7200,
      "ा भएको": 7201,
      " धार्मिक": 7202,
      "ी अव": 7203,
      "नियम": 7204,
      "मा संस्थागत": 7205,
      "ी भई": 7206,
      " अनुमान गरिएको छ। ": 7207,
      " भएका छन्। ": 7208,
      "वैज्ञानिक": 7209,
      "को अनुदान": 7210,
      "हो। यस": 7211,
      "समन्वय": 7212,
      " परम्पर": 7213,
      "को बचत": 7214,
      " उपलव्ध गराइने": 7215,
      " सूचनाहरु": 7216,
      " निर्यातमूलक": 7217,
      " विकास कार्यक्रम : ": 7218,
      " सिर्जना गर्ने": 7219,
      "लगानी बढ": 7220,
      " समुदायका ": 7221,
      " वढ्दो": 7222,
      "३. विद्यमान चुनौती \r\n": 7223,
      "वित्त": 7224,
      "ा बाली": 7225,
      " अवस्थामा सुधार": 7226,
      " अवस्था सिर्जन": 7227,
      " लाभान्वित": 7228,
      "श्रममूलक": 7229,
      " अपर्याप्त": 7230,
      " समयानुक": 7231,
      " रु. ४": 7232,
      "ंदैन। \r\n": 7233,
      "मा वृद्धि गर्न": 7234,
      "बीच समन्वय": 7235,
      "विद्युत्् आपूर्ति": 7236,
      " व्यापक प्रचार प्रसार": 7237,
      " जनसाधारण": 7238,
      "मा उत्पादकत्व": 7239,
      "को आवश्यकता र": 7240,
      " शिक्षा एवं": 7241,
      " हालको ": 7242,
      ", मासु": 7243,
      " महिला विकास": 7244,
      " महिला कृषक": 7245,
      " पहाडी भेग": 7246,
      "ा संस्थान": 7247,
      " अवधारणा ": 7248,
      " गर्ने लक्ष्य रहेको": 7249,
      " सन्तान": 7250,
      " तथा पोषण": 7251,
      "एको छ।च": 7252,
      "वर्षीय": 7253,
      " कम्पनीहरुको": 7254,
      "म्मत": 7255,
      "को अवलम्बन": 7256,
      "महिला कृषक": 7257,
      "रेसम": 7258,
      "ंशिक": 7259,
      " दृष्टिगत गरी ": 7260,
      " सम्मेलन": 7261,
      ", रासायनिक मल": 7262,
      ", रेसम": 7263,
      " मौसम": 7264,
      " मौज्दात": 7265,
      " काठमाड": 7266,
      " माध्यमिक विद्यालय": 7267,
      " कुरालाई": 7268,
      "मा सरकारी ": 7269,
      " भूमिसुधार": 7270,
      " गैरसरकारी संघ": 7271,
      "को व्यवस्था गरी": 7272,
      " दरमा ": 7273,
      ", बा": 7274,
      "भौतिक पूर्वाधार": 7275,
      "म्भीर": 7276,
      " सकिन्छ। ": 7277,
      "मा रासायनिक मल": 7278,
      "मा रहने": 7279,
      "को खोज": 7280,
      " तथा मातृ": 7281,
      " नीति तथा कार्यक्रमहरु": 7282,
      "तथ्य": 7283,
      "मा आधारित उद्योग": 7284,
      " खानेपानीको": 7285,
      "रोधात्मक": 7286,
      "खासगरी": 7287,
      "विशेषज्ञ": 7288,
      "ुलियती वन": 7289,
      " विदेशी सहाय": 7290,
      " बीच समन्वय": 7291,
      " पकेट क्षेत्रहरुमा ": 7292,
      " उनीहरुको ": 7293,
      " तीब्र": 7294,
      "सुविध": 7295,
      "पर्याप्त": 7296,
      " कानुनी प्रावधान": 7297,
      " देखिन्छ। यस": 7298,
      "लगायत अन्य": 7299,
      " पर्यटकीय गतिविधि": 7300,
      "अपा195ङ्ध": 7301,
      " स194ङग्रहालय": 7302,
      " उदारीकरण": 7303,
      " सहकारी क्षेत्र": 7304,
      "ब्यवस्थ": 7305,
      " आ.व. २०४८।४९": 7306,
      " आ.व. २०५३।५४ मा ": 7307,
      " समन्वयात्मक रुपमा ": 7308,
      "अधिराज्यका ": 7309,
      " एवम ्": 7310,
      "का संस्थ": 7311,
      "ा गर्नु": 7312,
      "ाँकी ": 7313,
      "मा जोड दिइ": 7314,
      "मा टेवा पु194र्‍याउन": 7315,
      " उठाउने": 7316,
      "मा सहभाग": 7317,
      "मा सहभागी": 7318,
      " सरकारी, गैरसरकार": 7319,
      " छैन। \r\n": 7320,
      " विनिमयदरलाई": 7321,
      "गैरसरकारी संस्थाहरु": 7322,
      " जरुरी छ।": 7323,
      " सकेको छैन। \r\n": 7324,
      "को संलग्नतामा ": 7325,
      " बाहेक": 7326,
      " माटोको उर्व": 7327,
      " जनसंख्याको ": 7328,
      "यथेष्ट": 7329,
      " प्रकृतिक": 7330,
      " उत्तरदाय": 7331,
      " मूल्यमा रु.": 7332,
      "ी जिल्लाहरुमा ": 7333,
      " घरेलु उद्योग": 7334,
      "पु194र्‍याउन": 7335,
      " तोक्ने": 7336,
      "लाई ध्यानमा राखी ": 7337,
      " गर्दै लैजाने। \r\n": 7338,
      " पारिस्थितिक": 7339,
      " अगाडि बढ": 7340,
      "ष्खभ०": 7341,
      "आदिवासी तथा जनजाति": 7342,
      " शिक्षा तथा व्यावसायिक तालिम": 7343,
      " निर्देशन": 7344,
      " नेतृत्व": 7345,
      " नेटवर्": 7346,
      " बेहोर": 7347,
      "ा सम्बन्धी": 7348,
      "195154": 7349,
      " स195ङ्धठित": 7350,
      "उन्नत बीउ": 7351,
      " स्नातकोत्तर": 7352,
      " सूचना केन्द्र": 7353,
      "बिधीकरण": 7354,
      "हायक मार्ग": 7355,
      " गोष्ठी": 7356,
      " प्रणालीको सुदृढीकरण": 7357,
      " एउटै": 7358,
      " मौरीपालन": 7359,
      " विषाद": 7360,
      " तयारी पोशाक": 7361,
      " कि.मि. (६": 7362,
      "वालवालिक": 7363,
      "िक्री बितरण": 7364,
      "िका साथै": 7365,
      " (ख)": 7366,
      "स्फूर्त": 7367,
      "आफ्नो": 7368,
      " सीमाभित्र": 7369,
      "कृषि विकास कार्यालय": 7370,
      " प्रजातन्त्र": 7371,
      " शीर्षक": 7372,
      " क्यू.": 7373,
      ",००० ": 7374,
      "६टवेयर": 7375,
      " घुम्त": 7376,
      " शैया थप": 7377,
      " अनुुसन्धान": 7378,
      "िसाबले": 7379,
      "ोत्सव": 7380,
      " हेतुले": 7381,
      " इन्जिन": 7382,
      "ृक्षरोपण": 7383,
      "  गरी": 7384,
      " टन": 7385,
      " ऋृण": 7386,
      ", वि": 7387,
      ", सि": 7388,
      ", निर्माण": 7389,
      ", कार्यान्वयन": 7390,
      ", वातावरण": 7391,
      ", राष्टि194्रय": 7392,
      ", निजी क्षेत्र": 7393,
      ", उन्नत": 7394,
      ", आवास": 7395,
      ", ज्ञान": 7396,
      ". (": 7397,
      ". २०": 7398,
      "ंद": 7399,
      "ंदो": 7400,
      "ः \r\n": 7401,
      "अभ०": 7402,
      "अधिकार": 7403,
      "आयोजना ": 7404,
      "आयुर्वेद": 7405,
      "आ६नो": 7406,
      "उनीहरुलाई": 7407,
      "ए.": 7408,
      "औद्योगीकरण": 7409,
      "कक": 7410,
      "कलन": 7411,
      "काठ": 7412,
      "कम्प": 7413,
      "कल्याण": 7414,
      "खेत": 7415,
      "गब": 7416,
      "गञ्ज": 7417,
      "गंज": 7418,
      "च.": 7419,
      "चयन": 7420,
      "चालय": 7421,
      "चक्ला": 7422,
      "जर": 7423,
      "जू": 7424,
      "जस्तै": 7425,
      "जोखिम": 7426,
      "झोलु195ङ्धे पुल": 7427,
      "टद्द": 7428,
      "डाइ": 7429,
      "तदनुरुप": 7430,
      "दग": 7431,
      "देव": 7432,
      "दाह": 7433,
      "द ्": 7434,
      "नदी नियन्त्रण": 7435,
      "नमुन": 7436,
      "पटक": 7437,
      "पादन": 7438,
      "फाइ": 7439,
      "बअ": 7440,
      "बह": 7441,
      "बाह्य": 7442,
      "भग": 7443,
      "भै": 7444,
      "भरी": 7445,
      "भवन": 7446,
      "भ० ": 7447,
      "माथ": 7448,
      "यगच": 7449,
      "यस्ता स": 7450,
      "रक्षित": 7451,
      "रोक्त": 7452,
      "रम्परागत": 7453,
      "रम्मत": 7454,
      "सपास": 7455,
      "हस्तान्तरण": 7456,
      "ह रु": 7457,
      "ाएको": 7458,
      "ाअनुसार": 7459,
      "ाहेक": 7460,
      "िआ": 7461,
      "िि": 7462,
      "िन्द": 7463,
      "ीवुट": 7464,
      "ुद्र": 7465,
      "ैत": 7466,
      "ोत्तर": 7467,
      "ौचालय": 7468,
      "्नुका साथै": 7469,
      "।५३": 7470,
      "२००": 7471,
      "३९": 7472,
      "३ लाख": 7473,
      "४)": 7474,
      "४२": 7475,
      "४० प्रतिशत": 7476,
      "६५": 7477,
      "७ करोड": 7478,
      "७५ प्रतिशत": 7479,
      "७ कि.मि.": 7480,
      "९२": 7481,
      "ा छ": 7482,
      "ा नि": 7483,
      "ा : ": 7484,
      "ा नीति": 7485,
      " सरु": 7486,
      " सिम": 7487,
      " ससान": 7488,
      " ससाना ": 7489,
      "को कृषि": 7490,
      "को काम": 7491,
      "को पूर्व": 7492,
      "को वर्तमान": 7493,
      "को विस्तृत": 7494,
      "को पहिचान गरी ": 7495,
      "को प्रभावकारित": 7496,
      " पर्व": 7497,
      " पत्ता ": 7498,
      " गन": 7499,
      " गाह": 7500,
      " गएको": 7501,
      " क्": 7502,
      " कृष": 7503,
      " का लागि": 7504,
      " करीव": 7505,
      " वृत्ति": 7506,
      "नेछ। \r\n": 7507,
      "मा यो": 7508,
      "मा देखि": 7509,
      "मा निर्यात": 7510,
      "मा ठूलो": 7511,
      "मा महत्वपूर्ण": 7512,
      "मा नयाँ": 7513,
      "मा क्रमशः": 7514,
      "मा लाग्ने": 7515,
      "ारात्मक": 7516,
      "को ६": 7517,
      "को हित": 7518,
      "को निर्भर": 7519,
      "रुद्ध": 7520,
      "रुचि": 7521,
      "ालक": 7522,
      " प्रा": 7523,
      " प्रदुषण": 7524,
      " प्रबृत्ति": 7525,
      " रो": 7526,
      " र वन": 7527,
      " र उपयोग": 7528,
      " र संस्थागत": 7529,
      " र गरिबी निवारण": 7530,
      " र अन्तर्राष्टि194्रय": 7531,
      " र सक्षम": 7532,
      " र भरपर्दो": 7533,
      " रेलमार्ग": 7534,
      "हरु ९": 7535,
      "हरु जस्तै": 7536,
      " गराउँदै": 7537,
      "ी यस": 7538,
      "ी उद्योग": 7539,
      "ी ऐन": 7540,
      " ताद": 7541,
      " ती क्षेत्र": 7542,
      " तेल": 7543,
      "निट": 7544,
      "निदान": 7545,
      "न्छ। \r\n": 7546,
      "यो भने": 7547,
      "का अनुसन्धान": 7548,
      "का क्षेत्रमा ": 7549,
      "का उपाय": 7550,
      " अग": 7551,
      " अन्तर्": 7552,
      " अयल": 7553,
      " आद": 7554,
      " आशात": 7555,
      " बन्न": 7556,
      " बृध्दि": 7557,
      "लाई सरल": 7558,
      "लाई सक्रिय": 7559,
      " कार्ययोजन": 7560,
      " कार्यक्षेत्र": 7561,
      " मानी": 7562,
      " मिल्": 7563,
      " क्षेत्रहरुको": 7564,
      " क्षेत्रसँग": 7565,
      "क्षयरोग": 7566,
      "ाउर": 7567,
      "ावर्त": 7568,
      " भुक्त": 7569,
      " नर्सरी": 7570,
      " तथा उ": 7571,
      " तथा निजी क्षेत्र": 7572,
      " तथा जनशक्ति": 7573,
      " तथा व्यवसाय": 7574,
      " तथा माध्यमिक": 7575,
      " विकास ": 7576,
      " विकास क्षेत्र": 7577,
      " विकास हुने": 7578,
      " विकासतर्फ": 7579,
      " विकासको अवधारण": 7580,
      "ायर": 7581,
      "ापि": 7582,
      " व्यावसाय": 7583,
      "विपन्न": 7584,
      " जाँच": 7585,
      "ले प": 7586,
      "लेको ": 7587,
      "ले नेपाल": 7588,
      "ष्ण": 7589,
      "ष्लिप": 7590,
      " गरिने छ।": 7591,
      "194ङख्या": 7592,
      " निर": 7593,
      " नियोग": 7594,
      "न्ते": 7595,
      " गर्नेछ। \r\n": 7596,
      " गर्ने परिपाट": 7597,
      " कार्यक्रम सुरु": 7598,
      "रिट": 7599,
      "ीयरि195ङ्ध": 7600,
      "194ङ्ग विश्व": 7601,
      "194ङ्ग विद्यमान": 7602,
      "194ङ्ग आन्तरिक": 7603,
      "194ङ्ग प्रत्येक": 7604,
      "194ङ्ग अत्यावश्यक": 7605,
      "रुपान्तरण": 7606,
      "रुपान्तर": 7607,
      " लानु": 7608,
      "प्रश्वास": 7609,
      "मा सम्": 7610,
      "मा सुरु": 7611,
      "मा साक्षरता ": 7612,
      "मा सामान्य": 7613,
      " हुंदा ": 7614,
      "एको देखिन्छ। ": 7615,
      "एको थियो। \r\n": 7616,
      "एको भए तापनि": 7617,
      "लागु": 7618,
      " गर्नको लागि": 7619,
      " गर्न एक": 7620,
      "ता अनुरुप": 7621,
      "ता गर्ने": 7622,
      "ता वढ": 7623,
      " व्यवस्थाका लागि": 7624,
      " योजना": 7625,
      " सुध": 7626,
      " सुनियोजित": 7627,
      "बाट व": 7628,
      "बाट समेत": 7629,
      "बाट उत्पादित": 7630,
      "ाग्म": 7631,
      "ागलम": 7632,
      " खो": 7633,
      " खनिज": 7634,
      "गरी आ": 7635,
      " सम्मान": 7636,
      "ालीम": 7637,
      "को साम": 7638,
      "को सन्दर्भ": 7639,
      "को सूच": 7640,
      "को सांस्कृतिक": 7641,
      " पुरु": 7642,
      "ध्यापन": 7643,
      "को अभिवृद्धि": 7644,
      "ामा अ": 7645,
      " गरी देश": 7646,
      " गरी उत्पादकत्व": 7647,
      "िमिट": 7648,
      "िमूलक": 7649,
      "गत रुपमा ": 7650,
      "ा स्पष्ट": 7651,
      "िक्षण": 7652,
      " गरी कृषि": 7653,
      " गरी कार्यक्रम सञ्चालन": 7654,
      "दिय": 7655,
      "ेखदेख": 7656,
      " स्वस्थ्य": 7657,
      " संस्थाबाट": 7658,
      "  घढढ": 7659,
      " व्यवस्था गरी ": 7660,
      " व्यवस्था गर्": 7661,
      " एवं बजार": 7662,
      " एवं विस्तार": 7663,
      " बढ्ने": 7664,
      "ाइनेछ र": 7665,
      " आवश्यकतानुसार": 7666,
      "हरुलाई आवश्यक": 7667,
      "का सरकार": 7668,
      "मानसिक": 7669,
      "अनु194रूप": 7670,
      " नीतिहरुलाई": 7671,
      "स्र्थ्य": 7672,
      "ा अब": 7673,
      " स्थानगत": 7674,
      " २३": 7675,
      " १०००": 7676,
      " १५.": 7677,
      " भएमा ": 7678,
      " भएसम्म": 7679,
      " हुन नदिन": 7680,
      " सिर्जित": 7681,
      " शिक्षाको विकास": 7682,
      "ताअनुरुप": 7683,
      " क्षेत्रमा प्राथमिक": 7684,
      "हरुको भूमिक": 7685,
      " सामञ्जस्य": 7686,
      " वर्षको ": 7687,
      " वर्ष म": 7688,
      " प्रभाव मूल्या195141न": 7689,
      " पनि आवश्यक": 7690,
      "ात्मक रुपमा ": 7691,
      "रीब": 7692,
      "भूसंरक्षण": 7693,
      "ा, ज": 7694,
      "ाजोख": 7695,
      " संरक्षित": 7696,
      " यस योजना अवधिमा ": 7697,
      " ९०": 7698,
      " स्थानीय स्तर": 7699,
      "ुनरावलोकन": 7700,
      "ग्रस्त": 7701,
      " वन क्षेत्रको": 7702,
      " निर्माण गर्न": 7703,
      " निर्माणाधीन": 7704,
      " लक्ष्य हासिल गर्न": 7705,
      " सरकारी एवं": 7706,
      " ग्रिड": 7707,
      " रुपमा प्र": 7708,
      " तालिम, ": 7709,
      " तालिम प्राप्त": 7710,
      " कार्यान्वयनमा ": 7711,
      "देखिनै": 7712,
      " स्रोत व्यवस्थापन": 7713,
      "मा पह": 7714,
      "चार प्रसार": 7715,
      "क्रियालाई": 7716,
      " मूलतः": 7717,
      " या ": 7718,
      " यकिन": 7719,
      " प्रविधिलाई": 7720,
      " गर्दै लैजान": 7721,
      " सुविधा,": 7722,
      " सुविधा प्रदान": 7723,
      " (प्रति": 7724,
      " प्रणालीबाट": 7725,
      "वनस्पति": 7726,
      "मा आय": 7727,
      "मा आ.व. २०": 7728,
      " तथा सम": 7729,
      " तथा साधन": 7730,
      " तथा समुदाय": 7731,
      " परिचालन गरिनेछ। ": 7732,
      " स्थापना गरिनेछ। \r\n": 7733,
      "ीर्घकाल": 7734,
      "तर्फ उन्मुख": 7735,
      "तिक्रमण": 7736,
      "तिकारात्मक": 7737,
      " ग्रामीण विकास": 7738,
      "ल्ड": 7739,
      "ल्लेख्य": 7740,
      " गर्नु आवश्यक": 7741,
      "को रुपमा लिइ": 7742,
      "को रुपमा प्रयोग": 7743,
      "को प्रक्षेपण": 7744,
      "ज्यादै": 7745,
      " बनाउने,": 7746,
      " सुधार गरिनेछ। \r\n": 7747,
      "वाह्य": 7748,
      " गराउने,": 7749,
      " गराउने। \r\n": 7750,
      " गराउने उद्देश्यले": 7751,
      " खर्चलाई": 7752,
      " खर्च कम": 7753,
      "न्वयन": 7754,
      " औष": 7755,
      " औजार": 7756,
      " औपचारिक": 7757,
      "शिक्षित": 7758,
      " राष्टि194्रय तथा अन्तर्राष्टि194्रय": 7759,
      " देशभित्र": 7760,
      " देशको कुल": 7761,
      "किट": 7762,
      "ी आवास": 7763,
      " देखिए": 7764,
      " कुल विकास खर्च": 7765,
      " निकायहरुको": 7766,
      " जिल्लास्तर": 7767,
      " साधनमा ": 7768,
      "को आधारमा स": 7769,
      "मा जम्मा ": 7770,
      " पुगे": 7771,
      " गैर कृषि": 7772,
      "र्तव्य": 7773,
      "श्चात्": 7774,
      " मूल्य स्थिति": 7775,
      " ३७.": 7776,
      " जनशक्ति विकास": 7777,
      "२०५४": 7778,
      " गराउन र": 7779,
      " लिटर": 7780,
      "परिणत": 7781,
      "परिच्छेद": 7782,
      " सेवा कार्यक्रम": 7783,
      " पोस": 7784,
      "कृषि क्षेत्र": 7785,
      "195ङ्ग५३": 7786,
      "नवौं योजनाले": 7787,
      " आधारहरु": 7788,
      " ५६": 7789,
      "खांकन": 7790,
      "ा तरकार": 7791,
      " प्रक्रिया अपन": 7792,
      " ल्याइनेछ। \r\n": 7793,
      "शोधित": 7794,
      " प्रदान गरी ": 7795,
      " समूह गठन": 7796,
      "मा अन्य": 7797,
      " आठौं योजनाले": 7798,
      "उपलब्धि": 7799,
      " अनुगमन गर्न": 7800,
      "मा सुधार ल्याउने": 7801,
      "ी अंश": 7802,
      "ेक्यु": 7803,
      "मा संस्थान": 7804,
      "ी भएका ": 7805,
      " व्यवस्था मिलाउन": 7806,
      " समितिले": 7807,
      " विद्युत्् उत्पादन": 7808,
      "ी बनाइ": 7809,
      "195र्‍ैध": 7810,
      " सीपमूलक": 7811,
      "को बृद्धि": 7812,
      ", कच्च": 7813,
      "ा आवश्यक": 7814,
      "ा आयोजनाहरु": 7815,
      " निर्यात प्रवर्द्धन": 7816,
      " विकास कार्यक्रम :  \r\n": 7817,
      " विदेशी ऋण": 7818,
      " पारित": 7819,
      " वाहेक": 7820,
      "ंचाई": 7821,
      " श्रम बजार": 7822,
      " श्रममूलक": 7823,
      " संलग्नता ": 7824,
      "स्कृत": 7825,
      "शासित": 7826,
      "बतभच": 7827,
      "स्थानीय विकास": 7828,
      "ा बगैंच": 7829,
      " फण्ड": 7830,
      " वैदेशिक रोजगार": 7831,
      " वैदेशिक सहायत": 7832,
      " गरेको पाइ": 7833,
      " जनसंख्यामा ": 7834,
      " मे.टन प्रति हेक्टर": 7835,
      "प्रतिफल": 7836,
      " समयमा ": 7837,
      " समय सापेक्ष": 7838,
      "ंदै आ": 7839,
      "ानुमान": 7840,
      "ानुपातिक": 7841,
      "लक्ष्य अनुसार": 7842,
      "ा कायम": 7843,
      " गरिबी निवारणका लागि": 7844,
      " जनस194ङख्य": 7845,
      " खानेपानी तथा ": 7846,
      "ी.पी.": 7847,
      " विविध पक्ष": 7848,
      " पोषणयुक्त": 7849,
      " शिक्षा : ": 7850,
      " शिक्षा :  \r\n": 7851,
      " मार्फत्": 7852,
      " होइन": 7853,
      " पहाडी क्षेत्रमा ": 7854,
      "८.०": 7855,
      "८.७": 7856,
      "आवश्यक पर्ने": 7857,
      " सघाउने": 7858,
      " भैरहेको ": 7859,
      " भैरहेको": 7860,
      " भैातिक": 7861,
      " र ड": 7862,
      " तथा पर्यटन": 7863,
      " प्राथमिकता प्राप्त": 7864,
      " विषयहरुमा ": 7865,
      "बिस्तार": 7866,
      " नभएको ": 7867,
      "ौगर्भिक": 7868,
      "को समष्टिगत": 7869,
      "को समाधान": 7870,
      " सम्भावनाहरु": 7871,
      " थाल": 7872,
      "७. नीति तथा कार्यनीति \r\n": 7873,
      " पार्क": 7874,
      ", दू": 7875,
      " वार्षिक वृद्धिदर": 7876,
      " वार्षिक औसत": 7877,
      " पुग्नेछ।": 7878,
      " क्षेत्रको विकासको लागि": 7879,
      " किसिमबाट": 7880,
      " अन्तिम": 7881,
      " गर्ने नीति लिइनेछ। \r\n": 7882,
      " इजाजत": 7883,
      " इन्धन": 7884,
      "जन्य उत्पादन": 7885,
      "मा ल्याइ": 7886,
      "मा ल्याउन": 7887,
      " हुन नसक्ने": 7888,
      "मैला": 7889,
      "को अभाव,": 7890,
      " केन्द्रीय तथ्या195141": 7891,
      " पर्यटकहरुलाई": 7892,
      "संग समन्वय": 7893,
      " प्रभावकारी बनाइनेछ। \r\n": 7894,
      " प्राकृतिक सम्पद": 7895,
      "ा खेत": 7896,
      " महिलाहरु": 7897,
      " स्वास्थ्य सेवाको": 7898,
      " स्वदेशी तथा ": 7899,
      "जिल्लास्तरीय": 7900,
      "ता ल्याई": 7901,
      " व्यक्तिलाई": 7902,
      " सकिए": 7903,
      "एको छैन।": 7904,
      "ा सुरु": 7905,
      " तथा मर्मत सम्भार": 7906,
      " रहने अनुमान": 7907,
      " धितोपत्र निष्काशन": 7908,
      " जिम्मेवारी": 7909,
      " निरन्तरता दिइने": 7910,
      " गरिएकोमा ": 7911,
      " दिनसक्ने": 7912,
      " जमिनमा सिँचाइ": 7913,
      "उपचारात्मक": 7914,
      ", धर्म": 7915,
      " बैक": 7916,
      " पद्धतिको विकास": 7917,
      " तुल्याई": 7918,
      " अन्तरसम्बन्ध": 7919,
      "ाको विकास गर्न": 7920,
      " जनसंख्या व्यवस्थापन": 7921,
      "५२।५३": 7922,
      " स्थिर पुँजी": 7923,
      " प्रजनन्": 7924,
      " प्रतिशतले बढ्ने अनुमान": 7925,
      " जीवनयापन": 7926,
      " जडीवुट": 7927,
      " अवलम्वन गरिनेछ। \r\n": 7928,
      " कृषि अनुसन्धान परिषद": 7929,
      " चुनौत": 7930,
      " मार्गदर्शन": 7931,
      " कर्जा कार्यक्रम": 7932,
      "भक०": 7933,
      " समेटेर": 7934,
      "मा वार्षिक": 7935,
      " जनताको स्वास्थ्य": 7936,
      " राष्टि्र्य": 7937,
      "मा प्राथमिकता दिई": 7938,
      "को रुपमा सञ्चालन": 7939,
      "को अन्तिम वर्ष": 7940,
      " सहकारी ": 7941,
      "को प्रमुख स्रोत": 7942,
      " वाणिज्य बैंकहरुको": 7943,
      " डिपो": 7944,
      " सवारी तथा यातायात": 7945,
      "ातर्फ उन्मुख": 7946,
      " भण्डारण": 7947,
      " स्थानीय विकास मन्त्रालय": 7948,
      " सेवाको गुणस्तर": 7949,
      "विदेशी लगान": 7950,
      " जलविद्युत्् आयोजनाह194रू": 7951,
      " प्रभावकारी रुपमा कार्यान्वयन": 7952,
      " सूचक": 7953,
      " तरिकाबाट": 7954,
      " आवागमन": 7955,
      "रीक्षक": 7956,
      " अपेक्षा गर": 7957,
      "उद्यमीहरुलाई": 7958,
      " छात्रवृत्ति": 7959,
      "पश्चिम": 7960,
      " प्रकृय": 7961,
      " उत्तरदायित्व": 7962,
      "194रूपमा ": 7963,
      " नवीकरण": 7964,
      " जनचेतना अभिवृद्धि": 7965,
      " सेवा पु194र्‍याउने": 7966,
      "ग्रहण": 7967,
      "म ष्लिप": 7968,
      " तयगचष्क्क": 7969,
      " समसामयिक": 7970,
      " के.जी.": 7971,
      " हुन नसकेको": 7972,
      "्नु पर्ने": 7973,
      " प्रजननदर": 7974,
      "जनचेतना अभिवृद्धि": 7975,
      " प्रतिशतले वृद्धि भइ": 7976,
      "मा लगानी गर्ने": 7977,
      " मातृत्व": 7978,
      " त्रि.वि.": 7979,
      " ढंगबाट": 7980,
      " कफी": 7981,
      " बाटो निर्माण": 7982,
      " कठिनाइ": 7983,
      " आयोजनाको निर्माण": 7984,
      "ेलिभिजन": 7985,
      "५३195ङ्ग५४ ": 7986,
      " उल्लेखित": 7987,
      "एउट": 7988,
      "पोत": 7989,
      "५९ मा ": 7990,
      "को थालनी भ": 7991,
      " मिटर": 7992,
      " उपायहरु": 7993,
      " धान्न सक्ने": 7994,
      "बदभि": 7995,
      " जनताको जीवनस्तर": 7996,
      " रह्यो। ": 7997,
      "साइँ": 7998,
      " योजनाकालमा ": 7999,
      " तथा सुदृढीकरण": 8000,
      "ा प्रणाली ९": 8001,
      " समष्टिगत आर्थिक स्थायित्व": 8002,
      " अझ बढी": 8003,
      " हिस्स": 8004,
      " राज्यले": 8005,
      " सेवा सुविधाहरु": 8006,
      " असुली": 8007,
      " सवारी साधन": 8008,
      " गरिबीको रेखामुनि रहेको ": 8009,
      "ढल निकास": 8010,
      " वा अन्य": 8011,
      "का दृष्टिबाट": 8012,
      "ावापानी": 8013,
      "निर्देशित": 8014,
      " उपभोक्ता समुह": 8015,
      "धबचम ष्लिप": 8016,
      " तर्जुमा गरी लागू": 8017,
      " खानेपानी आयोजनाहरु": 8018,
      " किनार": 8019,
      " तथा मध्यमस्तरीय": 8020,
      " छात्रवृति": 8021,
      "नसक्नु": 8022,
      " सर्भेक्षण": 8023,
      " पुस्ताका बीउ": 8024,
      "ाह्रै महिन": 8025,
      " भोल्टेज": 8026,
      "िमिटेड": 8027,
      "ेक्युरिट": 8028,
      " केन्द्रीय तथ्या195141 विभाग": 8029,
      "  र": 8030,
      " धन": 8031,
      " ऐतिहासिक": 8032,
      ") मा ": 8033,
      ", \r\n": 8034,
      ", कार्यक्रम": 8035,
      ", व्यवस्थापन": 8036,
      ", साधन": 8037,
      ", लगानी": 8038,
      ", पोषण": 8039,
      ", विद्युत्": 8040,
      ", उत्पादनशील": 8041,
      ", सहायक": 8042,
      ", अनुगमन तथा मूल्यांकन": 8043,
      ", सिंचाइ": 8044,
      ", पुरातात्विक": 8045,
      "ंत्र": 8046,
      "आलु": 8047,
      "आवधिक": 8048,
      "उबत": 8049,
      "उभच": 8050,
      "एता पनि": 8051,
      "एम.ए": 8052,
      "औलो": 8053,
      "कउ": 8054,
      "क्यो": 8055,
      "ख्": 8056,
      "खेती": 8057,
      "गायत": 8058,
      "गर्भ": 8059,
      "घार": 8060,
      "चाहन": 8061,
      "छान": 8062,
      "छाम": 8063,
      "छिमेक": 8064,
      "छोटो": 8065,
      "जुट": 8066,
      "जोड दि": 8067,
      "टे": 8068,
      "टो": 8069,
      "ड्": 8070,
      "डान": 8071,
      "ड्स": 8072,
      "णित": 8073,
      "ती तथा ": 8074,
      "तुलन": 8075,
      "तुलनात्मक": 8076,
      "तेस्रो": 8077,
      "तोकि": 8078,
      "दल": 8079,
      "दातृ संस्थाहरु": 8080,
      "पथ": 8081,
      "पालिका ": 8082,
      "पेक्ष": 8083,
      "प्याथ": 8084,
      "फायत": 8085,
      "बन्दी": 8086,
      "मधुर": 8087,
      "रात": 8088,
      "री आ": 8089,
      "लै": 8090,
      "ल्थ": 8091,
      "वभअत": 8092,
      "शिक": 8093,
      "शारीरिक": 8094,
      "सू": 8095,
      "सन्": 8096,
      "स्या": 8097,
      "सघन": 8098,
      "सञग": 8099,
      "हिर": 8100,
      "हन्छ। ": 8101,
      "हभागी": 8102,
      "हदरवार": 8103,
      "ाहे": 8104,
      "ाखा": 8105,
      "ी साधन": 8106,
      "ुस": 8107,
      "ुस्त": 8108,
      "ूँच": 8109,
      "ृै": 8110,
      "ैदेशिक ब्यापार": 8111,
      "ोचित": 8112,
      "ौतह": 8113,
      "१५०": 8114,
      "२१": 8115,
      "२ कि.मि.": 8116,
      "६)": 8117,
      "६३": 8118,
      "७ लाख": 8119,
      "८ प्रतिशतले": 8120,
      "९५": 8121,
      "ा विस्तार": 8122,
      "र्क": 8123,
      "र्स": 8124,
      "र्मिन": 8125,
      "र्ताको ": 8126,
      " सक्": 8127,
      " सतह": 8128,
      " सतह सिँचाइ": 8129,
      " सचेत": 8130,
      "को वित्तीय": 8131,
      "को केन्द्रीय": 8132,
      "को कार्यालय": 8133,
      "को केह": 8134,
      "को क्षेत्रफल": 8135,
      "को प्रतिवेदन": 8136,
      "को सम्भाव्यता अध्ययन": 8137,
      "्यास": 8138,
      " पेट194्रोलियम": 8139,
      " पौष्टिक": 8140,
      " गाँ": 8141,
      " गम्भीर": 8142,
      " कप": 8143,
      " कब": 8144,
      " कपास": 8145,
      " केवल": 8146,
      " वाह": 8147,
      " वचत": 8148,
      " वहन": 8149,
      "नेट": 8150,
      "मा लगान": 8151,
      "मा गैर": 8152,
      "मा नियमित": 8153,
      "मा रोजगारी": 8154,
      "मा व्यवस्थित": 8155,
      "मा बढी ": 8156,
      "मा न्यूनतम": 8157,
      "मा निकै": 8158,
      "ाराय": 8159,
      "को \r\n": 8160,
      "को जन": 8161,
      "को भावन": 8162,
      "रुक": 8163,
      "ालू": 8164,
      "ालपोत": 8165,
      " प्रेरित": 8166,
      " प्रा195ङ्धारिक": 8167,
      " र र": 8168,
      " र न": 8169,
      " र सञ्चालन": 8170,
      " र स्रोत": 8171,
      " र संरक्षण": 8172,
      " र ४": 8173,
      " र सेवा ": 8174,
      " र भारत": 8175,
      " र विश्लेषण": 8176,
      "हरुमार्फत": 8177,
      "हरुको अनुभव": 8178,
      "लात्मक": 8179,
      " गराएर": 8180,
      "ी नै": 8181,
      "ार्फत": 8182,
      "ासं": 8183,
      "ित गरिनेछ। \r\n": 8184,
      "ितर्फ": 8185,
      "ितान्त": 8186,
      " तट": 8187,
      " तालिक": 8188,
      "छ। नेपाल": 8189,
      "छ। त्यस्तै": 8190,
      "न्ने": 8191,
      "का आवश्यक": 8192,
      "का फलफूल": 8193,
      "का निकाय": 8194,
      "का रुपमा सञ्चालन": 8195,
      " अगु": 8196,
      " अख्तियार": 8197,
      "तिज": 8198,
      " आकार": 8199,
      "त्कृष्ट": 8200,
      "त्खन": 8201,
      " बल": 8202,
      " बृद्ध": 8203,
      "लाई विस्तार": 8204,
      "लाई उपयोग": 8205,
      "लाई व्यापक": 8206,
      "लाई तीव्र": 8207,
      "लाई वाञ्छित": 8208,
      " कार्य गर्न": 8209,
      " कार्यविधि": 8210,
      " कार्यरत": 8211,
      " समाहित": 8212,
      " समझदारी": 8213,
      " समानुपातिक": 8214,
      " मी.": 8215,
      " क्षेत्रवाट": 8216,
      " हरि": 8217,
      " हँु": 8218,
      "ावर": 8219,
      "ावै": 8220,
      " भाा": 8221,
      " नय": 8222,
      " नगर्ने": 8223,
      " नदिई": 8224,
      " दूर": 8225,
      " दबक": 8226,
      " तथा कार्य": 8227,
      " तथा राष्टि194्रय": 8228,
      " तथा विक": 8229,
      " तथा कार्यान्वयन": 8230,
      " तथा विदेश": 8231,
      " तथा शहरी": 8232,
      "योजनावद्ध": 8233,
      " विकास वोर्ड": 8234,
      "ायाम": 8235,
      "ापचारिक": 8236,
      "विधिमा ": 8237,
      "विवाद": 8238,
      " संहित": 8239,
      " संझौ": 8240,
      "ाटन": 8241,
      " जम्मा १": 8242,
      " जारी ": 8243,
      " जलाशय": 8244,
      "ले वृद्धि": 8245,
      "ष्लायच्कबतष्यल": 8246,
      " गरिनेछन्। \r\n": 8247,
      " गरिने छ। \r\n": 8248,
      "्चोक": 8249,
      " निःशुल्क": 8250,
      "न्तगत": 8251,
      " गर्ने गरी ": 8252,
      " गर्ने काम": 8253,
      " गर्ने क्रममा ": 8254,
      "194ङ्ग प्राथमिक": 8255,
      "194ङ्ग स्वास्थ्य": 8256,
      "194ङ्ग शैक्षिक": 8257,
      "194ङ्ग श्री ५ को सरकार": 8258,
      "ाम्र": 8259,
      "ामती": 8260,
      "ाइक": 8261,
      " ल्या": 8262,
      " लिमिटेड": 8263,
      "ेशिन": 8264,
      "मा सामाजिक": 8265,
      "मा सरदर": 8266,
      "एको देखिन्छ।": 8267,
      "एको थियो। यस": 8268,
      " गर्न निजी क्षेत्र": 8269,
      " गर्न प्रोत्साहित गरिनेछ। \r\n": 8270,
      " व्यवस्था": 8271,
      " स्थाय": 8272,
      " सुमधुर": 8273,
      "बाट १": 8274,
      "बाट थप": 8275,
      "बाट संचालित": 8276,
      " प्रतिबद्ध": 8277,
      " एश": 8278,
      "ाहरुका लागि": 8279,
      "ागर": 8280,
      " खु": 8281,
      " खारेज": 8282,
      "मा, ": 8283,
      "हेन्द्र": 8284,
      "हेर्दा ": 8285,
      "को सेवा ": 8286,
      " पुर्न": 8287,
      " पुस्तक": 8288,
      " परिणाम": 8289,
      " परियोजनाअन्तर्गत": 8290,
      " गरी ब": 8291,
      " गरी बजार": 8292,
      "िम्व": 8293,
      " कृषि प्रविधि": 8294,
      " कृषि क्षेत्रको": 8295,
      " कृषिवस्तु": 8296,
      "रुपमा कार्यान्वयन": 8297,
      "ा संक": 8298,
      "ा सूचन": 8299,
      "उपरोक्त": 8300,
      " स्वचालित": 8301,
      " संस्था ": 8302,
      " संस्थाले": 8303,
      " संस्थाको रुपमा ": 8304,
      " सञ्चालन गरि": 8305,
      " सञ्चालन गरी": 8306,
      "ालाई नै": 8307,
      "  ट": 8308,
      "  यस": 8309,
      " उत्पादन क्षेत्र": 8310,
      " उत्पादन हुने": 8311,
      " उत्पादन थलो": 8312,
      ", घ": 8313,
      ", ऋण": 8314,
      ", फूल": 8315,
      " बढ ": 8316,
      " बढी ज": 8317,
      " बढ्न ग": 8318,
      " बढाउंदै": 8319,
      "ाइने छ। ": 8320,
      "हरुको पहिचान गरी ": 8321,
      "हरुलाई समेत": 8322,
      "का सिँचाइ": 8323,
      "मान्य": 8324,
      "ृत्य": 8325,
      "हुउद्देश्यीय": 8326,
      "अनुसूच": 8327,
      "ाको प्रत्याभूति": 8328,
      "युन": 8329,
      "युव": 8330,
      "मुक्त": 8331,
      " नीतिलाई": 8332,
      " नीति अनुरुप": 8333,
      " नीति नियम": 8334,
      " नीति अवलम्बन": 8335,
      "हरुमा प": 8336,
      "स्मिक": 8337,
      " सहमति": 8338,
      "ा परीक्षण": 8339,
      " विद्यु": 8340,
      " २१": 8341,
      " २४.": 8342,
      "ात्म्य": 8343,
      " रहेकाले": 8344,
      " भएता पनि": 8345,
      " हुनजाने": 8346,
      "संगति": 8347,
      "संरचन": 8348,
      " सिद्ध": 8349,
      "ताको आधारमा ": 8350,
      "ताका आधार": 8351,
      " क्षेत्रमा वर्ष": 8352,
      " वर्षदेखि": 8353,
      "नेपाल अधिराज्य": 8354,
      " प्रभाव पर्ने": 8355,
      " प्रभाव पर्न": 8356,
      "रीद": 8357,
      "भूष": 8358,
      "निर्दिष्ट": 8359,
      " केन्द्रहरु": 8360,
      " केन्द्रले": 8361,
      " केन्द्रबाट": 8362,
      " केन्द्रहरुलाई": 8363,
      " यसको": 8364,
      "वांै": 8365,
      " स्थानीयस्तर": 8366,
      " आर्थिक स्रोत": 8367,
      " आर्थिक सामाजिक": 8368,
      " आर्थिक स्थायित्व": 8369,
      " कार्यक्रमहरु ": 8370,
      " महसुस": 8371,
      "ी तथा संस्थागत": 8372,
      " वन क्षेत्रलाई": 8373,
      "ी बि": 8374,
      "ी बजेट": 8375,
      " स्वास्थ्य र": 8376,
      " स्वास्थ्य शिक्ष": 8377,
      " लक्ष्य अनुरुप": 8378,
      "कार्यक्रमहरुमा ": 8379,
      "कार्यक्रम :  \r\n": 8380,
      " कमी,": 8381,
      " कम छ। ": 8382,
      " भएको छ।  \r\n": 8383,
      " भएको छ र": 8384,
      " भएको थियो भने": 8385,
      " भएको अनुमान": 8386,
      " रुपमा कार्यान्वयन": 8387,
      " छलफल": 8388,
      " तालिम दिई": 8389,
      "एका छन्। \r\n": 8390,
      " कार्यान्वयन गर्ने": 8391,
      " कार्यान्वयन गर्न": 8392,
      " कार्यान्वयन गरिनेछ। \r\n": 8393,
      " स्रोतहरु": 8394,
      "ा अवलम्बन": 8395,
      "मा प्रमुख": 8396,
      "मा पर्यटन": 8397,
      " बजार प्रवर्द्धन": 8398,
      " व्यवसायीहरु": 8399,
      "िनै": 8400,
      "िनिक": 8401,
      " मूलक": 8402,
      " मूल्या194ङकन": 8403,
      " यस्ता स": 8404,
      " संरक्षण एवं": 8405,
      "बढ ्": 8406,
      " पहल": 8407,
      " गरिनेछ। स्थानीय": 8408,
      " सुविधालाई": 8409,
      " सुविधा पुग": 8410,
      "ाकन": 8411,
      "ाकृत": 8412,
      " प्रणाली विकास": 8413,
      " प्रणाली सुदृढीकरण": 8414,
      "मा आधार": 8415,
      " तथा सञ्चालन": 8416,
      " तथा सांस्कृतिक": 8417,
      " घन": 8418,
      " करेस": 8419,
      " परिचालन,": 8420,
      " विस्तार गरी ": 8421,
      " स्थापना गरी ": 8422,
      "ेरक": 8423,
      "ेरी ": 8424,
      "नीति र": 8425,
      "नीति एवं": 8426,
      "नीति निर्माण": 8427,
      " विशेष गरी": 8428,
      "तिकरण": 8429,
      " ग्रामीण विकास बैंक": 8430,
      " क्ष्": 8431,
      " दिइनेछ।  \r\n": 8432,
      "सम्म पु194र्‍याउने": 8433,
      "सम्म पु194र्‍याउन": 8434,
      "ण्  \r\n": 8435,
      "मा कम्पन": 8436,
      " रोजगारी ": 8437,
      "195141न": 8438,
      "ुरो": 8439,
      " टद्ध": 8440,
      " टण्": 8441,
      "्क०": 8442,
      "्कूल": 8443,
      "एकरुप": 8444,
      "मा प्रगति": 8445,
      "्तिमा ": 8446,
      " क्रमश": 8447,
      " राष्टि194्रय उत्पादन": 8448,
      " राष्टि194्रय अर्थतन्त्र": 8449,
      " निजी क्षेत्रको ": 8450,
      "पर्व": 8451,
      " किफायत": 8452,
      "ी आयोजनाहरु": 8453,
      " देखिएको छ।": 8454,
      " देखिए तापनि": 8455,
      " हेर्ने": 8456,
      "सँगै": 8457,
      " प्रवर्द्धनात्मक": 8458,
      "ाउँदो": 8459,
      " ४८": 8460,
      " जस्ता कुर": 8461,
      " उच्च आर्थिक वृद्धिदर हासिल": 8462,
      " पुगेको": 8463,
      "ज्ञापन": 8464,
      "छैन। \r\n": 8465,
      "ंगिक": 8466,
      " रहेको देखिन्छ। ": 8467,
      " वस्तु तथा सेव": 8468,
      " सडकहरु": 8469,
      " मूल्य र": 8470,
      " ३५": 8471,
      " बैंक तथा वित्तीय": 8472,
      " पूर्वाधारको विकास": 8473,
      "मूलक उद्योग": 8474,
      "२०५३": 8475,
      "२०५१": 8476,
      "२०४८195ङ्ग४९ को स्थिर": 8477,
      "स्थान विशेष": 8478,
      " लगानी गर्न": 8479,
      " लगानीकोष": 8480,
      " सामाजिक आर्थिक": 8481,
      " दृश्य": 8482,
      " सहयोग पु194र्‍याउन": 8483,
      "परिवर्त्य": 8484,
      " उपलब्ध हुने": 8485,
      " सेवा उपलव्ध": 8486,
      "ांस": 8487,
      " प्राविधिक र": 8488,
      "195ङ्ग५२": 8489,
      " दृष्टिबाट": 8490,
      " विश्वव्याप": 8491,
      " ५५": 8492,
      " वित्तीय संस्थाहरुलाई": 8493,
      " कायम गर्ने": 8494,
      " रहेकोछ। ": 8495,
      " प्रयोग गर्न": 8496,
      "मा अन्त": 8497,
      "मा अनिवार्य": 8498,
      " नवौं योजनाको": 8499,
      " संस्थानलाई": 8500,
      " संस्थानले": 8501,
      " रहिआ": 8502,
      " भइआ": 8503,
      " भइसकेका ": 8504,
      "दुर्घटन": 8505,
      "मा विगत": 8506,
      "ा भुर": 8507,
      " आय भएका ": 8508,
      " आयमा वृद्धि": 8509,
      "मा समय": 8510,
      "उद्योगहरुलाई": 8511,
      " भएकोछ।": 8512,
      " भएको पाइ": 8513,
      "मा संशोधन": 8514,
      " हुन सक्": 8515,
      " हुन सकेको ": 8516,
      "ी भै": 8517,
      "ी भएको": 8518,
      " बीज वृद्धि": 8519,
      " समितिलाई": 8520,
      " विद्युत्् आपूर्ति": 8521,
      " विद्युत्् निर्यात": 8522,
      "ी बनाउने": 8523,
      "आठौं योजनाको": 8524,
      "आठौं योजनाको ": 8525,
      " आपूर्ति गर्ने": 8526,
      "195र्‍ारा रोजगार": 8527,
      "को तुलनात्मक लाभ": 8528,
      " सिर्जना गरी": 8529,
      " सिर्जना हुन": 8530,
      ", साना ": 8531,
      " पारिने": 8532,
      " वढाई": 8533,
      " वढाउने": 8534,
      "मूल्य अभिवृद्धि": 8535,
      " बिषय": 8536,
      " संलग्नता र": 8537,
      " सर्भि": 8538,
      "तामा वृद्धि": 8539,
      " सामग्री उत्पादन": 8540,
      "ा बृद्धि": 8541,
      " लाभ लागत": 8542,
      " फाइ": 8543,
      " फरक": 8544,
      " फिर्ता ": 8545,
      "हुनसक्ने": 8546,
      "भरपर्दो": 8547,
      " प्राथमिकता दिइ": 8548,
      " वैदेशिक सम्पत्ति": 8549,
      "मा १००": 8550,
      " रु. २": 8551,
      "हरुको सामाजिक": 8552,
      "हरुको सिर्जन": 8553,
      " अर्थ मन्त्रालय": 8554,
      "विद्युत्् निर्यात": 8555,
      "मा बजार": 8556,
      " कि.मि. कालोपत्रे": 8557,
      " पोषण समन्वय": 8558,
      " न्यून वित्त": 8559,
      " शिक्षा विकास": 8560,
      " होमियो": 8561,
      " कार्यक्रमहरु सञ्चालन गरिनेछ। ": 8562,
      " कार्यक्रमहरु सञ्चालन गरिनेछ।  \r\n": 8563,
      " सरकारी कार्यालय": 8564,
      " स्थलहरु": 8565,
      " शहरी ": 8566,
      " जिल्ला र": 8567,
      " जिल्ला अस्पताल": 8568,
      " अवधारणालाई": 8569,
      "का आधारभूत": 8570,
      " क्षेत्रको विस्तार": 8571,
      " भैसकेको ": 8572,
      " निम्नलिखित": 8573,
      "छन ्। यस": 8574,
      " प्राथमिकता अनुरुप": 8575,
      " अभिवृद्धि गर्ने": 8576,
      "क्सानी": 8577,
      "६. नीति तथा कार्यनीति \r\n": 8578,
      " विषयमा ": 8579,
      " विषयगत": 8580,
      "छिटो": 8581,
      "स्थलगत": 8582,
      "बिभिन्न": 8583,
      " रोग नियन्त्रण": 8584,
      "सफाई": 8585,
      "को माध्यम195र्‍ारा ": 8586,
      " प्रगति स्थिति": 8587,
      " सम्भावनालाई": 8588,
      "ी खरिद": 8589,
      " थान": 8590,
      "७.०": 8591,
      "को स्थापना,": 8592,
      " बीउ बिजन": 8593,
      "देखिन्छ। यस": 8594,
      "मा जोड दिइनेछ।  \r\n": 8595,
      " पुग्नेछ। ": 8596,
      " क्षेत्रको विकासका लागि": 8597,
      " मौजुदा ": 8598,
      " तथा अध्ययन": 8599,
      "ताको उपयोग": 8600,
      " केन्द्रीय बैंक": 8601,
      "को संभाव्य": 8602,
      " गर्दा प": 8603,
      "संग सम्बन्धित": 8604,
      " भूमिहीन": 8605,
      "ाधारण खर्च": 8606,
      "कारणले": 8607,
      " आयोजना : ": 8608,
      " आयोजना :  \r\n": 8609,
      " पुगेको थियो। ": 8610,
      "भअजल": 8611,
      " प्राथमिकता दिइनेछ। साथै": 8612,
      "को चाहन": 8613,
      "न्यून वित्त": 8614,
[...]
